<unk>	0
<s>	0
</s>	0
్ర	-0
▁ప	-1
▁క	-2
▁స	-3
లో	-4
▁వ	-5
ార	-6
న్	-7
▁మ	-8
ని	-9
్య	-10
ంద	-11
ాల	-12
▁అ	-13
ను	-14
స్	-15
ర్	-16
▁ఉ	-17
▁గ	-18
డి	-19
్రా	-20
ంది	-21
క్	-22
న్న	-23
ాయ	-24
▁ద	-25
లు	-26
ంలో	-27
రి	-28
▁చ	-29
▁ర	-30
ంచ	-31
రు	-32
కు	-33
▁ఆ	-34
▁ప్ర	-35
▁త	-36
ల్	-37
్రామ	-38
▁గ్రామ	-39
గా	-40
డు	-41
త్	-42
ాయి	-43
▁జ	-44
▁బ	-45
టి	-46
▁న	-47
ారు	-48
ట్	-49
తు	-50
▁1	-51
కి	-52
▁వి	-53
▁కి	-54
▁ను	-55
ండి	-56
▁ఉన్న	-57
తి	-58
లి	-59
▁ఇ	-60
▁నుండి	-61
▁సం	-62
▁ల	-63
ండ	-64
ించ	-65
గు	-66
▁మీ	-67
▁ఉన్నాయి	-68
ూర	-69
ాని	-70
టు	-71
ము	-72
ిక	-73
్వ	-74
ాలు	-75
ంత	-76
▁ఉంది	-77
▁దూర	-78
▁శ	-79
పు	-80
ిన	-81
▁గ్రామం	-82
▁దూరంలో	-83
ంగ	-84
ద్	-85
సు	-86
ది	-87
ార్	-88
యు	-89
▁చే	-90
▁భ	-91
్యా	-92
డ్	-93
ంట	-94
ంగా	-95
వు	-96
▁ఈ	-97
త్ర	-98
శాల	-99
మా	-100
ైన	-101
▁ఎ	-102
▁10	-103
ానికి	-104
ారి	-105
వా	-106
దు	-107
ేంద	-108
లా	-109
▁లో	-110
▁ఒ	-111
▁ని	-112
▁పా	-113
తో	-114
▁సమ	-115
రా	-116
క్ష	-117
ప్	-118
▁5	-119
వి	-120
▁వ్య	-121
ేంద్ర	-122
▁గ్రామంలో	-123
ాన	-124
▁రా	-125
డా	-126
▁కేంద్ర	-127
▁ఒక	-128
నే	-129
న్ని	-130
క్క	-131
స్త	-132
ష్	-133
స్తు	-134
▁మరి	-135
ద్య	-136
▁స్	-137
▁సా	-138
ాడు	-139
▁హ	-140
▁మరియు	-141
కర	-142
▁2	-143
బడి	-144
ీప	-145
▁వ్యవ	-146
ోగ	-147
ారా	-148
▁కొ	-149
▁ప్రా	-150
చ్	-151
▁లే	-152
బ్	-153
▁ము	-154
▁పో	-155
వే	-156
స్థ	-157
సి	-158
మ్	-159
▁చె	-160
▁య	-161
▁సమీప	-162
రుగు	-163
▁కేంద్రం	-164
్యం	-165
▁వా	-166
ిల్	-167
నా	-168
చ్చ	-169
▁ఏ	-170
మైన	-171
ుత్	-172
▁కు	-173
▁కూ	-174
▁కా	-175
ందు	-176
త్త	-177
మి	-178
▁మొ	-179
ారం	-180
ెం	-181
▁సౌ	-182
ంగ్	-183
▁కో	-184
ంచి	-185
గి	-186
యం	-187
▁ఫ	-188
ద్ధ	-189
ఖ్య	-190
▁ద్వ	-191
కా	-192
▁సౌకర	-193
ేశ	-194
▁సి	-195
▁కూడా	-196
▁వై	-197
▁ట	-198
▁పై	-199
నీ	-200
బడిన	-201
▁మా	-202
ళ్	-203
▁ద్వారా	-204
యా	-205
్రీ	-206
▁తె	-207
ంప	-208
మిక	-209
▁గు	-210
ట్ట	-211
▁పాఠ	-212
సర	-213
▁ప్రభ	-214
ూర్	-215
తా	-216
ప్ప	-217
▁పాఠశాల	-218
ంటి	-219
ధ్య	-220
▁కళ	-221
▁20	-222
▁సౌకర్యం	-223
లను	-224
▁రో	-225
ీసు	-226
▁చి	-227
జు	-228
▁సర	-229
▁19	-230
ేష	-231
టీ	-232
▁కళా	-233
ద్ద	-234
సాయ	-235
▁పైబడిన	-236
▁ప్రభుత్	-237
▁జిల్	-238
పా	-239
▁పె	-240
▁సంఖ్య	-241
్రి	-242
▁ప్రభుత్వ	-243
హి	-244
ష్ట	-245
త్య	-246
▁నీ	-247
నూ	-248
▁వైద్య	-249
▁కళాశాల	-250
క్కు	-251
▁పు	-252
లలో	-253
▁వ్యవసాయ	-254
▁జిల్లా	-255
దా	-256
క్ట	-257
▁సరఫ	-258
▁నిర్	-259
▁"	-260
తుంది	-261
ంధ	-262
▁కార	-263
తీ	-264
ొక్క	-265
▁పరి	-266
మె	-267
▁పొ	-268
థమిక	-269
యోగ	-270
ాలను	-271
▁స్వ	-272
▁ప్రాథమిక	-273
ాల్	-274
ణా	-275
▁వే	-276
▁భా	-277
యి	-278
▁సామా	-279
▁వీ	-280
హద	-281
భా	-282
▁డి	-283
న్నారు	-284
రణ	-285
▁భార	-286
▁వ్యవస్థ	-287
▁యొక్క	-288
▁మార్	-289
ంటే	-290
ల్ల	-291
▁వె	-292
▁అనే	-293
▁తి	-294
గ్	-295
బా	-296
చి	-297
▁జన	-298
▁రహద	-299
ండ్	-300
▁గ్రామానికి	-301
▁నా	-302
రించ	-303
▁లేదు	-304
న్నాయి	-305
▁రహదారి	-306
▁మొద	-307
లకు	-308
ేక	-309
క్కువ	-310
▁ఇది	-311
స్తుంది	-312
▁ఆర	-313
త్తి	-314
▁శి	-315
ఫీసు	-316
ెట్	-317
ేషన్	-318
ంబ	-319
్యూ	-320
▁సరఫరా	-321
ించి	-322
ణి	-323
ేవ	-324
కీ	-325
డం	-326
▁ఉప	-327
స్ట	-328
భి	-329
▁అని	-330
సం	-331
కొ	-332
తోంది	-333
కో	-334
శు	-335
ధాన	-336
కం	-337
▁స్థ	-338
ళ్ళ	-339
▁మండ	-340
▁సహ	-341
▁t	-342
ోన్	-343
్యాం	-344
▁ష	-345
▁పే	-346
▁స్ట	-347
రకు	-348
పత్ర	-349
▁కలి	-350
▁-	-351
పో	-352
ోగ్య	-353
ద్ధి	-354
▁విద్య	-355
▁3	-356
జిక	-357
▁మండల	-358
కాల	-359
▁జా	-360
ైవే	-361
▁ప్రాంత	-362
▁రాజ	-363
▁కార్య	-364
ంతో	-365
▁ఆరోగ్య	-366
ల్లి	-367
▁అందు	-368
▁ఎక్కువ	-369
క్షణ	-370
▁శా	-371
▁బా	-372
మ్మ	-373
▁ప్రక	-374
▁పి	-375
▁ఇత	-376
ష్ట్ర	-377
ూరు	-378
▁సామాజిక	-379
యన	-380
▁అవ	-381
వాత	-382
▁a	-383
ుకు	-384
స్తారు	-385
రం	-386
న్య	-387
ుల	-388
ాలలో	-389
ప్పు	-390
దేశ	-391
శా	-392
చే	-393
in	-394
ైవేటు	-395
ఫ్	-396
ించిన	-397
▁తన	-398
▁జరుగు	-399
య్య	-400
సిన	-401
▁లోపు	-402
▁ఉత్	-403
నం	-404
హా	-405
▁రాష్ట్ర	-406
తం	-407
జ్	-408
జి	-409
ైల్	-410
▁డ	-411
లీ	-412
▁పర	-413
▁చేయ	-414
▁దీ	-415
రించి	-416
▁ప్రైవేటు	-417
వారి	-418
▁భారత	-419
▁ఆర్	-420
▁కింది	-421
లే	-422
he	-423
ైన్	-424
ందిన	-425
పి	-426
స్సు	-427
మీ	-428
▁రోజు	-429
తీయ	-430
▁అను	-431
కృ	-432
సా	-433
▁సు	-434
వల	-435
▁201	-436
ంటు	-437
▁టె	-438
ల్లో	-439
ప్ర	-440
▁భూ	-441
▁ది	-442
ట్టి	-443
00	-444
▁విద	-445
▁పాటు	-446
జా	-447
▁కాల	-448
▁రూ	-449
పతి	-450
▁మూ	-451
ాలయం	-452
ధిక	-453
ర్శ	-454
▁ఉండ	-455
▁వచ్చ	-456
ండా	-457
లతో	-458
▁యు	-459
▁ధ	-460
్రమ	-461
▁అభి	-462
▁ప్రధాన	-463
▁నే	-464
సరాల	-465
ర్లు	-466
▁బాల	-467
రిగి	-468
జ్య	-469
▁మురుగు	-470
▁గ్ర	-471
రీ	-472
యర్	-473
▁4	-474
▁.	-475
ించారు	-476
మే	-477
▁విద్యా	-478
▁మురుగునీ	-479
▁అత	-480
▁నీరు	-481
▁సిని	-482
లైన	-483
▁కంటే	-484
▁ఆట	-485
ెడ	-486
▁/	-487
▁7	-488
లిక్	-489
▁మి	-490
ధి	-491
▁వారి	-492
▁బి	-493
▁తరు	-494
▁సంస్థ	-495
వులు	-496
యన్	-497
ులు	-498
ల్డ్	-499
గణ	-500
▁పాల	-501
ెన్	-502
రో	-503
▁లా	-504
చు	-505
డానికి	-506
▁ఇతర	-507
వం	-508
▁శ్రీ	-509
▁బ్యాం	-510
▁మే	-511
▁చెందిన	-512
వత్	-513
బ్బ	-514
▁గా	-515
లోను	-516
▁విద్యుత్	-517
బ్లిక్	-518
మో	-519
ట్టు	-520
వృ	-521
on	-522
er	-523
▁వాడ	-524
యిన	-525
వర్	-526
▁తెలు	-527
▁కోడ్	-528
కర్	-529
దే	-530
▁ప్రత్య	-531
▁200	-532
▁బ్యాంకు	-533
డ్డి	-534
ర్థ	-535
ణం	-536
గిన	-537
తున్నాయి	-538
▁ఉన్నారు	-539
పత్రి	-540
▁బస్సు	-541
▁తరువాత	-542
▁రోడ్	-543
▁దీని	-544
గణన	-545
▁టెలి	-546
▁సంవత్	-547
▁పథ	-548
▁జనా	-549
క్షి	-550
▁ఆసు	-551
▁వ్యా	-552
▁జనగణన	-553
▁వాణి	-554
పూర్	-555
ంపు	-556
స్తున్నారు	-557
▁డా	-558
▁ఒకటి	-559
▁అంత	-560
▁ఖ	-561
▁ఆసుపత్రి	-562
▁మార్క	-563
▁పబ్లిక్	-564
ాలి	-565
▁గంట	-566
యో	-567
▁షెడ	-568
▁జనాభా	-569
▁షెడ్యూ	-570
స్టా	-571
▁పథకం	-572
ెండు	-573
ధార	-574
▁ఫోన్	-575
▁లేదా	-576
▁ఆయన	-577
కార	-578
▁సినిమా	-579
▁వాణిజ్య	-580
▁విధ	-581
▁ప్రకారం	-582
▁షెడ్యూల్డ్	-583
జీ	-584
▁వైద్యశాల	-585
▁ప్రతి	-586
క్తి	-587
▁వారం	-588
లోని	-589
▁నగ	-590
ంటుంది	-591
నరు	-592
వృద్ధి	-593
ానం	-594
ుడు	-595
▁ఆఫీసు	-596
▁కోసం	-597
▁కె	-598
▁రెండు	-599
▁స్టేషన్	-600
తే	-601
స్టాఫీసు	-602
▁విస్త	-603
శ్వ	-604
ైద	-605
▁పోస్టాఫీసు	-606
డుగు	-607
పే	-608
▁6	-609
ాలా	-610
చ్చు	-611
▁చూ	-612
టర్	-613
రంగ	-614
▁ఐ	-615
▁గంటల	-616
▁వృ	-617
▁o	-618
▁జీ	-619
ించాడు	-620
▁పట్ట	-621
▁అభివృద్ధి	-622
▁తీ	-623
ంలోని	-624
▁ఇం	-625
▁అమ	-626
ష్ణ	-627
స్త్ర	-628
పై	-629
▁మొదలైన	-630
టిని	-631
▁తా	-632
▁·	-633
ెక్	-634
ంపి	-635
త్తం	-636
స్ట్	-637
▁రె	-638
ంటారు	-639
▁లు	-640
గ్రీ	-641
▁ప్రత్యేక	-642
▁మధ్య	-643
▁దేశ	-644
at	-645
▁అధిక	-646
ద్ర	-647
▁మరణ	-648
ర్మ	-649
▁పేరు	-650
క్టర్లు	-651
▁హె	-652
▁చిత్ర	-653
▁వ్యవసాయానికి	-654
వుల	-655
ప్పటి	-656
డే	-657
▁రోడ్లు	-658
ంథ	-659
లం	-660
ొక	-661
▁పూర్	-662
▁డిగ్రీ	-663
▁గో	-664
▁జూ	-665
గల	-666
డ్డ	-667
ప్పుడు	-668
▁the	-669
షి	-670
▁దా	-671
ర్తి	-672
ారీ	-673
▁పని	-674
హ్	-675
తులు	-676
an	-677
▁ఏర్	-678
కల్	-679
is	-680
▁జాతీయ	-681
re	-682
టుంబ	-683
▁వల	-684
పత్తి	-685
వరి	-686
పాద	-687
▁నుంచి	-688
▁తిరిగి	-689
హార	-690
▁సంఘ	-691
▁చాలా	-692
▁రైల్	-693
బంధ	-694
▁విని	-695
గం	-696
శ్	-697
బడింది	-698
▁s	-699
▁కుటుంబ	-700
▁18	-701
▁గ్రంథ	-702
▁పద	-703
▁ఉపయోగ	-704
▁8	-705
▁అన	-706
▁రైల్వే	-707
▁నె	-708
▁నిర్వ	-709
ట్లు	-710
▁టి	-711
▁కొన్ని	-712
ర్వ	-713
వచ్చు	-714
ౌర	-715
▁వంటి	-716
సే	-717
ar	-718
ట్స్	-719
▁విజ	-720
▁కలిగి	-721
▁కాలు	-722
లోనూ	-723
▁మె	-724
:.	-725
▁సమా	-726
▁విధంగా	-727
▁బో	-728
బో	-729
▁ఓ	-730
కే	-731
▁ఉంటుంది	-732
ాన్ని	-733
ంచిన	-734
రాల	-735
పల్లి	-736
▁సంవత్సర	-737
▁సంత	-738
en	-739
▁సే	-740
ములు	-741
▁వర్	-742
▁క్	-743
▁వస్తు	-744
▁జరుగుతోంది	-745
▁ప్రవ	-746
ించింది	-747
▁సహాయ	-748
▁దు	-749
▁లోని	-750
▁పెద్ద	-751
▁తెలుగు	-752
▁అవు	-753
▁పంపి	-754
గ్ర	-755
▁వు	-756
▁సె	-757
▁వార్	-758
▁చెప్ప	-759
ంత్ర	-760
ేమ	-761
యంలో	-762
ించే	-763
▁గృ	-764
ంటర్	-765
▁అస	-766
▁c	-767
ేందుకు	-768
ెస్	-769
టం	-770
▁ఆమె	-771
మెం	-772
త్యా	-773
▁నీటి	-774
డాది	-775
▁హి	-776
▁వినియోగ	-777
▁ఉత్పత్తి	-778
▁ఏడాది	-779
లవ	-780
కూ	-781
రే	-782
▁అంగ	-783
పంచ	-784
▁సొ	-785
క్కడ	-786
▁తో	-787
▁ఉత్త	-788
సై	-789
it	-790
న్నా	-791
స్తూ	-792
ణీ	-793
▁కృ	-794
▁ప్రజ	-795
కృత	-796
▁అనేక	-797
ములో	-798
ాలకు	-799
▁ప్రారం	-800
▁పట్టణ	-801
▁జరి	-802
వ్వ	-803
కుండా	-804
ణంగా	-805
▁సూ	-806
▁రీ	-807
్యాలు	-808
ంధ్ర	-809
నాయ	-810
ంటాయి	-811
▁అందుతుంది	-812
al	-813
▁రచ	-814
▁బృ	-815
▁పొడుగు	-816
స్ప	-817
తిప	-818
త్తు	-819
▁సైన్	-820
▁పారి	-821
▁ఇంటి	-822
కులు	-823
ందం	-824
▁వరకు	-825
▁అయి	-826
▁బహి	-827
▁పొడుగునా	-828
▁ప్రారంభ	-829
గొ	-830
టింగ్	-831
ాల్లో	-832
▁ఔ	-833
▁చేసి	-834
▁పోష	-835
▁రి	-836
గుల	-837
▁భాష	-838
▁9	-839
▁కుల	-840
▁ముఖ్య	-841
▁ఆడ	-842
▁పోలి	-843
బడు	-844
▁వారు	-845
బి	-846
హిస్తుంది	-847
or	-848
వర	-849
ండు	-850
ాన్	-851
ుని	-852
▁అయిన	-853
న్నాడు	-854
▁ట్రా	-855
గే	-856
▁మంది	-857
న్నత	-858
కర్త	-859
▁p	-860
▁దాని	-861
▁ప్రపంచ	-862
▁భాగ	-863
▁ఇంటర్	-864
▁మహ	-865
▁తీసు	-866
▁తొ	-867
లంగా	-868
▁of	-869
▁నమో	-870
▁రూప	-871
దులు	-872
▁2011	-873
▁మాధ్య	-874
▁వృత్తి	-875
ed	-876
రక్షణ	-877
ీత	-878
▁w	-879
▁పార	-880
es	-881
వాణా	-882
▁'	-883
ార్థ	-884
నిక్	-885
ానీ	-886
▁దే	-887
భ్య	-888
▁బహిరంగ	-889
▁విశ్వ	-890
▁మొదటి	-891
ఫె	-892
్రో	-893
సుకు	-894
▁అండ్	-895
రించే	-896
పాల	-897
▁పార్	-898
ణాం	-899
▁మాత్ర	-900
▁సంబంధ	-901
▁b	-902
▁దేవ	-903
▁జరుగుతుంది	-904
▁శిక్షణ	-905
▁విస్తరించి	-906
ic	-907
▁మగ	-908
నికి	-909
▁సంచ	-910
▁కొరకు	-911
తంగా	-912
▁గణాం	-913
శం	-914
ర్య	-915
▁కం	-916
▁నిర్వహ	-917
బు	-918
▁ప్రవహిస్తుంది	-919
పత్రిక	-920
▁నమోదు	-921
▁రవాణా	-922
▁పరిశ	-923
▁పశు	-924
▁మాధ్యమిక	-925
▁హెక్ట	-926
▁సంగ	-927
క్రమ	-928
తన	-929
పూర్ణ	-930
▁కాలువల	-931
▁పక్క	-932
▁డాక్టర్లు	-933
▁నిమి	-934
▁గుర్తి	-935
▁శు	-936
షధ	-937
దర్శ	-938
ధుల	-939
▁సేక	-940
▁మురుగునీరు	-941
మెంటు	-942
▁స్వయం	-943
రుగుద	-944
▁సంఘం	-945
▁సహకార	-946
▁స్వా	-947
▁పౌర	-948
▁సామాన్య	-949
▁కాగా	-950
నియర్	-951
లవు	-952
డింగ్	-953
▁అత్య	-954
▁in	-955
వాడు	-956
▁	-957
్	-958
ి	-959
ా	-960
ర	-961
ు	-962
న	-963
ం	-964
ల	-965
క	-966
మ	-967
ప	-968
వ	-969
త	-970
ద	-971
స	-972
య	-973
ో	-974
గ	-975
.	-976
డ	-977
ట	-978
ే	-979
చ	-980
ీ	-981
,	-982
ె	-983
బ	-984
ూ	-985
జ	-986
అ	-987
ఉ	-988
శ	-989
ై	-990
ష	-991
ధ	-992
హ	-993
ొ	-994
ణ	-995
1	-996
ఆ	-997
భ	-998
0	-999
థ	-1000
ఇ	-1001
ఫ	-1002
ళ	-1003
5	-1004
e	-1005
2	-1006
a	-1007
ఎ	-1008
ఈ	-1009
ృ	-1010
t	-1011
ఖ	-1012
ఒ	-1013
i	-1014
ౌ	-1015
9	-1016
n	-1017
o	-1018
r	-1019
s	-1020
-	-1021
3	-1022
4	-1023
7	-1024
8	-1025
6	-1026
ఏ	-1027
"	-1028
ఠ	-1029
l	-1030
h	-1031
d	-1032
:	-1033
c	-1034
u	-1035
m	-1036
p	-1037
/	-1038
ఘ	-1039
f	-1040
g	-1041
y	-1042
;	-1043
b	-1044
'	-1045
w	-1046
ఐ	-1047
v	-1048
·	-1049
A	-1050
ఓ	-1051
S	-1052
k	-1053
C	-1054
ఔ	-1055
I	-1056
M	-1057
ఞ	-1058
T	-1059
%	-1060
ఛ	-1061
P	-1062
|	-1063
D	-1064
B	-1065
ఊ	-1066
!	-1067
=	-1068
N	-1069
)	-1070
E	-1071
ఢ	-1072
R	-1073
H	-1074
U	-1075
L	-1076
x	-1077
F	-1078
O	-1079
?	-1080
W	-1081
G	-1082
’	-1083
•	-1084
ః	-1085
V	-1086
j	-1087
‘	-1088
ఋ	-1089
K	-1090
}	-1091
{	-1092
ఁ	-1093
°	-1094
_	-1095
”	-1096
