<unk>	0
<s>	0
</s>	0
్ర	-0
▁ప	-1
▁క	-2
▁స	-3
లో	-4
▁వ	-5
ార	-6
న్	-7
▁మ	-8
ని	-9
్య	-10
ంద	-11
ాల	-12
▁అ	-13
ను	-14
స్	-15
ర్	-16
▁ఉ	-17
▁గ	-18
డి	-19
్రా	-20
ంది	-21
క్	-22
న్న	-23
ాయ	-24
▁ద	-25
లు	-26
ంలో	-27
రి	-28
▁చ	-29
▁ర	-30
ంచ	-31
రు	-32
కు	-33
▁ఆ	-34
▁ప్ర	-35
▁త	-36
ల్	-37
్రామ	-38
▁గ్రామ	-39
గా	-40
డు	-41
త్	-42
ాయి	-43
▁జ	-44
▁బ	-45
టి	-46
▁న	-47
ారు	-48
ట్	-49
తు	-50
▁1	-51
కి	-52
▁వి	-53
▁కి	-54
▁ను	-55
ండి	-56
▁ఉన్న	-57
తి	-58
లి	-59
▁ఇ	-60
▁నుండి	-61
▁సం	-62
▁ల	-63
ండ	-64
ించ	-65
గు	-66
▁మీ	-67
▁ఉన్నాయి	-68
ూర	-69
ాని	-70
టు	-71
ము	-72
ిక	-73
్వ	-74
ాలు	-75
ంత	-76
▁ఉంది	-77
▁దూర	-78
▁శ	-79
పు	-80
ిన	-81
▁గ్రామం	-82
▁దూరంలో	-83
ంగ	-84
ద్	-85
సు	-86
ది	-87
ార్	-88
యు	-89
▁చే	-90
▁భ	-91
్యా	-92
డ్	-93
ంట	-94
ంగా	-95
వు	-96
▁ఈ	-97
త్ర	-98
శాల	-99
మా	-100
ైన	-101
▁ఎ	-102
▁10	-103
ానికి	-104
ారి	-105
వా	-106
దు	-107
ేంద	-108
లా	-109
▁లో	-110
▁ఒ	-111
▁ని	-112
▁పా	-113
తో	-114
▁సమ	-115
రా	-116
క్ష	-117
ప్	-118
▁5	-119
వి	-120
▁వ్య	-121
ేంద్ర	-122
▁గ్రామంలో	-123
ాన	-124
▁రా	-125
డా	-126
▁కేంద్ర	-127
▁ఒక	-128
నే	-129
న్ని	-130
క్క	-131
స్త	-132
ష్	-133
స్తు	-134
▁మరి	-135
ద్య	-136
▁స్	-137
▁సా	-138
ాడు	-139
▁హ	-140
▁మరియు	-141
కర	-142
▁2	-143
బడి	-144
ీప	-145
▁వ్యవ	-146
ోగ	-147
ారా	-148
▁కొ	-149
▁ప్రా	-150
చ్	-151
▁లే	-152
బ్	-153
▁ము	-154
▁పో	-155
వే	-156
స్థ	-157
సి	-158
మ్	-159
▁చె	-160
▁య	-161
▁సమీప	-162
రుగు	-163
▁కేంద్రం	-164
్యం	-165
▁వా	-166
ిల్	-167
నా	-168
చ్చ	-169
▁ఏ	-170
మైన	-171
ుత్	-172
▁కు	-173
▁కూ	-174
▁కా	-175
ందు	-176
త్త	-177
మి	-178
▁మొ	-179
ారం	-180
ెం	-181
▁సౌ	-182
ంగ్	-183
▁కో	-184
ంచి	-185
గి	-186
యం	-187
▁ఫ	-188
ద్ధ	-189
ఖ్య	-190
▁ద్వ	-191
కా	-192
▁సౌకర	-193
ేశ	-194
▁సి	-195
▁కూడా	-196
▁వై	-197
▁ట	-198
▁పై	-199
నీ	-200
బడిన	-201
▁మా	-202
ళ్	-203
▁ద్వారా	-204
యా	-205
్రీ	-206
▁తె	-207
ంప	-208
మిక	-209
▁గు	-210
ట్ట	-211
▁పాఠ	-212
సర	-213
▁ప్రభ	-214
ూర్	-215
తా	-216
ప్ప	-217
▁పాఠశాల	-218
ంటి	-219
ధ్య	-220
▁కళ	-221
▁20	-222
▁సౌకర్యం	-223
లను	-224
▁రో	-225
ీసు	-226
▁చి	-227
జు	-228
▁సర	-229
▁19	-230
ేష	-231
టీ	-232
▁కళా	-233
ద్ద	-234
సాయ	-235
▁పైబడిన	-236
▁ప్రభుత్	-237
▁జిల్	-238
పా	-239
▁పె	-240
▁సంఖ్య	-241
్రి	-242
▁ప్రభుత్వ	-243
హి	-244
ష్ట	-245
త్య	-246
▁నీ	-247
నూ	-248
▁వైద్య	-249
▁కళాశాల	-250
క్కు	-251
▁పు	-252
లలో	-253
▁వ్యవసాయ	-254
▁జిల్లా	-255
దా	-256
క్ట	-257
▁సరఫ	-258
▁నిర్	-259
▁"	-260
తుంది	-261
ంధ	-262
▁కార	-263
తీ	-264
ొక్క	-265
▁పరి	-266
మె	-267
▁పొ	-268
థమిక	-269
యోగ	-270
ాలను	-271
▁స్వ	-272
▁ప్రాథమిక	-273
ాల్	-274
ణా	-275
▁వే	-276
▁భా	-277
యి	-278
▁సామా	-279
▁వీ	-280
హద	-281
భా	-282
▁డి	-283
న్నారు	-284
రణ	-285
▁భార	-286
▁వ్యవస్థ	-287
▁యొక్క	-288
▁మార్	-289
ంటే	-290
ల్ల	-291
▁వె	-292
▁అనే	-293
▁తి	-294
గ్	-295
బా	-296
చి	-297
▁జన	-298
▁రహద	-299
ండ్	-300
▁గ్రామానికి	-301
▁నా	-302
రించ	-303
▁లేదు	-304
న్నాయి	-305
▁రహదారి	-306
▁మొద	-307
లకు	-308
ేక	-309
క్కువ	-310
▁ఇది	-311
స్తుంది	-312
▁ఆర	-313
త్తి	-314
▁శి	-315
ఫీసు	-316
ెట్	-317
ేషన్	-318
ంబ	-319
్యూ	-320
▁సరఫరా	-321
ించి	-322
ణి	-323
ేవ	-324
కీ	-325
డం	-326
▁ఉప	-327
స్ట	-328
భి	-329
▁అని	-330
సం	-331
కొ	-332
తోంది	-333
కో	-334
శు	-335
ధాన	-336
కం	-337
▁స్థ	-338
ళ్ళ	-339
▁మండ	-340
▁సహ	-341
▁t	-342
ోన్	-343
్యాం	-344
▁ష	-345
▁పే	-346
▁స్ట	-347
రకు	-348
పత్ర	-349
▁కలి	-350
▁-	-351
పో	-352
ోగ్య	-353
ద్ధి	-354
▁విద్య	-355
▁3	-356
జిక	-357
▁మండల	-358
కాల	-359
▁జా	-360
ైవే	-361
▁ప్రాంత	-362
▁రాజ	-363
▁కార్య	-364
ంతో	-365
▁ఆరోగ్య	-366
ల్లి	-367
▁అందు	-368
▁ఎక్కువ	-369
క్షణ	-370
▁శా	-371
▁బా	-372
మ్మ	-373
▁ప్రక	-374
▁పి	-375
▁ఇత	-376
ష్ట్ర	-377
ూరు	-378
▁సామాజిక	-379
యన	-380
▁అవ	-381
వాత	-382
▁a	-383
ుకు	-384
స్తారు	-385
రం	-386
న్య	-387
ుల	-388
ాలలో	-389
ప్పు	-390
దేశ	-391
శా	-392
చే	-393
in	-394
ైవేటు	-395
ఫ్	-396
ించిన	-397
▁తన	-398
▁జరుగు	-399
య్య	-400
సిన	-401
▁లోపు	-402
▁ఉత్	-403
నం	-404
హా	-405
▁రాష్ట్ర	-406
తం	-407
జ్	-408
జి	-409
ైల్	-410
▁డ	-411
లీ	-412
▁పర	-413
▁చేయ	-414
▁దీ	-415
రించి	-416
▁ప్రైవేటు	-417
వారి	-418
▁భారత	-419
▁ఆర్	-420
▁కింది	-421
లే	-422
he	-423
ైన్	-424
ందిన	-425
పి	-426
స్సు	-427
మీ	-428
▁రోజు	-429
తీయ	-430
▁అను	-431
కృ	-432
సా	-433
▁సు	-434
వల	-435
▁201	-436
ంటు	-437
▁టె	-438
ల్లో	-439
ప్ర	-440
▁భూ	-441
▁ది	-442
ట్టి	-443
00	-444
▁విద	-445
▁పాటు	-446
జా	-447
▁కాల	-448
▁రూ	-449
పతి	-450
▁మూ	-451
ాలయం	-452
ధిక	-453
ర్శ	-454
▁ఉండ	-455
▁వచ్చ	-456
ండా	-457
లతో	-458
▁యు	-459
▁ధ	-460
్రమ	-461
▁అభి	-462
▁ప్రధాన	-463
▁నే	-464
సరాల	-465
ర్లు	-466
▁బాల	-467
రిగి	-468
జ్య	-469
▁మురుగు	-470
▁గ్ర	-471
రీ	-472
యర్	-473
▁4	-474
▁.	-475
ించారు	-476
మే	-477
▁విద్యా	-478
▁మురుగునీ	-479
▁అత	-480
▁నీరు	-481
▁సిని	-482
లైన	-483
▁కంటే	-484
▁ఆట	-485
ెడ	-486
▁/	-487
▁7	-488
లిక్	-489
▁మి	-490
ధి	-491
▁వారి	-492
▁బి	-493
▁తరు	-494
▁సంస్థ	-495
వులు	-496
యన్	-497
ులు	-498
ల్డ్	-499
గణ	-500
▁పాల	-501
ెన్	-502
రో	-503
▁లా	-504
చు	-505
డానికి	-506
▁ఇతర	-507
వం	-508
▁శ్రీ	-509
▁బ్యాం	-510
▁మే	-511
▁చెందిన	-512
వత్	-513
బ్బ	-514
▁గా	-515
లోను	-516
▁విద్యుత్	-517
బ్లిక్	-518
మో	-519
ట్టు	-520
వృ	-521
on	-522
er	-523
▁వాడ	-524
యిన	-525
వర్	-526
▁తెలు	-527
▁కోడ్	-528
కర్	-529
దే	-530
▁ప్రత్య	-531
▁200	-532
▁బ్యాంకు	-533
డ్డి	-534
ర్థ	-535
ణం	-536
గిన	-537
తున్నాయి	-538
▁ఉన్నారు	-539
పత్రి	-540
▁బస్సు	-541
▁తరువాత	-542
▁రోడ్	-543
▁దీని	-544
గణన	-545
▁టెలి	-546
▁సంవత్	-547
▁పథ	-548
▁జనా	-549
క్షి	-550
▁ఆసు	-551
▁వ్యా	-552
▁జనగణన	-553
▁వాణి	-554
పూర్	-555
ంపు	-556
స్తున్నారు	-557
▁డా	-558
▁ఒకటి	-559
▁అంత	-560
▁ఖ	-561
▁ఆసుపత్రి	-562
▁మార్క	-563
▁పబ్లిక్	-564
ాలి	-565
▁గంట	-566
యో	-567
▁షెడ	-568
▁జనాభా	-569
▁షెడ్యూ	-570
స్టా	-571
▁పథకం	-572
ెండు	-573
ధార	-574
▁ఫోన్	-575
▁లేదా	-576
▁ఆయన	-577
కార	-578
▁సినిమా	-579
▁వాణిజ్య	-580
▁విధ	-581
▁ప్రకారం	-582
▁షెడ్యూల్డ్	-583
జీ	-584
▁వైద్యశాల	-585
▁ప్రతి	-586
క్తి	-587
▁వారం	-588
లోని	-589
▁నగ	-590
ంటుంది	-591
నరు	-592
వృద్ధి	-593
ానం	-594
ుడు	-595
▁ఆఫీసు	-596
▁కోసం	-597
▁కె	-598
▁రెండు	-599
▁స్టేషన్	-600
తే	-601
స్టాఫీసు	-602
▁విస్త	-603
శ్వ	-604
ైద	-605
▁పోస్టాఫీసు	-606
డుగు	-607
పే	-608
▁6	-609
ాలా	-610
చ్చు	-611
▁చూ	-612
టర్	-613
రంగ	-614
▁ఐ	-615
▁గంటల	-616
▁వృ	-617
▁o	-618
▁జీ	-619
ించాడు	-620
▁పట్ట	-621
▁అభివృద్ధి	-622
▁తీ	-623
ంలోని	-624
▁ఇం	-625
▁అమ	-626
ష్ణ	-627
స్త్ర	-628
పై	-629
▁మొదలైన	-630
టిని	-631
▁తా	-632
▁·	-633
ెక్	-634
ంపి	-635
త్తం	-636
స్ట్	-637
▁రె	-638
ంటారు	-639
▁లు	-640
గ్రీ	-641
▁ప్రత్యేక	-642
▁మధ్య	-643
▁దేశ	-644
at	-645
▁అధిక	-646
ద్ర	-647
▁మరణ	-648
ర్మ	-649
▁పేరు	-650
క్టర్లు	-651
▁హె	-652
▁చిత్ర	-653
▁వ్యవసాయానికి	-654
వుల	-655
ప్పటి	-656
డే	-657
▁రోడ్లు	-658
ంథ	-659
లం	-660
ొక	-661
▁పూర్	-662
▁డిగ్రీ	-663
▁గో	-664
▁జూ	-665
గల	-666
డ్డ	-667
ప్పుడు	-668
▁the	-669
షి	-670
▁దా	-671
ర్తి	-672
ారీ	-673
▁పని	-674
హ్	-675
తులు	-676
an	-677
▁ఏర్	-678
కల్	-679
is	-680
▁జాతీయ	-681
re	-682
టుంబ	-683
▁వల	-684
పత్తి	-685
వరి	-686
పాద	-687
▁నుంచి	-688
▁తిరిగి	-689
హార	-690
▁సంఘ	-691
▁చాలా	-692
▁రైల్	-693
బంధ	-694
▁విని	-695
గం	-696
శ్	-697
బడింది	-698
▁s	-699
▁కుటుంబ	-700
▁18	-701
▁గ్రంథ	-702
▁పద	-703
▁ఉపయోగ	-704
▁8	-705
▁అన	-706
▁రైల్వే	-707
▁నె	-708
▁నిర్వ	-709
ట్లు	-710
▁టి	-711
▁కొన్ని	-712
ర్వ	-713
వచ్చు	-714
ౌర	-715
▁వంటి	-716
సే	-717
ar	-718
ట్స్	-719
▁విజ	-720
▁కలిగి	-721
▁కాలు	-722
లోనూ	-723
▁మె	-724
:.	-725
▁సమా	-726
▁విధంగా	-727
▁బో	-728
బో	-729
▁ఓ	-730
కే	-731
▁ఉంటుంది	-732
ాన్ని	-733
ంచిన	-734
రాల	-735
పల్లి	-736
▁సంవత్సర	-737
▁సంత	-738
en	-739
▁సే	-740
ములు	-741
▁వర్	-742
▁క్	-743
▁వస్తు	-744
▁జరుగుతోంది	-745
▁ప్రవ	-746
ించింది	-747
▁సహాయ	-748
▁దు	-749
▁లోని	-750
▁పెద్ద	-751
▁తెలుగు	-752
▁అవు	-753
▁పంపి	-754
గ్ర	-755
▁వు	-756
▁సె	-757
▁వార్	-758
▁చెప్ప	-759
ంత్ర	-760
ేమ	-761
యంలో	-762
ించే	-763
▁గృ	-764
ంటర్	-765
▁అస	-766
▁c	-767
ేందుకు	-768
ెస్	-769
టం	-770
▁ఆమె	-771
మెం	-772
త్యా	-773
▁నీటి	-774
డాది	-775
▁హి	-776
▁వినియోగ	-777
▁ఉత్పత్తి	-778
▁ఏడాది	-779
లవ	-780
కూ	-781
రే	-782
▁అంగ	-783
పంచ	-784
▁సొ	-785
క్కడ	-786
▁తో	-787
▁ఉత్త	-788
సై	-789
it	-790
న్నా	-791
స్తూ	-792
ణీ	-793
▁కృ	-794
▁ప్రజ	-795
కృత	-796
▁అనేక	-797
ములో	-798
ాలకు	-799
▁ప్రారం	-800
▁పట్టణ	-801
▁జరి	-802
వ్వ	-803
కుండా	-804
ణంగా	-805
▁సూ	-806
▁రీ	-807
్యాలు	-808
ంధ్ర	-809
నాయ	-810
ంటాయి	-811
▁అందుతుంది	-812
al	-813
▁రచ	-814
▁బృ	-815
▁పొడుగు	-816
స్ప	-817
తిప	-818
త్తు	-819
▁సైన్	-820
▁పారి	-821
▁ఇంటి	-822
కులు	-823
ందం	-824
▁వరకు	-825
▁అయి	-826
▁బహి	-827
▁పొడుగునా	-828
▁ప్రారంభ	-829
గొ	-830
టింగ్	-831
ాల్లో	-832
▁ఔ	-833
▁చేసి	-834
▁పోష	-835
▁రి	-836
గుల	-837
▁భాష	-838
▁9	-839
▁కుల	-840
▁ముఖ్య	-841
▁ఆడ	-842
▁పోలి	-843
బడు	-844
▁వారు	-845
బి	-846
హిస్తుంది	-847
or	-848
వర	-849
ండు	-850
ాన్	-851
ుని	-852
▁అయిన	-853
న్నాడు	-854
▁ట్రా	-855
గే	-856
▁మంది	-857
న్నత	-858
కర్త	-859
▁p	-860
▁దాని	-861
▁ప్రపంచ	-862
▁భాగ	-863
▁ఇంటర్	-864
▁మహ	-865
▁తీసు	-866
▁తొ	-867
లంగా	-868
▁of	-869
▁నమో	-870
▁రూప	-871
దులు	-872
▁2011	-873
▁మాధ్య	-874
▁వృత్తి	-875
ed	-876
రక్షణ	-877
ీత	-878
▁w	-879
▁పార	-880
es	-881
వాణా	-882
▁'	-883
ార్థ	-884
నిక్	-885
ానీ	-886
▁దే	-887
భ్య	-888
▁బహిరంగ	-889
▁విశ్వ	-890
▁మొదటి	-891
ఫె	-892
్రో	-893
సుకు	-894
▁అండ్	-895
రించే	-896
పాల	-897
▁పార్	-898
ణాం	-899
▁మాత్ర	-900
▁సంబంధ	-901
▁b	-902
▁దేవ	-903
▁జరుగుతుంది	-904
▁శిక్షణ	-905
▁విస్తరించి	-906
ic	-907
▁మగ	-908
నికి	-909
▁సంచ	-910
▁కొరకు	-911
తంగా	-912
▁గణాం	-913
శం	-914
ర్య	-915
▁కం	-916
▁నిర్వహ	-917
బు	-918
▁ప్రవహిస్తుంది	-919
పత్రిక	-920
▁నమోదు	-921
▁రవాణా	-922
▁పరిశ	-923
▁పశు	-924
▁మాధ్యమిక	-925
▁హెక్ట	-926
▁సంగ	-927
క్రమ	-928
తన	-929
పూర్ణ	-930
▁కాలువల	-931
▁పక్క	-932
▁డాక్టర్లు	-933
▁నిమి	-934
▁గుర్తి	-935
▁శు	-936
షధ	-937
దర్శ	-938
ధుల	-939
▁సేక	-940
▁మురుగునీరు	-941
మెంటు	-942
▁స్వయం	-943
రుగుద	-944
▁సంఘం	-945
▁సహకార	-946
▁స్వా	-947
▁పౌర	-948
▁సామాన్య	-949
▁కాగా	-950
నియర్	-951
లవు	-952
డింగ్	-953
▁అత్య	-954
▁in	-955
వాడు	-956
▁దివ	-957
▁కొరి	-958
▁కేంద్రాలు	-959
▁మైద	-960
▁ఔషధ	-961
▁చేసిన	-962
▁మీద	-963
▁చేశ	-964
▁f	-965
ీట	-966
▁వనరు	-967
▁పూ	-968
▁ఉండే	-969
▁సౌకర్యాలు	-970
▁సంక్ష	-971
గ్గ	-972
▁మన	-973
డికల్	-974
వీ	-975
▁సమీ	-976
▁విష	-977
గ్రా	-978
▁నిర్మ	-979
▁సిబ్బ	-980
దీ	-981
▁వార్తా	-982
▁లోను	-983
నెట్	-984
▁బె	-985
మ్నాయ	-986
పడి	-987
▁సొసై	-988
బ్ద	-989
▁సొసైటీ	-990
త్వ	-991
▁శిశు	-992
▁కథ	-993
▁లైన్	-994
త్యామ్నాయ	-995
▁బృందం	-996
ోన్నత	-997
▁వినియోగం	-998
nd	-999
▁కార్యాలయం	-1000
▁సేవా	-1001
ాప	-1002
▁ప్రత్యామ్నాయ	-1003
▁పారా	-1004
▁గణాంకాల	-1005
▁సంపూర్ణ	-1006
▁సై	-1007
▁హెక్టార్	-1008
యత	-1009
▁సైన్స్	-1010
▁ఆటో	-1011
ఫోన్	-1012
▁ప్రాథమికోన్నత	-1013
సీ	-1014
▁కులాల	-1015
బైల్	-1016
▁తర్	-1017
▁,	-1018
▁తిరుగు	-1019
▁m	-1020
ట్ల	-1021
▁కార్	-1022
▁జనన	-1023
కోవ	-1024
▁సంరక్షణ	-1025
▁కార్యకర్త	-1026
మారు	-1027
▁సబ్	-1028
▁ఇంటర్నెట్	-1029
▁కల	-1030
▁తెగల	-1031
▁నిమిత్తం	-1032
ళ్లతో	-1033
▁వార్తాపత్రిక	-1034
పర	-1035
▁సంక్షేమ	-1036
▁సహాయక	-1037
పాదక	-1038
▁బాలల	-1039
▁మేనే	-1040
▁మార్కె	-1041
▁మొబైల్	-1042
▁15	-1043
▁గ్రంథాలయం	-1044
▁అర్	-1045
కరించ	-1046
▁తయ	-1047
▁ఆర్ట్స్	-1048
▁లొక	-1049
టీఎ	-1050
వాహ	-1051
▁పంపిణీ	-1052
టర్ల	-1053
▁సాధ	-1054
▁మార్కెటింగ్	-1055
▁మైదానం	-1056
▁లొకేషన్	-1057
▁ఇంజ	-1058
▁రామ	-1059
▁జనాభాతో	-1060
▁ఆశా	-1061
క్ర	-1062
▁పిన్	-1063
మెడికల్	-1064
▁మగవారి	-1065
▁ఆల	-1066
▁సంచార	-1067
▁యుద్ధ	-1068
▁పారామెడికల్	-1069
▁ఆడవారి	-1070
▁తర	-1071
▁ఆటల	-1072
▁రీడింగ్	-1073
వసరాల	-1074
▁హెక్టార్లలో	-1075
▁సో	-1076
▁మార్కెట్	-1077
▁పోలింగ్	-1078
▁పారిశు	-1079
▁12	-1080
ంద్ర	-1081
▁సరఫరాల	-1082
▁లాండ్	-1083
▁జూనియర్	-1084
▁కిలో	-1085
▁ఇళ్లతో	-1086
్యాస్	-1087
▁చిన్న	-1088
రుగుదొ	-1089
ింది	-1090
▁మాతా	-1091
▁మరుగుదొ	-1092
దల	-1093
▁మరణాల	-1094
▁టెలిఫోన్	-1095
▁అంగన్	-1096
▁వాడీ	-1097
▁పారిశుధ్య	-1098
▁అలో	-1099
▁తెలి	-1100
కరణ	-1101
▁తమ	-1102
స్య	-1103
▁వ్యర్థ	-1104
▁రూం	-1105
▁పోస్ట్	-1106
▁మో	-1107
ion	-1108
రంలో	-1109
ాయిల	-1110
▁ఉత్పాదక	-1111
ంటికీ	-1112
రుగా	-1113
▁గృహా	-1114
▁వద్ద	-1115
కాహార	-1116
మై	-1117
ెక్నిక్	-1118
▁హాలు	-1119
▁కొరియర్	-1120
▁కెఫె	-1121
▁శాస్త్ర	-1122
మాణ	-1123
▁చేస్తున్నారు	-1124
▁ఆంధ్ర	-1125
వన	-1126
సన	-1127
▁గృహావసరాల	-1128
▁పోషకాహార	-1129
▁ముందు	-1130
▁పక్కనే	-1131
▁లి	-1132
సరీ	-1133
మని	-1134
శి	-1135
దాయ	-1136
్యాంగుల	-1137
▁చెత్త	-1138
▁వస్తువులు	-1139
ీటెక్నిక్	-1140
▁కంకర	-1141
▁సేకరించే	-1142
పాటు	-1143
▁బ్ర	-1144
▁పరపతి	-1145
▁అనియత	-1146
▁వ్యర్థాలను	-1147
▁సమీకృత	-1148
▁ఇంటింటికీ	-1149
స్పెన్	-1150
▁బయోగ	-1151
▁బయోగ్యాస్	-1152
▁మరుగుదొడ్డి	-1153
▁అతని	-1154
▁ఏటీఎ	-1155
▁వీధుల	-1156
తూ	-1157
▁దూరం	-1158
రూ	-1159
▁దివ్యాంగుల	-1160
స్పెన్సరీ	-1161
▁ఏటీఎమ్	-1162
▁డిస్పెన్సరీ	-1163
▁అలోపతి	-1164
స్తున్న	-1165
▁పాలీటెక్నిక్	-1166
▁చెత్తను	-1167
గ్రాఫ్	-1168
▁టెలిగ్రాఫ్	-1169
▁పారబో	-1170
తిపంపు	-1171
▁పట్టణమైన	-1172
▁భారతదేశ	-1173
▁పారబోస్తారు	-1174
▁మురుగునీటిని	-1175
▁మేనేజి	-1176
హ్మ	-1177
▁చేతిపంపు	-1178
రువు	-1179
▁ఆఫ్	-1180
ముఖ	-1181
▁కేంద్రమైన	-1182
▁మూడు	-1183
▁దక్షి	-1184
▁మేనేజిమెంటు	-1185
ించు	-1186
ైనా	-1187
▁బాలబడి	-1188
ాలని	-1189
ర్భ	-1190
▁రోజుకు	-1191
le	-1192
▁తర్వాత	-1193
గో	-1194
▁అమలవు	-1195
▁అవసరాల	-1196
రింగ్	-1197
▁వలన	-1198
▁అమలవుతోంది	-1199
▁కిలోమీ	-1200
▁కుళ	-1201
▁అన్న	-1202
తున్న	-1203
త్మ	-1204
చార	-1205
▁సాధార	-1206
బాటు	-1207
▁పాఠశాలలు	-1208
▁శతా	-1209
ర్చ	-1210
▁రే	-1211
ప్పటికీ	-1212
▁ఉంటాయి	-1213
0.	-1214
▁అలా	-1215
▁A	-1216
▁రెండ	-1217
బ్లీ	-1218
జ్ఞ	-1219
▁లక్ష	-1220
టా	-1221
తారు	-1222
▁బ్రి	-1223
▁కుళాయిల	-1224
గ్గు	-1225
▁ఇంజనీ	-1226
వారీ	-1227
▁గొ	-1228
▁న్య	-1229
▁199	-1230
▁వనరుల	-1231
ెంబ్లీ	-1232
▁వరి	-1233
▁యా	-1234
▁బస్సులు	-1235
తాయి	-1236
▁కని	-1237
▁--	-1238
▁అసెంబ్లీ	-1239
స్తాయి	-1240
తుల	-1241
కుడు	-1242
▁వాటి	-1243
్లా	-1244
విధ	-1245
▁దర్శ	-1246
▁అయితే	-1247
▁సంద	-1248
పె	-1249
▁క్రి	-1250
క్టరు	-1251
▁రోజువారీ	-1252
▁కర్	-1253
▁చేతిపంపుల	-1254
▁సామ	-1255
ందని	-1256
▁క్రీ	-1257
▁మహా	-1258
మెరి	-1259
▁కానీ	-1260
క్స్	-1261
▁దూరంలోనూ	-1262
▁పాత్ర	-1263
▁అవుతున్నాయి	-1264
తున్నారు	-1265
as	-1266
ప్రా	-1267
నె	-1268
▁గుండా	-1269
తిక	-1270
ంట్	-1271
వేశ	-1272
▁ఎన్ని	-1273
▁పూర్తి	-1274
▁బు	-1275
▁S	-1276
▁వెళ్ళ	-1277
ou	-1278
బాద్	-1279
▁ఇంజనీరింగ్	-1280
▁విజయ	-1281
▁కొత్త	-1282
టించ	-1283
▁ఘ	-1284
క్త	-1285
▁తే	-1286
▁ప్రదేశ	-1287
▁జన్	-1288
ing	-1289
▁తెలంగా	-1290
▁11	-1291
▁కిలోమీటర్ల	-1292
▁d	-1293
మున	-1294
కాలు	-1295
▁సంస్	-1296
▁కే	-1297
ంగు	-1298
లేదు	-1299
▁ఆధ	-1300
▁ప్రాంతాల	-1301
▁అంది	-1302
ద్దు	-1303
లువ	-1304
ాలయ	-1305
నగ	-1306
▁అమెరి	-1307
▁అది	-1308
బడ్డ	-1309
లై	-1310
మూ	-1311
▁అంటారు	-1312
▁వ్యవసాయం	-1313
▁రై	-1314
▁16	-1315
▁సమయంలో	-1316
▁14	-1317
▁సిబ్బంది	-1318
▁కాని	-1319
త్స	-1320
▁మాన	-1321
▁17	-1322
రిత్ర	-1323
▁ఉద్య	-1324
▁చేస	-1325
▁పనిచే	-1326
▁ఇందు	-1327
▁లేని	-1328
▁ఇద్ద	-1329
▁అన్ని	-1330
ంక	-1331
▁ఎన్నిక	-1332
కొని	-1333
▁తారు	-1334
▁ఇక్కడ	-1335
▁గ్రామాల	-1336
ంజ	-1337
▁ఊ	-1338
▁సము	-1339
ేవారు	-1340
ేశ్వ	-1341
▁క్ర	-1342
ంతి	-1343
▁నియ	-1344
▁గురించి	-1345
లూ	-1346
▁మొదలైనవి	-1347
▁మర	-1348
▁శతాబ్ద	-1349
▁పలు	-1350
▁జీవి	-1351
▁జరిగిన	-1352
గ్రహ	-1353
▁సరి	-1354
▁ఫి	-1355
▁హైద	-1356
ోధ	-1357
▁లేరు	-1358
న్ను	-1359
▁నాయ	-1360
▁దక్షిణ	-1361
్రే	-1362
నలు	-1363
ముల	-1364
▁తీసుకు	-1365
▁కను	-1366
▁నేరుగా	-1367
▁ఇచ్చ	-1368
ల్లె	-1369
ెడ్డి	-1370
ంచు	-1371
రావు	-1372
ీయ	-1373
పురం	-1374
▁మాత్రమే	-1375
మును	-1376
▁పార్టీ	-1377
▁ఆధార	-1378
హు	-1379
▁అధ్య	-1380
బాదు	-1381
▁తెలంగాణ	-1382
▁T	-1383
రుష	-1384
▁ప్రస్తు	-1385
▁నాట	-1386
▁రంగ	-1387
▁ప్రముఖ	-1388
ళ్ళు	-1389
డిగా	-1390
ెల్	-1391
టానికి	-1392
▁to	-1393
▁మొత్తం	-1394
కుల	-1395
వ్	-1396
భాగ	-1397
▁and	-1398
▁13	-1399
▁మండలం	-1400
ారులు	-1401
▁నూ	-1402
క్షిత	-1403
▁వచ్చిన	-1404
▁అతను	-1405
ృష్	-1406
పాడు	-1407
▁అంద	-1408
బరు	-1409
▁నాలు	-1410
▁రాజు	-1411
▁హైదరా	-1412
డంతో	-1413
తలు	-1414
om	-1415
▁అతి	-1416
▁క్ష	-1417
న్స్	-1418
త్రీ	-1419
▁చు	-1420
ండ్రి	-1421
▁కావ	-1422
▁శాల	-1423
▁పొంద	-1424
▁కాలంలో	-1425
▁సీ	-1426
▁I	-1427
▁ఉత్తర	-1428
మార్	-1429
ాలతో	-1430
▁శుద్ధి	-1431
స్వా	-1432
ీటి	-1433
ల్లోకి	-1434
▁ఎస్	-1435
వారు	-1436
ూర్పు	-1437
▁మంచి	-1438
▁రాష్ట్రం	-1439
త్వం	-1440
▁చరిత్ర	-1441
▁మంచిన	-1442
▁తిరుగుతున్నాయి	-1443
రాజు	-1444
▁కొంత	-1445
▁చేసుకు	-1446
▁ఇద్దరు	-1447
▁జన్మ	-1448
వాడ	-1449
▁నగర	-1450
▁నాటి	-1451
1.	-1452
ిల్ల	-1453
▁C	-1454
తిని	-1455
▁హా	-1456
▁ప్రభుత్వం	-1457
▁మంచినీటి	-1458
▁తక్కువ	-1459
▁పురా	-1460
▁ప్రదర్శ	-1461
▁h	-1462
▁:	-1463
ంతు	-1464
ర్ర	-1465
▁యూ	-1466
▁ప్రభా	-1467
000	-1468
శాఖ	-1469
▁రక్షిత	-1470
యే	-1471
ూడ	-1472
▁తూర్పు	-1473
▁వీరి	-1474
ించడం	-1475
▁50	-1476
విద్య	-1477
నో	-1478
▁వార	-1479
▁198	-1480
▁స్థాప	-1481
ాయణ	-1482
▁సాం	-1483
▁లోనూ	-1484
▁విధాన	-1485
▁సాహి	-1486
▁హింద	-1487
▁మండలానికి	-1488
▁కంప	-1489
▁వదులు	-1490
▁భావ	-1491
▁దీనిని	-1492
లక	-1493
▁సర్	-1494
▁బొ	-1495
▁n	-1496
వరణ	-1497
▁పురుష	-1498
▁వల్ల	-1499
మాన	-1500
▁స్థి	-1501
▁ఇలా	-1502
నాడు	-1503
am	-1504
▁స్త్రీ	-1505
▁జి	-1506
▁తయారు	-1507
బాటులో	-1508
తిలో	-1509
▁స్థాన	-1510
▁శక్తి	-1511
ణు	-1512
ముగా	-1513
▁శాసన	-1514
జన	-1515
▁అంతర్	-1516
us	-1517
ర్కొ	-1518
3.	-1519
▁లె	-1520
▁వివిధ	-1521
▁అందుబాటులో	-1522
▁వర	-1523
జన్	-1524
మతి	-1525
▁ఒకరు	-1526
స్తే	-1527
పేట	-1528
▁ట్రాక్టర్లు	-1529
▁వాడేందుకు	-1530
భవ	-1531
తంత్ర	-1532
▁చేశారు	-1533
2.	-1534
త్రి	-1535
వంత	-1536
▁ఆర్థ	-1537
రుకు	-1538
▁గల	-1539
▁ఇవి	-1540
రిగింది	-1541
▁విడు	-1542
▁197	-1543
వాద	-1544
▁సభ్య	-1545
▁కొన	-1546
il	-1547
▁పాట	-1548
▁వదులుతున్నారు	-1549
▁ఇందులో	-1550
గ్రామ	-1551
▁సేవ	-1552
ాయు	-1553
కీయ	-1554
ంత్రి	-1555
ళ్ల	-1556
▁జలవ	-1557
▁వ్యాప	-1558
▁వ్రా	-1559
దని	-1560
▁జలవనరు	-1561
ాలుగా	-1562
▁సంగీత	-1563
బ్ర	-1564
స్థి	-1565
ంచే	-1566
▁జలవనరుల్లోకి	-1567
▁కలిగిన	-1568
▁వెం	-1569
యత్	-1570
ీన	-1571
టకు	-1572
ోర్	-1573
▁ముగ్గు	-1574
▁కచ్చ	-1575
▁చేసే	-1576
▁ప్రవేశ	-1577
లుగా	-1578
▁అం	-1579
▁బోరు	-1580
▁ధర్మ	-1581
▁పరిశోధ	-1582
▁రు	-1583
▁రెండవ	-1584
ెర్	-1585
్యు	-1586
బడ	-1587
▁తిరు	-1588
▁కల్	-1589
సారి	-1590
లుగు	-1591
▁అనేది	-1592
▁తు	-1593
తమైన	-1594
▁దేశాల	-1595
▁నాగ	-1596
▁M	-1597
▁అవసర	-1598
▁వాడు	-1599
శ్చి	-1600
త్మక	-1601
▁ఆర్థిక	-1602
బర్	-1603
వ్య	-1604
▁వ్యక్తి	-1605
5.	-1606
▁ప్లా	-1607
▁పర్వ	-1608
టో	-1609
▁వీటి	-1610
▁నార	-1611
బడుతుంది	-1612
▁195	-1613
ent	-1614
ద్వ	-1615
రస్	-1616
▁196	-1617
4.	-1618
పట్	-1619
పరి	-1620
టన	-1621
▁నాలుగు	-1622
▁కారణంగా	-1623
▁మొక్క	-1624
వాస	-1625
డవ	-1626
సింది	-1627
▁రాజకీయ	-1628
ంచారు	-1629
బడ్డాయి	-1630
▁హో	-1631
▁ప్రసి	-1632
▁పత్ర	-1633
రిక	-1634
▁ఒక్క	-1635
▁ఏర్పాటు	-1636
▁ఛ	-1637
▁ప్రజలు	-1638
▁సంవత్సరాల	-1639
బీ	-1640
▁అనుస	-1641
6.	-1642
వై	-1643
▁మై	-1644
▁స్ప	-1645
ంచింది	-1646
▁194	-1647
▁కొనసా	-1648
▁ముగ్గురు	-1649
7.	-1650
▁కృష్ణ	-1651
▁సంవత్సరం	-1652
▁బోరుబా	-1653
సభ	-1654
▁కవి	-1655
▁అదే	-1656
డిన	-1657
▁పద్ధ	-1658
▁కార్యక్రమ	-1659
లె	-1660
న్నది	-1661
▁మత	-1662
ధు	-1663
▁సముద్ర	-1664
▁గ్రామము	-1665
▁భూమి	-1666
▁పీ	-1667
▁వీరు	-1668
▁అవి	-1669
స్తాడు	-1670
పద	-1671
▁చా	-1672
▁అమెరికా	-1673
▁విశ్వవిద్య	-1674
▁పాల్	-1675
క్కి	-1676
ికా	-1677
,000	-1678
లోకి	-1679
యింది	-1680
ించబడింది	-1681
టె	-1682
▁ఎక్కువగా	-1683
▁వెంక	-1684
▁కీ	-1685
మంది	-1686
▁పుస్త	-1687
▁చేసింది	-1688
▁సూర	-1689
లియన్	-1690
స్టు	-1691
▁కాంగ	-1692
▁సాధారణంగా	-1693
▁అంటే	-1694
▁పంచ	-1695
▁తల్లి	-1696
లాండ్	-1697
▁పశ్చి	-1698
ad	-1699
▁బయ	-1700
▁గి	-1701
▁విశాఖ	-1702
▁ప్రయత్	-1703
▁సిద్ధ	-1704
▁లేక	-1705
▁అమ్మ	-1706
▁బీ	-1707
▁జరిగింది	-1708
8.	-1709
స్తా	-1710
-1	-1711
▁హైదరాబాదు	-1712
▁దగ్గ	-1713
▁అత్యంత	-1714
పడ	-1715
▁l	-1716
▁తండ్రి	-1717
షన్	-1718
▁బహు	-1719
్రియ	-1720
▁స్థాయి	-1721
్రె	-1722
▁కేంద్రంలో	-1723
ro	-1724
▁తొలి	-1725
▁సర్వ	-1726
త్రా	-1727
9.	-1728
▁మహి	-1729
యాన్ని	-1730
▁ఎదు	-1731
▁రాయ	-1732
▁తప్ప	-1733
ించడానికి	-1734
▁నిర్మాణ	-1735
నల్	-1736
▁బావుల	-1737
గిలి	-1738
▁0	-1739
▁భారతీయ	-1740
▁57	-1741
డికి	-1742
▁మార్గ	-1743
▁25	-1744
శాస్త్ర	-1745
కాశం	-1746
ద్రా	-1747
ర్చు	-1748
el	-1749
▁పిల్ల	-1750
తల	-1751
మయ్య	-1752
▁ఉదా	-1753
▁నివ	-1754
▁బహిరంగంగా	-1755
▁అనంత	-1756
▁మండలంలోని	-1757
దన	-1758
పూ	-1759
థి	-1760
జే	-1761
వె	-1762
తను	-1763
ీకరించ	-1764
డైన	-1765
మొ	-1766
▁B	-1767
మం	-1768
ృష్టి	-1769
్యాన్ని	-1770
▁హై	-1771
కార్	-1772
ంటూ	-1773
రియా	-1774
పడు	-1775
గిరి	-1776
▁నగర్	-1777
ధా	-1778
లన	-1779
▁సంప్ర	-1780
ac	-1781
▁లభి	-1782
▁పరిధి	-1783
ంలోను	-1784
▁దుకా	-1785
▁e	-1786
పొ	-1787
▁అప్పటి	-1788
▁g	-1789
▁ప్రయా	-1790
య్యా	-1791
▁ప్రాంతంలో	-1792
▁వచ్చింది	-1793
▁సుమారు	-1794
చ్చి	-1795
▁అలాగే	-1796
▁ప్రస్తుతం	-1797
▁చట్ట	-1798
కుని	-1799
తె	-1800
▁గె	-1801
▁డాక్టరు	-1802
▁బోరుబావుల	-1803
▁విశాఖపట్	-1804
▁P	-1805
▁విషయ	-1806
వంటి	-1807
ళి	-1808
ల్లు	-1809
▁కచ్చా	-1810
▁క్రమ	-1811
▁బ్రా	-1812
్మ	-1813
▁లోకి	-1814
నిక	-1815
▁వ్యతి	-1816
నాలు	-1817
డిని	-1818
▁మూల	-1819
ur	-1820
▁సందర్భ	-1821
నై	-1822
▁స్వామి	-1823
ట్లా	-1824
▁నవ	-1825
ద్ది	-1826
▁తెలియ	-1827
▁లభ	-1828
st	-1829
▁చివరి	-1830
దాపు	-1831
వ్ర	-1832
▁కుమారు	-1833
సర్	-1834
▁కాక	-1835
ండే	-1836
ష్ఠ	-1837
▁కన్నా	-1838
షణ	-1839
మన్	-1840
ెట్టి	-1841
ల్లా	-1842
ేశ్వర	-1843
ంభ	-1844
పోయ	-1845
▁అర	-1846
▁అక్కడ	-1847
▁30	-1848
టక	-1849
ానిక	-1850
▁ప్రాంతం	-1851
▁అనగా	-1852
▁పెట్ట	-1853
హరణ	-1854
▁కాకుండా	-1855
▁పేర్కొ	-1856
లిం	-1857
▁భీ	-1858
▁కలిసి	-1859
▁చో	-1860
కారు	-1861
▁అల	-1862
▁నై	-1863
డియో	-1864
▁పోతోంది	-1865
▁నెల	-1866
▁ద్ర	-1867
▁వున్న	-1868
ెంట్	-1869
పుడు	-1870
▁న్యూ	-1871
▁వివాహ	-1872
▁రచయి	-1873
ించుకు	-1874
▁దశ	-1875
▁th	-1876
▁మహిళ	-1877
▁అర్థ	-1878
శీ	-1879
▁శివ	-1880
ందింది	-1881
▁అయ్య	-1882
▁ఇండి	-1883
▁ఇవ్వ	-1884
▁పోటీ	-1885
▁దొ	-1886
▁ఆది	-1887
et	-1888
జాతీయ	-1889
▁విభ	-1890
తర	-1891
▁ఇంకా	-1892
▁బల	-1893
▁వేరు	-1894
నులు	-1895
▁గృహ	-1896
▁నర	-1897
పురంలో	-1898
▁దాదాపు	-1899
▁కొండ	-1900
ri	-1901
్లో	-1902
▁నిర్ణ	-1903
▁చేసు	-1904
▁ముస్	-1905
గునీ	-1906
▁బాగా	-1907
▁హిందూ	-1908
చె	-1909
▁మట్టి	-1910
▁యూని	-1911
▁పశ్చిమ	-1912
డీ	-1913
▁193	-1914
చన	-1915
తాడు	-1916
▁ఫలి	-1917
▁U	-1918
▁ఉపయోగి	-1919
ల్లూరు	-1920
మ్ము	-1921
▁సామ్రా	-1922
న్నీ	-1923
ation	-1924
▁అధికార	-1925
వుడు	-1926
▁చిత్రం	-1927
▁చూడ	-1928
ార్లు	-1929
▁కాదు	-1930
▁నిర్మా	-1931
పోవ	-1932
ol	-1933
హం	-1934
ారెడ్డి	-1935
▁ప్రచు	-1936
▁వారికి	-1937
చేశ	-1938
ణ్య	-1939
ష్య	-1940
త్యం	-1941
ాంత	-1942
టువంటి	-1943
▁వ్యాస	-1944
▁ప్రజా	-1945
ంగి	-1946
ాం	-1947
ెను	-1948
తికి	-1949
▁ప్రదేశ్	-1950
▁చేప	-1951
▁నది	-1952
క్కల	-1953
వాన్ని	-1954
▁ఈయన	-1955
▁దీనికి	-1956
చ్ఛ	-1957
▁చైనా	-1958
▁ఉద	-1959
టన్	-1960
▁వచ్చి	-1961
ారావు	-1962
త్రం	-1963
▁న్యాయ	-1964
ంలోనూ	-1965
▁పాల్గొ	-1966
దారు	-1967
నర్	-1968
కొండ	-1969
ఫి	-1970
▁చంద్ర	-1971
చిన	-1972
ెంబరు	-1973
▁ముఖ్యమైన	-1974
▁పేరుతో	-1975
కాశ	-1976
20	-1977
▁సంప్రదాయ	-1978
▁శాఖ	-1979
▁ఉదాహరణ	-1980
ారాన్ని	-1981
▁జీవిత	-1982
ot	-1983
ల్స్	-1984
ధాని	-1985
కృష్ణ	-1986
రించిన	-1987
▁మిగిలి	-1988
▁గుంట	-1989
ణాలు	-1990
▁58	-1991
▁జీవ	-1992
▁•	-1993
▁బ్రిటి	-1994
▁మరో	-1995
▁కనిప	-1996
ేట్	-1997
▁2001	-1998
▁వయ	-1999
▁నిలి	-2000
పం	-2001
▁ఎన్	-2002
▁కాలం	-2003
▁ఏర్పడి	-2004
▁రూపొ	-2005
ొన్న	-2006
పెట్ట	-2007
షా	-2008
▁వెంకట	-2009
షు	-2010
▁సినిమ	-2011
కారం	-2012
గూడ	-2013
▁రావ	-2014
▁తీవ్ర	-2015
▁బౌ	-2016
స్వామి	-2017
ంపై	-2018
▁సంబంధించిన	-2019
పల్లిలో	-2020
▁విడుదల	-2021
▁53	-2022
▁గుర్తించ	-2023
▁చెరువు	-2024
నియా	-2025
▁వచ్చే	-2026
▁అంతర్జాతీయ	-2027
▁పరిస్థి	-2028
పల్లె	-2029
▁అధ్యక్ష	-2030
మిళ	-2031
▁రాజ్య	-2032
కల	-2033
్రెస్	-2034
ారని	-2035
▁ఎత్తు	-2036
▁మారి	-2037
యోజ	-2038
ay	-2039
ర్ల	-2040
▁పాకి	-2041
▁బ్రహ్మ	-2042
▁ఇంగ్	-2043
▁H	-2044
▁ప్రస	-2045
▁సాహిత్య	-2046
ట్టిన	-2047
▁సంస్కృ	-2048
▁తాగునీ	-2049
బూ	-2050
రేక	-2051
దం	-2052
▁శరీ	-2053
▁ఆలయ	-2054
▁విశ	-2055
▁చేశాడు	-2056
▁ప్లాంట్	-2057
▁మురుగునీటి	-2058
▁శాసనసభ	-2059
వేత్త	-2060
ారుదల	-2061
దేశ్	-2062
▁లభిస్తుంది	-2063
జం	-2064
▁దగ్గర	-2065
▁విద్యార్థ	-2066
రికి	-2067
లుపు	-2068
డో	-2069
సియా	-2070
▁అక్ష	-2071
▁సమస్య	-2072
▁కేవ	-2073
▁is	-2074
▁రైలు	-2075
▁=	-2076
కన్	-2077
డని	-2078
పోయిన	-2079
దిక	-2080
▁తమిళ	-2081
టెడ్	-2082
రగ	-2083
సన్	-2084
▁మార్పు	-2085
▁పత్రిక	-2086
▁తల	-2087
▁జో	-2088
▁మరొక	-2089
▁వహ	-2090
▁కమ	-2091
▁గుంటూరు	-2092
ంతా	-2093
ందీ	-2094
రులు	-2095
సె	-2096
▁24	-2097
▁గణ	-2098
క్య	-2099
▁కనిపి	-2100
▁ఒకే	-2101
▁పరీ	-2102
▁కాంగ్రెస్	-2103
చుకు	-2104
▁ఉష్ణ	-2105
▁భక్	-2106
▁మాత్రం	-2107
▁భాగంగా	-2108
▁నటి	-2109
ఖ్యా	-2110
▁ఐదు	-2111
న్నో	-2112
▁21	-2113
▁ఆంగ్	-2114
పీ	-2115
▁చక్ర	-2116
గానే	-2117
▁మార	-2118
ినీ	-2119
▁జిల్లాలో	-2120
im	-2121
▁be	-2122
▁గొప్ప	-2123
▁అభ్య	-2124
ష్ణా	-2125
నగర్	-2126
▁పదార్థ	-2127
▁చదు	-2128
ul	-2129
▁మాట	-2130
▁or	-2131
నది	-2132
ోత్స	-2133
▁59	-2134
▁సాధారణ	-2135
క్టో	-2136
▁కౌ	-2137
▁చర్య	-2138
▁నివాస	-2139
ళం	-2140
▁భావి	-2141
శ్చ	-2142
వరకు	-2143
స్తాన్	-2144
▁అడ	-2145
▁చెయ్య	-2146
▁ప్రే	-2147
▁పండి	-2148
స్టి	-2149
▁నో	-2150
▁గాంధ	-2151
▁N	-2152
▁re	-2153
▁0.	-2154
▁1,	-2155
దావరి	-2156
ut	-2157
▁అందుకు	-2158
మైంది	-2159
▁పారుదల	-2160
లోనే	-2161
▁ట్రాక్టరు	-2162
id	-2163
మూర్	-2164
స్తున్నాయి	-2165
▁వ్యతిరేక	-2166
ించాయి	-2167
వ్యా	-2168
4,	-2169
నకు	-2170
▁పంపిస్తున్నారు	-2171
▁అక్క	-2172
▁యుద్ధం	-2173
▁రూపొంది	-2174
▁నిజా	-2175
భూ	-2176
▁D	-2177
మునకు	-2178
దో	-2179
వరం	-2180
▁వాయు	-2181
▁రంగు	-2182
od	-2183
ag	-2184
▁పొందిన	-2185
గ్రామంలో	-2186
5,	-2187
▁థ	-2188
ువు	-2189
▁ఉండేది	-2190
రాలు	-2191
ర్ణ	-2192
ాయని	-2193
▁భార్య	-2194
ళ్లు	-2195
▁‘	-2196
▁పురుషుల	-2197
▁W	-2198
▁నారాయణ	-2199
ct	-2200
▁చది	-2201
ునిక	-2202
ist	-2203
▁జె	-2204
7,	-2205
టే	-2206
జర్	-2207
▁స్థిర	-2208
▁అత్యధిక	-2209
▁పోరా	-2210
లిక	-2211
బడే	-2212
▁కనుక	-2213
ండ్ర	-2214
▁వాటిని	-2215
ధం	-2216
▁లోపే	-2217
▁!	-2218
▁R	-2219
ఫ్ర	-2220
▁కాలే	-2221
ర్చి	-2222
స్లా	-2223
నుండి	-2224
▁నగరం	-2225
్యాల	-2226
ములను	-2227
▁వైపు	-2228
▁సూచ	-2229
మైనది	-2230
తులను	-2231
▁ప్రత్తి	-2232
▁ప్రజల	-2233
▁సార	-2234
నాన్ని	-2235
▁పర్యా	-2236
▁ఇక్క	-2237
▁షా	-2238
తులకు	-2239
▁ఈమె	-2240
▁అడుగు	-2241
▁మందు	-2242
▁సరిహ	-2243
తాన్ని	-2244
▁ఆన	-2245
▁22	-2246
▁ఎలా	-2247
ంటాడు	-2248
▁చేయడం	-2249
▁సూర్య	-2250
▁నెల్లూరు	-2251
▁23	-2252
▁కంపె	-2253
▁పరిశ్రమ	-2254
ప్ట	-2255
లగ	-2256
▁ఆల్	-2257
శ్ర	-2258
వతి	-2259
సిక	-2260
▁కేవలం	-2261
▁మరింత	-2262
▁ఒప్ప	-2263
▁దో	-2264
▁బే	-2265
▁నాటికి	-2266
▁చీ	-2267
▁దృ	-2268
▁పురస్	-2269
▁ఆగ	-2270
▁కారణ	-2271
రుడు	-2272
▁for	-2273
▁శాలలో	-2274
ోగ్ర	-2275
గ్ని	-2276
కాలం	-2277
▁లను	-2278
▁The	-2279
▁మిగిలిన	-2280
ేషను	-2281
▁తాను	-2282
భాగం	-2283
▁ఎం	-2284
ందే	-2285
సో	-2286
▁కంపెనీ	-2287
▁ముస్లిం	-2288
▁జల	-2289
▁మార్చి	-2290
▁లీ	-2291
ఫీ	-2292
10	-2293
▁పడ	-2294
▁k	-2295
రోడ్	-2296
▁గోదావరి	-2297
▁రాజధాని	-2298
▁లై	-2299
ళిక	-2300
▁విజయవాడ	-2301
పోయింది	-2302
▁నక్ష	-2303
▁v	-2304
▁వర్ణ	-2305
▁ఏక	-2306
▁పరీక్ష	-2307
రుపు	-2308
▁కృష్ణా	-2309
▁ప్రొ	-2310
6,	-2311
నాథ	-2312
▁వం	-2313
్ఞ	-2314
▁పంప	-2315
▁దారి	-2316
రె	-2317
▁కోట	-2318
▁వాతా	-2319
ండును	-2320
iv	-2321
▁ఫ్రా	-2322
య్యాడు	-2323
▁ప్రమా	-2324
▁ఉన్నత	-2325
▁లలో	-2326
▁ముఖ్యంగా	-2327
▁వర్గ	-2328
▁భాగం	-2329
ia	-2330
▁కాలువ	-2331
3,	-2332
▁అంచ	-2333
ట్లో	-2334
రై	-2335
▁ఉండి	-2336
▁ఈనాడు	-2337
నాటి	-2338
ర్స్	-2339
▁ఆధునిక	-2340
ముడు	-2341
ra	-2342
▁టా	-2343
▁ఎన్నో	-2344
ంచాడు	-2345
రూప	-2346
▁సభ	-2347
▁బ్రిటిష్	-2348
▁మొట్ట	-2349
▁ఆధారంగా	-2350
▁నియమ	-2351
▁రచయిత	-2352
ప్రదేశ్	-2353
▁గ్రా	-2354
▁రసాయ	-2355
▁గుర్తింపు	-2356
▁సౌకర్యాలున్నాయి	-2357
▁కన	-2358
డుకు	-2359
మొద	-2360
▁ఆలయం	-2361
నుడు	-2362
▁దేశం	-2363
▁దర్శక	-2364
▁జ్ఞ	-2365
▁G	-2366
▁నేను	-2367
ానా	-2368
ch	-2369
▁పౌ	-2370
▁డె	-2371
చార్య	-2372
గాన్ని	-2373
▁స్థానిక	-2374
▁ఋ	-2375
▁మట్టిరోడ్	-2376
▁ఆరు	-2377
▁రచన	-2378
బన్	-2379
▁మట్టిరోడ్లూ	-2380
▁చేయని	-2381
▁దుకాణం	-2382
▁మాట్లా	-2383
▁విశాఖపట్నం	-2384
em	-2385
వర్తి	-2386
▁అధికంగా	-2387
ow	-2388
రియ	-2389
కంటే	-2390
▁జూలై	-2391
▁పెట్టు	-2392
▁1.	-2393
▁వ్యాపార	-2394
ాయ్	-2395
ంగం	-2396
▁దేశంలో	-2397
▁వెంట	-2398
ళ్ళి	-2399
డాడు	-2400
▁చదువు	-2401
▁విమ	-2402
▁స్థానంలో	-2403
▁తాగునీరు	-2404
▁లక్షణ	-2405
▁శ్రీకా	-2406
ంహ	-2407
▁40	-2408
తుడు	-2409
యోజక	-2410
▁పూజ	-2411
▁పోతున్నాయి	-2412
వలసిన	-2413
▁వివ	-2414
▁పంట	-2415
▁దానిని	-2416
▁కొంద	-2417
ేట	-2418
కాలంలో	-2419
గర్	-2420
▁ఇన్	-2421
▁భారతదేశంలో	-2422
▁స్వాతంత్ర	-2423
▁సత్య	-2424
▁చూప	-2425
పర్	-2426
▁విడి	-2427
▁ద్వీప	-2428
▁ప్రయోగ	-2429
▁మహబూ	-2430
▁నిర్ణయ	-2431
▁జంతు	-2432
▁టై	-2433
వలన	-2434
చారం	-2435
▁ఎందు	-2436
▁సరిహద్దు	-2437
▁సంపాద	-2438
▁విభాగ	-2439
▁చేరి	-2440
▁ప్రసిద్ధి	-2441
▁నియోజక	-2442
▁మంత్రి	-2443
ించబడిన	-2444
▁E	-2445
సము	-2446
ig	-2447
▁L	-2448
▁పురాతన	-2449
▁జిల్ల	-2450
దేవి	-2451
22	-2452
▁పాలన	-2453
▁చేస్తారు	-2454
గత	-2455
▁రకాల	-2456
కరి	-2457
50	-2458
▁వలస	-2459
um	-2460
ందో	-2461
▁సిద్ధాంత	-2462
▁పర్య	-2463
స్తవ	-2464
్వే	-2465
▁చేర	-2466
▁బాధ్య	-2467
యంగా	-2468
▁వీర	-2469
▁జాబి	-2470
▁జై	-2471
▁మొట్టమొద	-2472
▁ఎంతో	-2473
▁బ్యా	-2474
▁as	-2475
▁సిబ్బందీ	-2476
▁ప్రక్రియ	-2477
వంతమైన	-2478
ంతర	-2479
▁వాహ	-2480
▁వాతావరణ	-2481
▁26	-2482
▁విశేష	-2483
రాజ	-2484
▁ఆమ్	-2485
▁28	-2486
▁మిలియన్	-2487
బె	-2488
▁గాంధీ	-2489
కె	-2490
గారు	-2491
▁కోర్	-2492
▁అల్	-2493
▁అంతే	-2494
▁2009	-2495
రుస	-2496
మల	-2497
▁యునై	-2498
సులు	-2499
▁విగ్రహ	-2500
▁తగ్గ	-2501
ూరులో	-2502
▁విమర్శ	-2503
▁పరిశోధన	-2504
▁భౌ	-2505
▁అవుతోంది	-2506
సమ	-2507
▁చిత్త	-2508
ce	-2509
చూ	-2510
▁విక	-2511
▁మహారా	-2512
▁లాంటి	-2513
▁కుమార్	-2514
▁చేత	-2515
▁ఇప్పుడు	-2516
డంలో	-2517
▁గురు	-2518
▁పూర్వ	-2519
ly	-2520
▁ఆవి	-2521
▁ముఖ	-2522
ter	-2523
గింది	-2524
▁గ్రహ	-2525
ir	-2526
▁బ్రాహ్మ	-2527
▁శై	-2528
▁పట్టు	-2529
సరి	-2530
న్సి	-2531
▁నడు	-2532
▁వస	-2533
▁ఉద్యోగ	-2534
▁ఆహార	-2535
▁బ్రిటీ	-2536
▁పనిచేశ	-2537
దేవ	-2538
మాన్	-2539
ప్తంగా	-2540
▁చేరుకు	-2541
▁రోడ్డు	-2542
ాయలు	-2543
▁పూర్తిగా	-2544
▁వారిని	-2545
▁27	-2546
లేని	-2547
▁లేకుండా	-2548
▁బౌద్ధ	-2549
్వా	-2550
▁గ్రీ	-2551
స్తోంది	-2552
▁అప్ప	-2553
▁సంగీ	-2554
▁యునైటెడ్	-2555
▁నిజ	-2556
ిల్లీ	-2557
▁డై	-2558
క్టర్	-2559
11	-2560
లేక	-2561
▁ఇస్లా	-2562
▁పర్వత	-2563
▁నూనె	-2564
తిపె	-2565
వులను	-2566
▁మానవ	-2567
వచ్చును	-2568
నుక	-2569
ిత	-2570
▁గౌర	-2571
▁ఉపయోగిస్తారు	-2572
▁వ్యక్	-2573
ప్త	-2574
▁టీ	-2575
▁జర్మ	-2576
▁విజయం	-2577
▁పిలు	-2578
▁అవార్	-2579
▁శాతం	-2580
▁చేయడానికి	-2581
▁ఆకర్	-2582
వో	-2583
మెంట్	-2584
రోపా	-2585
▁పెరుగు	-2586
▁ప్	-2587
▁కోల్	-2588
▁|	-2589
▁జాబితా	-2590
కరించి	-2591
▁వీటిలో	-2592
గొండ	-2593
ోప	-2594
▁అగ్ని	-2595
శ్రమ	-2596
కంగా	-2597
ంప్ర	-2598
కిత్స	-2599
ith	-2600
స్థాన్	-2601
▁సాంకే	-2602
త్వంలో	-2603
▁స్టేషను	-2604
తిపెద్ద	-2605
▁నటు	-2606
నాల	-2607
మ్మి	-2608
▁వ్యవహ	-2609
▁లెక్కల	-2610
▁చేయు	-2611
▁పుష్	-2612
చారు	-2613
చేయ	-2614
▁an	-2615
రాన్ని	-2616
▁నటించ	-2617
▁పం	-2618
యనగ	-2619
వుని	-2620
చో	-2621
▁ప్రి	-2622
▁జయ	-2623
▁బంగ	-2624
▁రెడ్డి	-2625
ణ్	-2626
▁కొద్ది	-2627
పాలు	-2628
24	-2629
▁వలె	-2630
▁అవకాశం	-2631
▁మద్రా	-2632
▁నియోజకవర్	-2633
▁కన్న	-2634
▁అతిపెద్ద	-2635
▁బోధ	-2636
▁ఢ	-2637
▁తేదీ	-2638
▁చేసారు	-2639
కము	-2640
▁51	-2641
▁గత	-2642
▁విజయనగ	-2643
దర	-2644
వ్వు	-2645
▁యువ	-2646
▁విలువ	-2647
▁పరిపాల	-2648
▁డే	-2649
▁ఐరోపా	-2650
▁కర్నూ	-2651
▁on	-2652
un	-2653
▁ఫ్రె	-2654
సులో	-2655
▁అప్పుడు	-2656
▁మల	-2657
క్షన్	-2658
▁పండు	-2659
▁జనవరి	-2660
▁అధ్యయన	-2661
▁నడి	-2662
శ్య	-2663
దేశాల	-2664
21	-2665
▁ప్రదర్శన	-2666
కోవడం	-2667
▁ఉత్తమ	-2668
▁2008	-2669
యిన్	-2670
▁దిగు	-2671
▁కారణం	-2672
▁గాయ	-2673
రల్	-2674
మ్స్	-2675
▁ఇదే	-2676
న్యా	-2677
▁వెళ్ళి	-2678
▁2.	-2679
కున్న	-2680
▁మహబూబ్	-2681
▁నియంత్ర	-2682
▁లక్ష్	-2683
▁విష్ణ	-2684
▁ఆలో	-2685
నంగా	-2686
▁బెంగ	-2687
▁F	-2688
▁మంగ	-2689
▁నూతన	-2690
▁సాంకేతిక	-2691
ార్ధ	-2692
▁కల్ప	-2693
▁అనుమతి	-2694
▁వీటిని	-2695
▁అభిప్రా	-2696
▁మొదలు	-2697
▁మద్ద	-2698
▁ఎంత	-2699
▁త్రి	-2700
▁కట్ట	-2701
▁చారి	-2702
లియా	-2703
యిల్	-2704
▁అక్టో	-2705
స్టర్	-2706
ూహ	-2707
▁ఆఫ్ర	-2708
మవు	-2709
మంత్రి	-2710
సవ	-2711
కలు	-2712
▁సీత	-2713
▁చక్క	-2714
▁ఎమ్	-2715
▁ఇండియా	-2716
▁మారు	-2717
ఎస్	-2718
▁సమయ	-2719
▁st	-2720
▁వెళ్	-2721
▁చలన	-2722
▁ప్రేమ	-2723
▁రికార్	-2724
▁స్వతంత్ర	-2725
భు	-2726
ంలోకి	-2727
▁మొట్టమొదటి	-2728
▁డిస	-2729
ర్ఘ	-2730
▁నాటక	-2731
▁అర్థం	-2732
▁చెబు	-2733
డవు	-2734
▁అందులో	-2735
జ్ఞాన	-2736
▁లోప	-2737
రెడ్డి	-2738
▁కనుగొ	-2739
▁అధి	-2740
▁అమలు	-2741
▁ప్రాంతాలలో	-2742
ర్మా	-2743
▁నిర	-2744
▁మొదల	-2745
ృతి	-2746
▁ఎల్	-2747
▁సెప్ట	-2748
▁చేస్తుంది	-2749
her	-2750
▁శతాబ్దం	-2751
▁నిర్వహణ	-2752
వచ్చ	-2753
▁కమి	-2754
▁ప్రపంచంలో	-2755
▁కాల్	-2756
▁కృషి	-2757
▁నృ	-2758
▁వేగ	-2759
▁చుట్ట	-2760
ణాన్ని	-2761
▁జూన్	-2762
▁ఆహ	-2763
▁ప్రస్తుత	-2764
19	-2765
▁ప్రాచ	-2766
▁హక్కు	-2767
ంబు	-2768
ాను	-2769
ూరో	-2770
▁ఎడ	-2771
▁భర్	-2772
పడ్డ	-2773
th	-2774
ండర్	-2775
▁ఉద్ద	-2776
▁ఉద్యమ	-2777
op	-2778
ికంగా	-2779
▁శ్రీకాకు	-2780
▁భు	-2781
▁గ్రామాలు	-2782
▁ఎన్నికలలో	-2783
▁నిర్వహించ	-2784
దర్	-2785
▁దానికి	-2786
▁ఉష్ణోగ్ర	-2787
▁అధ	-2788
మన	-2789
▁నిల	-2790
▁వ్యాధి	-2791
▁సంవత్సరంలో	-2792
లపై	-2793
▁బంధ	-2794
రించారు	-2795
2,	-2796
av	-2797
డూ	-2798
▁ప్రామ	-2799
పూడి	-2800
కాన్ని	-2801
కలో	-2802
▁ఆంగ్ల	-2803
నని	-2804
▁సూచి	-2805
▁wh	-2806
ములలో	-2807
▁నమ్మ	-2808
వల్ల	-2809
30	-2810
స్థాన	-2811
▁కష్ట	-2812
▁తొలగ	-2813
్రు	-2814
▁వేయ	-2815
▁పైగా	-2816
ప్రిల్	-2817
▁వరంగ	-2818
బ్రవరి	-2819
▁పది	-2820
వారం	-2821
▁అప	-2822
▁నామ	-2823
▁అమెరికన్	-2824
▁29	-2825
▁ప్రకటించ	-2826
▁2007	-2827
తృ	-2828
▁నవంబ	-2829
పెట్టి	-2830
యులు	-2831
▁గాని	-2832
▁చింత	-2833
▁బై	-2834
▁కుమారుడు	-2835
▁పరిచ	-2836
▁శతాబ్దంలో	-2837
ంస	-2838
os	-2839
▁హరి	-2840
▁కామ	-2841
▁ఇతడు	-2842
▁కంప్యూ	-2843
గలి	-2844
దిగా	-2845
▁ఉపా	-2846
▁వివాహం	-2847
▁ఉపయోగించ	-2848
ers	-2849
▁పడి	-2850
▁సాంప్ర	-2851
ak	-2852
ేత్ర	-2853
▁వరకూ	-2854
పేజీ	-2855
▁భగ	-2856
ర్షి	-2857
▁నగరంలో	-2858
ర్ధ	-2859
డ్డు	-2860
భార	-2861
ఆర్	-2862
▁ఆస్ట	-2863
▁పక్ష	-2864
చింది	-2865
▁నౌ	-2866
▁మను	-2867
▁చెన్న	-2868
▁పరిమి	-2869
టిక్	-2870
పాలెం	-2871
▁ప్రసిద్ధ	-2872
దరు	-2873
▁అవార్డు	-2874
▁వేద	-2875
▁ఎక్స్	-2876
28	-2877
రామ	-2878
▁ఆంధ్రప్రదేశ్	-2879
▁సహజ	-2880
▁అనుసంధ	-2881
▁దిన	-2882
జ్యం	-2883
దవ	-2884
ల్ని	-2885
▁అయినప్పటికీ	-2886
వపేజీ	-2887
ీర్	-2888
▁కలిపి	-2889
▁పొందింది	-2890
ల్ప	-2891
దేశీ	-2892
▁పదం	-2893
▁ఆయు	-2894
బట్టి	-2895
▁భారతదేశం	-2896
23	-2897
ానే	-2898
▁గాలి	-2899
గ్గి	-2900
మాని	-2901
▁కింద	-2902
▁మొదట	-2903
విజన్	-2904
▁చేసాడు	-2905
ప్తి	-2906
▁మూడవ	-2907
ూరి	-2908
▁కలు	-2909
▁ఓడి	-2910
ంతరం	-2911
డ్డాడు	-2912
▁మొత్త	-2913
నుల	-2914
▁శం	-2915
▁ఫో	-2916
▁వరుస	-2917
▁వస్తుంది	-2918
▁అంచనా	-2919
▁ఆసియా	-2920
▁పద్య	-2921
▁with	-2922
▁K	-2923
▁రక్షణ	-2924
చిత్ర	-2925
▁విశ్వా	-2926
▁ఖమ్మ	-2927
▁క్రై	-2928
▁ప్రయత్ని	-2929
తకు	-2930
▁ఆస	-2931
▁గుడి	-2932
▁ఇండ	-2933
▁అణు	-2934
▁దృష్టి	-2935
▁తయారీ	-2936
▁ఆరంభ	-2937
▁కొందరు	-2938
ియా	-2939
వార	-2940
ెర	-2941
and	-2942
▁సంస్కృత	-2943
▁నిర్మాణం	-2944
▁చెప్పు	-2945
ేషనల్	-2946
▁విశ్వవిద్యాలయం	-2947
గతి	-2948
జెక్	-2949
ంచుకు	-2950
▁ఏప్రిల్	-2951
ప్పి	-2952
ఒక	-2953
▁ప్రో	-2954
▁పైన	-2955
ండె	-2956
▁రాజా	-2957
మిడి	-2958
ీణ	-2959
▁పెళ్ళి	-2960
డై	-2961
▁అవసరం	-2962
డప	-2963
▁గే	-2964
దిలి	-2965
క్ష్మ	-2966
▁డీ	-2967
డియా	-2968
▁మ్యా	-2969
▁సంస్థలు	-2970
▁యె	-2971
పియన్	-2972
నార	-2973
▁ప్రతిపాద	-2974
▁2010	-2975
▁విశ్వవిద్యాలయ	-2976
▁బాధ	-2977
▁సృష్టి	-2978
▁గుర్	-2979
మూర్తి	-2980
▁స్థానం	-2981
▁మారింది	-2982
▁100	-2983
ాయా	-2984
▁చేరు	-2985
టల్	-2986
▁గెలు	-2987
ప్రాంత	-2988
వైపు	-2989
▁నల్ల	-2990
▁చూసి	-2991
▁రక్త	-2992
ab	-2993
జె	-2994
▁తెలుసు	-2995
ik	-2996
ద్రి	-2997
కులను	-2998
ందా	-2999
ళా	-3000
సారు	-3001
▁సోమ	-3002
▁మౌ	-3003
▁హు	-3004
▁బ్రిటీష్	-3005
ind	-3006
స్కృ	-3007
▁ప్రాచీన	-3008
్రై	-3009
▁సామ్రాజ్య	-3010
ర్ప	-3011
రక	-3012
దిరి	-3013
▁2006	-3014
ర్డ్	-3015
▁పద్	-3016
రుగ	-3017
▁చిత్తూరు	-3018
రువులు	-3019
▁మద్దతు	-3020
▁35	-3021
రోజు	-3022
▁బట్టి	-3023
ీకరణ	-3024
▁శిల్	-3025
▁ప్రభావం	-3026
ులకు	-3027
▁ఎల	-3028
▁గడి	-3029
▁ఉద్దేశ	-3030
▁సైనిక	-3031
▁60	-3032
▁ఎగు	-3033
గానికి	-3034
కారులు	-3035
జొన్న	-3036
▁ఫలితంగా	-3037
▁ఇతని	-3038
టర్లు	-3039
డమే	-3040
▁కమ్యూ	-3041
▁by	-3042
సింహ	-3043
గులు	-3044
పథ	-3045
▁ముగి	-3046
▁ఇంత	-3047
▁ఖా	-3048
▁భారీ	-3049
▁31	-3050
షిక	-3051
▁స్టే	-3052
రమ	-3053
శనగ	-3054
ెన్స్	-3055
▁ఆక్	-3056
▁ముద్ర	-3057
▁అతడు	-3058
్రూ	-3059
▁జగ	-3060
▁అయింది	-3061
▁అర్జు	-3062
జాల	-3063
▁జరిగే	-3064
ాయం	-3065
▁ఎంప	-3066
దురు	-3067
ండ్ల	-3068
--	-3069
▁స్త్రీల	-3070
పల్లిలోను	-3071
య్	-3072
▁సంగీతం	-3073
ంటీ	-3074
▁ప్రసా	-3075
▁బ్రాహ్మణ	-3076
త్తులు	-3077
▁దేశాలలో	-3078
నంలో	-3079
ాలూ	-3080
వాతి	-3081
టంతో	-3082
▁సహా	-3083
▁గారు	-3084
▁వ్యతిరేకంగా	-3085
ధులు	-3086
▁భద్ర	-3087
▁చికిత్స	-3088
▁విషయం	-3089
▁లేవు	-3090
ప్రైవేటు	-3091
▁సగ	-3092
▁కర్నూలు	-3093
▁ఫిబ్రవరి	-3094
▁పరిశీ	-3095
▁పొడవు	-3096
▁ప్రయాణ	-3097
▁చర్చ	-3098
▁ఢిల్లీ	-3099
8,	-3100
ధ్	-3101
ళు	-3102
▁నక్షత్ర	-3103
▁కలిగ	-3104
ub	-3105
యిర్	-3106
షత్తు	-3107
మీద	-3108
▁పిలుస్తారు	-3109
▁కరీ	-3110
ముని	-3111
▁కాంతి	-3112
▁జే	-3113
కోవడానికి	-3114
▁పెద	-3115
▁వేరుశనగ	-3116
ర్థి	-3117
▁పాత	-3118
▁నిర్వహించారు	-3119
ౌన్	-3120
ర్గ	-3121
▁గారి	-3122
విన	-3123
ందర	-3124
పాన్	-3125
తమ	-3126
▁ఆత్మ	-3127
ric	-3128
▁నిర్వహి	-3129
40	-3130
మర	-3131
గాయి	-3132
▁భి	-3133
▁చంప	-3134
టరీ	-3135
▁క్రింద	-3136
ాలీ	-3137
▁మొక్కజొన్న	-3138
స్తి	-3139
▁వర్ష	-3140
▁గౌ	-3141
▁రేడియో	-3142
▁పట్టి	-3143
కాలను	-3144
▁పిలి	-3145
▁హార్	-3146
▁అర్ధ	-3147
▁సమాజ	-3148
▁స్కూ	-3149
▁చేస్తూ	-3150
▁నేషనల్	-3151
▁జరుపు	-3152
▁హిందీ	-3153
▁ఫా	-3154
▁రాజ్యా	-3155
చేసి	-3156
▁కూడిన	-3157
▁ఆచ	-3158
దరణ	-3159
▁హను	-3160
▁ప్రాజెక్	-3161
▁శరీర	-3162
▁మార్చ	-3163
ళీ	-3164
▁తరచు	-3165
పూర్లో	-3166
ంచ్	-3167
య్యారు	-3168
▁వేర్	-3169
గాడు	-3170
▁ఆక్రమ	-3171
▁అవత	-3172
▁చెంద	-3173
లికి	-3174
▁ఏమి	-3175
▁చుట్టూ	-3176
▁ప్రకాశం	-3177
ములోని	-3178
▁తనకు	-3179
దాన్ని	-3180
9,	-3181
త్తా	-3182
▁జట్టు	-3183
▁మందుల	-3184
▁సమ్	-3185
▁పరికర	-3186
ate	-3187
▁పురాణ	-3188
ీస్	-3189
రాన్	-3190
మార	-3191
కంలో	-3192
▁దేవాలయ	-3193
▁స్నే	-3194
▁పొందు	-3195
",	-3196
▁con	-3197
యస్	-3198
▁ఇంగ్లీ	-3199
మిని	-3200
గారి	-3201
వేయ	-3202
▁ఘన	-3203
రప	-3204
▁యూరో	-3205
▁వంద	-3206
▁చాల	-3207
▁మద్య	-3208
▁చెప్పిన	-3209
▁ప్రణా	-3210
▁ప్రధానంగా	-3211
ంపల్లి	-3212
హీ	-3213
▁నాయక	-3214
▁విడుద	-3215
▁జన్మించాడు	-3216
▁సమీపంలో	-3217
ృత	-3218
▁సింగ్	-3219
▁ఆయనకు	-3220
▁2,	-3221
▁చేయబడింది	-3222
pl	-3223
▁V	-3224
▁అరు	-3225
డ్స్	-3226
▁క్యా	-3227
ెట్టు	-3228
▁శాంతి	-3229
▁వాటిలో	-3230
స్కృతిక	-3231
ండగా	-3232
▁చెట్టు	-3233
▁తిరుపతి	-3234
▁నిర్మించిన	-3235
మ్య	-3236
▁O	-3237
▁శిక్ష	-3238
▁తిరుగుబాటు	-3239
▁సందర్శ	-3240
▁అన్నాడు	-3241
కల్ప	-3242
▁ఇక్కడి	-3243
▁ఎంపిక	-3244
▁నలుగు	-3245
ap	-3246
▁ప్రతీ	-3247
పరమైన	-3248
▁హీ	-3249
▁గూడ	-3250
ంచడం	-3251
▁అక్టోబరు	-3252
▁విదేశీ	-3253
▁కొల	-3254
▁అభ	-3255
▁దె	-3256
ందుకు	-3257
▁రసాయన	-3258
▁అనకా	-3259
నిమి	-3260
▁షి	-3261
▁సంవత్సరాలు	-3262
యుక్త	-3263
▁రాత్రి	-3264
ంనగర్	-3265
షే	-3266
▁రూపంలో	-3267
▁లక్ష్మీ	-3268
▁ఆగస్టు	-3269
▁పెం	-3270
▁వెనుక	-3271
మానా	-3272
▁ఉదాహరణకు	-3273
▁చారిత్ర	-3274
యాలు	-3275
▁జాతి	-3276
▁వేల	-3277
▁వేంక	-3278
▁క్రీడ	-3279
▁ఏర్పడిన	-3280
▁పాటలు	-3281
▁సాంప్రదాయ	-3282
▁గృహాలు	-3283
▁చెల్లి	-3284
▁ఉంటే	-3285
ver	-3286
1,	-3287
▁పట్ల	-3288
▁తెల్ల	-3289
▁గమని	-3290
▁పల్లి	-3291
యుల	-3292
పోయి	-3293
ధాన్య	-3294
ెన	-3295
▁నార్	-3296
▁వెలువ	-3297
▁నిరా	-3298
▁ఉత్సవ	-3299
న్నె	-3300
▁190	-3301
▁కుమార్తె	-3302
aM	-3303
▁పర్వము	-3304
పుర	-3305
ారము	-3306
▁శ్రే	-3307
▁ఏడు	-3308
▁2004	-3309
▁వేస	-3310
▁స్వీ	-3311
స్వ	-3312
వర్తన	-3313
▁సింగ	-3314
▁36	-3315
▁హైదరాబాద్	-3316
▁పున	-3317
ర్చుకు	-3318
▁సాంస్కృతిక	-3319
▁పుర	-3320
సార్లు	-3321
▁సందర్భంగా	-3322
▁ప్రకటి	-3323
ందున	-3324
▁పోల	-3325
▁పెట్టి	-3326
నము	-3327
▁ఎందుకంటే	-3328
rom	-3329
పరచ	-3330
ష్టం	-3331
▁పరమ	-3332
▁దాడి	-3333
ెంలో	-3334
▁191	-3335
▁క్ల	-3336
▁ఎలక్ట	-3337
ధారణ	-3338
▁దిశ	-3339
▁పరిధిలో	-3340
▁విధానం	-3341
25	-3342
వాలు	-3343
▁గంగ	-3344
శారు	-3345
తులలో	-3346
▁జొన్న	-3347
▁కమ్యూని	-3348
▁అతనికి	-3349
▁నివే	-3350
▁బొమ్మ	-3351
▁భాషా	-3352
pe	-3353
▁గ్రామములో	-3354
ణిక	-3355
▁వంశ	-3356
▁ఇప్పటికీ	-3357
▁శాస్త్రవేత్త	-3358
▁ఆసక్తి	-3359
▁al	-3360
జిల్	-3361
▁శ్రీరా	-3362
యల్	-3363
రులో	-3364
▁టెక్	-3365
ులను	-3366
స్తుంటారు	-3367
▁ఆదిలా	-3368
▁డిసెంబరు	-3369
▁కాబట్టి	-3370
▁దళ	-3371
ఖా	-3372
▁నవల	-3373
ఫా	-3374
▁పునరు	-3375
▁నివస	-3376
పడుతుంది	-3377
డె	-3378
స్థాయి	-3379
▁ఆఫ్రికా	-3380
తము	-3381
భాష	-3382
ందరి	-3383
▁రాసిన	-3384
▁సాగ	-3385
ోలు	-3386
కినా	-3387
సూ	-3388
▁తగిన	-3389
▁ఉన్నది	-3390
క్ష్	-3391
▁ఉంటారు	-3392
▁క్వ	-3393
▁స్టీ	-3394
▁రెండో	-3395
▁చెప్పాడు	-3396
ెంబర్	-3397
దుగా	-3398
▁బాల్	-3399
▁నివసి	-3400
▁ఖాన్	-3401
▁ఉష్ణోగ్రత	-3402
కమైన	-3403
▁అనుకూ	-3404
రోధ	-3405
ాలే	-3406
▁నంది	-3407
if	-3408
▁సృష్	-3409
▁పడు	-3410
▁సైన్య	-3411
▁వెంటనే	-3412
▁పెరి	-3413
▁ప్రశ్	-3414
▁that	-3415
వాదం	-3416
పుణ	-3417
▁ఆదాయ	-3418
▁కరీంనగర్	-3419
టికి	-3420
▁తరలి	-3421
▁ఉత్ప	-3422
▁పాకిస్థాన్	-3423
▁జ్ఞాన	-3424
రుల	-3425
▁పసు	-3426
▁మద్రాసు	-3427
తక	-3428
▁ఇప్పటి	-3429
▁సంబంధం	-3430
▁వంట	-3431
▁రిప	-3432
▁భౌతిక	-3433
▁కణ	-3434
▁ప్రతిష్ఠ	-3435
ill	-3436
▁సెప్టెంబరు	-3437
ట్రో	-3438
▁45	-3439
▁it	-3440
▁ఉండటం	-3441
తనం	-3442
లేష	-3443
హాన్ని	-3444
▁జు	-3445
▁సమూహ	-3446
▁భవన	-3447
▁గౌరవ	-3448
▁లింగ	-3449
▁విభజ	-3450
▁వృక్ష	-3451
▁మంత్ర	-3452
▁ఇక	-3453
▁స్థాయిలో	-3454
▁37	-3455
▁com	-3456
▁హైడ	-3457
▁పాకిస్తాన్	-3458
యట్	-3459
▁జిల్లాకు	-3460
గ్రామానికి	-3461
▁నంద	-3462
▁గర్భ	-3463
▁మహిళల	-3464
▁రోగ	-3465
సారిగా	-3466
▁రంధ్ర	-3467
ష్టమైన	-3468
▁అశ్వ	-3469
▁పార్ల	-3470
▁హిందు	-3471
▁సూక్ష్మ	-3472
▁జాన	-3473
వలసి	-3474
▁మెద	-3475
▁నాడు	-3476
ించవచ్చు	-3477
ంపేట	-3478
హో	-3479
ఫు	-3480
ేద	-3481
▁2005	-3482
▁విమాన	-3483
ఫల	-3484
▁నలుగురు	-3485
రవ	-3486
▁సంభవ	-3487
వ్యాప్తంగా	-3488
▁విప్	-3489
కులకు	-3490
పిన	-3491
బ్బు	-3492
▁రక్ష	-3493
ంతం	-3494
▁కాలనీ	-3495
▁అదన	-3496
▁ఆధారపడి	-3497
▁దై	-3498
బడతాయి	-3499
ంటా	-3500
▁నొ	-3501
ాలయంలో	-3502
ాలపై	-3503
▁అనుభవ	-3504
▁ఉన్నాడు	-3505
ధీ	-3506
▁పిలువ	-3507
▁ప్రజలకు	-3508
▁2014	-3509
్యంలో	-3510
▁సభ్యులు	-3511
▁మని	-3512
ష్టు	-3513
ద్దీ	-3514
కలా	-3515
▁పద్ధతి	-3516
▁33	-3517
▁పండుగ	-3518
వారికి	-3519
▁కర్ణా	-3520
దేశం	-3521
▁సినీ	-3522
వంతంగా	-3523
▁ఆస్ట్రే	-3524
▁రాజమ	-3525
▁సాగు	-3526
పరు	-3527
కూరు	-3528
కుడిగా	-3529
▁2013	-3530
తగా	-3531
పడే	-3532
ారిత	-3533
▁దీన్ని	-3534
▁భూభాగ	-3535
▁ప్రణాళిక	-3536
▁యూనియన్	-3537
all	-3538
యము	-3539
్యో	-3540
▁నల్	-3541
▁తీర	-3542
▁వెల్	-3543
est	-3544
▁తప	-3545
విగా	-3546
చ్చిన	-3547
▁మ్యూ	-3548
▁విడుదలైన	-3549
టివ్	-3550
దుల	-3551
▁అంతేకా	-3552
▁చెందు	-3553
▁రాష్ట్రంలో	-3554
▁ఎదుర్కొ	-3555
▁నమూ	-3556
▁దశా	-3557
▁త్వ	-3558
నారాయణ	-3559
▁రచించిన	-3560
▁నర్	-3561
ష్యా	-3562
పులు	-3563
▁సృష్టించ	-3564
▁3.	-3565
▁పాడే	-3566
శ్మీ	-3567
▁గూ	-3568
▁నిర్మించారు	-3569
కోట	-3570
▁తరచుగా	-3571
▁కింగ్	-3572
▁పంజా	-3573
సాహ	-3574
▁కొనసాగ	-3575
పోయారు	-3576
పోవడం	-3577
రించాడు	-3578
▁అంశాల	-3579
▁త్ర	-3580
విత్ర	-3581
బే	-3582
రాజ్య	-3583
▁వైద్యశాలలో	-3584
▁జాన్	-3585
▁గుర్తు	-3586
▁ప్రారంభించారు	-3587
ర్ట్	-3588
వులకు	-3589
బొ	-3590
▁వంటివి	-3591
ారో	-3592
పాటి	-3593
▁లకు	-3594
▁వన	-3595
వేశం	-3596
రియన్	-3597
▁2000	-3598
శ్రీ	-3599
▁సంయుక్త	-3600
▁క్రింది	-3601
▁ప్రెస్	-3602
శ్లేష	-3603
res	-3604
▁భాషలో	-3605
86	-3606
వాన్	-3607
▁ముని	-3608
▁బయట	-3609
▁కూర	-3610
బ్రహ్మ	-3611
▁ఎయిర్	-3612
ార్క్	-3613
ారణ	-3614
▁ధ్వ	-3615
▁క్రీడా	-3616
▁రికార్డు	-3617
▁వదిలి	-3618
▁కంప్యూటర్	-3619
▁సినిమాలో	-3620
▁చై	-3621
ేఖ	-3622
▁సమయం	-3623
దైన	-3624
▁వెలు	-3625
ట్లుగా	-3626
▁ఇంద్ర	-3627
్రాన్ని	-3628
ద్భు	-3629
▁అయినా	-3630
▁నియంత్రణ	-3631
మాను	-3632
▁మార్గం	-3633
▁జపాన్	-3634
▁భావిస్తున్నారు	-3635
▁చట్టం	-3636
▁స్క	-3637
కారుడు	-3638
▁వేంకట	-3639
▁తక్కువగా	-3640
26	-3641
▁కెన	-3642
▁ప్రమాణ	-3643
▁నిజామా	-3644
▁భో	-3645
▁ఉపగ్రహ	-3646
ht	-3647
▁ద్వి	-3648
▁పాండ	-3649
▁189	-3650
▁అలం	-3651
▁ప్రభావి	-3652
▁ఇటీ	-3653
▁బ్లా	-3654
▁r	-3655
▁నల్గొండ	-3656
29	-3657
▁కాయ	-3658
▁అందరి	-3659
ఫ్ట్	-3660
ల్వ	-3661
▁రావు	-3662
▁హౌ	-3663
ట్యూ	-3664
ముతో	-3665
▁మృ	-3666
▁యే	-3667
లిన్	-3668
▁వాస్తవ	-3669
▁he	-3670
▁సంస్కృతి	-3671
మండ	-3672
▁సన్ని	-3673
▁వివర	-3674
▁నిర్మించ	-3675
లియ	-3676
బియా	-3677
లూరు	-3678
▁అంశ	-3679
".	-3680
▁{	-3681
శక్తి	-3682
▁శైలి	-3683
▁భక్తులు	-3684
▁at	-3685
▁యి	-3686
▁అనుసరించి	-3687
▁ఆనంద	-3688
▁సామ్రాజ్యం	-3689
్రామిక	-3690
▁వున్నవి	-3691
27	-3692
▁చుట్టు	-3693
▁కనిపిస్తుంది	-3694
గర్భ	-3695
▁అప్పు	-3696
▁చిత్రా	-3697
రిత	-3698
వంతు	-3699
▁de	-3700
దిన	-3701
యుడు	-3702
▁అందించ	-3703
▁పంచాయ	-3704
▁పసుపు	-3705
యమైన	-3706
▁చని	-3707
▁అనంతరం	-3708
▁యుద్ధంలో	-3709
▁యో	-3710
▁నెహ	-3711
▁కర్ణాటక	-3712
▁పోలీసు	-3713
లింగ	-3714
▁ద్రా	-3715
▁రోజులు	-3716
▁చెందింది	-3717
▁జర్మనీ	-3718
▁దీనిలో	-3719
మాన్ని	-3720
రాడు	-3721
కింగ్	-3722
▁శాస్త్రీయ	-3723
▁చక్రవర్తి	-3724
▁ప్రస్తా	-3725
▁దూ	-3726
▁దంప	-3727
ద్వారా	-3728
▁80	-3729
▁చేస్తున్న	-3730
▁కై	-3731
▁పేజీ	-3732
దారులు	-3733
▁సగటు	-3734
▁మళ్ళ	-3735
చంద్ర	-3736
జూ	-3737
ant	-3738
▁ఆమో	-3739
▁ఉంటు	-3740
▁రష్యా	-3741
▁ప్రభావ	-3742
▁తెలుగులో	-3743
బుల్	-3744
▁కేంద్రంగా	-3745
▁పద్మ	-3746
▁విక్ర	-3747
▁ఎవర	-3748
▁శ్రీకృష్ణ	-3749
ేశ్వరరావు	-3750
▁was	-3751
మ్మద్	-3752
లింగ్	-3753
మస్	-3754
యుట	-3755
▁మనం	-3756
80	-3757
▁హనుమ	-3758
▁ప్రమాద	-3759
▁స్వీకరించ	-3760
▁అసలు	-3761
▁are	-3762
▁ఖండ	-3763
▁తరువాతి	-3764
▁వ్యాసాలు	-3765
తాలు	-3766
ీయెస్	-3767
స్కో	-3768
▁మధు	-3769
▁from	-3770
▁బుద్ధ	-3771
▁బంగారు	-3772
▁వారిలో	-3773
టమి	-3774
న్నే	-3775
▁భక్తి	-3776
▁స్పె	-3777
బీబ	-3778
▁గిరి	-3779
గంలో	-3780
హాలు	-3781
▁చిత్రంలో	-3782
▁సార్లు	-3783
▁వ్రాసిన	-3784
▁సంఖ్యలో	-3785
బీబీయెస్	-3786
గడ	-3787
▁గవర్	-3788
▁పవిత్ర	-3789
ానని	-3790
▁గురువు	-3791
▁క్షేత్ర	-3792
▁సాయ	-3793
▁కలసి	-3794
మర్	-3795
ల్లం	-3796
లలోను	-3797
▁ఎమ్బీబీయెస్	-3798
60	-3799
దర్శి	-3800
నియన్	-3801
▁చేర్చ	-3802
శాస్త్రి	-3803
ండ్లు	-3804
▁వాయి	-3805
▁ఉత్తరా	-3806
▁దర్శకత్వం	-3807
ణుడు	-3808
ాలనే	-3809
▁చదివిన	-3810
▁ప్రఖ్యా	-3811
యాత్ర	-3812
▁ద్వార	-3813
ాల్సి	-3814
జో	-3815
చర్	-3816
▁యంత్ర	-3817
కవి	-3818
చ్చే	-3819
భద్ర	-3820
శాడు	-3821
▁పరిచయం	-3822
▁కథలు	-3823
▁మొదలగు	-3824
మ్మా	-3825
▁ఉద్	-3826
ఠా	-3827
ain	-3828
▁గుర	-3829
▁క్రిక	-3830
రించింది	-3831
▁అన్	-3832
▁సైని	-3833
ich	-3834
▁నెహ్రూ	-3835
▁ఆకు	-3836
కరమైన	-3837
▁ప్రత్యక్ష	-3838
▁దీర్ఘ	-3839
▁నవంబరు	-3840
▁చిహ్	-3841
▁ప్రాణ	-3842
భావ	-3843
బద్ధ	-3844
▁ఫు	-3845
ud	-3846
కినాడ	-3847
▁శ్రీకాకుళం	-3848
▁ప్రదేశాల	-3849
సాడు	-3850
▁ఎనిమి	-3851
▁స్థల	-3852
ించేందుకు	-3853
▁ఒప్పందం	-3854
▁పొర	-3855
▁సుబ్బ	-3856
▁తగ్గి	-3857
▁ప్రయో	-3858
▁దుర్	-3859
జ్రా	-3860
▁చేయబడిన	-3861
▁మధ్యలో	-3862
▁ex	-3863
సైడ్	-3864
▁ముంబ	-3865
tp	-3866
తలను	-3867
న్యూ	-3868
▁కాకినాడ	-3869
▁కాన	-3870
▁పారిశ	-3871
▁చిత్రాలు	-3872
▁వయస్సు	-3873
తుందని	-3874
▁వేసవి	-3875
▁రాక	-3876
▁జారీ	-3877
సాల	-3878
వని	-3879
▁అర్బన్	-3880
▁ఇచ్చిన	-3881
టిన్	-3882
▁పరా	-3883
▁భారత్	-3884
▁భాగంలో	-3885
oc	-3886
హిత	-3887
▁జిల్లాలోని	-3888
▁పొందారు	-3889
▁బస్సులుప్రైవేటు	-3890
ఫిక్	-3891
▁చర్చి	-3892
దూ	-3893
▁70	-3894
▁కర్మ	-3895
వస్థ	-3896
▁చెప్పవచ్చు	-3897
కోవచ్చు	-3898
దాని	-3899
▁జీవన	-3900
▁నేపథ	-3901
ర్యంలో	-3902
సముద్ర	-3903
se	-3904
▁సామర్థ	-3905
ధన	-3906
దరి	-3907
▁1990	-3908
▁ఆప	-3909
ity	-3910
▁అవసరమైన	-3911
ary	-3912
▁హే	-3913
▁నీవు	-3914
హన	-3915
▁శీ	-3916
▁చివర	-3917
▁రోజుల	-3918
డర్	-3919
▁వో	-3920
ానిస	-3921
▁అద్భు	-3922
▁కాశ్మీ	-3923
▁జీవితం	-3924
క్షే	-3925
▁విష్ణు	-3926
డాన్ని	-3927
▁లభించింది	-3928
ాయల	-3929
▁జన్మించారు	-3930
్రిక్	-3931
▁లక్ష్మ	-3932
▁అవుతుంది	-3933
భం	-3934
▁పదవి	-3935
▁34	-3936
▁నేల	-3937
▁స్టా	-3938
జ్జ	-3939
లాన్ని	-3940
▁ప్రాము	-3941
▁ప్రాంతాలు	-3942
ునిగా	-3943
▁దేవాలయం	-3944
ంక్	-3945
డెన్	-3946
▁జరగ	-3947
▁ఇట	-3948
▁ఉండాలి	-3949
▁ప్రకృతి	-3950
▁కొను	-3951
▁బ్	-3952
కునే	-3953
▁చల్ల	-3954
▁పట్టణం	-3955
▁నాకు	-3956
▁నీటిని	-3957
▁లక్షల	-3958
▁సర్వీసు	-3959
ండన్	-3960
tion	-3961
▁గీత	-3962
▁వయసు	-3963
▁దక్షిణా	-3964
లర్	-3965
▁క్రో	-3966
చాడు	-3967
▁పిల్లలు	-3968
▁సుల్	-3969
▁బానిస	-3970
▁అంగీకరించ	-3971
ర్యం	-3972
▁సమాన	-3973
త్రు	-3974
సెస్	-3975
▁కమిటీ	-3976
▁ఆమెను	-3977
▁వ్రాయ	-3978
▁ధర	-3979
▁చరిత్రలో	-3980
గార	-3981
గురు	-3982
▁కోరిక	-3983
▁నృత్య	-3984
▁విషయంలో	-3985
▁se	-3986
వాగు	-3987
▁ఎర్ర	-3988
▁నెట్	-3989
▁మనిషి	-3990
▁ముందుగా	-3991
ars	-3992
▁పల్లె	-3993
పోయాడు	-3994
▁పరిగణ	-3995
▁ఉపాధ్య	-3996
పడిన	-3997
▁అన్నది	-3998
కోసం	-3999
త్వాన్ని	-4000
రేషన్	-4001
▁పరిష్	-4002
నిర్	-4003
▁పచ్చ	-4004
▁సాంఘ	-4005
పరంగా	-4006
▁రచనలు	-4007
పర్తి	-4008
▁కనీ	-4009
▁pro	-4010
▁విజయనగరం	-4011
▁స్త్రీలు	-4012
▁సాధించింది	-4013
ట్ర	-4014
▁సల	-4015
▁నియోజకవర్గం	-4016
▁చౌ	-4017
▁ప్లే	-4018
▁సైన్యం	-4019
▁ఆదిలాబాద్	-4020
వుగా	-4021
్యము	-4022
▁అకా	-4023
▁రాక్ష	-4024
▁లాల్	-4025
▁గణి	-4026
▁కొంతమంది	-4027
▁ఆస్ట్రేలియా	-4028
▁అమరా	-4029
▁నిషే	-4030
13	-4031
▁సోవి	-4032
▁ప్రాంతాల్లో	-4033
▁వరంగల్	-4034
ప్పుడూ	-4035
▁ప్రత్యేకంగా	-4036
▁కార్యకలా	-4037
▁రొ	-4038
▁పోరాట	-4039
▁అగ్ర	-4040
▁విమానా	-4041
▁దర్శకుడు	-4042
▁వచ్చు	-4043
▁నిజాం	-4044
▁ప్రార్థ	-4045
▁ఉపయోగించి	-4046
ించబడుతుంది	-4047
▁శ్ర	-4048
▁పనిచేశాడు	-4049
▁మిన	-4050
▁వ్యాసం	-4051
▁ప్రాజెక్టు	-4052
దయ	-4053
ళన	-4054
▁పాడేరు	-4055
▁బృంద	-4056
▁ఛా	-4057
▁కలుపు	-4058
గూడెం	-4059
▁విమానాశ్ర	-4060
బడ్డాడు	-4061
▁ప్రాధాన్య	-4062
ాలంటే	-4063
▁చేపట్ట	-4064
వనం	-4065
▁గ్రూ	-4066
▁విజ్ఞాన	-4067
end	-4068
▁4.	-4069
▁తది	-4070
▁పొందాడు	-4071
▁మ్యూజి	-4072
ess	-4073
▁వెళ్లి	-4074
▁తై	-4075
▁ఫోర్	-4076
▁ఆక	-4077
టిల్	-4078
70	-4079
పాల్	-4080
▁రిపబ్లిక్	-4081
ధిప	-4082
▁పునర్	-4083
వును	-4084
▁భర్త	-4085
▁ద్రవ్య	-4086
ంబి	-4087
▁అబ్	-4088
▁పన్ను	-4089
▁గాను	-4090
▁ఏర్పడింది	-4091
▁దెబ్బ	-4092
▁పూర్వం	-4093
▁ముఖ్యమంత్రి	-4094
▁విప	-4095
మిక్	-4096
▁అక్	-4097
▁ట్ర	-4098
12	-4099
ాయిక	-4100
▁ఉండేవి	-4101
▁దూరములో	-4102
▁అంతా	-4103
▁బదులు	-4104
▁సిం	-4105
▁చెరకు	-4106
▁స్టేట్స్	-4107
ట్రా	-4108
సమీప	-4109
▁తిన	-4110
▁సాధించిన	-4111
వైన	-4112
కూర్	-4113
రుని	-4114
▁ఆరా	-4115
▁అక్కడి	-4116
▁కర	-4117
▁చొ	-4118
▁భూగర్భ	-4119
▁ఆశ	-4120
డల్	-4121
▁స్వే	-4122
▁ప్రాంతాన్ని	-4123
▁భావన	-4124
▁గతంలో	-4125
▁విత్త	-4126
డము	-4127
▁సుల	-4128
న్లు	-4129
▁తెలుసుకు	-4130
▁గుండె	-4131
▁నెలకొ	-4132
▁ఇలాంటి	-4133
▁చార్	-4134
▁నిర్వహించిన	-4135
ీలు	-4136
ంటె	-4137
▁which	-4138
▁అందువలన	-4139
▁ప్రాంతీయ	-4140
▁ar	-4141
▁అఫ్	-4142
▁చెన్నై	-4143
69	-4144
▁అతడి	-4145
▁బోర్	-4146
▁సాంఘిక	-4147
▁నటుడు	-4148
షనల్	-4149
▁ప్రసార	-4150
▁పుట్టిన	-4151
▁ఫీ	-4152
▁su	-4153
▁నవా	-4154
▁తయార	-4155
ov	-4156
▁పాలు	-4157
▁1980	-4158
▁ఉందని	-4159
▁ఒప్పంద	-4160
చేసిన	-4161
పడింది	-4162
▁ఆలయంలో	-4163
▁మూర్	-4164
▁ఖమ్మం	-4165
▁వస్త్ర	-4166
దృ	-4167
▁వేడి	-4168
లంక	-4169
ర్చుగ	-4170
▁ప్రోత్స	-4171
వులలో	-4172
▁గార్	-4173
▁38	-4174
సార	-4175
▁ఇతను	-4176
బల	-4177
▁ఆమెకు	-4178
▁దాన్ని	-4179
ెట్లు	-4180
▁ఉండగా	-4181
▁ఏరియా	-4182
▁ఫర్	-4183
రించు	-4184
చ్చుకు	-4185
లని	-4186
▁కొడుకు	-4187
▁క్రికెట్	-4188
▁అద్ద	-4189
▁ప్రకటన	-4190
ies	-4191
కూడ	-4192
▁అధ్యక్షుడు	-4193
పారు	-4194
▁గ్రామంలోఒక	-4195
ip	-4196
▁పనిచేశారు	-4197
▁లండన్	-4198
రక్ష	-4199
▁మాన్	-4200
▁రకాలు	-4201
▁కాన్	-4202
ించేవారు	-4203
▁లోహ	-4204
▁పేర్లు	-4205
ంద్రా	-4206
▁మీటర్ల	-4207
నిషత్తు	-4208
▁పాలి	-4209
▁పురస్కార	-4210
నను	-4211
▁అధ్యయనం	-4212
▁సూత్ర	-4213
▁విశాఖపట్న	-4214
▁స్కా	-4215
▁పోర్చుగ	-4216
స్తులు	-4217
▁ఆమ్ల	-4218
▁పుట్టి	-4219
ములకు	-4220
పాలి	-4221
మయిన	-4222
▁స్వంత	-4223
▁ఉన్నా	-4224
▁ఇస్లాం	-4225
్యాన	-4226
థా	-4227
▁శుభ	-4228
▁ఎవరి	-4229
▁నివేదిక	-4230
▁తెలియజే	-4231
వేరు	-4232
rict	-4233
ment	-4234
▁శబ్ద	-4235
▁చివరకు	-4236
age	-4237
▁కాలి	-4238
▁కలిగివు	-4239
ల్లోనూ	-4240
పిస్తుంది	-4241
జీవి	-4242
▁కడప	-4243
▁దండ	-4244
▁రూపొందించ	-4245
▁టర్	-4246
▁పుట్ట	-4247
▁దారితీ	-4248
▁పారిశ్రామిక	-4249
▁39	-4250
▁భయ	-4251
▁సల్	-4252
▁పాప	-4253
▁జైలు	-4254
og	-4255
▁ధా	-4256
▁వాతావరణం	-4257
▁రాజీ	-4258
▁విస్తృ	-4259
▁90	-4260
▁జం	-4261
▁అమరావతి	-4262
▁అభ్యర్థి	-4263
▁ఇండియన్	-4264
▁ఫ్రెంచ్	-4265
▁నివా	-4266
దశ	-4267
▁పరిశీలి	-4268
▁బర్	-4269
▁y	-4270
యింట్	-4271
34	-4272
ాల్సిన	-4273
▁ఇంగ్లీషు	-4274
వార్	-4275
18	-4276
ష్టంగా	-4277
ెదరు	-4278
▁ఉండవచ్చు	-4279
▁సారి	-4280
▁సమాచార	-4281
వత	-4282
ూరులోను	-4283
▁ఒకటిగా	-4284
▁మతం	-4285
▁కీలక	-4286
▁శాస్త్రం	-4287
్యాత్	-4288
▁చేతి	-4289
▁బరువు	-4290
కొనే	-4291
▁ఇజ్రా	-4292
సంఖ్య	-4293
▁అర్ధం	-4294
ine	-4295
▁భీమ	-4296
డుతూ	-4297
▁చేతిలో	-4298
▁సంబంధిత	-4299
▁ఆలోచన	-4300
▁మిత్ర	-4301
▁నరసింహ	-4302
▁క్లో	-4303
▁°	-4304
మాల	-4305
పోయే	-4306
istrict	-4307
▁పులి	-4308
▁మార్పులు	-4309
▁మ్యాచ్	-4310
▁క్రొ	-4311
ైక	-4312
ంగ్రామ	-4313
▁ప్రథ	-4314
▁వీలు	-4315
▁కనిపించే	-4316
గవ	-4317
▁భిన్న	-4318
పోతుంది	-4319
మానం	-4320
▁గంగా	-4321
▁కార్యక్రమాలు	-4322
▁2012	-4323
ళ్ళలో	-4324
▁సెంట	-4325
▁ఫె	-4326
▁హెచ్	-4327
▁పరిమాణ	-4328
our	-4329
సుడు	-4330
▁లూ	-4331
▁ఇంధ	-4332
▁జార్	-4333
క్ష్య	-4334
▁దేవి	-4335
▁మామిడి	-4336
వరంలో	-4337
దైనా	-4338
▁వినియోగదారు	-4339
ెక్కి	-4340
▁అంగీ	-4341
▁తప్పు	-4342
▁సేవలు	-4343
బడుతున్న	-4344
హరి	-4345
వలస	-4346
▁ఫై	-4347
▁రంగంలో	-4348
▁ఎఫ్	-4349
▁యజ్ఞ	-4350
▁వరల్డ్	-4351
క్రో	-4352
▁దీప	-4353
ారిటీ	-4354
▁పురస్కారం	-4355
సిద్ధ	-4356
▁ఆధ్వ	-4357
ప్రాథమిక	-4358
▁గీ	-4359
▁కోర్టు	-4360
▁మంద	-4361
▁మనకు	-4362
సుల	-4363
14	-4364
▁సర్ప	-4365
▁లోక	-4366
▁డిస్	-4367
▁గ్రామీణ	-4368
▁మళ్ళీ	-4369
▁అందుకే	-4370
▁మూస	-4371
art	-4372
▁సామె	-4373
▁వుండ	-4374
▁నిజామాబాద్	-4375
చీ	-4376
ంకు	-4377
ంబా	-4378
బడ్డారు	-4379
▁కన్	-4380
▁ప్రైవే	-4381
▁అడవి	-4382
▁సోవియట్	-4383
మహ	-4384
యేషన్	-4385
▁లోక్	-4386
▁అవకాశ	-4387
▁చూసిన	-4388
పల్లెలో	-4389
▁మాస	-4390
▁సమి	-4391
▁ప్రాముఖ్య	-4392
▁జరిగాయి	-4393
▁జనరల్	-4394
▁రథ	-4395
▁గోడ	-4396
▁పంచాయతీ	-4397
▁మాజీ	-4398
▁రౌ	-4399
▁కుటుంబం	-4400
▁గుర్ర	-4401
మవుతుంది	-4402
▁పలక	-4403
▁సంఘటన	-4404
వరు	-4405
▁పాద	-4406
▁సీతారా	-4407
▁నిరోధ	-4408
▁మరికొ	-4409
57	-4410
దండ్ర	-4411
▁వచ్చాయి	-4412
్రానికి	-4413
▁దేశాలు	-4414
మణి	-4415
▁షే	-4416
స్థల	-4417
▁స్థితి	-4418
▁తీసుకుని	-4419
▁దర్శకత్వంలో	-4420
్యాండ్	-4421
▁లతో	-4422
▁స్న	-4423
కొన	-4424
నేయ	-4425
ణము	-4426
▁మెక్	-4427
▁నిర్మి	-4428
▁చంద	-4429
▁తోట	-4430
▁ప్రశం	-4431
▁ప్రవక్త	-4432
ంపియన్	-4433
▁వీరికి	-4434
▁అలీ	-4435
▁ఉపయోగించే	-4436
ణంలో	-4437
▁బయలు	-4438
▁థి	-4439
▁అధికారిక	-4440
▁ప్రచార	-4441
వల్	-4442
▁శత	-4443
▁నిష్	-4444
▁వేసి	-4445
▁స్నేహి	-4446
▁3,	-4447
ిల్లు	-4448
▁స్వాతంత్ర్య	-4449
మైనవి	-4450
▁తాలూ	-4451
గతా	-4452
యాన్	-4453
▁ఆకర్ష	-4454
▁విరా	-4455
▁అంబ	-4456
▁యోగ	-4457
▁సమావేశ	-4458
ినా	-4459
▁రాజ్యం	-4460
▁దశాబ్ద	-4461
ధ్యం	-4462
▁శతాబ్	-4463
▁విశ్లేష	-4464
▁మంగళ	-4465
త్న	-4466
▁కూడ	-4467
▁ప్రోగ	-4468
్యాత్మిక	-4469
టరు	-4470
▁ప్రవాహ	-4471
▁వృద్ధి	-4472
దాన	-4473
ఖ్	-4474
▁వుండును	-4475
ట్నం	-4476
▁కంది	-4477
▁హృ	-4478
▁this	-4479
▁ప్రవేశపెట్ట	-4480
ound	-4481
▁సొంత	-4482
▁పుణ్య	-4483
▁ఆయా	-4484
▁1970	-4485
▁సిటీ	-4486
▁ప్రతిని	-4487
యితే	-4488
▁విన	-4489
▁కొనసాగు	-4490
రంగా	-4491
▁ఎత్త	-4492
▁టో	-4493
▁పిలవ	-4494
33	-4495
నుగు	-4496
▁వాద	-4497
▁సంకే	-4498
కరణం	-4499
ort	-4500
▁పరిస్థితి	-4501
▁వ్యక్తిగత	-4502
▁తల్లిదండ్ర	-4503
▁నిల్వ	-4504
▁పొట్టి	-4505
15	-4506
వన్	-4507
▁శిఖ	-4508
సింగ్	-4509
▁ఆయుధ	-4510
▁పరుగు	-4511
▁ఆకాశ	-4512
▁స్కూల్	-4513
▁కీర్తి	-4514
▁గోల్	-4515
▁పనులు	-4516
▁sh	-4517
▁అనంతపురం	-4518
ద్యమ	-4519
▁సంస్కరణ	-4520
మత	-4521
▁అనుబంధ	-4522
▁విద్యుత్తు	-4523
▁ప్రారంభంలో	-4524
▁సాధించ	-4525
ంటో	-4526
▁తమిళనాడు	-4527
▁పాడ	-4528
ర్పు	-4529
▁చోటు	-4530
▁పరిణా	-4531
గోళ	-4532
ల్య	-4533
▁బూ	-4534
ంబంధ	-4535
▁వంత	-4536
▁దశలో	-4537
▁తెలిసిన	-4538
▁ఎటువంటి	-4539
ఫో	-4540
కోవాలి	-4541
▁శృ	-4542
▁రహ	-4543
భారత	-4544
▁నటించిన	-4545
పక్ష	-4546
▁ఎల్ల	-4547
▁తార	-4548
▁సుల్తా	-4549
రిస్తారు	-4550
సిటీ	-4551
▁లక్ష్య	-4552
ుడిగా	-4553
▁తరగతి	-4554
▁మానసిక	-4555
శేఖ	-4556
పాడులో	-4557
▁us	-4558
ాయితీ	-4559
▁వేదిక	-4560
▁నాయకుడు	-4561
▁అడి	-4562
▁వాల్	-4563
55	-4564
ట్యూట్	-4565
▁:.	-4566
▁వహి	-4567
▁సత్	-4568
▁ప్రేక్ష	-4569
▁ప్రక్క	-4570
గోలు	-4571
▁ఇచ్చారు	-4572
▁వెబ్	-4573
▁స్వేచ్ఛ	-4574
▁In	-4575
||	-4576
▁గానీ	-4577
▁పార్వ	-4578
▁పొడి	-4579
▁ఉద్యో	-4580
పేరు	-4581
్రల్	-4582
▁కట్టు	-4583
▁44	-4584
డుపు	-4585
▁పరిధిలోకి	-4586
ైంది	-4587
▁2003	-4588
▁సరైన	-4589
▁విద్యార్థులు	-4590
▁ప్రదేశం	-4591
▁పుస్తకం	-4592
▁తత్వ	-4593
▁మైస	-4594
▁ఇచ్చి	-4595
▁వైశాల	-4596
గృ	-4597
కాలలో	-4598
▁జానపద	-4599
▁సెంటర్	-4600
▁ఏకా	-4601
▁వెలి	-4602
▁చెప్పి	-4603
▁బ్రిటన్	-4604
పాత్ర	-4605
▁మిరప	-4606
▁కన్నడ	-4607
▁కళాశాలలో	-4608
▁ఫార్	-4609
స్థానం	-4610
▁శ్రీని	-4611
▁ఉన్నప్పటికీ	-4612
ish	-4613
జరా	-4614
▁వచ్చారు	-4615
▁పర్యావరణ	-4616
16	-4617
▁భారతీ	-4618
స్తున్నది	-4619
▁పరిసర	-4620
▁సమ్మే	-4621
కుంటారు	-4622
▁సన్	-4623
రళ	-4624
స్స	-4625
ాలున్నాయి	-4626
▁కార్యదర్శి	-4627
ిల్లి	-4628
థ్	-4629
▁ఏర్పడ	-4630
▁అడుగుల	-4631
▁గర్	-4632
▁ఖర్చు	-4633
▁రోజున	-4634
▁విల	-4635
▁పాఠశాలలో	-4636
▁వికారా	-4637
▁బార్	-4638
▁తొమ్మి	-4639
గమ	-4640
▁బెంగాల్	-4641
హన్	-4642
▁కూతు	-4643
▁నాశ	-4644
▁గణనీ	-4645
రాష్ట్ర	-4646
▁ఖు	-4647
▁పరిమా	-4648
▁డివిజన్	-4649
▁క్రైస్తవ	-4650
పాతం	-4651
దగిన	-4652
▁పులు	-4653
85	-4654
▁ముక్క	-4655
▁గట్టి	-4656
▁శక్తిని	-4657
▁క్రమంగా	-4658
▁రాష్ట్రంలోని	-4659
▁రాజ్	-4660
▁రాజ్యాంగ	-4661
లియం	-4662
▁ఒకరి	-4663
▁వ్యవహార	-4664
▁తిరుమల	-4665
▁ఇటువంటి	-4666
▁డాల	-4667
▁వీడియో	-4668
▁హీరో	-4669
▁పదార్థం	-4670
▁పాత్రలు	-4671
ండీ	-4672
ఘు	-4673
విధంగా	-4674
కరించింది	-4675
▁ధర్మరాజు	-4676
ించబడ్డాయి	-4677
▁సమర్ప	-4678
▁వద్దకు	-4679
▁మును	-4680
▁చెక్క	-4681
▁ప్రాచు	-4682
▁మిశ్రమ	-4683
▁32	-4684
▁ద్రవ	-4685
▁వీరిలో	-4686
▁ప్రైవేట్	-4687
మ్మడి	-4688
▁US	-4689
▁ఆమోద	-4690
▁కెనడా	-4691
▁తను	-4692
కున్నారు	-4693
▁లీగ్	-4694
▁సంపద	-4695
▁ఆమ్లం	-4696
▁స్వయంగా	-4697
17	-4698
▁విడిచి	-4699
▁ఫ్	-4700
▁శాస్త్రి	-4701
▁ప్రాంతానికి	-4702
ట్టే	-4703
▁వర్గం	-4704
ang	-4705
▁మాదిరి	-4706
-2	-4707
▁ఓడ	-4708
▁బిరు	-4709
▁2014,	-4710
▁కళ్యా	-4711
▁బయటకు	-4712
▁విశి	-4713
ంకి	-4714
▁మల్ల	-4715
ంటున్న	-4716
▁భావిస్తారు	-4717
▁కోరు	-4718
▁గజ	-4719
▁గ్	-4720
▁గెలి	-4721
ించటం	-4722
▁వార్షిక	-4723
▁కళాశాలలు	-4724
▁రాజమండ్రి	-4725
▁కారు	-4726
▁స్థా	-4727
ండం	-4728
▁ఎనిమిది	-4729
మయ్యాయి	-4730
▁సంగారెడ్డి	-4731
▁శో	-4732
భిన్న	-4733
ord	-4734
▁ప్రీ	-4735
కళ	-4736
ాలలోనూ	-4737
సాలు	-4738
▁ఊహ	-4739
పోతే	-4740
ర్యా	-4741
జిప్	-4742
ans	-4743
నిగా	-4744
ులుగా	-4745
▁భాగస్వా	-4746
▁యూరోపియన్	-4747
▁ఆధ్వర్యంలో	-4748
ూప	-4749
▁||	-4750
▁తెలుపు	-4751
▁చారిత్రక	-4752
ంచె	-4753
ంసా	-4754
▁శంక	-4755
▁హత్య	-4756
▁ముందుకు	-4757
▁సమాచారం	-4758
▁మరణించాడు	-4759
up	-4760
రాస్య	-4761
బడుతున్నాయి	-4762
▁సుఖ	-4763
▁ఆవిష్	-4764
▁రోజుల్లో	-4765
▁కాం	-4766
▁పురుషులు	-4767
▁సాహిత్యం	-4768
▁ప్రపంచంలోని	-4769
▁ఎన్ను	-4770
▁బాధ్యత	-4771
▁అసా	-4772
▁సంబంధించి	-4773
ుడి	-4774
▁ఇబ్బ	-4775
▁డాక్టర్	-4776
▁ప్రాధాన్యత	-4777
▁46	-4778
నామా	-4779
▁సింధ	-4780
▁ఏదైనా	-4781
▁మిగతా	-4782
▁వెలుప	-4783
హమ్మద్	-4784
▁పద్ధతిలో	-4785
▁ఆధ్యాత్మిక	-4786
▁చేస్తు	-4787
ళ్ళను	-4788
90	-4789
ించాలని	-4790
▁ఒకసారి	-4791
ులతో	-4792
పడ్డారు	-4793
▁ఒక్కొక్క	-4794
శై	-4795
▁చెరువులు	-4796
నేందుకు	-4797
లక్ష్	-4798
▁కార్యాలయ	-4799
▁సులభ	-4800
ast	-4801
▁అందరూ	-4802
▁ప్రె	-4803
▁పట్టా	-4804
▁నార్వే	-4805
▁చర్మ	-4806
▁విచార	-4807
కుండ	-4808
▁కలుగు	-4809
▁55	-4810
▁దాన	-4811
▁కావు	-4812
▁2015,	-4813
▁దిగువ	-4814
ఫర్	-4815
ld	-4816
▁తెర	-4817
▁గింజ	-4818
▁విలీ	-4819
▁ఈజిప్	-4820
కునిగా	-4821
▁మిలియన్ల	-4822
డియం	-4823
▁వివరణ	-4824
▁ఉనికి	-4825
▁అష్ట	-4826
హే	-4827
▁Ind	-4828
▁పెంచ	-4829
▁లోనే	-4830
▁ఉద్యమం	-4831
శాస్త్రం	-4832
స్సా	-4833
▁గణిత	-4834
▁మహారాష్ట్ర	-4835
▁నదీ	-4836
ore	-4837
ాడని	-4838
▁కొత్తగా	-4839
▁దుకాణాలు	-4840
లమ	-4841
స్మ	-4842
ష్టి	-4843
▁స్తం	-4844
▁రోమన్	-4845
▁ప్రోత్సహ	-4846
▁ఉన్నప్పుడు	-4847
▁విద్యార్థి	-4848
తుకు	-4849
▁చేసుకుని	-4850
▁75	-4851
▁ఉంచ	-4852
▁సస్య	-4853
కున్నాడు	-4854
లము	-4855
▁క్షి	-4856
▁కోట్ల	-4857
త్తిడి	-4858
ూర్లో	-4859
▁ఫ్రాన్స్	-4860
▁విస్తార	-4861
గాన	-4862
హ్య	-4863
▁టెలివిజన్	-4864
పాయ	-4865
రీస్	-4866
▁దేవత	-4867
▁పాడేరులోనూ	-4868
శో	-4869
రస	-4870
▁1960	-4871
▁శాశ్వ	-4872
▁లక్షణాలు	-4873
▁ఎక్కడ	-4874
▁కార్యక్రమం	-4875
నలో	-4876
ర్టు	-4877
▁బ్రహ్	-4878
▁చైన	-4879
▁ఉప్పు	-4880
▁రామారావు	-4881
▁కొనుగోలు	-4882
ard	-4883
▁చతు	-4884
ated	-4885
▁క్యూ	-4886
▁ప్రచారం	-4887
గింపు	-4888
▁చెప్పారు	-4889
▁తీసుకొని	-4890
నాలి	-4891
▁ఆగ్	-4892
▁5.	-4893
నుము	-4894
▁తుల	-4895
▁పొంది	-4896
▁అలాంటి	-4897
సిస్	-4898
▁భవి	-4899
cl	-4900
▁రద్దు	-4901
▁కావలసిన	-4902
▁తూర్పున	-4903
కాని	-4904
▁వాల	-4905
▁అనకాపల్లి	-4906
ure	-4907
▁not	-4908
▁కట్టి	-4909
రగా	-4910
▁స్వి	-4911
ోత్సవం	-4912
శ్చా	-4913
▁జ్యో	-4914
▁రాతి	-4915
▁దివ్య	-4916
▁సహాయం	-4917
చ్చింది	-4918
పురా	-4919
ఫోర్	-4920
స్ట్ర	-4921
▁వేడు	-4922
గాకు	-4923
ీర్ణ	-4924
▁వెల్ల	-4925
▁వ్యతిరే	-4926
▁pl	-4927
య్యి	-4928
టై	-4929
మైనా	-4930
==	-4931
▁మన్	-4932
▁పాలనలో	-4933
▁సరస్సు	-4934
షియం	-4935
రిక్ష	-4936
▁2002	-4937
▁పిల్లల	-4938
ode	-4939
▁వస్తువు	-4940
య్యే	-4941
▁ఇరు	-4942
▁నటన	-4943
నున్న	-4944
▁1999	-4945
▁జవాహ	-4946
▁క్లి	-4947
ens	-4948
్వి	-4949
▁తాము	-4950
కై	-4951
▁నాగరిక	-4952
▁ఆహారం	-4953
▁ఇజ్రాయిల్	-4954
yle	-4955
రము	-4956
▁గుహ	-4957
▁1950	-4958
▁జీవితంలో	-4959
▁కచ్చి	-4960
▁ఉన్నట్లు	-4961
వసర	-4962
▁భీష్	-4963
▁వరుసగా	-4964
▁విధమైన	-4965
▁దేశంలోని	-4966
▁పదార్ధ	-4967
▁వుంటుంది	-4968
▁మంచు	-4969
వడం	-4970
▁అభిప్రాయ	-4971
▁రెండి	-4972
దాసు	-4973
▁ఒడి	-4974
▁పోయ	-4975
చున్న	-4976
మయ్యే	-4977
▁మండలాలు	-4978
▁నాయుడు	-4979
▁పేరును	-4980
▁వెలుగు	-4981
▁యూనివర్	-4982
▁పేర	-4983
▁ఆలోచ	-4984
▁విభిన్న	-4985
▁క్రీస్తు	-4986
▁65	-4987
▁ఊరి	-4988
▁నిండి	-4989
▁ఆస్	-4990
▁నాటు	-4991
▁ఫిల్	-4992
▁రాణి	-4993
▁తేదీన	-4994
▁సూచిస్తుంది	-4995
పేటలోను	-4996
▁హాజ	-4997
▁అకాడ	-4998
▁నిపుణ	-4999
నేని	-5000
▁సంభ	-5001
▁గెలుచుకు	-5002
▁కవ	-5003
▁పైకి	-5004
▁స్టేట్	-5005
▁తగ్గు	-5006
▁నటించారు	-5007
▁పర్	-5008
హీన	-5009
▁రాష్ట	-5010
▁వెళ్ల	-5011
▁ముడి	-5012
శాన్ని	-5013
రిక్	-5014
ేశారు	-5015
▁అందిస్తుంది	-5016
}}	-5017
▁మళ్	-5018
▁2016	-5019
31	-5020
క్కా	-5021
▁తీయ	-5022
▁ఆవ	-5023
ive	-5024
టూరు	-5025
▁గ్రీకు	-5026
తులతో	-5027
▁నేటి	-5028
లాది	-5029
▁ప్రయోజన	-5030
▁చాలామంది	-5031
▁శ్రీరాములు	-5032
▁మాట్లాడ	-5033
▁ఎన్నికైన	-5034
▁కాశీ	-5035
▁సీజన్	-5036
▁తీవ్రమైన	-5037
క్సీ	-5038
▁సెయింట్	-5039
▁కొనసాగింది	-5040
▁పదవీ	-5041
▁మరణం	-5042
▁శిలా	-5043
▁భవిష్య	-5044
▁విగ్రహం	-5045
▁భద్రా	-5046
▁చివరికి	-5047
▁ప్రభావితం	-5048
రమణ	-5049
బ్బి	-5050
▁కనీసం	-5051
▁సాధ్య	-5052
▁ప్రారంభించాడు	-5053
దె	-5054
▁ప్రథమ	-5055
పాలెంలో	-5056
▁వేగంగా	-5057
▁చేస్తాయి	-5058
రాయ	-5059
▁అడ్	-5060
▁హౌస్	-5061
▁ఇచ్చే	-5062
▁పుష్ప	-5063
ంచిగా	-5064
▁తరచూ	-5065
▁నమూనా	-5066
▁వాడుకలో	-5067
▁అట	-5068
▁చలి	-5069
▁చూపు	-5070
▁గుజరా	-5071
యోధ	-5072
సంబంధ	-5073
▁ఉత్తర్	-5074
ళూరు	-5075
▁నీకు	-5076
▁శృంగ	-5077
కానికి	-5078
▁సంతో	-5079
▁హైడ్రో	-5080
▁పేద	-5081
పూర్వ	-5082
గలు	-5083
▁మెరుగు	-5084
▁సినిమాలు	-5085
▁నష్ట	-5086
కన	-5087
▁డ్ర	-5088
▁ఆర్మే	-5089
▁విద్యు	-5090
▁48	-5091
సుక	-5092
ధికార	-5093
▁కథా	-5094
▁సాధించాడు	-5095
▁చెప్	-5096
▁ప్రొఫె	-5097
నూరు	-5098
ార్డ్	-5099
▁సలహా	-5100
▁ప్రత్యేకమైన	-5101
మను	-5102
స్క	-5103
▁గుణ	-5104
▁ఫ్లో	-5105
64	-5106
ద్రమ	-5107
వెల్	-5108
▁సెంట్రల్	-5109
ఫై	-5110
▁రేఖ	-5111
▁సోద	-5112
▁రాజులు	-5113
▁వాటికి	-5114
పురంలోను	-5115
▁కేరళ	-5116
ంద్	-5117
▁ఎలక్ట్రా	-5118
▁బహుమతి	-5119
▁కాలువలు	-5120
▁కఠ	-5121
▁ఆదేశ	-5122
▁శిష్య	-5123
▁పెట్టారు	-5124
▁కత	-5125
▁పీఠ	-5126
▁వెన	-5127
చేత	-5128
రత	-5129
జను	-5130
▁క్రా	-5131
పర్వ	-5132
ధానం	-5133
▁నిలిచింది	-5134
▁అగ	-5135
త్మా	-5136
▁ఉండదు	-5137
ండో	-5138
▁47	-5139
ధీనం	-5140
▁సస్యరక్షణ	-5141
సనం	-5142
▁మొదలై	-5143
▁కొవ్వు	-5144
పింది	-5145
▁అంతరిక్ష	-5146
▁శిల్ప	-5147
ేశాల	-5148
▁తరగ	-5149
▁కాలేదు	-5150
▁జనాభాలో	-5151
pp	-5152
▁క్లా	-5153
▁నిబంధ	-5154
▁సిద్ద	-5155
▁జవాహర్	-5156
పైన	-5157
ence	-5158
ార్జు	-5159
▁49	-5160
▁ఇండో	-5161
నాథ్	-5162
▁ఆన్	-5163
▁ఎకర	-5164
▁దేశానికి	-5165
rit	-5166
▁స్మ	-5167
▁ఏకైక	-5168
▁పార్లమెంటు	-5169
..	-5170
▁ఆల్బ	-5171
పాన్ని	-5172
▁రకమైన	-5173
▁మొక్కలు	-5174
గె	-5175
▁బహుళ	-5176
క్లి	-5177
▁అల్ల	-5178
▁రాఘ	-5179
▁పరమాణ	-5180
▁ఇష్ట	-5181
▁అంతకు	-5182
▁బ్రె	-5183
▁సుప్ర	-5184
▁పర్యాటక	-5185
▁సుర	-5186
ాల్ని	-5187
▁అంటూ	-5188
▁ప్రశంస	-5189
▁నగరానికి	-5190
▁లెక్క	-5191
ినే	-5192
▁బెల్	-5193
▁చెంది	-5194
▁వివరి	-5195
▁ప్రజాదరణ	-5196
▁బలమైన	-5197
▁గాన	-5198
ha	-5199
లకి	-5200
▁తిరస్	-5201
▁స్వాధీనం	-5202
కాలిక	-5203
చారాన్ని	-5204
▁ఉత్తరాన	-5205
ell	-5206
▁వారస	-5207
▁జరిగి	-5208
▁నేర్చుకు	-5209
ian	-5210
మలు	-5211
ీపీ	-5212
▁నిర్వచ	-5213
▁సరిహద్దులో	-5214
చేసింది	-5215
▁ప్రాతిని	-5216
▁వేట	-5217
▁పేర్కొన్నారు	-5218
▁పల్ల	-5219
▁పసి	-5220
▁ఆహ్వ	-5221
▁ఫిలిం	-5222
▁విశాల	-5223
▁తరఫు	-5224
గణి	-5225
▁కూరగ	-5226
▁స్వాతంత్ర్యం	-5227
రైడ్	-5228
వద	-5229
వీడు	-5230
▁లేదని	-5231
▁బిలియన్	-5232
▁కిరణ	-5233
▁భూభాగం	-5234
▁రామకృష్ణ	-5235
మంతా	-5236
▁2015	-5237
▁ఆర్ధిక	-5238
▁43	-5239
▁నీటిలో	-5240
▁వచ్చాడు	-5241
▁ప్రకటించింది	-5242
▁ఒక్కో	-5243
ారంలో	-5244
▁విష్ణువు	-5245
ఘా	-5246
▁ఆచార	-5247
▁ప్రారంభమైంది	-5248
యైన	-5249
▁ఫల	-5250
▁మరా	-5251
కొక	-5252
▁భాషలలో	-5253
▁బెం	-5254
లెస్	-5255
▁సూపర్	-5256
▁అధికారం	-5257
హర్	-5258
▁శాత	-5259
▁నిర్ది	-5260
▁ప్రామా	-5261
▁హాల్	-5262
రిన	-5263
పోయాయి	-5264
▁అనీ	-5265
▁ఉచి	-5266
▁వుండే	-5267
▁ఐక్య	-5268
న్నాను	-5269
▁దైవ	-5270
▁పోల్	-5271
కులుగా	-5272
▁విభాగం	-5273
▁దేవు	-5274
▁శుద్ధ	-5275
▁ఫ్రెంచి	-5276
▁శ్రీలంక	-5277
▁జన్మించిన	-5278
▁కద	-5279
▁నరస	-5280
▁గ్రే	-5281
▁పునరుద్ధ	-5282
▁రైల్వేస్ట	-5283
గోళిక	-5284
▁అధికారులు	-5285
▁కనిపిస్తాయి	-5286
వర్ణ	-5287
▁జనతా	-5288
▁అతనిని	-5289
67	-5290
▁సదు	-5291
కాంత	-5292
్యుల	-5293
▁ప్రచురణ	-5294
▁వ్యతిరేకి	-5295
క్రా	-5296
వాది	-5297
▁వేసిన	-5298
▁దంపతులకు	-5299
మారి	-5300
ంపబడిన	-5301
▁చేసేందుకు	-5302
▁j	-5303
కొన్న	-5304
నేషనల్	-5305
ాల్లోని	-5306
ప్స్	-5307
▁ht	-5308
▁తరంగ	-5309
▁సార్వ	-5310
▁54	-5311
ఖరి	-5312
▁స్వల్ప	-5313
▁జంట	-5314
నాలజీ	-5315
▁ఫ్యా	-5316
ించాలి	-5317
▁మెదక్	-5318
యొక్క	-5319
రించడం	-5320
▁తరఫున	-5321
▁ముందే	-5322
▁బదులుగా	-5323
▁చలనచిత్ర	-5324
▁ఉదయం	-5325
▁లోపల	-5326
ించటానికి	-5327
▁విప్లవ	-5328
▁శ్రీకాకుళ	-5329
▁సందర్భంలో	-5330
య్యాయి	-5331
▁బ్లాక్	-5332
టాయి	-5333
ట్టం	-5334
ous	-5335
▁మనో	-5336
▁సూర్యా	-5337
కాయ	-5338
▁అసో	-5339
సంప	-5340
▁ch	-5341
▁దాటి	-5342
▁అధికారి	-5343
▁చేయాలని	-5344
▁బయలుదే	-5345
గర	-5346
జ్ర	-5347
▁విషయాలు	-5348
▁చేసుకున్న	-5349
▁ప్రాంతాలకు	-5350
▁తాత్	-5351
▁దూరంగా	-5352
▁సర్పంచిగా	-5353
//	-5354
%,	-5355
▁ప్రతిబి	-5356
▁int	-5357
లాండు	-5358
▁వ్యాసాల	-5359
▁అమెరికాలో	-5360
▁లోయ	-5361
▁మల్	-5362
▁తెనాలి	-5363
టంలో	-5364
▁పెడ	-5365
▁సెక	-5366
▁ముస్లి	-5367
్యత	-5368
నాలను	-5369
▁మీరు	-5370
▁వసతి	-5371
▁పుస్తకాలు	-5372
గము	-5373
▁మైన	-5374
▁ఆశ్రమ	-5375
▁భౌగోళిక	-5376
ర్మన్	-5377
▁ఎక్క	-5378
▁గురి	-5379
పాలక	-5380
▁అంటు	-5381
▁నిషేధ	-5382
సేవ	-5383
▁ఒలి	-5384
▁స్వర	-5385
▁పెంచు	-5386
▁సంతాన	-5387
▁తప్పని	-5388
▁వివరాలు	-5389
ంస్	-5390
▁సమాధి	-5391
99	-5392
మౌ	-5393
▁కౌన్సి	-5394
▁ప్రజలను	-5395
▁పెట్టుబడి	-5396
ందన	-5397
ంసం	-5398
శేష	-5399
గాను	-5400
▁శ్రేణి	-5401
ఖండ	-5402
▁జర్మన్	-5403
▁తపస్సు	-5404
స్తుందని	-5405
కరించారు	-5406
▁విజయనగర	-5407
▁అంతర	-5408
▁ఈశా	-5409
▁పెరిగింది	-5410
▁187	-5411
▁విధానాన్ని	-5412
▁సంస్థాన	-5413
ట్లను	-5414
▁కొట్ట	-5415
▁పలువు	-5416
▁చేరాడు	-5417
▁స్థాపించారు	-5418
▁మనసు	-5419
▁టే	-5420
ప్రతి	-5421
▁కురు	-5422
ాలలోను	-5423
▁రాయి	-5424
54	-5425
▁అటు	-5426
▁మీదుగా	-5427
వలె	-5428
▁అప్పటికే	-5429
▁సాహ	-5430
▁రూపకల్ప	-5431
▁ప్రసాద్	-5432
ace	-5433
స్రా	-5434
▁ఏదో	-5435
▁సన్న	-5436
ug	-5437
▁మొఘ	-5438
▁లభ్య	-5439
▁మహర్షి	-5440
▁మంచిర్య	-5441
▁తెలంగాణా	-5442
యె	-5443
తుంటారు	-5444
▁చేయబడ్డాయి	-5445
▁పార్క్	-5446
▁ప్రారంభించింది	-5447
జాన్	-5448
▁త్రా	-5449
▁విభజన	-5450
▁ధన	-5451
▁బలి	-5452
త్యాన్ని	-5453
గాని	-5454
▁సిరి	-5455
://	-5456
లాస	-5457
▁జైన	-5458
▁జాగ్ర	-5459
▁కాలేజీ	-5460
▁ఉండడం	-5461
▁అదనంగా	-5462
ical	-5463
విక	-5464
▁విషయాన్ని	-5465
▁ఫే	-5466
పార్	-5467
▁స్టార్	-5468
▁తీసిన	-5469
▁అకాడమీ	-5470
▁ప్రకారము	-5471
▁ఒకప్రాథమిక	-5472
సీమ	-5473
▁తేడా	-5474
▁విద్వ	-5475
కలి	-5476
మంత	-5477
▁ప్రయత్నం	-5478
లోయ	-5479
రాశి	-5480
▁పర్యవే	-5481
▁అరే	-5482
▁కావడం	-5483
▁ఉపాధ్యాయ	-5484
భ్యా	-5485
▁సాల	-5486
పిల్ల	-5487
▁1947	-5488
▁పూర్త	-5489
▁తెలుస్తుంది	-5490
సిన్	-5491
ెక్స్	-5492
గుణంగా	-5493
▁హాస్య	-5494
▁నిలు	-5495
షేక	-5496
▁ఫైన	-5497
శ్చాత్య	-5498
గామ	-5499
▁యజ	-5500
▁అరణ	-5501
▁ఏర్పర	-5502
nt	-5503
రేట్	-5504
63	-5505
▁500	-5506
ేషియా	-5507
▁ఆధిప	-5508
▁సత్యనారాయణ	-5509
రును	-5510
▁అచ్చ	-5511
▁తీసి	-5512
చా	-5513
▁గరి	-5514
డింది	-5515
▁అభిప్రాయం	-5516
తుల్లో	-5517
ఁడు	-5518
▁తమ్ము	-5519
▁అన్నీ	-5520
▁సమాఖ్య	-5521
▁కనిపించ	-5522
▁మరణించారు	-5523
▁తీవ్రంగా	-5524
భవన	-5525
మూరు	-5526
▁ఐర్	-5527
▁దాడు	-5528
▁సంభా	-5529
▁జ్యోతి	-5530
▁విద్యను	-5531
▁కుడి	-5532
▁కంట	-5533
▁పంపు	-5534
దొ	-5535
▁ఇంట	-5536
▁అనుసంధాన	-5537
▁కెమె	-5538
ందరూ	-5539
గుంట	-5540
ట్టానికి	-5541
▁కార్మి	-5542
▁శ్లో	-5543
▁తాలూకా	-5544
▁గెలుపొ	-5545
నుంచి	-5546
▁నిలిచి	-5547
▁దొంగ	-5548
▁వందల	-5549
▁పెరుగుద	-5550
▁అత్యధికంగా	-5551
చ్చారు	-5552
▁క్రైస్త	-5553
▁వ్యవసాయా	-5554
,.	-5555
65	-5556
డ్ల	-5557
▁దోహద	-5558
▁1991	-5559
▁దీంతో	-5560
▁వాడుక	-5561
▁పొగాకు	-5562
గల్	-5563
▁రకం	-5564
రుద్ధ	-5565
▁ఆరోప	-5566
స్తాను	-5567
84	-5568
dis	-5569
▁అల్లా	-5570
▁జన్యు	-5571
▁తెలుగుదేశం	-5572
▁కొన్నిసార్లు	-5573
▁పత	-5574
▁సుందర	-5575
▁బాబా	-5576
▁డిగ్రీలు	-5577
ial	-5578
ong	-5579
▁తనను	-5580
▁మహిళా	-5581
▁డో	-5582
▁కాంగ్రె	-5583
గాలు	-5584
▁చేసుకున్నారు	-5585
so	-5586
పట్ట	-5587
హార్	-5588
▁నెలల	-5589
▁సర్వే	-5590
▁ఎరువులు	-5591
▁ప్రాముఖ్యత	-5592
▁ఉర్	-5593
క్సైడ్	-5594
భివృద్ధి	-5595
play	-5596
లుడు	-5597
▁మళ్లీ	-5598
code	-5599
కూడా	-5600
నియం	-5601
▁గురించిన	-5602
▁సౌకర్యాల	-5603
▁150	-5604
▁పేట	-5605
▁ప్రోగ్రామ	-5606
▁క్రితం	-5607
యూ	-5608
వెన్	-5609
కొను	-5610
ie	-5611
▁వాళ్ళ	-5612
▁ప్రత్యే	-5613
▁అక్షరాస్య	-5614
ంలోనే	-5615
▁వేయుట	-5616
▁బాధ్యతలు	-5617
87	-5618
ార్థం	-5619
▁కొబ్బ	-5620
▁కనుగొన	-5621
▁హనుమంతు	-5622
ారుల	-5623
యాల	-5624
▁వేష	-5625
▁భారతదేశంలోని	-5626
▁64	-5627
▁పేర్	-5628
▁సంబంధాలు	-5629
▁సమర్థ	-5630
▁పాశ్చాత్య	-5631
▁టు	-5632
▁అడ్డ	-5633
▁విశాఖపట్నంలోను	-5634
▁దాంతో	-5635
▁వహించిన	-5636
ther	-5637
యాలో	-5638
ాలలోని	-5639
▁కార్బన్	-5640
▁తద్వారా	-5641
సాన్ని	-5642
ానిష్	-5643
▁కార్పొ	-5644
▁వనరులు	-5645
37	-5646
▁రూపు	-5647
▁అణ	-5648
తోపాటు	-5649
▁కాపా	-5650
▁ఫిలి	-5651
▁నాణ్య	-5652
▁ఎత్తైన	-5653
▁బ్యాంక్	-5654
రించుకు	-5655
▁మరణించిన	-5656
▁డొ	-5657
▁రాజవం	-5658
▁సంస్థల	-5659
గన్	-5660
▁సాక్ష	-5661
▁వాయువు	-5662
▁రహస్య	-5663
ేష్	-5664
జార్	-5665
కించి	-5666
ంద్రత	-5667
చల	-5668
▁".	-5669
▁చర్యలు	-5670
▁;	-5671
▁మేరకు	-5672
▁హిమ	-5673
లలోని	-5674
▁సేవల	-5675
▁వ్యాఖ్య	-5676
▁నక్షత్రం	-5677
▁స్థాపించబడింది	-5678
చున్నది	-5679
త్మకంగా	-5680
▁షో	-5681
ర్వే	-5682
▁సంరక్ష	-5683
▁ఇటీవల	-5684
▁ఇంటర్నేషనల్	-5685
▁మాల	-5686
▁ఆకార	-5687
▁డబ్బు	-5688
▁ప్రయాణి	-5689
▁చిరు	-5690
▁తదితర	-5691
▁నేర	-5692
▁సిస్ట	-5693
షత్	-5694
ర్షణ	-5695
▁సైతం	-5696
▁రమ	-5697
టనలు	-5698
యేటర్	-5699
▁ఫుట్	-5700
▁క్లబ్	-5701
▁వికారాబాద్	-5702
▁పాత్రను	-5703
▁కదా	-5704
న్సర్	-5705
▁సాహితీ	-5706
▁ద్రో	-5707
▁రూపం	-5708
మిన	-5709
▁ఇర	-5710
▁సముద్రం	-5711
త్తర	-5712
రియల్	-5713
ించగా	-5714
కారి	-5715
▁బాబు	-5716
▁తయారుచే	-5717
▁చెందినది	-5718
రాయి	-5719
▁క్షిప	-5720
▁స్వచ్ఛ	-5721
▁ముంబై	-5722
▁స్థానాన్ని	-5723
ass	-5724
ంగ్లా	-5725
▁అటువంటి	-5726
▁పనిచేసే	-5727
▁సమస్యలు	-5728
ధారిత	-5729
పేటలో	-5730
లొ	-5731
▁అట్లా	-5732
ంపజే	-5733
గడ్డ	-5734
పోవడంతో	-5735
షీ	-5736
▁గది	-5737
▁క్షీణ	-5738
▁వనపర్తి	-5739
ంఛ	-5740
స్తీ	-5741
▁అనుభ	-5742
▁పాలనా	-5743
కారాన్ని	-5744
▁నిర్మాత	-5745
▁ప్రతిభ	-5746
▁సముదాయ	-5747
▁చదర	-5748
ించబడి	-5749
▁పుత్ర	-5750
▁తొమ్మిది	-5751
▁సన్యా	-5752
విధ్య	-5753
▁సాధన	-5754
▁ఆయనను	-5755
తున్నది	-5756
ంచీ	-5757
రాత్రి	-5758
▁పనిచేయ	-5759
క్కులు	-5760
భావం	-5761
▁బాక్	-5762
▁యాత్ర	-5763
▁శస్త్ర	-5764
▁ఇచ్చింది	-5765
▁యూనివర్సిటీ	-5766
దానం	-5767
▁ఇటు	-5768
▁సంవత్సరానికి	-5769
ect	-5770
నాధ	-5771
▁6.	-5772
▁పెరగ	-5773
▁శివుడు	-5774
▁సంప	-5775
▁సిద్ధాంతం	-5776
▁చేసుకున్నాడు	-5777
ack	-5778
స్టిక్	-5779
▁శేష	-5780
▁వహించాడు	-5781
భూమి	-5782
యన్లు	-5783
ame	-5784
▁కుండ	-5785
▁tr	-5786
▁అర్జునుడు	-5787
▁తొల	-5788
▁మంట	-5789
▁http	-5790
▁సంయోగ	-5791
▁అసోసి	-5792
చేశారు	-5793
▁ప్రకాశ	-5794
పెన్	-5795
ులైన	-5796
▁అంతర్గత	-5797
▁తాగునీటి	-5798
ల్లోను	-5799
▁జాగ్రత్త	-5800
▁పెను	-5801
▁స్థూ	-5802
▁స్పెయిన్	-5803
▁భువన	-5804
▁వ్యవస్థను	-5805
▁వినో	-5806
విన్	-5807
style	-5808
▁వస్తున్న	-5809
కట్ట	-5810
▁కథాన	-5811
▁సెల్	-5812
▁మార్గంలో	-5813
▁శరీరం	-5814
▁సమితి	-5815
పడ్డాయి	-5816
▁వైఎస్	-5817
▁ఏర్పడు	-5818
▁తీసుకో	-5819
త్పత్తి	-5820
▁ఎలాంటి	-5821
▁ఫలిత	-5822
▁టెక్నాలజీ	-5823
▁నటించాడు	-5824
నరీ	-5825
రణం	-5826
పురంలోనూ	-5827
▁మాటలు	-5828
▁దేవుడు	-5829
న్నుల	-5830
▁నేతృ	-5831
▁ఏలూరు	-5832
▁నిరూప	-5833
▁గుర్తించారు	-5834
32	-5835
▁వేరే	-5836
▁పరంగా	-5837
▁భాషలు	-5838
',	-5839
▁le	-5840
▁ప్రత్యేకత	-5841
జల	-5842
▁ఆశ్చ	-5843
గొట్ట	-5844
వయ	-5845
ధర్మ	-5846
నుని	-5847
బాల్	-5848
▁సందేశ	-5849
▁పరిమాణం	-5850
రత్	-5851
బెల్	-5852
▁ప్యా	-5853
▁ఆదాయం	-5854
చరిత్ర	-5855
▁నన్ను	-5856
▁రష్య	-5857
▁పోర్ట్	-5858
▁పేర్కొన	-5859
▁కుటుంబానికి	-5860
▁అమృ	-5861
▁అర్హ	-5862
న్నింటి	-5863
89	-5864
▁అయ్యింది	-5865
▁చైత	-5866
▁మైక్రో	-5867
▁కొంతకాలం	-5868
డ్లు	-5869
ర్తన	-5870
▁ఆందో	-5871
జని	-5872
▁ప్రయాణం	-5873
▁బట్ట	-5874
కేంద్ర	-5875
▁ఇంటికి	-5876
▁ముగింపు	-5877
▁విస్తీర్	-5878
▁మించి	-5879
వస్తు	-5880
display	-5881
వారిని	-5882
tic	-5883
▁న్యూయ	-5884
▁పూజలు	-5885
ేయ	-5886
▁ఖని	-5887
▁పర్షి	-5888
▁వైద్యుడు	-5889
▁క్రమంలో	-5890
▁కోర	-5891
బడులు	-5892
▁రాష్ట్రాల	-5893
▁బది	-5894
▁వెండి	-5895
▁1998	-5896
▁బాలు	-5897
▁ఆచార్య	-5898
▁గ్రామాలను	-5899
చారి	-5900
రాజ్	-5901
▁బెర్	-5902
▁వివాద	-5903
▁సంతోష	-5904
ించుట	-5905
పున	-5906
▁ధ్రు	-5907
▁అరకు	-5908
▁జాతులు	-5909
డన్	-5910
▁ట్రి	-5911
ానికీ	-5912
▁నిశ్చ	-5913
▁బిడ్డ	-5914
సిం	-5915
▁వీధి	-5916
▁పుట్టు	-5917
▁ఇచ్చాడు	-5918
▁ప్రచురించ	-5919
▁లాభ	-5920
మరి	-5921
▁ఉంచు	-5922
విడ	-5923
▁1930	-5924
▁2017,	-5925
▁సమాజం	-5926
▁వాళ్ళు	-5927
▁కలక	-5928
▁రంగా	-5929
▁క్రొత్త	-5930
▁జర్	-5931
నామ	-5932
▁పొల	-5933
▁చేయుట	-5934
▁విరి	-5935
▁విశిష్ట	-5936
జీవ	-5937
టిలో	-5938
ోత్సవ	-5939
▁సిద్ధి	-5940
▁సింహ	-5941
▁అనువద	-5942
▁కప్	-5943
▁రెండూ	-5944
▁కార్డు	-5945
య్యం	-5946
సాయి	-5947
▁గవర్నర్	-5948
పిడి	-5949
▁సమాచారాన్ని	-5950
వణ	-5951
▁పుస్తక	-5952
▁ఉందిసమీప	-5953
▁విస్తృతంగా	-5954
▁రం	-5955
ట్లయితే	-5956
పాక	-5957
సరా	-5958
స్ర	-5959
ేమీ	-5960
రులకు	-5961
▁కేసు	-5962
▁మలయా	-5963
▁ఐస్	-5964
▁వెను	-5965
▁గోవి	-5966
క్రియ	-5967
▁180	-5968
క్రి	-5969
1-	-5970
▁బలహీన	-5971
▁ఉద్యోగం	-5972
▁పనిచేసిన	-5973
▁బ్రిటిషు	-5974
▁కలప	-5975
▁సాయి	-5976
▁బంగ్లా	-5977
▁కండ	-5978
పోయినా	-5979
▁పురపాలక	-5980
39	-5981
ార్మిక	-5982
▁అయ్యాడు	-5983
▁రామచంద్ర	-5984
▁విఫల	-5985
▁పరిధిలోని	-5986
ire	-5987
▁దేశీయ	-5988
నప్పుడు	-5989
శ్వా	-5990
▁మెంట్	-5991
▁బిందు	-5992
ించడంతో	-5993
per	-5994
▁లిపి	-5995
ంశ	-5996
ave	-5997
▁అంతేకాక	-5998
▁రాజధానిగా	-5999
▁కావ్య	-6000
▁ప్రయత్నాలు	-6001
▁పరిపాలన	-6002
ణులు	-6003
▁కొంచ	-6004
▁ఏర్పా	-6005
వ్యవస్థ	-6006
▁im	-6007
▁డైరె	-6008
లిలో	-6009
▁అక్కడే	-6010
▁Ch	-6011
▁టౌన్	-6012
▁బదిలీ	-6013
డయ్యాడు	-6014
టాన్ని	-6015
▁ప్రవహ	-6016
▁అయ్యాయి	-6017
▁దగ్గరగా	-6018
గ్రహాన్ని	-6019
▁విడ	-6020
▁రంగం	-6021
▁కేటాయి	-6022
▁సినిమాల్లో	-6023
ందారు	-6024
▁వెల	-6025
జాతి	-6026
మధ్య	-6027
▁అనకాపల్లిలోను	-6028
▁ప్రాతినిధ్యం	-6029
▁అసి	-6030
శిక్ష	-6031
▁మాట్లాడే	-6032
ight	-6033
▁అవగా	-6034
▁క్షే	-6035
▁సమూ	-6036
▁గోపాల	-6037
▁పెరిగి	-6038
▁జంక్షన్	-6039
▁వ్యక్తులు	-6040
గ్గా	-6041
రియం	-6042
▁దర్	-6043
▁కత్తి	-6044
▁దాకా	-6045
▁దేశంగా	-6046
▁sp	-6047
స్టన్	-6048
▁కేశ	-6049
▁అధికారికంగా	-6050
▁ఫెడ	-6051
▁1996	-6052
▁అంకి	-6053
▁వైద్యులు	-6054
▁నటించింది	-6055
మిత్ర	-6056
▁గొల్ల	-6057
తుంటాయి	-6058
▁బోర్డు	-6059
క్ల	-6060
▁ప్రస్తావ	-6061
▁కొబ్బరి	-6062
▁బోరుబావులు	-6063
one	-6064
క్లో	-6065
▁బృహ	-6066
▁చేతిపంపులు	-6067
ple	-6068
యిక	-6069
▁ఎడి	-6070
▁ఇంది	-6071
టిట్యూట్	-6072
▁న్యూయార్క్	-6073
▁అడ్డు	-6074
▁అన్నారు	-6075
బాబు	-6076
శ్వర	-6077
▁అభ్యస	-6078
▁ఉద్భవ	-6079
▁కాలానికి	-6080
ర్శి	-6081
వళి	-6082
▁జోన్	-6083
▁ఉత్పత్తు	-6084
ల్లే	-6085
త్సాహ	-6086
▁మందికి	-6087
ందులు	-6088
ునికి	-6089
▁సౌకర్యాలేమీ	-6090
▁ఇవ	-6091
▁వాడతారు	-6092
ర్రు	-6093
▁గద్వ	-6094
▁చాళు	-6095
▁నిజానికి	-6096
ge	-6097
కుంది	-6098
ఉంది	-6099
▁2013,	-6100
▁పరిశోధనలు	-6101
▁విస్తీర్ణం	-6102
ళ్వ	-6103
▁అంతటా	-6104
▁నియమి	-6105
▁భూమిని	-6106
▁వెళ్ళాడు	-6107
కథ	-6108
గీ	-6109
▁184	-6110
ళ్లలో	-6111
▁సమీపంలోని	-6112
▁వేర్వేరు	-6113
▁భారతదేశానికి	-6114
▁నిరు	-6115
▁రాగి	-6116
▁సేవలను	-6117
▁ప్రసాద	-6118
▁అమ్మాయి	-6119
▁ప్రాంతాలను	-6120
▁తదు	-6121
▁ప్రామాణిక	-6122
ath	-6123
యాన	-6124
▁గోధు	-6125
▁300	-6126
ిల్స్	-6127
▁కుటుంబంలో	-6128
ted	-6129
▁ad	-6130
▁అరకులోయ	-6131
▁ఎన్నికల	-6132
▁విస్తరించ	-6133
▁చదరపు	-6134
▁ప్రెసి	-6135
▁me	-6136
సెర్	-6137
▁నిమిష	-6138
▁చిత్రానికి	-6139
35	-6140
▁ఎదురు	-6141
▁ప్రారంభం	-6142
త్యాల	-6143
తువు	-6144
మితి	-6145
▁అబ్దు	-6146
displaystyle	-6147
చ్చాడు	-6148
▁ఆసి	-6149
▁కూర్చు	-6150
▁నమ్మకం	-6151
▁ధో	-6152
▁ఆఫ్ఘ	-6153
▁అయో	-6154
▁స్తంభ	-6155
▁వయసులో	-6156
ఘ్	-6157
మూస	-6158
ప్రభ	-6159
కరంగా	-6160
▁రసాయనిక	-6161
యలు	-6162
ధ్యా	-6163
▁ఆశ్ర	-6164
▁రేటు	-6165
పెట్టిన	-6166
క్స	-6167
▁ఉపరి	-6168
▁మోక్ష	-6169
▁ఉంటాడు	-6170
▁పాటించ	-6171
వేళ	-6172
▁వాదన	-6173
▁సమకాల	-6174
▁మూలంగా	-6175
▁పరిశోధనా	-6176
▁జీవితాన్ని	-6177
పుల	-6178
బర్ట్	-6179
▁వేదా	-6180
క్షేత్ర	-6181
▁పలువురు	-6182
▁ప్రఖ్యాత	-6183
▁రక్	-6184
▁వాని	-6185
▁అల్యూ	-6186
▁పరమాణు	-6187
▁చెబుతారు	-6188
▁ఛాంపియన్	-6189
యని	-6190
▁స్ఫ	-6191
▁నాయకులు	-6192
▁ప్రకటించారు	-6193
▁ట్యూ	-6194
▁తదుపరి	-6195
▁యస్	-6196
▁అనుగుణంగా	-6197
దుడు	-6198
▁డచ్	-6199
▁డ్రై	-6200
▁ప్రధానమంత్రి	-6201
▁ne	-6202
▁హోదా	-6203
టూ	-6204
మనే	-6205
▁ఆకర్షణ	-6206
▁చూస్తే	-6207
▁వివరించ	-6208
▁ఇంగ్లాండ్	-6209
▁నిర్మాణానికి	-6210
▁చెప్పే	-6211
▁ఎప్పుడూ	-6212
రన్	-6213
▁అక్షర	-6214
▁అందువల్ల	-6215
▁వ్యాపారం	-6216
▁చిత్రాలలో	-6217
▁వివా	-6218
▁అందజే	-6219
భై	-6220
▁వైభవ	-6221
▁గ్రంథం	-6222
▁అదనపు	-6223
▁ప్రవేశం	-6224
▁42	-6225
తాను	-6226
▁వెళ్ళిన	-6227
▁తెగ	-6228
▁ఖాళీ	-6229
▁బుక్	-6230
▁దర్శన	-6231
▁విక్రయ	-6232
▁ప్రాచుర్యం	-6233
ఖి	-6234
దార్	-6235
ించుటకు	-6236
▁రుద్ర	-6237
▁వంతెన	-6238
కృతి	-6239
▁వాడి	-6240
▁అమర్చ	-6241
▁శుక్ర	-6242
88	-6243
▁సింహా	-6244
▁సుబ్రహ్మ	-6245
▁మైదాన	-6246
ించలేదు	-6247
▁విలీనం	-6248
▁ఒకప్పుడు	-6249
బడుతోంది	-6250
▁పాయి	-6251
▁చూడండి	-6252
వుడ్	-6253
ళ్ళకు	-6254
కాం	-6255
రాలకు	-6256
▁చేస్తే	-6257
▁వైష్ణ	-6258
▁ఆఫ్రిక	-6259
బ్రా	-6260
▁వన్	-6261
▁జాబితాలో	-6262
▁నిర్దిష్ట	-6263
▁ప్రభుత్వానికి	-6264
▁ఉండేవారు	-6265
▁దాదాపుగా	-6266
▁ఉంటుందని	-6267
కారుల	-6268
▁కంటి	-6269
ీర	-6270
కంప	-6271
రణి	-6272
▁కుమార	-6273
▁ప్రదర్శి	-6274
▁74	-6275
▁సాఫ్ట్	-6276
▁వైవిధ్య	-6277
▁బిరుదు	-6278
▁సాధించి	-6279
మెంట	-6280
నులను	-6281
▁స్కో	-6282
▁అందించారు	-6283
▁పేర్కొన్నాడు	-6284
-4	-6285
▁స్పానిష్	-6286
▁స్టూ	-6287
▁పోయిన	-6288
▁సేకరణ	-6289
▁నీరుగ్రామంలో	-6290
▁పదాలు	-6291
▁అనుకూల	-6292
▁వ్యవస్థలో	-6293
ib	-6294
ైతే	-6295
▁పర్యాట	-6296
▁భాగాలు	-6297
▁పదాన్ని	-6298
▁సీనియర్	-6299
▁his	-6300
▁జ్వ	-6301
▁చేసుకొని	-6302
-19	-6303
కను	-6304
వృత్తి	-6305
▁ఫౌ	-6306
▁షె	-6307
▁ఒలింపి	-6308
▁భువనగిరి	-6309
▁పనిచేస్తుంది	-6310
మద	-6311
▁77	-6312
క్సి	-6313
▁తిరి	-6314
▁విశేషం	-6315
▁one	-6316
▁ఏకీ	-6317
▁హైదరాబాదులోను	-6318
▁67	-6319
వద్ద	-6320
▁తీర్థ	-6321
▁ఉంట	-6322
▁మాతృ	-6323
▁ఈశాన్య	-6324
▁సముద్రమ	-6325
▁అంట	-6326
▁సదా	-6327
క్తులు	-6328
▁క్రియా	-6329
చేసుకు	-6330
▁బొగ్గు	-6331
లిజ	-6332
▁నాట్య	-6333
▁వరద	-6334
థు	-6335
ించబడ	-6336
ంగ్రామంలో	-6337
రాలి	-6338
ంగ్స్	-6339
ముందు	-6340
▁గృహాల	-6341
▁జిల్లాలలో	-6342
ah	-6343
ry	-6344
▁చేయవచ్చు	-6345
▁భాగాన్ని	-6346
▁4,	-6347
▁ఇతి	-6348
▁సభ్యుల	-6349
▁భావించారు	-6350
పుత్ర	-6351
▁గ్రేట్	-6352
▁వెళ్ళే	-6353
ధులను	-6354
▁కాగి	-6355
▁ఫ్రీ	-6356
▁దేవతలు	-6357
▁పంజాబ్	-6358
▁త్యా	-6359
▁అన్వే	-6360
▁ఇందుకు	-6361
▁త్రవ్వ	-6362
▁has	-6363
▁యూనివ	-6364
▁ప్రజలలో	-6365
▁సమకూర్	-6366
ెంటు	-6367
▁వ్ర	-6368
జ్ఞానం	-6369
▁రాయ్	-6370
orm	-6371
జైన్	-6372
▁వాడే	-6373
▁విధానంలో	-6374
▁విశ్వాసం	-6375
66	-6376
వాణి	-6377
ేశాడు	-6378
▁ఉర్దూ	-6379
▁వస్తాయి	-6380
హాయి	-6381
▁ఈస్ట్	-6382
▁పంటలు	-6383
ొని	-6384
▁చోళ	-6385
▁స్థాపించిన	-6386
ue	-6387
▁కక్ష్య	-6388
▁బావులు	-6389
ంటున్నారు	-6390
▁చిత్రీకరించ	-6391
ost	-6392
▁మాధ	-6393
▁ప్రాంగ	-6394
ాయుధ	-6395
▁రఘు	-6396
▁వాన	-6397
▁తోడ్	-6398
▁మూడో	-6399
▁తేలిక	-6400
▁దృశ్య	-6401
▁మహారాజు	-6402
▁చేస్తాడు	-6403
తలో	-6404
▁వసూ	-6405
ములతో	-6406
▁అల్యూమిని	-6407
ాడ	-6408
▁?	-6409
▁కమ్యూనిస్టు	-6410
రిట	-6411
▁నాగార్జు	-6412
▁శతాబ్ది	-6413
▁ఉపయోగించారు	-6414
శివ	-6415
▁విద్యాభ్యా	-6416
గుణ	-6417
రిన్	-6418
▁ఎడమ	-6419
▁చదవ	-6420
▁నాశనం	-6421
▁స్వర్ణ	-6422
▁స్పష్టంగా	-6423
▁1994	-6424
▁విస్తరణ	-6425
▁దౌ	-6426
▁ఆనాటి	-6427
▁గూడూరు	-6428
▁మరిన్ని	-6429
టిక	-6430
▁ఉండును	-6431
▁పెట్టిన	-6432
కళా	-6433
మూల	-6434
▁ఇటీవ	-6435
▁విధి	-6436
▁కుమారులు	-6437
▁సాహిత్యంలో	-6438
%.	-6439
ాలైన	-6440
▁మరాఠ	-6441
▁పాల్వ	-6442
▁విప్ల	-6443
▁కౌన్సిల్	-6444
▁సుబ్బారావు	-6445
▁సకల	-6446
కోవాలని	-6447
▁పరిగణి	-6448
▁సెప్టెంబర్	-6449
▁మొదటిసారిగా	-6450
ెలు	-6451
▁ఘో	-6452
▁కిందకు	-6453
▁రాజుల	-6454
▁రైల్వేస్టేషన్	-6455
▁ఇటలీ	-6456
నవి	-6457
▁తూ	-6458
▁ఎందుకు	-6459
▁సహాయంతో	-6460
లేదని	-6461
▁మెక్సిక	-6462
▁దృశ	-6463
▁పోయి	-6464
▁సికి	-6465
▁విచారణ	-6466
చార్యులు	-6467
▁1997	-6468
సల	-6469
out	-6470
షియా	-6471
▁అప్పట్లో	-6472
▁తప్పనిసరి	-6473
83	-6474
▁గ్రీన్	-6475
▁7.	-6476
ందర్	-6477
ృప్తి	-6478
తని	-6479
లీస్	-6480
▁ఇంట్లో	-6481
షింగ్	-6482
▁జాతుల	-6483
▁విభాగంలో	-6484
▁గుర్తించిన	-6485
ition	-6486
▁సంతానం	-6487
▁రాష్ట్రపతి	-6488
▁దారితీసింది	-6489
▁నాటకం	-6490
▁పరిణామ	-6491
▁గుజరాత్	-6492
▁మోట	-6493
▁గూర్	-6494
▁నిత్య	-6495
▁ఉపరితల	-6496
▁మధ్యకాలంలో	-6497
▁సందర్భాలలో	-6498
ff	-6499
▁కఠిన	-6500
▁సప్త	-6501
▁ఒకదాని	-6502
▁రాముడు	-6503
▁సామర్థ్యం	-6504
▁పెరుగుతుంది	-6505
లలోనూ	-6506
ర్శిటీ	-6507
▁భక్తుల	-6508
▁ఉత్తర్వులు	-6509
▁విపరీ	-6510
▁నిర్వాహ	-6511
sh	-6512
▁కాదని	-6513
▁శీతా	-6514
▁చేరిన	-6515
▁ముహమ్మద్	-6516
స్కా	-6517
ేవారి	-6518
▁బిల్	-6519
▁185	-6520
▁అందించే	-6521
టంటే	-6522
▁1995	-6523
స్తున్నాడు	-6524
డిలో	-6525
▁నేడు	-6526
ానికే	-6527
▁1989	-6528
▁నిర్దేశ	-6529
్రం	-6530
ంత్రం	-6531
▁రాయల	-6532
▁వారీ	-6533
▁బెల్ల	-6534
స్థానంలో	-6535
▁మహాసముద్ర	-6536
▁కొలు	-6537
▁అడిగా	-6538
వరంలోను	-6539
▁పోరాటం	-6540
దేవుడు	-6541
▁అనువాద	-6542
▁కలకత్తా	-6543
▁వారితో	-6544
▁సుమారుగా	-6545
▁అభివృద్ధికి	-6546
ారే	-6547
ాలన్న	-6548
ణాత్మక	-6549
జ్ఞా	-6550
పురి	-6551
▁1992	-6552
▁స్నాన	-6553
▁విస్తీర్ణ	-6554
టైన	-6555
భాగంలో	-6556
▁ఆంజ	-6557
▁అలవా	-6558
▁స్టూడియో	-6559
▁చిన	-6560
డుతుంది	-6561
నల	-6562
లేరు	-6563
▁కాథ	-6564
▁1948	-6565
▁ఇక్కడికి	-6566
▁ప్రారంభించిన	-6567
ction	-6568
▁వెస్ట్	-6569
▁ఆధారాలు	-6570
▁చేరింది	-6571
▁ఆగష్టు	-6572
▁రామాయణ	-6573
▁ప్రత్యేకించి	-6574
ree	-6575
షల్	-6576
సంస్థ	-6577
▁అంశాలు	-6578
▁రెండింటి	-6579
తాళ	-6580
ూరా	-6581
▁బ్లూ	-6582
ణుని	-6583
▁గ్రె	-6584
▁బోస్	-6585
త్సా	-6586
ికో	-6587
ూర్తి	-6588
▁మామూ	-6589
పేటలోనూ	-6590
ఫే	-6591
▁II	-6592
▁మణి	-6593
స్తుల	-6594
▁రైతు	-6595
▁సమ్మేళ	-6596
డవైన	-6597
▁అసోసియేషన్	-6598
▁విము	-6599
▁కూతురు	-6600
▁ఎది	-6601
▁ఋణ	-6602
▁కప్ప	-6603
▁వ్యాప్తంగా	-6604
పల్	-6605
▁స్థాపించాడు	-6606
ాంశ	-6607
▁తానే	-6608
▁ఆకులు	-6609
▁ఆధారిత	-6610
▁ఎగుమతి	-6611
భాగాన్ని	-6612
▁un	-6613
▁మస్	-6614
ానంతరం	-6615
▁పార్టీకి	-6616
▁తాత	-6617
▁అభ్యర్థ	-6618
▁incl	-6619
▁ఆధీన	-6620
క్కిలి	-6621
▁పోయింది	-6622
కోగ	-6623
తుక	-6624
మ్యం	-6625
▁అమ్ము	-6626
▁నాయకు	-6627
పించి	-6628
▁రచించారు	-6629
ara	-6630
opul	-6631
నింగ్	-6632
▁5310	-6633
▁ఉంటూ	-6634
పెట్టింది	-6635
▁ప్రదేశంలో	-6636
▁శని	-6637
▁సినిమాకు	-6638
నలను	-6639
నాల్	-6640
▁ఉస్	-6641
▁రష్యన్	-6642
▁పాల్వంచ	-6643
▁పశ్చిమాన	-6644
▁85	-6645
▁భవనం	-6646
▁అల్యూమినియం	-6647
గ్రి	-6648
హారం	-6649
▁మనస్సు	-6650
▁నిర్ధార	-6651
▁ఐర్లాండ్	-6652
▁రాజీనామా	-6653
▁నృత్యం	-6654
▁మొదట్లో	-6655
▁ఏది	-6656
▁పీడ	-6657
ంజ్	-6658
ణ్యం	-6659
▁రవి	-6660
▁షిప్	-6661
చిత్రం	-6662
▁ఇరాన్	-6663
▁కొరియా	-6664
▁పర్యటన	-6665
▁ప్రసారం	-6666
▁నున్న	-6667
▁చేయాలి	-6668
▁అనుకూలంగా	-6669
లులో	-6670
ళ్లను	-6671
▁అప్	-6672
▁ఉద్యాన	-6673
▁69	-6674
▁can	-6675
▁బహుమ	-6676
▁చేరారు	-6677
61	-6678
▁లోపలి	-6679
▁వృత్తులు	-6680
▁కూర్చ	-6681
ely	-6682
▁1940	-6683
▁మహిళలు	-6684
లీప	-6685
లికా	-6686
ప్పటికి	-6687
బల్	-6688
▁అవగాహన	-6689
▁ఆకర్షి	-6690
▁సినిమాలలో	-6691
▁తల్లిదండ్రులు	-6692
టమే	-6693
గును	-6694
▁నిరంతర	-6695
▁వీటికి	-6696
▁కూరగాయలు	-6697
షులు	-6698
▁యుగ	-6699
▁లోతు	-6700
▁లాటిన్	-6701
▁ట్రాన్స్	-6702
▁అత్యు	-6703
ంచడానికి	-6704
క్యు	-6705
▁ఎము	-6706
▁నెదర్	-6707
▁విన్న	-6708
▁చేసేవారు	-6709
▁హైదరాబాదులో	-6710
▁భయం	-6711
▁అనుసంధానం	-6712
▁నిర్మించాడు	-6713
▁పాల్గొన్నారు	-6714
శీల	-6715
▁ఆక్సి	-6716
▁చక్కగా	-6717
పూరు	-6718
▁కలవ	-6719
▁మండలి	-6720
▁దానితో	-6721
▁విద్వాం	-6722
తతో	-6723
ణ్ణి	-6724
డుగా	-6725
▁నిద్ర	-6726
▁దీనితో	-6727
దీర్ఘ	-6728
▁కలుగ	-6729
▁గ్రూప్	-6730
▁చేసుకుంది	-6731
ందరో	-6732
పిరి	-6733
▁ఎదుర్	-6734
త్రాన్ని	-6735
స్థులు	-6736
▁శ్రద్ధ	-6737
▁విజయవంతంగా	-6738
▁హెక్టారులు	-6739
▁బుద్ధి	-6740
ెల	-6741
పటి	-6742
దుపు	-6743
కుంట	-6744
▁మరికొన్ని	-6745
▁కామారెడ్డి	-6746
గ్న	-6747
బాయి	-6748
వరకూ	-6749
▁మీటర్లు	-6750
▁యూనివర్శిటీ	-6751
cc	-6752
▁ఆధిక	-6753
▁రుచి	-6754
▁రూపకల్పన	-6755
▁నియోజకవర్గ	-6756
▁ఏమీ	-6757
▁ఆర్య	-6758
▁హాని	-6759
▁ఆత్మక	-6760
▁సమానంగా	-6761
బోయే	-6762
▁సగం	-6763
ex	-6764
ంగే	-6765
డ్జ్	-6766
▁పరస్ప	-6767
▁కావడంతో	-6768
▁విదేశాల	-6769
▁ఇసుక	-6770
▁ఫోటో	-6771
డక	-6772
▁అలె	-6773
▁దేశాల్లో	-6774
▁విమానాశ్రయం	-6775
▁ఎత్తులో	-6776
సహ	-6777
నంద	-6778
▁గంధ	-6779
▁ప్రదర్శనలు	-6780
చర్ల	-6781
హ్లా	-6782
▁నాటకాలు	-6783
▁వ్యాప్తి	-6784
ood	-6785
rig	-6786
▁మాయ	-6787
వెన్యూ	-6788
▁గులా	-6789
నాత్మక	-6790
▁సరిగా	-6791
▁52	-6792
▁Th	-6793
▁ఖై	-6794
▁వస్తువుల	-6795
▁St	-6796
▁కరి	-6797
మ్మని	-6798
టీన్	-6799
▁ఎక్	-6800
ంతంగా	-6801
▁నిర్వహిస్తారు	-6802
▁శాన్	-6803
▁శత్రు	-6804
▁చాళుక్య	-6805
▁లభించిన	-6806
▁బంగ్లాదేశ్	-6807
44	-6808
▁వైరస్	-6809
▁పండ్లు	-6810
▁ఘా	-6811
▁శర్మ	-6812
▁నారాయణ్	-6813
చివే	-6814
▁పెంప	-6815
▁చిన్నత	-6816
▁ముస్లింలు	-6817
62	-6818
స్వామ్య	-6819
▁ప్రపంచం	-6820
▁వస్తువులను	-6821
▁తెచ్చి	-6822
నొ	-6823
ష్యు	-6824
్యాప	-6825
ంబియా	-6826
▁వెడల్	-6827
▁సంవత్సరాలలో	-6828
▁దత్త	-6829
oug	-6830
▁భై	-6831
ల్లీ	-6832
ుడైన	-6833
▁రాయల్	-6834
▁అత్యుత్	-6835
విడ్	-6836
ోగ్యం	-6837
▁యందు	-6838
▁ఒత్తిడి	-6839
▁యుద్ధానికి	-6840
▁పాటుగా	-6841
▁ఎవరు	-6842
జిద్	-6843
▁తమకు	-6844
▁అరేబియా	-6845
▁సరఫరాగ్రామంలో	-6846
లాగా	-6847
ust	-6848
▁ప్రవర్తన	-6849
మహా	-6850
▁దక్షిణాన	-6851
బెర్	-6852
ult	-6853
▁సింధు	-6854
పనిషత్తు	-6855
▁అడిగాడు	-6856
▁చేస్తోంది	-6857
మీయ	-6858
రైన	-6859
▁చము	-6860
జింగ్	-6861
బెట్టి	-6862
▁నాగర్	-6863
ep	-6864
▁డివి	-6865
వచ్చని	-6866
▁చేసుకో	-6867
▁వ్యాఖ్యా	-6868
▁థా	-6869
సేన్	-6870
▁వంతు	-6871
▁నొప్పి	-6872
▁చేరుకుంది	-6873
హె	-6874
▁95	-6875
▁బలవ	-6876
▁తీసుకొ	-6877
▁పిలువబడే	-6878
▁అక్షరాస్యత	-6879
▁అమి	-6880
తొ	-6881
▁ధై	-6882
ర్రా	-6883
▁చోట	-6884
▁వెర్	-6885
▁రచయితలు	-6886
▁సీతా	-6887
▁అయ్యే	-6888
▁జరుగుతున్న	-6889
వేల	-6890
▁41	-6891
ొచ్చు	-6892
దూర	-6893
▁మాల్	-6894
▁ఆహ్వాని	-6895
▁కొద్దిగా	-6896
▁రాఘవ	-6897
▁మహాత్మా	-6898
▁మినహాయి	-6899
▁రంగస్థల	-6900
▁any	-6901
▁అనునది	-6902
▁స్థితిలో	-6903
▁గుర్తిస్తూ	-6904
ru	-6905
▁సమయానికి	-6906
▁పునః	-6907
▁తీసుకున్న	-6908
▁also	-6909
▁ఆటగా	-6910
▁సాధించారు	-6911
▁ఉపయోగించిన	-6912
▁504	-6913
▁మేక	-6914
▁సుయోధ	-6915
నీయ	-6916
▁120	-6917
▁మొదలైంది	-6918
▁మరీ	-6919
▁కల్పి	-6920
▁ప్రొఫెసర్	-6921
ual	-6922
und	-6923
టప్పుడు	-6924
ిని	-6925
▁వ్యవస్థాప	-6926
ద్దులు	-6927
▁వినాయ	-6928
య్యింది	-6929
▁పుస్తకాల	-6930
▁కట	-6931
▁10.	-6932
▁పాటి	-6933
దార	-6934
ట్లే	-6935
aster	-6936
▁మూసి	-6937
▁పుల్ల	-6938
▁విజయవంతమైన	-6939
▁స్ట్రా	-6940
డ్డున	-6941
▁వర్క్	-6942
▁రూపాయల	-6943
▁వెంకటా	-6944
▁జనసంఖ్య	-6945
▁పార్వతీ	-6946
▁కళాకారులు	-6947
ft	-6948
▁విధానాలు	-6949
!.	-6950
జెన్	-6951
▁ఖగోళ	-6952
▁నల	-6953
కూడదు	-6954
▁నవంబర్	-6955
▁అత్యున్నత	-6956
త్వము	-6957
▁సుదీర్ఘ	-6958
తరం	-6959
ందరు	-6960
నుడి	-6961
▁అశో	-6962
▁చూపి	-6963
▁నాల్	-6964
▁సమర్ధ	-6965
నిస్తాన్	-6966
ail	-6967
▁ఆరో	-6968
▁పొడవైన	-6969
▁లభించాయి	-6970
దళ	-6971
▁థియేటర్	-6972
▁విజయవంత	-6973
▁నాయకత్వం	-6974
కోవటం	-6975
యస్కాంత	-6976
▁దండయాత్ర	-6977
▁ab	-6978
▁శూ	-6979
▁జగ్గ	-6980
▁గ్రంధ	-6981
▁బహిష్	-6982
చున్నారు	-6983
▁పద్ధతులు	-6984
▁నాయకత్వంలో	-6985
38	-6986
▁నం	-6987
వేర్	-6988
స్పద	-6989
▁ఘంట	-6990
▁2016,	-6991
▁అతన్ని	-6992
▁డిసెంబర్	-6993
▁శక్తివంతమైన	-6994
చెర్	-6995
▁రంప	-6996
▁పిల్లలకు	-6997
▁రూపొందించిన	-6998
▁ఆడి	-6999
త్తిన	-7000
ణే	-7001
వాసం	-7002
దగ్గ	-7003
పాది	-7004
▁మసీ	-7005
▁నందు	-7006
▁పంచా	-7007
▁సముద్రతీ	-7008
ide	-7009
▁కొమ్మ	-7010
▁పరిశ్రమలు	-7011
▁ఎన్నికల్లో	-7012
68	-7013
వియా	-7014
▁లలి	-7015
▁ఆర్కి	-7016
▁ప్రతా	-7017
▁ఆశ్చర్య	-7018
ber	-7019
డీలు	-7020
▁నేపథ్యంలో	-7021
యుగ	-7022
▁man	-7023
▁అప్పగ	-7024
▁రచించాడు	-7025
డాన్	-7026
▁వజ్ర	-7027
▁నగరాన్ని	-7028
ఃఖ	-7029
▁బహ	-7030
▁అక్బరు	-7031
▁పూర్వీ	-7032
▁జంతువుల	-7033
▁అనుసంధాని	-7034
▁ఆయ	-7035
▁చక్కెర	-7036
▁నిర్మూ	-7037
▁నిర్మించబడింది	-7038
▁లొ	-7039
▁నివసిస్తున్నారు	-7040
▁సంభాషణ	-7041
▁సదుపాయ	-7042
▁కలా	-7043
▁టెస్ట్	-7044
▁ప్రాంతంలోని	-7045
▁పిండి	-7046
▁వర్తి	-7047
▁వర్త	-7048
▁సమాజంలో	-7049
గాక	-7050
తమై	-7051
▁మంజ	-7052
రులను	-7053
▁వెళు	-7054
గృహాలు	-7055
ేజీ	-7056
▁కర్ర	-7057
▁అనేవి	-7058
ome	-7059
▁జమీ	-7060
▁టాప్	-7061
▁ప్రమాదం	-7062
▁రోడ్డుతో	-7063
▁మాడు	-7064
▁కార్బ	-7065
▁అక్టోబర్	-7066
▁కరు	-7067
▁ఫిన్	-7068
▁పాల్గొన	-7069
నేట్	-7070
▁మెడ	-7071
▁హ్యూ	-7072
ించుకుని	-7073
▁ఇంగ్లీష్	-7074
▁రెవెన్యూ	-7075
▁పరిషత్తు	-7076
▁రంగారెడ్డి	-7077
▁సంకీ	-7078
▁గణపతి	-7079
▁హెచ్చ	-7080
మాట	-7081
able	-7082
▁1952	-7083
చేవారు	-7084
రుగురు	-7085
▁5,	-7086
▁ఒంట	-7087
▁స్వరూ	-7088
▁శాశ్వత	-7089
▁ఐదుగురు	-7090
▁శ్రమ	-7091
▁వుండి	-7092
▁చెట్లు	-7093
ph	-7094
టాన్	-7095
▁కన్ను	-7096
▁వుంటాయి	-7097
▁అత్యుత్తమ	-7098
▁సుప్రసిద్ధ	-7099
▁డయా	-7100
▁పునా	-7101
▁పోలిస్తే	-7102
▁ముఖ్యమైనవి	-7103
కూల	-7104
ట్న	-7105
▁నెలలో	-7106
▁అచ	-7107
ఫ్రికా	-7108
▁పద్ధతిని	-7109
▁సంవత్సరములో	-7110
▁జలా	-7111
పెట్టారు	-7112
▁ఆఫ్రికన్	-7113
▁జిల్లాలు	-7114
▁524	-7115
▁ఫ్ర	-7116
్రీట్	-7117
▁గాజు	-7118
▁సంతకం	-7119
▁1000	-7120
▁వైశాల్యం	-7121
▁నివార	-7122
▁బాయిల	-7123
చికిత్స	-7124
▁కార్పొరేషన్	-7125
ికే	-7126
సిల్	-7127
్వాస	-7128
▁శంఖ	-7129
▁నవాబు	-7130
▁per	-7131
డియన్	-7132
మున్న	-7133
▁వికీ	-7134
▁రంగులో	-7135
▁ఓపెన్	-7136
▁కాంగ్రెసు	-7137
ణలు	-7138
టికల్	-7139
▁ఆదరణ	-7140
▁పడిన	-7141
▁అందరు	-7142
▁శ్రీమతి	-7143
▁9.	-7144
విని	-7145
▁ఏదే	-7146
▁పోవ	-7147
ప్రసా	-7148
▁గుత్	-7149
▁ఊరు	-7150
▁ప్రధానమైన	-7151
are	-7152
▁8.	-7153
▁ro	-7154
▁హింస	-7155
▁పాక్ష	-7156
కరించిన	-7157
▁వివే	-7158
▁నడుపు	-7159
▁నిలిపి	-7160
గూ	-7161
▁కొంచెం	-7162
▁i	-7163
▁డేటా	-7164
▁మాండ	-7165
ించును	-7166
▁భవిష్యత్తు	-7167
▁ఇను	-7168
వల్లి	-7169
బ్లి	-7170
▁రాశారు	-7171
▁మండలంతో	-7172
కోవటానికి	-7173
▁మెజ	-7174
▁ఎక్కి	-7175
▁కావచ్చు	-7176
▁జంతువులు	-7177
▁కోడ	-7178
▁చెపు	-7179
▁సాగి	-7180
▁చదివి	-7181
మనీ	-7182
ర్వేద	-7183
▁పనికి	-7184
పడ్డాడు	-7185
▁ఊరే	-7186
▁కాళ	-7187
▁భుజ	-7188
▁లేఖ	-7189
▁ఒప్పు	-7190
▁బాహ్య	-7191
tionary	-7192
▁సెం	-7193
▁సభలో	-7194
▁జ్ఞాప	-7195
▁వికీపీ	-7196
ంపబడింది	-7197
200	-7198
▁నిర్ణయం	-7199
▁చేయటం	-7200
75	-7201
కత	-7202
▁సూచన	-7203
▁పరుగులు	-7204
▁సులభంగా	-7205
▁రస	-7206
▁వాసు	-7207
▁సుల్తాన్	-7208
ంకో	-7209
▁Wik	-7210
జిల్లా	-7211
▁ప్రశా	-7212
కరించాడు	-7213
▁స్థాపించి	-7214
▁అందుకున్నారు	-7215
కొత్త	-7216
▁కమిషన్	-7217
▁కార్యక్రమంలో	-7218
36	-7219
గ్జా	-7220
▁ఇరవై	-7221
▁సభ్యుడు	-7222
డులు	-7223
▁చేతులు	-7224
జిన్	-7225
ఫార్	-7226
▁రూపా	-7227
▁ఎన్నికైనారు	-7228
ere	-7229
▁An	-7230
లాడు	-7231
▁బాణ	-7232
▁సరా	-7233
▁స్వర్గ	-7234
▁పడుతుంది	-7235
ఠం	-7236
టికీ	-7237
▁11.	-7238
▁వెడల్పు	-7239
▁ఇన్స్	-7240
▁మీడియా	-7241
▁హిందువులు	-7242
▁తత్	-7243
▁మారిన	-7244
కొన్నాడు	-7245
▁అందించిన	-7246
▁శాస్త్రవేత్తలు	-7247
-20	-7248
కటి	-7249
▁జగి	-7250
▁అనార	-7251
▁వృత్త	-7252
▁ఈజిప్టు	-7253
▁డిజి	-7254
▁ప్రవహి	-7255
▁గ్రంథాలయ	-7256
▁రాష్ట్రాలు	-7257
▁అరకులోయలోను	-7258
ఎం	-7259
▁మొఘల్	-7260
ంకా	-7261
రమైన	-7262
▁నేర్చు	-7263
కాన	-7264
▁ఏట	-7265
▁భే	-7266
▁అరటి	-7267
▁ధ్యా	-7268
▁మతపరమైన	-7269
▁సృ	-7270
▁400	-7271
▁రావడం	-7272
లక్ష్మి	-7273
▁గ్రంథాలు	-7274
▁శాస్త్రజ్ఞ	-7275
▁have	-7276
▁వాహన	-7277
74	-7278
ater	-7279
లుకు	-7280
ంపులు	-7281
▁పొరుగు	-7282
▁నివసిస్తున్న	-7283
▁భోజన	-7284
▁సందే	-7285
▁బెంగు	-7286
▁ధరించి	-7287
▁పాత్రలో	-7288
సేన	-7289
▁84	-7290
▁శరణ	-7291
▁వీరిని	-7292
ంబో	-7293
లేఖ	-7294
ంగోలు	-7295
▁ఇబ్ర	-7296
భిప్రా	-7297
▁అనుసంధానమై	-7298
ంగో	-7299
ముగ	-7300
▁తిమ్మ	-7301
భీ	-7302
క్షేప	-7303
పురుష	-7304
▁కోరుకు	-7305
▁త్వరగా	-7306
▁శివుని	-7307
స్టో	-7308
▁ప్రేరణ	-7309
▁రాష్ట్రములోని	-7310
నాటికి	-7311
▁కాపాడు	-7312
▁పరిషత్	-7313
▁మైసూరు	-7314
▁అవకాశాలు	-7315
టిస్	-7316
▁అరి	-7317
▁cont	-7318
▁కలె	-7319
▁దేవుని	-7320
▁రైతులు	-7321
▁ఆర్మేనియా	-7322
▁నట	-7323
విల్	-7324
జేషన్	-7325
▁లాస్	-7326
▁సత్యా	-7327
▁గణనీయమైన	-7328
▁మాదిరిగా	-7329
▁పనిచేస్తున్న	-7330
ok	-7331
▁స్పి	-7332
▁గమనించ	-7333
ములుగా	-7334
▁వెల్లడి	-7335
▁మిల్	-7336
పుట్టు	-7337
▁అందమైన	-7338
▁సికింద్రా	-7339
ప్పా	-7340
▁1920	-7341
▁రిజి	-7342
▁శారీ	-7343
▁నిర్మల్	-7344
▁పరిస్థితులు	-7345
▁నైపుణ	-7346
▁నివారణ	-7347
▁మరల	-7348
▁కాలేజ్	-7349
▁కొనసాగి	-7350
ates	-7351
▁రాజ్యాన్ని	-7352
లెట్	-7353
▁అభిన	-7354
▁బెంగాలీ	-7355
▁అమ్మవారి	-7356
▁రాక్	-7357
స్తూనే	-7358
టీఎం	-7359
▁లేన	-7360
▁వీజీ	-7361
▁పోలీస్	-7362
▁జరుగుతాయి	-7363
గీత	-7364
కాండ	-7365
కిల్	-7366
యంతో	-7367
రాని	-7368
▁హృదయ	-7369
ిస్తారు	-7370
▁గూర్చి	-7371
▁అద్భుతమైన	-7372
బియన్	-7373
▁ఆంగ్లంలో	-7374
పట్ల	-7375
▁wor	-7376
▁పెసర	-7377
▁విస్	-7378
▁ఏనుగు	-7379
▁తట్టు	-7380
▁ఆందోళన	-7381
▁అట్లాంటి	-7382
▁ఆద	-7383
స్తుంటాయి	-7384
▁వీజీటీఎం	-7385
▁కృత	-7386
వేశాల	-7387
▁నిర్మాణంలో	-7388
▁సముద్రమట్టానికి	-7389
amu	-7390
▁తాడి	-7391
▁శీర్	-7392
▁వారసత్వ	-7393
డాలు	-7394
రాదు	-7395
▁ఎండ	-7396
▁తెలిసి	-7397
▁విరుద్ధ	-7398
హై	-7399
▁ధృ	-7400
▁ఉత్సవాలు	-7401
▁వహించారు	-7402
లిథి	-7403
్రియా	-7404
▁దిశగా	-7405
▁కేంద్రీ	-7406
▁స్థాయికి	-7407
జిన	-7408
▁మరు	-7409
చెరువు	-7410
▁అంక	-7411
కుంటే	-7412
స్థాప	-7413
▁ఎడారి	-7414
▁కుక్క	-7415
▁నోబెల్	-7416
▁నెదర్లాండ్	-7417
ించుకున్నారు	-7418
▁ఉదయ	-7419
స్వతి	-7420
▁కమ్మ	-7421
▁బాగు	-7422
▁విటమి	-7423
▁ప్రయోజ	-7424
టము	-7425
▁యాజ	-7426
▁అల్లు	-7427
▁కర్మా	-7428
▁నిలువ	-7429
▁సామెత	-7430
▁పట్టణంలో	-7431
▁వడ	-7432
రిలో	-7433
-3	-7434
▁మేఘ	-7435
▁అందరికీ	-7436
▁గుడివాడ	-7437
▁79	-7438
ంగిక	-7439
▁స్తో	-7440
వాదులు	-7441
▁కవులు	-7442
▁ధర్మా	-7443
▁నిమ్మ	-7444
బాల	-7445
లిన	-7446
▁శిథి	-7447
▁షేక్	-7448
▁సెర్	-7449
▁చమురు	-7450
▁భగవంతు	-7451
▁భూభాగంలో	-7452
▁దంత	-7453
▁టర్కీ	-7454
▁ఫిల్మ్	-7455
▁గాథ	-7456
▁ఖనిజ	-7457
ేషన్స్	-7458
▁ఆస్తి	-7459
▁కవితా	-7460
▁భాషను	-7461
▁ఉమ్మడి	-7462
▁బియ్యం	-7463
స్థాయిలో	-7464
▁శివరావు	-7465
▁గుండ	-7466
▁దేవర	-7467
ద్దీన్	-7468
▁కావున	-7469
▁నష్టం	-7470
▁సమస్త	-7471
ించుకొని	-7472
▁మంత్రిగా	-7473
▁మేన	-7474
ించెను	-7475
▁దిశలో	-7476
తుడైన	-7477
▁చిలక	-7478
తులుగా	-7479
▁స్మార	-7480
▁చేయటానికి	-7481
▁చెల్లించ	-7482
పాలె	-7483
గ్రహం	-7484
▁అధ్యాప	-7485
▁జరిపిన	-7486
▁పొద్దు	-7487
▁పొందాయి	-7488
▁సీతారామ	-7489
▁కృష్ణుడు	-7490
గలదు	-7491
▁పవర్	-7492
▁పనిచేసి	-7493
▁మార్గము	-7494
భరణ	-7495
టెక్	-7496
▁ఎర్	-7497
▁అటవీ	-7498
opulation	-7499
▁ఉపయోగించడం	-7500
ెడి	-7501
ళ్లకు	-7502
▁వెలుపల	-7503
▁పేర్కొంది	-7504
▁ప్రారంభమైన	-7505
▁5%	-7506
▁అపర	-7507
▁రాచ	-7508
ట్టుగా	-7509
▁నిర్బంధ	-7510
▁ఇస్తుంది	-7511
▁భక్తులకు	-7512
▁పరిశోధకులు	-7513
▁హక్కుల	-7514
▁వైభవంగా	-7515
▁విద్యార్థులకు	-7516
ులలో	-7517
▁పండ	-7518
▁స్క్	-7519
▁కలయిక	-7520
▁ప్రయాణీ	-7521
▁దిగ	-7522
ంబాయి	-7523
డింగు	-7524
వున్న	-7525
▁నమ్ము	-7526
uc	-7527
▁అనా	-7528
▁ఆదర్శ	-7529
▁చూడవచ్చు	-7530
▁ఎలె	-7531
▁దోష	-7532
▁1983	-7533
▁అంతేకాకుండా	-7534
పూజ	-7535
నైనా	-7536
▁శనగ	-7537
స్యం	-7538
గలిగే	-7539
▁తాండ	-7540
▁ఎంచుకు	-7541
▁సంస్థను	-7542
▁చేసుకునే	-7543
▁form	-7544
▁దక్క	-7545
ప్రోలు	-7546
▁కారణాల	-7547
▁విస్తృత	-7548
low	-7549
దిద్ద	-7550
▁క్షత్రి	-7551
▁ఉన్నాయని	-7552
చర్య	-7553
▁తరహా	-7554
▁అగ్నిపర్వ	-7555
కుడి	-7556
▁శివా	-7557
నిని	-7558
పాలకు	-7559
▁అద్వ	-7560
▁మొత్తంలో	-7561
చక్ర	-7562
▁బండ	-7563
మానియా	-7564
▁పేరిట	-7565
ేవ్	-7566
▁56	-7567
▁బర్మా	-7568
▁cl	-7569
ప్రీ	-7570
▁హర్	-7571
-5	-7572
గుప్	-7573
▁విరమణ	-7574
▁ప్రత్యర్థి	-7575
▁ప్రవేశించి	-7576
▁ఏను	-7577
▁ఎగువ	-7578
▁అరణ్య	-7579
▁నుండే	-7580
▁కెమెరా	-7581
▁ఆలయానికి	-7582
▁విజయాన్ని	-7583
▁ప్రచురించారు	-7584
▁వాటా	-7585
▁గొట్ట	-7586
▁కలిగిఉ	-7587
▁ఆరుగురు	-7588
▁బెల్లంపల్లి	-7589
డిద	-7590
యందు	-7591
▁అప్పుడ	-7592
▁ఒడిషా	-7593
▁నివసించే	-7594
▁చిత్రాన్ని	-7595
▁రాష్ట్రాలలో	-7596
▁who	-7597
▁దిక్కు	-7598
▁భావించి	-7599
కగా	-7600
ance	-7601
ంబర్	-7602
▁తలె	-7603
▁ఆరాధ	-7604
కైన	-7605
సమా	-7606
▁కాపాడ	-7607
▁ఇబ్రహీ	-7608
▁రీసెర్	-7609
▁నగరాలలో	-7610
▁విస్తరించింది	-7611
చల్	-7612
ాయో	-7613
మాన్య	-7614
విధాన	-7615
▁క్వి	-7616
▁శ్వాస	-7617
▁హోటల్	-7618
▁ఇందిరా	-7619
ించుకున్నాడు	-7620
▁ట్	-7621
ూరలు	-7622
▁చేపట్టిన	-7623
ధిపతి	-7624
▁చేపలు	-7625
▁బెల్లం	-7626
▁మెడికల్	-7627
▁ప్రాజెక్ట్	-7628
క్కో	-7629
్యూర్	-7630
▁శ్రీనివా	-7631
▁తగ్	-7632
▁వాటర్	-7633
▁కాలక్రమ	-7634
▁అన్నమయ్య	-7635
పచ్చ	-7636
▁కలగ	-7637
కన్నా	-7638
స్తానని	-7639
▁చక్కని	-7640
▁ప్రస్తావన	-7641
ెస్టు	-7642
▁1985	-7643
▁India	-7644
జియా	-7645
భిషేక	-7646
▁ఫ్లా	-7647
▁దేవతల	-7648
▁ఇటీవలి	-7649
▁చైతన్య	-7650
▁వర్షపాతం	-7651
▁నాగార్జున	-7652
యింగ్	-7653
▁గ్లో	-7654
-0	-7655
▁పఠ	-7656
మెన్	-7657
▁శోభ	-7658
మాండ్	-7659
▁స్థలం	-7660
▁సంపు	-7661
▁పల్లిలో	-7662
▁అనేకమంది	-7663
81	-7664
▁ఏళ్ల	-7665
ంత్రిక	-7666
▁ద్వీపం	-7667
▁లెక్కి	-7668
ళాలు	-7669
ికాల	-7670
▁శంకర	-7671
▁నౌక	-7672
▁artic	-7673
▁అల్లాహ్	-7674
▁అసాధారణ	-7675
▁లక్ష్యం	-7676
▁సాంద్రత	-7677
▁సంతరించుకు	-7678
▁పల్	-7679
▁బస్	-7680
▁part	-7681
▁వృద్ధ	-7682
▁మెజారిటీ	-7683
▁సూర్యుని	-7684
▁దక్షిణాఫ్రికా	-7685
ేత	-7686
hed	-7687
ోగి	-7688
వ్యవ	-7689
శేఖర	-7690
▁ఛాన	-7691
ట్లకు	-7692
▁1962	-7693
00,000	-7694
▁ఐక్యరాజ్య	-7695
ach	-7696
▁నగర్లో	-7697
▁భోజ	-7698
▁భాషగా	-7699
▁విద్యార్థుల	-7700
రీలు	-7701
పాత	-7702
ద్ధం	-7703
▁భేద	-7704
▁తీసుకురా	-7705
▁విశ్వనాథ	-7706
ాద	-7707
ాయణం	-7708
▁బల్	-7709
యున్న	-7710
▁ఆగ్నేయ	-7711
▁ఇక్కడే	-7712
▁ఎవరైనా	-7713
▁వాయిద్య	-7714
▁1993	-7715
ధికారి	-7716
▁కలిగే	-7717
▁సిరీస్	-7718
▁సాయంత్రం	-7719
▁జప	-7720
▁నెమ్మ	-7721
▁ప్రసంగ	-7722
▁విషయాలను	-7723
▁సహకారంతో	-7724
▁నర్స	-7725
▁విలువైన	-7726
▁బార	-7727
దారుల	-7728
▁వేగం	-7729
▁పెరిగిన	-7730
▁తొలిసారిగా	-7731
▁యంత	-7732
▁రాగ	-7733
షియన్	-7734
▁ధరించిన	-7735
▁చిత్రాలను	-7736
డ్యు	-7737
రవాణా	-7738
▁కోరి	-7739
▁ధూ	-7740
▁సంబ	-7741
▁1971	-7742
▁అహ్మ	-7743
▁మల్లి	-7744
▁నిర్మించి	-7745
▁వద	-7746
మందు	-7747
▁ఖరీ	-7748
▁1984	-7749
▁కీర్తన	-7750
▁పసిఫిక్	-7751
▁పోర్చుగీసు	-7752
▁అజ	-7753
▁పతా	-7754
ట్లలో	-7755
వెళ్ళ	-7756
▁ఏళ్ళ	-7757
▁అధిగమ	-7758
▁రంపచో	-7759
▁ముద్రణ	-7760
▁పాల్గొని	-7761
▁కిలోమీటర్లు	-7762
యిస్	-7763
▁దళి	-7764
పరిచి	-7765
▁ఏమిటంటే	-7766
▁జత	-7767
▁మచి	-7768
ంపూర్	-7769
తెలంగా	-7770
పోతాయి	-7771
▁విశ్వస	-7772
▁క్షిపణి	-7773
▁బ్రిటీషు	-7774
రిని	-7775
▁వోల్	-7776
▁చేర్చి	-7777
వాహిక	-7778
▁జోడి	-7779
▁other	-7780
▁నిర్వహించే	-7781
▁పడ్డ	-7782
▁జూలైలో	-7783
▁నిజమైన	-7784
పల్లిలోనూ	-7785
యను	-7786
▁మద	-7787
▁మహాన	-7788
▁విక్టో	-7789
▁గుర్తించి	-7790
▁వధ	-7791
▁క్యాల	-7792
▁సమూహం	-7793
▁సమీక్ష	-7794
▁మస్జిద్	-7795
కృషి	-7796
వేసి	-7797
వలెను	-7798
ఫిక	-7799
▁99	-7800
▁1967	-7801
▁మూలం	-7802
▁వ్యూ	-7803
▁నదులు	-7804
▁ప్రశ్ని	-7805
▁తెలిపారు	-7806
▁మిక్కిలి	-7807
ఖు	-7808
న్నం	-7809
సార్	-7810
లాంటి	-7811
▁సిల్	-7812
తున్నా	-7813
▁తులసి	-7814
▁నుంచే	-7815
▁అధికారాన్ని	-7816
క్యం	-7817
ign	-7818
▁into	-7819
▁శిష్యు	-7820
▁సరాసరి	-7821
త్వానికి	-7822
▁పదానికి	-7823
▁మ్యూజియం	-7824
ark	-7825
▁అమ్మో	-7826
▁లోనికి	-7827
▁చెప్పబడింది	-7828
▁కడ	-7829
▁అవకా	-7830
▁హెల్	-7831
▁నగరంలోని	-7832
ob	-7833
పేక్ష	-7834
▁గోవింద	-7835
▁జగన్నా	-7836
▁మూర్తి	-7837
▁కొమ	-7838
▁1956	-7839
▁పెద్దా	-7840
▁మెక్సికో	-7841
▁mw	-7842
form	-7843
రంగం	-7844
▁ఉంచి	-7845
▁అధికం	-7846
▁మౌలిక	-7847
▁శతాబ్దపు	-7848
▁నాగేశ్వరరావు	-7849
▁కుప్ప	-7850
తెలంగాణ	-7851
ాలకి	-7852
జియన్	-7853
▁పత్రికలో	-7854
▁పెరుగుదల	-7855
వాయి	-7856
కార్య	-7857
▁బంధు	-7858
కుమారి	-7859
▁ప్రశ్న	-7860
ేశ్వరస్వామి	-7861
outp	-7862
▁టోర్	-7863
output	-7864
▁పెద్దగా	-7865
రేఖ	-7866
యును	-7867
▁సౌత్	-7868
=1	-7869
మండల	-7870
▁పక్కన	-7871
▁దెబ్బతి	-7872
▁ఉండేవాడు	-7873
▁2017	-7874
▁దారు	-7875
▁దుఃఖ	-7876
▁తరపున	-7877
శయ	-7878
టినీ	-7879
టుకు	-7880
ర్రీ	-7881
pars	-7882
▁డ్రా	-7883
▁బ్రెజిల్	-7884
ేవీ	-7885
parser	-7886
▁క్షేత్రం	-7887
ari	-7888
▁రవీ	-7889
వ్వులు	-7890
:-	-7891
cri	-7892
▁ఆంధ	-7893
దక్షి	-7894
్రిప్	-7895
▁1972	-7896
▁ఇవ్వడం	-7897
▁పురుగు	-7898
▁వేలాది	-7899
▁అరుదుగా	-7900
▁బ్యాటరీ	-7901
▁స్టె	-7902
పరేషన్	-7903
▁శాతవాహ	-7904
▁విశ్లేషణ	-7905
పెట్టాడు	-7906
▁ప్రదేశాలలో	-7907
▁ప్రారంభించి	-7908
మ్మీ	-7909
▁1977	-7910
▁గోధుమ	-7911
▁కథానాయ	-7912
డ్డీ	-7913
▁లాగా	-7914
▁అప్పటికి	-7915
ండుట	-7916
గుడి	-7917
డులో	-7918
▁ఖండి	-7919
ప్పుడే	-7920
▁చేశాయి	-7921
▁సౌకర్య	-7922
▁బొంబాయి	-7923
▁నిర్వహిస్తుంది	-7924
▁కోప	-7925
▁comm	-7926
ించమని	-7927
▁తీసుకువచ్చ	-7928
▁gr	-7929
▁పగ	-7930
ఢ్	-7931
కరించే	-7932
▁తిరుమ	-7933
స్తున్నా	-7934
▁మొదటిసారి	-7935
భౌ	-7936
యంతి	-7937
▁ముర	-7938
▁ఆజ్ఞ	-7939
▁ఛాయా	-7940
▁చేపట్టి	-7941
▁అదృ	-7942
▁శ్రీనివాస	-7943
▁ఏర్పడుతుంది	-7944
▁సుబ్రహ్మణ్య	-7945
▁అంశం	-7946
▁ఆఖరి	-7947
కుం	-7948
▁గాఢ	-7949
▁will	-7950
▁ఎందరో	-7951
▁నిరసన	-7952
▁వ్యత్యా	-7953
▁సరళ	-7954
▁టన్నుల	-7955
▁ఐరోపాలో	-7956
టలు	-7957
ించినట్లు	-7958
▁రోగి	-7959
▁సాయం	-7960
▁మినుము	-7961
▁నిష్పత్తి	-7962
▁ప్రతినిధి	-7963
బార్	-7964
▁ఆధారం	-7965
▁ఓట్లు	-7966
▁జరుపుకుంటారు	-7967
now	-7968
▁లోత	-7969
▁1975	-7970
▁వ్వ	-7971
▁ద్రావ	-7972
▁మొక్కల	-7973
▁కాఫీ	-7974
▁ల్లో	-7975
్రాంతి	-7976
▁ఎరుపు	-7977
▁స్టేషన్లు	-7978
77	-7979
గ్రంథ	-7980
రితమైన	-7981
ఇతర	-7982
నాగ	-7983
▁బంగా	-7984
▁వ్యవహరిస్తారు	-7985
లోక	-7986
▁చోట్ల	-7987
▁నాయిక	-7988
▁స్వీయ	-7989
▁అలెగ్జా	-7990
దేవర	-7991
లింగం	-7992
▁హెర్	-7993
▁ఆదివారం	-7994
,,	-7995
500	-7996
స్థలం	-7997
▁అన్నా	-7998
▁ఇద్దరూ	-7999
▁పురస్కారాన్ని	-8000
▁అన్య	-8001
కుమారు	-8002
▁ఆల్బమ్	-8003
▁గ్రాండ్	-8004
▁క్యాన్సర్	-8005
▁పోషించారు	-8006
▁హొ	-8007
▁కచ్చితంగా	-8008
▁ప్రభావాన్ని	-8009
▁ఎన్నికయ్యాడు	-8010
▁వంగ	-8011
సమితి	-8012
లోనికి	-8013
▁ఉపన్యా	-8014
▁ఓడించి	-8015
▁వ్యవసాయాధారిత	-8016
రాక్	-8017
కల్లు	-8018
▁మంగో	-8019
▁లక్	-8020
ఫోర్నియా	-8021
▁8,	-8022
దిలే	-8023
▁కౌర	-8024
▁ఖ్యా	-8025
▁విను	-8026
▁ఇతనికి	-8027
▁we	-8028
▁మెట్	-8029
▁రెడ్	-8030
▁సైనికులు	-8031
▁పడే	-8032
erson	-8033
▁పాస్	-8034
▁పేరొ	-8035
▁విసి	-8036
▁ద్వితీయ	-8037
▁పురావస్తు	-8038
▁శాస్త్రంలో	-8039
పించే	-8040
▁ఆర్ట్	-8041
▁వాడుతారు	-8042
ww	-8043
▁whe	-8044
▁ఉపాధి	-8045
82	-8046
▁సరో	-8047
▁పాడు	-8048
▁తొలగి	-8049
▁మచిలీప	-8050
▁రంధ్రం	-8051
▁డిజిటల్	-8052
▁వ్యవహరి	-8053
▁మార్గదర్శ	-8054
▁ele	-8055
▁మేలు	-8056
▁వసంత	-8057
రుగుడు	-8058
▁మెట్రో	-8059
▁ద్రాక్ష	-8060
ేరు	-8061
లాలు	-8062
▁పిలిచే	-8063
▁రూపాయలు	-8064
▁ఉద్యమంలో	-8065
▁చేయబడుతుంది	-8066
గాన్	-8067
▁పూర	-8068
▁భూకంప	-8069
నాట	-8070
క్కిన	-8071
రియస్	-8072
▁మలేషియా	-8073
చర	-8074
మరియు	-8075
పడతాయి	-8076
▁సంగ్రహ	-8077
▁చారిత్రా	-8078
fer	-8079
▁నాగరికత	-8080
▁ఇంద్రుడు	-8081
▁వెళ్ళారు	-8082
▁గ్లా	-8083
గూడెంలో	-8084
▁కళాకారు	-8085
▁ప్రవర్తి	-8086
స్వర	-8087
▁సూర్యుడు	-8088
▁తాత్కాలిక	-8089
▁స్వామివారి	-8090
▁ఒంగోలు	-8091
▁ఘంటసాల	-8092
▁తీరంలో	-8093
▁దేశాలకు	-8094
▁సోదరుడు	-8095
ాక	-8096
▁పాము	-8097
▁ఎత్తున	-8098
▁దీక్ష	-8099
▁విద్యాభ్యాసం	-8100
మయ	-8101
చరణ	-8102
▁కథను	-8103
▁తీరు	-8104
▁గలవాడు	-8105
▁దానిలో	-8106
▁బ్రాడ్	-8107
der	-8108
▁అవల	-8109
బెట్ట	-8110
విష్ణ	-8111
▁such	-8112
▁చిక్కు	-8113
▁గడ్డి	-8114
▁పౌరులు	-8115
▁శస్త్రచికిత్స	-8116
హణ	-8117
టాలు	-8118
▁గోప	-8119
▁జీర్ణ	-8120
▁పరిపాలనా	-8121
బెట్	-8122
▁వేర	-8123
▁మహమ్మ	-8124
▁ఆనకట్ట	-8125
▁కలిగించే	-8126
పోటు	-8127
రాజా	-8128
▁దృఢ	-8129
▁మత్	-8130
స్ట్రీ	-8131
డేపల్లి	-8132
▁ప్రపంచంలోనే	-8133
aj	-8134
ించినా	-8135
ోద	-8136
ఘంటు	-8137
▁పోగ	-8138
▁ఉచిత	-8139
▁ఉప్ప	-8140
బడినవి	-8141
▁ఒంటరి	-8142
▁సంకేత	-8143
▁రచయితగా	-8144
▁సంగీతాన్ని	-8145
▁89	-8146
వాళ్ళు	-8147
▁ప్రతిబింబ	-8148
▁రక	-8149
లాస్	-8150
▁దొర	-8151
▁యాద	-8152
▁వేళ	-8153
▁సమర	-8154
▁కవిత్వం	-8155
▁చెప్పింది	-8156
ధ్ధ	-8157
తాయని	-8158
▁ట్రై	-8159
నియ	-8160
చ్ఛి	-8161
▁మాయా	-8162
▁ఎకరాల	-8163
▁సుప్రీ	-8164
▁వాషింగ్	-8165
పుల్	-8166
▁086	-8167
▁ఇంద	-8168
త్తుల	-8169
▁ఆచరణ	-8170
▁కడుపు	-8171
గంధ	-8172
లాన్	-8173
▁కాయగ	-8174
▁కుదు	-8175
▁థాయ్	-8176
▁తీర్పు	-8177
▁లభించే	-8178
▁రాష్ట్రానికి	-8179
BC	-8180
▁తరి	-8181
▁రిజ	-8182
మింగ్	-8183
▁1974	-8184
▁బహుశా	-8185
మూరి	-8186
▁శివు	-8187
▁బ్యాండ్	-8188
▁భిన్నంగా	-8189
▁వ్యవస్థలు	-8190
erm	-8191
ime	-8192
▁సౌదీ	-8193
▁పెళ్ళ	-8194
▁అనుసరి	-8195
▁జార్జ్	-8196
ite	-8197
▁250	-8198
వర్క్	-8199
▁ప్రఖ్యాతి	-8200
▁భూత	-8201
▁వంశీ	-8202
దేశంలో	-8203
aw	-8204
▁ట్రె	-8205
సంఖ్యా	-8206
▁ఇటాలి	-8207
▁శంకర్	-8208
▁సాగింది	-8209
▁నెలకొల్ప	-8210
ount	-8211
▁ప్రోగ్రామ్	-8212
▁బలం	-8213
మామ	-8214
పోవటం	-8215
▁అక్కి	-8216
▁వేడుక	-8217
▁శాస్త్రము	-8218
▁dis	-8219
▁గుడ్	-8220
మునందు	-8221
▁మర్రి	-8222
▁చైనాలో	-8223
▁లంక	-8224
▁కౌంటీ	-8225
సేందుకు	-8226
▁బ్యాక్	-8227
▁నగర్లోనూ	-8228
ళ్ళతో	-8229
▁అపరాలు	-8230
▁నేపథ్య	-8231
ించువాడు	-8232
▁పండితులు	-8233
▁చిత్రాలకు	-8234
▁డు	-8235
ద్వే	-8236
▁ముగ	-8237
▁తిరగ	-8238
▁మోహన్	-8239
▁సంప్రదాయం	-8240
▁కలదు	-8241
బడలేదు	-8242
▁సంభవి	-8243
▁తీసుకె	-8244
-9	-8245
యోగం	-8246
తులైన	-8247
నిర్మాణ	-8248
పేస్	-8249
▁శిల	-8250
▁నన్న	-8251
▁ఉండాలని	-8252
▁ఎదురుగా	-8253
▁కాశ్మీరు	-8254
▁ఉత్పత్తులు	-8255
సల్	-8256
▁ఆగి	-8257
▁రకర	-8258
▁ఎవరూ	-8259
బ్బులు	-8260
▁ఇస్లామీయ	-8261
▁రంగారావు	-8262
▁ఖలీ	-8263
▁రామ్	-8264
▁ఒడ్డున	-8265
ory	-8266
▁హార	-8267
▁జేమ్స్	-8268
▁భీష్ముడు	-8269
▁తీసుకున్నారు	-8270
పేట్	-8271
▁కర్త	-8272
▁ధారా	-8273
▁రత్న	-8274
▁బాలిక	-8275
▁నివాసగృహాలు	-8276
గానూ	-8277
▁అంశాలను	-8278
▁1946	-8279
▁విముక్తి	-8280
సిక్	-8281
▁సతీ	-8282
కర్షణ	-8283
▁మూత్ర	-8284
45	-8285
▁హెన	-8286
▁నాల్గవ	-8287
▁రాయలసీమ	-8288
▁మార్గాలు	-8289
▁రాజ్యాంగం	-8290
▁1988	-8291
▁తెచ్చుకు	-8292
▁పరికరాలు	-8293
▁గన్న	-8294
▁గంగరాజు	-8295
▁ఎన్నికలు	-8296
▁అండ	-8297
▁ఫోట	-8298
ండియా	-8299
పొంది	-8300
▁వికీపీడియా	-8301
▁యాత్రి	-8302
▁సంక్షో	-8303
▁సమకాలీన	-8304
బండ	-8305
రవే	-8306
▁బోధన్	-8307
▁Al	-8308
మంటే	-8309
మియా	-8310
▁ఆవిర్భ	-8311
▁భావించ	-8312
దై	-8313
▁షూ	-8314
బ్రో	-8315
మియం	-8316
య్యూ	-8317
▁కరువు	-8318
▁వైష్ణవ	-8319
▁ఆధిపత్యం	-8320
▁జన్మించింది	-8321
తరు	-8322
▁ఇద	-8323
▁అరబ్	-8324
▁కొలి	-8325
ంగాన్ని	-8326
▁స్కాట్	-8327
▁ప్రధాని	-8328
▁దృష్టిలో	-8329
▁కొట్టి	-8330
వంశ	-8331
యేట్	-8332
కుడైన	-8333
▁తాజా	-8334
వుతుంది	-8335
▁సేవలంది	-8336
▁---	-8337
▁తుపా	-8338
▁క్యాలె	-8339
▁తృ	-8340
కులలో	-8341
▁కందు	-8342
▁సల్ఫ	-8343
▁ఆలయాన్ని	-8344
▁కాశ్మీర్	-8345
▁పంచాయతీకి	-8346
ough	-8347
పించ	-8348
▁ఆము	-8349
▁ఆయిల్	-8350
▁మర్	-8351
▁గద్వాల	-8352
▁పెట్రో	-8353
▁ప్రకటించాడు	-8354
కాక	-8355
ానియా	-8356
▁తిప్ప	-8357
▁తగినంత	-8358
ాలయాన్ని	-8359
▁అధ్యక్షుడిగా	-8360
వర్గ	-8361
▁179	-8362
▁ఉత్స	-8363
▁వాసన	-8364
▁ఇల్లు	-8365
▁కాకతీ	-8366
▁ధర్మం	-8367
▁రోజులలో	-8368
దండ	-8369
టెన్	-8370
▁ఇష్టం	-8371
▁త్యాగ	-8372
▁పిలుపు	-8373
ose	-8374
కరం	-8375
▁అవతార	-8376
▁ముట్ట	-8377
▁ధార్మిక	-8378
▁”	-8379
డనే	-8380
ాయన	-8381
▁దుకాణ	-8382
▁అత్యవసర	-8383
▁మండలంలో	-8384
▁లక్ష్మి	-8385
శాస్త్రంలో	-8386
▁పదార్థాలు	-8387
pt	-8388
ధర	-8389
▁సోదరు	-8390
▁లక్ష్మణ	-8391
ress	-8392
వైద్య	-8393
▁అల్ప	-8394
▁యురే	-8395
మెంటరీ	-8396
▁ప్రవే	-8397
▁ఆంగ్లే	-8398
▁యజమాని	-8399
▁మార్పిడి	-8400
▁రజ	-8401
▁చేయబడి	-8402
▁తీర్చి	-8403
▁సరస్వతి	-8404
కులతో	-8405
టట్లు	-8406
▁1978	-8407
పోతున్న	-8408
▁స్థావర	-8409
▁వ్యక్తుల	-8410
px	-8411
▁62	-8412
▁దుర	-8413
▁సుమ	-8414
▁cent	-8415
స్థితి	-8416
ాలన్నీ	-8417
▁అయ్యారు	-8418
సొ	-8419
▁నలు	-8420
▁పోటీలలో	-8421
▁cs	-8422
క్యూ	-8423
▁1964	-8424
▁అంగు	-8425
రాలిగా	-8426
▁శైలిలో	-8427
ంపల్లిలో	-8428
▁article	-8429
▁పిలిచేవారు	-8430
▁6,	-8431
ణులను	-8432
▁కురి	-8433
▁అవసరాలకు	-8434
▁కార్యక్రమాలను	-8435
పది	-8436
▁అప్పుడే	-8437
▁110	-8438
▁రవీంద్ర	-8439
▁సమస్యలను	-8440
▁en	-8441
▁చీర	-8442
వారిలో	-8443
వేత్తలు	-8444
జ్యాన్ని	-8445
▁పునర్ని	-8446
కని	-8447
▁It	-8448
▁సవ	-8449
▁పరు	-8450
▁1955	-8451
▁used	-8452
▁సారా	-8453
యోలిథి	-8454
▁డేవిడ్	-8455
▁శరీరంలో	-8456
▁చెప్పుకో	-8457
▁రీసెర్చ్	-8458
లస్	-8459
ౌర్య	-8460
▁160	-8461
సమయంలో	-8462
▁విభజి	-8463
▁గంటలకు	-8464
▁రాకెట్	-8465
▁రాశాడు	-8466
▁వివాదా	-8467
▁మహాభారత	-8468
▁మహారాజా	-8469
డ్జ	-8470
▁పడమర	-8471
▁మలయాళ	-8472
▁ముద్ద	-8473
▁స్వరూప	-8474
▁ఆవిష్కరణ	-8475
▁సంస్కృతం	-8476
▁ఇవ్వబడింది	-8477
వంతుడు	-8478
▁ప్రకా	-8479
▁సాగర్	-8480
▁అధిపతి	-8481
▁డిగ్రీల	-8482
▁చిత్రీకరణ	-8483
ంగ్రామానికి	-8484
aus	-8485
వాని	-8486
▁అబ్బ	-8487
▁జమ్మ	-8488
▁కాయగూరలు	-8489
▁శాసనం	-8490
▁ఎలక్ట్రానిక్	-8491
▁తొలు	-8492
ట్లేదు	-8493
లనుండి	-8494
▁నగరాల	-8495
▁కార్తీ	-8496
కూరి	-8497
త్వా	-8498
▁తేమ	-8499
▁1979	-8500
▁పొటా	-8501
▁భక్త	-8502
▁పూర్ణ	-8503
▁లైంగిక	-8504
▁పరిమాణంలో	-8505
▁508	-8506
▁గాక	-8507
▁ట్రే	-8508
▁నిఘంటు	-8509
ied	-8510
▁72	-8511
న్నర	-8512
▁కోటి	-8513
▁చేయి	-8514
కుండానే	-8515
▁ప్రవాహం	-8516
ేడ్	-8517
చేసే	-8518
▁పురోగ	-8519
▁ప్రభు	-8520
▁తమ్ముడు	-8521
▁శ్రీకృష్ణుడు	-8522
ందనే	-8523
తుని	-8524
▁అక్రమ	-8525
▁ఆరోగ్యం	-8526
▁సినిమాలకు	-8527
▁నడ	-8528
▁ఆతి	-8529
ensus	-8530
▁ఆక్రమణ	-8531
నుకు	-8532
యార్	-8533
▁పడవ	-8534
వరీ	-8535
▁నిన్ను	-8536
నాటక	-8537
▁ప్రేమి	-8538
▁గట్టిగా	-8539
▁)	-8540
కెట్	-8541
వూరు	-8542
శేఖర్	-8543
▁దక్కి	-8544
▁నగరాలు	-8545
▁నిధులు	-8546
▁పార్టీలో	-8547
▁విక్టోరియా	-8548
తర్	-8549
దాలు	-8550
▁యుగం	-8551
▁ఒకవేళ	-8552
▁గ్రూపు	-8553
▁భీముడు	-8554
తూనే	-8555
▁తవ్వ	-8556
▁అయిదు	-8557
▁ఎన్టీ	-8558
▁ఎలెక్ట	-8559
▁ఒలింపిక్	-8560
తంత	-8561
ited	-8562
సభ్య	-8563
▁తీగ	-8564
▁ఇన్ని	-8565
▁దొరికి	-8566
▁రంపచోడ	-8567
▁విడిగా	-8568
▁శీర్షిక	-8569
▁డీఏ	-8570
▁డెల్	-8571
▁గణాంకాలను	-8572
ంజి	-8573
▁కావలి	-8574
▁ఏర్పరు	-8575
▁విశ్వాస	-8576
▁533	-8577
▁were	-8578
▁నిర్వహించెదరు	-8579
▁పూజి	-8580
▁పోర్	-8581
▁మూలకం	-8582
▁వ్యక్తం	-8583
▁శ్రీరామ	-8584
▁కలుగుతుంది	-8585
▁ద్రవ్యరాశి	-8586
▁వర్గీకరించ	-8587
79	-8588
▁ఆప్	-8589
▁వరంగల్లో	-8590
▁క్రైస్తవులు	-8591
డును	-8592
మ్మె	-8593
ోద్యమ	-8594
▁పన్న	-8595
త్తూరు	-8596
▁దళాలు	-8597
▁ఇవన్నీ	-8598
▁రాక్షస	-8599
యినా	-8600
▁కమీ	-8601
వచ్చి	-8602
▁1987	-8603
▁ఇతరులు	-8604
▁విలియం	-8605
▁పెట్టింది	-8606
▁వెంకటగిరి	-8607
▁సైన్యాన్ని	-8608
నటు	-8609
వర్మ	-8610
▁గిరిజన	-8611
▁కారణాలు	-8612
---	-8613
రలో	-8614
▁జవ	-8615
▁వచ్చును	-8616
▁దుస్తులు	-8617
ron	-8618
▁కిర్	-8619
▁చేయగల	-8620
▁తెలియదు	-8621
▁తెలియని	-8622
▁కనుగొన్నారు	-8623
pec	-8624
డను	-8625
ధారి	-8626
▁1982	-8627
▁జీవులు	-8628
59	-8629
జయ	-8630
▁అంజ	-8631
▁జిల్లాల	-8632
▁వాషింగ్టన్	-8633
ేణా	-8634
▁ఐదవ	-8635
శాలలో	-8636
జివీడు	-8637
వరంలోనూ	-8638
▁మార్చారు	-8639
▁పేర్కొన్న	-8640
▁లిమి	-8641
▁ఘనంగా	-8642
▁మరాఠీ	-8643
▁మసీదు	-8644
▁వాద్య	-8645
▁ఖురాన్	-8646
▁సమాంతర	-8647
▁ఏర్పడును	-8648
కౌ	-8649
పుణ్య	-8650
▁గుట్ట	-8651
▁సీఆర్	-8652
▁పురాణం	-8653
క్రమాన్ని	-8654
న్యం	-8655
▁కంద	-8656
▁కాట	-8657
▁తీరం	-8658
▁శిబి	-8659
చుకొని	-8660
▁మధ్యా	-8661
▁టిబెట్	-8662
▁ద్వారం	-8663
▁సంస్థకు	-8664
▁విగ్రహాలు	-8665
▁అందించింది	-8666
▁కమలా	-8667
▁బంతి	-8668
▁భాషల	-8669
▁స్మారక	-8670
▁వ్యాధులు	-8671
▁కచ్చితమైన	-8672
▁వెల్డింగు	-8673
లక్	-8674
మాలు	-8675
▁ఆవరణ	-8676
▁కష్టం	-8677
▁ఘర్షణ	-8678
▁పక్షి	-8679
▁దర్శనం	-8680
▁పడింది	-8681
▁కాలములో	-8682
▁507	-8683
షియల్	-8684
▁బ్రూ	-8685
▁తరలించ	-8686
▁కార్యకలాపాలు	-8687
▁నిర్మించబడిన	-8688
బోధ	-8689
▁అహ	-8690
▁గై	-8691
▁its	-8692
మాత్ర	-8693
▁క్లోరైడ్	-8694
erv	-8695
షుల	-8696
▁94	-8697
▁ఆవు	-8698
▁1965	-8699
▁కాలిఫోర్నియా	-8700
▁పదే	-8701
ించగల	-8702
▁ఇంధన	-8703
▁నమస్	-8704
▁రామా	-8705
▁సాయుధ	-8706
▁ఆవిర్భవ	-8707
▁డాలర్లు	-8708
▁మ్యూజిక్	-8709
సాగర్	-8710
▁వేణు	-8711
ించేవాడు	-8712
▁ఆఫ్ఘనిస్తాన్	-8713
▁ఇన్స్టిట్యూట్	-8714
▁UK	-8715
న్యు	-8716
▁సంధి	-8717
▁అతడిని	-8718
▁సున్ని	-8719
▁ఇస్తారు	-8720
▁తర్వాతి	-8721
గుల్	-8722
▁డబ్	-8723
▁సంక	-8724
▁1945	-8725
▁పూజా	-8726
▁రాలే	-8727
టిక్స్	-8728
▁అంతగా	-8729
▁శుభ్ర	-8730
▁సాంప్రద	-8731
▁విభాగాలు	-8732
కాశ్ర	-8733
▁ఫ్రాన్	-8734
▁రెట్లు	-8735
▁వున్నది	-8736
▁పర్షియన్	-8737
▁సంగీతంలో	-8738
▁నెదర్లాండ్స్	-8739
వరపు	-8740
▁కేంద	-8741
▁చేపల	-8742
▁శ్రా	-8743
▁హస్త	-8744
▁దిగుమతి	-8745
▁ఛార్	-8746
చేశాడు	-8747
▁చెల్లె	-8748
▁మేనేజ్	-8749
▁పరిమితం	-8750
ణుల	-8751
శయం	-8752
▁ap	-8753
▁1969	-8754
▁అన్నింటి	-8755
▁ప్రతిష్ఠా	-8756
లైట్	-8757
ంగానే	-8758
▁విభేద	-8759
▁కాలేజి	-8760
▁బ్రహ్మా	-8761
▁గణనీయంగా	-8762
క్వ	-8763
▁ల్యా	-8764
▁ఊపిరి	-8765
▁అట్లాంటిక్	-8766
ంపా	-8767
▁అనుచ	-8768
▁కిమీ	-8769
▁వసూలు	-8770
▁స్థిరమైన	-8771
టియ	-8772
ంతర్	-8773
▁టార్	-8774
▁నైరు	-8775
▁బాధి	-8776
▁స్తు	-8777
▁సహకారం	-8778
istricts	-8779
శ్రే	-8780
▁ఆవిరి	-8781
▁పార్కు	-8782
▁గ్రామపంచ	-8783
▁నిపుణులు	-8784
▁సంగారెడ్డిలోను	-8785
సౌ	-8786
ప్పున	-8787
▁అసంత	-8788
▁అర్హత	-8789
▁వర్గాల	-8790
ice	-8791
మతం	-8792
▁73	-8793
వాటి	-8794
usion	-8795
▁కుంభ	-8796
కొన్నారు	-8797
స్త్రాన్ని	-8798
▁రావట్లేదు	-8799
▁పట్టణానికి	-8800
▁సద	-8801
▁చర్	-8802
▁శార	-8803
▁హాజర	-8804
▁అభ్యా	-8805
▁ప్రాధ	-8806
▁రాముని	-8807
right	-8808
క్కలు	-8809
▁డౌన్	-8810
పెట్టు	-8811
▁పోలాండ్	-8812
▁పోలీసులు	-8813
డలో	-8814
వాహక	-8815
▁person	-8816
▁వ్యక్త	-8817
▁చరిత్రను	-8818
▁నెమ్మదిగా	-8819
త్రిమ	-8820
▁చంపి	-8821
▁వారణా	-8822
ంగళ	-8823
డలు	-8824
▁app	-8825
▁ఐసో	-8826
▁మారుతుంది	-8827
రాం	-8828
నులకు	-8829
ెస్టి	-8830
▁కొడు	-8831
▁విల్	-8832
జాన్ని	-8833
ించుకో	-8834
▁మక్కా	-8835
▁జాతికి	-8836
▁నివాసం	-8837
▁చెందుతున్న	-8838
▁ఫార	-8839
▁తేనె	-8840
▁మేరీ	-8841
▁కప్పు	-8842
▁లవ	-8843
తోనే	-8844
▁కళార	-8845
సేవారు	-8846
▁మునిగి	-8847
▁ఆఫీ	-8848
▁దేహ	-8849
▁నౌకాశ్ర	-8850
▁ఉదాహరణలు	-8851
▁విస్తారమైన	-8852
క్కన	-8853
▁నౌకా	-8854
▁రాసి	-8855
▁పంచుకు	-8856
▁	-8857
్	-8858
ి	-8859
ా	-8860
ర	-8861
ు	-8862
న	-8863
ం	-8864
ల	-8865
క	-8866
మ	-8867
ప	-8868
వ	-8869
త	-8870
ద	-8871
స	-8872
య	-8873
ో	-8874
గ	-8875
.	-8876
డ	-8877
ట	-8878
ే	-8879
చ	-8880
ీ	-8881
,	-8882
ె	-8883
బ	-8884
ూ	-8885
జ	-8886
అ	-8887
ఉ	-8888
శ	-8889
ై	-8890
ష	-8891
ధ	-8892
హ	-8893
ొ	-8894
ణ	-8895
1	-8896
ఆ	-8897
భ	-8898
0	-8899
థ	-8900
ఇ	-8901
ఫ	-8902
ళ	-8903
5	-8904
e	-8905
2	-8906
a	-8907
ఎ	-8908
ఈ	-8909
ృ	-8910
t	-8911
ఖ	-8912
ఒ	-8913
i	-8914
ౌ	-8915
9	-8916
n	-8917
o	-8918
r	-8919
s	-8920
-	-8921
3	-8922
4	-8923
7	-8924
8	-8925
6	-8926
ఏ	-8927
"	-8928
ఠ	-8929
l	-8930
h	-8931
d	-8932
:	-8933
c	-8934
u	-8935
m	-8936
p	-8937
/	-8938
ఘ	-8939
f	-8940
g	-8941
y	-8942
;	-8943
b	-8944
'	-8945
w	-8946
ఐ	-8947
v	-8948
·	-8949
A	-8950
ఓ	-8951
S	-8952
k	-8953
C	-8954
ఔ	-8955
I	-8956
M	-8957
ఞ	-8958
T	-8959
%	-8960
ఛ	-8961
P	-8962
|	-8963
D	-8964
B	-8965
ఊ	-8966
!	-8967
=	-8968
N	-8969
)	-8970
E	-8971
ఢ	-8972
R	-8973
H	-8974
U	-8975
L	-8976
x	-8977
F	-8978
O	-8979
?	-8980
W	-8981
G	-8982
’	-8983
•	-8984
ః	-8985
V	-8986
j	-8987
‘	-8988
ఋ	-8989
K	-8990
}	-8991
{	-8992
ఁ	-8993
°	-8994
_	-8995
”	-8996
