<unk>	0
<s>	0
</s>	0
్ర	-0
▁ప	-1
▁క	-2
▁స	-3
ార	-4
▁వ	-5
లో	-6
న్	-7
▁మ	-8
ని	-9
్య	-10
ంద	-11
ాల	-12
▁అ	-13
ర్	-14
స్	-15
ను	-16
▁ఉ	-17
▁గ	-18
డి	-19
ంది	-20
్రా	-21
క్	-22
న్న	-23
లు	-24
ాయ	-25
▁ద	-26
రి	-27
ంలో	-28
▁చ	-29
▁ర	-30
ంచ	-31
కు	-32
రు	-33
▁త	-34
▁ఆ	-35
▁ప్ర	-36
ల్	-37
గా	-38
్రామ	-39
డు	-40
▁గ్రామ	-41
త్	-42
▁జ	-43
ాయి	-44
▁బ	-45
ారు	-46
టి	-47
▁న	-48
ట్	-49
తు	-50
▁వి	-51
కి	-52
▁1	-53
▁ను	-54
▁కి	-55
ండి	-56
తి	-57
▁ఉన్న	-58
లి	-59
▁ఇ	-60
▁నుండి	-61
▁సం	-62
ించ	-63
ండ	-64
▁ల	-65
గు	-66
టు	-67
ిక	-68
ాని	-69
▁మీ	-70
▁ఉన్నాయి	-71
్వ	-72
ము	-73
ూర	-74
ంత	-75
ాలు	-76
▁శ	-77
ిన	-78
పు	-79
▁ఉంది	-80
▁దూర	-81
▁చే	-82
ద్	-83
ంగ	-84
ార్	-85
సు	-86
ది	-87
డ్	-88
్యా	-89
▁భ	-90
▁గ్రామం	-91
▁దూరంలో	-92
ంగా	-93
యు	-94
ంట	-95
▁ఈ	-96
▁ఎ	-97
మా	-98
వు	-99
త్ర	-100
శాల	-101
ైన	-102
వా	-103
▁ని	-104
ారి	-105
ానికి	-106
లా	-107
దు	-108
▁10	-109
ేంద	-110
తో	-111
ప్	-112
క్ష	-113
రా	-114
▁ఒ	-115
▁లో	-116
▁పా	-117
▁సమ	-118
వి	-119
▁రా	-120
▁5	-121
▁వ్య	-122
ాన	-123
ేంద్ర	-124
ష్	-125
డా	-126
▁గ్రామంలో	-127
న్ని	-128
నే	-129
▁కేంద్ర	-130
స్త	-131
స్తు	-132
▁ఒక	-133
క్క	-134
▁హ	-135
▁స్	-136
ద్య	-137
▁మరి	-138
▁సా	-139
ాడు	-140
▁2	-141
కర	-142
▁మరియు	-143
చ్	-144
ీప	-145
▁కొ	-146
ోగ	-147
బడి	-148
ారా	-149
▁వ్యవ	-150
సి	-151
▁ప్రా	-152
బ్	-153
▁లే	-154
▁పో	-155
▁ము	-156
వే	-157
మ్	-158
స్థ	-159
▁చె	-160
▁య	-161
ిల్	-162
చ్చ	-163
రుగు	-164
▁సమీప	-165
▁వా	-166
▁కేంద్రం	-167
్యం	-168
▁ఏ	-169
నా	-170
ారం	-171
ుత్	-172
మి	-173
▁కా	-174
ెం	-175
▁కు	-176
ందు	-177
▁కూ	-178
మైన	-179
త్త	-180
▁కో	-181
ంచి	-182
ంగ్	-183
▁మొ	-184
▁ఫ	-185
ేశ	-186
గి	-187
యం	-188
▁సౌ	-189
కా	-190
ద్ధ	-191
▁సి	-192
ఖ్య	-193
▁ద్వ	-194
▁ట	-195
▁సౌకర	-196
▁వై	-197
▁మా	-198
ళ్	-199
▁తె	-200
నీ	-201
▁కూడా	-202
▁పై	-203
ంప	-204
యా	-205
్రీ	-206
▁గు	-207
ట్ట	-208
ప్ప	-209
▁ప్రభ	-210
బడిన	-211
ూర్	-212
▁ద్వారా	-213
తా	-214
సర	-215
టీ	-216
ధ్య	-217
మిక	-218
▁పాఠ	-219
లను	-220
ంటి	-221
▁పాఠశాల	-222
ీసు	-223
▁కళ	-224
▁20	-225
▁రో	-226
జు	-227
▁చి	-228
ేష	-229
ద్ద	-230
▁సౌకర్యం	-231
పా	-232
్రి	-233
▁ప్రభుత్	-234
▁పె	-235
ష్ట	-236
▁జిల్	-237
▁సర	-238
▁ప్రభుత్వ	-239
▁కళా	-240
▁19	-241
ంధ	-242
సాయ	-243
క్ట	-244
▁నిర్	-245
హి	-246
త్య	-247
▁పైబడిన	-248
▁సంఖ్య	-249
న్నారు	-250
▁జిల్లా	-251
▁కార	-252
▁పు	-253
ాల్	-254
క్కు	-255
▁నీ	-256
దా	-257
లలో	-258
నూ	-259
▁వైద్య	-260
▁కళాశాల	-261
▁పరి	-262
▁వ్యవసాయ	-263
తీ	-264
మె	-265
▁సరఫ	-266
▁"	-267
▁వే	-268
తుంది	-269
▁పొ	-270
▁డి	-271
ాలను	-272
లకు	-273
▁స్వ	-274
యోగ	-275
ొక్క	-276
ాగ	-277
యి	-278
థమిక	-279
ణా	-280
బా	-281
▁వె	-282
▁వీ	-283
ల్ల	-284
▁ప్రాథమిక	-285
▁భార	-286
రణ	-287
▁మార్	-288
▁సామా	-289
ంటే	-290
హద	-291
చి	-292
▁వ్యవస్థ	-293
ండ్	-294
▁యొక్క	-295
▁తి	-296
రించ	-297
ంబ	-298
గ్	-299
▁అనే	-300
▁జన	-301
ేక	-302
ేషన్	-303
▁రహద	-304
ెట్	-305
న్నాయి	-306
▁గ్రామానికి	-307
ివ	-308
▁లేదు	-309
▁మొద	-310
▁ఆర	-311
ించి	-312
ేవ	-313
▁రహదారి	-314
్యూ	-315
క్కువ	-316
కొ	-317
▁ఇది	-318
త్తి	-319
కో	-320
స్తుంది	-321
డం	-322
స్ట	-323
ణి	-324
ఫీసు	-325
కీ	-326
సం	-327
▁సరఫరా	-328
▁ఉప	-329
▁అని	-330
▁స్థ	-331
తోంది	-332
ధాన	-333
▁పే	-334
▁కార్య	-335
ంతో	-336
పో	-337
రకు	-338
కం	-339
▁మండ	-340
శు	-341
▁సహ	-342
▁ష	-343
▁నా	-344
ష్ట్ర	-345
్యాం	-346
▁విద్య	-347
ోన్	-348
ళ్ళ	-349
▁స్ట	-350
▁కలి	-351
▁శి	-352
▁3	-353
ల్లి	-354
ావ	-355
▁రాజ	-356
▁t	-357
పత్ర	-358
▁శా	-359
మ్మ	-360
యన	-361
ుకు	-362
ద్ధి	-363
ోగ్య	-364
▁అవ	-365
న్య	-366
▁ప్రక	-367
కాల	-368
▁-	-369
▁మండల	-370
▁ప్రాంత	-371
రం	-372
▁పి	-373
జిక	-374
ూరు	-375
▁బా	-376
▁అందు	-377
ుల	-378
▁డ	-379
ైవే	-380
క్షణ	-381
▁అభ	-382
సిన	-383
▁రాష్ట్ర	-384
ప్పు	-385
▁ఆరోగ్య	-386
శా	-387
దేశ	-388
ఫ్	-389
వాత	-390
▁ఇత	-391
▁ఎక్కువ	-392
య్య	-393
▁జా	-394
చే	-395
ించిన	-396
▁సామాజిక	-397
▁చేయ	-398
నం	-399
లీ	-400
స్తారు	-401
తం	-402
జ్	-403
▁a	-404
రీ	-405
▁తన	-406
ాలలో	-407
in	-408
ల్లో	-409
ైవేటు	-410
లే	-411
▁జరుగు	-412
▁దీ	-413
జి	-414
▁ఆర్	-415
జ్య	-416
భా	-417
▁ఉత్	-418
ధిక	-419
▁రూ	-420
▁లోపు	-421
ందిన	-422
పి	-423
▁సు	-424
ైల్	-425
మీ	-426
రించి	-427
▁అను	-428
ర్శ	-429
▁రోజు	-430
ప్ర	-431
తీయ	-432
ైన్	-433
▁భారత	-434
వారి	-435
▁ప్రైవేటు	-436
ంటు	-437
్రమ	-438
ట్టి	-439
ించారు	-440
స్సు	-441
కృ	-442
▁కింది	-443
he	-444
00	-445
▁భూ	-446
జా	-447
▁టె	-448
▁వచ్చ	-449
▁నే	-450
▁పాటు	-451
లతో	-452
▁మూ	-453
▁201	-454
వల	-455
▁ధ	-456
▁కాల	-457
▁విద	-458
▁ఉండ	-459
పతి	-460
ండా	-461
ర్లు	-462
ులు	-463
ాలయం	-464
▁యు	-465
▁ప్రధాన	-466
ధి	-467
మే	-468
రిగి	-469
▁4	-470
▁పర	-471
▁బాల	-472
▁గ్ర	-473
యర్	-474
రో	-475
సరాల	-476
▁వారి	-477
సా	-478
డ్డి	-479
▁విద్యా	-480
▁మురుగు	-481
▁సిని	-482
▁అత	-483
▁మి	-484
▁శ్రీ	-485
ెన్	-486
▁7	-487
▁సంస్థ	-488
▁.	-489
▁బి	-490
▁ఆట	-491
▁మే	-492
ట్టు	-493
▁మురుగునీ	-494
లైన	-495
▁నీరు	-496
ెడ	-497
బ్బ	-498
▁కంటే	-499
వులు	-500
యన్	-501
మో	-502
జీ	-503
▁చెందిన	-504
లిక్	-505
▁తరు	-506
▁పాల	-507
▁/	-508
పై	-509
డానికి	-510
ల్డ్	-511
గణ	-512
చు	-513
▁ఇతర	-514
దే	-515
▁బ్యాం	-516
వర్	-517
కర్	-518
వత్	-519
▁విద్యుత్	-520
▁లా	-521
యిన	-522
▁గా	-523
లోను	-524
▁ఆయన	-525
▁తెలు	-526
బ్లిక్	-527
▁మహ	-528
▁ప్రత్య	-529
ాలి	-530
గిన	-531
లోని	-532
ర్థ	-533
▁ఖ	-534
▁డా	-535
▁వ్యా	-536
on	-537
ణం	-538
▁రోడ్	-539
er	-540
ంపు	-541
పత్రి	-542
▁వాడ	-543
స్తున్నారు	-544
▁దీని	-545
ృద్ధి	-546
▁బ్యాంకు	-547
▁200	-548
▁ఉన్నారు	-549
▁కోడ్	-550
తున్నాయి	-551
▁బస్సు	-552
▁పథ	-553
పూర్	-554
▁సంవత్	-555
▁అంత	-556
▁ప్రతి	-557
యో	-558
క్షి	-559
గణన	-560
▁తరువాత	-561
ైద	-562
▁గంట	-563
▁టెలి	-564
ెండు	-565
▁జనా	-566
▁ఆసు	-567
▁మార్క	-568
ుడు	-569
▁వాణి	-570
▁అధిక	-571
▁జనగణన	-572
తే	-573
ధార	-574
▁ఒకటి	-575
కార	-576
క్తి	-577
▁ఆసుపత్రి	-578
▁సినిమా	-579
▁నగ	-580
▁విధ	-581
▁పబ్లిక్	-582
▁భా	-583
▁కోసం	-584
▁ప్రకారం	-585
▁ఫోన్	-586
▁ఐ	-587
▁షెడ	-588
▁లేదా	-589
▁పథకం	-590
▁షెడ్యూ	-591
▁జనాభా	-592
స్టా	-593
టర్	-594
▁తీ	-595
▁వాణిజ్య	-596
▁రెండు	-597
ివృద్ధి	-598
▁షెడ్యూల్డ్	-599
వం	-600
▁వారం	-601
▁కె	-602
▁వైద్యశాల	-603
పే	-604
ానం	-605
రంగ	-606
▁6	-607
శ్వ	-608
▁చూ	-609
▁నుంచి	-610
▁జీ	-611
▁రె	-612
నరు	-613
ంటుంది	-614
ష్ణ	-615
▁అమ	-616
▁స్టేషన్	-617
ంలోని	-618
ంజ	-619
డుగు	-620
▁ఆఫీసు	-621
▁విస్త	-622
ర్మ	-623
వచ్చ	-624
స్టాఫీసు	-625
ెక్	-626
▁పోస్టాఫీసు	-627
▁గంటల	-628
ట్లు	-629
▁తా	-630
▁అభివృద్ధి	-631
ాన్ని	-632
▁పట్ట	-633
ాలా	-634
▁దేశ	-635
స్ట్	-636
▁o	-637
ించాడు	-638
▁ప్రత్యేక	-639
స్త్ర	-640
త్తం	-641
ంపి	-642
టిని	-643
ంధ్ర	-644
ద్ర	-645
▁డాక్ట	-646
▁మధ్య	-647
▁హె	-648
ప్పటి	-649
డ్డ	-650
▁చిత్ర	-651
▁మొదలైన	-652
▁నిర్వ	-653
▁పూర్	-654
▁పేరు	-655
గ్రీ	-656
▁·	-657
▁లు	-658
▁ఏర్	-659
ంటారు	-660
డే	-661
తులు	-662
ారీ	-663
లం	-664
▁మరణ	-665
▁గో	-666
at	-667
షి	-668
▁వృ	-669
వుల	-670
ర్తి	-671
ప్పుడు	-672
▁పని	-673
▁వ్యవసాయానికి	-674
▁నె	-675
▁జూ	-676
వరి	-677
▁సమా	-678
▁డిగ్రీ	-679
ంథ	-680
▁ఓ	-681
బంధ	-682
▁సంఘ	-683
ొక	-684
▁రోడ్లు	-685
టుంబ	-686
▁విజ	-687
్రహ	-688
గల	-689
కే	-690
శ్	-691
▁జాతీయ	-692
▁the	-693
కల్	-694
▁అన	-695
▁8	-696
▁దా	-697
▁కుటుంబ	-698
▁ది	-699
▁మె	-700
సే	-701
ృహ	-702
పాద	-703
▁సె	-704
an	-705
▁తిరిగి	-706
▁వల	-707
▁విని	-708
పత్తి	-709
▁రైల్	-710
ర్వ	-711
is	-712
▁పద	-713
re	-714
సీ	-715
▁18	-716
▁వర్	-717
▁భాగ	-718
▁రైల్వే	-719
ెస్	-720
హార	-721
ంచిన	-722
▁చెప్ప	-723
▁ఉపయోగ	-724
▁టి	-725
పల్లి	-726
▁గ్రంథ	-727
ౌర	-728
బడింది	-729
▁s	-730
ట్స్	-731
యంలో	-732
ేందుకు	-733
▁బో	-734
▁కొన్ని	-735
▁చాలా	-736
▁వంటి	-737
ించింది	-738
బో	-739
వచ్చు	-740
▁దు	-741
ాలకు	-742
ంత్ర	-743
▁క్	-744
ar	-745
లోనూ	-746
రే	-747
▁కాలు	-748
▁కలిగి	-749
▁అస	-750
▁విధంగా	-751
స్తున్న	-752
▁సంవత్సర	-753
▁ఉంటుంది	-754
▁పెద్ద	-755
:.	-756
▁సే	-757
▁సంత	-758
▁తెలుగు	-759
మెం	-760
గొ	-761
ములు	-762
▁ప్రవ	-763
▁జరి	-764
ేమ	-765
ించే	-766
▁ఆమె	-767
▁సహాయ	-768
కూ	-769
ంటర్	-770
్మ	-771
en	-772
ాల్లో	-773
స్తూ	-774
▁కృ	-775
▁అవు	-776
డాది	-777
▁పంపి	-778
ారంభ	-779
▁జరుగుతోంది	-780
▁వార్	-781
▁ప్రజ	-782
రాల	-783
▁చేసి	-784
▁లోని	-785
టం	-786
▁హి	-787
వ్వ	-788
▁ఉత్త	-789
▁ఏడాది	-790
▁తీసు	-791
కుండా	-792
▁రి	-793
▁సూ	-794
కులు	-795
▁వు	-796
క్కడ	-797
▁చేశ	-798
లవ	-799
▁ప్రారంభ	-800
సై	-801
▁వినియోగ	-802
▁నీటి	-803
పంచ	-804
త్యా	-805
▁c	-806
▁గృహ	-807
▁సొ	-808
▁వరకు	-809
▁తో	-810
▁ఉత్పత్తి	-811
ాలని	-812
▁అంగ	-813
ణీ	-814
▁వస్తు	-815
త్తు	-816
స్ప	-817
▁మంది	-818
ణంగా	-819
▁తెలి	-820
ాన్	-821
it	-822
▁అనేక	-823
▁అయి	-824
ార్థ	-825
▁ముఖ్య	-826
▁రీ	-827
కృత	-828
▁ఇంటి	-829
లంగా	-830
ములో	-831
క్రమ	-832
▁పట్టణ	-833
నాయ	-834
▁9	-835
బు	-836
▁నిర్వహ	-837
్యాలు	-838
▁పారి	-839
న్నా	-840
▁రచ	-841
క్ర	-842
ంటాయి	-843
ందం	-844
తిప	-845
▁సైన్	-846
▁సీ	-847
టింగ్	-848
▁అందుతుంది	-849
▁తొ	-850
బి	-851
al	-852
ర్య	-853
▁పొడుగు	-854
గుల	-855
▁వారు	-856
▁బహి	-857
▁నమో	-858
సుకు	-859
▁పార్	-860
▁ఔ	-861
▁పొడుగునా	-862
▁కుల	-863
▁పోష	-864
▁భాష	-865
▁ట్రా	-866
ండు	-867
గే	-868
నికి	-869
బడు	-870
▁పోలి	-871
▁ఆడ	-872
దర్శ	-873
▁చేసిన	-874
▁అయిన	-875
రంలో	-876
▁బృ	-877
▁రూప	-878
▁ప్రపంచ	-879
▁సంబంధ	-880
హిస్తుంది	-881
కర్త	-882
శం	-883
or	-884
తంగా	-885
▁ఇంటర్	-886
▁దాని	-887
తన	-888
దులు	-889
ానీ	-890
▁సంగ	-891
ఫె	-892
▁p	-893
▁పరిశ	-894
▁విశ్వ	-895
▁శు	-896
▁దే	-897
రక్షణ	-898
▁మాత్ర	-899
వాణా	-900
దీ	-901
▁దేవ	-902
▁of	-903
▁అండ్	-904
▁మాధ్య	-905
▁మొదటి	-906
▁పార	-907
పాల	-908
▁వృత్తి	-909
▁2011	-910
నిక్	-911
▁నమోదు	-912
ed	-913
ట్ల	-914
మని	-915
▁w	-916
es	-917
▁బహిరంగ	-918
▁'	-919
న్నత	-920
ర్భ	-921
వీ	-922
కరించ	-923
▁శిక్షణ	-924
▁కల	-925
దల	-926
▁గుర్తి	-927
▁విష	-928
ుని	-929
కోవ	-930
న్నాడు	-931
ణాం	-932
▁b	-933
▁జరుగుతుంది	-934
▁సంఘం	-935
▁సంచ	-936
▁బె	-937
▁సో	-938
▁కాగా	-939
▁కార్	-940
▁విస్తరించి	-941
ic	-942
▁మగ	-943
▁కే	-944
▁రవాణా	-945
▁కొరకు	-946
▁గణాం	-947
నియర్	-948
▁పక్క	-949
▁కం	-950
తూ	-951
పాటు	-952
ధుల	-953
▁నిమి	-954
▁పశు	-955
▁పూ	-956
పత్రిక	-957
త్వ	-958
▁ప్రవహిస్తుంది	-959
గ్గ	-960
ంద్ర	-961
▁అత్య	-962
రూ	-963
▁సేక	-964
▁సిబ్బ	-965
▁మాధ్యమిక	-966
▁మన	-967
పడి	-968
▁స్వా	-969
▁హెక్ట	-970
పూర్ణ	-971
రించే	-972
▁డాక్టర్లు	-973
▁తర	-974
▁కాలువల	-975
▁సంక్ష	-976
షధ	-977
్రో	-978
▁సహకార	-979
మెంటు	-980
▁పౌర	-981
▁నిర్మ	-982
▁దివ	-983
▁స్వయం	-984
▁మురుగునీరు	-985
▁సై	-986
▁సమీ	-987
డింగ్	-988
ాప	-989
▁తర్	-990
▁సామాన్య	-991
▁మీద	-992
వాహ	-993
▁ఉండే	-994
డికల్	-995
ందని	-996
▁కొరి	-997
▁మైద	-998
▁కేంద్రాలు	-999
స్య	-1000
▁కథ	-1001
వాడు	-1002
▁అర్	-1003
▁in	-1004
▁ఔషధ	-1005
▁మో	-1006
దొ	-1007
▁వనరు	-1008
బాద్	-1009
ీట	-1010
▁f	-1011
▁ఆల	-1012
▁సౌకర్యాలు	-1013
బరు	-1014
లవు	-1015
మారు	-1016
▁సొసై	-1017
▁15	-1018
▁వద్ద	-1019
▁తమ	-1020
▁సొసైటీ	-1021
బ్ద	-1022
నెట్	-1023
▁బృందం	-1024
మ్నాయ	-1025
▁సాధ	-1026
▁కార్యాలయం	-1027
▁వార్తా	-1028
▁శిశు	-1029
▁లోను	-1030
▁లైన్	-1031
▁ఆటో	-1032
▁రామ	-1033
▁చిన్న	-1034
▁సేవా	-1035
కరణ	-1036
తున్న	-1037
▁12	-1038
త్యామ్నాయ	-1039
చార	-1040
▁లక్ష	-1041
▁సంక్షేమ	-1042
ోన్నత	-1043
▁ఇళ్	-1044
▁వినియోగం	-1045
గ్రా	-1046
nd	-1047
▁ప్రత్యామ్నాయ	-1048
▁పారా	-1049
▁సైన్స్	-1050
▁సంద	-1051
భాగ	-1052
పర	-1053
▁గణాంకాల	-1054
ఫోన్	-1055
▁సబ్	-1056
▁సంపూర్ణ	-1057
ింది	-1058
▁కార్యకర్త	-1059
▁హెక్టార్	-1060
▁మేనే	-1061
యత	-1062
▁సభ	-1063
▁తిరుగు	-1064
▁ఇంజ	-1065
▁లభ	-1066
బైల్	-1067
▁తయ	-1068
▁కులాల	-1069
టర్ల	-1070
▁ప్రాథమికోన్నత	-1071
▁,	-1072
▁పంపిణీ	-1073
▁నిమిత్తం	-1074
▁మార్కెట్	-1075
▁ముందు	-1076
▁m	-1077
▁సంరక్షణ	-1078
టీఎ	-1079
ెడ్డి	-1080
మాణ	-1081
▁జనన	-1082
▁ఇంటర్నెట్	-1083
మై	-1084
▁మరుగు	-1085
▁తెగల	-1086
▁సహాయక	-1087
▁మొబైల్	-1088
▁న్య	-1089
▁వార్తాపత్రిక	-1090
▁బాలల	-1091
పాదక	-1092
▁మార్కె	-1093
▁ఆర్ట్స్	-1094
▁కిలో	-1095
సన	-1096
▁గ్రంథాలయం	-1097
▁మార్కెటింగ్	-1098
▁యుద్ధ	-1099
▁లొక	-1100
▁ఆంధ్ర	-1101
▁మైదానం	-1102
▁లొకేషన్	-1103
దాయ	-1104
▁జూనియర్	-1105
▁ఆశా	-1106
▁చేస్తున్నారు	-1107
▁జనాభాతో	-1108
▁లి	-1109
మెడికల్	-1110
▁పిన్	-1111
▁మగవారి	-1112
్యాస్	-1113
▁సంచార	-1114
▁పారిశు	-1115
▁పోలింగ్	-1116
▁పారామెడికల్	-1117
▁ఆడవారి	-1118
▁ఆటల	-1119
▁రీడింగ్	-1120
▁హెక్టార్లలో	-1121
▁సరఫరాల	-1122
▁లాండ్	-1123
▁ఇళ్లతో	-1124
ావసరాల	-1125
రుగా	-1126
ర్చ	-1127
▁అంగన్	-1128
▁మరుగుదొ	-1129
▁పారిశుధ్య	-1130
▁మాతా	-1131
▁మరణాల	-1132
▁పోస్ట్	-1133
▁టెలిఫోన్	-1134
▁వాడీ	-1135
▁వ్యర్థ	-1136
▁అలో	-1137
▁శాస్త్ర	-1138
్లా	-1139
▁రూం	-1140
ాయిల	-1141
▁తర్వాత	-1142
ion	-1143
ంటికీ	-1144
ంట్	-1145
▁ఉత్పాదక	-1146
ైనా	-1147
కాహార	-1148
ెక్నిక్	-1149
▁ట్రాక్ట	-1150
▁హాలు	-1151
▁మూడు	-1152
▁కొరియర్	-1153
ంచారు	-1154
▁కెఫె	-1155
▁చెత్త	-1156
▁పక్కనే	-1157
▁ఆఫ్	-1158
▁గృహావసరాల	-1159
▁పోషకాహార	-1160
ముఖ	-1161
వేశ	-1162
సరీ	-1163
్యాంగుల	-1164
▁బు	-1165
▁వస్తువులు	-1166
▁కంకర	-1167
ీటెక్నిక్	-1168
రువు	-1169
▁సేకరించే	-1170
స్పెన్	-1171
▁అతని	-1172
▁పరపతి	-1173
తుల	-1174
▁వ్యర్థాలను	-1175
▁సమీకృత	-1176
▁అనియత	-1177
▁ఇంటింటికీ	-1178
త్మ	-1179
▁బయోగ	-1180
▁దూరం	-1181
▁దివ్యాంగుల	-1182
▁బయోగ్యాస్	-1183
ించు	-1184
▁దక్షి	-1185
▁ఏటీఎ	-1186
▁వీధుల	-1187
▁మరుగుదొడ్డి	-1188
▁డిస్పెన్	-1189
▁ఏటీఎమ్	-1190
▁డిస్పెన్సరీ	-1191
▁అలోపతి	-1192
▁రే	-1193
గం	-1194
▁పాలీటెక్నిక్	-1195
▁భారతదేశ	-1196
▁చెత్తను	-1197
▁దర్శ	-1198
ీత	-1199
టా	-1200
గ్రాఫ్	-1201
▁రెండ	-1202
▁అలా	-1203
బాటు	-1204
జ్ఞ	-1205
▁అన్న	-1206
▁పారబో	-1207
▁టెలిగ్రాఫ్	-1208
▁మేనేజి	-1209
తిపంపు	-1210
▁పట్టణమైన	-1211
▁పారబోస్తారు	-1212
▁విజయ	-1213
▁మురుగునీటిని	-1214
రింగ్	-1215
▁ఘ	-1216
▁చేతిపంపు	-1217
బ్లీ	-1218
▁కేంద్రమైన	-1219
▁తెలంగా	-1220
▁రై	-1221
గ్గు	-1222
నగ	-1223
▁మేనేజిమెంటు	-1224
▁రోజుకు	-1225
కుడు	-1226
▁బాలబడి	-1227
▁ఎన్ని	-1228
▁అయితే	-1229
▁కిలోమీ	-1230
▁అవసరాల	-1231
ప్పటికీ	-1232
le	-1233
▁సాధార	-1234
▁అమలవు	-1235
▁గొ	-1236
▁చేశారు	-1237
▁తే	-1238
▁వలన	-1239
▁పూర్తి	-1240
విధ	-1241
▁అమలవుతోంది	-1242
గో	-1243
▁కని	-1244
▁ఇంజనీ	-1245
▁కుళ	-1246
పె	-1247
ెంబ్లీ	-1248
0.	-1249
నె	-1250
▁ఉద్య	-1251
▁పాఠశాలలు	-1252
▁ఉంటాయి	-1253
క్స్	-1254
▁హైద	-1255
▁శతా	-1256
▁అసెంబ్లీ	-1257
▁క్రి	-1258
తున్నారు	-1259
▁క్రీ	-1260
▁A	-1261
తారు	-1262
▁కొత్త	-1263
▁వాటి	-1264
▁బ్రి	-1265
్రే	-1266
▁ఆధ	-1267
త్స	-1268
హా	-1269
▁199	-1270
▁అంది	-1271
▁వరి	-1272
వారీ	-1273
తాయి	-1274
▁కుళాయిల	-1275
▁వనరుల	-1276
▁కర్	-1277
ారులు	-1278
వర	-1279
▁అధ్య	-1280
▁యా	-1281
▁బస్సులు	-1282
మెరి	-1283
స్తాయి	-1284
▁సామ	-1285
ద్దు	-1286
▁--	-1287
▁పాత్ర	-1288
▁ఇచ్చ	-1289
▁కానీ	-1290
▁11	-1291
ంక	-1292
తిక	-1293
శి	-1294
ప్రా	-1295
నకు	-1296
▁రోజువారీ	-1297
మార్	-1298
క్త	-1299
▁చేతిపంపుల	-1300
ేశ్వ	-1301
▁ఫి	-1302
▁ఎన్నిక	-1303
▁తీసుకు	-1304
లువ	-1305
డంతో	-1306
ాలయ	-1307
ంత్రి	-1308
గ్రహ	-1309
▁హైదరా	-1310
లేదు	-1311
▁నాయ	-1312
▁ప్రభుత్వం	-1313
▁పలు	-1314
▁దూరంలోనూ	-1315
▁అవుతున్నాయి	-1316
దేశ్	-1317
ష్టి	-1318
▁సిబ్బంది	-1319
..	-1320
as	-1321
▁తెలంగాణ	-1322
▁గుండా	-1323
ంగు	-1324
▁ఇంజనీరింగ్	-1325
▁భావ	-1326
కాలు	-1327
▁అమెరి	-1328
▁వెళ్ళ	-1329
▁జరిగిన	-1330
▁S	-1331
▁14	-1332
రావు	-1333
లై	-1334
ou	-1335
▁16	-1336
▁సంస్	-1337
▁పనిచే	-1338
▁సమయంలో	-1339
▁జన్	-1340
నలు	-1341
మూ	-1342
▁అన్ని	-1343
▁నియ	-1344
▁ఇద్ద	-1345
బీ	-1346
▁మహా	-1347
▁ఇందు	-1348
న్ను	-1349
▁పార్టీ	-1350
▁కిలోమీటర్ల	-1351
్యు	-1352
▁ప్రాంతాల	-1353
▁17	-1354
కొని	-1355
▁అది	-1356
ing	-1357
ంతి	-1358
▁d	-1359
▁మాన	-1360
▁ఎస్	-1361
ంచు	-1362
▁అంద	-1363
▁ఊ	-1364
బడ్డ	-1365
▁చేస	-1366
▁కాని	-1367
▁లేని	-1368
▁వ్యవసాయం	-1369
▁సరి	-1370
తలు	-1371
రిత్ర	-1372
▁అంటారు	-1373
వారం	-1374
కుల	-1375
▁క్ర	-1376
▁మర	-1377
▁ఇక్కడ	-1378
▁గురించి	-1379
▁రంగ	-1380
▁సము	-1381
▁జీవి	-1382
ళ్ల	-1383
▁గ్రామాల	-1384
ోధ	-1385
ేవారు	-1386
వన	-1387
హు	-1388
▁తారు	-1389
▁ప్రస్తు	-1390
ముల	-1391
▁సర్	-1392
▁దక్షిణ	-1393
పురం	-1394
వాడ	-1395
▁హా	-1396
▁వచ్చిన	-1397
▁మొదలైనవి	-1398
▁శతాబ్ద	-1399
లూ	-1400
▁ఆధార	-1401
ెల్	-1402
▁మాత్రమే	-1403
▁లేరు	-1404
శాఖ	-1405
▁13	-1406
డిగా	-1407
▁యూ	-1408
▁నూ	-1409
▁మొత్తం	-1410
▁చేసుకు	-1411
ర్కొ	-1412
▁ప్రముఖ	-1413
▁నేరుగా	-1414
▁కను	-1415
ల్లె	-1416
▁కావ	-1417
వ్	-1418
▁మండలం	-1419
న్స్	-1420
▁నాలు	-1421
టక	-1422
▁పాల్	-1423
స్వా	-1424
▁బీ	-1425
▁నగర	-1426
ాలతో	-1427
▁క్ష	-1428
▁:	-1429
ీల	-1430
రుష	-1431
మును	-1432
▁అతి	-1433
టానికి	-1434
బాదు	-1435
▁రాజు	-1436
పాడు	-1437
▁T	-1438
దని	-1439
రాజు	-1440
ళ్ళు	-1441
▁చు	-1442
ర్ర	-1443
ిల్ల	-1444
▁to	-1445
ండ్రి	-1446
తిని	-1447
క్షిత	-1448
▁అతను	-1449
▁and	-1450
▁పొంద	-1451
▁ఇద్దరు	-1452
▁కార్యక్రమ	-1453
ట్లా	-1454
▁మంచి	-1455
ృష్టి	-1456
ూడ	-1457
యే	-1458
om	-1459
▁కంప	-1460
▁కాలంలో	-1461
ాయణ	-1462
▁ఉత్తర	-1463
▁కొంత	-1464
▁నాటి	-1465
స్తే	-1466
ంచే	-1467
ంతు	-1468
త్వం	-1469
ల్లోకి	-1470
▁శాల	-1471
▁వార	-1472
▁ప్రదర్శ	-1473
ూర్పు	-1474
▁I	-1475
▁విడు	-1476
▁చరిత్ర	-1477
▁రాష్ట్రం	-1478
వరణ	-1479
▁శుద్ధి	-1480
1.	-1481
000	-1482
▁ఇం	-1483
త్రి	-1484
▁విధాన	-1485
▁వెం	-1486
జన్	-1487
▁జి	-1488
ీటి	-1489
▁వల్ల	-1490
▁తక్కువ	-1491
ించడం	-1492
▁జన్మ	-1493
మాన	-1494
▁మంచిన	-1495
▁సాం	-1496
పేట	-1497
▁తిరుగుతున్నాయి	-1498
▁వీరి	-1499
విద్య	-1500
నో	-1501
▁50	-1502
▁ఏర్పాటు	-1503
▁బొ	-1504
▁ఆర్థ	-1505
▁వర	-1506
▁కల్	-1507
▁ఇలా	-1508
▁పురా	-1509
▁హింద	-1510
▁C	-1511
రుకు	-1512
▁మంచినీటి	-1513
▁జరిగి	-1514
జన	-1515
▁నాగ	-1516
▁తూర్పు	-1517
బాటులో	-1518
▁h	-1519
ణు	-1520
▁సాహి	-1521
▁నటి	-1522
షన్	-1523
తిలో	-1524
▁వివిధ	-1525
▁సేవ	-1526
▁స్థాన	-1527
పీ	-1528
▁కొన	-1529
దం	-1530
వారు	-1531
▁రక్షిత	-1532
నాడు	-1533
▁స్థాప	-1534
▁అందుబాటులో	-1535
▁198	-1536
▁స్థి	-1537
▁నవ	-1538
▁దీనిని	-1539
సభ	-1540
ోర్	-1541
▁పురుష	-1542
▁లోనూ	-1543
▁మండలానికి	-1544
▁వదులు	-1545
భవ	-1546
▁లె	-1547
▁రు	-1548
▁స్త్ర	-1549
స్థి	-1550
▁తయారు	-1551
లుగా	-1552
మతి	-1553
▁శాసన	-1554
▁n	-1555
▁ప్రవేశ	-1556
▁శక్తి	-1557
▁అం	-1558
్రె	-1559
కీయ	-1560
am	-1561
బర్	-1562
డవ	-1563
▁తిరు	-1564
▁వ్యాప	-1565
ాయు	-1566
3.	-1567
వంత	-1568
▁అభి	-1569
2.	-1570
▁ఇందులో	-1571
ముగా	-1572
▁ఒకరు	-1573
▁పీ	-1574
us	-1575
సింది	-1576
ెంబరు	-1577
▁ఆర్థిక	-1578
టకు	-1579
▁గల	-1580
ోతి	-1581
సారి	-1582
తంత్ర	-1583
యత్	-1584
ర్లున్నాయి	-1585
▁చేసే	-1586
▁అంతర్	-1587
▁వాడేందుకు	-1588
▁తు	-1589
లుగు	-1590
▁ఇవి	-1591
స్టు	-1592
▁వ్యక్తి	-1593
▁‘	-1594
▁అవసర	-1595
టన	-1596
▁ముగ్గు	-1597
▁197	-1598
గ్రామ	-1599
డీ	-1600
ాలుగా	-1601
టో	-1602
▁వెంక	-1603
▁హో	-1604
వాస	-1605
il	-1606
▁చేసింది	-1607
▁వదులుతున్నారు	-1608
జే	-1609
▁ఒక్క	-1610
▁సంగీత	-1611
▁కలిగిన	-1612
▁జలవ	-1613
పరి	-1614
▁జలవనరు	-1615
▁కాంగ	-1616
ంచింది	-1617
▁వ్రా	-1618
▁మహి	-1619
▁సందర్భ	-1620
▁ప్లా	-1621
రస్	-1622
▁ధర్మ	-1623
▁పరిశోధ	-1624
▁స్ప	-1625
ీన	-1626
▁పాట	-1627
▁జలవనరుల్లోకి	-1628
ారాయణ	-1629
▁కచ్చ	-1630
▁రాజకీయ	-1631
శ్చి	-1632
ద్వ	-1633
లె	-1634
త్మక	-1635
▁కృష్ణ	-1636
▁నాలుగు	-1637
లోకి	-1638
▁పాల్గొ	-1639
▁బోరు	-1640
▁ప్రజలు	-1641
తమైన	-1642
▁పత్ర	-1643
▁దేశాల	-1644
వై	-1645
పట్	-1646
▁వీటి	-1647
ధు	-1648
▁రెండవ	-1649
▁కారణంగా	-1650
▁అనేది	-1651
5.	-1652
డిన	-1653
▁వాడు	-1654
ారని	-1655
▁ఛ	-1656
▁హై	-1657
ీయ	-1658
బడ	-1659
రిక	-1660
క్కి	-1661
టె	-1662
▁M	-1663
▁అదే	-1664
▁పర్వ	-1665
4.	-1666
▁మై	-1667
▁195	-1668
▁మొక్క	-1669
బడుతుంది	-1670
▁196	-1671
ent	-1672
▁సభ్య	-1673
▁భూమి	-1674
ంటూ	-1675
▁అమెరికా	-1676
▁అనుస	-1677
▁అనంత	-1678
్రహ్మ	-1679
▁అమ్మ	-1680
▁కవి	-1681
▁ముగ్గురు	-1682
▁నెల	-1683
▁తల్లి	-1684
▁సిద్ధ	-1685
▁ప్రసి	-1686
▁సంవత్సరం	-1687
▁సంవత్సరాల	-1688
మంది	-1689
బడ్డాయి	-1690
▁బయ	-1691
6.	-1692
▁స్థాయి	-1693
యింది	-1694
▁పేర్కొ	-1695
▁(	-1696
7.	-1697
▁పద్ధ	-1698
▁ఎదు	-1699
▁జరిగింది	-1700
▁విభ	-1701
ెర్	-1702
▁తొలి	-1703
హ్	-1704
▁విశ్వవిద్య	-1705
▁పంచ	-1706
▁194	-1707
వ్య	-1708
▁గ్రామము	-1709
▁మత	-1710
,000	-1711
▁సముద్ర	-1712
▁సూర	-1713
▁బోరుబా	-1714
▁పుస్త	-1715
▁శివ	-1716
▁అవి	-1717
▁గి	-1718
▁25	-1719
▁విశాఖ	-1720
▁తప్ప	-1721
నల్	-1722
▁ప్రయత్	-1723
దన	-1724
▁వీరు	-1725
పడ	-1726
▁సర్వ	-1727
్రియ	-1728
▁నిర్మాణ	-1729
▁లేక	-1730
న్నది	-1731
యాన్ని	-1732
▁శాఖ	-1733
▁ఎక్కువగా	-1734
కాశం	-1735
▁అధ్యక్ష	-1736
స్తాడు	-1737
నర్	-1738
▁చా	-1739
▁పశ్చి	-1740
పొ	-1741
▁మహిళ	-1742
త్రా	-1743
లియన్	-1744
▁అంటే	-1745
ించబడింది	-1746
సర్	-1747
తను	-1748
▁బహు	-1749
డికి	-1750
థి	-1751
▁పరిధి	-1752
▁ఆది	-1753
తల	-1754
▁అత్యంత	-1755
కార్	-1756
▁దగ్గ	-1757
ీకరించ	-1758
▁తండ్రి	-1759
ంచాడు	-1760
క్టో	-1761
▁రాయ	-1762
8.	-1763
▁విద్యార్థ	-1764
▁సాధారణంగా	-1765
పూ	-1766
ad	-1767
▁కేంద్రంలో	-1768
▁చేప	-1769
▁మార్గ	-1770
▁పిల్ల	-1771
ాం	-1772
▁ఇవ్వ	-1773
వ్ర	-1774
వె	-1775
▁మాట్లా	-1776
▁నివ	-1777
గిలి	-1778
ళి	-1779
▁హైదరాబాదు	-1780
-1	-1781
▁అర	-1782
గిరి	-1783
మయ్య	-1784
పద	-1785
▁l	-1786
9.	-1787
▁మూల	-1788
జ్యోతి	-1789
ర్చు	-1790
▁కలిసి	-1791
ెంట్	-1792
ఎస్	-1793
▁చట్ట	-1794
ించడానికి	-1795
కల	-1796
ro	-1797
▁న్యాయ	-1798
ఆంధ్ర	-1799
▁భారతీయ	-1800
▁నిర్ణ	-1801
కొండ	-1802
ల్లు	-1803
▁ప్రయా	-1804
▁మరో	-1805
▁ప్రస్తుతం	-1806
రియా	-1807
ద్రా	-1808
్యాన్ని	-1809
▁0	-1810
▁సంప్ర	-1811
శాస్త్ర	-1812
నాలు	-1813
ేశ్వర	-1814
▁అలాగే	-1815
▁మండలంలోని	-1816
▁30	-1817
▁గె	-1818
▁57	-1819
▁ఎన్	-1820
▁బావుల	-1821
▁చంద్ర	-1822
తె	-1823
ికా	-1824
▁క్రమ	-1825
మొ	-1826
మం	-1827
▁పోటీ	-1828
ధా	-1829
పడు	-1830
▁సుమారు	-1831
కారు	-1832
▁అప్పటి	-1833
లాండ్	-1834
el	-1835
▁ఉదా	-1836
ారెడ్డి	-1837
▁న్యూ	-1838
▁వచ్చింది	-1839
▁బహిరంగంగా	-1840
పోయ	-1841
▁ప్రాంతంలో	-1842
డైన	-1843
ెట్టి	-1844
▁పెట్ట	-1845
య్యా	-1846
▁యూని	-1847
▁వ్యతి	-1848
నులు	-1849
ష్ఠ	-1850
ద్ది	-1851
ల్లా	-1852
డిని	-1853
▁దుకా	-1854
▁నగర్	-1855
ఆర్	-1856
కుని	-1857
ించుకు	-1858
▁తెలియ	-1859
▁లభి	-1860
▁స్వామి	-1861
▁B	-1862
▁•	-1863
ంభ	-1864
▁సూచ	-1865
ానిక	-1866
్రెస్	-1867
▁ప్రకటి	-1868
▁విషయ	-1869
▁చో	-1870
ీర్	-1871
▁విశాఖపట్	-1872
ac	-1873
▁కుమారు	-1874
▁విడుదల	-1875
▁ఇండి	-1876
▁బ్రా	-1877
నగర్	-1878
▁మంత్రి	-1879
దాపు	-1880
తర	-1881
▁చేసు	-1882
▁అక్కడ	-1883
▁ఉద	-1884
వంటి	-1885
నై	-1886
▁e	-1887
పారు	-1888
▁g	-1889
ంపై	-1890
▁అయ్య	-1891
స్తా	-1892
▁దశ	-1893
▁అల	-1894
▁చివరి	-1895
డియో	-1896
పోవ	-1897
▁కాక	-1898
▁వివాహ	-1899
▁నర	-1900
▁కొండ	-1901
నిక	-1902
▁నాట	-1903
▁బోరుబావుల	-1904
▁డాక్టరు	-1905
▁సమస్య	-1906
మున	-1907
▁ప్రజా	-1908
▁వెంకట	-1909
▁P	-1910
▁అధికార	-1911
మన్	-1912
▁కాకుండా	-1913
▁కచ్చా	-1914
▁తీవ్ర	-1915
కృష్ణ	-1916
▁లోకి	-1917
షణ	-1918
▁నై	-1919
ఆంధ్రజ్యోతి	-1920
▁దొ	-1921
ur	-1922
దారు	-1923
చె	-1924
20	-1925
ర్ల	-1926
▁వారికి	-1927
▁భీ	-1928
జాతీయ	-1929
▁నిర్మా	-1930
st	-1931
లిం	-1932
▁కన్నా	-1933
వాద	-1934
కాశ	-1935
▁చర్య	-1936
ఫి	-1937
▁చిత్రం	-1938
▁దాదాపు	-1939
▁ద్ర	-1940
▁ప్రాంతం	-1941
▁బల	-1942
హరణ	-1943
ణ్య	-1944
్లో	-1945
▁రచయి	-1946
▁కాంగ్రెస్	-1947
▁అనగా	-1948
▁ఇంకా	-1949
▁ఫలి	-1950
▁అర్థ	-1951
ారావు	-1952
న్నీ	-1953
మ్ము	-1954
▁నిలి	-1955
▁వచ్చే	-1956
పుడు	-1957
రులు	-1958
▁వచ్చి	-1959
ధాని	-1960
దిక	-1961
ల్స్	-1962
▁పశ్చిమ	-1963
ండే	-1964
వాన్ని	-1965
▁చూడ	-1966
ందింది	-1967
▁వున్న	-1968
▁పోతోంది	-1969
▁హిందూ	-1970
గునీ	-1971
చ్చి	-1972
▁కాదు	-1973
చేశ	-1974
▁విభాగ	-1975
▁పరీ	-1976
▁బాగా	-1977
▁th	-1978
కారం	-1979
ష్య	-1980
చ్ఛ	-1981
తికి	-1982
▁ముస్	-1983
పురంలో	-1984
ార్లు	-1985
ల్లూరు	-1986
et	-1987
▁మట్టి	-1988
చిన	-1989
▁రావ	-1990
▁పరిస్థి	-1991
▁వేరు	-1992
▁పేరుతో	-1993
ట్టిన	-1994
పించ	-1995
ri	-1996
త్యం	-1997
గూడ	-1998
స్వామి	-1999
ాయని	-2000
▁193	-2001
ంగి	-2002
▁స్త్రీ	-2003
▁జీవ	-2004
తాడు	-2005
▁డిస	-2006
▁దీనికి	-2007
▁ఉపయోగి	-2008
హం	-2009
▁U	-2010
▁ప్రచు	-2011
గ్ర	-2012
▁సామ్రా	-2013
ణాలు	-2014
టువంటి	-2015
▁చైనా	-2016
▁రూపొ	-2017
క్కల	-2018
రగ	-2019
టన్	-2020
▁సంబంధించిన	-2021
వుడు	-2022
▁గుంట	-2023
ation	-2024
యోజ	-2025
ాంత	-2026
త్రం	-2027
▁ప్రదేశ్	-2028
▁జీవిత	-2029
రించిన	-2030
▁ఆలయ	-2031
ారాన్ని	-2032
▁నది	-2033
ol	-2034
షా	-2035
▁తల	-2036
▁వ్యాస	-2037
▁అక్టో	-2038
పం	-2039
▁నో	-2040
పెట్ట	-2041
▁శాసనసభ	-2042
▁సంప్రదాయ	-2043
▁మిగిలి	-2044
స్టి	-2045
▁వయ	-2046
ేట్	-2047
ెను	-2048
▁ఈయన	-2049
ోత్స	-2050
▁ఏర్పడి	-2051
▁24	-2052
లుపు	-2053
▁టీ	-2054
ళ్లు	-2055
▁అంతర్జాతీయ	-2056
రికి	-2057
▁నవంబ	-2058
▁ముఖ్యమైన	-2059
▁ప్రభావ	-2060
మిళ	-2061
▁భాగంగా	-2062
వతి	-2063
▁ప్రస	-2064
▁చెరువు	-2065
▁మారి	-2066
▁భక్	-2067
సాగ	-2068
▁ఉదాహరణ	-2069
ot	-2070
డో	-2071
నియా	-2072
▁కమి	-2073
▁సినిమ	-2074
▁కాలం	-2075
రేక	-2076
▁58	-2077
షు	-2078
▁ఎత్తు	-2079
పోయిన	-2080
▁జో	-2081
▁బౌ	-2082
భి	-2083
▁బ్రిటి	-2084
):	-2085
పల్లిలో	-2086
ొన్న	-2087
▁రాజ్య	-2088
▁21	-2089
వేత్త	-2090
బూ	-2091
▁2001	-2092
▁కౌ	-2093
▁విశ	-2094
జం	-2095
సన్	-2096
టెడ్	-2097
ంలోను	-2098
▁ప్రదేశ	-2099
▁చేశాడు	-2100
లోనే	-2101
▁కేవ	-2102
▁53	-2103
▁ఎం	-2104
▁ఇంగ్	-2105
ప్ట	-2106
▁పాకి	-2107
▁సృష్టి	-2108
పల్లె	-2109
ంతా	-2110
సె	-2111
డని	-2112
▁సాహిత్య	-2113
▁సంస్కృ	-2114
రాలు	-2115
▁కమ	-2116
▁బ్రహ్మ	-2117
ర్టు	-2118
▁రైలు	-2119
▁మార్పు	-2120
▁తమిళ	-2121
▁తాగునీ	-2122
▁శరీ	-2123
▁ప్లాంట్	-2124
మూర్	-2125
▁గుంటూరు	-2126
ినీ	-2127
▁ఐదు	-2128
▁గణ	-2129
ay	-2130
▁దగ్గర	-2131
▁H	-2132
సియా	-2133
జర్	-2134
▁గుర్తించ	-2135
క్య	-2136
ెనీ	-2137
▁మార	-2138
▁మాత్రం	-2139
గానే	-2140
▁గురు	-2141
▁పరీక్ష	-2142
తులకు	-2143
▁ఒకే	-2144
హ్మ	-2145
చుకు	-2146
కన్	-2147
▁మురుగునీటి	-2148
▁అక్క	-2149
▁వహ	-2150
ష్ణా	-2151
▁ఎలా	-2152
▁అక్ష	-2153
▁లభిస్తుంది	-2154
లక	-2155
▁ఎమ్	-2156
▁కనిపి	-2157
▁ఆశ	-2158
▁చదు	-2159
▁పత్రిక	-2160
▁విజయవాడ	-2161
రె	-2162
▁ఉష్ణ	-2163
▁మరొక	-2164
▁ప్రే	-2165
▁జిల్లాలో	-2166
▁అభ్య	-2167
▁is	-2168
▁పోల	-2169
చన	-2170
▁పెరుగు	-2171
ందీ	-2172
న్నో	-2173
▁=	-2174
వ్యా	-2175
▁అడ	-2176
▁భావి	-2177
▁నివాస	-2178
▁గాంధ	-2179
▁చక్ర	-2180
▁అందుకు	-2181
▁మాట	-2182
ందే	-2183
మైంది	-2184
ఫీ	-2185
▁1,	-2186
▁పారు	-2187
▁షా	-2188
▁ప్రొ	-2189
ళం	-2190
▁రూపొంది	-2191
▁గొప్ప	-2192
▁కంపెనీ	-2193
చారం	-2194
ఖ్యా	-2195
ంలోనూ	-2196
▁దృ	-2197
▁వ్యతిరేక	-2198
▁పదార్థ	-2199
▁ఆంగ్	-2200
▁22	-2201
▁భార్య	-2202
▁సాధారణ	-2203
▁కాలే	-2204
దో	-2205
్యాల	-2206
శ్చ	-2207
ండ్ర	-2208
దావరి	-2209
స్తున్నాయి	-2210
▁ఇన్	-2211
తులను	-2212
▁పండి	-2213
im	-2214
4,	-2215
ిల్లీ	-2216
▁be	-2217
▁23	-2218
▁59	-2219
▁ప్రమా	-2220
▁పోరా	-2221
టే	-2222
▁ప్రజల	-2223
నది	-2224
ul	-2225
లగ	-2226
▁వివ	-2227
▁or	-2228
▁చేయడం	-2229
భూ	-2230
బ్ర	-2231
▁నారాయణ	-2232
▁థ	-2233
స్తాన్	-2234
▁పర్యా	-2235
▁నిజా	-2236
ర్చి	-2237
▁చెయ్య	-2238
▁వాటిని	-2239
5,	-2240
▁0.	-2241
▁చీ	-2242
▁వర్గ	-2243
లన	-2244
లిక	-2245
▁సార	-2246
▁పరిశ్రమ	-2247
▁వెంట	-2248
▁గత	-2249
▁N	-2250
సిక	-2251
▁re	-2252
▁పొందిన	-2253
▁వాయు	-2254
▁రంగు	-2255
▁దో	-2256
▁పారుదల	-2257
ut	-2258
▁ఆన	-2259
▁యుద్ధం	-2260
10	-2261
7,	-2262
▁మరింత	-2263
▁పోలీసు	-2264
▁అడుగు	-2265
id	-2266
▁పురస్	-2267
▁ట్రాక్టరు	-2268
▁జె	-2269
▁వైపు	-2270
▁మంగ	-2271
▁పంప	-2272
▁పంపిస్తున్నారు	-2273
▁చది	-2274
ువు	-2275
నాన్ని	-2276
▁అత్యధిక	-2277
▁విగ్రహ	-2278
ునిక	-2279
▁D	-2280
నాథ	-2281
▁ఒప్ప	-2282
▁అక్టోబరు	-2283
▁మందు	-2284
▁లై	-2285
▁తాను	-2286
ములను	-2287
ధం	-2288
▁పురుషుల	-2289
ఫ్ర	-2290
▁బే	-2291
గ్రామంలో	-2292
▁కారణ	-2293
ag	-2294
od	-2295
▁ఉండేది	-2296
▁స్థిర	-2297
సులు	-2298
▁ఇక్క	-2299
▁డిసెంబరు	-2300
▁ఆగ	-2301
ర్స్	-2302
▁పడ	-2303
▁నాటికి	-2304
న్సి	-2305
▁ఏక	-2306
స్లా	-2307
▁W	-2308
▁నగరం	-2309
ct	-2310
ప్రదేశ్	-2311
▁వాహ	-2312
రై	-2313
▁సరిహ	-2314
▁కేవలం	-2315
వరకు	-2316
▁కనుక	-2317
ist	-2318
మెంట్	-2319
చ్చు	-2320
▁!	-2321
బడే	-2322
▁నవంబరు	-2323
▁పెట్టు	-2324
▁నెల్లూరు	-2325
తాన్ని	-2326
ందో	-2327
మునకు	-2328
▁లోపే	-2329
ోగ్ర	-2330
▁26	-2331
▁జల	-2332
▁కొనసా	-2333
▁R	-2334
ళిక	-2335
▁బ్ర	-2336
పోయింది	-2337
నుండి	-2338
డుకు	-2339
▁కృష్ణా	-2340
ంహ	-2341
వరం	-2342
▁ఆల్	-2343
మైనది	-2344
▁మార్చి	-2345
▁జై	-2346
▁వెళ్	-2347
సో	-2348
కాలం	-2349
▁వాతా	-2350
▁డై	-2351
▁సూర్య	-2352
▁ప్రత్తి	-2353
▁కీ	-2354
▁బాధ్య	-2355
▁నిర్ణయ	-2356
మర్శ	-2357
▁ఉన్నత	-2358
ేట	-2359
▁మిగిలిన	-2360
ంశ	-2361
▁ఈమె	-2362
▁నియమ	-2363
▁కుమార్	-2364
▁రాజధాని	-2365
▁సత్య	-2366
▁డె	-2367
▁స్థానిక	-2368
▁అంచ	-2369
రుడు	-2370
పర్	-2371
▁హైదరాబాద్	-2372
▁వ్యక్	-2373
రుపు	-2374
ీపీ	-2375
మల	-2376
▁గోదావరి	-2377
▁లను	-2378
ంటాడు	-2379
▁లీ	-2380
రూప	-2381
▁దారి	-2382
▁ముస్లిం	-2383
కె	-2384
▁జిల్ల	-2385
▁పర్య	-2386
▁కన	-2387
▁వరంగ	-2388
▁ఆధారంగా	-2389
▁రోడ్డు	-2390
▁for	-2391
▁శాలలో	-2392
రోడ్	-2393
యోజక	-2394
స్తోంది	-2395
▁కోట	-2396
▁ఉద్యోగ	-2397
3,	-2398
్ఞ	-2399
▁దర్శక	-2400
▁శాతం	-2401
▁డీ	-2402
▁The	-2403
ఎం	-2404
ేషను	-2405
▁జనవరి	-2406
గ్ని	-2407
రెడ్డి	-2408
▁ఆరు	-2409
▁పూజ	-2410
50	-2411
▁దేశంలో	-2412
▁తేదీ	-2413
▁28	-2414
▁k	-2415
▁గుర్తింపు	-2416
ోప	-2417
మంత్రి	-2418
▁నక్ష	-2419
ఢిల్లీ	-2420
▁గ్రా	-2421
య్యాడు	-2422
లపై	-2423
▁ముఖ్యంగా	-2424
వో	-2425
▁వర్ణ	-2426
ందరు	-2427
▁v	-2428
▁నియోజక	-2429
▁సందర్భంగా	-2430
24	-2431
▁కాలువ	-2432
▁ఉండి	-2433
▁పంట	-2434
▁బ్యా	-2435
▁చదువు	-2436
నాటి	-2437
▁నేను	-2438
▁ఫ్రా	-2439
రియ	-2440
ించాయి	-2441
నలో	-2442
▁ఎన్నో	-2443
ాయ్	-2444
ృతి	-2445
▁భాగం	-2446
▁రెడ్డి	-2447
ానా	-2448
వర్తి	-2449
iv	-2450
▁టై	-2451
▁సోమ	-2452
ండును	-2453
ణ్	-2454
▁పౌ	-2455
చార్య	-2456
▁లలో	-2457
▁తెలిపారు	-2458
ంగం	-2459
ప్తంగా	-2460
దేవి	-2461
▁దేశం	-2462
▁స్థానంలో	-2463
▁ఆలయం	-2464
▁విమర్శ	-2465
▁జ్ఞ	-2466
▁వ్యాపార	-2467
▁ఆధునిక	-2468
మొద	-2469
ia	-2470
తుడు	-2471
గాన్ని	-2472
▁40	-2473
ra	-2474
బన్	-2475
▁యువ	-2476
▁1.	-2477
▁ఆవి	-2478
▁విశాఖపట్నం	-2479
▁రచయిత	-2480
▁ఈనాడు	-2481
ముడు	-2482
▁శ్రీకా	-2483
6,	-2484
▁ఎందు	-2485
▁విక	-2486
▁రసాయ	-2487
▁మొట్ట	-2488
▁బ్రిటిష్	-2489
▁27	-2490
▁వస	-2491
డాడు	-2492
▁అప్ప	-2493
▁జూలై	-2494
కరి	-2495
కంటే	-2496
▁అధికంగా	-2497
నుడు	-2498
▁సౌకర్యాలున్నాయి	-2499
▁చేరి	-2500
లేక	-2501
కాలంలో	-2502
▁G	-2503
ch	-2504
▁చేయని	-2505
▁ప్రక్రియ	-2506
ార్డు	-2507
▁దుకాణం	-2508
▁లేకుండా	-2509
▁ఎంతో	-2510
▁మహబూ	-2511
▁ఋ	-2512
▁పట్టు	-2513
▁విడి	-2514
▁జాబి	-2515
▁మట్టిరోడ్	-2516
▁మట్టిరోడ్లూ	-2517
▁అవకాశం	-2518
em	-2519
▁వీర	-2520
▁వాతావరణ	-2521
సులో	-2522
▁చేర	-2523
▁ప్రయోగ	-2524
▁అమలు	-2525
బె	-2526
▁టా	-2527
▁గాంధీ	-2528
▁ఉపా	-2529
▁దానిని	-2530
ow	-2531
క్షన్	-2532
▁ఎంప	-2533
▁చేరుకు	-2534
▁సెప్ట	-2535
▁తగ్గ	-2536
▁మహారా	-2537
సము	-2538
▁తాగునీరు	-2539
కంగా	-2540
▁లక్షణ	-2541
▁ఇప్పుడు	-2542
21	-2543
కిత్స	-2544
▁సరిహద్దు	-2545
యంగా	-2546
స్తవ	-2547
రాజ	-2548
చూ	-2549
▁ప్రి	-2550
ళ్ళి	-2551
▁వారిని	-2552
ంతర	-2553
వలసిన	-2554
▁అల్	-2555
నాల	-2556
మాన్	-2557
▁రకాల	-2558
▁పోతున్నాయి	-2559
▁కనిప	-2560
▁జంతు	-2561
▁భారతదేశంలో	-2562
రించారు	-2563
▁సంపాద	-2564
▁నిర్వహించ	-2565
▁చేస్తారు	-2566
రుస	-2567
ిత	-2568
▁స్వాతంత్ర	-2569
డంలో	-2570
▁ద్వీప	-2571
▁విశేష	-2572
్వే	-2573
▁వ్యవహ	-2574
నుమ	-2575
రల్	-2576
▁వలస	-2577
యిల్	-2578
▁నడు	-2579
దేవ	-2580
▁గాయ	-2581
▁ప్రసిద్ధి	-2582
▁విలువ	-2583
▁పురాతన	-2584
▁ఆహ	-2585
వలన	-2586
గింది	-2587
▁అంతే	-2588
▁E	-2589
ig	-2590
▁L	-2591
త్వంలో	-2592
▁సిద్ధాంత	-2593
నంగా	-2594
సరి	-2595
▁నియోజకవర్	-2596
▁కోల్	-2597
నుక	-2598
▁ముఖ	-2599
▁పూర్వ	-2600
um	-2601
▁గౌర	-2602
లేని	-2603
ూరులో	-2604
▁నూతన	-2605
స్టర్	-2606
▁గ్రీ	-2607
ాను	-2608
▁మొట్టమొద	-2609
▁పూర్తిగా	-2610
▁చిత్త	-2611
కరించి	-2612
▁మిలియన్	-2613
▁గ్రహ	-2614
▁లాంటి	-2615
▁విజయం	-2616
గత	-2617
▁అనుమతి	-2618
వంతమైన	-2619
▁as	-2620
▁సిబ్బందీ	-2621
▁రచన	-2622
సమ	-2623
▁ఆహార	-2624
▁ఆమ్	-2625
▁ప్	-2626
▁శై	-2627
▁ఇదే	-2628
▁భౌ	-2629
క్టర్	-2630
▁జాబితా	-2631
గొండ	-2632
▁2009	-2633
▁చేత	-2634
▁ప్రభా	-2635
▁యునై	-2636
స్థాన్	-2637
▁నిజ	-2638
▁అవుతోంది	-2639
▁సాంకే	-2640
చారు	-2641
▁బంగ	-2642
▁మానవ	-2643
▁నిర	-2644
▁చేయడానికి	-2645
మ్స్	-2646
యిన్	-2647
ాయలు	-2648
▁సంగీ	-2649
▁బ్రాహ్మ	-2650
దేశాల	-2651
ce	-2652
▁జయ	-2653
22	-2654
్వా	-2655
వులను	-2656
▁ఇండియా	-2657
ర్ణ	-2658
డుతూ	-2659
▁పనిచేశ	-2660
కున్న	-2661
కోవడం	-2662
చేయ	-2663
ly	-2664
పడ్డ	-2665
ర్మా	-2666
ter	-2667
మ్మి	-2668
ir	-2669
ష్టం	-2670
ంలోకి	-2671
యనగ	-2672
▁అగ్ని	-2673
▁నటు	-2674
ర్మన్	-2675
▁కృషి	-2676
▁బ్రిటీ	-2677
దర	-2678
మవు	-2679
▁కొద్ది	-2680
డియా	-2681
▁నూనె	-2682
▁ఆకర్	-2683
ిన్న	-2684
▁పండు	-2685
▁డే	-2686
తిపె	-2687
చో	-2688
▁భర్	-2689
▁జగ	-2690
▁ఇస్లా	-2691
▁పం	-2692
▁బెంగ	-2693
ూహ	-2694
▁బౌద్ధ	-2695
▁నిర్వహణ	-2696
▁29	-2697
▁యునైటెడ్	-2698
్రు	-2699
11	-2700
ప్త	-2701
ండర్	-2702
ంప్ర	-2703
▁పర్వత	-2704
▁మద్ద	-2705
▁నడి	-2706
▁చెబు	-2707
సవ	-2708
నని	-2709
భావ	-2710
▁నియంత్ర	-2711
▁బోధ	-2712
▁పిలు	-2713
▁కన్న	-2714
▁రికార్	-2715
▁వీటిలో	-2716
▁ఆలో	-2717
▁కట్ట	-2718
▁ఎంత	-2719
కలు	-2720
రాన్ని	-2721
▁పుష్	-2722
▁ఉపయోగిస్తారు	-2723
వచ్చును	-2724
▁చేస్తున్న	-2725
దర్	-2726
▁|	-2727
▁లక్ష్	-2728
▁లోప	-2729
▁సాంకేతిక	-2730
జెక్	-2731
రోపా	-2732
▁దిగు	-2733
తిపెద్ద	-2734
▁అభిప్రా	-2735
▁అధ్యయన	-2736
▁ఎల్	-2737
▁నిర్వహించారు	-2738
ించబడిన	-2739
▁లెక్కల	-2740
ట్లో	-2741
లియా	-2742
▁అధ	-2743
ith	-2744
న్యా	-2745
▁పరిపాల	-2746
▁కింద	-2747
30	-2748
▁స్టేషను	-2749
వ్వు	-2750
ధులు	-2751
▁కర్నూ	-2752
▁విజయనగ	-2753
▁ప్రేమ	-2754
▁మల	-2755
▁చేయు	-2756
▁పరిశోధన	-2757
▁మద్రా	-2758
▁అందులో	-2759
19	-2760
▁అతిపెద్ద	-2761
వుని	-2762
▁an	-2763
▁నాటక	-2764
▁ఉత్తమ	-2765
▁హక్కు	-2766
▁బై	-2767
▁మారు	-2768
భు	-2769
▁విష్ణ	-2770
▁కారణం	-2771
▁2.	-2772
కము	-2773
▁వలె	-2774
▁పడి	-2775
▁భూభాగ	-2776
▁తొలగ	-2777
▁వేగ	-2778
▁త్రి	-2779
పిన	-2780
▁ఫ్రె	-2781
▁భారీ	-2782
▁చేసారు	-2783
▁నిల	-2784
▁అప్పుడు	-2785
▁కాల్	-2786
▁వీటిని	-2787
ంచుకు	-2788
▁మహబూబ్	-2789
శ్య	-2790
▁మొదలు	-2791
▁ఐరోపా	-2792
▁on	-2793
un	-2794
▁దృష్టి	-2795
▁51	-2796
▁ప్రస్తుత	-2797
▁ఎడ	-2798
▁2008	-2799
ర్ఘ	-2800
▁సమయ	-2801
▁చారి	-2802
▁పైగా	-2803
్రై	-2804
▁చక్క	-2805
పూడి	-2806
పథ	-2807
▁అధి	-2808
▁వేయ	-2809
2,	-2810
జ్ఞాన	-2811
▁సాగ	-2812
విజన్	-2813
ెన్స్	-2814
▁ఉద్యమ	-2815
రామ	-2816
▁బంధ	-2817
▁చై	-2818
▁F	-2819
▁వెళ్ళి	-2820
▁చుట్ట	-2821
డ్డు	-2822
▁ఉద్ద	-2823
లక్ష	-2824
కాన్ని	-2825
▁సాయ	-2826
▁పది	-2827
▁అర్థం	-2828
▁అవార్డు	-2829
ికంగా	-2830
▁ఉష్ణోగ్ర	-2831
▁కొనసాగ	-2832
▁ఆఫ్ర	-2833
▁నమ్మ	-2834
▁స్వతంత్ర	-2835
పాలు	-2836
ణాన్ని	-2837
▁నృ	-2838
▁నిర్వహి	-2839
ల్య	-2840
స్థాన	-2841
▁ఎక్స్	-2842
ంబు	-2843
▁భు	-2844
▁మొదల	-2845
ప్తి	-2846
మాని	-2847
డవు	-2848
▁జూన్	-2849
ూరి	-2850
▁ప్రపంచంలో	-2851
▁st	-2852
▁మొట్టమొదటి	-2853
▁ఆంధ్రప్రదేశ్	-2854
ూరో	-2855
▁చలన	-2856
పెట్టి	-2857
▁శం	-2858
▁చేస్తుంది	-2859
▁చర్చ	-2860
▁కనుగొ	-2861
▁ఖా	-2862
▁కుమారుడు	-2863
▁ప్రాంతాలలో	-2864
తృ	-2865
▁అప	-2866
మూర్తి	-2867
▁దిన	-2868
శ్ర	-2869
తకు	-2870
▁దానికి	-2871
ంస	-2872
భార	-2873
▁సంవత్సరంలో	-2874
ేత్ర	-2875
▁చాల	-2876
▁నామ	-2877
▁శతాబ్దం	-2878
దర్శి	-2879
23	-2880
her	-2881
▁హరి	-2882
▁మ్యా	-2883
▁వ్యాధి	-2884
▁చెన్న	-2885
▁నగరంలో	-2886
▁శ్రీకాకు	-2887
▁ప్రాచ	-2888
ులకు	-2889
బ్రవరి	-2890
▁ముగి	-2891
ప్పుడ	-2892
యులు	-2893
ప్రిల్	-2894
ంచడం	-2895
▁గ్రామాలు	-2896
▁ప్రామ	-2897
కలో	-2898
▁కామ	-2899
వల్ల	-2900
▁ప్రదర్శన	-2901
చింది	-2902
య్	-2903
▁పరిచ	-2904
th	-2905
op	-2906
▁వరకూ	-2907
▁చింత	-2908
▁ఎన్నికలలో	-2909
▁గుర్	-2910
ౌన్	-2911
▁ప్రాజెక్	-2912
టల్	-2913
కమైన	-2914
▁వంశ	-2915
ృత	-2916
ీకరణ	-2917
▁సూచి	-2918
▁రక్షణ	-2919
▁ఆంగ్ల	-2920
▁పరిమి	-2921
వార	-2922
av	-2923
నుల	-2924
ార్ధ	-2925
▁సమర్	-2926
ములలో	-2927
గారు	-2928
▁పక్ష	-2929
ర్షి	-2930
▁చెల్లి	-2931
దరు	-2932
ందరి	-2933
▁భగ	-2934
గులు	-2935
▁సీత	-2936
రోజు	-2937
▁వివాహం	-2938
▁అమెరికన్	-2939
▁wh	-2940
ర్గ	-2941
▁ఢిల్లీ	-2942
▁కంప్యూ	-2943
▁జే	-2944
▁వేద	-2945
▁ప్రసా	-2946
ర్యా	-2947
▁ఆస	-2948
▁కొందరు	-2949
▁ఆస్ట	-2950
▁ప్రతిపాద	-2951
28	-2952
దిగా	-2953
ానే	-2954
టిక్	-2955
డప	-2956
గలి	-2957
▁క్రై	-2958
▁వరుస	-2959
గ్గి	-2960
▁అంచనా	-2961
▁2007	-2962
▁విషయం	-2963
మన	-2964
▁గే	-2965
▁భద్ర	-2966
దేశీ	-2967
పాలెం	-2968
వైపు	-2969
▁గాని	-2970
▁నౌ	-2971
▁ఉపయోగించ	-2972
▁శతాబ్దంలో	-2973
▁కలిపి	-2974
▁నిర్మాణం	-2975
▁ఆయు	-2976
దిరి	-2977
▁అనుసంధ	-2978
▁ఖమ్మ	-2979
▁అవసరం	-2980
పేజీ	-2981
▁అభ్యర్థ	-2982
ల్ని	-2983
▁మొత్త	-2984
దవ	-2985
os	-2986
ంతరం	-2987
▁ఇతడు	-2988
▁సాంప్ర	-2989
▁ఫో	-2990
▁ఇండ	-2991
▁ప్రయత్ని	-2992
▁తరగ	-2993
ak	-2994
ers	-2995
▁చికిత్స	-2996
రుగ	-2997
▁తయారీ	-2998
జ్యం	-2999
ీణ	-3000
▁సహజ	-3001
ండె	-3002
ప్పి	-3003
ేషనల్	-3004
డమే	-3005
టరీ	-3006
సింహ	-3007
▁జరిగే	-3008
ద్రి	-3009
▁గుడి	-3010
▁చేరు	-3011
▁ప్రసిద్ధ	-3012
▁కలు	-3013
స్వ	-3014
▁క్యా	-3015
బట్టి	-3016
రమ	-3017
కులను	-3018
డ్డాడు	-3019
▁సంస్థలు	-3020
▁బాధ	-3021
టర్లు	-3022
▁ఓడి	-3023
▁గాలి	-3024
▁ఇప్పటి	-3025
▁ఆరంభ	-3026
య్యారు	-3027
▁నల్ల	-3028
▁ఆత్మ	-3029
▁ప్రో	-3030
▁100	-3031
▁ఎంపిక	-3032
▁31	-3033
▁తరలి	-3034
▁పద్	-3035
▁మౌ	-3036
ండగా	-3037
▁అయినప్పటికీ	-3038
▁చేస్తూ	-3039
▁కల్ప	-3040
▁వేల	-3041
▁నార	-3042
▁మొదట	-3043
ళా	-3044
▁రాత్రి	-3045
▁విశ్వవిద్యాలయం	-3046
టంతో	-3047
▁భారతదేశం	-3048
▁హు	-3049
▁ఆసియా	-3050
▁మద్దతు	-3051
షిక	-3052
ెర	-3053
చిత్ర	-3054
▁పొందింది	-3055
▁చెప్పు	-3056
▁ఏప్రిల్	-3057
దిలి	-3058
వపేజీ	-3059
▁వస్తుంది	-3060
▁పదం	-3061
▁మారింది	-3062
▁స్కూ	-3063
▁అర్జు	-3064
▁ఎల	-3065
ర్డ్	-3066
స్కృ	-3067
▁మూడవ	-3068
▁చేసాడు	-3069
▁విశ్వా	-3070
మిడి	-3071
▁రక్త	-3072
▁పద్య	-3073
కారులు	-3074
▁స్థానం	-3075
▁సహా	-3076
జాల	-3077
▁అణు	-3078
▁వర్ష	-3079
ియా	-3080
▁గౌ	-3081
▁K	-3082
▁విశ్వవిద్యాలయ	-3083
▁with	-3084
గానికి	-3085
▁చూసి	-3086
▁వరంగల్	-3087
and	-3088
యిర్	-3089
▁పైన	-3090
▁స్టే	-3091
▁తెలుసు	-3092
ాలయంలో	-3093
జె	-3094
ఒక	-3095
్యంలో	-3096
▁60	-3097
▁గెలు	-3098
ండ్ల	-3099
▁ఎగు	-3100
▁ఇంత	-3101
▁పట్టి	-3102
▁మద్య	-3103
▁సంస్కృత	-3104
▁అధ్యక్షుడు	-3105
▁ఆస్	-3106
ార్డ్	-3107
▁ఉద్దేశ	-3108
ంటీ	-3109
▁అనంతరం	-3110
▁తది	-3111
▁యె	-3112
▁ప్రశ్	-3113
▁హీ	-3114
▁గడి	-3115
▁ప్రభావం	-3116
ఖా	-3117
▁కమ్యూ	-3118
పియన్	-3119
▁పెళ్ళి	-3120
▁2010	-3121
శీ	-3122
ళీ	-3123
▁35	-3124
్రూ	-3125
▁జారీ	-3126
ప్రాంత	-3127
▁చెంద	-3128
▁జట్టు	-3129
▁రాష్ట్రంలో	-3130
▁విచార	-3131
▁సెప్టెంబరు	-3132
▁రాజ్యా	-3133
ందర	-3134
కాలను	-3135
ab	-3136
రువులు	-3137
▁బట్టి	-3138
డై	-3139
ik	-3140
▁వెంటనే	-3141
▁పాత	-3142
▁చిత్తూరు	-3143
సారు	-3144
▁బ్రిటీష్	-3145
▁శిల్	-3146
▁ప్రాచీన	-3147
▁అధికారులు	-3148
▁వ్యతిరేకంగా	-3149
ind	-3150
▁ఫలితంగా	-3151
8,	-3152
▁సామ్రాజ్య	-3153
▁నివే	-3154
25	-3155
▁2006	-3156
▁హనుమ	-3157
▁కూడిన	-3158
▁దాడి	-3159
మార	-3160
▁ముద్ర	-3161
▁ఫిబ్రవరి	-3162
▁చూప	-3163
40	-3164
ీస్	-3165
▁సైనిక	-3166
▁అతడు	-3167
జొన్న	-3168
▁రాజా	-3169
▁తిరుపతి	-3170
ళు	-3171
▁అయింది	-3172
కోవడానికి	-3173
▁తనకు	-3174
▁ప్రయాణ	-3175
▁డాక్టర్	-3176
▁రెండో	-3177
▁సంగీతం	-3178
▁పొందు	-3179
▁సగ	-3180
ర్యంలో	-3181
మానా	-3182
▁సమాజ	-3183
▁కరీ	-3184
▁వివర	-3185
▁కలిగ	-3186
▁ఇతని	-3187
లికి	-3188
▁ఆక్	-3189
▁అర్ధ	-3190
దురు	-3191
స్థాయి	-3192
▁వంద	-3193
▁కర్నూలు	-3194
త్తులు	-3195
▁ప్రణా	-3196
▁మంగళ	-3197
▁by	-3198
▁స్త్రీల	-3199
ర్ట్	-3200
ాలూ	-3201
▁సందర్శ	-3202
శనగ	-3203
▁మాజీ	-3204
▁ఆక్రమ	-3205
శారు	-3206
ంపల్లి	-3207
▁చంప	-3208
చేసి	-3209
▁ఫా	-3210
▁●	-3211
▁జరుపు	-3212
▁నేషనల్	-3213
▁కమిటీ	-3214
ణుడు	-3215
▁ప్రతీ	-3216
▁అరు	-3217
▁స్నే	-3218
▁లేవు	-3219
▁సభ్యులు	-3220
వాతి	-3221
▁శిక్ష	-3222
రావతి	-3223
▁పరిధిలో	-3224
▁పిలి	-3225
▁పేజీ	-3226
--	-3227
▁పెం	-3228
మీద	-3229
రప	-3230
పల్లిలోను	-3231
పాన్	-3232
ెంబర్	-3233
▁పొడవు	-3234
తమ	-3235
త్తా	-3236
▁సింగ్	-3237
▁దేశాలలో	-3238
▁ఘన	-3239
ల్ప	-3240
▁కష్ట	-3241
ధ్	-3242
▁చెప్పిన	-3243
▁మార్చ	-3244
వేయ	-3245
▁గారు	-3246
ంచ్	-3247
ందుకు	-3248
▁ఆయనకు	-3249
యల్	-3250
ందా	-3251
▁హిందీ	-3252
▁పెద	-3253
ప్రైవేటు	-3254
▁త్వ	-3255
▁నక్షత్ర	-3256
▁కాంతి	-3257
▁2,	-3258
ముని	-3259
షత్తు	-3260
▁సమీపంలో	-3261
నను	-3262
ాలీ	-3263
▁నలుగు	-3264
రక	-3265
▁వేర్	-3266
ub	-3267
1,	-3268
▁పిలుస్తారు	-3269
▁లక్ష్మీ	-3270
▁శాంతి	-3271
టమి	-3272
పూర్లో	-3273
▁కార్యదర్శి	-3274
ెట్టు	-3275
9,	-3276
▁వేరుశనగ	-3277
స్కృతిక	-3278
▁దె	-3279
రాన్	-3280
▁గారి	-3281
గాడు	-3282
▁దేవాలయ	-3283
పుర	-3284
▁చుట్టూ	-3285
▁అదన	-3286
విన	-3287
▁టెక్	-3288
▁ప్రకాశం	-3289
▁మొక్కజొన్న	-3290
▁మను	-3291
▁ఆచ	-3292
నారాయణ	-3293
ric	-3294
▁ఉత్సవ	-3295
▁ఏమి	-3296
▁పరికర	-3297
దరణ	-3298
▁లక్షల	-3299
▁ఇక	-3300
కంలో	-3301
▁ఉంటే	-3302
▁వెనుక	-3303
పోయి	-3304
▁ఇటీ	-3305
▁క్రింద	-3306
శ్రీ	-3307
▁అన్నారు	-3308
ణము	-3309
▁శరీర	-3310
షే	-3311
▁కుమార్తె	-3312
▁పాల్గొన్నారు	-3313
▁అవత	-3314
▁రేడియో	-3315
దాన్ని	-3316
▁నిర్మించిన	-3317
యస్	-3318
మర	-3319
న్యూ	-3320
నిమి	-3321
▁పట్ల	-3322
▁క్రీడ	-3323
ంనగర్	-3324
▁పెట్టి	-3325
▁విదేశీ	-3326
▁నాయక	-3327
▁తరచు	-3328
▁సంయు	-3329
▁సింగ	-3330
▁ప్రధానంగా	-3331
▁మందుల	-3332
▁తెల్ల	-3333
వ్యాప్తంగా	-3334
పరమైన	-3335
▁ఉంటు	-3336
▁కాలనీ	-3337
ాలపై	-3338
ాయా	-3339
▁నిరా	-3340
యాలు	-3341
▁ఇంగ్లీ	-3342
▁వాటిలో	-3343
▁దిశ	-3344
▁నార్	-3345
ate	-3346
▁ఇక్కడి	-3347
▁ఆదాయ	-3348
▁చెట్టు	-3349
కల్ప	-3350
మ్య	-3351
▁ఎలక్ట	-3352
▁పున	-3353
▁ఆగస్టు	-3354
▁ఏడు	-3355
▁యూరో	-3356
▁పునరు	-3357
▁క్రీడా	-3358
▁వెలువ	-3359
క్ష్మ	-3360
",	-3361
▁con	-3362
▁సాంస్కృతిక	-3363
వేశం	-3364
ములోని	-3365
ాలే	-3366
▁గమని	-3367
▁ప్రజలకు	-3368
▁చెప్పారు	-3369
కులకు	-3370
▁క్వ	-3371
▁రూపంలో	-3372
ఫు	-3373
▁గర్భ	-3374
▁కొల	-3375
ధాన్య	-3376
▁పరిష్	-3377
▁జన్మించాడు	-3378
▁ఆసక్తి	-3379
బాబు	-3380
▁నేపథ	-3381
న్నె	-3382
ాల్సి	-3383
▁శ్రే	-3384
▁భవన	-3385
రుల	-3386
▁పుర	-3387
▁గూడ	-3388
ఫా	-3389
pl	-3390
గారి	-3391
▁విడుద	-3392
▁స్థాయిలో	-3393
▁చేయబడింది	-3394
▁మంత్ర	-3395
▁V	-3396
▁తిరుగుబాటు	-3397
ానని	-3398
▁షి	-3399
▁అనకా	-3400
కినా	-3401
ంటా	-3402
▁తగిన	-3403
▁రసాయన	-3404
▁O	-3405
▁నర్	-3406
▁సంవత్సరాలు	-3407
▁అన్నాడు	-3408
ందున	-3409
▁ఏర్పడిన	-3410
ణులు	-3411
ట్రో	-3412
▁విధానం	-3413
▁చారిత్ర	-3414
▁ఉపగ్రహ	-3415
▁ఆధ్వ	-3416
ర్చుకు	-3417
సార్లు	-3418
ap	-3419
యుల	-3420
సూ	-3421
▁గౌరవ	-3422
▁పెరి	-3423
దుగా	-3424
▁వేంక	-3425
▁క్ల	-3426
▁ఉపాధ్య	-3427
▁36	-3428
▁గుర్తు	-3429
ధీ	-3430
▁హైడ	-3431
ేఖ	-3432
▁పెరిగి	-3433
▁జాతి	-3434
మిని	-3435
▁ఇచ్చిన	-3436
ోలు	-3437
▁సమావేశ	-3438
▁పాటలు	-3439
▁స్వీ	-3440
▁వేస	-3441
▁ఆదేశ	-3442
▁సాగు	-3443
▁విమాన	-3444
జిల్	-3445
▁గృహాలు	-3446
▁ఉదాహరణకు	-3447
▁శ్రీని	-3448
▁సాంప్రదాయ	-3449
మహ	-3450
ారము	-3451
బ్బు	-3452
ధారణ	-3453
▁పల్లి	-3454
ణిక	-3455
▁భారత్	-3456
వర్తన	-3457
▁కమ్యూని	-3458
▁ప్రారంభించారు	-3459
ver	-3460
▁చేయాలని	-3461
▁కేసు	-3462
▁అంశాల	-3463
▁పరిశీ	-3464
▁అందించ	-3465
ద్దీ	-3466
కింగ్	-3467
పరచ	-3468
సాహ	-3469
▁గంగ	-3470
▁2004	-3471
ంపేట	-3472
▁ముఖ్యమంత్రి	-3473
▁190	-3474
▁నంది	-3475
▁చేపట్ట	-3476
ెంలో	-3477
చ్చిన	-3478
నంలో	-3479
▁పార్ల	-3480
ణంలో	-3481
▁శాస్త్రవేత్త	-3482
aM	-3483
▁పర్వము	-3484
డె	-3485
▁బొమ్మ	-3486
▁దళ	-3487
▁ఆదిలా	-3488
నము	-3489
▁సమ్	-3490
▁సమూహ	-3491
రవ	-3492
▁పరమ	-3493
నున్న	-3494
▁విక్ర	-3495
▁ఎందుకంటే	-3496
▁విభజ	-3497
వాదం	-3498
▁ఇప్పటికీ	-3499
▁మహిళల	-3500
▁రాసిన	-3501
▁రోజుల	-3502
▁కాబట్టి	-3503
భాష	-3504
తనం	-3505
పాటి	-3506
రేషన్	-3507
▁పండుగ	-3508
rom	-3509
▁కీల	-3510
▁ప్రణాళిక	-3511
▁అనుకూ	-3512
▁పాకిస్థాన్	-3513
రోధ	-3514
▁వెళ్లి	-3515
▁పడు	-3516
▁ప్రతిష్ఠ	-3517
▁191	-3518
▁స్టీ	-3519
▁భాషా	-3520
▁కొను	-3521
బే	-3522
▁జొన్న	-3523
▁అతనికి	-3524
తుందని	-3525
▁సంబంధం	-3526
ెన	-3527
▁45	-3528
▁కోర్టు	-3529
▁ఉత్ప	-3530
ష్టు	-3531
స్తుంటారు	-3532
▁జిల్లాకు	-3533
▁ఉద్యో	-3534
ేశ్వరరావు	-3535
▁జు	-3536
టికి	-3537
తక	-3538
పోయారు	-3539
▁ఉంటారు	-3540
▁ఎవ	-3541
▁కరీంనగర్	-3542
▁అశ్వ	-3543
▁రికార్డు	-3544
తగా	-3545
▁నలుగురు	-3546
▁ధర	-3547
▁సినీ	-3548
టివ్	-3549
▁చెప్పాడు	-3550
▁ముని	-3551
▁లింగ	-3552
▁నంద	-3553
▁మెద	-3554
pe	-3555
▁వంట	-3556
తులలో	-3557
▁ప్రమాద	-3558
▁గ్రామములో	-3559
▁నివసి	-3560
పడిన	-3561
▁నివస	-3562
▁యూనియన్	-3563
శ్రమ	-3564
▁వాయి	-3565
▁ఖాన్	-3566
▁al	-3567
డ్స్	-3568
▁బాల్	-3569
ణాటక	-3570
బుల్	-3571
దైన	-3572
▁ఆఫ్రికా	-3573
▁ప్రాజెక్టు	-3574
▁జరగ	-3575
▁శ్రీరా	-3576
▁ఉష్ణోగ్రత	-3577
సారిగా	-3578
▁ఎదుర్కొ	-3579
తము	-3580
పాల్	-3581
హన	-3582
▁నవల	-3583
పులు	-3584
▁మృ	-3585
▁అంశ	-3586
▁ఉన్నది	-3587
▁జ్ఞాన	-3588
దుల	-3589
▁జాన	-3590
▁పసు	-3591
▁వెల్	-3592
▁37	-3593
సిటీ	-3594
పడే	-3595
లేష	-3596
మండ	-3597
పోవడం	-3598
▁ఆమో	-3599
▁భౌతిక	-3600
▁ఎయిర్	-3601
▁సిటీ	-3602
▁హిందు	-3603
▁ఉందని	-3604
ంతం	-3605
▁సైన్య	-3606
▁కోట్ల	-3607
▁ఉండటం	-3608
▁విప్	-3609
పడుతుంది	-3610
▁భక్తులు	-3611
పరు	-3612
▁భో	-3613
వరంలో	-3614
if	-3615
మర్	-3616
ష్యా	-3617
వారికి	-3618
▁చట్టం	-3619
▁రక్ష	-3620
▁రోగ	-3621
ష్టమైన	-3622
▁ధ్వ	-3623
▁రిప	-3624
▁that	-3625
కలా	-3626
▁బయట	-3627
▁దీన్ని	-3628
▁మద్రాసు	-3629
▁నాడు	-3630
గర్	-3631
లింగ్	-3632
▁తీర	-3633
▁ప్రెస్	-3634
▁ఆస్ట్రే	-3635
▁స్వీకరించ	-3636
ారో	-3637
▁పంచాయ	-3638
▁వృక్ష	-3639
ట్లుగా	-3640
లియ	-3641
▁అందరి	-3642
26	-3643
చర్	-3644
▁సూక్ష్మ	-3645
▁33	-3646
ill	-3647
▁దూ	-3648
మాన్ని	-3649
చంద్ర	-3650
హో	-3651
▁సంభవ	-3652
▁సమయం	-3653
కూరు	-3654
శ్మీ	-3655
▁it	-3656
▁ఆధ్వర్యంలో	-3657
దారులు	-3658
ంద్	-3659
▁ప్రమాణ	-3660
కోట	-3661
ాయం	-3662
▁ద్వి	-3663
ద్భు	-3664
▁మని	-3665
కుడిగా	-3666
▁నొ	-3667
▁దంప	-3668
▁గవర్	-3669
▁పాలన	-3670
▁రావు	-3671
గాయి	-3672
▁గూ	-3673
▁2014	-3674
▁జర్మ	-3675
గ్రామానికి	-3676
▁com	-3677
వంతంగా	-3678
్రామిక	-3679
▁రాక	-3680
విత్ర	-3681
▁పాకిస్తాన్	-3682
▁ఉన్నాడు	-3683
ల్వ	-3684
▁రంధ్ర	-3685
▁కెన	-3686
▁వెల్ల	-3687
▁నిర్వహించిన	-3688
ఫిక్	-3689
▁అనుభవ	-3690
▁నియంత్రణ	-3691
▁దై	-3692
బొ	-3693
ట్యూ	-3694
▁2005	-3695
▁అంతేకా	-3696
▁నిర్మించ	-3697
▁నిర్మించారు	-3698
వలసి	-3699
▁చెందు	-3700
ులను	-3701
్రాన్ని	-3702
▁3.	-3703
▁నల్	-3704
▁స్థల	-3705
▁అమరావతి	-3706
▁వన	-3707
▁అయినా	-3708
▁పంజా	-3709
▁పద్ధతి	-3710
▁మ్యూ	-3711
ేద	-3712
▁బ్లా	-3713
వాన్	-3714
▁గుర	-3715
▁సంయుక్త	-3716
▁మధు	-3717
▁పాటి	-3718
▁మాట్లాడుతూ	-3719
▁నమూ	-3720
▁పిలువ	-3721
ారిత	-3722
ఫ్ట్	-3723
▁విడుదలైన	-3724
తాలు	-3725
బడతాయి	-3726
▁ట్ర	-3727
▁చని	-3728
29	-3729
నీయ	-3730
▁పేర్కొన్నారు	-3731
▁యో	-3732
▁చిత్రా	-3733
▁వాస్తవ	-3734
▁2013	-3735
▁పరిశీలి	-3736
▁ఇంద్ర	-3737
రించింది	-3738
విగా	-3739
▁హాజ	-3740
▁రోజులు	-3741
▁కూర	-3742
ికెట్	-3743
▁గిరి	-3744
మాను	-3745
27	-3746
ాల్సిన	-3747
▁అలం	-3748
▁రచించిన	-3749
▁తప	-3750
వులకు	-3751
▁వదిలి	-3752
▁సన్ని	-3753
▁స్క	-3754
▁ముంబ	-3755
▁జాన్	-3756
రించాడు	-3757
▁సినిమాలో	-3758
ేశారు	-3759
▁కింగ్	-3760
▁ప్రకటన	-3761
▁కర్ణాటక	-3762
all	-3763
ినే	-3764
▁హౌ	-3765
▁పద్మ	-3766
బ్రహ్మ	-3767
ార్క్	-3768
▁విచారణ	-3769
▁భావిస్తున్నారు	-3770
రాజ్య	-3771
86	-3772
est	-3773
▁లకు	-3774
శ్లేష	-3775
ారణ	-3776
▁కణ	-3777
▁స్పె	-3778
▁త్ర	-3779
▁ఫు	-3780
▁బృంద	-3781
▁మార్గం	-3782
▁వంటివి	-3783
▁నిజామా	-3784
▁పాడే	-3785
▁ప్రాంతాల్లో	-3786
▁తరచుగా	-3787
ాలనే	-3788
రియన్	-3789
ళన	-3790
▁పురాణ	-3791
యేషన్	-3792
జూ	-3793
▁లక్ష్మ	-3794
▁విషయంలో	-3795
▁కోర	-3796
ీలు	-3797
▁వేంకట	-3798
▁రష్యా	-3799
▁కంప్యూటర్	-3800
యట్	-3801
▁వారిలో	-3802
▁జపాన్	-3803
రిత	-3804
▁సంఖ్యలో	-3805
▁తక్కువగా	-3806
▁వెలు	-3807
▁వైద్యశాలలో	-3808
▁చర్యలు	-3809
▁2000	-3810
▁మేరకు	-3811
జ్రా	-3812
▁సంస్కృతి	-3813
60	-3814
▁క్షేత్ర	-3815
కారుడు	-3816
▁ప్రభావి	-3817
డర్	-3818
శక్తి	-3819
res	-3820
▁80	-3821
గర్భ	-3822
▁భాషలో	-3823
ల్లం	-3824
▁క్రింది	-3825
బద్ధ	-3826
లింగ	-3827
మస్	-3828
80	-3829
చ్చే	-3830
▁పారిశ	-3831
▁కార్యక్రమంలో	-3832
కినాడ	-3833
▁యే	-3834
లూరు	-3835
గతా	-3836
▁కై	-3837
యము	-3838
▁గ్రూ	-3839
▁కాయ	-3840
లిన్	-3841
▁చుట్టు	-3842
▁నల్గొండ	-3843
సింగ్	-3844
ర్ధ	-3845
ద్వారా	-3846
యుడు	-3847
▁నివేదిక	-3848
▁నెహ	-3849
▁అసలు	-3850
▁గతంలో	-3851
▁పాండ	-3852
దేశం	-3853
న్నే	-3854
▁సగటు	-3855
జ్జ	-3856
▁బంగారు	-3857
▁189	-3858
ht	-3859
బియా	-3860
▁r	-3861
▁కేంద్రంగా	-3862
▁పసుపు	-3863
▁ప్రతిని	-3864
▁పరా	-3865
▁శైలి	-3866
▁సమాచారం	-3867
▁మాట్లాడ	-3868
▁దశా	-3869
▁జ్య	-3870
▁జిల్లాలోని	-3871
భద్ర	-3872
ించవచ్చు	-3873
▁చెందింది	-3874
▁విద్యార్థులు	-3875
▁శుక్ర	-3876
ఫల	-3877
దరి	-3878
▁బోర్	-3879
యాత్ర	-3880
▁he	-3881
తలను	-3882
▁స్టా	-3883
▁చక్రవర్తి	-3884
▁చార్	-3885
రాడు	-3886
▁చేర్చ	-3887
ండ్లు	-3888
▁శాస్త్రీయ	-3889
▁కాకినాడ	-3890
▁దీనిలో	-3891
▁తెలుగులో	-3892
".	-3893
▁కనిపిస్తుంది	-3894
▁{	-3895
▁at	-3896
▁ప్రయో	-3897
▁సామ్రాజ్యం	-3898
మ్మద్	-3899
▁శ్రీకృష్ణ	-3900
▁ద్రా	-3901
▁జర్మనీ	-3902
▁చిత్రంలో	-3903
▁సుబ్బ	-3904
▁విస్తీర్	-3905
▁యుద్ధంలో	-3906
▁వున్నవి	-3907
▁పదవి	-3908
▁మనం	-3909
▁కలసి	-3910
▁తగ్గి	-3911
▁de	-3912
▁ద్వార	-3913
▁ఉత్తరా	-3914
డెన్	-3915
▁ఒప్పందం	-3916
యూ	-3917
రులో	-3918
్రిక్	-3919
▁సార్లు	-3920
▁అద్భు	-3921
▁ఆప	-3922
▁యంత్ర	-3923
▁భక్తి	-3924
▁స్వాతంత్ర్య	-3925
▁జాగ	-3926
స్కో	-3927
▁పవిత్ర	-3928
▁అవసరమైన	-3929
వృ	-3930
▁పరిచయం	-3931
గడ	-3932
గంలో	-3933
▁బుద్ధ	-3934
▁ఎనిమి	-3935
యెస్	-3936
సముద్ర	-3937
▁అన్	-3938
సెస్	-3939
▁దీంతో	-3940
▁సర్వీసు	-3941
▁మళ్ళ	-3942
▁ఫీ	-3943
ant	-3944
▁భవ	-3945
ట్ర	-3946
ముతో	-3947
▁సైని	-3948
▁దర్శకుడు	-3949
▁అంగీకరించ	-3950
▁చొ	-3951
▁గురువు	-3952
▁ఖండ	-3953
▁ఎమ్మె	-3954
▁అధికారు	-3955
▁సామర్థ	-3956
▁దర్శకత్వం	-3957
▁ప్రత్యక్ష	-3958
▁అంబ	-3959
▁అక్కడి	-3960
హిత	-3961
లర్	-3962
▁was	-3963
కరమైన	-3964
▁పనులు	-3965
▁వ్యాసాలు	-3966
డాన్ని	-3967
యుట	-3968
▁are	-3969
ంద్రా	-3970
మ్మా	-3971
▁తరువాతి	-3972
▁తెలుసుకు	-3973
▁విన	-3974
▁దీర్ఘ	-3975
▁నెహ్రూ	-3976
పర్తి	-3977
▁70	-3978
▁from	-3979
▁అర్బన్	-3980
▁ప్రఖ్యా	-3981
▁చౌ	-3982
బీబీ	-3983
సాల	-3984
ించేందుకు	-3985
▁జీవన	-3986
▁చదివిన	-3987
శాస్త్రి	-3988
▁–	-3989
శాడు	-3990
▁కనీ	-3991
▁ప్రదేశాల	-3992
కవి	-3993
▁వ్రాసిన	-3994
పడింది	-3995
బీబీయెస్	-3996
స్తులు	-3997
ాయల	-3998
▁మధ్యలో	-3999
నియన్	-4000
▁కథలు	-4001
▁యి	-4002
లాన్ని	-4003
▁లభించింది	-4004
కోవచ్చు	-4005
▁సల	-4006
▁అనుసరించి	-4007
కోసం	-4008
▁విష్ణు	-4009
జో	-4010
ిల్లు	-4011
▁శ్రీకాకుళం	-4012
▁ఎమ్బీబీయెస్	-4013
ంక్	-4014
▁దుర్	-4015
▁ఆక	-4016
▁ఉద్	-4017
లలోను	-4018
▁చర్చి	-4019
▁ఆకు	-4020
వస్థ	-4021
▁అకా	-4022
కునే	-4023
▁వయస్సు	-4024
▁చిత్రాలు	-4025
దిన	-4026
వని	-4027
గురు	-4028
▁పొర	-4029
▁నివా	-4030
వంతు	-4031
▁లోహ	-4032
▁చిహ్	-4033
▁భర్త	-4034
ండీ	-4035
▁నాకు	-4036
▁నెలకొ	-4037
▁మొదలగు	-4038
స్తావ	-4039
▁పొందారు	-4040
ain	-4041
▁ఎర్ర	-4042
▁కొనుగో	-4043
ich	-4044
ud	-4045
▁దీప	-4046
ెట్లు	-4047
▁బ్	-4048
▁ఇబ్బ	-4049
▁వేసవి	-4050
▁పోలీసులు	-4051
▁ఆమెను	-4052
▁ఉండాలి	-4053
సైడ్	-4054
టిన్	-4055
▁ఉండగా	-4056
▁పిల్లలు	-4057
tp	-4058
దూ	-4059
ఠా	-4060
▁కాన	-4061
క్షే	-4062
దాని	-4063
సాడు	-4064
▁కన్	-4065
▁భాగంలో	-4066
ాలంటే	-4067
▁వయసు	-4068
▁జీవితం	-4069
▁హే	-4070
▁చేయబడిన	-4071
ారంలో	-4072
▁నీటిని	-4073
▁దెబ్బ	-4074
▁ex	-4075
హె	-4076
భం	-4077
పోయాడు	-4078
▁విమానా	-4079
▁సాధించిన	-4080
▁జైలు	-4081
షనల్	-4082
▁వో	-4083
13	-4084
▁కర	-4085
▁నేల	-4086
▁నిషే	-4087
▁34	-4088
ంటె	-4089
ర్యం	-4090
▁ఇలాంటి	-4091
▁మ్యాచ్	-4092
▁ప్రకృతి	-4093
▁చల్ల	-4094
నిర్	-4095
oc	-4096
పక్ష	-4097
▁హార్	-4098
▁నృత్య	-4099
▁బాని	-4100
ించాలని	-4101
▁చెన్నై	-4102
▁ముందుగా	-4103
చాడు	-4104
▁శని	-4105
▁బస్సులుప్రైవేటు	-4106
▁1990	-4107
▁లక్ష్య	-4108
▁పన్ను	-4109
▁ప్రత్యేకంగా	-4110
▁ప్రాంతాలు	-4111
▁హెచ్	-4112
▁చెప్పవచ్చు	-4113
▁అవుతుంది	-4114
▁మిన	-4115
▁విమానాశ్ర	-4116
▁పోరాట	-4117
▁శ్ర	-4118
se	-4119
▁దేవాలయం	-4120
▁ఇచ్చారు	-4121
▁లోక	-4122
▁పల్లె	-4123
▁అబ్	-4124
▁రాజీ	-4125
▁ప్రాము	-4126
▁చివర	-4127
ండన్	-4128
▁నీవు	-4129
ity	-4130
▁సుల్	-4131
▁ఆస్ట్రేలియా	-4132
▁కొంతమంది	-4133
▁సాధించింది	-4134
▁నెట్	-4135
లంక	-4136
ary	-4137
త్రు	-4138
▁కలె	-4139
▁దక్షిణా	-4140
▁కర్మ	-4141
▁జన్మించారు	-4142
▁కాశ్మీ	-4143
▁షే	-4144
▁గుండె	-4145
▁ప్రాణ	-4146
70	-4147
పాలి	-4148
హన్	-4149
▁కాన్	-4150
▁పరిగణ	-4151
దయ	-4152
▁సమాన	-4153
ునిగా	-4154
▁ప్లే	-4155
▁ఉత్తర్	-4156
▁చరిత్రలో	-4157
▁ఆదిలాబాద్	-4158
గూడెం	-4159
▁తప్పు	-4160
▁ఇట	-4161
▁కార్యకలా	-4162
▁ఆరా	-4163
ధన	-4164
12	-4165
▁ఉదయం	-4166
స్తి	-4167
▁క్రికెట్	-4168
▁డివిజన్	-4169
▁ఖమ్మం	-4170
▁పట్టణం	-4171
▁అఫ్	-4172
కోర్టు	-4173
ప్పుడూ	-4174
▁4.	-4175
దండ్ర	-4176
▁పచ్చ	-4177
త్వాన్ని	-4178
▁నియోజకవర్గం	-4179
▁బానిస	-4180
పరంగా	-4181
▁కోర్	-4182
▁మనిషి	-4183
▁ప్రోత్స	-4184
వుగా	-4185
▁ప్రస్తావ	-4186
వాలు	-4187
▁ఒప్పంద	-4188
కూర్	-4189
▁క్రో	-4190
▁పారిశ్రామిక	-4191
▁అతడి	-4192
డల్	-4193
▁విజయనగరం	-4194
▁రొ	-4195
▁ఉన్నా	-4196
ంటున్న	-4197
▁సూత్ర	-4198
▁సాంఘ	-4199
▁ప్రాధాన్య	-4200
tion	-4201
▁కోరిక	-4202
▁సంబంధిత	-4203
ోసి	-4204
కూడ	-4205
▁ఎవరి	-4206
▁ఫోర్	-4207
▁ప్రార్థ	-4208
▁హీరో	-4209
వాగు	-4210
▁ఆలయంలో	-4211
ంచడానికి	-4212
▁వేదిక	-4213
▁అద్ద	-4214
దృ	-4215
▁నటుడు	-4216
▁వ్రాయ	-4217
వును	-4218
▁జనరల్	-4219
▁అన్నది	-4220
▁se	-4221
చేసిన	-4222
▁ప్రైవే	-4223
ూర్తి	-4224
▁లాల్	-4225
▁అవకాశ	-4226
▁సేవలు	-4227
▁విత్త	-4228
▁పరుగు	-4229
ars	-4230
▁గీత	-4231
▁భయ	-4232
▁ఇజ్రా	-4233
▁రచనలు	-4234
▁నిజాం	-4235
▁సైన్యం	-4236
▁కోరు	-4237
▁ఫర్	-4238
▁ప్రవాహ	-4239
ట్రా	-4240
▁పరిస్థితి	-4241
▁గణి	-4242
▁రాక్ష	-4243
18	-4244
▁అంతా	-4245
▁విద్యార్థి	-4246
మిక్	-4247
▁ఏర్పడింది	-4248
▁పునర్	-4249
▁తై	-4250
▁వెళ్ల	-4251
▁ద్రవ్య	-4252
శేఖ	-4253
▁కలుపు	-4254
▁పంచాయతీ	-4255
స్ట్ర	-4256
▁తల్లిదండ్ర	-4257
▁కొనసాగు	-4258
▁విజ్ఞాన	-4259
▁జం	-4260
▁స్త్రీలు	-4261
▁మ్యూజి	-4262
ెక్కి	-4263
▁పుట్టిన	-4264
▁అడి	-4265
▁ఆవిష్	-4266
▁pro	-4267
▁సంబంధించి	-4268
ర్పు	-4269
▁కార్యక్రమాలు	-4270
మానం	-4271
▁వాద	-4272
▁సెంటర్	-4273
మ్మడి	-4274
▁ఉపయోగించి	-4275
▁దాన్ని	-4276
▁ఫై	-4277
▁ఆమెకు	-4278
ట్నం	-4279
▁సోవి	-4280
▁సుల	-4281
టిల్	-4282
▁కేట	-4283
ధిప	-4284
్రానికి	-4285
▁వస్త్ర	-4286
▁గాను	-4287
▁స్వే	-4288
▁కడప	-4289
▁శుభ	-4290
▁రద్దు	-4291
▁ఎఫ్	-4292
▁ఛా	-4293
69	-4294
ారిటీ	-4295
▁బదులు	-4296
▁వచ్చు	-4297
నేందుకు	-4298
15	-4299
ాయిక	-4300
▁వేడు	-4301
▁ఆయా	-4302
▁సమాచార	-4303
▁సెంట	-4304
▁మీటర్ల	-4305
▁వ్యాసం	-4306
▁పనిచేశాడు	-4307
చ్చుకు	-4308
▁పాడేరు	-4309
▁పురస్కార	-4310
బడ్డాడు	-4311
▁అధ్యయనం	-4312
▁సిం	-4313
▁ఆరోప	-4314
▁ప్రొఫె	-4315
మాల	-4316
▁కొడుకు	-4317
▁ప్రాంతీయ	-4318
టై	-4319
▁38	-4320
▁కార్పొ	-4321
▁ఫె	-4322
వేరు	-4323
▁అక్	-4324
▁నిర్మి	-4325
▁భూగర్భ	-4326
▁సాంఘిక	-4327
▁పొందాడు	-4328
▁రౌ	-4329
▁పాలు	-4330
▁తెలియజే	-4331
ంబి	-4332
▁ఏరియా	-4333
end	-4334
▁రిపబ్లిక్	-4335
▁సీఎం	-4336
ess	-4337
రంగా	-4338
▁పులి	-4339
▁ప్రాంతాన్ని	-4340
▁కొనుగోలు	-4341
▁విప	-4342
▁సభ్యు	-4343
▁ఆధారపడి	-4344
వైన	-4345
▁90	-4346
▁నిపు	-4347
పింది	-4348
▁తయార	-4349
▁నరసింహ	-4350
▁దర్శకత్వంలో	-4351
సార	-4352
▁ఉండేవి	-4353
మాండ్	-4354
కోవాలి	-4355
రక్ష	-4356
▁పూర్వం	-4357
▁శీ	-4358
▁సర్వే	-4359
▁డ్ర	-4360
▁సల్	-4361
▁వేసి	-4362
▁బ్రాహ్మణ	-4363
▁చెరకు	-4364
▁దూరములో	-4365
సమీప	-4366
రించు	-4367
జీవి	-4368
▁నవా	-4369
▁స్టేట్స్	-4370
▁త్వర	-4371
▁వేడి	-4372
▁మిగతా	-4373
డము	-4374
దశ	-4375
రుని	-4376
▁ఇండియన్	-4377
▁అభ్యర్థి	-4378
▁వాతావరణం	-4379
ల్లోనూ	-4380
▁తిరుమల	-4381
ov	-4382
▁గీ	-4383
▁పనిచేశారు	-4384
▁విరా	-4385
▁స్కా	-4386
▁లండన్	-4387
▁మాన్	-4388
▁వినియోగదారు	-4389
▁లోక్	-4390
▁అందువలన	-4391
14	-4392
34	-4393
▁which	-4394
▁ప్రేక్ష	-4395
న్లు	-4396
▁పుట్ట	-4397
▁తీసుకుని	-4398
▁బర్	-4399
▁స్కూల్	-4400
▁ar	-4401
▁మంద	-4402
▁1980	-4403
▁వీడియో	-4404
▁సమి	-4405
్యాన	-4406
ంపియన్	-4407
గల్	-4408
▁కారు	-4409
దాన	-4410
▁su	-4411
క్రో	-4412
▁పాలి	-4413
▁టర్	-4414
▁ఫార్	-4415
▁చివరకు	-4416
▁ప్రసార	-4417
▁మార్పులు	-4418
ినా	-4419
్యాత్	-4420
▁రకాలు	-4421
వులలో	-4422
ించబడుతుంది	-4423
పడ్డారు	-4424
▁చేతిలో	-4425
▁ఇతను	-4426
▁ప్రథ	-4427
▁రంగంలో	-4428
▁పేర్లు	-4429
▁గ్రామీణ	-4430
▁ఆనంద	-4431
▁రాజమ	-4432
▁పుట్టి	-4433
▁ఇంధ	-4434
▁మరికొ	-4435
▁వచ్చాయి	-4436
▁డైరె	-4437
ష్టంగా	-4438
▁39	-4439
▁కాలి	-4440
వల్	-4441
▁సొంత	-4442
ip	-4443
ies	-4444
పోయే	-4445
▁పాప	-4446
▁అందుకే	-4447
కోవాలని	-4448
▁భీమ	-4449
▁చోటు	-4450
▁గ్రామంలోఒక	-4451
▁డిస్	-4452
▁విశాఖపట్న	-4453
లని	-4454
▁ప్రచార	-4455
▁రోజుల్లో	-4456
మయిన	-4457
నిషత్తు	-4458
▁పోర్చు	-4459
▁దారితీ	-4460
ములకు	-4461
▁లేదని	-4462
ఘు	-4463
త్న	-4464
▁శబ్ద	-4465
▁సారి	-4466
▁బరువు	-4467
▁ఇస్లాం	-4468
▁దండ	-4469
యింట్	-4470
పిస్తుంది	-4471
▁ఆమ్ల	-4472
▁జరిగాయి	-4473
కొనే	-4474
▁చేతి	-4475
▁విస్తృ	-4476
▁థి	-4477
▁స్వంత	-4478
▁ఆలోచన	-4479
▁స్నేహి	-4480
▁కుటుంబం	-4481
▁మిత్ర	-4482
▁లూ	-4483
సంఖ్య	-4484
▁మల్ల	-4485
▁గంగా	-4486
▁వృద్ధి	-4487
▁పాద	-4488
▁బుధ	-4489
ment	-4490
దైనా	-4491
rict	-4492
▁మళ్	-4493
▁గోడ	-4494
హరి	-4495
లక్ష్	-4496
▁కలిగివు	-4497
age	-4498
▁వరల్డ్	-4499
సిద్ధ	-4500
మణి	-4501
▁మతం	-4502
▁నాయకులు	-4503
ంటో	-4504
హీ	-4505
▁నాయకుడు	-4506
▁ఫ్రెంచ్	-4507
▁వీలు	-4508
▁సీతారా	-4509
▁రథ	-4510
▁పురస్కారం	-4511
og	-4512
▁జార్	-4513
భాగం	-4514
▁నిజామాబాద్	-4515
▁ఇంగ్లీషు	-4516
▁హత్య	-4517
▁ఖర్చు	-4518
▁క్లో	-4519
▁ప్రైవేట్	-4520
▁తరగతి	-4521
▁అధికారి	-4522
▁భిన్న	-4523
▁y	-4524
▁3,	-4525
కుమార్	-4526
▁ప్రశం	-4527
▁ఒకటిగా	-4528
▁మామిడి	-4529
▁దేవి	-4530
▁కళాశాలలో	-4531
▁అలీ	-4532
▁ఉండవచ్చు	-4533
▁పొడి	-4534
▁కార్యాలయ	-4535
పోతుంది	-4536
▁కనిపించే	-4537
▁తమిళనాడు	-4538
▁శాస్త్రం	-4539
స్థానం	-4540
ైక	-4541
ెదరు	-4542
ూరులోను	-4543
▁రాష్ట్రంలోని	-4544
▁సంఘటన	-4545
శో	-4546
▁చూసిన	-4547
▁అర్ధం	-4548
ine	-4549
▁బయలు	-4550
▁వెబ్	-4551
▁రాజ్	-4552
్యాండ్	-4553
▁టో	-4554
▁2012	-4555
▁కార్యక్రమం	-4556
▁నిల్వ	-4557
▁సన్	-4558
▁అనుబంధ	-4559
కున్నారు	-4560
▁నిరోధ	-4561
▁డాల	-4562
▁యూనివర్	-4563
▁వ్యవహార	-4564
▁°	-4565
గవ	-4566
▁ముందుకు	-4567
▁మహారాష్ట్ర	-4568
istrict	-4569
▁పాఠశాలలో	-4570
▁తోట	-4571
పోతే	-4572
▁అడవి	-4573
ంగ్రామ	-4574
▁ఇచ్చి	-4575
55	-4576
▁క్రొ	-4577
▁గోల్	-4578
▁మాస	-4579
సుడు	-4580
▁పరిమాణ	-4581
our	-4582
రేట్	-4583
ులతో	-4584
ళ్ళలో	-4585
▁శత	-4586
స్థల	-4587
▁అసోసి	-4588
్యాత్మిక	-4589
▁వ్యక్తిగత	-4590
ాడని	-4591
▁బూ	-4592
▁కనిపించ	-4593
▁అధికారిక	-4594
సుల	-4595
▁మానసిక	-4596
▁వీరికి	-4597
ఖ్	-4598
▁యజ్ఞ	-4599
▁సర్ప	-4600
▁వ్యాఖ్య	-4601
బడుతున్న	-4602
▁నటించిన	-4603
▁మనకు	-4604
▁గుర్ర	-4605
▁ప్రోగ	-4606
▁దశాబ్ద	-4607
▁గెలి	-4608
ధ్యం	-4609
యాన్	-4610
▁స్థితి	-4611
33	-4612
్రల్	-4613
ట్టే	-4614
ాయితీ	-4615
నేయ	-4616
▁ఎకర	-4617
ంట్లో	-4618
▁స్న	-4619
▁ఆయుధ	-4620
చీ	-4621
▁ప్రీ	-4622
బడ్డారు	-4623
▁వచ్చారు	-4624
▁విద్యుత్తు	-4625
▁సత్	-4626
థ్	-4627
▁అడ్	-4628
▁మూస	-4629
మవుతుంది	-4630
▁దేశాలు	-4631
▁ప్రాముఖ్య	-4632
▁నిబంధ	-4633
ప్రాథమిక	-4634
▁ప్రవేశపెట్ట	-4635
▁వాల్	-4636
▁సామె	-4637
▁ఆకర్ష	-4638
▁బాధ్యత	-4639
▁ఆదివారం	-4640
▁వద్దకు	-4641
▁రాజ్యాంగ	-4642
▁మళ్ళీ	-4643
▁యోగ	-4644
స్తుందని	-4645
▁విశ్లేష	-4646
16	-4647
▁దశలో	-4648
▁కూడ	-4649
▁నిష్	-4650
▁వంత	-4651
▁అంగీ	-4652
art	-4653
▁ధా	-4654
17	-4655
పల్లెలో	-4656
మత	-4657
▁సోవియట్	-4658
▁హృ	-4659
ట్యూట్	-4660
ించేవారు	-4661
ంకు	-4662
▁బయటకు	-4663
▁చెప్పి	-4664
▁అనంతపురం	-4665
టరు	-4666
▁పరిణా	-4667
స్తున్నది	-4668
థా	-4669
▁వుండ	-4670
▁లతో	-4671
▁కంది	-4672
▁సరైన	-4673
ైంది	-4674
రాష్ట్ర	-4675
▁ఏను	-4676
▁భారతీ	-4677
▁తాలూ	-4678
▁ఉపయోగించే	-4679
▁ఎల్ల	-4680
▁సాధించ	-4681
▁మెక్	-4682
▁కీర్తి	-4683
▁పర్యావరణ	-4684
▁ఆమోద	-4685
▁ద్రవ	-4686
్రహ్	-4687
▁కూతు	-4688
▁గార్	-4689
▁మహిళా	-4690
▁ఎటువంటి	-4691
▁భవి	-4692
యితే	-4693
▁పుణ్య	-4694
▁ఫ్	-4695
▁కట్టు	-4696
▁ఎత్త	-4697
ంచబడింది	-4698
▁సంస్కరణ	-4699
85	-4700
▁వార్షిక	-4701
▁ప్రచారం	-4702
▁ప్రవక్త	-4703
▁భాగస్వా	-4704
్యము	-4705
డుపు	-4706
నామా	-4707
▁తాము	-4708
▁పిలవ	-4709
▁వెల్లడి	-4710
▁రాజ్యం	-4711
▁ప్రె	-4712
వలస	-4713
▁నష్ట	-4714
మైనవి	-4715
▁సంకే	-4716
▁పరిసర	-4717
ంలోనే	-4718
▁కొత్తగా	-4719
జరా	-4720
▁శిఖ	-4721
▁పలువు	-4722
▁పొట్టి	-4723
▁శతాబ్	-4724
▁వికారా	-4725
▁తెలిసిన	-4726
▁వహి	-4727
▁వెలి	-4728
▁రహ	-4729
▁పార్వ	-4730
▁ఆకాశ	-4731
▁అప్పు	-4732
▁తొమ్మి	-4733
▁అధ్యక్షు	-4734
▁కెనడా	-4735
కరణం	-4736
▁కేటాయి	-4737
రళ	-4738
గమ	-4739
▁నేర	-4740
▁సమ్మే	-4741
▁వుండును	-4742
▁తార	-4743
పాత్ర	-4744
ound	-4745
▁ఉచి	-4746
ోద్య	-4747
▁this	-4748
ాలున్నాయి	-4749
▁1970	-4750
▁సోమవారం	-4751
ఫర్	-4752
▁స్వేచ్ఛ	-4753
▁ప్రాంతానికి	-4754
▁అడుగుల	-4755
గార	-4756
▁44	-4757
▁పాడ	-4758
▁రోజున	-4759
నాథ్	-4760
ోత్సవం	-4761
▁మెరుగు	-4762
ort	-4763
భారత	-4764
ంబంధ	-4765
▁సుల్తా	-4766
▁శో	-4767
శై	-4768
▁ఇటీవల	-4769
విధంగా	-4770
▁ఏకా	-4771
▁రాష్ట	-4772
▁గానీ	-4773
గోళ	-4774
చ్చారు	-4775
▁శృ	-4776
▁వివరాలు	-4777
ంబా	-4778
ణ్యం	-4779
నేని	-4780
రిస్తారు	-4781
కరించింది	-4782
స్మ	-4783
▁సుర	-4784
మయ్యాయి	-4785
▁sh	-4786
57	-4787
కరించారు	-4788
బల	-4789
పాడులో	-4790
▁సంపద	-4791
▁ఉన్నప్పటికీ	-4792
▁ఒకరి	-4793
▁పేద	-4794
ిల్లి	-4795
▁కార్మి	-4796
▁పుస్తకం	-4797
రీస్	-4798
▁పరిధిలోకి	-4799
పేరు	-4800
▁తెర	-4801
పాయ	-4802
▁క్యూ	-4803
సనం	-4804
▁కన్నడ	-4805
▁అంటూ	-4806
▁బెంగాల్	-4807
రమణ	-4808
▁మైస	-4809
▁ఏర్పడ	-4810
▁వెలుగు	-4811
▁స్వయంగా	-4812
▁గట్టి	-4813
▁చేసుకుని	-4814
▁రైతు	-4815
▁బ్రిటన్	-4816
▁కాం	-4817
▁ఎన్ను	-4818
▁us	-4819
య్యి	-4820
సాలు	-4821
▁లీగ్	-4822
▁వీరిలో	-4823
▁సంగారెడ్డి	-4824
ండం	-4825
ల్యే	-4826
▁:.	-4827
▁కీలక	-4828
ధీనం	-4829
త్తిడి	-4830
ంకి	-4831
▁వైశాల	-4832
▁ప్రక్క	-4833
▁గజ	-4834
▁ముక్క	-4835
▁భవిష్య	-4836
▁సంతో	-4837
వార్	-4838
▁ఖు	-4839
కాలలో	-4840
▁2003	-4841
▁మాదిరి	-4842
▁In	-4843
▁విభాగం	-4844
||	-4845
▁32	-4846
▁తత్వ	-4847
▁చేసేందుకు	-4848
▁ప్రదేశం	-4849
డియం	-4850
▁చంద	-4851
గింపు	-4852
▁ఎనిమిది	-4853
▁ఇరు	-4854
▁నాశ	-4855
▁విల	-4856
స్స	-4857
జీవ	-4858
పాతం	-4859
▁పాత్రలు	-4860
▁ఆన్	-4861
▁మిరప	-4862
ేశ్	-4863
▁జానపద	-4864
▁ఇటువంటి	-4865
క్ష్య	-4866
కుంటారు	-4867
కళ	-4868
సుక	-4869
▁ఉపాధ్యాయ	-4870
ళూరు	-4871
▁తేదీన	-4872
చ్చింది	-4873
▁తరఫు	-4874
ish	-4875
▁వివరణ	-4876
▁క్రమంగా	-4877
కుండ	-4878
రావ	-4879
▁రామారావు	-4880
ంచె	-4881
▁ఆందో	-4882
▁పులు	-4883
▁బార్	-4884
▁విడిచి	-4885
▁విశి	-4886
▁ప్రారంభంలో	-4887
...	-4888
య్యే	-4889
▁అందరూ	-4890
90	-4891
▁అకాడ	-4892
▁మును	-4893
▁ఎక్కడ	-4894
▁క్రైస్తవ	-4895
కొన	-4896
్యుల	-4897
▁కళ్యా	-4898
▁ప్రోత్సహ	-4899
▁స్వాధీనం	-4900
ాగ్	-4901
▁తీసుకొని	-4902
▁తెలుపు	-4903
▁ఆధ్యాత్మిక	-4904
▁తను	-4905
▁అలాంటి	-4906
▁ఉన్నట్లు	-4907
▁రాజమండ్రి	-4908
ఘా	-4909
ేష్	-4910
▁గ్	-4911
▁మన్	-4912
▁ఎలాంటి	-4913
▁శక్తిని	-4914
లియం	-4915
▁పరిమా	-4916
▁సింధ	-4917
కాని	-4918
▁పట్టా	-4919
▁శాస్త్రి	-4920
విజ	-4921
▁అట	-4922
▁పద్ధతిలో	-4923
▁ఆలోచ	-4924
▁ఏదైనా	-4925
▁వర్గం	-4926
▁కఠ	-4927
▁విలీ	-4928
▁ఎమ్మెల్యే	-4929
దగిన	-4930
గుణంగా	-4931
పోవడంతో	-4932
▁అభిప్రాయ	-4933
▁చారిత్రక	-4934
▁అగ్ర	-4935
▁ప్రకటించింది	-4936
▁నేటి	-4937
▁సుఖ	-4938
▁మీడియా	-4939
▁ఒక్కొక్క	-4940
▁చెక్క	-4941
▁మిశ్రమ	-4942
▁పదార్థం	-4943
▁ధర్మరాజు	-4944
▁అసా	-4945
▁చలి	-4946
▁గ్రే	-4947
▁పాలనలో	-4948
▁ప్రాచు	-4949
▁క్షి	-4950
▁46	-4951
▁ఓడ	-4952
▁ప్రసాద్	-4953
దె	-4954
లమ	-4955
ang	-4956
▁ఉన్నప్పుడు	-4957
▁ఊహ	-4958
▁కళాశాలలు	-4959
ఫోర్	-4960
్రాంతి	-4961
▁సులభ	-4962
▁ప్రాధాన్యత	-4963
▁US	-4964
▁బిరు	-4965
కానికి	-4966
లీస్	-4967
▁ఆమ్లం	-4968
్యత	-4969
▁ఆహ్వ	-4970
ఫో	-4971
రాస్య	-4972
▁పురుషులు	-4973
య్యాయి	-4974
▁వరుసగా	-4975
▁భావిస్తారు	-4976
▁55	-4977
▁ఫ్యా	-4978
▁స్వి	-4979
▁75	-4980
▁2014,	-4981
▁కలుగు	-4982
▁స్తం	-4983
▁ఒకసారి	-4984
▁సాహిత్యం	-4985
-2	-4986
▁నాయుడు	-4987
వాది	-4988
▁శాశ్వ	-4989
వసర	-4990
▁తుల	-4991
నిగా	-4992
▁మళ్లీ	-4993
▁మనో	-4994
శాన్ని	-4995
▁యూరోపియన్	-4996
ట్లను	-4997
▁ఇచ్చే	-4998
▁దిగువ	-4999
▁వెన	-5000
▁సహాయం	-5001
▁మరణించాడు	-5002
▁శంక	-5003
ord	-5004
ాలలోనూ	-5005
▁చెరువులు	-5006
హమ్మద్	-5007
▁5.	-5008
▁ఒడి	-5009
పూర్వ	-5010
▁కాలేజీ	-5011
జిప్	-5012
▁ఎవర	-5013
▁దాన	-5014
▁వెలుప	-5015
▁వ్యతిరే	-5016
ian	-5017
▁ఉద్యమం	-5018
▁దాడు	-5019
▁చర్మ	-5020
▁ప్రపంచంలోని	-5021
▁పిల్లల	-5022
▁దేశంలోని	-5023
స్టేషన్	-5024
▁దుకాణాలు	-5025
మైనా	-5026
up	-5027
▁||	-5028
▁ఆవ	-5029
▁స్టేట్	-5030
లాది	-5031
▁సీజన్	-5032
▁రామకృష్ణ	-5033
▁పర్	-5034
బడుతున్నాయి	-5035
▁మంచు	-5036
▁పదవీ	-5037
▁గింజ	-5038
▁వేగంగా	-5039
▁తిన	-5040
▁చేసుకున్న	-5041
▁పూర్త	-5042
హే	-5043
గృహ	-5044
▁కవ	-5045
▁కావు	-5046
▁బ్రహ్	-5047
▁క్లి	-5048
ులుగా	-5049
▁సెంట్రల్	-5050
▁శుక్రవారం	-5051
స్సా	-5052
▁ఆహారం	-5053
ళ్ళను	-5054
▁నదీ	-5055
▁పర్యాటక	-5056
▁వస్తున్న	-5057
▁నేపథ్యంలో	-5058
వన్	-5059
▁కట్టి	-5060
తులతో	-5061
▁ఉప్పు	-5062
ast	-5063
పురా	-5064
▁మైన	-5065
▁సలహా	-5066
శాస్త్రం	-5067
▁ఏర్పా	-5068
▁సోద	-5069
▁తగ్గు	-5070
▁ఉనికి	-5071
▁నార్వే	-5072
▁తీయ	-5073
▁అష్ట	-5074
▁నైపు	-5075
గాన	-5076
షల్	-5077
ధ్యా	-5078
▁దివ్య	-5079
▁ప్రయోజన	-5080
ధికార	-5081
▁గణిత	-5082
▁సమర్ప	-5083
కున్నాడు	-5084
▁కచ్చి	-5085
▁వాల	-5086
తోపాటు	-5087
▁యూనివర్సిటీ	-5088
▁తరఫున	-5089
▁కనీసం	-5090
ంత్	-5091
నాలి	-5092
ూర్లో	-5093
మయ్యే	-5094
▁సాయి	-5095
▁2015,	-5096
▁పొంది	-5097
ld	-5098
రస	-5099
ంసా	-5100
▁ఈజిప్	-5101
▁గుజరా	-5102
▁మిలియన్ల	-5103
▁అనకాపల్లి	-5104
పైన	-5105
▁Ind	-5106
▁విగ్రహం	-5107
▁ఎన్నికల	-5108
ళ్లలో	-5109
▁లోనే	-5110
కునిగా	-5111
▁తదిత	-5112
▁అగ	-5113
▁పుష్ప	-5114
▁లక్షణాలు	-5115
ార్జు	-5116
▁జ్యోతి	-5117
▁ఫ్రాన్స్	-5118
▁ఆగ్	-5119
నాలజీ	-5120
▁సస్య	-5121
ore	-5122
▁చైన	-5123
▁శనివారం	-5124
ించబడ్డాయి	-5125
▁బది	-5126
▁సమస్యలు	-5127
▁ఫల	-5128
నుము	-5129
▁చతు	-5130
▁ఫిల్	-5131
నూరు	-5132
▁క్రితం	-5133
▁విస్తార	-5134
▁రోమన్	-5135
రిక్ష	-5136
▁అసోసియేషన్	-5137
▁దేవత	-5138
▁ప్రథమ	-5139
▁సాధ్య	-5140
▁బాధ్యతలు	-5141
స్క	-5142
హీన	-5143
్వి	-5144
▁టెలివిజన్	-5145
▁ఫిర్యా	-5146
▁పేరును	-5147
▁దర్	-5148
ధానం	-5149
నాలను	-5150
▁చూపు	-5151
గాకు	-5152
షియం	-5153
▁రాణి	-5154
▁పాడేరులోనూ	-5155
▁కిరణ	-5156
▁కౌన్సి	-5157
▁జీవితంలో	-5158
▁గుహ	-5159
▁సదు	-5160
▁1960	-5161
▁పలక	-5162
గలు	-5163
▁65	-5164
▁పునరుద్ధ	-5165
▁పేర	-5166
▁రేఖ	-5167
▁అవగా	-5168
▁తదితర	-5169
▁బుధవారం	-5170
కన	-5171
▁పోయ	-5172
▁రాతి	-5173
వెల్	-5174
ard	-5175
▁భద్రా	-5176
ంటున్నారు	-5177
▁సత్యనారాయణ	-5178
▁పర్యవే	-5179
ated	-5180
శ్చా	-5181
31	-5182
▁పెట్టారు	-5183
▁కావలసిన	-5184
▁నిలిచింది	-5185
▁ముడి	-5186
▁రెండి	-5187
తుకు	-5188
▁నిండి	-5189
▁తూర్పున	-5190
cl	-5191
ందన	-5192
రాయ	-5193
▁సరస్సు	-5194
▁విభిన్న	-5195
▁రమ	-5196
▁not	-5197
▁డిప	-5198
ure	-5199
▁ఎలక్ట్రా	-5200
▁ఎక్క	-5201
▁ఎన్నికైన	-5202
▁ప్రయాణి	-5203
▁నటించారు	-5204
▁2002	-5205
▁రాఘ	-5206
ాల్లోని	-5207
▁వస్తువు	-5208
▁నగరానికి	-5209
▁48	-5210
▁ఊరి	-5211
ెక్స్	-5212
▁విద్యు	-5213
▁తరచూ	-5214
▁శాత	-5215
▁సంభ	-5216
కాలిక	-5217
▁1999	-5218
▁చివరికి	-5219
ఫై	-5220
▁pl	-5221
▁కాశీ	-5222
▁చాలామంది	-5223
▁శ్రీనివా	-5224
==	-5225
ode	-5226
రాజ్	-5227
▁కేరళ	-5228
▁వేసిన	-5229
▁సీనియర్	-5230
టూరు	-5231
▁బాబు	-5232
▁సిద్ద	-5233
▁విషయాన్ని	-5234
ేశాల	-5235
▁అంతకు	-5236
▁ఒక్కో	-5237
▁ఇజ్రాయిల్	-5238
దాసు	-5239
▁జవాహ	-5240
హర్	-5241
ens	-5242
▁స్మ	-5243
▁పైకి	-5244
▁క్రమంలో	-5245
▁చేసుకున్నారు	-5246
▁నాగరిక	-5247
▁ఉత్తర్వులు	-5248
▁నాటు	-5249
▁లెక్క	-5250
▁డిమాండ్	-5251
మిన	-5252
▁1950	-5253
▁దాటి	-5254
▁భీష్	-5255
▁విధమైన	-5256
▁శ్రీరాములు	-5257
yle	-5258
▁క్లా	-5259
రిన	-5260
శీల	-5261
▁దేశానికి	-5262
▁పదార్ధ	-5263
▁బహుమతి	-5264
▁తీవ్రంగా	-5265
▁సెక	-5266
▁మండలాలు	-5267
▁2016	-5268
కై	-5269
▁హౌస్	-5270
హ్య	-5271
▁ఫ్లో	-5272
▁సూపర్	-5273
▁క్రీస్తు	-5274
▁మరణం	-5275
లేదని	-5276
▁ఐక్య	-5277
భివృద్ధి	-5278
▁వుంటుంది	-5279
▁తీవ్రమైన	-5280
▁ఇష్ట	-5281
రత	-5282
చేసింది	-5283
▁పార్లమెంటు	-5284
▁నెలల	-5285
▁గెలుచుకు	-5286
45	-5287
త్మా	-5288
చున్న	-5289
▁బదిలీ	-5290
▁మొదలై	-5291
▁మీదుగా	-5292
▁సెయింట్	-5293
గామ	-5294
▁కొనసాగింది	-5295
▁గుణ	-5296
▁సినిమాలు	-5297
▁బ్లాక్	-5298
క్సీ	-5299
▁ప్రశంస	-5300
▁వాటికి	-5301
▁ప్రభావితం	-5302
రము	-5303
రిక్	-5304
▁పీఠ	-5305
▁అర్హ	-5306
▁అల్ల	-5307
99	-5308
▁అందిస్తుంది	-5309
▁సూచిస్తుంది	-5310
బ్బి	-5311
▁ఫైన	-5312
▁నమూనా	-5313
▁మల్	-5314
పేటలోను	-5315
▁పలువురు	-5316
▁సాధించాడు	-5317
సంబంధ	-5318
▁డ్రై	-5319
ుడి	-5320
పాలెంలో	-5321
పోయాయి	-5322
▁ముందే	-5323
▁హైడ్రో	-5324
ంసం	-5325
▁అదనపు	-5326
ఖరి	-5327
▁కంట	-5328
▁జంట	-5329
▁బ్రె	-5330
▁అధికారం	-5331
▁ముంబై	-5332
}}	-5333
▁శిలా	-5334
ive	-5335
ండో	-5336
▁పెంచ	-5337
▁47	-5338
▁పల్ల	-5339
సీమ	-5340
▁చేస్తాయి	-5341
▁గ్రీకు	-5342
▁యజ	-5343
సిస్	-5344
▁శృంగ	-5345
చారాన్ని	-5346
▁బోర్డు	-5347
▁ప్రారంభించాడు	-5348
మారి	-5349
▁నీకు	-5350
▁అకాడమీ	-5351
▁గురి	-5352
▁తిరస్	-5353
▁బ్యాంక్	-5354
డూ	-5355
▁పెంచు	-5356
▁మందికి	-5357
▁స్టార్	-5358
క్కా	-5359
▁నాణ్య	-5360
▁జర్మన్	-5361
నేషనల్	-5362
▁పసి	-5363
▁తాత్	-5364
▁యాత్ర	-5365
▁కురు	-5366
▁చెప్	-5367
▁కాలేదు	-5368
▁శిల్ప	-5369
ంచిగా	-5370
▁సెల్	-5371
▁హాల్	-5372
▁ఉండదు	-5373
▁తప్పని	-5374
స్తామని	-5375
▁పోల్	-5376
▁వాడుకలో	-5377
▁అంతరిక్ష	-5378
▁షో	-5379
▁స్వల్ప	-5380
▁పెట్టుబడి	-5381
▁సంస్థల	-5382
పర్వ	-5383
▁పను	-5384
▁ప్రత్యేకమైన	-5385
▁సమర్థ	-5386
▁బెల్	-5387
▁విశాల	-5388
64	-5389
▁మెదక్	-5390
▁చెంది	-5391
ద్రమ	-5392
▁ఆర్మే	-5393
▁కొవ్వు	-5394
▁వ్యతిరేకి	-5395
ోత్సవ	-5396
్రత్త	-5397
▁జరుగుతున్న	-5398
▁వారస	-5399
పాన్ని	-5400
న్సర్	-5401
▁స్వచ్ఛ	-5402
▁కూరగ	-5403
▁పరిధిలోని	-5404
ించటం	-5405
క్ల	-5406
▁మొక్కలు	-5407
▁శ్రీలంక	-5408
శివ	-5409
రును	-5410
ందులు	-5411
37	-5412
గె	-5413
▁ఇంట	-5414
ంత్రం	-5415
విక	-5416
▁రాజులు	-5417
▁ప్రారంభమైంది	-5418
▁వివరి	-5419
▁ప్రాతిని	-5420
▁శిష్య	-5421
▁ప్రజలను	-5422
▁బహుళ	-5423
▁గవర్నర్	-5424
35	-5425
▁బలమైన	-5426
పురంలోను	-5427
▁కాలువలు	-5428
చేత	-5429
క్షా	-5430
▁ప్రొఫెసర్	-5431
మంతా	-5432
▁ప్రయత్నం	-5433
▁కొట్ట	-5434
▁బయలుదే	-5435
▁గర్	-5436
తుల్లో	-5437
గాను	-5438
ాల్ని	-5439
▁ఏకైక	-5440
▁కత	-5441
▁ఇండో	-5442
▁మాల	-5443
▁హైకోర్టు	-5444
ఎన్	-5445
▁వసతి	-5446
▁నట	-5447
క్లి	-5448
దానం	-5449
▁బెం	-5450
ప్స్	-5451
▁వేట	-5452
▁ఇంటికి	-5453
▁తీసుకో	-5454
సాయి	-5455
చేశారు	-5456
▁సస్యరక్షణ	-5457
వత	-5458
▁సుప్ర	-5459
▁నేర్చుకు	-5460
▁పెరిగింది	-5461
▁ప్రాంతాలకు	-5462
▁జనాభాలో	-5463
నల	-5464
య్యం	-5465
▁పోలీస్	-5466
కొన్న	-5467
67	-5468
▁గాన	-5469
▁వచ్చాడు	-5470
▁విధానాన్ని	-5471
దార్	-5472
▁దొంగ	-5473
▁సన్న	-5474
▁సైతం	-5475
▁రకమైన	-5476
▁ఫే	-5477
pp	-5478
ence	-5479
▁2015	-5480
▁దాంతో	-5481
▁దూరంగా	-5482
▁కావడం	-5483
▁జవాహర్	-5484
▁కద	-5485
▁అందజే	-5486
▁డబ్బు	-5487
▁దంపతులకు	-5488
▁నిర్వచ	-5489
▁అమెరికాలో	-5490
పాలక	-5491
▁మీరు	-5492
రాత్రి	-5493
▁ఆర్ధిక	-5494
▁ఆల్బ	-5495
▁సరిహద్దులో	-5496
▁లోపల	-5497
▁పాయి	-5498
rit	-5499
▁నిలిచి	-5500
▁ప్రజాదరణ	-5501
సేవ	-5502
▁ప్రామా	-5503
కాంత	-5504
ణుల	-5505
▁అంతర	-5506
▁ఫిలిం	-5507
▁పత	-5508
▁పరమాణ	-5509
▁నీటిలో	-5510
గతి	-5511
షేక	-5512
▁అప్పటికే	-5513
▁కార్డు	-5514
▁టే	-5515
▁సిరి	-5516
▁విక్రయ	-5517
లము	-5518
గుంట	-5519
సరా	-5520
నుంచి	-5521
▁సేవల	-5522
▁అదనంగా	-5523
కొక	-5524
▁తనను	-5525
▁ఇచ్చింది	-5526
▁కెమె	-5527
▁బిలియన్	-5528
ha	-5529
ell	-5530
జార్	-5531
▁పూజలు	-5532
▁ఉత్తరాన	-5533
ans	-5534
▁దేవు	-5535
కాయ	-5536
రైడ్	-5537
రించడం	-5538
▁నిర్ది	-5539
▁వైద్యులు	-5540
లెస్	-5541
▁మరా	-5542
▁సార్వ	-5543
▁విరు	-5544
▁సూర్యా	-5545
▁తేడా	-5546
▁రేవ	-5547
▁ఆచార	-5548
▁నేతృ	-5549
▁గురువారం	-5550
▁49	-5551
▁స్వాతంత్ర్యం	-5552
▁పోవ	-5553
▁పేర్	-5554
ించాలి	-5555
▁భూభాగం	-5556
▁ఒలి	-5557
65	-5558
వద	-5559
▁అటు	-5560
32	-5561
▁పెడ	-5562
▁ఆశ్రమ	-5563
▁జన్మించిన	-5564
▁అనీ	-5565
▁అసి	-5566
▁రవి	-5567
టీఆర్	-5568
▁ప్రతిభ	-5569
గోళిక	-5570
▁నిర్మాత	-5571
47	-5572
రాబాద్	-5573
▁గరి	-5574
▁శుద్ధ	-5575
▁ప్రచురణ	-5576
మను	-5577
▁విష్ణువు	-5578
గాని	-5579
▁చైర్మన్	-5580
సంప	-5581
గడ్డ	-5582
▁ఆదాయం	-5583
▁భాషలలో	-5584
▁విషయాలు	-5585
ంఛ	-5586
▁తీసిన	-5587
షీ	-5588
యైన	-5589
▁బలి	-5590
▁విప్లవ	-5591
ందరూ	-5592
▁ఉంటుందని	-5593
డ్ల	-5594
▁టౌన్	-5595
▁500	-5596
గొట్ట	-5597
▁కనిపిస్తాయి	-5598
▁రం	-5599
▁కాపా	-5600
యోధ	-5601
▁ht	-5602
చారి	-5603
వచ్చని	-5604
▁ఉండడం	-5605
▁జనతా	-5606
▁బాలు	-5607
▁నిషేధ	-5608
▁వుండే	-5609
▁చలనచిత్ర	-5610
▁టెక్నాలజీ	-5611
▁పుస్తకాలు	-5612
హార్	-5613
ంగ్లా	-5614
▁నిలు	-5615
▁అతనిని	-5616
▁రూపకల్ప	-5617
▁ప్రభుత్వానికి	-5618
స్తీ	-5619
▁అభిన	-5620
▁తరంగ	-5621
▁ఫ్రెంచి	-5622
▁ధన	-5623
▁బదులుగా	-5624
▁అమ్మవారి	-5625
▁ప్రకటించారు	-5626
▁కథా	-5627
▁నరస	-5628
▁మంట	-5629
ప్రతి	-5630
▁స్థూ	-5631
▁ప్రారంభించింది	-5632
39	-5633
48	-5634
శేష	-5635
▁క్రా	-5636
యేటర్	-5637
▁సమాఖ్య	-5638
ంపబడిన	-5639
%,	-5640
▁j	-5641
షత్	-5642
షనర్	-5643
▁దోహద	-5644
మౌ	-5645
▁ఈశా	-5646
▁శ్రీకాకుళ	-5647
▁ప్రతిబి	-5648
▁స్వర	-5649
▁శ్రేణి	-5650
▁జాగ్రత్త	-5651
▁గుర్తించారు	-5652
▁జర్	-5653
పిల్ల	-5654
▁అడ్డ	-5655
▁బాధి	-5656
▁తెనాలి	-5657
//	-5658
▁నియోజకవర్గ	-5659
▁వైఎస్	-5660
▁సమితి	-5661
ఖండ	-5662
▁తీసి	-5663
▁మనసు	-5664
▁ప్యా	-5665
పెన్	-5666
యొక్క	-5667
జ్ర	-5668
▁ప్రారంభం	-5669
▁మంగళవారం	-5670
▁పనిచేయ	-5671
▁రాష్ట్రాల	-5672
▁ఉంచ	-5673
▁ఇంది	-5674
▁అన్నీ	-5675
▁రాయి	-5676
ెస్టు	-5677
▁అచ్చ	-5678
▁మంచిర్య	-5679
▁విద్వ	-5680
▁భౌగోళిక	-5681
ous	-5682
జాన్	-5683
▁సంతాన	-5684
▁దైవ	-5685
▁వరద	-5686
మలు	-5687
మంత	-5688
స్రా	-5689
▁పార్క్	-5690
పల్	-5691
▁లోయ	-5692
ిల్స్	-5693
▁ch	-5694
▁లాభ	-5695
▁వన్	-5696
▁ఏదో	-5697
▁తొల	-5698
▁క్లబ్	-5699
▁ముస్లి	-5700
టంలో	-5701
▁సర్పంచిగా	-5702
▁రిజి	-5703
గణి	-5704
▁వ్యక్తం	-5705
▁పంపు	-5706
▁చిరు	-5707
▁వ్యాసాల	-5708
లాస	-5709
▁పెరగ	-5710
▁మండలి	-5711
▁int	-5712
▁సమాధి	-5713
▁వికారాబాద్	-5714
▁శేష	-5715
▁అత్యధికంగా	-5716
లాండు	-5717
▁డో	-5718
▁వందల	-5719
ంస్	-5720
▁నేడు	-5721
▁187	-5722
తుంటారు	-5723
ార్థం	-5724
▁విజయనగర	-5725
▁కార్పొరేషన్	-5726
బాల్	-5727
▁సుందర	-5728
▁డిగ్రీలు	-5729
▁150	-5730
▁గెలుపొ	-5731
▁టు	-5732
▁చేరాడు	-5733
▁తదితరులు	-5734
▁మరణించారు	-5735
నలను	-5736
▁అనుసంధాన	-5737
▁చైత	-5738
కలి	-5739
బడులు	-5740
పట్ట	-5741
తున్నా	-5742
▁తమ్ము	-5743
▁కమిషన్	-5744
▁తెలంగాణా	-5745
▁ఇంటర్నేషనల్	-5746
▁తపస్సు	-5747
రణం	-5748
▁స్థావ	-5749
▁సందర్భంలో	-5750
://	-5751
▁సంస్థాన	-5752
త్యాన్ని	-5753
▁సంప	-5754
డింది	-5755
▁కుడి	-5756
త్మకంగా	-5757
▁జైన	-5758
న్నుల	-5759
▁సాల	-5760
▁ఉర్	-5761
▁మొఘ	-5762
▁స్థాపించారు	-5763
యె	-5764
▁అరే	-5765
▁ఆయనను	-5766
టనలు	-5767
సిన్	-5768
లుడు	-5769
ేషియా	-5770
▁అభిప్రాయం	-5771
▁చేయాలి	-5772
▁తెలుగుదేశం	-5773
రత్	-5774
▁రూపు	-5775
▁ఎక్	-5776
▁విద్యను	-5777
కించి	-5778
ాలలోను	-5779
▁క్షిప	-5780
▁మహర్షి	-5781
ug	-5782
▁నియమి	-5783
ace	-5784
రాయి	-5785
▁వసూ	-5786
▁త్రా	-5787
▁సంతోష	-5788
భ్యా	-5789
యాలో	-5790
▁రాగ	-5791
▁ఆధిప	-5792
▁చేయబడ్డాయి	-5793
▁ఫుట్	-5794
▁బాక్	-5795
▁హెచ్చ	-5796
▁తద్వారా	-5797
▁1947	-5798
▁ప్రోగ్రామ	-5799
▁తెలుస్తుంది	-5800
ిని	-5801
▁రకం	-5802
ical	-5803
రియల్	-5804
▁తీసుకొ	-5805
లోయ	-5806
▁ధ్రు	-5807
శ్చాత్య	-5808
▁పనిచేసే	-5809
స్తాను	-5810
▁హాస్య	-5811
▁అడ్డు	-5812
▁ప్రకారము	-5813
▁ఒకప్రాథమిక	-5814
▁పేట	-5815
పేటలో	-5816
▁తాలూకా	-5817
రాశి	-5818
వెన్	-5819
▁అరణ	-5820
వెన్యూ	-5821
▁డొ	-5822
▁ఏర్పర	-5823
▁వివాద	-5824
▁ప్రత్యే	-5825
క్రి	-5826
▁సాహితీ	-5827
nt	-5828
▁శ్లో	-5829
▁సంవత్సరానికి	-5830
46	-5831
▁1991	-5832
▁కొబ్బ	-5833
▁జన్యు	-5834
▁కుటుంబానికి	-5835
▁6.	-5836
ర్షణ	-5837
కులుగా	-5838
▁అల్లా	-5839
▁క్రైస్త	-5840
ట్టం	-5841
▁సంబంధాలు	-5842
▁మూడో	-5843
రించుకు	-5844
▁కోట్లు	-5845
▁మార్గంలో	-5846
ందర్	-5847
▁ఫలిత	-5848
▁వినో	-5849
▁చేస్తే	-5850
▁రఘు	-5851
▁వహించిన	-5852
▁బాబా	-5853
▁అణ	-5854
▁నిర్ణయం	-5855
▁ఎరువులు	-5856
ర్వే	-5857
▁గది	-5858
క్కులు	-5859
▁శస్త్ర	-5860
▁పోర్చుగ	-5861
ఁడు	-5862
స్టిక్	-5863
వలె	-5864
▁ఐర్	-5865
▁కథాన	-5866
▁బంగ్లా	-5867
▁పొగాకు	-5868
దుపు	-5869
మూరు	-5870
▁ఖాళీ	-5871
భవన	-5872
▁సిస్ట	-5873
▁ప్రెసి	-5874
▁ఆశ్ర	-5875
▁తొమ్మిది	-5876
▁మరణించిన	-5877
▁జోన్	-5878
▁అనుభ	-5879
▁సౌకర్యాల	-5880
▁అవగాహన	-5881
▁ప్రాముఖ్యత	-5882
,.	-5883
ప్రీ	-5884
▁కాంగ్రె	-5885
▁కొన్నిసార్లు	-5886
▁కదా	-5887
▁ముగింపు	-5888
ించటానికి	-5889
87	-5890
త్సాహ	-5891
▁క్షీణ	-5892
▁వ్యవస్థను	-5893
▁వాడుక	-5894
▁హిమ	-5895
▁అక్షరాస్య	-5896
చల	-5897
వయ	-5898
ించగా	-5899
ట్టానికి	-5900
సాన్ని	-5901
చా	-5902
నియం	-5903
▁ఏలూరు	-5904
▁దర్శన	-5905
▁ఉంట	-5906
dis	-5907
▁వీధి	-5908
కూడా	-5909
ial	-5910
▁మంజ	-5911
ong	-5912
▁అభివ	-5913
క్సైడ్	-5914
▁చేసుకున్నాడు	-5915
▁వేష	-5916
▁విద్యార్థులకు	-5917
▁వనరులు	-5918
▁పనిచేస్తున్న	-5919
చేసుకు	-5920
▁హనుమంతు	-5921
so	-5922
ంపజే	-5923
సీపీ	-5924
▁నిరు	-5925
▁ఉద్యోగం	-5926
36	-5927
play	-5928
కారి	-5929
▁నిర్వాహ	-5930
ఎల్	-5931
▁రహస్య	-5932
▁గురించిన	-5933
code	-5934
ప్రసా	-5935
▁చంద్రబాబు	-5936
▁భువన	-5937
▁సమావేశంలో	-5938
ేయ	-5939
▁ఇటు	-5940
▁ద్రో	-5941
▁ఫిలి	-5942
▁ప్రకాశ	-5943
▁పాత్రను	-5944
ాలలోని	-5945
▁కనుగొన	-5946
ie	-5947
▁కేశ	-5948
▁వాళ్ళ	-5949
▁పాశ్చాత్య	-5950
▁చదర	-5951
ంచీ	-5952
నరీ	-5953
వాణి	-5954
▁వేయుట	-5955
▁భారతదేశంలోని	-5956
▁సముదాయ	-5957
▁బిడ్డ	-5958
▁జంక్షన్	-5959
▁వెండి	-5960
▁కోరారు	-5961
▁అంతర్గత	-5962
కారంలో	-5963
▁ఆచార్య	-5964
▁రంగా	-5965
ిస్తారు	-5966
▁కార్బన్	-5967
▁గ్రూప్	-5968
▁భూమిని	-5969
ంగ్స్	-5970
రులకు	-5971
ానిష్	-5972
▁ఎత్తైన	-5973
▁కప్	-5974
న్నింటి	-5975
కారాన్ని	-5976
▁అనుగుణంగా	-5977
ther	-5978
లలోని	-5979
▁నన్ను	-5980
▁విశాఖపట్నంలోను	-5981
▁పొల	-5982
▁విడ	-5983
▁సంరక్ష	-5984
▁ప్రయాణం	-5985
▁సమీపంలోని	-5986
▁అటువంటి	-5987
▁ఇర	-5988
ందారు	-5989
▁వ్యక్తులు	-5990
▁పాలనా	-5991
▁వాయువు	-5992
పడ్డాయి	-5993
స్ర	-5994
డ్లు	-5995
▁స్కో	-5996
▁అక్కడే	-5997
▁నక్షత్రం	-5998
▁రూపం	-5999
▁మాటలు	-6000
▁రాజవం	-6001
▁సముద్రం	-6002
▁తదు	-6003
ంద్రత	-6004
▁తాగునీటి	-6005
▁కలక	-6006
▁వేరే	-6007
▁సందేశ	-6008
లొ	-6009
▁స్థానాన్ని	-6010
▁ఇందుకు	-6011
గ్గా	-6012
▁స్ఫ	-6013
కేంద్ర	-6014
▁మించి	-6015
▁".	-6016
▁;	-6017
పుల	-6018
▁ఫౌ	-6019
కట్ట	-6020
▁హాజర	-6021
▁వనపర్తి	-6022
బెల్	-6023
▁నిమిష	-6024
▁స్థాపించబడింది	-6025
చున్నది	-6026
▁ఏర్పడు	-6027
▁ఫెడ	-6028
ప్తు	-6029
▁సింహ	-6030
▁ప్రశ్ని	-6031
పాక	-6032
పున	-6033
భూమి	-6034
విధ్య	-6035
▁పుస్తక	-6036
▁అయో	-6037
▁ఎదురు	-6038
క్రియ	-6039
ైతే	-6040
▁లేఖ	-6041
▁ఆశ్చ	-6042
▁ట్రి	-6043
▁డైరెక్టర్	-6044
ప్రభ	-6045
విన్	-6046
త్పత్తి	-6047
రాలి	-6048
▁పరంగా	-6049
▁చెందినది	-6050
▁రెవెన్యూ	-6051
▁ఉంచు	-6052
▁అందించారు	-6053
ass	-6054
త్తర	-6055
వేల	-6056
▁రంగం	-6057
▁తదుపరి	-6058
▁పనిచేసిన	-6059
38	-6060
▁అట్లా	-6061
▁ఫిర్యాదు	-6062
▁అబ్దు	-6063
▁http	-6064
▁కఠిన	-6065
▁సన్యా	-6066
త్తుల	-6067
▁సూచించారు	-6068
ధారిత	-6069
▁హోదా	-6070
▁ఎందుకు	-6071
ఖి	-6072
▁గోవి	-6073
▁సేవలను	-6074
▁విభాగంలో	-6075
▁కుండ	-6076
▁సమాజం	-6077
▁సభ్యుల	-6078
ాలన్న	-6079
▁ప్రసాద	-6080
జల	-6081
▁బట్ట	-6082
▁దేశీయ	-6083
▁శరీరం	-6084
మరి	-6085
సిం	-6086
▁రామచంద్ర	-6087
నాధ	-6088
▁శివుడు	-6089
▁సాయంత్రం	-6090
క్లో	-6091
త్యాల	-6092
▁బలహీన	-6093
▁సిద్ధాంతం	-6094
ధర్మ	-6095
యన్లు	-6096
▁భావన	-6097
▁వహించాడు	-6098
లకి	-6099
హాలు	-6100
పెట్టిన	-6101
ect	-6102
ల్లే	-6103
▁విఫల	-6104
▁న్యూయ	-6105
▁పుత్ర	-6106
▁తీసుకున్న	-6107
ack	-6108
ల్లోను	-6109
▁ప్రయత్నాలు	-6110
49	-6111
▁సమాచారాన్ని	-6112
ame	-6113
▁పేర్కొన	-6114
గర	-6115
▁tr	-6116
▁సాధన	-6117
▁పరిపాలన	-6118
▁అర్జునుడు	-6119
▁సంయోగ	-6120
▁దాకా	-6121
పోయినా	-6122
▁విభజన	-6123
▁ఎన్నికల్లో	-6124
రిట	-6125
▁కావ్య	-6126
▁విశిష్ట	-6127
▁అయ్యింది	-6128
▁ప్రత్యేకత	-6129
పిడి	-6130
▁అమృ	-6131
▁ప్రాంగ	-6132
▁స్పెయిన్	-6133
తుక	-6134
కరంగా	-6135
కుంది	-6136
▁గోపాల	-6137
ీర	-6138
విడ	-6139
నింగ్	-6140
ానికీ	-6141
▁నిర్మాణానికి	-6142
▁వెను	-6143
▁కొంతకాలం	-6144
▁ఇంట్లో	-6145
▁మైక్రో	-6146
style	-6147
▁అక్రమ	-6148
▁రవీ	-6149
▁భాషలు	-6150
▁రైతులు	-6151
మధ్య	-6152
▁దేవుడు	-6153
▁నటించాడు	-6154
▁ఖని	-6155
▁గ్రామాలను	-6156
నుని	-6157
▁సికి	-6158
చరిత్ర	-6159
పురంలోనూ	-6160
▁పరిమాణం	-6161
▁వైద్యుడు	-6162
ళ్లను	-6163
టిలో	-6164
▁చెల్లించ	-6165
',	-6166
▁le	-6167
▁అయ్యాయి	-6168
▁విస్తృతంగా	-6169
▁కత్తి	-6170
▁మృతి	-6171
▁అభివృద్ధికి	-6172
▁రష్య	-6173
నొ	-6174
నామ	-6175
▁యుగ	-6176
▁బెర్	-6177
▁సేకరణ	-6178
▁ఇచ్చాడు	-6179
▁మలయా	-6180
లీప	-6181
హెచ్	-6182
▁ఎడి	-6183
▁పోర్ట్	-6184
శిక్ష	-6185
▁కండ	-6186
▁కాదని	-6187
▁అధికారికంగా	-6188
కథ	-6189
వుడ్	-6190
▁300	-6191
▁1998	-6192
▁మహిళలు	-6193
▁పెట్టిన	-6194
▁విరి	-6195
▁పుట్టు	-6196
చర్ల	-6197
▁అరకు	-6198
▁రెండూ	-6199
▁బుక్	-6200
▁రేటు	-6201
▁పురపాలక	-6202
డన్	-6203
▁చేరిన	-6204
▁నిశ్చ	-6205
display	-6206
యాల	-6207
▁కలప	-6208
▁అంకి	-6209
▁ఉమ్మడి	-6210
tic	-6211
వేళ	-6212
▁అశో	-6213
▁పర్షి	-6214
శ్వర	-6215
▁సంకల	-6216
▁అనువద	-6217
▁విధి	-6218
▁ప్రచురించ	-6219
89	-6220
▁జాతులు	-6221
▁సెప్టెంబర్	-6222
▁ఆసి	-6223
ించుట	-6224
▁1930	-6225
▁కౌన్సిల్	-6226
▁రాష్ట్రపతి	-6227
స్తుల	-6228
▁వ్యాప్తంగా	-6229
వ్యవస్థ	-6230
టిట్యూట్	-6231
▁సిద్ధి	-6232
▁వేర్వేరు	-6233
▁తమకు	-6234
▁అప్పగ	-6235
▁కల్పించ	-6236
యాన	-6237
▁కుమార	-6238
▁గొల్ల	-6239
▁చిత్రానికి	-6240
కారుల	-6241
▁వైభవ	-6242
▁180	-6243
టాన్ని	-6244
▁2017,	-6245
ించబడి	-6246
▁వాళ్ళు	-6247
▁జాబితాలో	-6248
ార్మిక	-6249
ధులను	-6250
▁మాట్లాడే	-6251
44	-6252
▁బృహ	-6253
▁క్రొత్త	-6254
▁వ్యాపారం	-6255
▁ప్రాతినిధ్యం	-6256
కొను	-6257
▁కూర్చు	-6258
▁సుప్రీ	-6259
▁వం	-6260
▁ఇటీవ	-6261
▁చేయుట	-6262
ట్లయితే	-6263
ేమీ	-6264
▁దర	-6265
▁వాహన	-6266
ణలు	-6267
▁లాగ	-6268
▁అంటు	-6269
▁నమ్మకం	-6270
సెర్	-6271
▁రాజధానిగా	-6272
▁అరెస్టు	-6273
▁ఐస్	-6274
▁గ్రీన్	-6275
▁క్షే	-6276
ించడంతో	-6277
▁విస్తరణ	-6278
▁మైదాన	-6279
▁ఉందిసమీప	-6280
▁మెంట్	-6281
▁అమ్మాయి	-6282
▁కాలానికి	-6283
▁తెలిసి	-6284
▁న్యూయార్క్	-6285
▁ఆందోళన	-6286
▁సినిమాల్లో	-6287
ాడ	-6288
▁బిందు	-6289
▁అంతేకాక	-6290
▁అయ్యాడు	-6291
▁దగ్గరగా	-6292
▁ఇసుక	-6293
మితి	-6294
▁బ్రిటిషు	-6295
1-	-6296
మెంట	-6297
▁వెల	-6298
▁కొంచ	-6299
▁పేర్కొంది	-6300
రియం	-6301
▁లిపి	-6302
యిక	-6303
జాతి	-6304
హారం	-6305
▁4,	-6306
▁దేశంగా	-6307
ire	-6308
▁జగన్	-6309
▁ప్రవహ	-6310
ave	-6311
క్షేత్ర	-6312
▁కొబ్బరి	-6313
జని	-6314
ారే	-6315
▁తయారుచే	-6316
▁కుటుంబంలో	-6317
per	-6318
▁అక్షర	-6319
▁చదరపు	-6320
▁పరిశోధనలు	-6321
రన్	-6322
▁ఇవ	-6323
ర్రు	-6324
▁స్తంభ	-6325
▁కావడంతో	-6326
డయ్యాడు	-6327
▁42	-6328
▁185	-6329
▁ప్రాంతాలను	-6330
▁ధో	-6331
▁షె	-6332
▁im	-6333
▁గద్వ	-6334
▁పెను	-6335
▁నాగార్జు	-6336
యని	-6337
జైన్	-6338
▁మాధ	-6339
▁విస్తరించ	-6340
▁చేసుకొని	-6341
▁తల్లిదండ్రులు	-6342
▁Ch	-6343
▁ఇబ	-6344
తుంటాయి	-6345
▁ఆవిర్భ	-6346
చ్చాడు	-6347
▁సాఫ్ట్	-6348
ముందు	-6349
▁విశేషం	-6350
ర్శి	-6351
వద్ద	-6352
▁రుద్ర	-6353
▁స్వర్ణ	-6354
▁1996	-6355
▁విస్తీర్ణం	-6356
▁అనకాపల్లిలోను	-6357
స్టన్	-6358
▁రాగి	-6359
▁భక్తుల	-6360
▁56	-6361
▁ఘో	-6362
▁మరిన్ని	-6363
మిత్ర	-6364
ెన్సీ	-6365
▁ఎప్పుడూ	-6366
▁మెడికల్	-6367
▁ప్రామాణిక	-6368
▁శ్రీనివాస	-6369
ight	-6370
▁ఆరో	-6371
▁అభ్యస	-6372
▁ప్రత్యర్థ	-6373
వస్తు	-6374
▁మూర్	-6375
గన్	-6376
▁వైష్ణ	-6377
▁నిజానికి	-6378
▁రాజీనామా	-6379
▁తప్పనిసరి	-6380
ానికే	-6381
▁sp	-6382
▁చూస్తే	-6383
▁నటించింది	-6384
ళ్లి	-6385
▁ధర్మా	-6386
ధికారి	-6387
▁సాధించి	-6388
▁ప్రధానమంత్రి	-6389
▁కంటి	-6390
▁విధానంలో	-6391
స్తో	-6392
ంపులు	-6393
▁ఉపరి	-6394
▁ట్యూ	-6395
▁విలీనం	-6396
▁అందువల్ల	-6397
▁తాజా	-6398
▁బోరుబావులు	-6399
one	-6400
ple	-6401
▁తూ	-6402
హాయి	-6403
▁ఉద్భవ	-6404
▁చేతిపంపులు	-6405
▁రక్	-6406
▁జీవితాన్ని	-6407
లిజ	-6408
▁వేదా	-6409
▁పర్యాట	-6410
భై	-6411
ఘ్	-6412
▁గోధు	-6413
ళ్వ	-6414
▁పరిశోధనా	-6415
▁రైల్వేస్టేషన్	-6416
మనే	-6417
▁ఏళ్ల	-6418
▁అంతటా	-6419
▁కలెక్టర్	-6420
▁భువనగిరి	-6421
▁మోట	-6422
▁బిల్	-6423
▁చెప్పే	-6424
▁సుబ్రహ్మ	-6425
▁గుజరాత్	-6426
▁వాడతారు	-6427
▁ప్రఖ్యాత	-6428
▁సౌకర్యాలేమీ	-6429
ge	-6430
▁అమర్చ	-6431
▁భారతదేశానికి	-6432
థు	-6433
చివే	-6434
▁చాళు	-6435
ఉంది	-6436
▁2013,	-6437
▁బాలిక	-6438
▁ఒలింపి	-6439
▁రూపొందించ	-6440
▁జ్వ	-6441
▁వారీ	-6442
▁వెళ్ళాడు	-6443
టిక	-6444
▁నాట్య	-6445
▁వయసులో	-6446
▁చిత్రీకరించ	-6447
▁కల్పి	-6448
▁వేడుక	-6449
▁గుర్తించిన	-6450
▁ఆకర్షణ	-6451
తాను	-6452
్యాప	-6453
▁వివరించ	-6454
ఫే	-6455
ath	-6456
యలు	-6457
▁తెగ	-6458
కాం	-6459
▁ట్రాన్స్	-6460
టూ	-6461
▁ఉస్	-6462
▁అరకులోయ	-6463
▁చెబుతారు	-6464
▁విద్యార్థుల	-6465
ted	-6466
▁ad	-6467
▁me	-6468
▁సమకూర్	-6469
స్థానంలో	-6470
▁లేన	-6471
▁నిర్దేశ	-6472
▁ప్రారంభించిన	-6473
తువు	-6474
▁ఫ్రీ	-6475
▁లభ్య	-6476
▁పోరాటం	-6477
సల	-6478
▁మోక్ష	-6479
▁ప్రవేశం	-6480
ెంటు	-6481
ృప్తి	-6482
▁అప్	-6483
ేశాడు	-6484
▁రాయల	-6485
displaystyle	-6486
88	-6487
భావం	-6488
▁ఆఫ్ఘ	-6489
▁మూలంగా	-6490
యమైన	-6491
బర్ట్	-6492
▁సమకాల	-6493
లక్ష్మి	-6494
▁త్యా	-6495
నీయమైన	-6496
▁అల్యూ	-6497
▁7.	-6498
▁ఉంటాడు	-6499
▁అందించే	-6500
డిలో	-6501
▁ప్రధాని	-6502
▁ప్రమాదం	-6503
బోయే	-6504
పించి	-6505
▁రసాయనిక	-6506
కంప	-6507
మూస	-6508
దుడు	-6509
▁చేసుకో	-6510
▁తిరి	-6511
▁సింహా	-6512
▁దౌ	-6513
▁పంజాబ్	-6514
▁ఛాంపియన్	-6515
▁భి	-6516
కిల్	-6517
కృతి	-6518
▁మాతృ	-6519
▁పరమాణు	-6520
పిరి	-6521
▁యస్	-6522
మూల	-6523
▁బొగ్గు	-6524
▁భే	-6525
▁వ్ర	-6526
▁డచ్	-6527
▁అనుకూల	-6528
▁చూడండి	-6529
▁ఒకప్పుడు	-6530
▁ఇంగ్లాండ్	-6531
్రం	-6532
ులైన	-6533
▁చిత్రాలలో	-6534
▁?	-6535
▁ne	-6536
▁సామర్థ్యం	-6537
▁శర్మ	-6538
▁స్టూ	-6539
▁గ్రంథం	-6540
▁దాదాపుగా	-6541
▁నిర్దిష్ట	-6542
▁పంటలు	-6543
ంతంగా	-6544
గును	-6545
▁బహుమ	-6546
▁ఈశాన్య	-6547
భ్య	-6548
▁భవనం	-6549
▁తీర్థ	-6550
▁వెళ్ళిన	-6551
▁వైవిధ్య	-6552
నాల్	-6553
▁ఏకీ	-6554
▁దరఖా	-6555
▁పోయిన	-6556
▁ప్రాచుర్యం	-6557
▁రంగారెడ్డి	-6558
▁అమి	-6559
▁వాన	-6560
▁అంట	-6561
పుత్ర	-6562
▁వాని	-6563
▁కుమారులు	-6564
▁కాగి	-6565
▁విన్న	-6566
ించుటకు	-6567
ొని	-6568
▁77	-6569
▁ఒత్తిడి	-6570
▁ఆడి	-6571
▁రాయ్	-6572
▁చేరింది	-6573
▁67	-6574
క్సి	-6575
▁ఏపీ	-6576
ళ్ళకు	-6577
షింగ్	-6578
▁అప్పట్లో	-6579
▁సుబ్బారావు	-6580
▁పేర్కొన్నాడు	-6581
▁విశ్వాసం	-6582
▁వాడి	-6583
▁ఆఫ్రిక	-6584
▁పరిణామ	-6585
బడుతోంది	-6586
▁తేలిక	-6587
▁వ్యవస్థలో	-6588
▁యాద	-6589
▁క్రియా	-6590
▁భావించారు	-6591
▁తోడ్	-6592
▁నిరసన	-6593
▁ఉండేవారు	-6594
▁సదా	-6595
క్తులు	-6596
జ్ఞానం	-6597
▁ఈస్ట్	-6598
▁ఆంజ	-6599
▁సద	-6600
▁కొలు	-6601
▁దృశ	-6602
▁అలవా	-6603
▁భాగాలు	-6604
42	-6605
▁ఢ	-6606
▁ఇరాన్	-6607
▁బిరుదు	-6608
▁వస్తాయి	-6609
▁సమీక్ష	-6610
▁నిర్ధార	-6611
టైన	-6612
సంస్థ	-6613
▁అన్వే	-6614
▁పార్టీకి	-6615
▁చేసుకుంది	-6616
▁పనిచేస్తుంది	-6617
ెలు	-6618
▁వాడే	-6619
▁అమ్ము	-6620
▁నాయకు	-6621
పురి	-6622
ాయుధ	-6623
ోగ్యం	-6624
▁ఉర్దూ	-6625
▁పదాన్ని	-6626
▁ఎడమ	-6627
ేవారి	-6628
▁గృహాల	-6629
ంజ్	-6630
ోద్యమ	-6631
గుణ	-6632
▁మణి	-6633
▁యూనివ	-6634
▁వారితో	-6635
▁స్పానిష్	-6636
▁పదాలు	-6637
ib	-6638
▁చదవ	-6639
▁కిందకు	-6640
▁చేయవచ్చు	-6641
▁85	-6642
ించలేదు	-6643
మన్నారు	-6644
▁బంగ్లాదేశ్	-6645
▁నీరుగ్రామంలో	-6646
▁వ్యవస్థాప	-6647
మద	-6648
▁చిన	-6649
▁నాశనం	-6650
▁స్పంది	-6651
▁తీసుకువచ్చ	-6652
▁his	-6653
డుతున్న	-6654
▁చేపట్టిన	-6655
▁కమ్యూనిస్టు	-6656
-19	-6657
▁పోయి	-6658
▁కూతురు	-6659
లేరు	-6660
▁one	-6661
▁శీతా	-6662
చార్యులు	-6663
తలో	-6664
సేన	-6665
▁హైదరాబాదులోను	-6666
▁సభ్యుడు	-6667
▁సముద్రమ	-6668
▁భాగాన్ని	-6669
▁ఇతి	-6670
స్తానని	-6671
▁గ్రేట్	-6672
▁సమ్మేళ	-6673
▁ఆహ్వాని	-6674
▁స్పష్టంగా	-6675
ట్లకు	-6676
ర్శిటీ	-6677
▁చేస్తోంది	-6678
▁మేక	-6679
డుతుంది	-6680
▁గూడూరు	-6681
▁జిల్లాలలో	-6682
బల్	-6683
వాయి	-6684
▁కక్ష్య	-6685
▁తీసుకె	-6686
ములతో	-6687
▁దృశ్య	-6688
▁ఆధారాలు	-6689
41	-6690
ార్ట్	-6691
▁బియ్యం	-6692
ah	-6693
▁కాళ	-6694
త్రాన్ని	-6695
ంబర్	-6696
క్యు	-6697
▁పరిగణి	-6698
▁సహాయంతో	-6699
ంగ్రామంలో	-6700
శ్వా	-6701
▁మాయ	-6702
ry	-6703
▁వెళ్ళే	-6704
▁సృ	-6705
▁సకల	-6706
▁విపరీ	-6707
మ్యం	-6708
ాలైన	-6709
▁వాదన	-6710
స్కా	-6711
▁దేవతలు	-6712
▁ప్రజలలో	-6713
▁సినిమాకు	-6714
కుంట	-6715
▁స్థాపించిన	-6716
తని	-6717
▁ఉపరితల	-6718
▁త్రవ్వ	-6719
▁డిసెంబర్	-6720
కళా	-6721
▁has	-6722
్రెడ్డి	-6723
▁సంతానం	-6724
▁విప్ల	-6725
వణ	-6726
రణి	-6727
▁అల్లు	-6728
orm	-6729
▁నిత్య	-6730
ర్రా	-6731
▁నాటకం	-6732
▁ఎగుమతి	-6733
▁మహారాజు	-6734
బాయి	-6735
▁ఆనాటి	-6736
▁సదుపాయ	-6737
▁విద్యాభ్యా	-6738
ణుని	-6739
స్థాయిలో	-6740
▁సుప్రీం	-6741
ue	-6742
ost	-6743
తతో	-6744
షియా	-6745
▁చోళ	-6746
▁వడ్డ	-6747
▁పాల్వ	-6748
పటి	-6749
జింగ్	-6750
▁అంశాలు	-6751
▁బావులు	-6752
▁అల్యూమిని	-6753
ూప	-6754
స్థులు	-6755
▁రాజుల	-6756
▁శతాబ్ది	-6757
▁సభలో	-6758
▁1994	-6759
▁విదేశాల	-6760
▁చేస్తాడు	-6761
▁సాహిత్యంలో	-6762
▁ప్రశా	-6763
▁నిలిపి	-6764
▁వెస్ట్	-6765
▁మరాఠ	-6766
▁ఉపయోగించారు	-6767
ెల	-6768
ూరా	-6769
▁నేత	-6770
దీర్ఘ	-6771
▁ఇటలీ	-6772
▁ఉంటూ	-6773
),	-6774
▁యాజ	-6775
▁ఘనంగా	-6776
వర్గ	-6777
▁చేరారు	-6778
లిలో	-6779
సేన్	-6780
▁దారితీసింది	-6781
▁మొదటిసారిగా	-6782
▁స్నాన	-6783
▁మెక్సిక	-6784
▁కప్ప	-6785
లలోనూ	-6786
▁1997	-6787
▁ఉండును	-6788
ించినట్లు	-6789
%.	-6790
▁అలె	-6791
▁థియేటర్	-6792
▁అనుసంధానం	-6793
▁వివరించారు	-6794
డక	-6795
▁విజయవంత	-6796
▁ఆర్య	-6797
▁బ్లూ	-6798
▁గంటలకు	-6799
▁అనుకూలంగా	-6800
▁మధ్యకాలంలో	-6801
▁పెరుగుతుంది	-6802
▁ఎవరు	-6803
▁ఉద్యాన	-6804
్యూటీ	-6805
▁కొరియా	-6806
ికో	-6807
గ్రి	-6808
▁సప్త	-6809
▁విజయవంతంగా	-6810
▁జాతుల	-6811
▁స్టూడియో	-6812
పణ	-6813
out	-6814
కొత్త	-6815
▁తానే	-6816
▁నిద్ర	-6817
500	-6818
▁లక్	-6819
▁నేర్	-6820
▁వంతెన	-6821
▁ఘా	-6822
▁అత్యుత్	-6823
పెట్టింది	-6824
▁1995	-6825
▁విము	-6826
▁కూర్చ	-6827
▁శ్రద్ధ	-6828
sh	-6829
▁ఎది	-6830
▁ఘటన	-6831
ళ్లకు	-6832
▁ఆధారిత	-6833
▁ఒకదాని	-6834
▁తీర్పు	-6835
▁రాముడు	-6836
▁మస్	-6837
ition	-6838
▁ఖై	-6839
టంటే	-6840
▁అనువాద	-6841
▁రెండింటి	-6842
▁మహాసముద్ర	-6843
▁సందర్భాలలో	-6844
నంద	-6845
▁గూర్	-6846
ానంతరం	-6847
ff	-6848
తాళ	-6849
▁ముహమ్మద్	-6850
▁కలవ	-6851
▁తాత	-6852
▁మధ్యా	-6853
▁ఇక్కడికి	-6854
▁సికింద్రా	-6855
ాంశ	-6856
▁మామూ	-6857
▁1989	-6858
▁సమావేశం	-6859
జ్ఞా	-6860
▁డిజి	-6861
▁రామాయణ	-6862
ణాత్మక	-6863
▁బెల్ల	-6864
▁నవంబర్	-6865
▁పోయింది	-6866
▁సుమారుగా	-6867
▁బలవ	-6868
▁అడిగా	-6869
▁మినహాయి	-6870
▁మరికొన్ని	-6871
▁చూపి	-6872
▁రూపొందించిన	-6873
▁ప్రత్యేకించి	-6874
విడ్	-6875
త్తిన	-6876
▁1992	-6877
▁ఓపెన్	-6878
▁టెస్ట్	-6879
▁నిరంతర	-6880
భాగాన్ని	-6881
▁అత్యు	-6882
▁అవకాశాలు	-6883
▁నున్న	-6884
▁95	-6885
స్పద	-6886
ించబడ	-6887
▁పరిష్కరించ	-6888
▁అటవీ	-6889
దేవుడు	-6890
▁కలకత్తా	-6891
▁దారు	-6892
▁బోస్	-6893
నవి	-6894
▁హర్	-6895
▁గ్రె	-6896
▁ప్రతా	-6897
▁రాజేంద్ర	-6898
▁భవిష్యత్తు	-6899
కోగ	-6900
▁52	-6901
▁ఏమీ	-6902
▁1948	-6903
▁పరిశీల	-6904
వేర్	-6905
▁నింది	-6906
ించుకుని	-6907
▁పరుగులు	-6908
లికా	-6909
▁వీటికి	-6910
▁ప్రదర్శనలు	-6911
▁భయం	-6912
▁దిశగా	-6913
▁దేశాల్లో	-6914
▁చేరుకుంది	-6915
▁కామారెడ్డి	-6916
టమే	-6917
▁ఆధీన	-6918
▁దత్త	-6919
▁రాఘవ	-6920
▁హెల్	-6921
▁69	-6922
▁కాథ	-6923
▁లోతు	-6924
▁ప్రసారం	-6925
డవైన	-6926
ction	-6927
కుంటే	-6928
▁ఆగష్టు	-6929
▁రూపకల్పన	-6930
▁అనార	-6931
▁ఎదుర్	-6932
▁విలువైన	-6933
▁ఉన్నాయని	-6934
ించుకున్నారు	-6935
ree	-6936
▁షిప్	-6937
▁నష్టం	-6938
▁ప్రదేశంలో	-6939
66	-6940
▁ఆకులు	-6941
▁వర్తి	-6942
▁సరిగా	-6943
▁వైరస్	-6944
▁అధ్యాప	-6945
లులో	-6946
▁సంభా	-6947
▁నృత్యం	-6948
▁శ్రీనివాస్	-6949
▁నిర్వహిస్తారు	-6950
పేటలోనూ	-6951
▁II	-6952
▁10.	-6953
ందన్నారు	-6954
విని	-6955
▁సాహ	-6956
▁కూరగాయలు	-6957
▁కళాకారులు	-6958
ముక	-6959
▁పీడ	-6960
వేశాల	-6961
ఫార్	-6962
▁ఏది	-6963
క్కిలి	-6964
▁కూటమి	-6965
▁పరస్ప	-6966
▁సాధించారు	-6967
▁విమానాశ్రయం	-6968
▁స్థాపించాడు	-6969
▁ధృ	-6970
▁నెలలో	-6971
▁మొదట్లో	-6972
▁ఋణ	-6973
▁నటన	-6974
▁సమూ	-6975
▁ఆధిక	-6976
▁టాప్	-6977
ల్లీ	-6978
ొచ్చు	-6979
▁వెళు	-6980
బెట్టి	-6981
▁రచించారు	-6982
డులో	-6983
▁మనస్సు	-6984
▁పాల్వంచ	-6985
▁un	-6986
క్ష్	-6987
జేపీ	-6988
▁సగం	-6989
▁మూసి	-6990
▁హాని	-6991
▁ఆకర్షి	-6992
▁పిల్లలకు	-6993
షులు	-6994
▁కృత	-6995
▁ఆత్మక	-6996
▁incl	-6997
చిత్రం	-6998
▁నిరూప	-6999
▁టోర్	-7000
▁అయ్యే	-7001
▁విద్వాం	-7002
▁నగరంలోని	-7003
▁పోలిస్తే	-7004
▁అల్యూమినియం	-7005
▁రష్యన్	-7006
▁సుదీర్ఘ	-7007
▁చేసేవారు	-7008
ara	-7009
opul	-7010
▁5310	-7011
▁ఉపాధి	-7012
▁చక్కగా	-7013
ందరో	-7014
▁గులా	-7015
▁పేరిట	-7016
▁తెచ్చి	-7017
▁పశ్చిమాన	-7018
▁సింధు	-7019
▁మహాత్మా	-7020
▁ఐర్లాండ్	-7021
ంగే	-7022
▁చోట	-7023
ప్పటికి	-7024
▁ఆక్సి	-7025
200	-7026
డ్జ్	-7027
▁బుద్ధి	-7028
డుగా	-7029
▁రుచి	-7030
▁సమానంగా	-7031
చల్	-7032
రిన్	-7033
▁కలుగ	-7034
▁లోపలి	-7035
▁వృత్తులు	-7036
మీయ	-7037
▁ధై	-7038
టాన్	-7039
ణ్ణి	-7040
▁వంతు	-7041
ట్లే	-7042
▁జగ్గ	-7043
▁దీనితో	-7044
▁మీటర్లు	-7045
▁can	-7046
▁పెంప	-7047
నాత్మక	-7048
▁పండ్లు	-7049
▁అక్టోబర్	-7050
రులను	-7051
▁పునః	-7052
▁ఎత్తులో	-7053
▁పాల్గొన	-7054
▁వస్తువులను	-7055
ఫిక	-7056
▁1940	-7057
▁ఆటగా	-7058
వాదులు	-7059
వారిని	-7060
▁నెదర్	-7061
▁మొదలైంది	-7062
▁యూనివర్శిటీ	-7063
ely	-7064
▁మాల్	-7065
▁పర్యటన	-7066
▁వస్తువుల	-7067
▁కరు	-7068
▁గంధ	-7069
▁సమయానికి	-7070
▁ఉచిత	-7071
▁రూపాయల	-7072
▁నిర్మించాడు	-7073
నాగ	-7074
విల్	-7075
▁బల్	-7076
▁లాటిన్	-7077
▁ఐదుగురు	-7078
▁సినిమాలలో	-7079
▁కన్ను	-7080
▁మరీ	-7081
▁కరి	-7082
▁హైదరాబాదులో	-7083
యుగ	-7084
ాగో	-7085
▁మెడ	-7086
టికల్	-7087
▁ఫోటో	-7088
▁వివే	-7089
సహ	-7090
క్రా	-7091
వల్లి	-7092
▁దానితో	-7093
▁వ్యాప్తి	-7094
▁స్థితిలో	-7095
కరించిన	-7096
▁పరిషత్	-7097
▁మసీ	-7098
▁లలి	-7099
▁నాగర్	-7100
▁రాశారు	-7101
▁నడుపు	-7102
▁ఆయ	-7103
టీన్	-7104
▁వృద్ధ	-7105
జిద్	-7106
▁వర్క్	-7107
▁నిర్మూ	-7108
▁9.	-7109
▁హామీ	-7110
▁తెలిపింది	-7111
తొ	-7112
తరం	-7113
▁షేక్	-7114
▁నుంచే	-7115
▁వెడల్	-7116
▁వివా	-7117
▁సాగి	-7118
▁రాయల్	-7119
▁ప్రవర్తన	-7120
▁భక్తులకు	-7121
▁సమస్యలను	-7122
▁హెక్టారులు	-7123
▁రావడం	-7124
▁పిలుపు	-7125
▁నాటకాలు	-7126
▁లభించిన	-7127
రేఖ	-7128
▁41	-7129
cc	-7130
ధర్	-7131
▁చము	-7132
▁శరణ	-7133
కూడదు	-7134
▁ముస్లింలు	-7135
జిల్లా	-7136
▁వాసు	-7137
▁శాన్	-7138
▁శత్రు	-7139
▁స్థాని	-7140
▁పుస్తకాల	-7141
▁8.	-7142
▁పాటుగా	-7143
▁ప్రపంచం	-7144
▁5,	-7145
▁120	-7146
▁హింస	-7147
ex	-7148
దార	-7149
▁తరహా	-7150
▁చేస్తు	-7151
▁నొప్పి	-7152
▁హక్కుల	-7153
▁అరేబియా	-7154
గ్న	-7155
ష్యు	-7156
▁పవర్	-7157
ద్దీన్	-7158
మ్మని	-7159
▁పడిన	-7160
▁ప్రాంతంలోని	-7161
పూరు	-7162
▁పార్వతీ	-7163
▁వాటా	-7164
పడ్డాడు	-7165
▁పరిశ్రమలు	-7166
▁నిర్వహించే	-7167
▁యుద్ధానికి	-7168
▁కర్ర	-7169
▁శాశ్వత	-7170
స్తున్నాడు	-7171
▁అత్యుత్తమ	-7172
▁వాటర్	-7173
▁నారాయణ్	-7174
ood	-7175
rig	-7176
▁జస్టి	-7177
▁వెంకటా	-7178
▁రచయితలు	-7179
▁సమాజంలో	-7180
▁గుర్తించి	-7181
డీలు	-7182
ద్దులు	-7183
▁కాపాడు	-7184
▁సృష్టించ	-7185
▁St	-7186
▁Th	-7187
▁డేటా	-7188
▁పాల్గొని	-7189
▁43	-7190
▁వినాయ	-7191
స్వామ్య	-7192
▁విధానాలు	-7193
▁ఆదర్శ	-7194
▁భై	-7195
గ్రహం	-7196
▁సీతా	-7197
▁త్వరగా	-7198
83	-7199
▁కోడ	-7200
▁డయా	-7201
ంబియా	-7202
▁బహిష్	-7203
ణే	-7204
ేజీ	-7205
▁నౌక	-7206
రుగురు	-7207
▁నెలకొల్	-7208
హత్య	-7209
పించారు	-7210
▁చాళుక్య	-7211
బాల	-7212
ఫ్రికా	-7213
▁సంవత్సరాలలో	-7214
▁వ్యాఖ్యా	-7215
▁నం	-7216
బెర్	-7217
▁అందించిన	-7218
కత	-7219
జిన	-7220
నెల	-7221
▁బీజేపీ	-7222
చక్ర	-7223
▁కొమ్మ	-7224
▁నాయకత్వం	-7225
ust	-7226
▁వెర్	-7227
పెట్టారు	-7228
▁ప్రతినిధి	-7229
oug	-7230
▁శ్రమ	-7231
▁విరమణ	-7232
టప్పుడు	-7233
▁కొద్దిగా	-7234
మహా	-7235
సాగర్	-7236
▁యందు	-7237
చికిత్స	-7238
75	-7239
▁కట	-7240
లాగా	-7241
▁పుల్ల	-7242
ద్ధం	-7243
▁ఆస్పత్రి	-7244
▁లొ	-7245
▁మారిన	-7246
య్యింది	-7247
▁అక్షరాస్యత	-7248
▁సరఫరాగ్రామంలో	-7249
▁ఒంట	-7250
▁ఎక్కి	-7251
▁జరిపిన	-7252
▁అందరికీ	-7253
▁బహ	-7254
త్సా	-7255
▁ఊరు	-7256
▁అడిగాడు	-7257
▁రంగస్థల	-7258
ట్న	-7259
స్థాప	-7260
పనిషత్తు	-7261
▁దక్షిణాన	-7262
ep	-7263
ult	-7264
దూర	-7265
▁సెం	-7266
▁ఆర్కి	-7267
▁ఆశ్చర్య	-7268
టెక్	-7269
▁జలా	-7270
▁సతీ	-7271
చిలీప	-7272
▁గాజు	-7273
▁నిధులు	-7274
▁అజ	-7275
▁భోజన	-7276
దళ	-7277
▁ఘంట	-7278
▁గణపతి	-7279
▁రవీంద్ర	-7280
కూల	-7281
▁దళి	-7282
▁దక్క	-7283
▁కొనసాగి	-7284
కుడి	-7285
పరేషన్	-7286
▁నల	-7287
▁తగ్	-7288
▁పిలువబడే	-7289
▁లభించాయి	-7290
▁గుర్తిస్తూ	-7291
▁థా	-7292
లుకు	-7293
డ్డున	-7294
▁అతన్ని	-7295
▁స్ట్రా	-7296
▁భోజ	-7297
▁నాల్	-7298
▁అత్యున్నత	-7299
పాది	-7300
కోవటం	-7301
▁సంతకం	-7302
▁ఎన్టీఆర్	-7303
▁హనుమకొండ	-7304
▁కలా	-7305
▁ఇన్స్	-7306
మాట	-7307
యంతి	-7308
ంగోలు	-7309
▁జ్ఞాప	-7310
ual	-7311
und	-7312
▁any	-7313
భాగంలో	-7314
▁అనునది	-7315
▁విజయవంతమైన	-7316
▁అందుకున్నారు	-7317
!.	-7318
▁నాయకత్వంలో	-7319
పట్ల	-7320
▁400	-7321
▁also	-7322
▁స్థలం	-7323
▁ప్రసంగ	-7324
▁పద్ధతులు	-7325
▁బాగు	-7326
▁నివార	-7327
▁జంతువుల	-7328
▁రాష్ట్రాలు	-7329
చెర్	-7330
దారుల	-7331
్రేడ్	-7332
▁సుయోధ	-7333
▁నగరాన్ని	-7334
్వాస	-7335
▁వర్త	-7336
▁చైతన్య	-7337
దగ్గ	-7338
యస్కాంత	-7339
▁పరిస్థితులు	-7340
కాన	-7341
ికే	-7342
▁శూ	-7343
నుడి	-7344
కార్య	-7345
▁నందు	-7346
▁శంఖ	-7347
▁గ్రంధ	-7348
▁చదివి	-7349
▁పిండి	-7350
aster	-7351
▁ఇందిరా	-7352
▁పరీక్షలు	-7353
ru	-7354
వాసం	-7355
▁11.	-7356
▁గుత్	-7357
▁ఊరే	-7358
▁నివారణ	-7359
▁504	-7360
▁పొడవైన	-7361
▁పోస్టు	-7362
▁లక్ష్యం	-7363
యంతో	-7364
▁దిగ	-7365
జేషన్	-7366
్రీట్	-7367
▁ఖగోళ	-7368
▁చేతులు	-7369
▁జనసంఖ్య	-7370
▁ఇంగ్లీష్	-7371
తున్నది	-7372
▁చెట్లు	-7373
▁గ్రంథాలయ	-7374
ft	-7375
మానియా	-7376
▁కోరుకు	-7377
ేత	-7378
ail	-7379
కటి	-7380
దిద్ద	-7381
▁సంభాషణ	-7382
ఃఖ	-7383
సిల్	-7384
▁ప్రదర్శి	-7385
తాయని	-7386
త్వము	-7387
▁ఆదరణ	-7388
▁అనుసంధాని	-7389
▁తలె	-7390
▁నిమ్మ	-7391
చున్నారు	-7392
నిస్తాన్	-7393
▁దండయాత్ర	-7394
గీ	-7395
▁పూర్వీ	-7396
గాక	-7397
▁మెజ	-7398
▁2016,	-7399
▁చక్కెర	-7400
▁సిరీస్	-7401
▁సముద్రతీ	-7402
▁శక్తివంతమైన	-7403
▁నివసిస్తున్నారు	-7404
స్టో	-7405
▁ఫ్ర	-7406
ర్వేద	-7407
▁పునా	-7408
▁పాత్రలో	-7409
▁ab	-7410
్రహీ	-7411
▁రంప	-7412
▁హ్యూ	-7413
డాన్	-7414
వియా	-7415
▁స్వరూ	-7416
▁అక్బరు	-7417
▁నియా	-7418
ఠం	-7419
రమైన	-7420
▁వజ్ర	-7421
▁ఉండాలని	-7422
▁శాస్త్రవేత్తలు	-7423
ide	-7424
▁జగి	-7425
▁1000	-7426
▁చేపట్టి	-7427
▁ఎగ్	-7428
మాన్య	-7429
▁జిల్లాలు	-7430
ber	-7431
▁ఫిన్	-7432
▁మల్లి	-7433
▁వైభవంగా	-7434
▁man	-7435
▁క్వి	-7436
భిప్రా	-7437
▁రచించాడు	-7438
స్తున్నట్లు	-7439
▁కాపాడ	-7440
▁జిల్లాల	-7441
కీర్	-7442
నేట్	-7443
బ్లి	-7444
▁ట్	-7445
▁బాణ	-7446
▁మేఘ	-7447
▁సంబ	-7448
▁ముంద	-7449
▁ఒప్పు	-7450
▁స్థాయికి	-7451
▁చిత్రాన్ని	-7452
▁నిర్మించబడింది	-7453
▁ఆఫీ	-7454
▁జమీ	-7455
శేఖర్	-7456
▁పనికి	-7457
▁పరిషత్తు	-7458
▁నాగార్జున	-7459
▁సుప్రసిద్ధ	-7460
టికీ	-7461
బ్రా	-7462
మున్న	-7463
▁సుల్తాన్	-7464
డియన్	-7465
▁మాడు	-7466
▁సహకారంతో	-7467
ome	-7468
▁పడ్డ	-7469
▁సెర్	-7470
బ్బులు	-7471
▁అనేవి	-7472
ంచాలని	-7473
▁తట్టు	-7474
▁రోడ్డుతో	-7475
▁1952	-7476
చేవారు	-7477
▁కుక్క	-7478
మనీ	-7479
▁భుజ	-7480
▁నిర్మాణంలో	-7481
ాక	-7482
▁కీర్	-7483
▁సందే	-7484
ట్టుగా	-7485
▁నవాబు	-7486
▁మోహన్	-7487
▁రంగులో	-7488
▁ఉత్సవాలు	-7489
జిన్	-7490
స్యం	-7491
▁అరి	-7492
▁అన్య	-7493
▁తిరుమ	-7494
▁అద్భుతమైన	-7495
బై	-7496
లెట్	-7497
కోవటానికి	-7498
▁పద్ధతిని	-7499
▁పండ	-7500
▁ప్రారంభమైన	-7501
able	-7502
▁ఎండ	-7503
గృహాలు	-7504
▁ఆస్తి	-7505
▁పాక్ష	-7506
▁మౌలిక	-7507
▁హోటల్	-7508
▁పక్కన	-7509
▁సమగ్ర	-7510
61	-7511
▁రాచ	-7512
▁తీరు	-7513
▁సాయం	-7514
▁అందరు	-7515
▁చేయటం	-7516
▁ధరించి	-7517
▁సులభంగా	-7518
▁ముఖ్యమైనవి	-7519
▁వుండి	-7520
▁నిర్మల్	-7521
ph	-7522
▁బండ	-7523
▁వుంటాయి	-7524
ంగిక	-7525
▁ప్రయోజ	-7526
▁ముర	-7527
▁శారీ	-7528
▁పొరుగు	-7529
▁సదస్సు	-7530
▁గుడివాడ	-7531
డ్జ	-7532
▁524	-7533
▁ఏదే	-7534
▁సంవత్సరములో	-7535
▁అచ	-7536
▁పంచా	-7537
▁శీర్	-7538
▁ఆఫ్రికన్	-7539
▁ప్రధానమైన	-7540
▁రిజిస్ట్ర	-7541
ంకా	-7542
▁స్పి	-7543
▁కుప్ప	-7544
▁బాయిల	-7545
▁కొంచెం	-7546
▁శ్రీమతి	-7547
▁మాదిరిగా	-7548
కెట్	-7549
▁అదుపు	-7550
▁వైశాల్యం	-7551
▁వ్యవసాయా	-7552
▁కోరి	-7553
▁వీరిని	-7554
▁కమిషనర్	-7555
▁హిందువులు	-7556
▁బంధు	-7557
▁నేర్చు	-7558
▁per	-7559
▁ఇరవై	-7560
▁మాండ	-7561
▁ఎన్నికలు	-7562
▁పడుతుంది	-7563
▁క్యాన్సర్	-7564
ట్లలో	-7565
▁మంజూరు	-7566
▁కాంగ్రెసు	-7567
▁తీసుకున్నారు	-7568
లేఖ	-7569
స్తూనే	-7570
భరణ	-7571
▁కావచ్చు	-7572
▁సీతారామ	-7573
హై	-7574
▁రస	-7575
▁డ్రా	-7576
▁ధ్యా	-7577
▁సమర్ధ	-7578
▁కొట్టి	-7579
are	-7580
▁ro	-7581
▁అవకా	-7582
▁చెపు	-7583
▁మిల్	-7584
▁స్మార	-7585
▁కార్తీ	-7586
▁పెరిగిన	-7587
స్వతి	-7588
▁విస్తృత	-7589
▁జంతువులు	-7590
▁మరు	-7591
▁వెడల్పు	-7592
▁స్థాపించి	-7593
▁i	-7594
తమై	-7595
▁ఉదయ	-7596
▁సరా	-7597
ించును	-7598
▁కాలేజ్	-7599
▁మెట్రో	-7600
▁నాగేశ్వరరావు	-7601
▁ఏట	-7602
▁రామ్	-7603
▁దక్కి	-7604
▁అహ్మ	-7605
నాటికి	-7606
కొన్నాడు	-7607
ించుకొని	-7608
▁మండలంతో	-7609
రాని	-7610
▁తాడి	-7611
▁బీసీ	-7612
▁వారసత్వ	-7613
▁చేసుకునే	-7614
▁రూపా	-7615
క్రమాన్ని	-7616
ంబో	-7617
▁శంకర్	-7618
▁ఇబ్రహీ	-7619
▁మతపరమైన	-7620
▁వహించారు	-7621
▁అధ్యక్షుడిగా	-7622
68	-7623
భీ	-7624
జేశారు	-7625
▁ఎకరాల	-7626
డాలు	-7627
నైనా	-7628
▁సమ్మ	-7629
▁నిలువ	-7630
tionary	-7631
▁స్వర్గ	-7632
▁డిజిటల్	-7633
▁మంత్రిగా	-7634
▁ఫిల్మ్	-7635
▁వికీపీ	-7636
ంపబడింది	-7637
▁హృదయ	-7638
▁మచిలీప	-7639
▁బార	-7640
▁బాహ్య	-7641
లాడు	-7642
▁మొఘల్	-7643
టిస్	-7644
▁Wik	-7645
▁పదే	-7646
▁శిథి	-7647
▁ప్రవహి	-7648
▁విరుద్ధ	-7649
పూజ	-7650
▁దంత	-7651
ాన్యం	-7652
▁వ్యవహరి	-7653
మెన్	-7654
▁అరటి	-7655
▁నర్స	-7656
డవరంలో	-7657
▁ఎవరైనా	-7658
▁జరుగుతాయి	-7659
▁దేవర	-7660
▁ఇన్ని	-7661
▁An	-7662
యోగం	-7663
▁కమ్మ	-7664
▁తత్	-7665
▁కవులు	-7666
ేశ్వరస్వామి	-7667
చరణ	-7668
▁బెంగు	-7669
▁ఉపయోగించిన	-7670
▁శాస్త్రజ్ఞ	-7671
▁ఎన్నికైనారు	-7672
▁ప్రభుత్వాన్ని	-7673
ere	-7674
టుకు	-7675
యింగ్	-7676
▁గ్లో	-7677
▁శివా	-7678
▁వృత్త	-7679
▁ప్రేరణ	-7680
▁రాష్ట్రానికి	-7681
కౌ	-7682
ముగ	-7683
▁నోబెల్	-7684
▁ఆరుగురు	-7685
-20	-7686
ాయో	-7687
▁శోభ	-7688
▁ట్రై	-7689
▁కర్మా	-7690
▁టన్నుల	-7691
చెరువు	-7692
స్తున్నా	-7693
▁గ్రంథాలు	-7694
రవే	-7695
పురుష	-7696
▁లాస్	-7697
▁తిమ్మ	-7698
▁లెక్కి	-7699
▁అరకులోయలోను	-7700
▁సత్యా	-7701
▁అందమైన	-7702
▁54	-7703
గాలు	-7704
టీఎం	-7705
▁అంక	-7706
▁have	-7707
▁ఫ్లా	-7708
▁మైసూరు	-7709
▁పట్టణంలో	-7710
62	-7711
డిద	-7712
▁దాఖ	-7713
కాండ	-7714
▁చమురు	-7715
ater	-7716
▁ఎర్	-7717
▁శివుని	-7718
▁మొత్తంలో	-7719
గూ	-7720
▁రాక్	-7721
▁దేవుని	-7722
▁బస్	-7723
తులుగా	-7724
ములుగా	-7725
▁అనుసంధానమై	-7726
▁ప్రాజెక్ట్	-7727
నుంది	-7728
▁పాస్	-7729
▁మార్గదర్శ	-7730
ధిపతి	-7731
భిషేక	-7732
▁ఆర్మేనియా	-7733
కుం	-7734
▁ఆద	-7735
▁ఖండి	-7736
▁పురుగు	-7737
▁విస్	-7738
▁నిర్బంధ	-7739
▁ఆలయానికి	-7740
▁రాష్ట్రములోని	-7741
ంగో	-7742
▁గుండ	-7743
కరించాడు	-7744
▁జస్టిస్	-7745
▁ఇప్పటికే	-7746
లిన	-7747
▁పల్	-7748
▁cont	-7749
▁బెంగాలీ	-7750
▁గణనీయమైన	-7751
▁అంతేకాకుండా	-7752
▁యంత	-7753
▁ఎడారి	-7754
ok	-7755
▁రీసెర్	-7756
▁మరల	-7757
▁1920	-7758
పుట్టు	-7759
ెడి	-7760
▁సవ	-7761
ళాలు	-7762
కుమారి	-7763
▁ఇవ్వడం	-7764
▁ఎంచుకు	-7765
▁పనిచేసి	-7766
▁పరిశోధకులు	-7767
▁79	-7768
▁సంగ్రహ	-7769
▁ఆరాధ	-7770
▁తాండ	-7771
స్ట్రీ	-7772
▁విటమి	-7773
▁రాజ్యాన్ని	-7774
రీలు	-7775
▁వేళ	-7776
▁పెసర	-7777
తెలంగా	-7778
స్తుంటాయి	-7779
ప్ల	-7780
▁సౌత్	-7781
▁కవితా	-7782
ేవ్	-7783
ates	-7784
శేఖర	-7785
▁కెమెరా	-7786
బియన్	-7787
్రియా	-7788
▁ప్రిన్సి	-7789
సల్	-7790
రాదు	-7791
▁యాగ	-7792
▁వీజీ	-7793
▁శ్వాస	-7794
▁సామెత	-7795
▁దెబ్బతి	-7796
▁మధ్యాహ్	-7797
▁వడ	-7798
▁కలగ	-7799
▁ఖరీ	-7800
▁మహాన	-7801
▁స్క్	-7802
▁అట్లాంటి	-7803
▁ఆంగ్లంలో	-7804
▁మేన	-7805
పాలకు	-7806
▁గూర్చి	-7807
▁శ్రీరామ	-7808
సమా	-7809
▁64	-7810
▁షూ	-7811
సార్	-7812
విధాన	-7813
▁కారణాల	-7814
డ్యు	-7815
▁wor	-7816
▁నమోద	-7817
▁శంకర	-7818
▁భాషను	-7819
▁సాక్ష	-7820
▁అన్నమయ్య	-7821
▁సముద్రమట్టానికి	-7822
amu	-7823
టము	-7824
రిలో	-7825
తుడైన	-7826
▁భగవంతు	-7827
▁సంస్థను	-7828
▁వీజీటీఎం	-7829
ఎఫ్	-7830
గుడి	-7831
▁ఇను	-7832
▁రిజ	-7833
▁కలయిక	-7834
▁సమస్త	-7835
▁విజయాన్ని	-7836
▁నెదర్లాండ్	-7837
▁ఖనిజ	-7838
▁స్తో	-7839
▁బ్య	-7840
▁దీక్ష	-7841
▁అగ్రహ	-7842
▁నమ్ము	-7843
▁పొద్దు	-7844
ాద	-7845
లిథి	-7846
▁ఉప్ప	-7847
▁వెలుపల	-7848
▁భావించి	-7849
▁చేయటానికి	-7850
▁99	-7851
▁వికీ	-7852
▁మూర్తి	-7853
▁ఇస్తుంది	-7854
చర్య	-7855
▁	-7856
్	-7857
ి	-7858
ా	-7859
ర	-7860
ు	-7861
న	-7862
ం	-7863
ల	-7864
క	-7865
మ	-7866
ప	-7867
వ	-7868
త	-7869
స	-7870
ద	-7871
య	-7872
ో	-7873
గ	-7874
.	-7875
డ	-7876
ట	-7877
ే	-7878
చ	-7879
ీ	-7880
,	-7881
ె	-7882
బ	-7883
ూ	-7884
జ	-7885
అ	-7886
శ	-7887
ఉ	-7888
ై	-7889
ష	-7890
ధ	-7891
హ	-7892
ొ	-7893
ణ	-7894
ఆ	-7895
భ	-7896
1	-7897
0	-7898
థ	-7899
ఇ	-7900
ఫ	-7901
ళ	-7902
5	-7903
2	-7904
e	-7905
ఎ	-7906
a	-7907
ఈ	-7908
ృ	-7909
ఖ	-7910
ఒ	-7911
t	-7912
i	-7913
ౌ	-7914
9	-7915
n	-7916
o	-7917
r	-7918
s	-7919
3	-7920
-	-7921
4	-7922
7	-7923
8	-7924
ఏ	-7925
6	-7926
ఠ	-7927
"	-7928
l	-7929
h	-7930
d	-7931
:	-7932
c	-7933
u	-7934
m	-7935
ఘ	-7936
p	-7937
/	-7938
f	-7939
g	-7940
y	-7941
;	-7942
b	-7943
'	-7944
ఐ	-7945
w	-7946
ఓ	-7947
v	-7948
·	-7949
A	-7950
S	-7951
k	-7952
)	-7953
C	-7954
ఔ	-7955
ఞ	-7956
I	-7957
ఛ	-7958
M	-7959
%	-7960
T	-7961
P	-7962
!	-7963
|	-7964
D	-7965
ఊ	-7966
B	-7967
(	-7968
=	-7969
ఢ	-7970
’	-7971
N	-7972
‘	-7973
E	-7974
R	-7975
H	-7976
U	-7977
?	-7978
–	-7979
L	-7980
•	-7981
x	-7982
F	-7983
O	-7984
W	-7985
G	-7986
ః	-7987
V	-7988
j	-7989
ఋ	-7990
K	-7991
}	-7992
{	-7993
ఁ	-7994
°	-7995
●	-7996
