<unk>	0
<s>	0
</s>	0
.	-2.72911
,	-3.38604
▁	-3.8447
亥	-4.60896
▁佅伭	-4.83307
▁什	-4.85479
仓	-4.87582
▁仢俷佳	-5.03787
亶	-5.07114
亰	-5.07972
▁伊	-5.10343
仅	-5.12912
▁亲仇	-5.13263
▁仿亵	-5.20808
亚	-5.21106
▁偙亮亥	-5.27447
二	-5.31402
▁互	-5.32018
亾	-5.33218
▁10	-5.37068
▁亽	-5.49343
亡	-5.49627
▁仿亵亥	-5.5428
予	-5.59747
▁亖	-5.6497
▁佋仦佌	-5.68484
▁5	-5.70182
争	-5.76745
仌	-5.78071
▁伡傢	-5.84326
余	-5.89393
▁亇予	-5.90167
亜	-5.91064
▁亓伊亃	-5.91436
亳	-5.91581
什	-6.00591
亭	-6.0257
仍	-6.07624
▁仩仪	-6.07982
仇	-6.10323
▁仐	-6.13974
佋	-6.15938
▁佰亣	-6.16161
仦	-6.16597
亃	-6.18398
仅亰	-6.19748
事	-6.20198
亏	-6.23852
亣	-6.23961
▁会予傲	-6.28378
亱	-6.28676
▁予	-6.3071
伙	-6.31163
仠	-6.31592
-	-6.33614
▁佸位伭二	-6.36275
▁亍倩	-6.3649
▁亂	-6.37392
:	-6.38675
亞	-6.40372
▁估侒	-6.41478
亢	-6.42637
▁予傜俉仅	-6.43175
企	-6.43729
仐	-6.46228
▁"	-6.47293
▁仌	-6.48171
侻	-6.48412
▁伸傘俉仅	-6.48536
伭	-6.488
亩	-6.49604
伻	-6.50773
▁亥	-6.52009
▁仔伢俱	-6.52554
▁亘亙	-6.56906
仼	-6.57421
▁侺仌個	-6.58131
亂	-6.59311
亓	-6.60556
代	-6.60616
▁仿亩亚什	-6.61475
▁享仚	-6.6164
▁以	-6.62419
▁争伥亐仦	-6.62842
▁仈仇	-6.63063
伫	-6.65962
▁亓争侚亣	-6.66266
仅亾	-6.67347
▁亃	-6.68971
▁亓	-6.69381
▁佋	-6.69721
仂	-6.70122
佼	-6.70366
▁仢付	-6.70649
侐	-6.71561
▁亚	-6.73184
仰	-6.76171
伹	-6.76173
佳	-6.76497
佚	-6.78552
▁侎优众予	-6.79192
▁亍	-6.7968
▁亣	-6.80688
仞	-6.81905
▁仈	-6.81945
▁亩	-6.82044
令	-6.82568
亠	-6.82713
▁19	-6.82781
▁亽侨傥	-6.84057
▁伸	-6.84274
▁仔	-6.84895
▁亊亩估予	-6.85723
仅亥	-6.87119
▁亢	-6.87682
从	-6.88792
但	-6.92379
伸	-6.93073
▁亥仼	-6.93298
▁亜二	-6.93316
佸	-6.93957
仚	-6.94588
亯	-6.94788
"	-6.94916
仄	-6.95872
▁二	-6.95952
▁傻侏佧	-6.96305
仛	-6.9694
▁亖亚	-6.97068
保二	-6.97728
亐	-6.98073
▁偁仇	-6.98148
▁伸佧	-6.983
产	-6.9901
s	-6.99426
▁倦傠	-7.00147
众	-7.00627
▁以偏仌	-7.02184
付	-7.02189
;	-7.02897
仯	-7.04381
▁仐俗	-7.04852
亚什	-7.08383
亼	-7.08906
▁但亚亩	-7.10347
▁伒仇二	-7.11132
▁佒	-7.11295
▁亜	-7.11763
▁伙	-7.12143
▁亼亡	-7.12379
▁佃伅	-7.12719
伎	-7.131
偿	-7.13145
▁仢	-7.15463
▁亊	-7.15528
▁仈亜争	-7.15692
▁/	-7.15906
佝	-7.17542
▁仔仲二	-7.17809
位	-7.18184
亮	-7.18302
▁侺仌亊事	-7.18306
▁-	-7.1842
伿	-7.19445
▁仍	-7.19643
▁亖伻	-7.19998
亊	-7.20501
▁佅仞	-7.21833
亥亚	-7.22653
任	-7.23137
▁僇亾	-7.23395
▁仢俷亡	-7.2392
▁1	-7.24433
▁亽事二	-7.24842
▁仐侭侑	-7.25012
伥	-7.25072
▁俢了	-7.25617
▁侏	-7.25633
▁俢亍	-7.25708
▁亜亡亢亜	-7.2587
▁亍個	-7.26053
▁们	-7.26089
▁伓	-7.2641
▁亢亮	-7.26753
▁俢	-7.2702
▁仔亂亮	-7.27811
▁亽任亃俌	-7.2842
▁令二亏仳二	-7.2842
▁亇予仂	-7.28643
▁仁亳	-7.28647
▁亃偾伿	-7.28753
▁亃优佃	-7.28955
▁享亐	-7.29421
了	-7.30912
▁傸亭	-7.31491
▁伕侻仅	-7.31689
▁傕傖侵	-7.318
▁亢佉僆	-7.32054
▁倦傠俉仅	-7.32171
仧亡	-7.3218
▁7	-7.33548
▁位	-7.33852
▁亏	-7.34277
仪	-7.34281
▁亾	-7.34448
▁亖伳俎俣	-7.34644
▁仢亃	-7.34744
▁2	-7.34793
▁令	-7.34872
▁亽傷任	-7.35172
▁介争亜	-7.36017
▁传	-7.36272
仅余	-7.3653
仗	-7.36548
▁传傶傷任	-7.36941
俢	-7.38026
▁任	-7.38237
侏	-7.38432
▁亻	-7.38946
▁僁佤亭	-7.40911
▁哏	-7.41802
仭	-7.42048
▁亣僂	-7.4239
▁但	-7.42414
▁凁	-7.43135
▁僓	-7.43264
侨	-7.43458
▁3	-7.43627
亥亰	-7.43732
佃	-7.45011
▁侺仌亊伹亚什	-7.45401
▁佋侹	-7.45444
交	-7.46128
▁伭傞	-7.46754
▁侨僃	-7.47309
亥傒	-7.47541
伟	-7.47562
侳	-7.47618
▁亢仦	-7.48805
▁the	-7.49023
享	-7.50117
佭	-7.50199
▁仒信事	-7.50424
仒	-7.5053
▁产仦交	-7.50563
佧	-7.51073
▁侧	-7.51279
佀	-7.51839
來	-7.52704
亸	-7.53222
▁亖亰	-7.53469
▁4	-7.54359
▁18	-7.55303
仳	-7.55933
佌	-7.55985
亍	-7.56169
偉	-7.56347
▁亶	-7.5673
佶	-7.5678
n	-7.57063
仉	-7.57117
伌	-7.57348
▁亅僀	-7.57385
▁亲俅仇	-7.57491
俑	-7.57774
▁仧伫	-7.57983
▁仐依亶	-7.58137
佤	-7.58194
▁仔傤予	-7.58386
▁仙	-7.58454
/	-7.59199
▁仔产	-7.59384
佈	-7.59393
▁予亱交	-7.59933
偖	-7.601
六	-7.60122
▁佒仪仇	-7.60868
于	-7.61143
估	-7.61335
仪亚什	-7.61454
▁亻从	-7.61754
▁倲件	-7.61898
▁仌争亾	-7.6195
▁令亡亯傫仇	-7.62175
傒	-7.62429
佲	-7.62754
传	-7.63119
▁争	-7.63359
▁佭	-7.63479
▁仇	-7.63756
▁亯	-7.63798
▁仛	-7.63871
仧亳	-7.64056
伓	-7.64507
▁仂	-7.64631
▁僯	-7.65118
亭佼	-7.65276
▁伜仂	-7.6609
仞二	-7.66155
▁亼仂	-7.66424
▁仢你佡	-7.66432
仲	-7.67117
介	-7.67338
▁亷	-7.6735
▁伱	-7.67615
倠	-7.68329
▁6	-7.68337
▁倐亡	-7.68434
佗	-7.6892
▁亖伻予	-7.69559
俪仇	-7.70095
▁亵仇	-7.70398
▁众	-7.72448
'	-7.72467
▁仍亡亯亼仂	-7.7305
▁仙仚伖仇	-7.73419
▁侳	-7.73503
俵	-7.74828
亵	-7.74845
▁亢亡	-7.75028
▁俙亳亯伙	-7.75321
▁仞	-7.75589
俉	-7.75829
▁位傼	-7.76074
亙	-7.76649
)	-7.77417
俰仇	-7.77537
▁仛但二	-7.77714
些	-7.78681
▁俆仓亯	-7.78697
▁亽伱	-7.79267
▁二伀仚	-7.79659
俺	-7.80053
▁亍僈	-7.80289
俯	-7.80463
▁今伟	-7.80544
▁仙了	-7.81096
▁亾俅位	-7.81139
▁似代仂	-7.8115
亞佼	-7.81194
▁of	-7.82129
倇	-7.82176
▁2011	-7.8231
伕	-7.82332
▁俎佡	-7.82352
儢	-7.82565
▁亃仦	-7.82983
▁代	-7.8348
▁亍亜	-7.83824
▁佨佲仳	-7.84055
e	-7.84924
佥	-7.85161
▁8	-7.85478
▁亂倂仅伟	-7.8561
▁亂亶	-7.85684
▁倲	-7.85712
▁争亢伤	-7.85815
▁令亡亯伖仇	-7.85847
仔	-7.85965
侬	-7.86849
▁伭	-7.86915
▁佚	-7.87023
▁亻争亾	-7.87508
亢亡	-7.87796
▁亜佋	-7.87894
▁伬	-7.87906
▁仼	-7.87988
▁亥亚	-7.8804
▁仐俖侍仞	-7.88284
▁仔仌偩俰仇	-7.88517
倪	-7.88645
▁僄亝	-7.88955
▁'	-7.88984
▁亵仠仅	-7.89174
▁僅争	-7.89328
休	-7.89346
▁亂仓仌仅	-7.89397
▁亩侹众予	-7.89403
▁仪倣傿	-7.89684
▁仍亡亯亼亡	-7.90815
▁仯	-7.91399
▁伡佇仓	-7.91486
▁仔伢俍	-7.91756
▁亏傓亂仅	-7.91895
偨	-7.92484
▁伊代	-7.93366
井	-7.93478
▁僊倡倏	-7.93525
o	-7.93535
▁亃例	-7.93562
▁偕亢	-7.93591
▁仐亚于伕	-7.93685
▁仛俉亡	-7.93772
▁偙亮	-7.93931
▁亽仜	-7.93961
仍仓	-7.94438
▁亊亩亪	-7.94465
▁佨例	-7.94472
亢亳	-7.94694
亝	-7.94867
▁侞	-7.9492
侕亡	-7.9503
▁伫	-7.9506
▁似代住二	-7.95091
▁亾伫仅	-7.95446
▁亂佛予侟	-7.95704
▁俑	-7.95955
▁倡佂	-7.9607
▁亍伵佋	-7.96075
偝	-7.96238
▁仛事	-7.96437
僻	-7.96469
侑	-7.96489
▁伥	-7.96507
▁亍侞傯	-7.96621
佉	-7.96679
▁仹佭僌	-7.9674
偞	-7.96864
▁保亐伎	-7.96889
▁储佤佶	-7.97048
▁俆亏仅	-7.97261
▁亓伥亂争	-7.97311
▁亚众傆	-7.9734
▁侎优众俢付亜	-7.97396
▁仛俶俷亡	-7.97416
▁令伙介	-7.97563
偩	-7.97854
▁亜儈亜	-7.9789
亖	-7.98024
们	-7.98118
▁僎像仅伟	-7.98122
▁亍争佲仳	-7.98228
▁伓仅仅	-7.98307
▁仞付	-7.98441
▁似傹企	-7.98657
▁倎侻傺亠	-7.98708
伊	-7.98856
▁亢僋亃俌予	-7.98898
▁亽傝	-7.99058
▁亓佗事予	-7.99187
▁仮仯仅	-7.99196
▁佋佗	-7.99295
▁亩僉傳倠	-7.99361
▁亽侻仅	-7.9943
▁亽俉	-7.99464
▁仔傦傧事	-7.99756
倏	-7.99821
y	-7.99947
▁傛亚事亞	-7.99995
▁傗些佤亭	-8.00078
▁亓債	-8.0012
▁佋亏亢仦	-8.00462
▁俜亳	-8.00512
▁令伙介余	-8.00571
佋亚	-8.00588
▁令二二	-8.00616
▁仛但	-8.00637
▁传借倠	-8.00746
▁亍仧争	-8.00794
▁伸亣伱伭予企	-8.00898
▁亽仠亢仦	-8.00921
▁偿俠倠	-8.01061
▁僐	-8.01106
▁値伮偘亥	-8.01135
▁佭亭	-8.0121
▁佋争伤仅	-8.01211
▁9	-8.01261
位俠仇	-8.01277
▁仈傔余	-8.01493
▁伸仦例侹	-8.01706
亻	-8.01849
▁侎	-8.01881
亃倌	-8.02016
伅	-8.02016
伋	-8.02099
▁住亭	-8.021
▁亩仯	-8.02122
▁传倢	-8.02297
▁倫	-8.0238
▁俤	-8.02417
▁亢倿	-8.02429
▁仙亏亭	-8.02499
▁伦亱傸亭	-8.02696
▁亩僉亠	-8.02772
▁仌件	-8.02789
▁亖佳倨	-8.02977
▁倇亚	-8.0303
▁--	-8.03089
▁倦	-8.03111
▁20	-8.03169
▁仢侸代予	-8.03334
▁亓争侚亣仅	-8.0336
▁伀	-8.03566
▁亃亙伻	-8.03712
▁仹	-8.03726
▁俄伨	-8.03782
▁俜	-8.03938
▁佗仓	-8.04151
▁亥亰	-8.04343
▁伋佫仅	-8.04417
▁僑佗仌亓亣仅	-8.04426
▁传佤亂佗争	-8.04458
▁亖亜亚	-8.04545
▁偕予侍仛	-8.04814
▁仌俶仄仓	-8.04942
▁亻仦事亞	-8.0503
▁佃予争	-8.05101
▁亃争亃产	-8.05176
▁12	-8.05189
▁侺侀仅亰	-8.05333
▁仇傣亯仅	-8.0536
▁15	-8.05378
▁亓伊仕亜	-8.05398
▁信	-8.05467
▁倎傳仂偞	-8.0548
▁亖亚事亜	-8.05532
▁in	-8.05608
▁亐亚	-8.05663
▁亖仌亓亣仅	-8.05788
▁位于傴侐	-8.05849
▁佋亡亯傰傱	-8.06034
▁伭傩傪偿	-8.06187
▁佒倏以倪	-8.0622
▁亖亥亃产	-8.06263
信	-8.06297
▁亷俬亰	-8.06355
倨	-8.06518
▁佸	-8.06641
俬	-8.06651
伶	-8.06799
▁仒	-8.06887
▁伦亱仿倭	-8.06988
▁俊了	-8.07082
▁亃偝仳保二	-8.0711
▁伸争催侕	-8.07129
僵	-8.07184
偕	-8.07295
仓亶	-8.07896
▁仿亩仅	-8.08091
伧	-8.08135
借	-8.08274
▁亖伉働	-8.08316
▁伡伈保二	-8.0832
偏	-8.08373
▁侳伻估傟佧	-8.08529
▁侨停亾	-8.0857
▁仌二亡仅	-8.08582
2	-8.08616
▁伓仅位伭	-8.09075
伀	-8.09626
▁亲偉佳	-8.1008
▁亖佋仅仄傫仇	-8.10321
▁仌仅二	-8.10545
伜	-8.10607
▁似傆	-8.10741
er	-8.1112
▁今	-8.11227
僝	-8.11293
們	-8.11382
俷	-8.11482
▁亂亼	-8.11604
▁佗	-8.11733
▁俆仭亶仳	-8.11744
▁亽倭	-8.11877
▁仅	-8.11977
傔	-8.12379
▁亵仠仭	-8.12542
▁仙亜	-8.12754
▁亯侍仞	-8.13092
▁亐	-8.13212
▁亾傜佳仅	-8.13405
▁伸募	-8.13426
al	-8.13484
亣仄	-8.13926
▁仸	-8.1405
侰	-8.14083
▁仌仦	-8.14113
00	-8.14233
ed	-8.1437
▁偆	-8.1439
▁a	-8.14527
▁A	-8.14548
▁亼	-8.14557
▁亓佋	-8.14738
▁伸傘俉仅仓	-8.14748
▁佌	-8.14838
▁位傼仓	-8.1486
▁但儶仇	-8.15168
佯	-8.15675
A	-8.15792
冓	-8.1589
▁侨	-8.15985
仌侤	-8.16017
%	-8.16159
▁侨停亢偿	-8.16206
▁偱仪	-8.16381
享仚	-8.16451
t	-8.16681
▁仛产仹仼仅	-8.1671
▁亓佋伟亥	-8.16733
▁令仦交二	-8.17067
▁亖佳二	-8.1708
▁什亥伊侻偘	-8.17232
侕	-8.1733
▁侣	-8.17471
倿	-8.17692
佨	-8.17998
▁亖仄來俷佳	-8.18265
伪	-8.18278
▁倎令亼侍倠	-8.18394
▁偙亮亥傒	-8.19376
▁令仅	-8.19623
1	-8.19758
偎	-8.19787
a	-8.20209
位伭	-8.20299
▁倎	-8.20956
▁伌	-8.21627
i	-8.21629
企佼	-8.21641
▁亇	-8.21767
▁侺仌亊伟	-8.21903
▁俙	-8.21919
▁余	-8.22009
位伭二	-8.22081
伈	-8.22195
以	-8.2232
佼亥	-8.22429
▁亖仇	-8.22435
伖仇	-8.22553
代亚	-8.23397
僟	-8.23678
亽	-8.23741
亾仓	-8.23907
▁享亚	-8.24195
▁仈亙仠	-8.24271
仅亚	-8.24311
俀	-8.24564
▁仙偉亡	-8.24701
▁S	-8.24946
▁亖从	-8.25066
▁伋	-8.25158
倌	-8.252
仹	-8.2561
▁佃	-8.25647
俤	-8.25695
候	-8.25948
▁会予倂仓	-8.26198
▁亩伶侳	-8.26411
▁亂亚	-8.26552
ar	-8.26553
兎	-8.26756
▁候	-8.26892
▁仚	-8.27034
▁些	-8.27411
偗	-8.27731
倘仪	-8.27819
▁僻	-8.27945
傿	-8.28098
▁16	-8.28379
▁似	-8.28517
▁:	-8.28789
▁11	-8.28792
亣仓	-8.28811
▁14	-8.28851
佂	-8.28855
▁亃仓	-8.2907
▁(	-8.29088
▁佒冸佧	-8.29163
▁倈仚	-8.29165
▁介佤	-8.29243
▁似代住二仐	-8.29271
偀	-8.29351
▁17	-8.29391
▁仯亡	-8.29574
偘	-8.29761
▁亣傐	-8.29802
u	-8.29853
▁享亡	-8.29926
▁伻亡亶	-8.29981
冰	-8.30235
俜	-8.30727
▁亖产	-8.3074
▁仧	-8.31127
▁仌倚二	-8.31233
▁催	-8.31404
▁偶	-8.31426
俁	-8.31882
▁亻俬	-8.32162
▁俄	-8.3242
m	-8.32508
▁享	-8.32571
俄	-8.32701
儃	-8.32789
▁仿佋	-8.32871
3	-8.33675
ing	-8.33956
▁伻	-8.3416
▁仈件亡	-8.34228
▁予仅	-8.3429
來付	-8.34472
▁伸伶	-8.34539
▁俲佪	-8.34601
▁介	-8.34641
▁亣停	-8.34704
▁to	-8.34728
亹	-8.34738
▁产	-8.34973
▁位偩亮亏	-8.35004
侒	-8.35295
佫	-8.35564
做	-8.35769
▁亂仭亥	-8.35774
▁亖亜亰	-8.35913
▁予优	-8.36172
▁and	-8.36589
▁亖仌	-8.3711
p	-8.37276
偒	-8.37595
▁凍	-8.38038
▁例俣	-8.38059
侕佳	-8.38191
偀傱	-8.38296
▁伹	-8.38373
仃	-8.38452
佤亭	-8.38675
俶	-8.38812
伱	-8.38924
▁亲	-8.39141
▁俉仅	-8.3929
伸亳	-8.39315
▁仐仐佶	-8.39576
▁侞倷	-8.39598
保	-8.39606
▁仦	-8.39694
▁侁	-8.39826
▁倡	-8.39844
?	-8.39848
仍亥	-8.39969
▁俺	-8.39994
僷	-8.40027
▁仛偕	-8.40177
住二	-8.40533
▁产亡亯來俷佳	-8.4056
偉亚什	-8.40653
C	-8.40661
▁亣令	-8.40664
▁仙仚伓佧亥	-8.40728
偂	-8.41051
5	-8.41054
▁倎仚亥	-8.41367
伤	-8.41411
▁亵仞亼仂	-8.41472
俖	-8.41568
仩	-8.41816
c	-8.41841
▁儂	-8.41857
仧	-8.42009
▁仩	-8.4204
▁亲仉	-8.42162
▁13	-8.42188
停	-8.42582
俶付	-8.42712
▁仛傂仇	-8.43012
▁代佢仳	-8.43028
亷	-8.43186
亥什	-8.43224
▁仌伧	-8.43306
▁仔仹佚	-8.43461
佚佝	-8.43462
▁争佢亜	-8.43465
▁俆	-8.43469
▁s	-8.43536
▁亜伹亡	-8.43737
d	-8.43875
▁倇亚亚	-8.44339
側	-8.44468
伣	-8.44592
▁亵仠伫亚什	-8.44611
仄仓	-8.44706
▁佋二	-8.44987
!	-8.45091
侧	-8.45133
▁佀	-8.45222
偗亳	-8.45247
亂仅	-8.45642
▁亵仞	-8.45712
k	-8.45723
仸	-8.45907
or	-8.45918
件	-8.45975
仼亮	-8.46144
倮	-8.4636
仯佳	-8.46411
▁佨	-8.46545
▁c	-8.46565
仌二亡仰什	-8.46835
倐	-8.46948
▁亍仌冂亣仅	-8.47639
an	-8.48151
▁仈仐	-8.48783
▁仢俬争	-8.4889
re	-8.49184
in	-8.49404
侞亞	-8.49625
▁50	-8.49709
▁傾倣傿俷佳	-8.49739
争亚	-8.49974
侦	-8.50068
▁仔令仓	-8.5024
几	-8.50264
倢	-8.50332
▁僓众	-8.50398
▁以侐	-8.50474
S	-8.50536
亣停	-8.5064
俲佪咠产	-8.5064
咭	-8.50676
俐	-8.50721
亢仦	-8.51288
▁俈	-8.51427
▁仌仚仓來俷	-8.51464
凭	-8.51639
▁亇予亡	-8.51652
优	-8.51677
▁仔仍仑	-8.51709
党	-8.51714
▁伙仓亯	-8.51794
▁倐	-8.52006
▁亢傽仚	-8.5208
r	-8.52311
g	-8.52736
▁佁	-8.52867
偔	-8.52966
俷亡	-8.53246
争仳	-8.53278
h	-8.53286
亏仅	-8.53385
亠佼	-8.53479
▁亢仂	-8.53638
▁亽俦予	-8.53652
係	-8.53679
▁予亱交二	-8.53847
▁亂争伪亶	-8.53864
▁亏仅	-8.54013
▁亥傒	-8.54046
▁亖偖	-8.54048
僮	-8.54093
住	-8.54279
▁俉	-8.54499
le	-8.55157
▁予亱但	-8.55306
▁亍仌冂亮	-8.55402
▁仁仠仌	-8.55435
4	-8.55442
儊	-8.55502
▁亵俌	-8.55541
▁俉仑	-8.55566
▁亖俵予	-8.55567
作	-8.55585
佷	-8.55943
▁亖伻仇	-8.5613
▁値	-8.56138
侮	-8.56502
低	-8.56508
0	-8.56526
M	-8.56528
來仓	-8.56609
▁亖付	-8.56759
位亳伖仇	-8.56914
佢	-8.57234
亾付	-8.57314
▁估	-8.57366
催	-8.57409
▁亃亚	-8.57553
▁仍儵亡	-8.57878
侐佼	-8.57898
亦	-8.57911
▁令仦佄仇	-8.58026
侍	-8.58073
▁們傌	-8.58149
俶俷亡	-8.58158
偆	-8.58225
▁亹	-8.58517
▁亰	-8.5858
兜	-8.58831
▁亵	-8.59043
份	-8.5938
佡	-8.59497
▁亖仐	-8.59575
予争仳	-8.59781
▁事	-8.59986
伭亶	-8.60066
事亭	-8.60422
▁俿	-8.60477
仯亡	-8.60554
▁冓	-8.60561
▁仔令仅	-8.60658
ri	-8.61104
佃亶	-8.61234
伳	-8.61336
仅佸	-8.61508
▁仮佈亥	-8.61647
亥伻	-8.61728
▁仙伅	-8.62075
仍亰	-8.62156
ra	-8.62165
仜	-8.62189
▁仿佋仍	-8.62292
▁僩	-8.62359
傷	-8.62682
▁伋亡	-8.62701
▁偀	-8.62838
▁佚仦伶	-8.63087
佅伭	-8.63467
俔	-8.6347
▁俓	-8.63562
共	-8.636
▁传倏	-8.63706
兵	-8.63723
仍仅	-8.63728
▁伸傘俉仅佼仓	-8.6379
▁仈伫	-8.63799
▁亣佋	-8.63893
▁佈僠	-8.64139
▁亖兩亜	-8.64386
▁仔俶佈	-8.64444
▁以偏仌亶	-8.64475
倘	-8.64764
▁僬	-8.64838
亂仓	-8.64881
亾亳	-8.64942
▁C	-8.65056
▁仞俹	-8.65308
▁仮佈	-8.65369
亻亚	-8.65522
卨	-8.65664
▁亊仲争伪亶	-8.65908
▁佒体	-8.66011
倚	-8.66051
充	-8.66268
儆	-8.66523
俴	-8.66642
▁亖伫係	-8.66844
▁亜偏仌	-8.66885
▁仌儗	-8.67081
僜	-8.67796
▁偷	-8.68155
▁伃代亣伓仚	-8.68219
▁來	-8.68414
▁偕	-8.68627
傦	-8.68664
倀	-8.68689
僺	-8.68711
倐侻	-8.68822
亃倌亥	-8.68917
▁侺俒	-8.6908
▁介争信事	-8.69087
▁任亩亡	-8.69114
th	-8.69213
偢	-8.69276
交仦	-8.69495
▁俕亱	-8.6968
▁亍偰亜	-8.6989
叼	-8.69904
▁償	-8.69945
俌	-8.69973
▁仌兝仇	-8.69985
侲	-8.70174
侞	-8.70287
▁亵仠仭亥亚	-8.70416
▁伓仄仅	-8.70422
傚	-8.70665
伙仓	-8.70715
I	-8.70755
▁佋侨	-8.70892
俪	-8.70904
伛	-8.7095
):	-8.71724
刄	-8.72244
▁亂仅	-8.72451
▁僬咄侐	-8.72673
亊仦	-8.73021
▁亖亙仠	-8.73118
▁位偩亮伕亶	-8.73279
6	-8.73333
▁偩	-8.73534
伦	-8.73735
仑	-8.74162
▁亣令偞事	-8.7431
▁仛亡	-8.74512
▁仛事佝	-8.74617
位俫佳	-8.74624
▁仑	-8.74656
b	-8.74974
▁f	-8.75101
▁30	-8.75198
▁亂倘仪	-8.7523
册	-8.75249
亾仅	-8.75408
▁25	-8.75424
20	-8.75562
債	-8.7581
僩	-8.76059
▁亢仦什	-8.76187
俠	-8.76378
▁佶	-8.76428
俍	-8.7643
代俇	-8.76461
亣仅	-8.76521
▁亖伱仦亂	-8.76552
二仍	-8.76599
伂二	-8.76617
债	-8.76853
T	-8.76867
佝余	-8.77235
▁亐亐仼	-8.77335
▁傋亜	-8.7735
仏众	-8.77587
亿	-8.77596
侴	-8.77629
D	-8.77703
▁仌倚	-8.77707
▁仪倣亡	-8.77733
▁俲	-8.77755
倷	-8.77816
▁俑俒	-8.7811
▁催亡伓仄仅	-8.78151
侕亳	-8.7844
叀	-8.78667
▁倎亂	-8.78765
▁伸休伦傡伿	-8.78831
▁予傭	-8.7886
倲	-8.79219
▁仐亳代仅	-8.79341
▁伡伈	-8.79379
佈亶	-8.79403
ic	-8.79413
es	-8.79631
▁予俷	-8.79959
▁P	-8.80272
仍亶	-8.80423
▁仞伶	-8.80665
▁亖争	-8.80725
佛	-8.80785
▁亂仭	-8.80814
▁予亱	-8.80882
俱	-8.81186
凍	-8.8119
伬	-8.81358
▁侮偙	-8.81414
▁亂仚	-8.81611
▁倐亡余	-8.81628
亾俷亳	-8.81649
▁仐傠	-8.8176
傠	-8.81836
▁亖二亶	-8.81847
仌亮	-8.8204
f	-8.82092
侪	-8.82118
en	-8.82411
▁伋仦	-8.82444
伙从	-8.82767
▁冓仅	-8.82901
▁传傫仇	-8.83141
▁伸仅	-8.83161
侤	-8.83171
亮亶	-8.83259
仵	-8.83317
▁匣伙	-8.8333
▁伦	-8.83339
▁57	-8.8336
▁亍偶俥仞二	-8.83364
▁B	-8.83437
▁亷亡仄	-8.83487
▁亜倌	-8.83658
▁亃亚仛	-8.83823
▁偖	-8.84035
劽	-8.84062
伿佼	-8.84108
▁侨停	-8.84142
▁仍倩	-8.84146
▁倇亚什	-8.8426
▁M	-8.84482
▁伡傢亥	-8.84544
▁伓亶	-8.84842
l	-8.85004
偁	-8.85176
▁亃匯佋	-8.85329
▁代儯争	-8.85566
俷佳	-8.85694
ch	-8.85751
▁享予	-8.858
▁介伕亶	-8.85837
▁亢亳	-8.86096
俹	-8.86154
▁亖伳	-8.86672
▁仕农	-8.86943
倂	-8.86988
v	-8.87021
▁亷偂	-8.87058
侻亞	-8.87818
二仇	-8.87871
▁n	-8.87944
公	-8.88321
仿亵亥	-8.88334
▁佋争	-8.88334
▁偖债	-8.88435
▁吁	-8.88503
▁争佚佳亜	-8.88564
▁伃	-8.88564
▁佺	-8.88613
▁俆亱伸亡	-8.88627
亴	-8.88651
佒	-8.88685
傏	-8.88782
亅	-8.88827
▁佃倲亼	-8.88998
▁以冰	-8.89004
▁仙仚	-8.89128
▁何	-8.89148
▁互事二	-8.89268
▁倨	-8.89299
侗	-8.89584
▁偒	-8.89689
仠亚	-8.89705
▁侦	-8.90001
亜争	-8.90189
争仍	-8.90325
儮	-8.90429
▁亖偂仂	-8.90477
▁亩俹	-8.90548
▁佨仌	-8.90692
▁二仇	-8.90696
▁仔偖凈	-8.90722
傂仇	-8.90892
▁伍	-8.90949
▁亱	-8.91041
P	-8.91066
▁仐令事亢仠	-8.91149
▁倇	-8.91169
▁俜仅	-8.91208
▁仪	-8.91222
▁仍倩保二	-8.91228
▁二亏亮	-8.91233
兼	-8.91361
▁偖俑	-8.91365
▁亇些	-8.91532
▁be	-8.91668
偼	-8.91912
俩	-8.91972
▁仛俉亳	-8.92185
▁2001	-8.92314
▁伝	-8.92328
來仅	-8.92348
▁亇亙	-8.92464
▁侚	-8.92546
仦伹	-8.92647
▁刻	-8.927
▁偱偔亡	-8.92719
倦	-8.92778
▁仕僾	-8.92823
it	-8.9303
兙	-8.93151
勮仚亾	-8.93245
傯	-8.93254
▁倃	-8.93353
▁亅仓	-8.93571
亪	-8.93571
E	-8.93737
▁伜	-8.9374
▁傋仠	-8.93757
▁亮亯	-8.93971
▁仔仒	-8.94064
▁俆仓任	-8.94109
▁仏众	-8.94121
▁俉佈	-8.94261
▁伸侻	-8.94565
亾俷亡	-8.94583
傂	-8.94587
▁倬	-8.94607
亃仦	-8.94715
7	-8.94977
傋仠	-8.95007
▁0	-8.95085
▁仐俉仑亃儴	-8.95313
▁俉亓二亓伌	-8.95332
佼亰	-8.95339
▁亖僥位亡	-8.95366
俶俷佳	-8.9547
亂争	-8.95568
▁伭伉位亡	-8.95992
▁俎	-8.96024
10	-8.96031
勝	-8.96097
▁亲仠	-8.96102
佚仪亚什	-8.96462
倥	-8.9676
仧佳	-8.96776
亶伻	-8.96855
亨	-8.96858
▁亃仦冯佶二	-8.97021
▁佋儜予	-8.9709
▁予仐	-8.97149
传做仇	-8.97165
▁二伜位亡	-8.97297
▁劼	-8.97309
▁伍佳	-8.97339
▁倘	-8.97548
事仍	-8.97551
▁仅伳俰仇	-8.97701
▁亜仅	-8.97767
倔	-8.97775
at	-8.97871
傜	-8.98025
仚仓	-8.98161
侺	-8.98383
亣从	-8.98407
▁介争亜偖债亥	-8.98605
▁介佛	-8.98791
▁仙亜咁信事	-8.98832
▁亩侻	-8.98921
仢	-8.98997
▁佻	-8.99095
▁亃俌予	-8.992
促	-8.99221
▁亓伥	-8.9932
▁保	-8.99623
▁侫偂	-9.00023
▁些任	-9.00201
50	-9.00208
▁亢仂亚	-9.00315
亚伹	-9.00335
▁is	-9.00398
▁仼亡冎仅	-9.00456
8	-9.00513
▁佌偣	-9.00518
▁24	-9.0057
偰	-9.00594
on	-9.00606
▁亃仦偈佋	-9.00676
▁仞仌仦	-9.00743
▁亊仲争仳	-9.00983
倭	-9.01028
▁亓亩	-9.01181
仚亾	-9.01214
▁倏	-9.01297
二亚	-9.0133
▁佋侍亜	-9.01528
19	-9.01742
▁仈傏	-9.01798
▁=	-9.02047
伖	-9.02093
准	-9.02214
ur	-9.02228
傊	-9.02228
倘仇	-9.02241
▁亍代僤亶	-9.02288
予争	-9.02297
▁偖仌	-9.02658
▁I	-9.02693
la	-9.03189
▁仔代俇二	-9.03386
侚	-9.0344
▁or	-9.03537
▁佌仌	-9.03611
▁估侒亥	-9.03722
▁仯亰	-9.0373
▁21	-9.04037
八	-9.0405
仿	-9.04381
▁侨凼	-9.04396
▁会	-9.04461
例	-9.04477
il	-9.045
▁H	-9.04734
▁享倘仪	-9.04799
▁伙仂什	-9.04819
伹仓	-9.05045
偟	-9.05248
佺	-9.05368
▁伸亡代仅	-9.05418
▁伙仂	-9.05438
▁些仌仭	-9.05518
▁冿净	-9.05782
來俷亡	-9.0583
▁倦仼	-9.05888
▁佶儊	-9.06022
▁傾倣亡	-9.06449
▁佚仚仄	-9.0645
▁亯侙佚	-9.06502
▁亣令仲亚	-9.06615
▁b	-9.06849
▁仹佭俶俷亡	-9.06873
仆	-9.06879
▁傮亠佼亥	-9.06879
▁亲仉仇	-9.06923
▁58	-9.07082
N	-9.07217
儈	-9.07273
▁众交亱二	-9.07362
▁亖仌亂债	-9.0744
▁亃争	-9.07446
▁仐俐	-9.07475
令二	-9.07614
▁佷事	-9.07658
▁冓區亡	-9.07663
▁N	-9.07778
▁令二仌仦	-9.07811
伍	-9.07958
st	-9.08238
傳	-9.08249
儑	-9.08255
▁亂予	-9.08364
▁仢付亜	-9.08409
ad	-9.08439
▁亓仦伥儮	-9.08518
养	-9.08518
ro	-9.08539
▁偉	-9.0879
以侐	-9.08878
了佼	-9.08957
▁介伕	-9.09113
11	-9.09117
倪佼	-9.0913
▁亚伣伪	-9.09335
▁亽仲亮亶	-9.09486
18	-9.09511
▁T	-9.0958
▁予亰予	-9.09657
勚	-9.09673
42	-9.09724
▁俤亐仌仦	-9.09752
亂亮	-9.09846
▁w	-9.09932
▁仐俐仐俗仅伟	-9.09987
▁亩兂	-9.10025
▁亥倐	-9.10031
▁侧克	-9.10148
▁p	-9.10209
▁亖佋仓	-9.10252
▁D	-9.10344
▁俆亱事	-9.10424
佼亾	-9.10466
价	-9.10477
偈	-9.10478
▁m	-9.10482
偖仐	-9.10568
▁二亏争	-9.10612
▁倿	-9.10702
▁亣事	-9.1077
▁22	-9.1078
亮亥	-9.10826
倫	-9.10844
▁仔佡	-9.10889
▁伬仚	-9.11235
伙亳	-9.11293
事亚	-9.11363
▁亽仅伟	-9.11391
享予	-9.11398
伂	-9.11555
傋	-9.11575
▁仍咯	-9.11682
▁0.	-9.11714
(	-9.11957
▁亓仍伈	-9.11959
亐亡	-9.12015
倬	-9.1203
像	-9.12036
▁偖债亥	-9.12048
凶	-9.12078
▁予傜	-9.12131
us	-9.12179
冯	-9.12254
▁仆仇二	-9.12387
▁!	-9.12448
▁仹侻	-9.12553
▁亖伫	-9.12567
▁亯侙仼	-9.12575
▁仚亂伪	-9.12709
俈	-9.12736
▁信任亾	-9.12984
▁仈偗亳	-9.12989
▁亃代	-9.13086
▁亃亐	-9.13138
啀	-9.13141
俉亡	-9.13142
▁仍卫亶	-9.13263
▁亃偿佲	-9.13263
▁仔侔事	-9.13263
▁互伱	-9.13271
▁伍伎亥	-9.13275
仄仅	-9.13278
仯亳	-9.13465
▁涊	-9.13573
侹	-9.13627
▁仠	-9.13763
▁The	-9.14047
亵仇	-9.1409
▁佋亜	-9.14129
▁僽	-9.14185
僬	-9.14456
佘	-9.14475
劇	-9.1457
伤仓	-9.14641
亜亰	-9.1468
▁以儰	-9.14736
34	-9.14922
▁伍亚予	-9.14958
佄	-9.14993
▁争佚二	-9.15003
偶	-9.15036
内	-9.15079
▁亻侌	-9.15237
▁亲伭	-9.15247
刲	-9.15351
侍仞	-9.15357
▁俭修	-9.15359
傉	-9.15526
俉仅	-9.15526
▁亃侬	-9.1575
▁23	-9.15779
▁俉仅亥	-9.15948
▁伻亰	-9.15974
伤仅	-9.15981
▁位仅	-9.16048
ation	-9.1613
▁侔	-9.16336
▁仿	-9.16376
▁59	-9.16542
傍	-9.16606
▁仐令伟	-9.16664
▁儨偍	-9.16724
▁伋仂	-9.1673
▁傛住	-9.1681
24	-9.16903
▁亽亞	-9.16931
▁仄付	-9.16934
到	-9.16943
▁俺仌	-9.16968
個	-9.16994
▁刌	-9.17019
▁偀傱	-9.17083
ha	-9.17101
▁亽佫亚予	-9.17112
am	-9.17373
倹	-9.17375
▁俢侻	-9.17399
仧仅亚	-9.17429
▁仒们仯	-9.17436
▁倫余	-9.17593
▁伃代亣伓僺	-9.17594
▁侰	-9.17718
▁俀	-9.17719
9	-9.17736
▁僫	-9.17829
仈	-9.17853
▁亖佋	-9.17927
▁亖俵佃亶	-9.17965
仌亞	-9.18136
▁伕	-9.18203
▁g	-9.1821
O	-9.18352
亃仠	-9.18356
俥	-9.18374
▁仙佚伙	-9.18388
▁仙仚亥	-9.18389
兂	-9.18406
▁仐仲伎	-9.18544
併	-9.186
▁冐仂僟	-9.18757
▁僙	-9.18788
▁互伙亳	-9.18797
▁亢仦亚	-9.18802
佁	-9.1881
互	-9.18845
劄	-9.18857
30	-9.18941
▁亖俵亂亡仓	-9.19078
▁倎仂	-9.1922
二偗亳	-9.19224
▁二亏亮亥	-9.19232
仌争亾	-9.19354
▁偞	-9.19416
▁会予倂仓俷佳	-9.19583
侞傚	-9.19602
倗	-9.19738
12	-9.19853
se	-9.19939
▁偕仌	-9.19962
儠	-9.2014
保二仇	-9.20235
▁仛侕亡	-9.20416
▁佋低侨	-9.20514
事亞	-9.20533
▁俸	-9.20549
亐仓	-9.20577
▁亩二仌	-9.20633
▁俕	-9.2068
伭亚	-9.20682
▁仛任	-9.20737
仼亮亥	-9.20759
▁仔但俣	-9.20808
70	-9.20904
ter	-9.2094
▁俌	-9.21001
▁信任	-9.21043
▁仯亯亼亡	-9.21057
▁亐亚亚	-9.21074
亃产	-9.21249
▁仛事亚	-9.21267
▁令二	-9.21276
▁亃仠	-9.2128
▁偁代	-9.21369
伹从	-9.21444
▁僧	-9.2156
▁仈偖	-9.21698
享亚	-9.21701
▁亅	-9.21728
▁倎伭伹	-9.21763
▁26	-9.21784
75	-9.21808
▁于	-9.21815
伸叟	-9.21888
兾	-9.21914
▁亓仦	-9.22008
ly	-9.22021
▁亽侻	-9.22132
亓仍	-9.22146
仧争	-9.22228
勼	-9.22262
▁介偿	-9.22315
亜保二	-9.22348
▁传來俷佳	-9.22421
侫	-9.22491
俜倷	-9.22591
倲兙	-9.22616
x	-9.22662
伸仅	-9.22751
仦予	-9.22789
22	-9.22859
佻	-9.22868
刭	-9.22883
仍二亾	-9.22919
=	-9.22946
37	-9.22951
▁兾	-9.23106
44	-9.2312
▁亢仠	-9.23199
偧	-9.23241
▁仕倮	-9.23394
_	-9.23466
▁侞倷亶	-9.23519
▁侎亮伌	-9.23595
▁仛亜	-9.2371
仼亳	-9.23739
予仍	-9.2374
▁仌仅亓	-9.2398
65	-9.23988
▁俢偎	-9.24029
▁亚亨伥仳	-9.24072
41	-9.24093
仦什	-9.24189
予企	-9.24191
et	-9.24229
▁仼亣亜二	-9.24359
▁凓	-9.24415
▁倄	-9.2445
俢仌佝	-9.24521
佇	-9.24594
▁俛	-9.24598
▁亓亨	-9.24617
亚亶	-9.24667
un	-9.24688
▁27	-9.24798
▁俊仂	-9.24868
儖	-9.24935
▁G	-9.25012
▁亩剜	-9.25126
▁亽亡	-9.25218
偅仇	-9.25233
伵	-9.25255
▁伸休伦傡伿佼仓	-9.25277
▁仛事仪亚什	-9.25345
佑	-9.25347
▁亂争伪	-9.25538
▁2014	-9.25577
43	-9.25672
伙亚什	-9.25703
▁但儶	-9.25727
B	-9.25799
仌争	-9.2583
▁亚亨侮仧亡	-9.25882
侨停	-9.2589
付仇	-9.25966
▁信刾	-9.26105
▁亜偂	-9.26132
呜	-9.26144
▁佌偧	-9.26267
▁2009	-9.26338
但二	-9.26397
剹	-9.26543
冷	-9.26557
叢	-9.26657
俐争	-9.26664
仍二	-9.26665
▁L	-9.26696
俊	-9.26696
倳	-9.26729
▁倈	-9.26761
▁28	-9.26767
▁亓佗	-9.26872
55	-9.26874
▁伥仦	-9.26888
ce	-9.26955
23	-9.27041
▁兟	-9.27108
▁亖仄傫仇	-9.27249
ta	-9.27376
ol	-9.27502
仌侟	-9.27519
38	-9.27569
39	-9.27644
46	-9.27677
▁E	-9.27728
w	-9.27741
25	-9.27782
僼	-9.27835
俰	-9.27867
僓	-9.27876
傱	-9.27902
▁亚仅	-9.27926
21	-9.27947
▁40	-9.2814
▁争亂仅	-9.28141
▁for	-9.2822
▁以伫	-9.28232
▁亍偰佈	-9.28244
▁亓伌	-9.28247
▁倃伈	-9.28276
▁代俑	-9.28279
亜仍	-9.28313
▁仐佤伟	-9.28464
偬	-9.2867
儭	-9.2867
俼	-9.28802
侵	-9.28859
▁交	-9.28874
▁亂佛	-9.29135
▁以亭	-9.29186
▁亖云	-9.29299
傘	-9.29335
▁伋仂亥	-9.29357
伙仂	-9.29448
侎	-9.29464
▁h	-9.29492
偉亡	-9.29504
▁僁佤亰	-9.2951
▁伙亏	-9.29545
▁偱	-9.29568
▁傒冓	-9.29641
予仓	-9.2976
▁介亏	-9.29835
円	-9.29997
▁re	-9.30027
冟	-9.30037
▁亅來	-9.30056
▁啓	-9.30106
▁亐伭	-9.30113
亰付	-9.30142
▁位冟	-9.30355
▁凊予侻	-9.30363
R	-9.30378
何	-9.30468
ss	-9.30508
14	-9.30524
侁	-9.30616
▁仛亃	-9.30665
亣亚什	-9.30678
▁俀亙仅	-9.30744
儿	-9.30773
▁似代仓	-9.30876
▁仢俷	-9.30989
▁产亡	-9.30996
▁佌佻伦了	-9.31067
86	-9.31096
位亳	-9.31204
▁仌俀	-9.31206
15	-9.31235
▁傶	-9.31253
▁予亱佭	-9.31274
▁亚伣仳	-9.31294
000	-9.31342
佳二	-9.31371
▁亊偩俴	-9.31488
▁仈亙伭	-9.31559
倸	-9.31584
▁侞亨	-9.31654
▁伙亣事仳	-9.31724
亡亯	-9.31729
▁亚亨侮佚	-9.31765
凚	-9.31827
▁佸亶	-9.31894
亜仓	-9.3193
▁仢亃于交侕亡	-9.31957
亂仭	-9.31994
▁仼二	-9.32139
伭什	-9.32145
侻亾	-9.32183
▁亖亢僰	-9.32271
▁倝	-9.32277
代亞	-9.32306
▁傸	-9.324
▁R	-9.32437
▁亩傌	-9.32437
冎	-9.32446
代亡	-9.3256
90	-9.32645
▁偖俉仅	-9.32792
▁亮亶	-9.32865
▁亖产倲件	-9.32895
64	-9.33013
伎亜	-9.33025
ent	-9.33092
传佳二	-9.33099
仚亡	-9.33134
49	-9.3323
▁亖二	-9.3353
▁儍	-9.3354
▁2007	-9.3357
傁	-9.33647
▁t	-9.33682
▁仔介伜	-9.33753
传仌佝	-9.33834
72	-9.33958
仛但	-9.3401
倠佼	-9.34103
▁仅佲仅	-9.34137
▁伇些产予	-9.34221
▁伬侨伸	-9.34221
▁侨停仅	-9.34342
佚位俠仇	-9.34377
亜仅	-9.34382
▁伋仂亚	-9.34435
▁U	-9.3461
倃	-9.34645
67	-9.34749
▁仈亜亚	-9.34757
▁亖偗亳	-9.34764
▁亩亡	-9.34781
侞伭	-9.34957
亃争	-9.35073
▁价	-9.35131
▁ma	-9.35248
▁亖亸	-9.35316
予仅	-9.35318
▁侶	-9.35357
亢代	-9.35395
▁仛亊亡	-9.35404
▁2008	-9.35428
仳仍	-9.35431
li	-9.35444
伌仌	-9.35531
亣事	-9.35542
亃兤	-9.35771
▁仔俶亜	-9.35872
77	-9.36165
仛事	-9.3619
伜來	-9.36195
▁亖仫	-9.36401
▁伇	-9.36433
吁	-9.36449
40	-9.36454
|	-9.3647
▁亃仇	-9.36504
▁仏	-9.36518
二亏	-9.36561
▁伷产	-9.36627
▁亾亩亡亳	-9.36705
13	-9.36729
▁仢俬佋	-9.36791
唖	-9.36808
▁仞俁仅	-9.36865
侣	-9.36976
▁仔仹倃亥	-9.36989
仅伟	-9.37016
ir	-9.3706
▁住	-9.37077
▁傋代亡	-9.37124
▁伷争	-9.37152
偙	-9.37156
▁亷刋亡	-9.3718
來俷	-9.37247
▁圫兆	-9.37306
te	-9.37317
俒	-9.37369
倒	-9.37384
创	-9.37403
传佳	-9.37551
亳亯	-9.37625
▁亖仌亓亮	-9.37651
剤	-9.37702
▁53	-9.37769
全	-9.37789
17	-9.37813
69	-9.37831
▁亍冲产	-9.37875
▁儤仅	-9.37954
凓	-9.37954
二六	-9.38019
▁2013	-9.38065
伎代	-9.38113
▁仒产	-9.38181
刜	-9.38187
▁傒亜二	-9.38188
▁僣	-9.38233
▁亚亢亓	-9.38314
▁亾俅偶	-9.38344
▁d	-9.38352
▁傾	-9.38372
▁仛俰仇	-9.38419
▁俑仯佴	-9.38445
▁仐佤	-9.38503
▁侁俵	-9.386
▁侣但	-9.38661
▁亖伎亜亮	-9.3872
▁仢仴仵亜	-9.38727
is	-9.38752
▁亷佥	-9.38789
亣佋	-9.38802
▁亖俷亡	-9.3915
lo	-9.39207
▁伨	-9.39214
▁W	-9.39227
兩	-9.39234
▁仐仓仌	-9.39251
▁亩俺	-9.39278
▁似偝似代仂	-9.39323
▁F	-9.39422
▁偙	-9.39733
▁仐亢亦	-9.39746
▁亖俴俵予	-9.3978
82	-9.39796
54	-9.39875
凰	-9.39886
▁仅佲	-9.39983
32	-9.40001
▁仌争仩	-9.40012
▁傛亭	-9.40187
伭二	-9.40204
侏俬	-9.40239
▁介争亜偖债	-9.4027
▁侣仠	-9.40307
48	-9.40359
兹	-9.40382
仠侳	-9.40386
仭亶	-9.40462
▁仌亮亏企	-9.4049
▁亍仌冂亮亥	-9.4051
▁係	-9.40581
▁儤	-9.40586
▁佋仦	-9.40591
▁亖侹刣亳	-9.40614
▁仿亩仓	-9.40671
16	-9.40684
伴	-9.40696
▁争佲仳	-9.40767
61	-9.40775
僌	-9.4088
▁亐亚什	-9.40942
▁亣傐亥	-9.40945
余伸佧	-9.40965
33	-9.41002
▁俲佪仔偖凈	-9.41095
▁亓佋倽	-9.4116
仸仹	-9.41163
▁佭伧仅	-9.41227
來俷佳	-9.41244
▁俭	-9.4133
刦	-9.41399
俉亳	-9.41442
63	-9.41478
▁亣俌	-9.41525
▁亃偧产	-9.41529
亮亏	-9.41537
侙	-9.41585
sh	-9.41599
▁僢	-9.41605
▁侏亡	-9.41615
俅	-9.41662
▁俼	-9.41815
74	-9.4194
剑	-9.42006
刻	-9.42025
▁仞什冂	-9.42029
78	-9.42097
叱	-9.42101
▁傹	-9.42231
▁令仦係	-9.42282
今	-9.42319
▁亃亝	-9.42426
▁勼	-9.42428
仕	-9.42577
体	-9.42599
▁亣仒	-9.42662
伸佧	-9.42681
▁傂	-9.42694
▁冠	-9.42737
▁休	-9.42762
▁29	-9.42821
侌	-9.42854
似	-9.42992
▁储	-9.43089
亗	-9.4313
亽亞	-9.43151
儅	-9.43198
▁凁亂亾儠	-9.43263
▁仆代	-9.43308
▁亝	-9.43363
▁伍伎	-9.43392
代仅	-9.43453
▁倫亜	-9.43502
▁以从予仅亥	-9.43525
▁亜伹偿	-9.43539
偷	-9.43564
▁亓佗事	-9.43604
▁侁伸争	-9.43851
刌	-9.43898
▁仑关	-9.43907
代争	-9.43936
兟	-9.44049
▁亩仦	-9.44142
▁冺	-9.44241
▁亚亨偩	-9.44301
▁亃仦伷产	-9.4431
▁仪倣亞	-9.44391
▁予众倏	-9.44403
66	-9.44449
▁偭	-9.44491
▁仛伹仅亚	-9.44526
坷	-9.44549
▁佋偩井仅	-9.44567
▁令亡亯	-9.44569
▁侏仅	-9.4462
偍	-9.44748
▁仛仦	-9.44822
厳	-9.44847
仌侤亰	-9.44904
▁伓仅	-9.44913
▁佋件來	-9.4494
47	-9.4501
兖	-9.45051
伸仂	-9.45051
亢亝	-9.45258
▁亖亜伭	-9.45277
▁僻倫	-9.45368
▁倲克	-9.45384
伍佳	-9.45498
L	-9.45503
▁仙仇	-9.45569
▁俑仯佴亥	-9.4569
予侟	-9.45733
倓	-9.45764
偂仂偞	-9.45771
位仠	-9.45897
刢	-9.459
▁亖亳亯	-9.45934
▁凊侻伻	-9.45938
俉仑	-9.45991
▁亩侍仇	-9.46005
便	-9.46095
凈	-9.46098
亓仦	-9.46205
位仉	-9.46211
▁亯亡	-9.46258
▁亖俵	-9.46263
▁亍仌冂亣仓	-9.46286
▁亜争	-9.46341
▁亶事	-9.46345
▁仛俯	-9.46378
▁伸侉俷亡	-9.46418
▁亶亱	-9.46433
▁仈亜亳	-9.46466
im	-9.4654
儲	-9.46572
▁偿	-9.46703
81	-9.46757
▁亏亜	-9.4677
▁债予	-9.46883
侍佚	-9.46908
▁亃偝伪	-9.4696
涊	-9.46968
▁俆亱	-9.47017
争亓	-9.4709
▁亊亯	-9.47143
▁仐佋俇	-9.47157
▁亂佛代匰	-9.47179
亃亮亶	-9.4718
冢	-9.47186
▁伋争	-9.47202
争伤	-9.47231
▁侺	-9.47261
▁亖佳	-9.47309
侜	-9.4734
▁亽但伹	-9.4736
偖债	-9.47392
▁亃仦俵亥	-9.47437
▁亷偗	-9.47549
僝佼	-9.47571
兤	-9.47687
▁亲仠儢	-9.47688
▁俺仐亜	-9.47775
呬	-9.47881
87	-9.47914
▁as	-9.47917
▁亖佳二偂仂偞	-9.47954
▁佶争	-9.4805
▁偆勴位亡	-9.48168
▁亽仅事	-9.4818
仍仅亰	-9.48186
兡仇	-9.48236
▁似代侻	-9.48246
▁佋佇任	-9.48437
68	-9.48492
亂从	-9.48543
偺	-9.48598
▁二伧	-9.486
45	-9.48611
佰	-9.48645
争伪	-9.48763
▁仌俰仇	-9.48802
亇予	-9.48957
儗	-9.4896
▁仁几	-9.49107
▁仮仯仅亥	-9.49153
入	-9.49189
▁仔伢	-9.49259
▁倨倇	-9.49381
▁仆俔仇	-9.49598
勨	-9.49677
▁亍個仓	-9.49683
60	-9.49758
di	-9.49789
冢冣	-9.49817
伓僺	-9.49843
▁例	-9.49845
仏	-9.49852
▁亷候	-9.49859
▁佚佛	-9.49861
76	-9.49867
仌倐俺	-9.49891
F	-9.49933
▁佋伥冄債	-9.49972
亓争	-9.50007
侟	-9.50137
▁党	-9.5015
▁亶亚	-9.50239
▁俜仠仌	-9.50343
依	-9.50367
▁倐俺	-9.50434
▁产亡亃产	-9.50452
劏	-9.5049
事企	-9.50574
26	-9.50675
88	-9.50694
伨	-9.50732
▁仛亊亳	-9.5075
as	-9.50831
▁仅匛	-9.50844
卲	-9.50881
▁佒僢企	-9.50892
亡仄	-9.51005
▁俪亜	-9.51078
▁亖仅	-9.51111
▁伸侉	-9.51147
▁亃伭	-9.51173
▁介争亜偖俑	-9.51192
仠亞	-9.51222
冪	-9.5125
▁亢仂亥	-9.51286
交二	-9.51289
79	-9.51301
仸伸	-9.51327
{	-9.51366
73	-9.51371
▁with	-9.51405
侂予	-9.51412
57	-9.51485
▁2006	-9.51525
兒	-9.51584
31	-9.51595
介伕	-9.51597
冂	-9.51663
▁仞凷亡	-9.51683
V	-9.51684
▁剥剦	-9.51694
亢仠	-9.51825
儍	-9.5191
▁2010	-9.5194
▁仢亐伥争仳	-9.51977
▁仩伭二	-9.5201
▁K	-9.52027
co	-9.52173
▁亯偛	-9.52206
▁亂争仳	-9.52206
凁	-9.52268
▁仐仧争仳	-9.52282
伍伎	-9.52448
▁亊单劊	-9.52501
仵伥	-9.52546
▁令侬	-9.5255
倡	-9.52574
ve	-9.52635
倰	-9.52642
偮	-9.52655
▁佤	-9.52708
前	-9.52727
▁亩偑亳們	-9.52732
▁以仚	-9.52805
俢仌仪亚什	-9.52876
▁位低	-9.52936
H	-9.52938
▁仆仚	-9.52946
▁k	-9.52976
71	-9.52978
▁予井	-9.53129
▁亓匉仓	-9.53144
▁二伭	-9.53183
▁侺产佀佃亶	-9.53398
▁仸仹亥	-9.53401
0,000	-9.53523
▁仔信	-9.53552
亩伎	-9.53558
56	-9.53679
▁侚亱佈亶	-9.53748
▁亣僆	-9.53766
▁亵仚仅	-9.53777
▁亽仇	-9.53874
▁仔偖债	-9.53907
▁二亳	-9.53924
▁侎倬冈	-9.53955
▁亲伅	-9.53976
凉	-9.54016
▁伸亜	-9.54085
▁亂仓仌	-9.54087
▁佚凿	-9.54169
▁佺冿仌仦	-9.54264
▁伂	-9.54289
凗	-9.54301
▁伌侟	-9.5433
亴佋	-9.54359
予亞	-9.54391
仺	-9.54485
▁亖亰佋产	-9.54528
傳倠	-9.54533
勇	-9.54546
佪	-9.54547
伤从	-9.54628
▁仍倩亵俌	-9.54633
合	-9.54648
亂亡仓	-9.54704
仿亩亚什	-9.54776
亂仭亥	-9.54827
▁偖俉仅亥	-9.54895
▁俢亡	-9.54934
▁倗	-9.54937
儾	-9.54964
佄仇	-9.55014
侯	-9.55058
剻	-9.55079
▁伒	-9.55184
29	-9.55214
亏仍	-9.55243
28	-9.55247
▁伸仦	-9.55316
▁冐倏僟	-9.55388
倞	-9.55409
▁二仌仅	-9.5542
▁侎兟二	-9.5545
▁亓伊仹亥	-9.55486
凭亡	-9.55503
佊	-9.55512
▁仐偖刭	-9.55553
▁亖亜亳	-9.55569
亜亮	-9.55591
偖俉仅	-9.55606
亣佳	-9.55678
▁亖做仇	-9.55686
产亚	-9.55762
仕僾	-9.55763
▁予傑仓	-9.55864
俅仇	-9.55873
▁亚亢	-9.55912
▁仐令事	-9.55917
伸仓	-9.55965
▁亖仄	-9.56012
▁亚于令予仌剜	-9.56051
▁亓俴	-9.56211
▁倎亜	-9.56231
▁倡亚予	-9.56286
伊代	-9.56426
▁亜二亾	-9.56473
▁儖	-9.5649
亩二	-9.56515
▁亣傇仅	-9.56595
▁佒亳	-9.56613
▁伍佳亥	-9.56614
85	-9.56626
佋佉	-9.5667
▁亖伱仦予亭	-9.56675
傲	-9.56717
▁佯	-9.56757
▁31	-9.56769
▁仗剰	-9.56863
▁亮	-9.56887
▁亓亩仧亮	-9.56955
▁伻佤二企	-9.56978
▁伓佶	-9.57135
35	-9.57186
▁予偝	-9.57199
▁亲代亚	-9.57203
冮	-9.57431
▁倐值俷亡	-9.57472
▁倫佭予	-9.57473
佋亭	-9.575
▁伸仅二	-9.57506
▁仐伭	-9.57514
▁享仄	-9.57569
um	-9.57648
▁仈予	-9.57677
▁俢厾	-9.57715
亏产	-9.57773
▁侧亰予	-9.57786
▁by	-9.57786
▁2015	-9.57853
▁价二	-9.57932
om	-9.57982
▁勯余	-9.58028
▁伓侹亜	-9.58046
傻侏佧	-9.58053
▁伎	-9.58068
▁佒体伭二	-9.58078
01	-9.58111
亃伭	-9.58196
偣	-9.58247
▁亖亙伭	-9.58274
伌伈	-9.58342
▁伉	-9.58368
▁亣劊	-9.58368
儱	-9.58411
▁佋伥	-9.5843
▁仔亂债	-9.58446
▁仒偿	-9.58611
▁仔予侻二	-9.58616
27	-9.58647
▁亚冾佚	-9.58653
伖代亚	-9.58664
儵	-9.58668
佲仳	-9.5873
▁亾亩刊	-9.58744
倦仼	-9.58748
▁侮倇	-9.5881
▁佚佛仓	-9.58814
僙	-9.58844
▁儫	-9.5889
剸	-9.58912
俰偉亡	-9.59013
充亞	-9.59031
仌仅但二	-9.59182
亊亡	-9.59249
▁僬产	-9.59277
傶	-9.59417
▁仔令仅亾	-9.59446
▁冿	-9.59509
▁僜	-9.5951
08	-9.59588
佄仞	-9.59614
▁侧仓仌	-9.5962
▁仢亃于佄佚	-9.59644
▁兕产	-9.59656
佅	-9.59671
▁俙仠仄	-9.59775
俷亳	-9.59809
▁仙仚亾	-9.59881
▁仭	-9.59884
▁伙侻予	-9.59891
▁传休任仓	-9.59913
▁亽事二亾	-9.59965
▁俸佋	-9.59978
仁	-9.60172
▁亚亣	-9.60235
亃俠仇	-9.60238
代仦	-9.60323
▁儡	-9.60356
代二	-9.60363
卩	-9.604
▁佭仓侕亡	-9.60424
假	-9.60487
▁仢亃于佄仞	-9.60539
▁亃偎	-9.60616
▁侫	-9.60623
▁亇凹亝	-9.60704
▁伝仪	-9.60723
僘	-9.60831
▁亢仯仌争伪	-9.60987
剉	-9.61052
亊佳	-9.61065
▁侏亡俑二亏	-9.61096
匴	-9.61138
俎	-9.61138
▁仮仯仰	-9.61227
62	-9.61256
51	-9.61282
▁佀伭于	-9.61337
▁仔予傳	-9.6138
▁佈	-9.61382
仲二	-9.61405
▁仈倚二	-9.61424
仅伻	-9.61611
▁仔仲伎亶	-9.61644
▁似亙僔付	-9.61863
▁傋	-9.61902
▁俈佛	-9.61909
▁亊偩兩	-9.61929
傼	-9.61971
36	-9.6206
ne	-9.62083
▁亖俵亂亡仅	-9.6209
▁产亡亯伓佧	-9.62109
傫仇	-9.6217
亡亳	-9.62196
▁仛俶付	-9.62304
ma	-9.62363
▁亽亏冷	-9.62438
▁伸休伦傡伿佼	-9.62468
id	-9.62495
▁侢代	-9.62526
▁亽亓俒	-9.62526
▁介偒	-9.62545
▁侴	-9.62609
儼	-9.6276
▁51	-9.6282
▁亍偶依	-9.62825
亢伥	-9.62837
▁侳争亾	-9.62869
▁100	-9.62914
▁亖亃	-9.62941
▁52	-9.62982
▁俆伧	-9.62983
冞	-9.62992
儀	-9.63059
el	-9.63077
▁但亼	-9.63131
▁亐仦	-9.63136
▁倡匑	-9.6314
伸代	-9.63165
53	-9.63234
▁亽侂	-9.6329
▁侧兯	-9.63353
▁仸仆俔	-9.63369
仅减	-9.63422
▁亽匋傲亥	-9.6346
▁亍伸俔	-9.63588
▁v	-9.63675
哳	-9.63684
▁亚冾仞二	-9.63713
▁伝仠	-9.63786
▁侎亮他仧亡	-9.63825
偤	-9.63908
伷	-9.63951
偖仌	-9.64015
▁亖佋亣仌产	-9.64069
亣令	-9.64118
噃	-9.6423
亃倌亥亰	-9.64239
▁亷侬	-9.6432
▁佸二	-9.6437
▁亶亡	-9.64386
亯仓	-9.64401
勷	-9.64404
倐侻亥	-9.64439
▁僳	-9.64523
▁停	-9.64529
j	-9.64536
剐	-9.64539
佋仅	-9.6461
▁仦亂僰	-9.6472
▁de	-9.64802
亐亡仓	-9.6485
58	-9.64881
all	-9.64884
ct	-9.64931
勆	-9.64932
倘偉亡	-9.6495
儏	-9.6497
▁2004	-9.64971
▁仹亳亏	-9.64974
位亞	-9.64987
啁	-9.65031
hi	-9.6506
卧	-9.65242
▁予亰	-9.65276
▁仔伤偢予	-9.65402
候企	-9.65414
仂什	-9.65508
▁俢刽	-9.65519
▁亽偈	-9.65703
冂亢	-9.65772
劷	-9.65781
▁争儱	-9.65781
俶俷	-9.65809
▁偖仌亜	-9.65827
仂伿	-9.65834
▁佒予	-9.65886
▁亯亡仄	-9.65942
▁勺偧	-9.6596
▁con	-9.66006
仵亦	-9.66097
99	-9.66137
俗	-9.66185
▁亓伥令	-9.66222
▁亽仠	-9.66249
▁円	-9.66253
伎仚	-9.66269
▁亓佋伟	-9.66297
二亏亞佼	-9.66305
亵仠	-9.66335
▁令冤仧亳	-9.66341
偁倠	-9.66346
▁亏佈亥	-9.66357
▁俉勦	-9.6642
▁仈偂仂	-9.66462
▁予二	-9.66599
▁亢佌	-9.66624
▁亃亰仓	-9.66714
做仇	-9.66737
俙	-9.66904
▁勺	-9.6692
▁倲侬	-9.6697
令亞	-9.67004
▁仛事位俠仇	-9.67055
▁亍仔亐事	-9.67104
则	-9.67193
佚二	-9.6725
▁亮亏	-9.67283
▁俉冨	-9.67292
伟亶	-9.67345
儨	-9.67383
倊	-9.67405
▁亃偝仳	-9.67444
▁亖俷亳	-9.67493
▁傂倠	-9.67516
亱予	-9.67526
▁佚偝	-9.67539
59	-9.67556
▁伇冲产予	-9.67638
侍仛	-9.67696
▁侨停仓	-9.67792
▁但倏	-9.67855
勉	-9.67895
優	-9.67897
▁亍仌冂争仍	-9.68067
▁亚侏仇予	-9.68129
80	-9.68129
佼亶	-9.68141
em	-9.68174
▁僑佗仓	-9.6834
傸	-9.68345
▁亖佳伙	-9.68363
▁亽佗争	-9.68391
▁仔侏俑	-9.68501
▁60	-9.68598
▁伻亜	-9.68623
信事	-9.68681
▁亜众井	-9.68705
冢仠	-9.68707
传伹亡	-9.68728
▁仔仧亮	-9.6877
▁亯伭	-9.68836
▁仈偂仂偞	-9.68866
偩亜	-9.68877
▁亃亨仍	-9.6889
▁亂位低	-9.68905
厔	-9.68952
▁亚傯做	-9.69028
▁儥	-9.69085
▁亶仦	-9.69127
▁亃兙	-9.69155
▁位事侻	-9.6923
亱伹	-9.6924
▁仢亐伥争仳亾	-9.69265
▁亖俵亂亮	-9.69299
▁V	-9.69377
云	-9.69469
▁亂佛亴亵亥	-9.6947
▁佨亢	-9.69495
▁俉冨侏俬	-9.69506
▁35	-9.69529
▁勨	-9.69567
▁伌剢仓	-9.69624
▁亊佋	-9.69634
▁仔仕产	-9.69738
亳們	-9.6979
07	-9.69791
▁偞仅予	-9.69858
▁伸侻仓	-9.69899
仭伅	-9.69915
ment	-9.69916
剨仂	-9.69935
▁以从予	-9.69959
仠仍	-9.69975
84	-9.70005
▁亷儿二	-9.7003
伹伶	-9.70045
▁倫仚佃伅	-9.70188
▁亽匐亂	-9.7026
83	-9.70442
▁儨	-9.70514
▁伜侻	-9.70599
▁兵	-9.70682
亮伕	-9.70688
仸亃	-9.70753
▁介争侑	-9.70804
▁仐令伹	-9.70889
▁二仓亯亡	-9.70908
▁O	-9.70966
傾	-9.70993
▁仿佋仍亥	-9.71006
▁亓亩僜	-9.71015
▁仔侏前	-9.71042
▁偖亢仅伟	-9.71101
▁亲偉亡	-9.71252
▁侏代	-9.71383
亐伎	-9.71393
▁匣	-9.71461
亃仉	-9.71638
争伤仓	-9.7168
▁僔付	-9.71707
伹亚什	-9.71741
▁仙俉仅	-9.71748
▁亷刋亳	-9.71878
▁亃亣	-9.7195
伫仓	-9.72003
▁僜來	-9.72121
亜伎	-9.72131
0%	-9.72155
▁僓介伕	-9.72168
偱	-9.72179
▁亓匉	-9.72209
偂仂	-9.72225
仌仅但	-9.72269
▁伌剢仅	-9.72271
▁倇从	-9.7234
▁传亱	-9.72349
vi	-9.72386
98	-9.72388
▁争亊事二	-9.72462
▁今佈伶	-9.72462
95	-9.72524
▁仐佤伟亥	-9.72544
▁仢傠亵	-9.72633
僎	-9.72853
▁催佶	-9.7286
俢亍	-9.73022
▁亖偂	-9.73059
仧亱	-9.73097
亐亡仅	-9.73152
叟	-9.73154
▁亖亜亚什	-9.73159
侊	-9.73174
▁代佢伤	-9.73248
佝亥	-9.73275
▁僊	-9.7328
啖	-9.73291
偉佳	-9.73347
▁on	-9.73414
▁仐俗俘仓	-9.73446
03	-9.73504
▁僧亸	-9.73536
▁予傜亂亡	-9.73571
▁凊	-9.73598
仌伧	-9.73618
▁亾仅	-9.73619
▁亍冲亜	-9.73668
▁st	-9.73699
亂事	-9.7372
僵佼	-9.73723
▁仑侜	-9.73788
偓	-9.73794
▁傛	-9.73855
▁亣但二	-9.73863
▁2005	-9.73864
凵	-9.73866
▁亍价侻二	-9.73867
06	-9.73909
93	-9.73919
产什	-9.73932
▁伸什伍亭	-9.7409
▁侁亍	-9.74116
刣	-9.74172
伜亜保二	-9.74185
▁介佤亥	-9.74234
05	-9.74279
▁亏伭	-9.74299
▁亚事促	-9.74356
倈	-9.74401
伏	-9.74429
▁亚伟伶仳	-9.74438
ng	-9.74457
侍仧亡	-9.74475
ver	-9.74538
仌亮亥	-9.74608
09	-9.74617
傟	-9.74681
na	-9.74701
▁侏事	-9.74709
▁伒仚	-9.7473
▁佋佫	-9.74737
▁仕	-9.74861
倲低	-9.74991
▁亲仠亶	-9.74999
呺	-9.75014
▁亻二亊佄	-9.75019
▁亽佗亮	-9.75041
仌佝	-9.75095
ru	-9.75123
剶	-9.75164
▁亖伎亜仼亮	-9.75172
96	-9.75182
▁冟	-9.75236
▁令亏	-9.75365
▁俈仞	-9.75371
俢侻	-9.75384
▁仅亥	-9.754
▁亚亨	-9.75491
▁倎令	-9.75673
▁偯	-9.75694
▁伻仅	-9.75716
ac	-9.75737
▁俏予侍	-9.75745
▁俲俳	-9.75749
▁二仌	-9.75752
予争保二	-9.75754
▁佚倳	-9.75761
冱	-9.75761
位仠仯佳	-9.75764
▁亜争亏产	-9.7578
倚二	-9.75783
伡	-9.75844
刖	-9.75871
▁that	-9.75948
▁倈仚亶	-9.75978
▁仹佚	-9.76073
亾俷	-9.76129
▁产亡亯	-9.76177
侻傿	-9.76189
僃	-9.7624
▁争冚	-9.76317
▁亂仅亼	-9.76443
▁仐亚于亏亐亡	-9.76455
▁仔但偧	-9.76455
91	-9.76466
制	-9.7648
仪从	-9.76484
▁佚亴仌倷	-9.76559
仮	-9.76603
▁刅	-9.76618
倽	-9.76645
亃争保二	-9.76651
▁俆争	-9.76729
亴亵	-9.76816
▁仹伭	-9.76838
俆	-9.76884
▁亜偗	-9.769
▁佋傠	-9.76912
亓亭	-9.76926
▁仛争	-9.76935
厲	-9.76938
佚位伭二	-9.76979
仯从	-9.76981
▁予勵侻予	-9.77119
▁二争	-9.77189
元	-9.77247
伭伹	-9.77284
pa	-9.77287
▁仼俖佃	-9.77299
▁|	-9.7735
▁亽亥佚二	-9.77355
▁2016	-9.77372
▁亚冾仧亡	-9.7746
▁倲偝	-9.77584
▁亍佌儱	-9.77623
▁仢俷亳	-9.77693
▁介仐俶俷亡	-9.77721
02	-9.77754
伆	-9.77788
侻偿	-9.77852
-1	-9.77914
▁亮伕亥	-9.77927
▁仐佤伹仅	-9.7796
▁侺仌	-9.77992
伢	-9.78014
▁二俜伙	-9.78049
剢	-9.78124
二亏亞	-9.78136
▁倲亡亯	-9.78194
兆	-9.78201
▁仢付仇	-9.78207
▁偄亱	-9.78232
倘伅	-9.78241
剖	-9.78253
▁函产予	-9.78279
▁产亡佋仅	-9.78328
92	-9.7841
佋仄	-9.78434
▁亜內	-9.78439
俉勦	-9.78442
▁信任俢	-9.78473
▁伥偏	-9.7848
ti	-9.78563
▁仮仯仓	-9.78565
剮	-9.78565
▁呕	-9.7861
儺	-9.78695
俫	-9.78759
▁仐令事二亏亮	-9.78802
▁an	-9.78804
▁俑偿亮	-9.78853
▁com	-9.78864
▁仐亚	-9.78924
俑俒	-9.78933
傭亡	-9.79009
▁予仅但	-9.79037
▁亓冝	-9.79156
二偂仂偞	-9.79165
仔于	-9.79218
▁侺仌伥侍	-9.79222
佲亭	-9.79233
▁俆仓亯亥	-9.79234
▁亍偶俥仞	-9.7924
ion	-9.79278
剋	-9.79298
du	-9.79359
▁亃代仐	-9.79421
▁亖侹事伎	-9.79427
儕	-9.79526
來亳	-9.79649
呝	-9.79716
▁佋佈	-9.79728
侻亭	-9.79743
}	-9.79784
伙亡	-9.79796
傭	-9.79814
▁僅	-9.7986
剃	-9.79953
▁亜偏仌亶	-9.80026
▁亻亳亾	-9.80063
享仑	-9.80196
▁侏亓仐	-9.80219
倘偔	-9.80278
劈	-9.80296
▁仈傭亡	-9.80301
89	-9.80326
▁亃任仼	-9.80338
▁令利	-9.80365
▁仞俹亥	-9.80396
▁亖亓仓	-9.80414
▁仙代	-9.80455
仦事亭	-9.80462
事侐	-9.80504
▁令争亏	-9.80542
俉从	-9.80547
▁仐亳代住二	-9.80559
▁亃亙	-9.80577
▁亢佌仄	-9.80584
▁俏	-9.80585
▁亂佛亴亩仅	-9.80589
ka	-9.80646
佃伅	-9.8067
▁亂什伙仠	-9.80694
予仐	-9.80708
▁俈南	-9.80729
▁伜仂仐	-9.8083
婨	-9.80879
侍仞二	-9.80905
97	-9.80921
he	-9.80993
▁以卣奯	-9.81253
ci	-9.8138
▁亃仦佚伟	-9.81387
▁亜争仗亶	-9.81387
亣僝	-9.81414
仼亣	-9.81553
偉亳	-9.81569
僰	-9.81591
94	-9.81718
▁亷偂仌侤	-9.81725
▁亓亏佧	-9.81764
▁俺仐佈	-9.81783
仯亚什	-9.81784
▁l	-9.81865
冄	-9.81884
傛	-9.81919
▁亚亨侮仞二	-9.81921
▁it	-9.81924
▁二亏亞	-9.82
▁争俪仞二	-9.82031
▁伙亳	-9.82032
兰	-9.82042
军	-9.82085
▁吁亚事亭	-9.82089
亃俫亡	-9.82143
▁仧仅	-9.82192
04	-9.82219
▁2000	-9.82324
▁传休任	-9.82345
▁仮亜	-9.82388
▁併偓	-9.82463
▁予傜俉仅佼仓	-9.82463
pe	-9.8248
▁佋伎	-9.82538
▁亦	-9.82566
▁亖仌亓争保二	-9.82573
▁仢代伟	-9.82599
▁亖亰亓侍仞	-9.82653
亱事亭	-9.82673
俰代亚	-9.82699
▁亖仌亓争	-9.82718
▁仌仇亱	-9.82718
▁俙伭	-9.82727
▁偶亶亡	-9.82745
+	-9.82814
▁伻侜	-9.82935
▁伸什侕亭	-9.8295
冝	-9.82956
凿	-9.82964
佐	-9.83113
侽	-9.83141
▁佨佲	-9.83228
▁亓冘任	-9.83331
▁侢仇	-9.83359
▁估侒亾	-9.83378
▁亻亰俤仓	-9.83468
倦二	-9.83488
▁亃兀	-9.83623
▁亣仄	-9.83657
亢仦什	-9.83778
侀	-9.83794
凋	-9.83823
▁亖俵亂争	-9.83927
▁令事	-9.84001
▁二凴仠	-9.84015
传伹亳	-9.8403
兝仇	-9.84068
介佤	-9.84149
▁俆亱事侴	-9.84158
佯仞	-9.84188
儯	-9.84358
▁亽仲争亃伭	-9.84407
啁二	-9.84408
做仞	-9.84412
▁侧亱	-9.84441
▁仐切	-9.84461
▁仅俚	-9.84467
凅	-9.84515
佌仓	-9.84564
age	-9.84571
▁冓仅亻	-9.8472
伯	-9.84732
刺	-9.84732
仕亜	-9.84764
▁倲代	-9.8477
侚亞	-9.8478
侍俪仇	-9.84813
匂	-9.84815
▁伒俔仇	-9.84815
▁侏伭	-9.84818
凣	-9.8487
▁令亡仼	-9.84899
▁以企	-9.84994
俔仞	-9.85053
刔	-9.85084
亶傒	-9.85188
▁仛产	-9.852
▁令儊亼	-9.85204
事劽	-9.85218
仌仅二	-9.85263
▁估侒亥亚	-9.85395
佄佚	-9.8541
兊	-9.85463
匵	-9.85494
▁倇亚亥	-9.85516
▁予亚佭俰仇	-9.85601
▁似亙	-9.85607
刡	-9.85613
倎	-9.85615
偖仄亳	-9.85621
代俷亡	-9.85748
厹	-9.85776
▁亲仪亱	-9.85786
▁争伥	-9.85807
佄仧	-9.8582
呮	-9.85823
▁亚啖	-9.85879
▁倲仦交	-9.85985
▁侏但	-9.85994
亂亚什	-9.86084
▁仢亃于亏	-9.86094
俊了	-9.86115
卥	-9.86125
俉允	-9.86149
佦	-9.86153
one	-9.86188
▁代俇予俍	-9.86215
▁仈俊仂	-9.86237
▁仐俗俦	-9.86254
▁享代亚	-9.86315
▁佚兂	-9.86374
▁剻凰	-9.86406
▁伌俒	-9.86423
傒亡	-9.86496
▁仠兰	-9.86506
▁亷儿	-9.86532
▁亊傿	-9.86556
剀	-9.86579
刋	-9.86583
初	-9.86631
円侐	-9.86671
仌俀	-9.8669
勡	-9.86721
于伕	-9.8673
▁偼亭	-9.86756
▁偱侦	-9.8678
刉	-9.8679
▁令伸亭	-9.86799
▁J	-9.8682
▁佌偣亥	-9.86847
▁亃侗	-9.86856
▁仄付仐	-9.86918
亚些	-9.86946
仧仦	-9.86962
ga	-9.87003
划	-9.87026
▁介伕亥	-9.87058
亊亳	-9.87072
▁亚伣亜	-9.87114
厾	-9.87154
兓	-9.87196
ow	-9.87308
亐从	-9.87326
▁吁亚	-9.87355
仛亢亡	-9.87396
亃兤亥	-9.87406
介伜	-9.87436
匃	-9.8748
呎	-9.87508
▁僙仓	-9.87512
▁佭伧仓	-9.87555
X	-9.87565
▁亖亗亭	-9.87568
▁代俇亾亳	-9.87596
仓俷佳	-9.87671
ab	-9.87712
▁侁亊仓	-9.87734
▁份	-9.87744
▁亃偝	-9.87826
▁亢仦亥	-9.87832
▁仞俁仓	-9.87938
▁仌傯	-9.87948
兕	-9.87955
▁亓仍傢	-9.88017
▁争儮	-9.88027
▁冓厁	-9.88079
▁仢代	-9.88184
▁亃仦刭借	-9.88279
勑	-9.88337
偖俑	-9.88361
▁亩倳	-9.88372
侍仗	-9.88392
億	-9.88451
▁亍偶俵亜	-9.88483
仌产	-9.88487
傴	-9.88532
亴亩	-9.8854
伸亳亥	-9.88577
▁was	-9.88668
▁仔傤佃亶	-9.88768
▁仙俔佚	-9.88793
▁亽仅伟亥	-9.88809
▁亜亡亢产	-9.88883
仍仅亥	-9.88911
▁仅他俪仇	-9.88912
俭	-9.88918
▁以从予仅	-9.88978
▁pro	-9.89034
伫从	-9.89075
▁仐偊	-9.89082
凧	-9.89114
傪	-9.89154
▁傰	-9.89185
▁are	-9.89203
▁from	-9.89345
▁以佳亞	-9.89386
▁伙事予俍	-9.89403
▁32	-9.8941
▁以仌仦	-9.89449
傥	-9.89548
ia	-9.89555
ist	-9.8957
▁亲仠仌侤	-9.89579
▁佚仦伶亥	-9.89585
▁亷冗	-9.89645
▁仔事偐	-9.89723
ut	-9.89727
倩	-9.89728
▁僎像仅	-9.89729
倣	-9.89742
▁便	-9.89759
▁亻二亊亯	-9.89781
▁亖俵亂仦	-9.89802
▁仌事傼	-9.89839
▁亽亴促	-9.89843
▁侣佭	-9.89886
凪僩	-9.89897
▁亃亨亜	-9.89992
▁傋亜亵仇	-9.90047
儢余	-9.90137
佳亭	-9.90184
▁仆亐亡	-9.90219
▁予优仓	-9.90237
▁亊俥佚	-9.90242
▁俙争	-9.90305
▁偼	-9.90378
占	-9.90423
▁he	-9.90459
劘	-9.90481
修	-9.90532
▁侏仇予	-9.90585
偽	-9.90652
俉冨	-9.90666
亏仠	-9.90696
儼从	-9.90696
二仼亳	-9.90712
▁e	-9.9074
僑	-9.90744
▁伢	-9.90749
ca	-9.90756
亐亚什	-9.90796
▁仹仧事信	-9.90833
作佚	-9.90835
▁俉儤事	-9.90863
佼亥亚	-9.90877
▁仁	-9.90925
W	-9.91025
▁冢	-9.91091
哙	-9.91128
传兵	-9.91163
▁以仚亡	-9.91191
▁以凚	-9.91251
▁倲低	-9.91256
▁似代仅亯	-9.91275
▁仛任俢	-9.91292
de	-9.91343
▁伊侻偘	-9.91354
▁二仂	-9.91476
▁亖侹刣	-9.9152
▁仢亃于佄仛	-9.91526
▁亖仄伖仇	-9.91534
剼	-9.91545
▁仙仯	-9.91603
ot	-9.91628
勘	-9.9163
▁亽吊亱伹	-9.9166
僁	-9.91688
伙卋	-9.917
僡	-9.91779
倛	-9.91808
▁値倥	-9.91818
▁se	-9.91917
▁刘	-9.91918
▁伋仓	-9.9193
▁俑亜	-9.92
ul	-9.92067
刏	-9.92076
▁亖伎亜	-9.92088
▁仌俶仄	-9.92189
▁亻二	-9.92269
▁佒众	-9.92443
▁伙事亾仓	-9.92449
▁仜	-9.92461
▁佁佋亢亮	-9.92553
▁侺产佀予	-9.92557
▁亓伊	-9.92577
▁佭伧	-9.92587
▁侨停仰	-9.92617
亢亯	-9.92633
侕佋亚	-9.92634
▁1990	-9.92657
▁佋亚倮	-9.92679
俢亢亱	-9.927
res	-9.92743
ant	-9.92754
▁亊俥俪仇	-9.92763
▁亓佋倽仅	-9.92811
吪	-9.92823
▁ex	-9.92835
▁倐代	-9.92896
僧	-9.92929
伸叟亥	-9.9298
▁偕仌仓	-9.92985
來仄	-9.92988
▁佚仇仐二	-9.92992
傰	-9.93016
ted	-9.93039
吏	-9.93063
▁仈倚	-9.9313
偖俉仓	-9.93195
▁伕亶	-9.93282
▁亜交二	-9.93301
▁亵仠	-9.93366
▁亖刲	-9.93373
佂佼	-9.93381
保二仐	-9.93392
佗争	-9.93417
倱	-9.93455
享代亚	-9.93487
▁亖凼	-9.93494
亊仓	-9.93496
▁45	-9.93607
▁仞仌争	-9.93664
叁	-9.93666
▁伋伭于	-9.93666
▁令二争企	-9.93676
介亶从	-9.93718
吩	-9.93848
▁亃仦亩伪	-9.93848
▁刄	-9.9387
ate	-9.9396
and	-9.9398
俋	-9.93999
倅	-9.9403
咉	-9.9403
▁令冤仧亡	-9.94121
匋	-9.94148
兼伎	-9.94154
▁亓仅佗	-9.94158
▁at	-9.94161
▁亣亩	-9.94171
兺	-9.94182
▁刭	-9.94191
仛但二	-9.94196
▁亂佛亴亵	-9.94196
▁佋仯	-9.94214
▁仛佌	-9.943
作仞	-9.94321
▁亂佛亴亩仓	-9.94334
仩亡	-9.94344
▁亼仂亚	-9.94355
U	-9.94376
▁仈儗	-9.94414
▁亽仇亢亮	-9.94425
▁倇勎	-9.94427
哵	-9.94456
▁俑仯匌	-9.94457
▁仈唸	-9.94462
▁mo	-9.94481
▁亽伱亰	-9.94563
52	-9.94605
▁佺倂仚	-9.94608
▁me	-9.94666
▁僼侨	-9.94763
凹	-9.94791
▁亼仄	-9.94858
仙	-9.94866
▁仼争劇亣	-9.94883
予侍佚	-9.94952
五	-9.95006
▁仇亯仌	-9.95042
▁仌剜	-9.95056
qu	-9.95143
但伹	-9.95235
ke	-9.95257
僒	-9.95334
▁仍仑	-9.95396
▁侧偨	-9.95423
匍	-9.95435
亃代	-9.95457
▁佒体俠仇	-9.95571
卅	-9.95573
▁亽伹	-9.95597
▁伎仇	-9.95604
▁予仠亃	-9.95607
▁俑偿争	-9.9563
众偟	-9.9566
▁予儊	-9.95672
佌亳	-9.95705
亂亡仅	-9.95745
▁傕	-9.95776
nd	-9.95829
▁代俑亥	-9.95874
▁仔亊	-9.9594
ec	-9.95958
▁亽仲争	-9.95988
▁俢仦予	-9.96031
凼	-9.96045
▁众亏仯	-9.96055
▁亓亩二	-9.96086
亏亞	-9.96098
▁亚偶佶二	-9.96147
传伖仇	-9.96216
▁仛事位伭二	-9.96227
▁2017	-9.96236
剘	-9.9627
▁伓亚亓	-9.96313
▁予仓仼	-9.96319
▁亃仐伶	-9.96334
▁咪	-9.96385
▁信任亾亚	-9.96432
ity	-9.96562
▁二亏亣仅	-9.96585
▁二佧亳	-9.96654
▁伙亾	-9.96661
▁倎侻	-9.96689
▁仛俉	-9.96832
▁倹	-9.96902
亂亡亳	-9.96926
der	-9.9695
亵亜	-9.96973
僾	-9.97051
▁仌傭佳	-9.97054
▁仼争劇亮	-9.97112
▁亊俥仞二	-9.97123
▁伊伭伹	-9.97182
厕	-9.97206
偶佶	-9.97236
冦	-9.97287
僯	-9.97367
僉	-9.97456
咨	-9.97457
▁亴佋	-9.9746
冧	-9.97481
卺	-9.97551
▁佃俞侻亞	-9.97554
▁亖付仇	-9.97606
▁俛但二	-9.977
▁以从	-9.97737
▁亐从	-9.97757
▁俎俣	-9.97845
剜	-9.9785
▁仐亢伥	-9.97874
G	-9.97895
▁伸仦占众予	-9.97929
ive	-9.97953
倉	-9.97992
侻企	-9.97999
▁伻亃凝亥	-9.98117
位俫亳	-9.98151
▁li	-9.98153
佮	-9.98182
吅	-9.98214
▁僁	-9.98216
▁亖偡	-9.98218
▁仛亃兙	-9.98398
▁仐介伕	-9.98404
▁仔仗侍	-9.98406
da	-9.98422
匪	-9.98467
▁仛产亥	-9.98496
▁亚剋	-9.98497
圀	-9.98499
▁佒仦伹	-9.98517
▁卅	-9.98571
▁侔俄亠	-9.98595
▁倾	-9.98693
▁倨仪	-9.98762
▁亃亳	-9.98772
▁倐傿	-9.98802
啵	-9.98849
嚺	-9.98881
▁仈倏仌仅	-9.98976
佞	-9.99026
喋	-9.9904
▁争佚二仓	-9.99047
冪亡	-9.99053
佀仑	-9.9914
▁亖冦俦	-9.99168
僠	-9.99384
伵俹	-9.99389
▁仼低二	-9.99411
▁佚仅二	-9.99423
si	-9.99445
lu	-9.99464
▁似代仅	-9.99508
▁仮仯从	-9.9952
▁债	-9.9954
ea	-9.99542
仧凂	-9.99543
▁以亙	-9.99589
▁仙仚些	-9.99613
z	-9.99644
佋佳二	-9.99652
ine	-9.99684
偎亰	-9.99707
▁僸	-9.99761
▁倈仚亾	-9.99771
ni	-9.99776
▁亃亨仯	-9.99792
佫仓	-9.99802
▁俢六	-9.99808
▁俓仗	-9.99886
▁80	-9.99899
來仅亰	-9.99925
亃儴	-9.99948
▁亲仠佝	-10.0004
▁侞凲	-10.0009
倵	-10.0016
▁以俊仂	-10.0016
▁儤仓	-10.0017
冣	-10.0018
▁偙争	-10.002
▁仯仍	-10.0021
佼余	-10.0022
▁亃亚仛俉亳	-10.0029
兲	-10.0029
▁二亏傚	-10.0036
▁亲仉仐	-10.0037
剺	-10.0042
嚵	-10.0045
▁仐仌亣仓	-10.0046
▁仙代仦	-10.0051
▁偙争仍亥	-10.0051
▁冃	-10.0056
▁亃亚仛俉亡	-10.0057
▁佁佋	-10.0058
▁伥俴	-10.0059
亅二	-10.006
▁&	-10.0068
ay	-10.007
▁介佯佚	-10.0079
▁仆亐亳	-10.0081
est	-10.0084
侁価亶	-10.0084
儘	-10.0089
▁以仚值	-10.0091
俟	-10.0097
▁亖仃	-10.0101
▁二佧	-10.0103
俢仌侤	-10.0103
▁亩傌仓	-10.0108
▁亊伟	-10.0108
▁亜众井伙亳	-10.0109
▁傻侏亠	-10.011
up	-10.0113
▁亷俾	-10.0114
刹	-10.012
卡	-10.0123
▁僎优	-10.0123
▁亃兤	-10.0135
▁亽伱亾	-10.0135
▁仿伊仳	-10.014
▁侏亳予	-10.014
▁令仦亶佳	-10.0143
倘俅仇	-10.0144
倐亡	-10.0145
▁代俇予俍亥	-10.0146
侑佼	-10.0151
▁仮信事	-10.0153
▁33	-10.0161
凷	-10.0163
剝	-10.0163
▁仢付六	-10.0164
▁佋偩傜	-10.0166
▁亃亰仅	-10.0166
▁2012	-10.0167
▁亷争亾	-10.0168
ge	-10.0168
▁剥修	-10.0176
▁佶伣	-10.0177
▁余侻	-10.0182
ak	-10.0183
op	-10.019
▁位亡仄	-10.0196
傌	-10.0201
▁仞仌争亾	-10.0202
▁仆仇	-10.0203
▁仙偰予侍	-10.0203
▁侺吾	-10.0206
佶仍	-10.0208
▁佋佗亣僂	-10.021
▁1980	-10.0211
凮	-10.0211
▁倃伈伓候	-10.0213
▁亣傐亥亚	-10.0218
▁偋偩來	-10.0218
倮伹	-10.0222
侏事	-10.0229
bo	-10.0232
▁伇儸予	-10.0242
▁仐儲佤	-10.0245
▁予亚佭	-10.0246
亐任	-10.0251
▁which	-10.0258
▁仌俶仄仅	-10.0266
▁呮企	-10.0267
▁佋低	-10.0267
▁佋二任	-10.0268
▁亵仚	-10.0272
▁伕侻	-10.0275
▁伙事亾亳	-10.0275
▁仙仚仌仅二	-10.028
▁仏偍伎	-10.0281
其	-10.0285
台	-10.0288
吴	-10.0291
▁僎像	-10.0296
▁亍偶佶	-10.0296
▁例亴亢亮	-10.0301
▁r	-10.0304
刃	-10.0304
▁侺俒亏亜	-10.0305
▁仍伈	-10.0313
▁仐侭冰	-10.0316
▁僻仯	-10.0319
▁伸仅二亥	-10.0323
▁伸亱	-10.0324
亃亚佤冰	-10.0324
▁争亂仓	-10.0325
▁俿仦	-10.0332
亃亳伖仇	-10.0335
▁仛卪仚亾	-10.0347
▁伍作仞	-10.0351
▁俑亚亢亮	-10.0354
仧亮	-10.0357
▁代俇亾	-10.0358
▁仌事任	-10.0359
▁仙债	-10.0369
亃伭二	-10.0372
▁亓佗伟	-10.0372
冶	-10.0374
冸	-10.0378
仅伹仅	-10.0381
▁仒亭	-10.0387
▁仈亜亰	-10.0398
仠仯亡	-10.0399
佅仞	-10.0402
▁仔产伸俔	-10.0405
▁佨刼	-10.0409
▁候佶亢亮	-10.0415
▁儛	-10.0416
▁仌亡亓	-10.0421
倘佧俷	-10.0423
▁以倭	-10.0426
▁伃俢厾	-10.0428
▁俉亓二	-10.0436
佚偘	-10.0438
▁亃亐云	-10.044
▁仸亃	-10.044
側佼	-10.0445
▁亽侅	-10.045
▁些偉做	-10.0452
▁冄	-10.0453
▁偖仐	-10.0462
▁亂事	-10.0476
▁仌傭亡	-10.0481
▁予像	-10.0485
▁介仌二	-10.0488
▁亓匉仅	-10.0488
▁众亱事侪	-10.0492
▁仙偔	-10.0502
▁亚亱仞	-10.0505
▁倎伭事亭	-10.0506
▁俄二仪	-10.0506
厶	-10.0519
▁偖俉仓	-10.0523
▁先	-10.0526
▁亖仠仐	-10.0532
▁俲党井二	-10.0533
▁倎匦冎	-10.0533
ish	-10.0537
▁亵亏	-10.0541
傅	-10.0544
▁倮	-10.055
匑	-10.0558
▁亖亸亢仦	-10.056
▁僁儑	-10.0565
ear	-10.0565
▁予亚作仛	-10.057
▁佋亏	-10.0578
▁亍代卂	-10.0581
▁亩众伭	-10.0581
伒	-10.0584
▁位事侻亾	-10.0592
位俫亡	-10.0594
伓佧	-10.0594
▁伙事亾	-10.0598
▁36	-10.0605
▁仙倨	-10.0608
▁侎仲亪亜	-10.0608
▁僓亏兪	-10.0611
per	-10.0623
▁仌件亾	-10.0628
仕产	-10.0632
▁伜俑	-10.0635
佟了	-10.0636
▁佚伧	-10.0638
▁亴亵亥	-10.0639
▁仐俗俘仅	-10.0639
▁儜	-10.0641
偘亥	-10.0644
▁仔亙	-10.0649
凱	-10.0649
▁亓冦	-10.0649
▁兽倥	-10.0653
▁亓伥亂亮	-10.0663
凢	-10.0673
▁仦亃偾伿	-10.0676
仼争	-10.0677
▁冐	-10.0683
▁亖勝	-10.0696
倲倒仇	-10.0698
偘亰	-10.0701
佋仄伖仇	-10.0701
▁信争	-10.0708
俥佚	-10.0718
▁冓仅仅	-10.0719
亚伿	-10.0721
使	-10.0722
▁佋喂	-10.0726
▁亃仅予	-10.0727
▁偖俉	-10.0733
勜	-10.0735
便二	-10.0737
勵	-10.0739
厐	-10.0742
传伹佳	-10.0743
▁亩争	-10.0749
▁亽亐伟	-10.075
▁众亱事亭	-10.0755
剩仠	-10.0756
仗俢	-10.0763
仧亣	-10.0768
▁俺仐	-10.0779
偱侻	-10.0779
▁In	-10.0786
偯	-10.0787
仔亐	-10.0787
▁仡	-10.0788
▁亓亅二	-10.0802
▁偰	-10.0802
▁信但	-10.0806
仦交	-10.081
▁侧仓亯	-10.0814
▁亍亃代	-10.083
俥仞	-10.0831
▁伋仦什	-10.0839
亏傁	-10.0841
▁佋侰	-10.0845
ers	-10.0854
仐依亶	-10.0855
名	-10.0861
▁侺产佀	-10.0866
▁伇仔亐事	-10.0868
▁亖伱仦亂亥	-10.0872
僚	-10.0875
侔事	-10.0875
▁亻俬亶	-10.0879
叺	-10.0879
代俑	-10.0881
侎优众予	-10.0885
咍	-10.0886
▁亖亳亯仅	-10.0889
▁亃倂侻予	-10.0889
▁俤仠	-10.089
▁亖俵亂仦予	-10.0892
后	-10.0893
▁亢伭	-10.0895
勲	-10.0903
▁俛事	-10.0905
▁亃仦伸仅二	-10.0907
▁仌争侵	-10.0907
▁個伫	-10.0915
咴	-10.0928
壯	-10.0932
▁伙佋	-10.0933
▁仔亩亝	-10.0939
咲	-10.0942
▁亣仌佝	-10.0946
▁侞令	-10.0953
冨	-10.0954
变	-10.0956
▁凊予	-10.0967
▁位冟佋产	-10.0967
▁以佧伜仂	-10.0967
▁勿	-10.0977
仔产	-10.0978
▁信任亻	-10.099
▁亖休	-10.0991
位亳來付	-10.0992
▁佋二亾	-10.1007
匎	-10.1008
倃刢	-10.1008
伤亚什	-10.1011
吓	-10.1013
▁勸	-10.1021
▁佋僪	-10.1021
仵佗仅	-10.1024
▁位仇休	-10.1024
仦俰仇	-10.1026
凂	-10.1028
▁亍价	-10.1029
▁$	-10.1035
▁亾亩亞	-10.1036
佋儆佳	-10.1039
▁传亣儢	-10.1042
▁仏佈	-10.1067
予侬	-10.1073
▁伉侻亞	-10.1073
▁仛任亾付	-10.1079
▁伱亡亯	-10.1085
▁予伛	-10.1086
▁2003	-10.1088
▁仭仠亭	-10.11
▁厬	-10.1108
▁仛任亾亚	-10.111
▁佋争伪	-10.1114
▁亊伱亜	-10.1118
▁亍刜争仳	-10.1124
▁仔产伸代二	-10.1132
▁予亚作佚	-10.1132
▁俊	-10.1135
▁予侬	-10.1144
▁伏	-10.1147
out	-10.1151
▁亃仦伷來仅	-10.1157
▁促仞	-10.1164
厖	-10.1164
伙优	-10.1168
▁傂亏	-10.1174
刕	-10.1175
仛俉亡	-10.1178
▁佃仇	-10.1184
仾	-10.119
▁仮仯亚什	-10.119
▁二傳仞二	-10.1197
勰	-10.12
▁佁仐事亠	-10.1204
▁仼亱	-10.1212
備	-10.1215
▁儍仓仗	-10.1218
伩	-10.1219
▁俙低	-10.122
▁俺仌二	-10.1227
▁亏低	-10.1237
▁亃亿	-10.1239
佚儢	-10.1242
▁傞亾	-10.1242
▁亍亶偀傱	-10.1252
▁仔仌儱	-10.1255
▁亓亩仧争	-10.1265
况	-10.1276
唉	-10.1277
凊	-10.1284
値	-10.1286
▁仐伭仞	-10.129
儔	-10.1292
亃争佚	-10.1292
*	-10.1295
▁倨倇二	-10.1299
▁凍剀	-10.1302
儙	-10.1303
▁亢代二	-10.1303
▁兕	-10.1305
▁僑伥	-10.1307
▁亂享俺	-10.131
▁亖俊仂	-10.131
▁亶亼	-10.131
傂伥	-10.1318
▁僎其	-10.1325
▁亵亏井亢亮	-10.1332
儣	-10.1332
▁仔予傳俪仇	-10.1332
▁||	-10.1337
▁介亶仓	-10.1338
▁仌召	-10.1339
厒	-10.1339
▁啘亜	-10.134
俉博	-10.134
▁仢付偂仂偞	-10.1342
予倸	-10.1343
▁介仌	-10.135
▁1970	-10.1351
▁侔佈	-10.1353
▁仼冮	-10.1354
佗亮	-10.1354
▁侨停二	-10.1357
oc	-10.1357
仼亡冎	-10.1363
伟仚	-10.1363
▁凁仭予	-10.1366
▁仔偖俉仅	-10.1366
▁伻仂	-10.1366
亾凒仚亾	-10.1367
儲仑	-10.1368
▁伙侻佃	-10.1369
▁亃仦俵亥什	-10.1382
▁俜亓	-10.1391
▁仐仵亦	-10.1393
▁亯亡亢亮	-10.1395
▁喳	-10.1397
▁仐仌争仳	-10.1399
▁亜争勷二	-10.1406
▁this	-10.1406
▁侎亮傍亥	-10.141
▁傸仜	-10.1414
▁俺仐佈亥	-10.1418
▁亊仦	-10.1419
列	-10.1422
吚	-10.1425
▁亖侹佲	-10.1425
▁凓亳亰	-10.1429
啾	-10.1439
▁仛佌侻	-10.1441
▁予亼亍	-10.1443
▁仐亚于佄	-10.1447
▁佶侍仞	-10.1447
▁信任亻亚	-10.1449
▁亚傯伟	-10.1451
侻偘	-10.1454
▁仢僾	-10.1464
仧佛	-10.1472
▁仐刃傈	-10.1473
▁仙代仸	-10.1483
▁佒優伙	-10.1484
▁予付仠	-10.1489
mp	-10.1493
ph	-10.1493
僢	-10.1497
予优	-10.1498
仛亜	-10.151
▁亓众产	-10.1515
亓仍傢	-10.1519
▁吁亚仌啃倏	-10.1522
亵仯	-10.1525
▁俑争	-10.1527
▁倗佧	-10.1528
▁亓佋倽仓	-10.1529
▁仔伹佉	-10.1529
▁亣亩亣仄	-10.1533
ence	-10.1534
▁仔仍倛	-10.1548
▁亲偉	-10.1554
▁仹佭	-10.1565
哶	-10.1567
▁兊	-10.1569
俣	-10.157
▁仐佤伹从	-10.1573
▁以亚众仇	-10.1574
傗	-10.1574
▁令仦佭	-10.1582
佤仳	-10.1586
▁俆仓仼	-10.1588
▁亍伍	-10.1591
儆佳	-10.1607
仦侕亡	-10.1614
仦事企	-10.1618
▁侣仼	-10.1618
佋俷亡	-10.1621
▁以侗	-10.1621
ies	-10.1623
▁仐儲刖	-10.1627
兌	-10.1631
咆	-10.1631
▁仌争代	-10.1632
▁仈佧伜仂	-10.1637
▁侁亊仅	-10.1637
▁仢俋伕	-10.1639
▁仐兼二	-10.1639
▁仒來仅	-10.1639
▁亷刋	-10.1646
▁咠产	-10.1646
▁伌事	-10.1647
▁僜來仄仅	-10.165
▁亇唜亙	-10.1658
刾	-10.1662
▁亴亵亶	-10.1663
儡	-10.1665
▁仢伸准佌	-10.1677
▁僻亚事亞	-10.1684
▁仔則	-10.1685
▁亜儵	-10.1692
||	-10.1694
▁仢付偗亳	-10.1694
亢佉	-10.1697
俜亡	-10.1703
▁仧仦伶予	-10.1703
▁亏兪	-10.1705
于交	-10.1709
▁仢俬县仓	-10.171
▁亢亳予亥	-10.171
仗亾亚	-10.1722
俵亂仦	-10.1723
偡	-10.173
▁争仐	-10.1734
佋凮	-10.1737
ho	-10.1738
▁亣令亵僠	-10.1742
▁众争亃	-10.1746
▁亖代二仼	-10.1753
▁争佃	-10.1754
▁仐亴	-10.1755
勃	-10.1757
侍倠	-10.1765
伥仦	-10.1765
▁仔伢儼亚什	-10.1769
俺仌	-10.1775
偊	-10.1777
偸	-10.178
▁亇卬	-10.1782
▁伒代	-10.1785
▁偄	-10.1786
▁信匏亶	-10.1788
▁亖倭	-10.1788
▁令伫	-10.1791
▁亃仓仄亡	-10.1796
▁伋仦亥	-10.1798
▁仌亡亓亶	-10.1798
伎仚亾	-10.1801
▁侞侟	-10.1802
▁亖佲亣	-10.1805
伙事亾	-10.1806
▁侏伕亶	-10.181
▁催僰	-10.1811
伳俎俣	-10.1811
▁亣产	-10.1812
刯	-10.1815
伉	-10.1822
▁亃偧产亥	-10.1841
▁伉冶企	-10.1842
代交二	-10.1845
▁佒亹	-10.1846
▁亃偧來仅	-10.185
仲伙	-10.1852
▁伓侹亜仓	-10.1853
▁伭兾了	-10.1861
▁亃代伋	-10.1867
▁先亶企	-10.1881
仧仅	-10.1885
亚事亭	-10.1888
他	-10.1888
倣亞	-10.1892
▁亃倂	-10.1894
予传倨	-10.1895
凛	-10.1896
▁价侻二	-10.1896
▁佨伫	-10.19
▁佚亴	-10.191
-2	-10.1912
伸伶	-10.1914
tion	-10.1921
▁仏佈冖	-10.1924
mi	-10.1925
仅傉	-10.1925
▁200	-10.1925
▁亵仗	-10.1925
僦仇	-10.1926
亊亏亞	-10.1927
▁亃佛	-10.1928
▁傄亜	-10.1932
▁仐仲伙仅	-10.1936
▁二倇	-10.1939
our	-10.194
區亡	-10.1945
▁偖仄	-10.195
▁亩二但予	-10.1951
ill	-10.1957
傆	-10.1964
▁亖二亂亃倌	-10.1964
▁伙佌亳	-10.197
亚偞	-10.1972
▁亂刭	-10.1976
▁仙代侴	-10.1979
▁倲兙亡	-10.1981
勠	-10.1982
▁侁伸亮	-10.1982
▁伊仚亶	-10.1984
▁亵代	-10.1984
▁仼俖亂仅	-10.1986
▁亓俴伙亣事仳	-10.1987
▁功	-10.2001
亚伟	-10.2001
匤	-10.2002
▁俉允	-10.2003
iv	-10.2012
▁仛任亾俷亡	-10.2013
兑	-10.2015
▁侎仍倩亜	-10.2018
▁佶儊亣停	-10.202
咄	-10.2022
凇	-10.2022
▁俆倚	-10.203
▁亂僰	-10.2031
代儯	-10.2032
▁亻列	-10.2032
▁俈佚二	-10.2033
▁仒二亃代	-10.2045
▁仐令事伜佈	-10.2052
仗侻	-10.2054
▁亇予亊仦	-10.2054
▁個仭	-10.2054
▁仼亡冎仓	-10.2063
▁俑俒亚	-10.2064
▁仛伹	-10.2065
▁仐伌兊	-10.2067
▁二亸	-10.2068
▁仔亊僺	-10.2071
su	-10.2073
▁亖叧	-10.2074
▁亚仌傂	-10.2077
▁介仐侕亡	-10.208
▁偖债亥亚	-10.2088
▁亜仇亜争	-10.2093
▁仯凭亂	-10.2093
▁US	-10.2094
▁俢亣亡	-10.2094
▁仚亂伤仓	-10.2097
▁伸伶仓	-10.2107
▁咰俖仌	-10.2109
▁倎儅	-10.2111
▁似亙仅	-10.2113
▁侺剢仅	-10.2117
各	-10.212
位亳來俷佳	-10.2127
▁予化	-10.2127
▁佒亰亯	-10.2128
▁二佲伶	-10.2129
▁俆亱但二	-10.2135
厤	-10.2137
亻伻	-10.2137
▁仔伹伪	-10.2141
▁仅佲伤仓	-10.2143
▁佄令	-10.2149
傖	-10.2153
▁亵仇什	-10.2154
亱伿	-10.2155
仂侲	-10.2157
▁但偧	-10.2157
俵亃产	-10.2159
▁亖佁但兵佤亭	-10.2161
▁佋争入仧亳	-10.2161
伜佈亶	-10.2162
▁伌仌伎	-10.2173
▁亲俅代亚	-10.2189
▁倈傹	-10.219
▁休倠	-10.2191
▁侏伕	-10.2195
▁亷亡仄仓	-10.2199
▁亯仦	-10.2207
▁仯争	-10.2214
删	-10.2221
儥	-10.2222
▁1999	-10.2224
▁仐俐仐俗仅事	-10.2229
俢亢仅亚	-10.2233
▁2002	-10.2233
▁仩仠	-10.2234
亂倂	-10.2236
▁傞	-10.2236
▁兼二	-10.2236
▁偀侧劼	-10.2237
▁冐侻亭	-10.2242
▁仢偗	-10.2243
仗付	-10.2247
▁亇佡伭	-10.2249
▁亖仵	-10.2253
仲争	-10.2255
刔净仃	-10.2258
▁亓亩侏债亥	-10.2262
▁亢侟	-10.2263
僫	-10.2266
▁仔仹佚侁価亶	-10.2268
势二	-10.2271
▁亖仌亶伥二	-10.2273
呕	-10.2278
end	-10.2281
▁介争信佌	-10.2282
▁厄亂	-10.2286
▁仢亸伭	-10.2286
▁伹代	-10.2286
▁仐侭	-10.2286
▁侎亮傍	-10.2289
ame	-10.2291
▁亃争佋	-10.2292
▁亜仇亜亡仓	-10.2293
▁伭仐令亭	-10.2293
sa	-10.2297
侱	-10.2306
▁仔仹倃亥亚	-10.2306
▁但偣	-10.2326
勣	-10.2326
▁亣匮亏	-10.2326
亲	-10.2326
▁佋偩井	-10.233
▁俈俪仧亡	-10.233
傟亠	-10.2332
冐	-10.2338
▁倡佈	-10.2341
口	-10.2342
▁亽准古予	-10.2342
▁倈偖	-10.2343
俁从	-10.2362
伎仚二	-10.2374
倖	-10.2375
▁仐仌亣仅	-10.238
▁伸偘傟佧	-10.2383
▁亣佳	-10.2386
▁仼二亡偧	-10.2387
▁亂仌佝	-10.2388
▁伙冝	-10.2396
▁倲侬位伭	-10.2396
▁倎仂什	-10.2397
伙亣事仳	-10.2401
利	-10.2401
俤伸	-10.2403
呓	-10.2403
▁亵仠伫仓	-10.2409
▁位仭	-10.2413
▁亜争侣	-10.2414
▁信刾保二	-10.2417
▁俕仅佄佚	-10.242
▁亚亱俪仇	-10.2424
▁亥亃仅	-10.2427
▁佭亱仛	-10.2436
偛	-10.2442
▁侶伨亓亞	-10.2445
▁亃亚仛偕	-10.2446
亻付	-10.2453
▁仧伫亵仇	-10.2464
▁僻亜	-10.2465
▁亓亩侏俉	-10.2465
▁冧余	-10.247
▁亷亙	-10.2472
▁仔俴佲	-10.2482
▁倦侭仓	-10.2483
▁二亏亣亚什	-10.2486
▁仌亓产	-10.2487
▁佚來	-10.249
▁介亶仅	-10.2497
冂伜	-10.2501
▁1960	-10.2505
刎	-10.2506
保伙	-10.2511
▁亃仦俵亥亚	-10.2512
▁亊侹	-10.2523
▁偖俉亚什	-10.2524
▁伥偏仅	-10.2527
仌亿亚	-10.253
卛	-10.2531
伓候	-10.2531
▁冢冪亡	-10.2532
仗侻亾	-10.2534
▁仞仌仦什	-10.2542
▁亓佋仩	-10.2544
吧	-10.2544
▁予卤二亏亞	-10.2544
▁傰争	-10.2544
▁亣佉	-10.2545
勀	-10.2546
▁些争井	-10.2552
▁仔予傳仧亡	-10.256
▁侁儕	-10.2581
▁亏佉亜	-10.2582
5%	-10.2588
▁伸仉亡亥傒	-10.259
倘侻	-10.2595
▁亖亰佋凗	-10.2598
▁亃仦冯佶亾	-10.2602
▁亵仠亱	-10.2604
叧	-10.2609
▁佒凭亡	-10.2611
ts	-10.2611
伷产	-10.2611
▁仔亩代	-10.2624
▁伓候	-10.2625
▁儡产	-10.2627
▁仔介仐佈	-10.2631
▁亓争傼	-10.2636
咪	-10.2637
▁倨亱	-10.2638
▁亮伕	-10.2643
佀亠	-10.2644
▁僇伿	-10.2649
▁二侻二	-10.2651
fe	-10.2652
▁仈兝仇	-10.2652
僋	-10.2652
圤	-10.2652
▁亷兮	-10.2654
▁仈任予	-10.2666
傩	-10.2669
tra	-10.2675
亊傿	-10.2677
▁刻亐	-10.2679
▁仍伭	-10.2689
▁二傳仧亡	-10.269
▁亊佶二	-10.2691
▁佒傔	-10.2692
▁1950	-10.2695
▁凁亣仍仓	-10.2699
偑	-10.2702
▁凓仉	-10.2702
價	-10.2703
▁仐佶保二	-10.2703
▁not	-10.2705
▁借亏	-10.2705
▁仐仲伙从	-10.2707
▁仐冼亜	-10.2707
▁仈伛	-10.2708
▁仔傤予保二	-10.2711
喲	-10.2711
争劓	-10.2713
va	-10.2717
▁亢仂什	-10.2719
仗亾俷亡	-10.2723
▁冕仹	-10.2724
▁亖亂仠伊	-10.2733
ry	-10.2735
▁儖伭	-10.2745
bl	-10.275
]	-10.2754
▁亚厲	-10.2754
▁仼亣仳	-10.2766
▁俀亙	-10.2767
仌倌	-10.2771
▁位仅保二	-10.2782
▁亻二亊佄仇	-10.2783
▁伦亱仐令亭	-10.2783
▁傃佂	-10.2788
▁侧債	-10.2792
▁仛倀	-10.2799
▁們傌二	-10.2801
▁仔傤予亜	-10.2803
ag	-10.2805
▁僜侻	-10.2808
▁亅來仓	-10.2811
style	-10.2813
▁侎伤	-10.2814
▁伙佧	-10.2816
▁僁亠	-10.2824
▁凊侻	-10.2825
侭	-10.284
▁亯侙仧亡	-10.284
▁仙仇俰仇	-10.284
伌亢	-10.2842
▁喙	-10.2843
▁伝俶	-10.2844
侷	-10.2848
▁亲仠仚	-10.2849
▁倲仦佄仇	-10.2852
▁佚亚传	-10.2853
▁以从予仰	-10.2855
唛	-10.286
▁匣儊亭	-10.286
伭伟	-10.2862
▁凓俅仇	-10.2862
-20	-10.2865
od	-10.2867
▁仐俗俘仅亾	-10.2869
匚	-10.2873
▁仛侕佳	-10.2877
▁伦哧仅俺	-10.2882
哴	-10.2886
傈	-10.2886
▁厄予	-10.2887
呰	-10.2888
勍	-10.2895
▁仔亍	-10.2898
▁仢俋亯仅	-10.2903
▁仈吺佳企	-10.2908
▁僩侴亹	-10.2908
▁伡佇仅	-10.2908
ction	-10.2908
位偧	-10.2908
▁侣但二	-10.291
佰亣	-10.2913
---	-10.2915
▁仛伹亱	-10.292
ard	-10.2923
▁似亙仓	-10.2925
ya	-10.2927
仌件	-10.2927
信佌	-10.293
▁二佲俹	-10.2934
▁俈仞俰仇	-10.2937
▁偆做亠	-10.2942
▁仇侺	-10.2945
▁免亏	-10.2947
▁偼偽	-10.2947
▁亊俥仧亳	-10.2954
唰	-10.296
佧伜仂	-10.297
▁亂享仚	-10.2974
▁佭仓仌	-10.2975
▁佸什	-10.2979
▁亖伳侎伟	-10.2981
亘	-10.2986
▁代争偼俶	-10.2994
▁倦僻亹	-10.2994
倻	-10.2999
▁亖代伎亶	-10.2999
▁予仐亜	-10.3
▁亜厹佚	-10.3001
▁亊交	-10.3004
▁仌事任亥	-10.3006
▁侎亮他仧亳	-10.3007
垗	-10.3012
▁亻二亊交	-10.3012
fi	-10.3013
伫亚什	-10.3014
仩仪	-10.3014
匯	-10.3016
倲偝	-10.3018
▁仔亓	-10.3022
▁仼俖予	-10.3029
▁吁侨佭事亭	-10.3038
▁侎亮伌偅仇	-10.3041
▁亂争伤仅	-10.3042
▁仮亜仍	-10.3044
▁予二位	-10.3045
▁仐佤伹仓	-10.3045
▁僯伭	-10.3054
倈仚	-10.3054
佹	-10.3055
▁伜俆二	-10.306
▁仅伳	-10.3061
pr	-10.307
▁但冁佈	-10.3073
▁仔优佋	-10.3073
▁伵伶	-10.3073
▁仌俶付	-10.3074
▁仒仵俬	-10.3077
▁侏冝亡	-10.3077
▁亃仦俵	-10.3079
▁刐俴	-10.3086
仦伿	-10.3087
仰傒	-10.3092
▁亊单僆	-10.3095
▁亩倔仍	-10.3103
▁亓付	-10.3103
▁倎几	-10.3107
pi	-10.3121
僺佼	-10.3122
▁偰仯	-10.3125
▁介佯仞	-10.3126
▁仢亐	-10.3126
亘亙	-10.3128
▁亍代僤亥	-10.3134
▁仸仆俔佚	-10.3135
▁办	-10.3136
噄	-10.3139
劕	-10.3139
▁仢俋亏	-10.3139
▁亚傯伹	-10.3141
俔佚	-10.3143
▁仹亃	-10.3145
▁亖偂仂些	-10.3147
剟	-10.3148
傹	-10.315
▁凋予侻	-10.3152
▁俄伱亣	-10.3152
▁令亡亯來付	-10.3153
兪	-10.3154
▁仔仲亚	-10.3154
啠	-10.3156
▁亖偀冷	-10.3161
▁刔净仳	-10.3162
▁伓伓	-10.3162
▁伍作佚	-10.3162
凜	-10.3163
▁侞令仓	-10.3173
傮	-10.3178
▁佒便予	-10.3187
▁亽侨亃仳	-10.3192
嗹	-10.3192
▁俎佲	-10.3193
佋佗	-10.3198
▁亝亃來仅亾	-10.3199
亏仅仚	-10.3199
▁亩偑仉	-10.3205
ome	-10.3209
伝	-10.321
▁亊伟俹	-10.3216
冽	-10.3223
▁仌傭亳	-10.3225
▁倫亹	-10.3229
▁佺借	-10.3233
借倠	-10.3235
代匰	-10.324
▁们凫	-10.3249
克	-10.3254
呧	-10.3254
哾	-10.3254
卣	-10.3263
ast	-10.3273
▁争予保二	-10.3273
▁争儁	-10.3275
冲	-10.3276
▁偖俑仍	-10.3279
仗付仇	-10.3284
▁倫仚亾	-10.3285
▁仔产伌	-10.3289
▁亃亐侀仅	-10.329
▁仐伌令二	-10.3294
▁仗侬	-10.33
博	-10.3308
咁	-10.3312
▁亥亃亱	-10.3314
▁亓倽争佲仳	-10.3317
匒	-10.3319
▁凸	-10.3322
ig	-10.3323
▁仢俬亣	-10.3328
▁亂仓仌仓	-10.3334
▁仢亃于交	-10.3341
▁伋俵	-10.3343
▁唗伿	-10.3344
▁傋亜亂仭	-10.3354
▁仼亣伤	-10.3355
▁凓仠	-10.3356
唗	-10.3357
▁仔仒代争仳	-10.3362
俠仇	-10.3366
▁介佤仅亥	-10.3369
▁予众佤亭	-10.3375
▁仼俖亂仓	-10.3375
▁伜代仅	-10.3376
▁亂仌仅但二	-10.338
仗亻亚	-10.3382
匩	-10.3389
▁侏但二	-10.3402
佗从	-10.3402
▁仯仒	-10.3404
佀佤亭	-10.3411
no	-10.3411
▁俆仓亯偖债	-10.3412
劌	-10.3416
▁仐切仄	-10.3416
▁伻亳	-10.3428
▁侚仅	-10.3428
▁仏佈卿	-10.343
▁侎仗傲	-10.3443
倍	-10.3443
▁俑仯	-10.3444
侇	-10.3452
▁亐仂	-10.3455
▁亢仯仌争仳	-10.3457
▁亃争亩仃	-10.3457
▁亃倂仌争仳	-10.3457
▁俈亃亞	-10.3461
▁僑佗仅	-10.3466
▁俜几	-10.3478
▁令仦交	-10.3479
▁亃佛侻二	-10.348
予争伪	-10.3483
伍亃二	-10.3483
位傁	-10.3484
噥	-10.3489
▁亖傉	-10.3499
▁倐刂仇	-10.3507
▁位亱	-10.3508
仂偞	-10.3513
儆亳	-10.3514
▁侧兗	-10.3515
儌	-10.3516
▁以側佼匎侐	-10.3521
刅	-10.3523
▁仐伳付	-10.3525
▁侎亮他俪仇	-10.3529
▁仸亃予倸二	-10.353
咫	-10.353
亃偎	-10.3533
▁仢俬亣二	-10.3534
▁倎仚亾	-10.3535
剩	-10.3539
▁亓亩倩	-10.3541
偖仄亚	-10.3541
冾	-10.3541
▁位仚仓亶	-10.3544
▁Ma	-10.3548
▁倐偘	-10.3551
▁佒党	-10.3553
仌儊	-10.3555
tt	-10.3556
堧	-10.3558
▁佶二	-10.3562
呩	-10.3562
▁1947	-10.3566
Y	-10.3567
卂	-10.357
▁位冟井	-10.3577
叴	-10.3581
▁令二仯	-10.3582
▁予俀倣亞	-10.3584
▁仹仼	-10.3585
▁仌俩仅	-10.3586
▁予亚佭侕佳	-10.3588
▁办佉	-10.3589
▁仐佨伛	-10.359
▁传休侐	-10.359
▁仸伸事仅	-10.3594
▁俆伙亱	-10.3595
▁仅冦	-10.3596
冡	-10.3598
仌倷	-10.3601
侔	-10.3606
▁亩侜	-10.3608
▁倲仦	-10.362
侂佃亶	-10.3624
code	-10.3625
▁二亸佃	-10.3641
▁亖俴俵佃亶	-10.3655
▁兽仞	-10.3659
▁傂佗	-10.3661
ud	-10.3663
剄	-10.3664
兯	-10.3668
▁仔仗争仳	-10.3669
ous	-10.3676
▁伓俵來	-10.3679
▁予低	-10.368
僗	-10.3682
侍仧亳	-10.3688
▁倲争亏	-10.3693
▁亩仇仦亶	-10.3697
▁仐介伕亥	-10.3701
▁亖伳侎事	-10.3701
▁亵侻	-10.3706
▁信任亾付	-10.371
▁亊偩信	-10.371
▁仩侻众	-10.3711
侻偗亳	-10.3716
ound	-10.3719
▁亾俅伓亚什	-10.372
▁亢偉	-10.3723
亾亩仦	-10.374
▁亜争亱	-10.3741
▁亚佫仅	-10.3743
▁亏仌儺亞	-10.3746
▁亖亰亯伪亶	-10.3748
▁仏众亢仦	-10.3748
冂仌	-10.3751
▁亵仞倂仅	-10.3753
▁仐仌侍仧亡	-10.3762
▁介仐	-10.3767
傭亳	-10.3776
儐	-10.3785
▁亜佰亣	-10.3795
▁倲亡亯代仅	-10.3799
▁俆仭亶伤	-10.3804
侍佚佝	-10.3812
介争亜	-10.382
ell	-10.3824
仒产	-10.3824
▁信亡	-10.3834
仱	-10.3837
▁亍仯伎	-10.3838
匁	-10.3842
▁亩倔	-10.3844
▁佋争入仧亡	-10.3861
凑	-10.3861
▁令冤仞二	-10.3861
▁亚伣伤亚什	-10.387
▁倎侻唽佤二企	-10.387
\	-10.3875
▁亯伥	-10.3876
wa	-10.3876
▁亜俱	-10.3878
app	-10.3879
if	-10.3881
仄伖仇	-10.3884
▁亓亩俵	-10.3888
刐	-10.3894
▁仐俖侍	-10.3895
冿	-10.3899
▁亓僕仞亶	-10.3899
▁亚儈伥	-10.3899
▁仢亃于佄仗	-10.39
▁僽争仌	-10.39
儜	-10.3905
▁1991	-10.3905
▁亍仌冂亣亚什	-10.3909
▁僴僵	-10.3909
啫	-10.3913
▁侣亃	-10.3918
▁仅佲伤仅	-10.3923
▁仛俶俷	-10.3929
仅儆亡	-10.3929
▁以予亣仅	-10.3931
▁伌伟	-10.3932
儫	-10.3933
▁仢傠佋	-10.3937
▁仯亯亼仂	-10.3942
傂倠	-10.3944
僱	-10.3947
▁俕兹仇	-10.3947
▁亃仦價侍	-10.3947
pu	-10.3948
伖偉亡	-10.395
凬	-10.3951
▁仔于令伙	-10.3951
▁亖亙仉	-10.3952
兴	-10.3956
▁仛亣亳	-10.3962
▁仔侏前仞	-10.3963
刭仅	-10.3968
▁亽剼	-10.397
▁仌二亡仓	-10.3976
▁亽仇伫伓冇	-10.399
▁亜亃傼	-10.399
▁信但二	-10.3995
▁侺剢仓	-10.3995
▁伙亏仦予亜	-10.3995
://	-10.4
▁仙亏	-10.4
ub	-10.4004
唔	-10.4004
▁伍作仧亡	-10.4005
儇	-10.4009
▁India	-10.4009
參	-10.4014
▁佋偩井仓	-10.4015
▁亍偶仲仓	-10.402
▁偞倷	-10.4024
▁佋伥冱	-10.403
▁侎亮他佚	-10.4035
侍仧	-10.4039
儖倠	-10.4042
▁亢偨	-10.4044
▁信傌	-10.4052
健	-10.4052
偉从	-10.4057
仗亾付	-10.4068
伌剢	-10.4078
▁伒仇	-10.4081
▁仌亮亏仰	-10.4083
仮佈	-10.4085
-19	-10.4086
▁亖仃仄	-10.4088
俱仍	-10.4088
▁伕亏	-10.4091
仌争仩	-10.4092
作俪仇	-10.4096
▁仔亂争仍	-10.4096
▁俆仓俰仇	-10.4096
▁侏佌侻	-10.4096
匞	-10.4101
▁仙俔仧	-10.4104
介争佈	-10.4109
▁亃伧	-10.411
▁亻凰仦	-10.4115
事侪	-10.4124
▁侏佀	-10.4128
▁亊佋勳	-10.413
▁亜仚亃仦	-10.413
▁偕予争仳	-10.4131
▁令刉	-10.4132
▁亖仌亜侍	-10.4134
▁亃仦亏入佚	-10.4135
响	-10.4145
▁亓傦	-10.4148
▁亚厍伛	-10.415
▁以亡仄仓	-10.415
募	-10.4153
▁仛事位俫佳	-10.4153
ated	-10.4153
▁亂唻佀佤亭	-10.4154
▁亽伎代	-10.4156
▁侁傅	-10.4158
▁亍冲佈	-10.4159
▁sp	-10.4165
▁们亡仚	-10.4168
▁介争	-10.4168
▁亩偑仠	-10.4175
仲争仳	-10.4176
劊	-10.4177
伲	-10.4179
▁仍佄仼	-10.4179
▁侧厎	-10.418
▁仈亜亡仅	-10.4184
偵	-10.4189
▁们傁	-10.4195
俘	-10.4197
▁亲仗	-10.4198
偄	-10.4199
▁俙亶亾	-10.4201
▁伜代	-10.4212
▁亓伊仹亥亚	-10.4214
▁佗伊	-10.4219
▁侨佋亭	-10.4223
▁仛任亾俷亳	-10.4223
▁伸偺	-10.4226
介亢仅	-10.4227
▁亚包	-10.4233
▁仙佧	-10.4233
▁俆侤	-10.4234
▁侎仳	-10.4234
冘	-10.4237
偪	-10.4238
▁仌侮仞二	-10.4238
▁亂代亚	-10.4252
▁位事仓	-10.4256
傺	-10.4257
亍個	-10.4259
埡	-10.4262
▁亻从亊傿	-10.4263
▁倃亃	-10.4264
▁亍代剺	-10.4264
僇	-10.4267
匕	-10.4272
圇	-10.4272
▁予侗	-10.428
▁仐令事二亏争	-10.4282
▁令儊亭	-10.4283
▁信任俄	-10.4285
▁伥亰亵來	-10.4287
ap	-10.4288
▁仙亜倔亜	-10.4297
▁仔事喋仓	-10.4302
佅仇	-10.4303
▁亜倓仗	-10.4306
▁二侗	-10.4307
勪	-10.4307
gu	-10.4307
仌仅亓	-10.4317
able	-10.4328
▁亐亂	-10.4339
▁二争傂伥	-10.4342
▁仐亩二	-10.4344
▁公兵侻	-10.4347
▁仙俔仧亡	-10.4349
tor	-10.4349
俶付六	-10.4352
仛偕	-10.4353
▁仐佋卂	-10.4367
▁亢冱予	-10.4367
▁予俀倣	-10.4373
仞二六	-10.4373
form	-10.4377
▁倎仚	-10.4378
仄付	-10.4379
▁予亰侫二	-10.4382
▁仙俔仛	-10.4382
侞亡	-10.4383
▁伂偀倣亞	-10.4385
夑	-10.4387
▁侎亮他	-10.439
▁凊伭	-10.439
▁亖仌亂俉仓	-10.4392
侺仌個	-10.4398
▁传休任仅	-10.4401
▁仢哙债	-10.4402
other	-10.4406
▁亽併俌	-10.4407
▁偕仌仅亰	-10.441
▁冭伥	-10.4412
▁仐侚仅	-10.4418
▁伸仅伙	-10.4424
冕	-10.4426
▁仼價	-10.4426
▁亓亩仧亣从	-10.4427
伭倨	-10.4442
仭代仦	-10.445
▁仛倳	-10.4463
亃亨	-10.4475
▁俢呰	-10.4475
仲佷	-10.4477
▁亖佧伜仂	-10.4477
▁亊俥仞	-10.4482
▁以勂二	-10.4482
▁佚勞	-10.449
▁伱伭予企	-10.4497
▁伍伙从	-10.4499
哮	-10.4502
佌付	-10.4507
凄	-10.451
▁侞仒	-10.4514
▁亽仲亣仓	-10.4518
▁仔亊争	-10.4534
切	-10.4536
侲佼	-10.4537
▁亜倌亝倍仓	-10.4538
佤佂	-10.4539
▁his	-10.4541
喅	-10.4543
▁亓亩侏债	-10.4547
▁俆亱作仇	-10.4548
▁勘債	-10.4553
▁亽匕予	-10.4553
▁传冷	-10.4554
▁仌二亃倷	-10.4558
▁俉亓伙	-10.456
▁仐俉仑亃儴亥亰	-10.4567
display	-10.4568
▁亖伳侎伹	-10.4568
▁優仌	-10.4569
予傜	-10.4571
ew	-10.4577
儃儃	-10.4578
▁亖兖佳	-10.4578
俐争亣仄	-10.4581
▁佃俞侻	-10.4588
▁亂亗亭	-10.459
▁仔仌侮	-10.4594
▁亣僂亃产	-10.4595
借亏	-10.4596
侄	-10.4597
夕	-10.4599
▁{\	-10.4599
▁佀佧	-10.4601
▁亚争亓二	-10.4609
俶俷亳	-10.461
▁偼仯	-10.4616
▁仐俖争仳	-10.4624
▁do	-10.4625
▁po	-10.4628
倘偉亳	-10.463
▁仐亩伙偈伟	-10.4634
▁亚亨侮仧	-10.4635
▁伌伈亜	-10.4637
▁亖偂儅	-10.4646
勧	-10.465
▁仐伌兊佚	-10.4653
▁仈偂仂些	-10.4654
▁伍作佚位俠仇	-10.4654
▁佋争入仞二	-10.4655
倘佧付	-10.4655
▁亣俺伙亩	-10.466
俥仛	-10.4663
▁伓亱予	-10.467
▁亖亰仌俔	-10.4671
▁1998	-10.4673
勋	-10.4675
仧凂仓	-10.4676
▁亂仌佝余	-10.4682
亾亩亞	-10.4683
咛	-10.4686
▁仼争伸仅予	-10.4686
▁二亢候	-10.4686
▁仛事仌侤	-10.4695
▁二偓	-10.4703
含	-10.4712
▁亽亮伌	-10.4712
叼佼	-10.4713
仐俗	-10.4715
化	-10.4724
ree	-10.4724
凲	-10.4729
▁予凄仧	-10.4736
▁http	-10.4742
凘	-10.4743
傃	-10.4747
助	-10.4753
▁仔儕亜	-10.4758
▁仐休伎	-10.4758
▁仐偊亍	-10.4762
冿净	-10.4764
亂仅亼	-10.4768
▁亖儆佳	-10.477
侕二亚	-10.4773
▁伻僘俍亥	-10.4774
▁僜佲亭	-10.478
▁仢伸俵	-10.4784
▁佨仄亳	-10.4784
▁俈俪佚	-10.4785
▁亷偎	-10.4787
▁仐冼佈亶	-10.4794
▁亃仦伸借	-10.48
佤亭佼	-10.4802
▁亖僦仇	-10.4805
▁亖俵亂仦佃亶	-10.4819
剥	-10.4826
▁亖亰亍仲伎	-10.4831
▁倐值二	-10.4831
伮	-10.4831
gra	-10.4835
凔	-10.4836
▁偖亢仅事	-10.4841
▁仌侮仧亳	-10.4841
▁仔侏债	-10.4845
估侒	-10.4846
▁亽亂俑	-10.4848
亃俫亳	-10.4853
伦了	-10.4856
▁亜偂亚亓仦	-10.4857
収	-10.4862
▁亖叧亰亳	-10.4863
▁侎产亚刏	-10.4868
▁倦侭亳	-10.4868
▁争吾	-10.487
▁亖侻伋	-10.4873
▁僻令亭	-10.4876
▁仼偝	-10.4876
吤	-10.4878
▁仈傭亳	-10.4896
▁亚亢亍	-10.4897
佚仦伶	-10.4906
▁刐兩	-10.491
作仛	-10.491
▁亃亚仛但二	-10.4914
▁予佡	-10.4919
▁产争刜侍	-10.492
亇	-10.4922
喎	-10.4925
傞	-10.493
▁二傳仧亳	-10.4947
僌事	-10.4951
▁亓俜亦	-10.4957
▁侺伟	-10.4964
催兵	-10.4969
仹伭來	-10.4971
佻伙	-10.4972
喚	-10.4973
刷	-10.4977
劼圫兆	-10.4984
▁仩來亡	-10.4984
亢任仓	-10.4988
▁仁冪	-10.499
▁位事仂	-10.499
▁佋仦从	-10.4994
▁亢争任	-10.4995
ari	-10.4996
▁倲低二	-10.4997
▁亯仳	-10.4998
▁1996	-10.5001
▁亻仦伹	-10.5004
伹仅亚	-10.5009
▁仵侮	-10.5013
僭	-10.5015
倐儅	-10.5019
▁仛任亻亚	-10.5022
佲伤	-10.5023
▁倝倞企	-10.5026
ele	-10.5028
厭	-10.5031
▁凊予伅俐争	-10.5038
▁亂伫亚什	-10.5043
▁们兎	-10.5055
伇	-10.5058
▁亍仔亐伟	-10.5069
▁亚事众	-10.507
▁今倸	-10.5073
▁俆亱但	-10.5075
函	-10.5079
ical	-10.5081
冫	-10.5081
▁仛來仅	-10.5081
▁亚仒亩伓冇	-10.5085
俦	-10.5097
▁1930	-10.5099
優二	-10.5099
▁以偗冪	-10.5101
▁亣佋仕僾	-10.5111
▁仌傭	-10.5113
▁侫伧	-10.512
▁亜伹争	-10.5129
▁享予传仌佝	-10.5133
伴仚	-10.5135
▁佚代争仼	-10.5139
▁僻仯亣佋	-10.5143
▁侣倀	-10.5145
偭	-10.515
▁佗倽	-10.515
▁僓仍仅	-10.5151
▁so	-10.5152
▁亡仞	-10.5157
传仌儢	-10.5157
偎佳倨	-10.516
▁亮亶偀傱	-10.5163
仠儆亳	-10.5164
▁仞俁亚什	-10.5171
▁偖俉仰	-10.5172
▁伥亰佋傋仠	-10.5176
你佡	-10.5181
ff	-10.5181
以侐佼	-10.5182
便伙	-10.5184
伖偉佳	-10.519
▁例偧	-10.519
▁仈傏佝	-10.5192
亃佘	-10.5193
▁偆勴位亞	-10.5193
▁亚仒亚什	-10.5193
嗼	-10.5198
▁亚亨侮仛	-10.5198
▁亖亰仩仅	-10.5198
倃伭	-10.5201
▁以亯佋产	-10.5203
▁仒來仓	-10.5206
▁俤伸仅	-10.5208
ide	-10.5208
啃	-10.5209
▁各侐	-10.5215
▁仔仲二亵俌	-10.5221
▁Ch	-10.5224
▁叄俬	-10.5225
俕	-10.5228
pos	-10.5229
以倭	-10.5235
▁俸佲亾仅	-10.5236
ld	-10.5239
厉	-10.5246
▁仙倨亂予	-10.5252
▁亏仌儺	-10.5254
僮佼	-10.5257
▁仛兡仇	-10.5266
卯了	-10.5279
ight	-10.5279
人	-10.528
ba	-10.5281
ath	-10.5283
剙	-10.5285
▁仔介仌	-10.5286
典	-10.5287
▁300	-10.5289
▁侎亮伌保二	-10.5291
▁令勚侐	-10.5296
▁偖仌亜仅	-10.5298
噩	-10.5301
▁仙俉仓	-10.5308
▁仛事儢	-10.531
僔	-10.5312
▁冐仂冎	-10.5318
圹	-10.5318
▁亢僷	-10.532
匇	-10.5323
▁亃仦冯佶伙	-10.5323
▁仢仞亜	-10.5325
▁亲仇亓伊亃	-10.5328
▁令亏亭	-10.5334
▁伢仌二交仦	-10.5334
卉	-10.5334
亢仚仓	-10.5335
俠倠	-10.5345
吞	-10.5345
}}	-10.5346
▁亖儆亳	-10.535
▁亱佭	-10.535
▁亖冦傂	-10.5351
净	-10.5355
▁侧傔	-10.5357
▁仛亃低二	-10.5362
▁仁俠仂	-10.5367
倐亠	-10.5371
int	-10.5372
▁亾亩争	-10.5374
介争产	-10.538
▁仐仓倦二	-10.5384
前仞	-10.5394
仩仠仚	-10.5395
▁亚佫仓	-10.5396
亣僆	-10.5397
呟	-10.5406
cu	-10.5407
▁亲仞	-10.5409
▁介亏仍	-10.5424
▁仢俷事亚	-10.5427
▁亃低	-10.5427
▁兑代	-10.5428
ip	-10.543
偹	-10.5434
▁佨倸	-10.5436
伀伥亭	-10.5438
▁亃亚仛事	-10.5455
▁倦俉倉	-10.5456
呒	-10.5456
▁偕仌仅	-10.5458
亲仇	-10.5461
▁僧儵	-10.5464
俢仌儢	-10.5465
佤二企	-10.5475
ting	-10.5483
▁亽亮傍	-10.5484
▁150	-10.5485
▁俺仐仯从	-10.5488
▁僩僻	-10.5491
▁亖二亂亃倌亥亰	-10.5493
▁仛侍仇	-10.5495
rt	-10.5506
▁仢你冰仅	-10.5506
▁劼伹偺	-10.5512
吊	-10.5517
▁仔事割	-10.5523
▁仐俉仑	-10.5526
▁伌仐冞冰	-10.5529
匫	-10.5529
▁二傳俪仇	-10.5529
冴	-10.5531
▁俉俐亜	-10.5534
佋侹	-10.5536
▁亃亚仛俶付	-10.5541
亢啁	-10.5542
▁偖刭事	-10.5545
▁事凅	-10.555
▁仔仹倃	-10.5553
俎佡	-10.5555
▁仇俑亶	-10.5557
▁俤佫佋	-10.5562
▁仐介亶仅	-10.5563
▁信任亾亣	-10.5563
▁亃傠	-10.5567
▁催亡伓仄仓	-10.5568
▁佋刻	-10.5568
▁仛产仹仼仓	-10.5573
▁俺仄仅	-10.5578
iz	-10.558
▁伌亏伜來	-10.5585
偶仠	-10.5585
▁亩僘	-10.5586
▁亚劏侍	-10.5587
佼二亏亞佼	-10.5588
儹	-10.5593
▁介争亜偖俉亚什	-10.5594
▁仛任倘仇	-10.5595
▁亚亨侮仞	-10.5596
low	-10.5602
▁伸卲	-10.5605
▁亾亩亡仓	-10.5619
▁仙亜偉	-10.5624
▁亷候仯亡	-10.563
▁倎伈	-10.563
▁会予倂享	-10.563
厌	-10.563
▁亓匉亳	-10.5632
▁亽予剑仳	-10.5636
▁侻侗仅	-10.5636
han	-10.564
亩伶	-10.5643
▁亍仌冂争	-10.5645
▁伸哎俴	-10.5647
▁亩二仄仅	-10.5647
▁以亙仠	-10.5649
位亳傫仇	-10.565
▁亖凮	-10.565
▁侧划亳	-10.5653
▁唋佭事	-10.5658
圽	-10.5658
▁亢仠仯亡	-10.5661
▁1994	-10.5664
▁倏倿亹	-10.567
▁以仌亡	-10.5676
侂	-10.5677
厄	-10.5685
▁亯侙仞二	-10.5686
▁仔于亏	-10.5689
▁仙仚仌伧	-10.569
▁pl	-10.5691
▁亽侨句	-10.5692
▁傩佳亭	-10.5698
▁伙俑伎	-10.5698
▁兑代争	-10.5701
亏亱係	-10.5716
俶俷争亚	-10.5717
ary	-10.5719
亃俌予	-10.5725
▁任勰亣仄	-10.5726
勸	-10.5729
二亏亮	-10.573
▁亜儯	-10.5733
嘿	-10.5738
▁价伎亶	-10.5744
▁亃仦亓争	-10.5762
▁亲偉亳	-10.5778
偐	-10.5778
▁亣匮伕	-10.5778
唼	-10.5778
呏	-10.5784
喝	-10.5795
▁介佯仧亡	-10.5795
▁仐介亶仓	-10.5795
▁侣佝伭	-10.5801
▁倐仦侻	-10.5801
▁俈倂倐侻	-10.5807
ture	-10.5814
嘾	-10.5818
仉亢亡	-10.5824
呁	-10.583
呦	-10.5836
▁亂佛予伫伸仅	-10.5841
▁佷事亢仇	-10.5842
▁偕予侍仞	-10.5843
卬	-10.5844
▁位仅僼二	-10.5859
▁亏佰仅	-10.5859
凍低	-10.5863
傽仚亾	-10.5873
▁亲仉亢亡	-10.5878
▁亖务亜	-10.5888
▁亯侙仞	-10.5894
▁以仠佋	-10.5896
凒	-10.5896
哃	-10.5899
亣佶二	-10.5902
▁佭仓仼	-10.5907
▁倐值俷亳	-10.5911
▁亵傛亡	-10.5911
▁1989	-10.5917
▁仅他佚	-10.5923
俲	-10.5926
僞	-10.5928
▁哨亭	-10.5931
▁予卤二亏傚	-10.5934
▁亯令亣侑	-10.5934
伓冇	-10.5935
▁亃亚仛俰仇	-10.5935
俞	-10.594
▁儂儂	-10.5941
▁仔傤偁仞	-10.5946
▁伙侻亂仅	-10.5952
▁1997	-10.5953
ten	-10.5969
▁亇予亐亚	-10.5972
▁凁亚亢侐	-10.5975
▁仹仒債	-10.5987
▁仼列	-10.5987
▁亜争佗	-10.5991
▁俑仯匔	-10.5993
▁仔亊亮	-10.5998
▁予億亚冷	-10.5999
喽	-10.5999
唢	-10.6005
▁俱争亥	-10.6005
district	-10.601
▁仐亢佗	-10.601
▁佅仛	-10.6017
兊倠	-10.6017
▁仈亣亭	-10.6017
▁以嚢亽亞	-10.6022
俰偉佳	-10.6024
▁佚佛仅	-10.6031
▁仠倥	-10.6036
刑	-10.604
▁仢又	-10.604
▁亡伈	-10.6043
▁俆亱傂仇	-10.6044
仯事亚	-10.6047
▁亍代剺仅亥	-10.6049
償	-10.6049
争僒	-10.6053
勁	-10.6058
垔	-10.6058
▁亲偔	-10.6058
ob	-10.6062
▁1948	-10.6063
冒	-10.6063
啡	-10.6069
▁亣傇仓	-10.6069
▁佗令争	-10.607
▁亖亰仩仭亶	-10.6075
▁1995	-10.6084
▁亚剹俥	-10.6093
▁俱争亶	-10.6099
▁仉偉	-10.6101
▁亩俩仅	-10.6103
▁has	-10.6114
▁佋仦亻从	-10.6117
儦	-10.6123
▁啠亚僟	-10.6123
▁亃亡亯仓	-10.6123
▁亓佗伟余	-10.6128
▁亃亐从	-10.6128
劬	-10.6141
▁佃仂	-10.6146
卻	-10.6146
▁二伛	-10.6147
▁仸仆俔仞二	-10.6158
▁亣卑伈	-10.6158
▁噃亠	-10.6162
伙佌亳	-10.6164
▁倲亡亯伖仇	-10.6165
▁仞叏	-10.6165
凃	-10.617
亏仅仄	-10.6173
吺	-10.6176
傪亞	-10.6179
▁伸凴	-10.6183
min	-10.6185
tu	-10.6187
▁伭伉位亞	-10.6188
▁亓代傼	-10.6188
▁佋侹亂仭亥	-10.6194
▁仛亣亡	-10.6196
兝	-10.6196
▁亃低予	-10.6199
唻	-10.62
▁仔产亚俵	-10.6201
匌	-10.6206
伃	-10.6208
▁侎亩佉予	-10.6212
▁亖仚仼	-10.6214
▁予仅予凶	-10.6224
▁俉冨仍	-10.623
▁仙亜仦佲	-10.623
▁仐亴做	-10.6231
▁侎亮他仞二	-10.6232
▁亍亜侍仗	-10.6236
▁億估伟	-10.6236
▁1992	-10.6243
卪仚亾	-10.6244
▁伙喾	-10.6256
▁亓予仅	-10.626
▁侧劷	-10.6263
▁佭仅仌	-10.6263
壛	-10.6266
▁传亱倀	-10.6283
ty	-10.6283
卹	-10.6284
仌剜	-10.6286
▁倗侻	-10.6286
▁亥伿佼亓伌	-10.6291
厱	-10.6297
▁仈侻休	-10.6303
▁亮佪仍	-10.6304
▁亐仦信傂仇	-10.631
ana	-10.6311
南	-10.6313
▁佋佗亣停	-10.6313
▁亚亨偩侕亡	-10.632
咧	-10.6321
▁众二佗	-10.6321
▁僯倲亭	-10.6334
▁予仐俍	-10.6335
▁亂亩偀傱	-10.6339
▁仛侕亳	-10.634
▁伓仄仓	-10.6343
▁咰俖仄	-10.6345
▁亅僀僁佤亭	-10.6351
俼佝	-10.6354
▁似代儅	-10.6357
▁亻低	-10.6358
▁仢亃于佄仧亡	-10.6361
▁亖仠仄仅	-10.6364
仔亊僺	-10.6368
勖	-10.6379
▁侎勝二	-10.6382
state	-10.6384
▁仐佤事仍	-10.6384
▁众交亱	-10.6388
儼亚什	-10.6398
剣	-10.6406
哌	-10.6406
▁予冽二	-10.6406
俾	-10.6407
▁匝匞	-10.6412
▁伈仌	-10.6413
▁亲亳亰	-10.6414
▁亾俅伓仅	-10.6424
▁倎卾了	-10.6424
▁伙冮亜	-10.6425
▁凨伭于	-10.6431
剷	-10.6437
▁仛亡倘仇	-10.6439
傀	-10.6443
予传佳伙	-10.645
仗亾伻	-10.6454
▁候俣	-10.6459
功	-10.6468
促仞	-10.647
倿佒	-10.6477
▁以仚刂	-10.648
堿	-10.6486
倃伈	-10.6489
▁争亊事亚予	-10.6492
▁二伜位亞	-10.6492
▁亢伥伙仅	-10.6492
▁倶倷	-10.6498
▁仢冂亢仅	-10.6508
▁亩偑仪亡	-10.6511
仗俷亡	-10.6514
▁亣仍亳	-10.652
▁仔代卂佚	-10.6529
▁匍候	-10.6529
▁亓匵	-10.6532
▁伱代伿	-10.6537
▁似代啈仇	-10.6541
偲	-10.6541
唯	-10.6541
▁伙亶叧二	-10.6548
▁仔债亓	-10.6548
▁仩争亶事仓	-10.6554
劯	-10.6554
mon	-10.6556
▁亲仪仅亚	-10.6557
▁亓仦传	-10.6562
厸	-10.6566
▁勸倥佼	-10.657
僓众	-10.6578
▁伍伙仅	-10.6579
佄俪仇	-10.6586
▁亣佋倃伈	-10.6587
▁傂佫	-10.6587
佶儊	-10.6592
▁二亳仼	-10.6598
▁偶亶亮	-10.6599
塐	-10.6604
▁亊俥仧亡	-10.6605
▁偰亜	-10.6608
▁伬仚亯亡	-10.661
傻	-10.6616
▁仔代匰	-10.6619
▁亖凑众亚伟	-10.6622
ance	-10.6631
▁亣俉亡	-10.6633
▁仌俈仓	-10.6635
▁伭俞倏	-10.6641
唫	-10.6641
伤侂予	-10.6649
▁佋佗剬	-10.6656
▁佨仄亚	-10.6658
▁仐仲伙仓	-10.666
▁亖伭交	-10.6671
▁僩亽亞以侐	-10.6672
▁仼供	-10.6675
ja	-10.6677
▁亓亩伎亶	-10.6679
▁今傯	-10.6683
▁亍偶仲仅	-10.6684
▁仛偕亢亡	-10.6691
▁亃仦予亣仅	-10.6692
▁亓佋伹亚什	-10.6693
▁亖佲亣倽亜	-10.6698
▁亽亏删	-10.6698
▁佚亙亶	-10.6698
▁can	-10.67
劒	-10.6704
▁仙代仦偞	-10.6717
▁伌仌二	-10.6717
act	-10.6718
▁亚仌傂仛	-10.6723
▁信任亾俷亡	-10.6725
勻	-10.6729
▁仼亣伪	-10.6729
亃仦仞	-10.6738
▁仹僃	-10.675
▁who	-10.675
▁II	-10.6751
▁僴仼	-10.6755
▁倎仇亣	-10.6761
▁伍作仧亳	-10.6766
▁仍伥亸僺	-10.6767
▁仐争佋仳	-10.6767
▁伸呼佚	-10.6767
嘌	-10.6767
▁争俪仧亡	-10.6767
▁佋二傼	-10.6767
偖侲	-10.6771
▁侧仓亃仅	-10.678
▁伸亨信	-10.6786
▁俺仐仯	-10.6787
▁亃仦伷來仓	-10.6792
▁卅儿	-10.6794
俠仞	-10.6805
亵俌	-10.6808
▁亍叢仅	-10.6809
傎	-10.6812
▁刅佋	-10.6816
▁5310	-10.6816
▁亃匯亩二	-10.6824
▁亖僥位亞	-10.6837
▁亩偑亳	-10.6841
▁仢俬亮	-10.6844
▁予凄佚	-10.6847
剨	-10.6854
僬仠	-10.6857
▁1940	-10.6859
哅	-10.6863
▁亂剈亡	-10.6863
▁亲仪	-10.6866
▁俎冰仓	-10.6869
傓	-10.6875
tic	-10.688
▁吁亚仌匰倏	-10.6882
▁俲唤亥	-10.6882
▁亵仠伫仅	-10.6885
光	-10.6895
▁亃亐仅	-10.6899
▁予众佤二亞	-10.6902
▁亖佀们伹	-10.6908
吖	-10.6908
▁偶儌偖凈	-10.6914
▁以仍予	-10.6914
▁伳付	-10.6915
▁仔仌侟二	-10.6921
▁伃佞	-10.6923
▁俈凂亚	-10.6927
▁仐匷任	-10.6933
▁侣仠仌侤	-10.6934
▁侧倢	-10.695
▁亚冾仧亳	-10.6952
amu	-10.6965
圗	-10.6966
▁亽亴佋仳	-10.6966
勞	-10.6968
▁仼低	-10.697
▁亣令偞伹仅	-10.6972
▁仔事倴仧	-10.6979
墼	-10.6979
俰仠亶	-10.6979
▁仢亃于伕	-10.6987
倲侬	-10.6988
堛	-10.6991
▁仼倒	-10.6994
▁倗偎	-10.6995
▁伍作	-10.6996
▁伙侻亂仓	-10.6998
伃代亣伓僺	-10.6998
▁仔伢儼从	-10.7
▁仛來仓	-10.7008
▁僬咄任	-10.7011
僽	-10.7016
▁伦倢	-10.7018
▁亣傇亚什	-10.7024
ally	-10.7029
ll	-10.7031
▁亓伊佲	-10.7033
ang	-10.704
▁仈儶仚仓	-10.7043
▁値伮亡仓	-10.7043
亣僂	-10.7049
▁任倇勎	-10.705
嘕	-10.705
▁争冞亭	-10.705
▁個仅	-10.7056
劼	-10.7056
▁仔亩伪	-10.7057
▁佋侨倦仼	-10.7062
儷	-10.7063
創	-10.7063
▁亖倵付亜	-10.7063
▁儥令伎	-10.7063
刳	-10.707
▁以亯仌	-10.7071
▁亃仦众佈	-10.7077
嗿	-10.7083
▁佌则亚什	-10.7083
▁佚仍亡	-10.7097
▁亐仦信	-10.7099
儰	-10.7102
▁倃佭	-10.7103
▁予偓	-10.7106
▁亖仭予侍	-10.7114
亍倩	-10.7114
噉	-10.7122
▁伌咱	-10.713
▁喳偗二	-10.7142
卄	-10.7148
嗐	-10.7148
▁俑偟仄	-10.7155
▁仐令事伜亜保二	-10.7156
▁俆仓兡仇	-10.7162
▁侎亮他仞	-10.7166
▁亰列	-10.7167
▁仙仚亾俷亡	-10.7169
▁亩倔代俇	-10.717
▁伭估侻企	-10.7175
▁亃仦刭仅二	-10.7175
▁1952	-10.7178
▁仙俔仞二	-10.7182
▁伫仂亭	-10.7184
啞	-10.7188
adj	-10.7192
▁俑俒伜亜保二	-10.7199
▁仐儐仌	-10.7208
▁佭仓仌位仉	-10.7209
▁佇仌	-10.7211
▁亓劎	-10.7213
▁亚事促佚	-10.7218
▁亖亜从	-10.7219
▁仮亏伪	-10.7221
命	-10.7228
▁亏仳亃产	-10.7228
▁亖伭亶亳	-10.7228
▁伙係俐争亣仄	-10.7234
佣佤	-10.7238
亷亡仄	-10.7239
▁佷事俜倷	-10.7239
单	-10.7241
▁侏伫仇	-10.7242
卮	-10.7248
▁亵伶	-10.7249
bu	-10.7254
▁亖倵俬佋	-10.7254
啣	-10.7254
▁侧伧俠	-10.7254
▁亩俜仓	-10.7257
5,000	-10.7265
▁佚吮争	-10.7274
▁二亏亣从	-10.7274
介亶亚什	-10.7277
K	-10.7278
▁亽予冱	-10.7281
▁作伭	-10.7282
▁仅他仧佳	-10.7288
▁伇伈亜	-10.7288
勡亭	-10.7293
▁保俈亡	-10.7294
勊	-10.73
夫	-10.7301
▁亖仐亼产	-10.7301
▁傋伒	-10.7302
▁仔仗侍佚	-10.7309
▁仩侜	-10.7315
▁伙事亾仅	-10.7319
▁亯倷俯	-10.7321
▁pre	-10.7325
▁亓佋仵	-10.7328
▁佋僻仚	-10.7329
▁倦侭	-10.733
▁仢冂亢仓	-10.7335
▁冕亃	-10.7335
▁亇偗	-10.7339
▁亚冾仞	-10.7353
仭代仸	-10.7355
▁偈偧	-10.7355
ever	-10.7355
仫	-10.736
▁以仌亅伙	-10.7361
仠仯亳	-10.7366
▁倦伌伜亶	-10.7368
佖	-10.7368
▁仛任亾伻	-10.7368
▁仙偰予侍佚	-10.7372
▁侁佫仅	-10.7379
叡	-10.7381
侚仭	-10.7385
▁僯俠仞	-10.7387
剾	-10.7388
哓	-10.7388
▁亃偧來仓	-10.7388
▁仌俩仓	-10.7397
ef	-10.7398
侏债	-10.7401
作仗	-10.7408
▁众偈佋	-10.7409
厦	-10.7415
▁亃仦佤冰	-10.7415
▁亓仍佇	-10.7415
亷偘	-10.7416
▁any	-10.7418
亢任仅	-10.7418
▁also	-10.7422
▁傋仪	-10.7422
▁仌剑伸佈	-10.7429
▁令交傦仅	-10.7429
▁亚亢争仳	-10.7429
亻俷亳	-10.7433
▁凋予伅俐	-10.7436
▁仔亂俑	-10.7436
你	-10.7446
▁亖亰二仇	-10.7448
▁亏仳二	-10.745
▁先亏兘亡	-10.7456
▁俙仠倦二	-10.7456
▁亚仌但俶俷亡	-10.7457
县	-10.7463
▁仅他仞二	-10.7463
▁仈儶仇	-10.7463
▁仢俋亯仓	-10.7469
▁令二亍倩	-10.7471
位仠享仚	-10.7475
▁亍介佤仳	-10.7476
凟	-10.7483
同	-10.749
▁俉亓伎	-10.749
▁冢兂	-10.7492
▁仈亜伭	-10.7501
埕	-10.7503
哤	-10.7503
圪	-10.7504
厴	-10.7504
ood	-10.7509
▁仼儳	-10.7513
▁倎匦僟	-10.7517
▁仈争倦	-10.7524
▁仢亃仵伥	-10.7526
▁偯亱予	-10.7526
▁亯伭亢仠	-10.7526
塏	-10.7531
▁亖光亜保二	-10.7535
吲	-10.7538
▁亽偍伎亥	-10.7538
▁亖反亡	-10.7538
▁仢亃于佄佚佝	-10.7538
▁亖侹刣伭亶	-10.7542
▁侧仠凇	-10.7545
▁仛任亻	-10.7546
▁亝仠伹伶	-10.7551
▁仪仅偘	-10.7552
▁亽仑仦	-10.7553
▁冺仳	-10.7561
▁予仓亯	-10.7563
8%	-10.7564
▁任仅傍亶	-10.7565
▁仵侮仞	-10.7582
▁亂厲亾仅	-10.7586
▁仐侴亜	-10.7593
▁仔产千	-10.7595
▁俙亡亯	-10.7598
傇	-10.7598
呀傱	-10.7607
▁亚儊企	-10.7607
▁傋代仦	-10.7609
▁仇俑亥	-10.7611
哹	-10.7613
▁亽代争仳	-10.7614
▁仞俁从	-10.7614
堇	-10.762
劎	-10.7621
▁伙亣事僒	-10.7634
▁争俪仧亳	-10.7634
▁佚仇仐	-10.7637
俆仭亶仳	-10.764
▁倐值付	-10.7641
▁伸侉付	-10.7646
▁代倂剟	-10.7648
▁刻侻企	-10.7652
▁仼亡亯	-10.7654
冯佶	-10.7661
▁亚冾佚位俠仇	-10.7666
僥	-10.7669
▁亖争亾亥事亥	-10.7676
▁仑俤井	-10.7676
▁例伌	-10.7681
喐	-10.7689
▁劌入	-10.7696
▁傞亭	-10.7698
▁保倾	-10.7704
▁代俇伎	-10.7712
▁侮仚仄仓	-10.7719
▁俏予侍仞	-10.7724
佌儱	-10.7731
▁佋亜亃争保二	-10.7734
▁仙代保二	-10.7737
▁今佈俹	-10.7738
俢仌偉亚什	-10.7743
佄仗	-10.7746
▁亽亡亯亡	-10.7746
▁倦争侐	-10.7747
刊	-10.7752
▁以仌仸	-10.7753
▁亽仐價侍	-10.7759
▁儖仇來	-10.776
▁仐亚作	-10.7763
佟	-10.7764
即	-10.7766
▁仔仗仦	-10.7769
▁倇佲	-10.7772
伞	-10.7773
▁凓偉佳	-10.7783
卍	-10.7787
啳	-10.7794
▁仌侮仧亡	-10.7801
▁凍仇侍	-10.7803
値倥	-10.7806
▁事令亩亚	-10.7808
▁凁佋产	-10.7809
▁亻俬冢冣	-10.7817
▁亽仅伹亚什	-10.7823
▁介亏仏卓	-10.7837
偃	-10.7837
port	-10.7839
唳	-10.7844
▁党伥代	-10.7844
▁予众佤	-10.7845
▁佚代仌	-10.7847
▁令亡亯仯佳	-10.7852
▁亍于亏	-10.7852
▁亃例仄仅	-10.786
▁1983	-10.7869
800	-10.7871
兡	-10.7871
▁亖亰亍仲二保	-10.7872
▁仼偟	-10.7874
▁仢你	-10.7878
▁亽仐價争仳	-10.7879
佄仛	-10.7879
司	-10.7886
出低	-10.7887
嗀	-10.7893
▁仚俩	-10.7897
▁侺仌伥仦	-10.7898
▁亖准亃亾	-10.79
▁仔伹仳	-10.7903
▁亜众儠	-10.7907
▁仍匀仍	-10.7915
俐亡亳	-10.7915
▁代卂仗	-10.7917
▁众亰仍	-10.7917
匢	-10.7922
▁仙倨亂倘仪	-10.7922
▁仛俉佳	-10.7927
▁仐仌侍佚	-10.7927
吠	-10.7929
▁匣亜亪	-10.7929
▁亚于令予	-10.7943
仡	-10.7948
啮	-10.795
▁佶剽	-10.7951
▁來仅但	-10.7952
ition	-10.7966
亣佋佥	-10.7975
▁Ra	-10.7976
▁互估圄	-10.7979
▁侰凍企	-10.7979
▁亖俵亏促	-10.7986
▁亂享僝	-10.7987
▁傾佺伿	-10.7993
▁佺僖	-10.8
▁俸争仳	-10.8003
儤	-10.8006
▁任口亭	-10.8008
商	-10.8015
哨	-10.8019
▁亏仳亼事保二	-10.8022
▁俕仓亜	-10.8023
▁1962	-10.8028
倄	-10.8028
▁亖付佋佥	-10.8029
▁dis	-10.8035
▁佗令亡	-10.8037
傫	-10.8043
▁仔代卂仧	-10.8043
▁以从便伙亡	-10.8043
▁但冁亜	-10.8043
任亾亚	-10.8044
▁伜刭	-10.8051
▁1985	-10.8052
▁1971	-10.8053
▁伌佇佚仭	-10.8058
▁佚仅二仞伶	-10.8058
Sub	-10.8064
凾	-10.8065
嗗	-10.8072
▁have	-10.8072
▁交仦令二	-10.8072
▁亢伥二	-10.8078
▁伱仒仦倏	-10.8079
匄	-10.8079
br	-10.8084
▁先亶休	-10.8087
▁仈亙仉	-10.8087
▁僅亡仓	-10.8088
▁亽哒亚伹	-10.8094
倆	-10.8094
▁伃侄	-10.8096
▁信任倘偉	-10.8097
喨	-10.8101
▁亷俾仼	-10.8102
唙	-10.8108
▁似价企	-10.8108
▁亣事仅僻佋	-10.8116
▁俕亱亊仦亶	-10.8116
▁倲亓争	-10.8116
▁侎倬伩	-10.813
▁仢冥	-10.8132
▁亮哼	-10.8138
匛	-10.814
▁以仪仦	-10.8146
▁俕仅佄仞	-10.8152
▁亩亳亯仅	-10.816
価	-10.8166
兠	-10.8174
▁亣僂仍亥亚	-10.8182
▁剉仚仄	-10.8188
▁仢哙前仞	-10.8196
▁亖俵佃	-10.8201
▁仈倏仌亱	-10.8203
ack	-10.8205
▁亃仦众亜	-10.8205
▁俑二亏	-10.8206
僈	-10.8206
佴	-10.8225
吼	-10.8225
俪代亚	-10.8226
▁佢亃佉	-10.8232
▁仹伭來仓	-10.8234
▁亓仍伈佋兙亚	-10.824
▁亽創儖	-10.824
▁代佢伤匐亂	-10.824
▁亣剤从	-10.824
mber	-10.8246
伦傡	-10.825
▁仔侕仌二	-10.8254
▁倡亚亾仓	-10.8255
▁予亱係	-10.8255
亃俫佳	-10.8255
冁	-10.8262
▁亽侂伥俴	-10.8262
▁倎侻亞	-10.8263
▁1993	-10.8265
▁侮仚	-10.8267
偾	-10.8269
▁亚亮亜亮	-10.8269
▁互俉亪	-10.8269
▁僯侻众	-10.8269
勆伿	-10.8274
厇	-10.8276
▁仔俴俦	-10.8284
▁予倚佈亶	-10.8291
▁亚令保二	-10.8292
▁侮仚仄仅	-10.8293
▁亖佲争	-10.8293
▁佋仞休亃儴	-10.8299
▁凘侻仦	-10.8299
▁仈初仅亚	-10.8299
▁亾冶	-10.83
▁伋俺倏倫	-10.8306
▁1984	-10.831
▁仛兂	-10.8317
▁亜争仼二	-10.8321
▁侻哖	-10.8328
▁亚仼仃仓	-10.8336
厡	-10.8336
▁俑冀	-10.8339
吮	-10.8343
剈	-10.835
圆	-10.835
▁仐佣佤仳	-10.8358
▁亷倓仇	-10.8358
亊亶亳	-10.836
▁亍仔亐伹仅	-10.8365
刧	-10.8373
▁亚亨俪	-10.8376
▁亽匐予亭	-10.838
▁什亥伊侻傿	-10.838
冤	-10.8388
▁侧伧俠仧亡	-10.8388
▁亂佛亴亩从	-10.8395
偶依	-10.8396
▁亂仄二	-10.8399
▁代傜仅	-10.84
▁仯冒亱予	-10.8403
▁1956	-10.8403
mm	-10.8407
▁亐仑仓	-10.841
▁偊亓	-10.8411
▁亚傯做仗	-10.8414
剭	-10.8417
刴	-10.8417
▁亖仌亂俑	-10.8425
侕事亚	-10.8428
▁予佋伫	-10.8429
▁亽仲亮	-10.8429
圡	-10.8432
▁仸伸事仓	-10.8432
▁仆亐佳	-10.844
▁仕切亳	-10.844
▁亣傇仰	-10.844
▁儍亱仞	-10.8445
▁伬冫	-10.8445
会	-10.8447
▁僈侻亊仅	-10.8447
兇	-10.8447
▁亽亮他	-10.8448
▁伱代亳	-10.8448
▁函俤偢予	-10.8455
▁予仅佳予	-10.8456
伖仠亶	-10.8464
▁冠侻偿	-10.8465
▁亇伭偒	-10.847
▁亽兌佛	-10.8477
▁凘俤仓	-10.8477
▁佅仉	-10.8486
▁仈件仸	-10.8493
匉	-10.8494
▁会侑	-10.8499
▁亓亩侏俑	-10.85
▁亖亊仲争仳	-10.85
▁亽俵亃兩	-10.8508
▁仢冂伜	-10.8514
凙	-10.8515
▁円亙	-10.8522
▁偖俑侁価亶	-10.8526
▁伬嗼了	-10.853
▁令亏俷	-10.854
內	-10.8544
▁佚亙亚	-10.8546
▁仛亃偝	-10.8547
妠	-10.8553
▁佁佤企	-10.8553
▁仐俖侍俪仇	-10.856
▁争唠伈	-10.8561
▁俢企佼予亜	-10.8561
▁亐亳仅	-10.8563
▁仌勗予争仳	-10.8576
噗	-10.8576
▁偞侟二	-10.8576
▁佁代亡亳	-10.8576
亊单剤	-10.8583
▁仔仗侍仧亡	-10.8584
▁亖亰佚亡	-10.8593
▁亜倌亝倍仅	-10.8621
▁予亱佄仛	-10.8623
▁亓争今产	-10.8629
偖仌亣事	-10.8632
啗	-10.8637
▁亩俩仓	-10.8662
▁亚仌但俶付	-10.8666
唍	-10.8675
▁亢伥伎	-10.8676
▁亖俵亂亣从	-10.8683
▁we	-10.8692
▁佰亮	-10.8692
▁僁佤劽	-10.8698
侃	-10.8698
▁亃亐侀仓	-10.8698
▁倦儾	-10.8703
叄	-10.8706
券	-10.8706
▁亃佛侏佲仳	-10.8721
▁仌勗予侍	-10.8721
▁亚仓仌	-10.8722
▁亢俖仌	-10.8729
▁以亡仼	-10.873
▁仔亩伤仅	-10.8737
▁予亳仼	-10.874
▁代儯仦	-10.8741
▁亱众伦了	-10.8744
▁伂偀倣	-10.8755
▁亂予信事	-10.8756
友	-10.876
吜	-10.8783
亍偶佶	-10.8789
压	-10.8791
▁侁作仞	-10.8797
▁亃仦伸仅伙	-10.8799
偋	-10.8806
▁佒众儢伅	-10.8806
▁亃仦伤亩	-10.8806
▁俑冨仞什冂	-10.8822
▁伶傏	-10.8822
▁part	-10.8823
▁仢刺亚伹	-10.883
俇	-10.8831
哞	-10.8837
▁亓亩仲伎	-10.8837
▁侮亓	-10.884
▁亖亰偶依	-10.8843
▁予代亱予	-10.8845
▁伓哿	-10.8857
▁仄俷	-10.886
▁亃但佺伿	-10.8861
▁亚亱佭侏	-10.8861
▁佋享倮伹	-10.8861
▁仞付亜伎	-10.8872
▁佋哽	-10.8877
儁	-10.8879
唤	-10.8884
兗	-10.8887
▁伙佳予	-10.8887
▁先亯兘亡	-10.8892
剆	-10.8892
劧	-10.8893
▁仔亩仳	-10.8897
▁article	-10.89
侩	-10.89
▁传养仧亡	-10.89
▁仦估吊佤	-10.8908
▁位來予亸	-10.8908
▁亓亣亓仦	-10.8916
俓	-10.8925
output	-10.8931
▁令仦作	-10.8932
▁亐亳仓	-10.8935
凊予伅	-10.8938
▁亚儳佡	-10.8939
▁冐倏冎	-10.8939
▁仲匑	-10.8939
▁侨傛	-10.894
▁传侜偰任	-10.8947
妄	-10.8947
▁但俣倐侻	-10.8947
▁亣价仌	-10.8947
傟佧	-10.8949
▁以予亣	-10.8953
亣亱亶	-10.8959
▁伱佦俢	-10.8963
▁亣亩事伪	-10.8971
▁亖亡仚亶	-10.8979
▁俤佯代	-10.8979
▁倫代侨	-10.8979
▁众八亱	-10.8987
伳剹佃	-10.8987
pur	-10.8987
俳	-10.8993
叽	-10.8995
咰	-10.8995
亃俁仅	-10.8998
▁仔仌偩	-10.8999
▁亚儊仰	-10.8999
ount	-10.9001
▁亖侒啵	-10.9003
▁into	-10.9003
卋	-10.9008
▁亽侨作仧亡	-10.901
劓	-10.9015
▁亮亏個仅	-10.9018
啜	-10.9026
Q	-10.9026
▁但偿侐	-10.903
ult	-10.9036
佣	-10.9037
▁亖儡亜	-10.9043
叩	-10.905
▁俑仯冀仼	-10.905
▁亚仌但	-10.9052
▁予仓任	-10.9056
叭	-10.9058
▁仐俗凬亍	-10.9058
▁侺仌佗亣仅	-10.9058
吰	-10.9058
▁gov	-10.9059
ign	-10.906
▁亃仦予亮	-10.906
▁佒冸六	-10.9066
▁値亿侍	-10.9068
▁侧哂	-10.9068
▁佒体亳伖仇	-10.9074
▁佚剽	-10.9085
▁亓俜佗仅	-10.909
▁仅他仛	-10.909
▁亜亚厊	-10.909
▁mw	-10.9104
▁令亢伥亞佼伫企	-10.9106
厗	-10.9106
仿劾兵	-10.9106
▁亓仌争仳	-10.9107
咔	-10.9114
亊佶伙	-10.9116
匡	-10.9121
▁仪仅傿	-10.9122
▁亃仦予亣仓	-10.9122
伡傢	-10.9122
▁佋堷僺	-10.913
仈亜争	-10.913
▁倲仦係	-10.9134
别	-10.9138
▁仔于令伎	-10.9154
▁仔儕产	-10.9154
▁侺仌伥仦侕亡	-10.9158
▁佋亣冏	-10.9162
▁代佢伪	-10.9162
parser	-10.9178
▁匒了	-10.9183
位仒亞	-10.9185
俤儠	-10.9186
▁儫仠仄仅	-10.9187
▁信任俢亢仅亚	-10.9188
▁亃仦佚事	-10.9189
冀	-10.9191
▁佷伟	-10.9197
▁剩來	-10.9203
▁喱伓佳	-10.9227
劢	-10.9227
▁予亚作仧	-10.9227
勽	-10.9235
▁倡亚亾仅	-10.9236
▁仔侏俑倲偝	-10.9236
▁二傳佚	-10.9242
▁伳伴亶	-10.9243
▁亃亚信亡	-10.9243
▁偭傪亞	-10.9244
▁仍亚交	-10.9247
▁仯仉亃倌	-10.9251
▁亇予侏井	-10.9252
凝	-10.9259
▁仼亣仌俶	-10.9259
cent	-10.9271
囋	-10.9276
▁will	-10.9286
哊	-10.9292
免	-10.9307
危	-10.9308
▁僽争伜	-10.9308
▁令亡仼倘偉亡	-10.931
▁侺仌亊伹仲仦亜	-10.9317
▁伎俗仅	-10.9317
區	-10.9317
匣	-10.9319
▁仌勀佚	-10.9321
▁仔介亢从	-10.9325
▁亃倂侻亾仅	-10.9325
▁儇代二	-10.9333
▁亂厲予	-10.9333
▁偆仅仄	-10.934
匘	-10.9341
▁亖亰伌伜	-10.9341
▁亣仍亚	-10.9345
喱	-10.9349
▁仐仍俒	-10.935
侫低	-10.9351
启	-10.9358
▁剥剦佚	-10.9361
▁伥匴亥	-10.9366
▁仡信事	-10.9367
▁俕仅交	-10.9374
▁亽仇伫伓僺	-10.9382
▁仇亯佋产	-10.9382
僛	-10.9382
咹	-10.939
▁二亏亣仓	-10.9391
僀	-10.9398
▁以从予儆亳	-10.94
▁勸倥	-10.9404
▁伌伈仯	-10.9408
▁倲亡亯來付	-10.9415
▁代俉匌仅	-10.9415
偠	-10.9415
▁亽友事	-10.9415
亂侁	-10.9423
▁侚亱仯仓	-10.9423
▁啈交予	-10.9423
▁亽仅伹从	-10.9425
▁侚亱佈	-10.9425
▁兟倭	-10.943
▁仢你冰仓	-10.9432
▁僽争亢	-10.9441
▁亂仌亱	-10.9446
叆	-10.9448
予像伙事亾	-10.945
▁偿偆叴	-10.9457
埴	-10.9457
具	-10.9465
▁亂佛予伫伸仓	-10.9465
▁但仐企	-10.9471
侞仦亜	-10.9472
▁亵亏井交仦	-10.9473
向	-10.9473
侫偝仼	-10.9482
侸	-10.9498
唽	-10.9498
▁佚卌	-10.9501
副	-10.9506
▁仚俶仓	-10.9507
墶	-10.9515
僲	-10.9515
▁亇凼二	-10.9515
▁刅佋仌亮	-10.9516
劜	-10.9523
▁亽二予偝	-10.9523
▁冓争侏	-10.9523
▁仛任倘偉	-10.9525
▁俿佭仦	-10.9532
▁亽亂债	-10.9532
▁叉仉佤亭	-10.954
▁价剑仳	-10.954
▁佒体争仗	-10.9542
▁you	-10.9547
▁亽佳企	-10.955
佋仦佌	-10.9551
▁佀伜奥傱	-10.9557
▁亽仐仦	-10.9558
凐	-10.9565
▁亏佋儖仞	-10.9565
▁俈凂亳	-10.9565
▁倎刢亳	-10.9565
▁亍伌仐	-10.9566
▁佨仑亣	-10.9566
亏仓亯	-10.9568
呱	-10.9573
▁亜交伎亜	-10.9573
▁俓亃佃	-10.9574
▁仐亩伙仅	-10.9574
▁亽厉倪	-10.9574
坉	-10.9582
▁啘佈	-10.9582
▁伓佳仅亡	-10.9599
▁侺儱	-10.9602
▁亍偰仯从	-10.9607
▁俀儘	-10.961
▁仢亃于交俶俷亡	-10.9611
▁仒典	-10.9612
圴	-10.9615
▁倦仐侹	-10.9624
▁such	-10.9624
▁争伥倽	-10.9626
▁二伭作	-10.9632
卫	-10.9632
▁仐偞亹伭伹	-10.9632
▁俕仅佄仧	-10.9632
▁仈件仦	-10.9633
▁儕产	-10.9635
▁偈佋	-10.9636
▁亽仌争仳	-10.9642
傧	-10.9649
▁刭冱予	-10.9649
▁产争亏	-10.965
▁二亏仚	-10.9652
▁仌亍亜	-10.9659
▁仒儹	-10.9663
▁传亣侻	-10.9667
▁亏佋儖佚	-10.9675
▁亽伀亝	-10.9683
▁亓五井伎	-10.9692
▁仐俐伙优	-10.9694
咮	-10.9709
▁亽侂仩亡	-10.971
▁亏仳亼伟亶	-10.9717
▁仐仵佗仓	-10.9717
労	-10.9717
卷	-10.9717
▁仐儐伜	-10.9717
侫兙	-10.9721
▁伕亏亣停	-10.9738
偻	-10.9743
嚭	-10.9743
▁仲厲予	-10.9751
去	-10.9751
哭	-10.9751
▁令二亶佋	-10.9752
▁噄倏	-10.976
▁亃仌亭	-10.9765
▁倎佶二	-10.9777
侘	-10.9785
▁來何亰	-10.9785
▁匎侐	-10.9799
办	-10.98
匐	-10.9803
▁仈処凧亠	-10.9803
▁伙吐仌	-10.9811
▁亢佳亐	-10.9812
▁侴偮	-10.9814
▁傦亏	-10.9819
兏	-10.982
嗚	-10.982
▁倄仿倪	-10.982
亓佋伟亥	-10.9826
奺	-10.9828
▁任参俢厾	-10.9828
▁卮估企	-10.9837
匟	-10.9846
冋	-10.9854
▁亖仅亢佧	-10.9854
way	-10.9856
亖佋亣仌产	-10.9862
▁仈变伊事	-10.9872
叠	-10.9872
ava	-10.9872
▁亽俦佃亶	-10.988
▁亍些仯	-10.9883
▁予億亚倏	-10.9889
▁刅分亳	-10.9889
▁亃偝伤仅	-10.9893
▁亚亢亓僑佗仓	-10.9897
▁亃仦争佲仳	-10.9898
▁仈仌傉	-10.9898
亹冴	-10.9911
▁准伎	-10.9916
▁亓佋亂休二	-10.9924
▁亖叙企	-10.9924
亓伊亃	-10.9926
▁亢亓二	-10.9928
吉	-10.9932
▁倎佶伎	-10.9932
▁勼仂企	-10.9933
仮仯仅	-10.9935
刬	-10.9941
▁亚伟匚佚	-10.9958
▁令冤俪仇	-10.9958
▁佻仼倖	-10.9958
坪	-10.9958
凫	-10.996
偖俉亚什	-10.9962
坶	-10.9967
▁刺争予	-10.9967
▁代傜仓	-10.9967
▁侁佫仓	-10.9974
▁仔产亚佫仓	-10.9976
▁代亓亣	-10.9977
圯	-10.9985
▁仞凣予争仳	-10.9985
偦	-10.9985
▁仢亃仦亜仭	-10.9993
▁伈侺	-10.9994
員	-11.0002
冿垏	-11.0011
▁俜但侏	-11.0013
▁亂厲亾仓	-11.002
▁亃仠佋争	-11.002
▁亣亩事仳	-11.002
刂	-11.0028
▁伃代亣伓冇	-11.0028
剕	-11.0028
儽	-11.0046
▁令伟产	-11.0047
▁侧二八	-11.0055
▁仛任俢仌佝	-11.0063
伺	-11.0064
ju	-11.0071
匭	-11.0072
▁勿代仦	-11.0074
傄	-11.0079
▁亜儈产	-11.0081
land	-11.0088
▁佋准叏	-11.009
勓	-11.009
▁亽偖前仧亡	-11.0117
▁予仓亯伖仇	-11.012
劾	-11.0125
▁凁仕切亳	-11.0134
▁亃亨佈	-11.0135
▁佚亚传佳二	-11.0138
倃佇	-11.015
亟	-11.0152
▁仉仐了	-11.0152
▁仙俔俪仇	-11.0161
仕农	-11.0167
▁伱亡劈二	-11.017
▁但偁佇伓僺	-11.017
▁佋佗亣仒	-11.0179
▁兟予仂	-11.0179
row	-11.0183
▁侰倏任	-11.0188
▁仔予傳佚	-11.0188
▁仐僥仦伹	-11.0197
▁仐仵佗从	-11.0197
▁仛做仧	-11.0208
▁used	-11.0215
▁仼亡佤	-11.0215
凞	-11.0224
媲	-11.0224
▁予倚亜保二	-11.0224
▁亂事冢争仓	-11.0232
伽	-11.0232
▁仐亂亣伓冇	-11.0232
▁争创佚	-11.0237
▁仔亊俔	-11.0242
僊	-11.0248
唸	-11.0248
▁亂亱傸叁伹	-11.025
old	-11.0255
▁亽俵冫亜	-11.0259
啈	-11.0259
▁仈亜亡仓	-11.0259
▁倎亻予	-11.026
劤	-11.0268
▁亚劏争仳	-11.0277
埿	-11.0277
▁亃争併争	-11.0277
▁仐亱伟	-11.0288
勦	-11.0289
india	-11.0291
▁亢养在亭	-11.0295
▁億估伿	-11.0295
▁亽佚争仳	-11.0305
卑	-11.0313
噢	-11.0313
倾	-11.032
努	-11.0323
▁亍叢仓	-11.0324
▁亽仐兪佯	-11.0332
▁仸仆仇	-11.0332
▁亣佲亓	-11.0332
▁亖俴仌亓争	-11.0341
媕	-11.0341
▁仙代侴俉亡	-11.0352
厍	-11.0359
▁傴侐	-11.037
喖	-11.0377
▁亍伌佯仞二	-11.0386
▁刅仍亳	-11.0386
▁予亰侫俷亡	-11.0395
▁亂佛亴亩亚什	-11.0404
刁	-11.0413
▁任仅伌	-11.0415
▁冓亸仇亶	-11.0423
▁伈侺亣佨	-11.0423
▁倡佷从	-11.0423
▁were	-11.0425
▁仐俖侍佚	-11.0428
▁亚亨侮亷代亡	-11.0432
刈	-11.0441
佼傟亠	-11.0447
垜	-11.045
夣	-11.045
▁伬代仌	-11.0451
▁匝匟	-11.0459
▁亊佌佶	-11.0459
▁仅南仳	-11.0468
▁任仔但偧	-11.0468
咖	-11.0468
▁仢伴仚二	-11.0478
▁仇侰冂伜	-11.0487
▁仐儲偒	-11.0487
▁仜儺傟	-11.0487
▁予亚作仞	-11.0487
▁亃仦众亜保	-11.0495
▁俉偿争予	-11.0496
▁亖仵佗亮	-11.0497
匓	-11.0505
▁亓侇亡	-11.0505
▁亃偝伤亚什	-11.0506
▁亖亡優二	-11.0524
值	-11.0532
▁亖亰亍仲儖	-11.0533
▁伀仠企	-11.0541
▁亖八伻亚	-11.0542
▁亂剈亞	-11.0542
▁亂伸仠	-11.0543
▁偖仌伍伎	-11.0547
▁亃仦兛亮	-11.0551
厅	-11.0551
▁仐儐亢	-11.0551
▁俭刡	-11.0554
▁亓佋况仧	-11.0562
▁亽亂亮亥	-11.0568
▁伷争亃伭	-11.0574
剫	-11.0579
卶	-11.0588
▁亚仒亩伓僺	-11.0588
▁亂享估	-11.0589
▁亂亢亱	-11.0592
▁仒偿仛傂仇	-11.0607
匊	-11.0607
咠	-11.0616
▁仢亃于佄	-11.0626
▁UK	-11.0627
▁侧塌亯	-11.0635
▁僻亽亞佼	-11.0644
▁亢伥伙仓	-11.0654
勐	-11.0663
▁仛伹啁	-11.0669
▁仐侕争保二	-11.0672
▁俿佀佄仼	-11.0672
哰	-11.0672
▁佅兟	-11.0672
嚅	-11.068
啛	-11.0682
▁亣令伍亭	-11.0682
▁仚俶仅	-11.069
▁亢佉劊	-11.0691
▁亏付仌亮	-11.0691
▁俈俁仅	-11.0707
▁亣仌剙仚	-11.071
儚	-11.071
嗾	-11.071
伱佳企	-11.071
凕	-11.0719
圓	-11.0719
▁二争亓亣仄倐侻	-11.0719
▁仐侕亮亶	-11.0719
匀	-11.0728
▁僁伭伟	-11.073
▁僇了	-11.0735
咩	-11.0738
▁亍予仅伎	-11.0738
▁仔偖俑仍	-11.074
▁亖坶仂伿	-11.0748
卓	-11.0748
▁亾仚侜	-11.0748
right	-11.0749
▁仐亂亣伓僺	-11.0757
僨	-11.0757
▁匋亚	-11.0758
▁匡仅	-11.0758
▁person	-11.0766
▁亇借佭伿	-11.0766
▁俑仯冀仍	-11.0767
▁亚事亩仅	-11.0776
▁伒亐佳	-11.0785
啙	-11.0804
▁仹仒僩	-11.0804
兣	-11.0814
▁亍争佲伤	-11.0814
侞亨佃亶	-11.082
▁仢俋交	-11.0823
厚	-11.0833
▁伌仌伙仓	-11.0833
▁亚冾仧	-11.0835
▁亃亡亯仅	-11.0844
▁令仦亩伙	-11.0871
哱	-11.0871
▁亃倒仗俢	-11.0871
叫	-11.0881
啊	-11.089
▁亽亐事	-11.0891
塤	-11.09
▁亚亮亜争	-11.09
ful	-11.0907
▁嚵伻俺	-11.0909
噝	-11.0909
偶仲仓	-11.091
亖凜什	-11.0915
坚	-11.0919
▁傒估伋亳	-11.0919
唄	-11.0919
▁仍交但二	-11.0919
▁俭咾	-11.092
▁侺仌佗亮	-11.092
▁代俇二众	-11.0929
▁仂凍亠	-11.0929
▁侫呀	-11.0929
吴偉佳	-11.093
▁亩佶仌	-11.0934
廲	-11.0948
▁们亱事侪	-11.0977
▁仌偩俰仇	-11.0977
▁俛俉亳	-11.0982
▁侏儜予	-11.0986
,00,000	-11.0996
▁仞俁仰	-11.0996
▁亓仦冡	-11.0998
▁仌佡伭	-11.1007
▁亯侙仧	-11.1007
▁伙佋予争伪	-11.1016
▁哤倠	-11.1016
伙事伿	-11.1017
▁亽哑亚侕亭	-11.1025
▁佒偞仕亜	-11.1025
呸	-11.1025
▁仐侻众亭	-11.1025
▁伆亅了	-11.1035
▁亃俗仓	-11.1036
▁仩仞侞伭	-11.1045
▁仍亰亃仂	-11.1045
膀	-11.1054
▁佭仅仌位仉	-11.1055
▁亚傯做佚	-11.1057
▁亊俥仧	-11.106
▁亣令伜债	-11.1064
▁仐仦仐亶	-11.1064
▁亽亃佀佤亭	-11.1064
▁佚亱亂仭	-11.1065
▁但仦但伧	-11.1074
▁伌仌伙仅	-11.1074
▁仍交傂仇	-11.1083
▁亜争借仧亡	-11.1093
哲	-11.1093
嘇	-11.1093
▁儽代事	-11.1103
兦	-11.1103
咣	-11.1103
坣	-11.1103
▁介佯仛	-11.1105
▁刔了	-11.1106
▁亂倂佚争仳	-11.1113
▁但冁仯仅	-11.1113
協	-11.1113
▁亩俩从	-11.1113
听	-11.1123
▁佚兙仅	-11.1129
▁亢争亓俱	-11.1132
ough	-11.1142
▁亚侨佶予	-11.1142
▁亚僈佧仄	-11.1142
▁亻仭们伹	-11.1152
▁亖侹事二	-11.1152
▁偿产亥	-11.1153
▁亾俅伓仓	-11.1162
勬	-11.1172
咱	-11.1179
▁佋争仳佨佲	-11.1182
▁佚仅二仞俹	-11.1182
▁厮仚	-11.1182
▁仢亃于亏亃亳伖仇	-11.1183
census	-11.1191
▁倎卾亳	-11.1191
冚	-11.1196
▁伡佇仰	-11.1201
▁亓冘侐	-11.1202
▁仦亃偾	-11.1206
兔	-11.1211
▁亖伙侨句	-11.1211
刨	-11.1211
▁佗令亅	-11.1212
▁仐亡偣亶	-11.1221
剦	-11.1221
▁以从予儆亡	-11.1221
▁亣俄亠	-11.1224
▁亍仞予	-11.1225
▁trans	-11.1231
▁亯侙俪仇	-11.1231
嚂	-11.1231
▁倲元仼亮	-11.1231
▁伀仯仚	-11.1231
▁仌仇享	-11.1232
▁亃冱事亭	-11.1241
▁仞亮俺仐	-11.1251
▁争予争亂仅	-11.1251
▁仐卽产	-11.1251
▁伻伸企	-11.1252
▁刔净仃仅	-11.1257
墯	-11.1271
▁侔伹刭仅	-11.1271
▁佋伥亸僺	-11.1271
▁仢俬县	-11.1274
▁倦僾仌	-11.1281
亃仦亩仳	-11.1286
▁亓俜佗仓	-11.1291
▁aspx	-11.1291
佬	-11.1301
▁伸偘傟亠	-11.1301
▁佌则仅	-11.1302
▁伍亚亾仓	-11.1311
▁亃俌亂	-11.1311
刵	-11.1331
卒	-11.1331
厪	-11.1331
偅	-11.1348
勛	-11.1371
呲	-11.1391
動	-11.1421
嗖	-11.1431
嗙	-11.1431
唠	-11.1482
娙	-11.1492
励	-11.1502
务	-11.1512
咶	-11.1543
傝	-11.1553
唴	-11.1594
圢	-11.1604
剌	-11.1615
厮	-11.1625
傢	-11.1634
勢	-11.1646
势	-11.1673
剬	-11.1684
呞	-11.1697
冈	-11.1729
侠	-11.1739
刚	-11.1781
勄	-11.1781
塌	-11.1791
吾	-11.1827
坵	-11.1833
匠	-11.1854
哫	-11.1854
厊	-11.1896
咅	-11.1907
囎	-11.1907
哒	-11.1982
勺	-11.1998
冬	-11.2002
堣	-11.2057
尬	-11.2057
働	-11.2078
夨	-11.2078
参	-11.2089
俚	-11.2106
侾	-11.2111
唜	-11.2121
圃	-11.2154
善	-11.2165
墰	-11.2176
勌	-11.2187
勹	-11.2197
塁	-11.223
卌	-11.2237
傕	-11.2241
囓	-11.2274
壴	-11.2285
妦	-11.2296
兘	-11.2329
兛	-11.234
吨	-11.234
唝	-11.234
咇	-11.2351
唚	-11.2351
奱	-11.2362
劸	-11.2407
佔	-11.2407
嚁	-11.2407
婞	-11.2407
句	-11.2452
嗋	-11.2452
坻	-11.2485
剽	-11.2502
夦	-11.2508
刘	-11.2534
兮	-11.2559
厽	-11.2564
儎	-11.2575
夤	-11.261
堌	-11.261
傤	-11.2632
劖	-11.2632
伄	-11.2655
匹	-11.2655
咑	-11.2655
國	-11.2655
曀	-11.2689
僳	-11.2709
噳	-11.2735
坢	-11.2758
喜	-11.277
儳	-11.2777
匰	-11.2798
寳	-11.2805
哻	-11.2816
q	-11.2823
供	-11.2847
坤	-11.2863
咚	-11.2875
圉	-11.2875
壙	-11.291
尵	-11.2957
卪	-11.2991
剰	-11.2992
婕	-11.2992
J	-11.3031
关	-11.3038
哕	-11.3039
叾	-11.3051
僕	-11.3075
凖	-11.3075
儂	-11.3091
儝	-11.3099
厬	-11.313
儛	-11.3142
墤	-11.3147
坞	-11.3159
啉	-11.3183
嚙	-11.3183
厰	-11.3195
#	-11.3219
咾	-11.3242
嘐	-11.3255
判	-11.3267
呋	-11.3267
劃	-11.3267
劳	-11.3304
剒	-11.3328
夌	-11.3328
堳	-11.3353
劭	-11.3365
呀	-11.3425
俏	-11.3426
卯	-11.3441
塝	-11.3451
^	-11.3451
印	-11.3476
嗫	-11.3476
吻	-11.3501
啭	-11.3551
`	-11.3563
剂	-11.3576
劻	-11.3576
佩	-11.3601
夢	-11.3613
冺	-11.3656
唺	-11.3702
匦	-11.3727
周	-11.3727
冩	-11.374
嗊	-11.374
嘅	-11.374
坄	-11.374
嘦	-11.374
嘤	-11.3765
匝	-11.3778
吒	-11.3778
倧	-11.3804
囏	-11.3817
吐	-11.3829
喵	-11.3855
噋	-11.3881
壖	-11.3881
劲	-11.3907
婠	-11.3946
农	-11.3957
却	-11.3959
唏	-11.3985
嗝	-11.4063
&	-11.4078
堲	-11.409
厵	-11.4103
另	-11.4103
勱	-11.4116
勩	-11.4143
刱	-11.4169
刼	-11.4193
唕	-11.4196
侖	-11.4209
凥	-11.4222
哉	-11.4236
堄	-11.4236
包	-11.4236
嗽	-11.4249
冗	-11.4271
堻	-11.4289
劋	-11.4303
块	-11.4303
哿	-11.4309
圍	-11.433
勗	-11.4343
儻	-11.4343
夂	-11.4343
奬	-11.437
孁	-11.437
僿	-11.4384
刀	-11.4411
嗷	-11.4452
儓	-11.4479
儸	-11.4479
嶒	-11.4493
冃	-11.4504
儬	-11.4534
圵	-11.4534
嚢	-11.4548
呻	-11.4562
塱	-11.4562
喤	-11.459
坨	-11.4617
吕	-11.4645
僅	-11.466
哎	-11.4673
唑	-11.4687
嫐	-11.4687
唬	-11.4715
圷	-11.4715
姻	-11.4729
喁	-11.4743
僶	-11.4743
勮	-11.4749
媔	-11.4786
咬	-11.4814
吶	-11.4857
噽	-11.4871
刿	-11.4899
呈	-11.4914
媁	-11.4928
哷	-11.4928
啒	-11.4942
堼	-11.4971
得	-11.4971
匔	-11.4985
冻	-11.4986
嘠	-11.4986
嗂	-11.5
坏	-11.5
唨	-11.5014
堈	-11.5029
噷	-11.5058
堎	-11.5072
斠	-11.5072
刞	-11.5115
侢	-11.5174
坦	-11.5175
厩	-11.5175
噡	-11.5216
儋	-11.5249
塭	-11.5249
孷	-11.5278
圞	-11.5278
墊	-11.5293
僆	-11.5321
宊	-11.5323
塪	-11.5338
婥	-11.5353
墑	-11.5398
婃	-11.5398
俧	-11.5413
医	-11.5413
堍	-11.5413
嚑	-11.5428
垚	-11.5458
嗅	-11.5458
嚌	-11.5458
單	-11.5488
嚹	-11.5503
垠	-11.5534
噅	-11.5564
京	-11.5587
呖	-11.5595
劣	-11.5595
唿	-11.5626
在	-11.5626
圳	-11.5626
囱	-11.5641
伔	-11.5672
勔	-11.5672
吱	-11.5672
噧	-11.5703
匮	-11.5718
堝	-11.5718
墲	-11.5734
刓	-11.5734
呾	-11.5749
怶	-11.5749
出	-11.5763
佱	-11.5781
倝	-11.5806
址	-11.5843
喓	-11.5859
分	-11.5906
唋	-11.5954
咀	-11.5985
剠	-11.5986
啯	-11.5986
千	-11.6012
俸	-11.6016
墀	-11.605
墐	-11.6066
先	-11.6066
啐	-11.6114
嗰	-11.6114
囫	-11.613
嗛	-11.6162
好	-11.6162
坝	-11.6195
坽	-11.6211
啥	-11.6244
塍	-11.6293
决	-11.631
厎	-11.6321
剎	-11.6326
吔	-11.6326
圖	-11.6326
厈	-11.6343
壡	-11.6343
嬮	-11.6343
僣	-11.6349
叉	-11.6376
坯	-11.6376
児	-11.6392
堤	-11.6409
嘙	-11.6425
嗮	-11.6442
式	-11.6442
嘪	-11.6459
嚴	-11.6492
冠	-11.6519
厛	-11.6526
嫑	-11.6526
劆	-11.656
嘰	-11.656
埑	-11.6593
噛	-11.6627
坱	-11.6644
庚	-11.6644
兽	-11.6661
噂	-11.6661
岋	-11.6661
嚠	-11.6678
>	-11.6695
壦	-11.6695
嚱	-11.6747
妍	-11.6747
吃	-11.6764
垐	-11.6764
岖	-11.6764
俿	-11.6796
圫	-11.6799
啄	-11.6816
唌	-11.6833
垆	-11.6868
堺	-11.6868
厯	-11.6885
侈	-11.6885
噏	-11.6885
嚿	-11.6885
哆	-11.6903
剅	-11.6938
喺	-11.6973
叅	-11.6991
嗴	-11.6991
俻	-11.7008
割	-11.7026
埰	-11.7026
剳	-11.7061
坿	-11.7061
伐	-11.7097
匱	-11.7168
娾	-11.7168
古	-11.7204
墋	-11.7204
屇	-11.7204
媍	-11.724
柝	-11.724
厼	-11.7259
夽	-11.7259
婴	-11.7295
宩	-11.7313
偳	-11.7331
僴	-11.7348
啲	-11.7386
嫄	-11.7423
嬓	-11.7423
儶	-11.7435
啔	-11.7441
冏	-11.7478
削	-11.7478
劗	-11.7497
嚎	-11.7515
実	-11.7552
呹	-11.7571
噌	-11.7571
墚	-11.7571
姰	-11.7571
兀	-11.7577
仟	-11.759
喌	-11.759
尞	-11.7608
凤	-11.7646
堁	-11.7646
匙	-11.7703
夳	-11.7722
啧	-11.7741
嘚	-11.776
姯	-11.776
壩	-11.7779
嘯	-11.7798
劂	-11.7817
嘥	-11.7817
少	-11.7817
厝	-11.7817
品	-11.7874
召	-11.7878
嚪	-11.7894
奷	-11.7913
凯	-11.7952
孊	-11.7952
墔	-11.803
尙	-11.803
囬	-11.8049
喫	-11.8049
寮	-11.8049
抾	-11.8069
妓	-11.8088
姸	-11.8088
岵	-11.8088
嘍	-11.8108
啘	-11.8125
凨	-11.8128
嚜	-11.8147
劉	-11.8167
噇	-11.8167
呇	-11.8187
@	-11.8207
圠	-11.8207
啇	-11.8207
力	-11.8207
城	-11.8227
俨	-11.8247
喴	-11.8287
子	-11.8287
咙	-11.8307
嚐	-11.8327
哂	-11.8342
傑	-11.8347
傣	-11.8368
哚	-11.8388
婟	-11.8408
圱	-11.8428
唎	-11.8449
尿	-11.849
憀	-11.849
別	-11.8531
娬	-11.8531
头	-11.8551
唾	-11.8593
墛	-11.8593
剞	-11.8613
啍	-11.8634
圊	-11.8634
刟	-11.8655
塔	-11.8655
偫	-11.8676
垈	-11.8676
嗄	-11.8676
奦	-11.8676
劺	-11.8696
呄	-11.8696
坠	-11.8696
娪	-11.8717
厏	-11.8717
嚫	-11.8738
嵹	-11.8738
咼	-11.878
吀	-11.878
呌	-11.8823
夝	-11.8823
啦	-11.8865
尢	-11.8886
埼	-11.8886
劔	-11.8972
唥	-11.8972
壐	-11.8972
嚗	-11.9058
凩	-11.908
孴	-11.9102
妔	-11.9102
噆	-11.9123
咃	-11.9145
哜	-11.9167
加	-11.9167
恥	-11.9211
垉	-11.9233
姇	-11.9233
澰	-11.9233
售	-11.9255
嗸	-11.9255
崠	-11.9255
哗	-11.9255
壘	-11.9299
再	-11.9322
噍	-11.9344
嚋	-11.9366
兞	-11.9366
呪	-11.9366
嗦	-11.9389
勎	-11.9432
仴	-11.9434
卽	-11.9456
劁	-11.9456
娺	-11.9456
囍	-11.9479
倁	-11.9501
喪	-11.9592
岜	-11.9638
勿	-11.966
剏	-11.9661
匥	-11.9661
啩	-11.9684
喗	-11.9684
傐	-11.9696
埵	-11.9707
埶	-11.9707
嬢	-11.9707
噶	-11.973
必	-11.973
勴	-11.9777
墻	-11.9777
婌	-11.9777
喘	-11.9824
哧	-11.9894
兄	-11.9918
壌	-11.9918
吆	-11.9941
园	-11.9941
妨	-11.9941
妢	-11.9965
墓	-11.9989
囊	-12.0012
妉	-12.0036
妌	-12.0036
噙	-12.006
唅	-12.0084
嫡	-12.0084
寝	-12.0084
哖	-12.0132
侶	-12.014
冥	-12.0149
媒	-12.0181
哺	-12.0181
囿	-12.0205
喳	-12.0215
堬	-12.0229
屆	-12.0229
呿	-12.0254
帆	-12.0303
域	-12.0327
劝	-12.0377
壿	-12.0377
妴	-12.0401
囇	-12.0426
奀	-12.0451
媅	-12.0451
孌	-12.0451
揿	-12.0476
埽	-12.0501
孪	-12.0551
嘽	-12.0576
墟	-12.0576
凸	-12.0595
堾	-12.0602
婸	-12.0602
咯	-12.0644
伾	-12.0652
崡	-12.0652
喭	-12.0678
契	-12.0703
墱	-12.0703
巭	-12.0703
帧	-12.0703
和	-12.0729
嚚	-12.0729
征	-12.0729
哔	-12.0754
埥	-12.0754
$	-12.0777
垽	-12.078
嚓	-12.078
嫆	-12.078
唐	-12.0806
忯	-12.0832
侅	-12.0842
右	-12.0884
嘑	-12.0884
囩	-12.0884
填	-12.091
媡	-12.0936
哼	-12.0961
冑	-12.0962
喩	-12.0962
儴	-12.0977
墝	-12.0988
婘	-12.0988
匽	-12.1015
垢	-12.1015
囉	-12.1041
尴	-12.1067
儒	-12.1094
咞	-12.1094
壤	-12.112
倯	-12.1147
慠	-12.1147
亄	-12.1174
奪	-12.1228
嵆	-12.1228
坮	-12.1255
呍	-12.1282
劵	-12.1309
叛	-12.1309
咒	-12.1309
告	-12.1363
問	-12.1363
埛	-12.139
墏	-12.1418
喹	-12.1418
垝	-12.1418
妤	-12.1418
奋	-12.1445
唡	-12.1473
嗌	-12.1473
傽	-12.1499
兢	-12.15
君	-12.15
坛	-12.15
埙	-12.1528
孫	-12.1528
卤	-12.1556
儉	-12.1556
匸	-12.1556
哛	-12.1556
唒	-12.1556
噿	-12.1556
嵿	-12.1584
奴	-12.1584
哟	-12.1612
奝	-12.1612
吇	-12.1612
俛	-12.1625
孞	-12.164
圄	-12.1668
嫿	-12.1668
宧	-12.1668
匬	-12.1696
妥	-12.1696
史	-12.1724
圬	-12.1724
嗩	-12.1724
岅	-12.1724
仝	-12.1809
圿	-12.1809
劑	-12.1838
厀	-12.1838
始	-12.1838
媾	-12.1838
尗	-12.1838
墮	-12.1867
峹	-12.1867
廖	-12.1867
冼	-12.1894
唣	-12.1895
喯	-12.1895
妺	-12.1895
嗭	-12.1924
场	-12.1953
崐	-12.1953
匆	-12.1982
奥	-12.2011
奙	-12.2011
嗏	-12.204
劚	-12.207
嗞	-12.207
夥	-12.207
夯	-12.2099
墂	-12.2128
嵺	-12.2128
営	-12.2158
嚡	-12.2158
妖	-12.2158
姁	-12.2158
土	-12.2187
巗	-12.2187
吳	-12.2187
坖	-12.2187
嫳	-12.2217
囶	-12.2217
倕	-12.2247
嘲	-12.2247
夹	-12.2247
呫	-12.2277
妃	-12.2277
卟	-12.2307
哐	-12.2307
婔	-12.2307
嫒	-12.2307
喾	-12.2358
惄	-12.2367
敨	-12.2367
塜	-12.2367
圭	-12.2397
囷	-12.2427
嗤	-12.2427
尸	-12.2427
僖	-12.2487
岢	-12.2519
喷	-12.2549
嚳	-12.2549
凌	-12.2549
巚	-12.2549
哝	-12.258
幏	-12.258
味	-12.2611
坃	-12.2673
卐	-12.2704
嶟	-12.2704
弁	-12.2704
圁	-12.2735
夡	-12.2735
勫	-12.2767
染	-12.2767
娆	-12.2798
嬋	-12.2798
僦	-12.2807
剁	-12.283
卦	-12.2893
嚝	-12.2893
奄	-12.2893
奫	-12.2893
寨	-12.2893
嘊	-12.2925
唇	-12.2925
孟	-12.2925
堡	-12.2957
婱	-12.2957
~	-12.2957
吥	-12.2957
奧	-12.3053
嗻	-12.3086
娩	-12.3118
楛	-12.3118
啴	-12.3151
抆	-12.3184
塰	-12.3184
冊	-12.3216
卵	-12.3216
姙	-12.3249
壼	-12.3249
圅	-12.3249
塖	-12.3249
囮	-12.3282
奤	-12.3282
彠	-12.3315
壽	-12.3315
垟	-12.3382
叏	-12.3411
夘	-12.3415
嫧	-12.3449
孲	-12.3449
寣	-12.3449
喏	-12.3483
尯	-12.3483
垃	-12.3483
嶞	-12.3483
刪	-12.355
峜	-12.355
慎	-12.355
倶	-12.3584
婜	-12.3584
富	-12.3584
屛	-12.3584
嘢	-12.3618
噰	-12.3618
尻	-12.3618
崖	-12.3721
塠	-12.3722
墬	-12.3722
对	-12.3722
勯	-12.3745
呛	-12.3791
嬵	-12.3791
彘	-12.3791
嗠	-12.3861
囻	-12.3861
儧	-12.3896
弓	-12.3896
夗	-12.3966
噖	-12.3966
吝	-12.4002
唧	-12.4002
囜	-12.4037
喼	-12.4037
奂	-12.4037
孏	-12.4037
嘈	-12.4073
埆	-12.4073
埩	-12.4073
峾	-12.4073
冉	-12.4109
哈	-12.4109
壗	-12.4109
蛷	-12.4109
佾	-12.4145
姒	-12.4145
壮	-12.4181
姆	-12.4181
嫺	-12.4181
喠	-12.4217
埞	-12.4217
戕	-12.4217
刮	-12.4217
形	-12.4217
澨	-12.4217
孯	-12.429
拶	-12.429
坥	-12.4327
嫖	-12.4327
嬻	-12.4327
媴	-12.4363
噺	-12.4363
喃	-12.44
寇	-12.44
岀	-12.44
嬙	-12.4437
噠	-12.4437
嚞	-12.4475
坈	-12.4475
剓	-12.4512
吡	-12.4512
嬫	-12.4512
囯	-12.4549
可	-12.4549
堊	-12.4549
塅	-12.4549
嬾	-12.4587
浅	-12.4625
堙	-12.4625
弎	-12.4625
峁	-12.4663
抹	-12.4701
嶑	-12.4701
漡	-12.4701
劅	-12.4777
夲	-12.4777
嘞	-12.4777
墷	-12.4777
叙	-12.4853
噟	-12.4854
娉	-12.4854
尛	-12.4854
囀	-12.4893
堯	-12.4893
岲	-12.4893
叜	-12.4932
壈	-12.4932
導	-12.4932
妮	-12.4971
度	-12.501
弝	-12.501
儞	-12.5049
媬	-12.5049
囐	-12.5089
囸	-12.5089
坼	-12.5089
审	-12.5089
妗	-12.5129
埅	-12.5129
墁	-12.5168
媟	-12.5168
宸	-12.5168
奲	-12.5208
宐	-12.5208
呢	-12.5249
噀	-12.5249
嚻	-12.5249
嗬	-12.5289
喡	-12.5329
坸	-12.5329
処	-12.537
執	-12.537
忒	-12.537
帐	-12.537
十	-12.5411
娜	-12.5452
器	-12.5452
垵	-12.5534
咘	-12.5534
嫘	-12.5534
很	-12.5534
叒	-12.5576
孥	-12.5618
夛	-12.5659
庶	-12.5659
檓	-12.5659
刍	-12.5744
嬉	-12.5744
圲	-12.5786
媀	-12.5786
単	-12.5786
士	-12.5786
匼	-12.5828
妙	-12.5828
嵏	-12.5828
吷	-12.5871
寄	-12.5871
壚	-12.5914
卾	-12.5957
凎	-12.5957
嗎	-12.5957
宄	-12.5957
噕	-12.6001
埍	-12.6001
屣	-12.6001
崯	-12.6088
嚶	-12.6088
埘	-12.6088
巖	-12.6132
屸	-12.6132
冭	-12.6175
幰	-12.6176
悦	-12.6176
基	-12.622
婳	-12.622
尶	-12.622
椿	-12.6264
坺	-12.6264
堪	-12.6264
婻	-12.6264
密	-12.6264
怩	-12.6264
哀	-12.6309
戆	-12.6309
坫	-12.6309
垣	-12.6354
媊	-12.6354
剡	-12.6354
劥	-12.6354
岶	-12.6354
匨	-12.6399
嘒	-12.6399
壳	-12.6399
姅	-12.6399
唞	-12.6444
州	-12.649
媓	-12.6535
巠	-12.6535
庩	-12.6535
娟	-12.6581
寺	-12.6581
叕	-12.6581
嘓	-12.6581
峐	-12.6581
図	-12.6627
媃	-12.6627
圮	-12.6673
岹	-12.6673
僸	-12.6697
咿	-12.672
宿	-12.672
嘜	-12.6767
帊	-12.6814
幍	-12.6814
勅	-12.6814
嚬	-12.6861
堐	-12.6861
妕	-12.6861
庑	-12.6861
姽	-12.6908
喛	-12.6908
婈	-12.6908
咥	-12.6956
堑	-12.6956
履	-12.6956
婺	-12.7004
嬠	-12.7004
孭	-12.7004
宜	-12.7004
埧	-12.7004
唪	-12.7052
娇	-12.7052
娨	-12.7052
嬇	-12.7052
勂	-12.71
吭	-12.71
墢	-12.71
劐	-12.7149
嘀	-12.7149
嚃	-12.7149
嚔	-12.7149
娝	-12.7149
峰	-12.7149
囧	-12.7197
埳	-12.7197
姱	-12.7197
娦	-12.7197
媪	-12.7197
怖	-12.7197
嶗	-12.7246
氍	-12.7246
嫙	-12.7246
僪	-12.7283
庄	-12.7296
婊	-12.7296
呵	-12.7345
官	-12.7345
厷	-12.7345
恦	-12.7345
咸	-12.7395
奒	-12.7395
媨	-12.7395
堘	-12.7395
叶	-12.7445
塾	-12.7445
壶	-12.7445
奏	-12.7495
墵	-12.7495
勈	-12.7546
哩	-12.7546
堷	-12.7596
嘄	-12.7596
壪	-12.7596
孓	-12.7596
徔	-12.7596
楳	-12.7596
堢	-12.7647
多	-12.7647
失	-12.7647
妒	-12.7647
威	-12.7647
塢	-12.7699
媮	-12.7699
怽	-12.7699
埝	-12.775
备	-12.775
嫸	-12.7802
孺	-12.7802
崈	-12.7802
废	-12.7802
擗	-12.7802
奘	-12.7854
堖	-12.7854
娋	-12.7854
巿	-12.7854
剿	-12.7959
揼	-12.7959
婋	-12.7959
坎	-12.8012
垥	-12.8012
宵	-12.8065
昭	-12.8065
姝	-12.8119
峱	-12.8119
垇	-12.8173
[	-12.8227
懵	-12.8227
呴	-12.8227
啱	-12.8227
嬕	-12.8227
嬬	-12.8227
巯	-12.8227
哠	-12.8227
困	-12.8281
囹	-12.8281
奉	-12.8281
姑	-12.8281
宁	-12.8281
壅	-12.8336
尌	-12.8336
媞	-12.8336
反	-12.8389
嗨	-12.839
媋	-12.839
宔	-12.839
嶥	-12.839
怚	-12.839
樛	-12.8446
垯	-12.8446
够	-12.8446
咳	-12.8501
唆	-12.8501
噴	-12.8501
垛	-12.8501
囄	-12.8557
咏	-12.8557
忑	-12.8613
嶻	-12.8613
巊	-12.8613
巳	-12.8613
墳	-12.8613
孙	-12.8613
尤	-12.8784
吿	-12.8784
埪	-12.8784
墡	-12.8784
売	-12.8784
屾	-12.8784
岁	-12.8784
嚖	-12.8784
姞	-12.8841
寞	-12.8841
僂	-12.8868
岯	-12.8899
噱	-12.8899
垬	-12.8899
嗥	-12.8899
娧	-12.8957
宨	-12.8957
冇	-12.901
埦	-12.9016
塚	-12.9016
妭	-12.9016
喟	-12.9075
剚	-12.9075
劍	-12.9075
娑	-12.9075
帢	-12.9075
怎	-12.9075
嘮	-12.9075
咢	-12.9134
唶	-12.9134
塨	-12.9134
外	-12.9134
奅	-12.9134
寲	-12.9134
愉	-12.9134
懼	-12.9134
滐	-12.9134
刽	-12.9186
吵	-12.9193
屵	-12.9193
埣	-12.9193
壇	-12.9193
帋	-12.9193
帵	-12.9193
惆	-12.9193
嬎	-12.9193
寪	-12.9193
則	-12.9242
呷	-12.9253
圌	-12.9253
夷	-12.9253
娽	-12.9253
揻	-12.9253
娭	-12.9253
嫱	-12.9313
埓	-12.9313
姥	-12.9313
尣	-12.9313
储	-12.9346
崕	-12.9374
棽	-12.9374
咕	-12.9435
奨	-12.9435
娖	-12.9435
啟	-12.9435
囈	-12.9435
塮	-12.9435
寱	-12.9435
彁	-12.9435
塼	-12.9496
庎	-12.9496
媈	-12.9496
抻	-12.9496
咤	-12.9558
嶴	-12.9558
弆	-12.9558
往	-12.9558
孅	-12.962
寧	-12.962
巓	-12.962
忁	-12.962
啚	-12.9683
唀	-12.9683
唟	-12.9683
弮	-12.9683
坑	-12.9745
垊	-12.9745
撖	-12.9745
动	-12.9746
圛	-12.9746
悏	-12.9746
喂	-12.9796
呼	-12.9809
匜	-12.9809
奆	-12.9809
店	-12.9809
岙	-12.9872
卙	-12.9872
堞	-12.9872
娴	-12.9937
崧	-12.9937
嶍	-12.9937
揹	-12.9937
坂	-13.0001
垖	-13.0001
妟	-13.0066
曈	-13.0066
慬	-13.0066
奟	-13.0131
宏	-13.0131
墆	-13.0131
庢	-13.0131
恨	-13.0131
撟	-13.0131
允	-13.0191
勶	-13.0197
嘆	-13.0197
居	-13.0197
幨	-13.0197
彭	-13.0197
卿	-13.0263
堨	-13.0263
嗕	-13.0263
嘘	-13.0263
嫁	-13.0263
嬹	-13.0263
廱	-13.0263
弜	-13.0263
愭	-13.0263
胏	-13.033
埾	-13.033
孱	-13.033
峵	-13.033
寉	-13.0397
剔	-13.0397
哬	-13.0397
嵤	-13.0397
嶛	-13.0397
諷	-13.0397
嚦	-13.0465
志	-13.0465
恄	-13.0465
凡	-13.0533
卸	-13.0533
取	-13.0533
嗔	-13.0533
埸	-13.0533
堥	-13.0533
壋	-13.0533
忔	-13.0601
屡	-13.0601
岬	-13.0601
嬂	-13.067
搁	-13.067
劰	-13.067
垼	-13.067
羂	-13.067
冖	-13.0739
愂	-13.074
射	-13.074
啅	-13.074
塓	-13.081
劀	-13.081
啋	-13.081
圈	-13.081
囝	-13.088
夓	-13.088
帬	-13.088
宂	-13.088
廵	-13.088
傡	-13.0918
圎	-13.0951
婄	-13.0951
媯	-13.0951
嫃	-13.0951
宪	-13.0951
尨	-13.1022
协	-13.1022
塆	-13.1022
妣	-13.1022
娤	-13.1022
婹	-13.1022
埏	-13.1094
嘻	-13.1094
媎	-13.1094
啢	-13.1094
墹	-13.1094
壄	-13.1094
孰	-13.1094
囼	-13.1167
妡	-13.1167
庡	-13.1167
吟	-13.1167
喇	-13.1167
喣	-13.1167
坟	-13.1167
埐	-13.1167
堔	-13.1167
妞	-13.1167
獟	-13.1167
瑩	-13.1167
唵	-13.124
堜	-13.124
娅	-13.124
娲	-13.124
孛	-13.124
尼	-13.124
喈	-13.1313
婤	-13.1313
峮	-13.1313
懹	-13.1313
噜	-13.1387
尫	-13.1387
峼	-13.1387
朖	-13.1387
姂	-13.1387
又	-13.1454
嬞	-13.1462
崬	-13.1462
徿	-13.1462
恣	-13.1462
曶	-13.1462
槮	-13.1462
岡	-13.1462
吙	-13.1537
塘	-13.1537
奿	-13.1537
坡	-13.1613
婏	-13.1613
媧	-13.1613
嬴	-13.1613
孹	-13.1613
庽	-13.1613
悐	-13.1613
柧	-13.1613
弥	-13.1689
塯	-13.1689
奵	-13.1689
峏	-13.1689
帯	-13.1689
待	-13.1689
挢	-13.1689
幺	-13.1689
巙	-13.1766
妇	-13.1766
媦	-13.1766
宍	-13.1766
岞	-13.1766
揕	-13.1766
楕	-13.1766
慴	-13.1844
猳	-13.1844
巡	-13.1844
哘	-13.1922
埨	-13.1922
塕	-13.1922
墭	-13.1922
嫼	-13.1922
崦	-13.1922
怷	-13.1922
圝	-13.2001
嘩	-13.2001
厃	-13.2001
墘	-13.2001
唦	-13.208
唲	-13.208
戞	-13.208
塿	-13.208
婿	-13.208
晱	-13.208
卜	-13.216
峷	-13.216
崩	-13.216
幹	-13.216
撡	-13.216
嗡	-13.2241
埜	-13.2241
娹	-13.2241
嬖	-13.2241
岾	-13.2241
嶪	-13.2241
川	-13.2241
幪	-13.2241
弄	-13.2241
掘	-13.2241
妲	-13.2241
坓	-13.2241
欝	-13.2322
卖	-13.2322
嗺	-13.2322
奎	-13.2322
巢	-13.2322
徚	-13.2322
忢	-13.2322
怓	-13.2322
擟	-13.2322
宲	-13.2322
徏	-13.2404
捽	-13.2404
棪	-13.2404
嫣	-13.2404
匈	-13.2487
姃	-13.2487
徝	-13.2487
忬	-13.2487
戠	-13.2487
怸	-13.2487
吘	-13.257
咓	-13.257
堒	-13.257
姏	-13.257
崗	-13.257
惭	-13.257
嶕	-13.2654
姠	-13.2654
媭	-13.2654
嫈	-13.2654
寕	-13.2654
屙	-13.2654
廞	-13.2654
搈	-13.2654
媫	-13.2739
嫲	-13.2739
嵧	-13.2739
憿	-13.2739
塋	-13.2824
写	-13.2824
剪	-13.2824
唘	-13.2824
嗓	-13.2824
嘶	-13.2824
囆	-13.2824
壟	-13.2824
孿	-13.2824
忩	-13.2824
惽	-13.2824
<	-13.2824
嬿	-13.2824
極	-13.2824
半	-13.291
喕	-13.291
垎	-13.291
堩	-13.291
嫕	-13.291
嵪	-13.291
廸	-13.291
心	-13.291
曚	-13.291
慮	-13.291
愅	-13.2997
寜	-13.2997
姖	-13.2997
娄	-13.2997
宗	-13.2997
屔	-13.2997
弰	-13.2997
怋	-13.2997
年	-13.2997
埚	-13.3085
婛	-13.3085
嬊	-13.3085
喬	-13.3085
圻	-13.3085
妳	-13.3085
嫝	-13.3085
嬐	-13.3085
忙	-13.3085
悤	-13.3085
惍	-13.3085
愱	-13.3085
崝	-13.3085
处	-13.3173
奯	-13.3173
撜	-13.3173
棣	-13.3173
幁	-13.3174
楸	-13.3174
啓	-13.3233
姕	-13.3263
娃	-13.3263
廝	-13.3263
号	-13.3263
寙	-13.3263
妶	-13.3353
劦	-13.3353
垁	-13.3353
垑	-13.3353
幟	-13.3353
滘	-13.3353
叔	-13.3353
寛	-13.3353
噸	-13.3444
埲	-13.3444
嬁	-13.3444
孈	-13.3444
希	-13.3444
忺	-13.3444
竧	-13.3444
囗	-13.3536
嫽	-13.3536
巇	-13.3536
忪	-13.3536
嘔	-13.3536
噲	-13.3536
夞	-13.3536
嬷	-13.3536
帍	-13.3536
帼	-13.3536
徣	-13.3536
旜	-13.3536
喍	-13.3628
塴	-13.3628
墺	-13.3628
嬒	-13.3628
廣	-13.3628
忏	-13.3628
宮	-13.3628
埃	-13.3628
呯	-13.3722
嵽	-13.3722
槤	-13.3722
巒	-13.3722
庪	-13.3722
廠	-13.3722
墴	-13.3816
寋	-13.3816
崳	-13.3816
嶡	-13.3816
哢	-13.3816
坁	-13.3816
尉	-13.3816
尝	-13.3816
嵣	-13.3816
嶈	-13.3816
彞	-13.3816
慃	-13.3816
摾	-13.3816
慩	-13.3816
寅	-13.3911
嗶	-13.3911
崀	-13.3911
嶝	-13.3911
廉	-13.3911
性	-13.3911
堦	-13.3911
匏	-13.4007
媝	-13.4007
嚄	-13.4007
垻	-13.4007
娏	-13.4007
嫜	-13.4007
嬭	-13.4007
弞	-13.4007
彙	-13.4007
堵	-13.4007
庤	-13.4007
弃	-13.4007
攍	-13.4007
斜	-13.4007
厧	-13.4104
嗲	-13.4104
嬯	-13.4104
孵	-13.4104
岭	-13.4104
幠	-13.4104
欫	-13.4104
園	-13.4104
嘹	-13.4202
塧	-13.4202
壁	-13.4202
媄	-13.4202
嵁	-13.4202
廰	-13.4202
彇	-13.4202
径	-13.4202
怘	-13.4202
扠	-13.4202
挭	-13.4202
椃	-13.4202
巏	-13.4202
倜	-13.4301
嘵	-13.4301
墦	-13.4301
壣	-13.4301
妿	-13.4301
專	-13.4301
帩	-13.4301
帻	-13.4301
廽	-13.4301
慝	-13.4301
囃	-13.4401
婚	-13.4401
庀	-13.4401
怦	-13.4401
怿	-13.4401
悴	-13.4401
悿	-13.4401
掶	-13.4401
徟	-13.4401
妐	-13.4502
宝	-13.4502
宼	-13.4502
幤	-13.4502
恙	-13.4502
愷	-13.4502
斲	-13.4502
楱	-13.4502
媿	-13.4502
昫	-13.4502
噫	-13.4604
唷	-13.4604
垌	-13.4604
垿	-13.4604
奖	-13.4604
幇	-13.4604
抃	-13.4604
楔	-13.4604
復	-13.4708
挸	-13.4708
報	-13.4708
婍	-13.4708
孂	-13.4708
岨	-13.4708
帤	-13.4708
旨	-13.4708
寗	-13.4708
卭	-13.4812
瀌	-13.4812
壕	-13.4812
寂	-13.4812
尐	-13.4812
彡	-13.4812
彨	-13.4812
嗵	-13.4812
墖	-13.4917
夬	-13.4917
孆	-13.4917
尊	-13.4917
洈	-13.4917
摕	-13.4917
澴	-13.4917
坐	-13.4917
岓	-13.4917
慳	-13.4917
囡	-13.5023
帺	-13.5023
恃	-13.5023
叓	-13.5023
咜	-13.5023
唹	-13.5023
嘸	-13.5023
塒	-13.5023
带	-13.5023
抶	-13.5023
旈	-13.5023
廋	-13.5023
奠	-13.5131
堠	-13.5131
巂	-13.5131
巼	-13.5131
恆	-13.5131
惑	-13.5131
懭	-13.5131
忉	-13.5131
喀	-13.524
嚏	-13.524
围	-13.524
嬅	-13.524
察	-13.524
巸	-13.524
庲	-13.524
坕	-13.535
娸	-13.535
嘛	-13.535
奌	-13.535
枮	-13.535
抯	-13.535
喙	-13.5362
巟	-13.5461
嚤	-13.5461
坋	-13.5461
娞	-13.5461
弼	-13.5461
忱	-13.5461
恝	-13.5461
惈	-13.5461
擛	-13.5461
昀	-13.5461
堏	-13.5461
噞	-13.5573
姲	-13.5573
弱	-13.5573
团	-13.5573
圐	-13.5573
巎	-13.5573
帟	-13.5573
抲	-13.5573
搲	-13.5573
喢	-13.5573
愯	-13.5573
嗉	-13.5687
妧	-13.5687
娼	-13.5687
孡	-13.5687
岰	-13.5687
崆	-13.5687
崻	-13.5687
廯	-13.5687
弅	-13.5687
怉	-13.5687
狎	-13.5687
寬	-13.5802
崹	-13.5802
帑	-13.5802
掭	-13.5802
暬	-13.5802
慰	-13.5802
厥	-13.5918
吣	-13.5918
姺	-13.5918
孖	-13.5918
彂	-13.5918
怂	-13.5918
怏	-13.5918
搎	-13.5918
壍	-13.5918
壢	-13.5918
嶵	-13.5918
晳	-13.5918
岔	-13.5918
坲	-13.6035
寓	-13.6035
悞	-13.6035
壨	-13.6035
姤	-13.6035
尋	-13.6035
尩	-13.6035
披	-13.6035
噼	-13.6155
摥	-13.6155
击	-13.6155
咺	-13.6155
夾	-13.6155
妹	-13.6155
嶋	-13.6155
惘	-13.6155
攇	-13.6155
楼	-13.6155
匷	-13.6275
历	-13.6275
呑	-13.6275
啬	-13.6275
夠	-13.6275
娯	-13.6275
崎	-13.6275
崢	-13.6275
崾	-13.6275
帣	-13.6275
夒	-13.6275
嘟	-13.6397
埊	-13.6397
媱	-13.6397
孇	-13.6397
序	-13.6397
囪	-13.652
効	-13.652
勏	-13.652
否	-13.652
囥	-13.652
妱	-13.652
嬦	-13.652
宒	-13.652
巷	-13.652
抢	-13.652
擑	-13.652
殂	-13.652
厁	-13.6644
拁	-13.6645
場	-13.6645
央	-13.6645
妆	-13.6645
孬	-13.6645
怹	-13.6645
搌	-13.6645
搽	-13.6645
崑	-13.6645
嶣	-13.6645
急	-13.6645
慂	-13.6645
昚	-13.6645
彰	-13.6645
擏	-13.6645
慭	-13.6645
垂	-13.6772
墣	-13.6772
帪	-13.6772
彬	-13.6772
桶	-13.6772
硿	-13.6772
委	-13.6772
晦	-13.6772
椒	-13.6772
双	-13.69
夆	-13.69
婪	-13.69
寊	-13.69
总	-13.69
搃	-13.69
剧	-13.69
呡	-13.69
坆	-13.69
德	-13.69
悘	-13.69
愹	-13.69
择	-13.69
掝	-13.69
旍	-13.69
熇	-13.69
忓	-13.703
悆	-13.703
塞	-13.703
媥	-13.703
崞	-13.703
弘	-13.703
彝	-13.703
榟	-13.703
墌	-13.7162
団	-13.7162
庯	-13.7162
怡	-13.7162
屢	-13.7162
峑	-13.7162
崔	-13.7162
嶺	-13.7162
彲	-13.7162
憧	-13.7162
戇	-13.7162
撿	-13.7162
渼	-13.7162
舭	-13.7162
忎	-13.7295
坔	-13.7295
堓	-13.7295
嶤	-13.7295
忭	-13.7295
抜	-13.7295
啪	-13.7295
塗	-13.7295
塡	-13.7295
媤	-13.7295
局	-13.7295
屉	-13.7295
崄	-13.7295
憆	-13.7295
暹	-13.7295
渹	-13.7295
脞	-13.7295
嫢	-13.7295
塬	-13.743
嫻	-13.743
孜	-13.743
嵃	-13.743
布	-13.743
撄	-13.743
呅	-13.743
喔	-13.743
嗧	-13.743
圑	-13.743
塎	-13.743
妈	-13.743
徢	-13.743
徻	-13.743
搗	-13.743
洚	-13.743
薴	-13.743
婵	-13.743
埉	-13.743
愪	-13.7567
囑	-13.7567
嵓	-13.7567
徑	-13.7567
昮	-13.7567
媙	-13.7567
崃	-13.7567
崵	-13.7567
惮	-13.7567
棦	-13.7567
槲	-13.7567
忌	-13.7567
叻	-13.7706
埱	-13.7706
培	-13.7706
宾	-13.7706
慹	-13.7706
桀	-13.7706
殉	-13.7706
喦	-13.7706
囵	-13.7706
组	-13.7706
囖	-13.7847
妝	-13.7847
惜	-13.7847
堀	-13.7847
奇	-13.7847
娢	-13.7847
婡	-13.7847
媣	-13.7847
孢	-13.7847
宦	-13.7847
寒	-13.7847
嵞	-13.7847
廦	-13.7847
恠	-13.7847
揸	-13.7847
柔	-13.7847
緑	-13.7847
楹	-13.7847
叿	-13.799
姀	-13.799
嶠	-13.799
彃	-13.799
叵	-13.799
姷	-13.799
嫞	-13.799
幆	-13.799
庈	-13.799
徆	-13.799
惗	-13.799
碓	-13.799
椷	-13.799
侉	-13.8124
声	-13.8135
嵈	-13.8135
忳	-13.8135
忽	-13.8135
悝	-13.8135
摎	-13.8135
蓙	-13.8135
嚽	-13.8135
夀	-13.8135
槪	-13.8135
凴	-13.8271
勳	-13.8281
娕	-13.8282
孕	-13.8282
呥	-13.8282
墒	-13.8282
婦	-13.8282
勥	-13.8282
婾	-13.8282
峘	-13.8282
嶰	-13.8282
昧	-13.8282
梃	-13.8282
洑	-13.8282
煥	-13.8282
桿	-13.8282
楴	-13.8282
僐	-13.8372
愕	-13.8431
尧	-13.8431
峓	-13.8431
嶓	-13.8431
帜	-13.8431
戊	-13.8431
捛	-13.8431
捩	-13.8431
摝	-13.8431
撎	-13.8431
攤	-13.8431
斄	-13.8431
沓	-13.8431
炎	-13.8431
复	-13.8431
桪	-13.8431
嚼	-13.8582
墥	-13.8582
墩	-13.8582
娒	-13.8582
弻	-13.8582
旤	-13.8582
恇	-13.8582
想	-13.8582
爅	-13.8582
埋	-13.8582
匶	-13.8736
及	-13.8736
帒	-13.8736
怔	-13.8736
懈	-13.8736
推	-13.8736
撈	-13.8736
栭	-13.8736
烪	-13.8736
夻	-13.8736
宴	-13.8736
幣	-13.8736
摗	-13.8736
匾	-13.8893
壞	-13.8893
夎	-13.8893
妀	-13.8893
婉	-13.8893
岆	-13.8893
岱	-13.8893
掠	-13.8893
搐	-13.8893
棷	-13.8893
榇	-13.8893
菃	-13.8893
嬃	-13.8893
暨	-13.8893
梘	-13.8893
庝	-13.8893
呤	-13.9051
剱	-13.9051
吂	-13.9051
咦	-13.9051
噪	-13.9051
妽	-13.9051
嬗	-13.9051
寏	-13.9051
尀	-13.9051
峉	-13.9051
峙	-13.9051
彵	-13.9051
未	-13.9051
嘳	-13.9051
媛	-13.9051
忷	-13.9051
惻	-13.9051
扇	-13.9213
囁	-13.9213
宣	-13.9213
容	-13.9213
屁	-13.9213
嵾	-13.9213
幬	-13.9213
徜	-13.9213
敘	-13.9213
榶	-13.9213
檷	-13.9213
咂	-13.9213
揗	-13.9377
机	-13.9377
剴	-13.9377
團	-13.9377
奍	-13.9377
妬	-13.9377
嫛	-13.9377
嬧	-13.9377
寿	-13.9377
嵔	-13.9377
彐	-13.9377
愆	-13.9377
投	-13.9377
曩	-13.9377
杛	-13.9377
泜	-13.9377
斞	-13.9543
巴	-13.9543
庹	-13.9543
垓	-13.9543
妜	-13.9543
媚	-13.9543
岤	-13.9543
帄	-13.9543
帏	-13.9543
帱	-13.9543
挼	-13.9543
搧	-13.9543
擶	-13.9543
嘫	-13.9543
彔	-13.9543
忖	-13.9713
唁	-13.9713
喞	-13.9713
囨	-13.9713
墅	-13.9713
壝	-13.9713
姍	-13.9713
媉	-13.9713
幸	-13.9713
愋	-13.9713
愧	-13.9713
控	-13.9713
敄	-13.9713
槳	-13.9713
巬	-13.9713
掆	-13.9713
斥	-13.9713
橩	-13.9713
孧	-13.9885
撍	-13.9885
只	-13.9885
囒	-13.9885
囟	-13.9885
坘	-13.9885
嫉	-13.9885
嬱	-13.9885
廁	-13.9885
引	-13.9885
懇	-13.9885
昛	-13.9885
昲	-13.9885
暿	-13.9885
泴	-13.9885
滭	-13.9885
嬳	-13.9885
岿	-13.9885
师	-13.9885
怬	-13.9885
恹	-13.9885
憒	-13.9885
懊	-13.9885
打	-13.9885
涚	-13.9885
旆	-13.9885
匲	-14.0061
嘂	-14.0061
墠	-14.0061
婑	-14.0061
婮	-14.0061
尖	-14.0061
尹	-14.0061
峦	-14.0061
崘	-14.0061
庮	-14.0061
愥	-14.0061
憝	-14.0061
擐	-14.0061
曻	-14.0061
檂	-14.0061
討	-14.0061
呃	-14.0061
孾	-14.0061
惩	-14.0061
挮	-14.0061
晓	-14.0061
楻	-14.0061
地	-14.0239
婽	-14.0239
廇	-14.0239
哯	-14.0239
堋	-14.0239
夈	-14.0239
婅	-14.0239
岚	-14.0239
峄	-14.0239
巺	-14.0239
悢	-14.0239
懿	-14.0239
柏	-14.0239
櫌	-14.0239
歍	-14.0239
歼	-14.0239
弙	-14.0239
埖	-14.0421
挪	-14.0421
媠	-14.0421
媹	-14.0421
孋	-14.0421
屚	-14.0421
岘	-14.0421
嵅	-14.0421
嵇	-14.0421
幭	-14.0421
悰	-14.0421
揓	-14.0421
撉	-14.0421
棖	-14.0421
懻	-14.0421
旀	-14.0606
恼	-14.0606
煅	-14.0606
狻	-14.0606
囘	-14.0606
坊	-14.0606
崺	-14.0606
嶏	-14.0606
巕	-14.0606
廙	-14.0606
恴	-14.0606
戍	-14.0606
捉	-14.0606
楏	-14.0606
榈	-14.0606
樞	-14.0606
檪	-14.0606
歾	-14.0606
咊	-14.0606
恾	-14.0606
増	-14.0606
四	-14.0795
嚣	-14.0795
奞	-14.0795
弪	-14.0795
慕	-14.0795
毚	-14.0795
唱	-14.0795
娐	-14.0795
就	-14.0795
幧	-14.0795
庫	-14.0795
弣	-14.0795
戃	-14.0795
搊	-14.0795
擖	-14.0795
榋	-14.0795
殮	-14.0795
滄	-14.0795
摰	-14.0795
哄	-14.0987
嘷	-14.0987
垫	-14.0987
婯	-14.0987
尭	-14.0987
岟	-14.0987
岥	-14.0987
嵉	-14.0987
嵗	-14.0987
摤	-14.0987
敎	-14.0987
橅	-14.0987
皚	-14.0987
囅	-14.0987
墕	-14.0987
尳	-14.0987
庼	-14.0987
彴	-14.0987
浯	-14.0987
埄	-14.0987
哏	-14.1172
拦	-14.1183
暮	-14.1183
图	-14.1183
垶	-14.1183
塂	-14.1183
太	-14.1183
娵	-14.1183
嬸	-14.1183
孔	-14.1183
孼	-14.1183
幵	-14.1183
捕	-14.1183
捠	-14.1183
摉	-14.1183
晒	-14.1183
樭	-14.1183
泛	-14.1183
垲	-14.1383
嫨	-14.1383
寃	-14.1383
屿	-14.1383
崣	-14.1383
忨	-14.1383
悍	-14.1383
慔	-14.1383
技	-14.1383
楢	-14.1383
扝	-14.1383
晤	-14.1383
晑	-14.1383
哽	-14.1783
砪	-14.2908
垏	-14.8811
减	-15.1064
噬	-15.2368
娌	-15.6759
怨	-15.676
佽	-15.6761
庐	-15.6762
揾	-15.6763
挄	-15.6764
憡	-15.6765
愲	-15.6766
岩	-15.6767
暎	-15.6768
员	-15.6769
橸	-15.677
懥	-15.6771
婷	-15.6772
忂	-15.6773
寭	-15.6774
朸	-15.6775
晫	-15.6776
庵	-15.6777
增	-15.6778
底	-15.6779
橂	-15.678
济	-15.6781
憢	-15.6782
攫	-15.6783
娂	-15.6784
哇	-15.6785
椆	-15.6786
干	-15.6787
屼	-15.6788
嬌	-15.6789
夿	-15.679
嘉	-15.6791
嶨	-15.6792
崤	-15.6793
恌	-15.6794
嘨	-15.6795
唭	-15.6796
娚	-15.6797
惃	-15.6798
彽	-15.6799
擮	-15.68
扴	-15.6801
峎	-15.6802
圦	-15.6803
柈	-15.6804
坭	-15.6805
姼	-15.6806
坴	-15.6807
崿	-15.6808
熯	-15.6809
濠	-15.681
彟	-15.6811
晲	-15.6812
勒	-15.6813
已	-15.6814
夙	-15.6815
婢	-15.6816
啎	-15.6817
扷	-15.6818
圜	-15.6819
娘	-15.682
巣	-15.6821
应	-15.6822
壵	-15.6823
所	-15.6824
堟	-15.6825
徃	-15.6826
喊	-15.6827
堚	-15.6828
婶	-15.6829
惞	-15.683
娫	-15.6831
嘗	-15.6832
圧	-15.6833
圙	-15.6834
姟	-15.6835
恒	-15.6836
尰	-15.6837
嘬	-15.6838
塄	-15.6839
墸	-15.684
囕	-15.6841
寷	-15.6842
嶔	-15.6843
婇	-15.6844
張	-15.6845
哦	-15.6846
均	-15.6847
尽	-15.6848
垹	-15.6849
嫔	-15.685
婓	-15.6851
塉	-15.6852
損	-15.6853
帡	-15.6854
媳	-15.6855
侓	-15.6856
壭	-15.6857
媌	-15.6858
腳	-15.6859
府	-15.686
嘴	-15.6861
埻	-15.6862
崴	-15.6863
啨	-15.6864
唊	-15.6865
哸	-15.6866
奸	-15.6867
屃	-15.6868
妾	-15.6869
咟	-15.687
嗘	-15.6871
垞	-15.6872
婩	-15.6873
嗃	-15.6874
垾	-15.6875
卼	-15.6876
厺	-15.6877
匳	-15.6878
哑	-15.6879
华	-15.688
吗	-15.6881
倴	-15.6882
僤	-15.6883
僄	-15.6884
凪	-15.6884
