<unk>	0
<s>	0
</s>	0
▁亖	-0
▁仢	-1
▁亽	-2
▁仿	-3
▁仔	-4
▁亓	-5
▁亃	-6
▁仐	-7
▁1	-8
▁佋	-9
▁仿亵	-10
▁佅	-11
▁亍	-12
▁亲	-13
▁什	-14
▁予	-15
▁佅伭	-16
俷佳	-17
▁伸	-18
▁亂	-19
▁仌	-20
▁伊	-21
▁仢俷佳	-22
▁仈	-23
亮亥	-24
▁亢	-25
▁仛	-26
▁偙	-27
▁亲仇	-28
▁令	-29
亚什	-30
▁亜	-31
▁偙亮亥	-32
▁互	-33
俉仅	-34
▁亚	-35
▁10	-36
▁以	-37
▁亣	-38
▁亩	-39
▁亇	-40
▁仙	-41
▁5	-42
▁侺	-43
▁伡	-44
▁仿亵亥	-45
▁亥	-46
▁二	-47
▁争	-48
▁亊	-49
▁亇予	-50
▁2	-51
仅亰	-52
▁佋仦	-53
▁佋仦佌	-54
▁传	-55
▁享	-56
▁侺仌	-57
▁亓伊	-58
▁介	-59
▁伡傢	-60
▁位	-61
▁亵	-62
▁佒	-63
亡亯	-64
▁亻	-65
▁仩	-66
▁侎	-67
▁俢	-68
▁亓伊亃	-69
▁仍	-70
位伭	-71
俷亡	-72
保二	-73
▁似	-74
▁倎	-75
▁会	-76
▁伙	-77
▁俆	-78
▁亾	-79
▁倦	-80
▁仩仪	-81
▁会予	-82
▁但	-83
▁佸	-84
仅亾	-85
▁伓	-86
仅亥	-87
佰亣	-88
▁佰亣	-89
位伭二	-90
▁亷	-91
▁估	-92
▁侨	-93
▁伸傘	-94
▁伸傘俉仅	-95
▁20	-96
▁仔伢	-97
▁亏	-98
▁仞	-99
▁会予傲	-100
▁估侒	-101
▁予傜	-102
▁佚	-103
▁19	-104
▁仿亩	-105
▁倲	-106
▁亓争	-107
▁佸位伭二	-108
▁亍倩	-109
▁亃仦	-110
▁佃	-111
▁亼	-112
▁仼	-113
▁予傜俉仅	-114
▁亯	-115
▁侺仌亊	-116
仧亡	-117
众予	-118
仞二	-119
侚亣	-120
▁亓争侚亣	-121
▁伭	-122
▁侏	-123
▁代	-124
▁倦傠	-125
伖仇	-126
▁"	-127
▁仢付	-128
▁伋	-129
▁侎优	-130
▁仔伢俱	-131
亐仦	-132
▁偖	-133
佤亭	-134
▁产	-135
▁亊亩	-136
亘亙	-137
▁佨	-138
▁仹	-139
▁亘亙	-140
▁亖伻	-141
▁争伥	-142
▁侧	-143
▁侺仌個	-144
▁令二	-145
▁仒	-146
争仳	-147
▁享仚	-148
▁仿亩亚什	-149
▁似代	-150
亥亚	-151
▁争伥亐仦	-152
▁仈仇	-153
偏仌	-154
俰仇	-155
傷任	-156
▁亖亚	-157
▁佭	-158
▁亐	-159
▁介争	-160
▁倐	-161
▁信	-162
争亾	-163
▁仢亃	-164
▁仅	-165
▁俑	-166
▁亽侨	-167
▁亵仠	-168
仅伟	-169
▁3	-170
▁予亱	-171
事二	-172
▁仮	-173
▁俉	-174
▁t	-175
▁-	-176
傫仇	-177
▁侎优众予	-178
▁偕	-179
▁仙仚	-180
▁偁	-181
▁仯	-182
▁伒	-183
亃俌	-184
▁仐俗	-185
估予	-186
▁仈亜	-187
▁亽侨傥	-188
▁以偏仌	-189
傻侏	-190
▁亶	-191
▁仁	-192
侕亡	-193
▁亊亩估予	-194
▁伻	-195
侻仅	-196
▁亜二	-197
亣仅	-198
仇二	-199
▁a	-200
▁倇	-201
傻侏佧	-202
in	-203
▁俙	-204
▁令亡亯	-205
傸亭	-206
▁任	-207
▁亖仌	-208
亢仦	-209
▁亖亰	-210
▁侞	-211
但二	-212
▁俜	-213
▁仇	-214
▁侨停	-215
▁亥仼	-216
佲仳	-217
▁仧	-218
信事	-219
▁亓佋	-220
仦交	-221
▁伌	-222
00	-223
▁僓	-224
▁傻侏佧	-225
▁介争亜	-226
俪仇	-227
▁众	-228
仧亳	-229
▁伸佧	-230
▁偁仇	-231
▁亖伳	-232
▁伕	-233
仓亯	-234
he	-235
▁伜	-236
▁仔仲	-237
▁伦	-238
▁201	-239
▁伍	-240
▁仛事	-241
▁亅	-242
住二	-243
亃产	-244
仌仅	-245
▁4	-246
▁亢仦	-247
侍仞	-248
▁今	-249
▁亖俵	-250
亂亮	-251
▁侳	-252
▁们	-253
▁僁	-254
▁凁	-255
▁佌	-256
仅余	-257
亡亢	-258
亚亩	-259
事亞	-260
▁亖佳	-261
▁7	-262
▁仍亡亯	-263
▁但亚亩	-264
▁仪	-265
▁伒仇二	-266
▁亂佛	-267
▁亖亜	-268
▁仍亡亯亼	-269
▁亼亡	-270
▁佃伅	-271
▁倡	-272
仪亚什	-273
▁仐侭	-274
▁僇	-275
▁仔仲二	-276
▁/	-277
▁仈亜争	-278
▁亽事二	-279
▁亍個	-280
亞佼	-281
▁亜亡亢	-282
▁侁	-283
亥亰	-284
仚亾	-285
仄仓	-286
▁.	-287
▁侺仌亊事	-288
▁佗	-289
俶俷亡	-290
▁仸	-291
▁伓仅	-292
▁仔产	-293
▁倫	-294
亭佼	-295
偾伿	-296
仌冂	-297
▁佅仞	-298
俎俣	-299
仳二	-300
on	-301
er	-302
▁僇亾	-303
來俷佳	-304
▁仢俷亡	-305
▁200	-306
▁位傼	-307
▁亃优	-308
▁亍仌冂	-309
▁令伙	-310
争伪	-311
▁傕	-312
予侍	-313
伹亚什	-314
▁仐侭侑	-315
亏仳二	-316
▁俢亍	-317
▁俢了	-318
▁亜亡亢亜	-319
▁伬	-320
▁予亱交	-321
▁伦亱	-322
代亚	-323
▁亽任	-324
▁亩僉	-325
▁侣	-326
佚位	-327
▁亢佉	-328
▁仔亂亮	-329
▁亢亮	-330
▁伥	-331
▁亇予仂	-332
▁亽任亃俌	-333
▁令二亏仳二	-334
▁俈	-335
▁仁亳	-336
▁亃偾伿	-337
亂仅	-338
仂偞	-339
▁亃优佃	-340
▁享亐	-341
俠仇	-342
▁俄	-343
▁令伙介	-344
▁傕傖	-345
▁俺	-346
▁6	-347
亳亯	-348
▁冓	-349
仓亶	-350
▁傸亭	-351
▁傕傖侵	-352
俅仇	-353
▁亢佉僆	-354
▁仔傤	-355
▁倦傠俉仅	-356
▁伱	-357
二亡	-358
▁亚亨	-359
▁亣僂	-360
▁亖伳俎俣	-361
仅亚	-362
▁亽傷任	-363
仅二	-364
▁伕侻仅	-365
仂亚	-366
亃倌	-367
傶傷任	-368
▁仮仯	-369
▁传傶傷任	-370
▁二亏	-371
▁俲	-372
▁値	-373
亓亣仅	-374
偉亡	-375
▁仪倣	-376
▁亣令	-377
▁o	-378
▁佋侹	-379
▁倐亡	-380
▁僁佤亭	-381
偗亳	-382
▁些	-383
▁佋争	-384
▁亖佋	-385
▁似代住二	-386
▁亓伥	-387
▁亓亩	-388
▁哏	-389
▁俤	-390
▁倇亚	-391
俉亡	-392
仌仦	-393
▁傋	-394
任亾	-395
亮亶	-396
at	-397
▁俎	-398
▁僯	-399
佃亶	-400
亏仅	-401
▁亃亚	-402
▁傛	-403
▁亓佗	-404
▁侺仌亊伹亚什	-405
▁仔傤予	-406
▁亾俅	-407
▁保	-408
▁偱	-409
▁伭傞	-410
依亶	-411
▁侨僃	-412
▁仆	-413
▁8	-414
仄仅	-415
▁亃争	-416
▁the	-417
亂争	-418
▁仐令	-419
予争	-420
▁仒信事	-421
▁仐亚	-422
倘仪	-423
▁产仦交	-424
▁僎	-425
▁亃偝	-426
▁仧伫	-427
▁佶	-428
▁倈	-429
an	-430
▁18	-431
is	-432
re	-433
▁仙亜	-434
▁亅僀	-435
▁伃	-436
事亭	-437
▁仢亃于	-438
▁催	-439
▁仢你	-440
亥傒	-441
▁仔仌	-442
▁僻	-443
仠仌	-444
▁伜仂	-445
亮亏	-446
▁s	-447
▁亻从	-448
▁俆亱	-449
位亡	-450
▁仂	-451
亢亡	-452
▁亲俅仇	-453
▁亂仓	-454
▁仐依亶	-455
ar	-456
亡仓	-457
▁亽伱	-458
▁仿佋	-459
▁仕	-460
仪仇	-461
▁俆仓亯	-462
佚佝	-463
:.	-464
▁仹佭	-465
▁侎亮	-466
仭亶	-467
事予	-468
▁亖仄	-469
▁佒仪仇	-470
▁偆	-471
▁仚	-472
▁仦	-473
▁仌争亾	-474
en	-475
▁倲件	-476
▁亵仇	-477
▁令亡亯傫仇	-478
▁仐亚于	-479
亣仓	-480
▁仔令	-481
俷亳	-482
▁仐俖	-483
仍仓	-484
仧争	-485
▁僑	-486
▁亼仂	-487
▁仌俶	-488
▁僅	-489
▁c	-490
亙仠	-491
▁仢你佡	-492
▁亵仞	-493
▁仢俬	-494
▁亵仠仭	-495
▁9	-496
▁伡伈	-497
▁僬	-498
▁偿	-499
▁亂倂	-500
▁亖伻予	-501
偉佳	-502
it	-503
▁佋佗	-504
▁俊	-505
予企	-506
仍亥	-507
▁二伀	-508
▁伸仦	-509
▁亍偶	-510
亣仄	-511
▁亢亡	-512
伤仅	-513
▁俕	-514
佼亥	-515
▁令仦	-516
▁倎侻	-517
▁仙仚伖仇	-518
伟亥	-519
al	-520
▁位偩	-521
▁住	-522
▁僎像	-523
▁伡佇	-524
亾仓	-525
▁俙亳亯	-526
傂仇	-527
▁储	-528
偀傱	-529
▁仛但二	-530
佗争	-531
▁俙亳亯伙	-532
▁傾	-533
..	-534
▁亍亜	-535
▁仔仹	-536
仌侤	-537
▁僑佗	-538
佼仓	-539
傳倠	-540
代仅	-541
佈亶	-542
▁亐亚	-543
▁例	-544
▁僊	-545
▁僄	-546
偩俰仇	-547
亯仅	-548
▁今伟	-549
仌佝	-550
▁凊	-551
or	-552
▁伫	-553
▁仛产	-554
▁二伀仚	-555
▁亍僈	-556
付亜	-557
予侟	-558
▁仏	-559
亢伤	-560
▁亽仠	-561
仚仓	-562
▁仙了	-563
二亏	-564
▁亲仉	-565
▁p	-566
▁似代仂	-567
▁亾俅位	-568
▁佁	-569
▁会予倂	-570
争佲仳	-571
▁亩侹	-572
▁of	-573
伫仅	-574
▁俎佡	-575
▁2011	-576
▁仌倚	-577
▁亂亶	-578
ed	-579
▁w	-580
亚予	-581
es	-582
亐伎	-583
▁亥亚	-584
亣伓	-585
▁佨佲仳	-586
争伪亶	-587
▁偶	-588
▁仐佤	-589
仭亥	-590
亡亶	-591
偘亥	-592
▁亂倂仅伟	-593
來仓	-594
偖债	-595
▁争亢伤	-596
▁令亡亯伖仇	-597
▁b	-598
佋亚	-599
▁亜争	-600
亏亭	-601
▁'	-602
▁但儶	-603
▁佀	-604
ic	-605
亚事亞	-606
▁亏傓	-607
▁亻争亾	-608
▁亚众	-609
▁亃亚仛	-610
▁亃亙	-611
▁佋亏	-612
▁亃例	-613
▁伀	-614
▁亜佋	-615
仂什	-616
▁仔仌偩俰仇	-617
亃俌予	-618
▁亃偝仳	-619
代予	-620
▁亣傐	-621
伕亶	-622
▁僄亝	-623
些佤亭	-624
侻偘	-625
▁亵仠仅	-626
▁僅争	-627
▁亩侹众予	-628
侞傯	-629
▁余	-630
仕亜	-631
▁仪倣傿	-632
▁伇	-633
▁値伮	-634
▁倃	-635
▁亚亨侮	-636
▁亂仓仌仅	-637
俶付	-638
▁仌件	-639
佈亥	-640
仅仄	-641
▁伊代	-642
▁仍亡亯亼亡	-643
借倠	-644
▁15	-645
▁储佤	-646
伭予企	-647
傟佧	-648
▁亜儈	-649
▁仔伢俍	-650
▁亻仦	-651
亢亳	-652
▁亯侙	-653
▁仐俖侍仞	-654
▁in	-655
▁仌二亡	-656
佫仅	-657
▁伡佇仓	-658
▁亖佳二	-659
▁12	-660
▁f	-661
▁会予倂仓	-662
企佼	-663
▁僊倡	-664
俠倠	-665
▁亍伵	-666
▁偕予侍	-667
▁仛俉亡	-668
伭二	-669
▁偕亢	-670
▁僊倡倏	-671
▁伸亣	-672
▁仐亚于伕	-673
▁亽仜	-674
仅仌	-675
▁侎优众	-676
▁亢僋	-677
▁佨例	-678
▁亊亩亪	-679
▁亖俵亂	-680
▁传佤	-681
傦傧	-682
▁亮	-683
▁仈傔	-684
▁倨	-685
▁仍倩	-686
▁侳伻	-687
▁亜伹	-688
▁亰	-689
事亜	-690
▁亂佛予侟	-691
▁伹	-692
▁仔傦傧	-693
▁倡佂	-694
▁亍伵佋	-695
nd	-696
▁亚伣	-697
▁产亡亯	-698
▁亍侞傯	-699
▁仹佭僌	-700
▁保亐伎	-701
▁亏傓亂仅	-702
俢付亜	-703
▁储佤佶	-704
傺亠	-705
▁仑	-706
▁伸争	-707
▁傗	-708
▁亓伥亂争	-709
▁亚众傆	-710
▁亾伫仅	-711
▁仛俶俷亡	-712
▁侎优众俢付亜	-713
▁什亥	-714
傹企	-715
▁亥亰	-716
仼仅	-717
▁介佤	-718
▁亜儈亜	-719
▁m	-720
▁僎像仅伟	-721
▁亍争佲仳	-722
▁吁	-723
▁佋亡亯	-724
▁俆亏仅	-725
▁倎侻傺亠	-726
▁伓仅仅	-727
▁佒体	-728
▁似傹企	-729
▁亢僋亃俌予	-730
▁亖产	-731
▁亽傝	-732
▁亽俉	-733
▁亓佗事予	-734
▁仞付	-735
▁亩僉傳倠	-736
▁倎令	-737
▁佺	-738
▁--	-739
▁仔傦傧事	-740
▁傛亚事亞	-741
▁俉仅	-742
▁亓債	-743
▁傗些佤亭	-744
佳仅	-745
▁俜亳	-746
▁位于	-747
▁令伙介余	-748
享仚	-749
▁令二二	-750
▁佋亏亢仦	-751
伱伭予企	-752
▁伸仦例	-753
侀仅亰	-754
▁仢侸	-755
傴侐	-756
▁传借倠	-757
▁亍仧争	-758
▁亽侻仅	-759
伎亜	-760
▁伸亣伱伭予企	-761
▁亽仠亢仦	-762
來付	-763
▁佭亭	-764
▁偿俠倠	-765
▁僐	-766
▁値伮偘亥	-767
▁亓争侚亣仅	-768
▁候	-769
仌亓亣仅	-770
▁佋二	-771
▁仈傔余	-772
▁俆仭亶	-773
▁传佤亂	-774
▁俲佪	-775
▁佋亡亯傰	-776
▁伸仦例侹	-777
▁亩仯	-778
▁亲仠	-779
▁佋争伤仅	-780
亡仄	-781
▁亖亥	-782
仦予	-783
▁传倢	-784
佄仇	-785
▁亢倿	-786
傡伿	-787
▁侮	-788
▁仙亏亭	-789
▁以从	-790
佚二	-791
▁住亭	-792
▁伦亱傸亭	-793
▁亩僉亠	-794
代亣伓	-795
ion	-796
▁亖佳倨	-797
▁傾倣	-798
▁仛但	-799
侍倠	-800
▁仢侸代予	-801
伦傡伿	-802
▁佗仓	-803
倏以	-804
▁亷俬	-805
伓佧	-806
▁侞倷	-807
▁亃亙伻	-808
▁俄伨	-809
▁代佢	-810
▁倎傳	-811
▁伸休	-812
佶二	-813
▁传佤亂佗争	-814
▁予仅	-815
傣亯仅	-816
▁僑佗仌亓亣仅	-817
▁偕予侍仛	-818
▁仌俶仄仓	-819
▁亖亜亚	-820
▁偙亮	-821
▁亻仦事亞	-822
仦交二	-823
▁佃予争	-824
▁亃争亃产	-825
傩傪	-826
▁侺侀仅亰	-827
▁亓伊仕亜	-828
▁侚	-829
▁倎傳仂偞	-830
▁亖亚事亜	-831
來俷亡	-832
仿倭	-833
▁仇傣亯仅	-834
▁亾亩	-835
▁位于傴侐	-836
▁佋亡亯傰傱	-837
倏以倪	-838
傩傪偿	-839
▁亖二	-840
▁伋佫仅	-841
▁伭傩傪偿	-842
▁佒倏以倪	-843
▁亖亥亃产	-844
▁亚冾	-845
▁亷俬亰	-846
▁伸休伦傡伿	-847
倐侻	-848
▁俊了	-849
▁伸争催	-850
伎亥	-851
▁伦亱仿倭	-852
偂仂偞	-853
▁亃偝仳保二	-854
▁伸争催侕亡	-855
▁仍亡亯亼仂亚	-856
伉働	-857
亵亥	-858
▁亽仲	-859
▁仛产仹	-860
▁予亚	-861
估傟佧	-862
▁仐俐	-863
▁什亥伊	-864
▁亊仲	-865
▁伡伈保二	-866
▁凍	-867
▁亖伉働	-868
▁侨停亾	-869
▁倎令亼	-870
▁侳伻估傟佧	-871
▁倈仚	-872
▁事	-873
▁伓仅位伭	-874
▁亻俬	-875
le	-876
仦伶	-877
亜保二	-878
▁亖佋仅仄	-879
0.	-880
▁亍代	-881
▁亲偉佳	-882
▁仌仅二	-883
伙仓	-884
▁亖佋仅仄傫仇	-885
▁俑仯	-886
▁似傆	-887
▁伸傘俉仅仓	-888
▁伝	-889
▁亾傜	-890
亳伖仇	-891
▁亂亼	-892
▁俆仭亶仳	-893
▁亽倭	-894
▁冐	-895
▁A	-896
▁伃代亣伓	-897
▁亃仓	-898
仗亾	-899
亢偿	-900
▁亖伱	-901
▁199	-902
▁11	-903
侕佳	-904
亾亳	-905
▁仌仦	-906
▁亍偰	-907
仯佳	-908
▁仌二亡仅	-909
▁伸募	-910
▁亾傜佳仅	-911
▁信任	-912
▁位傼仓	-913
▁佒冸	-914
▁亖侹	-915
▁仢亃于佄	-916
▁僩	-917
▁但儶仇	-918
▁亖仌亓亣仅	-919
亥什	-920
亡亳	-921
亢亮	-922
▁偖债	-923
亓二	-924
仯亡	-925
▁亖伫	-926
▁侨停亢偿	-927
▁予优	-928
亣事	-929
▁偱仪	-930
▁仛产仹仼仅	-931
▁令仦交二	-932
▁亓佋伟亥	-933
▁匣	-934
伫亚什	-935
▁什亥伊侻偘	-936
▁14	-937
亻亚	-938
▁侫	-939
▁亖仄來俷佳	-940
▁16	-941
▁倎令亼侍倠	-942
▁偙亮亥傒	-943
偂仂	-944
佚仪亚什	-945
▁亩伶	-946
as	-947
▁仈件	-948
侐佼	-949
亣停	-950
俉亳	-951
▁亖仇	-952
▁伸伶	-953
▁亃亐	-954
▁S	-955
▁17	-956
ou	-957
▁亂佛亴	-958
▁傂	-959
伤仓	-960
佚位俠仇	-961
▁傒	-962
偖凈	-963
亼仂	-964
▁仐令事	-965
▁俿	-966
予争仳	-967
伸亳	-968
▁亓仦	-969
▁亢仂	-970
▁仔俶	-971
ing	-972
亜二	-973
▁仮仯仅	-974
▁d	-975
伭亶	-976
▁享亚	-977
▁亂亚	-978
▁侺仌亊伟	-979
▁亯侍仞	-980
仼亮	-981
亜仓	-982
▁代俇	-983
▁亊俥	-984
伙亳	-985
▁亖从	-986
侻二	-987
亂仓	-988
▁仈亙仠	-989
仅予	-990
▁仙偉亡	-991
▁俺仐	-992
做仇	-993
▁亓仍	-994
▁仐仲	-995
俉仑	-996
▁亖付	-997
争仍	-998
▁凓	-999
伹仓	-1000
▁以从予	-1001
▁俀	-1002
仚亥	-1003
佳二	-1004
伎亶	-1005
▁亩伶侳	-1006
产予	-1007
來仅	-1008
▁俆仓	-1009
▁仿亩仅	-1010
代二	-1011
▁13	-1012
▁仯亡	-1013
▁仐仌	-1014
兝仇	-1015
▁俓	-1016
▁佈	-1017
▁仔仹佚	-1018
▁們	-1019
▁(	-1020
▁仌倚二	-1021
▁亣佋	-1022
位俠仇	-1023
▁似代住二仐	-1024
▁仔仍	-1025
▁佒冸佧	-1026
伕亥	-1027
▁享亡	-1028
▁仔侏	-1029
咠产	-1030
▁亩二	-1031
▁伻亡亶	-1032
▁仛偕	-1033
▁:	-1034
▁信任亾	-1035
▁予亰	-1036
仰什	-1037
亐亡	-1038
▁儂	-1039
▁仔代	-1040
偉亚什	-1041
亢仠	-1042
仐佶	-1043
争亚	-1044
侻亾	-1045
▁仔予	-1046
仓仌	-1047
亃儴	-1048
▁亣停	-1049
▁亖仌亓	-1050
▁偀	-1051
亣从	-1052
▁价	-1053
▁亂仅	-1054
▁T	-1055
▁仈件亡	-1056
仌二	-1057
▁仠	-1058
▁傋亜	-1059
▁侔	-1060
▁仛任	-1061
▁仔介	-1062
▁侎亮他	-1063
▁仐亳	-1064
产亚	-1065
▁位偩亮亏	-1066
予传	-1067
▁仙代	-1068
伭伹	-1069
▁to	-1070
▁亖亜亰	-1071
▁亹	-1072
亠佼	-1073
交仦	-1074
仦亂	-1075
▁and	-1076
▁偖仌	-1077
俫佳	-1078
▁僜	-1079
▁亂仭亥	-1080
om	-1081
000	-1082
仅佸	-1083
1.	-1084
争保二	-1085
争亃	-1086
▁仞俹	-1087
侻亞	-1088
▁仅佲	-1089
▁佚仦伶	-1090
▁例俣	-1091
仔亐	-1092
▁冿	-1093
▁I	-1094
事亚	-1095
▁亻二	-1096
▁50	-1097
佢亜	-1098
▁亜偏仌	-1099
▁伋仦	-1100
▁亱	-1101
▁仗	-1102
▁仐亢	-1103
▁仙仚伓佧	-1104
▁仐仐佶	-1105
▁亚亢	-1106
仅事	-1107
傽仚亾	-1108
▁亡	-1109
▁产亡亯來俷佳	-1110
仍二	-1111
▁們傌	-1112
▁亊偩	-1113
▁佋伥	-1114
伙从	-1115
▁伎	-1116
▁仼亣	-1117
▁C	-1118
▁亵仞亼仂	-1119
▁仄	-1120
▁亽俦	-1121
▁偞	-1122
▁h	-1123
▁俭	-1124
▁伷	-1125
▁仌伧	-1126
▁仌争	-1127
▁仼亡	-1128
▁仛傂仇	-1129
▁代佢仳	-1130
▁198	-1131
亾仅	-1132
▁倇亚亚	-1133
▁争佢亜	-1134
亓伌	-1135
亊仦	-1136
亥伻	-1137
▁产亡	-1138
侻予	-1139
▁俸	-1140
▁亜伹亡	-1141
▁亵仠伫亚什	-1142
▁亣令偞	-1143
仍亰	-1144
▁俑俒	-1145
▁倎仚亥	-1146
▁佋偩	-1147
▁亖仐	-1148
▁n	-1149
▁仌仚仓	-1150
▁儤	-1151
▁侺俒	-1152
3.	-1153
▁凊予	-1154
▁冓仅	-1155
2.	-1156
am	-1157
▁亏仅	-1158
▁亇予亡	-1159
▁仢俬争	-1160
伸亡	-1161
▁仞俁	-1162
▁亥傒	-1163
▁介争亜偖债	-1164
▁仈仐	-1165
▁亍偶俥	-1166
▁仍儵	-1167
仧佳	-1168
仍仅	-1169
俲佪	-1170
us	-1171
亂债	-1172
▁亻二亊	-1173
▁亍冲	-1174
傿俷佳	-1175
▁亢傽仚亾	-1176
亡亾	-1177
仐俗	-1178
▁傾倣傿俷佳	-1179
二企	-1180
▁197	-1181
▁亩偑	-1182
▁亃仦冯	-1183
▁亃代	-1184
▁仙仚伓佧亥	-1185
▁以侐	-1186
于令	-1187
▁亓匉	-1188
▁仙俔	-1189
il	-1190
▁仔令仓	-1191
▁予亱交二	-1192
▁仌仚仓來俷亡	-1193
▁令仅仌	-1194
▁仔仍仑	-1195
▁伙仓亯	-1196
▁令仅仌二亡	-1197
▁俛	-1198
▁偷	-1199
▁亖偖	-1200
▁亴	-1201
▁仛亃	-1202
▁僬咄	-1203
代亡	-1204
▁僧	-1205
伹从	-1206
▁僓众	-1207
▁亂争伪亶	-1208
▁令仅仌二亡仰什	-1209
▁來	-1210
▁亖伱仦亂	-1211
▁伍佳	-1212
▁亽俦予	-1213
亜争	-1214
▁亷偂	-1215
侻仓	-1216
▁催亡	-1217
▁俉仑	-1218
5.	-1219
▁亜倌	-1220
交二	-1221
▁亖伻仇	-1222
▁亵俌	-1223
▁仁仠仌	-1224
▁佷	-1225
▁以仚	-1226
▁传休	-1227
▁仛任亾	-1228
仦伹	-1229
亵仇	-1230
▁亖伎亜	-1231
伿佼	-1232
4.	-1233
仍亶	-1234
俲佪咠产	-1235
▁亢亳	-1236
▁刻	-1237
▁位事	-1238
▁亽仇	-1239
低二	-1240
▁似亙	-1241
▁M	-1242
任仓	-1243
亱予	-1244
▁亍仌冂亮	-1245
▁予仐	-1246
▁仔事	-1247
佋产	-1248
▁195	-1249
▁佋侨	-1250
▁仔亩	-1251
▁196	-1252
▁仍儵亡	-1253
▁令仦佄仇	-1254
▁偖俑	-1255
▁仢俋	-1256
▁伸侉	-1257
ent	-1258
▁俕亱	-1259
▁仛亊	-1260
亡亥	-1261
▁25	-1262
6.	-1263
俐争	-1264
偈佋	-1265
▁偩	-1266
▁亚傯	-1267
▁仔但	-1268
▁亃仦俵	-1269
7.	-1270
▁亃亨	-1271
▁亃偧	-1272
,000	-1273
▁仐俉仑	-1274
俉仓	-1275
▁仼亡冎	-1276
▁伍作	-1277
▁偕仌	-1278
▁亷刋	-1279
▁仔仒	-1280
▁仐俐仐俗	-1281
▁仼俖	-1282
付仇	-1283
▁以偏仌亶	-1284
▁佭伧	-1285
▁俉亓二	-1286
俌予	-1287
▁194	-1288
兩亜	-1289
▁予亱但	-1290
▁仙伅	-1291
▁催亡伓	-1292
▁仮佈	-1293
▁亃匯	-1294
▁仿佋仍	-1295
▁仈伫	-1296
亣亚什	-1297
▁仐介	-1298
伭什	-1299
侕亳	-1300
▁令冤	-1301
▁传倏	-1302
▁伸傘俉仅佼仓	-1303
▁代儯	-1304
▁佈僠	-1305
▁伙事	-1306
▁亖兩亜	-1307
▁儍	-1308
▁佻	-1309
▁仔俶佈	-1310
▁位冟	-1311
倘仇	-1312
亜仅	-1313
亃仦	-1314
亜亰	-1315
8.	-1316
▁佌偣	-1317
▁仔伹	-1318
▁僽	-1319
▁亊仲争伪亶	-1320
仌争	-1321
▁伋仂	-1322
亾亚	-1323
▁30	-1324
侞亞	-1325
伭亚	-1326
▁劼	-1327
佅伭	-1328
亰仓	-1329
产佀	-1330
▁亖伫係	-1331
▁亖俵予	-1332
▁仌儗	-1333
▁伡傢亥	-1334
ad	-1335
▁伋亡	-1336
▁任亩	-1337
9.	-1338
-1	-1339
▁亍仌冂亣仅	-1340
▁倄	-1341
亣事仳	-1342
▁亓佋倽	-1343
▁二傳	-1344
▁仢亐	-1345
▁亚事	-1346
▁l	-1347
▁吁亚	-1348
伂二	-1349
▁佚佛	-1350
仹亥	-1351
▁介争信事	-1352
二亚	-1353
▁侁伸	-1354
ro	-1355
位亳	-1356
▁償	-1357
▁偼	-1358
▁仌兝仇	-1359
▁儨	-1360
产亥	-1361
▁亍偰亜	-1362
▁仛伹	-1363
▁亝	-1364
▁亵仠仭亥亚	-1365
▁倗	-1366
▁偖俉仅	-1367
▁0	-1368
▁仏众	-1369
仗俢	-1370
▁位仅	-1371
▁57	-1372
▁争佚	-1373
):	-1374
▁伓仄仅	-1375
交亱	-1376
亐仼	-1377
▁侺产佀	-1378
20	-1379
偔亡	-1380
▁仚亂	-1381
▁俑仯佴	-1382
仦什	-1383
亮伕亶	-1384
▁仮佈亥	-1385
el	-1386
▁亖亙仠	-1387
伸佧	-1388
▁仛事佝	-1389
▁亽仅伟	-1390
▁位偩亮伕亶	-1391
伜仂	-1392
亃倌亥	-1393
仠亚	-1394
▁仅伳	-1395
▁亣令偞事	-1396
▁剥	-1397
▁亢仦什	-1398
▁予众	-1399
伭于	-1400
▁亂倘仪	-1401
▁B	-1402
▁佷事	-1403
▁仔予傳	-1404
▁仐俉仑亃儴	-1405
▁亖俴	-1406
▁亍代僤	-1407
亶伻	-1408
▁侎亮伌	-1409
▁仞仌仦	-1410
▁侦	-1411
二仇	-1412
俊仂	-1413
▁亃仦伷	-1414
亚伹	-1415
ac	-1416
▁仼争	-1417
位亞	-1418
▁e	-1419
亶亡	-1420
▁亃偿	-1421
▁代俑	-1422
▁倐值	-1423
▁侰	-1424
▁僙	-1425
▁g	-1426
傭亡	-1427
▁亖争	-1428
▁亐亐仼	-1429
▁仔亊	-1430
▁伭伉	-1431
▁亚亱	-1432
了佼	-1433
▁仐傠	-1434
仧仅亚	-1435
亽亞	-1436
▁佶儊	-1437
▁催亡伓仄仅	-1438
▁P	-1439
▁仪倣亡	-1440
佚位伭二	-1441
▁亖僥	-1442
▁亖侹刣	-1443
▁予傭	-1444
▁僬咄侐	-1445
▁倎亂	-1446
傋仠	-1447
▁仅他	-1448
▁争佚二	-1449
仇予	-1450
仼亮亥	-1451
▁何	-1452
▁二伜	-1453
▁倏	-1454
ur	-1455
▁亖偂仂	-1456
仧亮	-1457
亜仍	-1458
亳亰	-1459
▁倃伈	-1460
▁予俷	-1461
▁俉冨	-1462
▁亂仚	-1463
▁仙亜咁	-1464
▁仞伶	-1465
st	-1466
▁亂仭	-1467
▁倐亡余	-1468
▁争佚佳	-1469
▁亂佛亴亩	-1470
▁偖亢	-1471
仼亳	-1472
▁侮偙	-1473
俇二	-1474
▁仈傏	-1475
▁侚亱	-1476
仏众	-1477
▁亣傇	-1478
俔仇	-1479
▁伉	-1480
侂予	-1481
▁仔仹倃	-1482
仚仄	-1483
▁俏	-1484
▁介佯	-1485
▁仸仆	-1486
亶仓	-1487
▁传傫仇	-1488
▁亍偶俥仞二	-1489
儜予	-1490
▁伓亶	-1491
▁匣伙	-1492
▁佋偩井	-1493
争亶	-1494
▁倇亚什	-1495
▁刅	-1496
▁仐亳代仅	-1497
▁th	-1498
▁佋低	-1499
▁倘	-1500
▁亖二亶	-1501
令二	-1502
伥争仳	-1503
▁任亩亡	-1504
et	-1505
▁傮	-1506
仓仼	-1507
▁侏亡	-1508
▁介伕亶	-1509
以侐	-1510
▁亃匯佋	-1511
二亃	-1512
ri	-1513
佧伜仂	-1514
▁仔仗	-1515
亠佼亥	-1516
▁仐俗俘	-1517
▁193	-1518
仚仅	-1519
▁冢	-1520
仌争亾	-1521
▁24	-1522
▁偒	-1523
亙仅	-1524
令亭	-1525
▁先	-1526
▁佋争入	-1527
▁亍仔亐	-1528
▁仕农	-1529
▁U	-1530
▁仄付	-1531
▁亊单	-1532
▁二仇	-1533
▁伙亏	-1534
▁亃倂	-1535
倚二	-1536
▁亽予	-1537
▁佃倲	-1538
▁亂予	-1539
侍仧亡	-1540
▁伌剢	-1541
偖俑	-1542
▁仢亃于交	-1543
▁亓仍伈	-1544
▁亣事	-1545
ation	-1546
仌产	-1547
▁亷亡仄	-1548
▁介亏	-1549
▁伃代亣伓仚	-1550
▁众交亱	-1551
ol	-1552
▁俆亱伸亡	-1553
▁仯亯	-1554
▁亜众	-1555
▁以冰	-1556
伸叟	-1557
仵佗	-1558
▁佃倲亼	-1559
▁互事二	-1560
代仦	-1561
▁僁佤	-1562
争予	-1563
▁仌事	-1564
▁予亚作	-1565
▁21	-1566
▁仍倩保二	-1567
▁仢傠	-1568
侏俬	-1569
▁佨仌	-1570
▁亩俹	-1571
▁仐亩	-1572
▁侻	-1573
争仌	-1574
▁仔偖凈	-1575
▁债	-1576
仄亳	-1577
侔事	-1578
▁仢亐伥争仳	-1579
仿亵亥	-1580
亱事	-1581
▁仐令事亢仠	-1582
伪亥	-1583
▁仌仅	-1584
ot	-1585
▁58	-1586
▁亇些	-1587
▁亩傌	-1588
▁仕僾	-1589
▁俆亱事	-1590
▁伬仚	-1591
侍仞二	-1592
▁傋仠	-1593
▁仛俉亳	-1594
▁冐仂	-1595
伟亶	-1596
▁亇亙	-1597
传伹	-1598
▁2001	-1599
仯亳	-1600
▁倬	-1601
▁估侒亥	-1602
區亡	-1603
勮仚亾	-1604
▁53	-1605
代争	-1606
▁争俪	-1607
予仅	-1608
侍仇	-1609
▁俑偿	-1610
▁亖亸	-1611
亙伭	-1612
▁亅仓	-1613
▁伸什	-1614
仦亜	-1615
仠仄	-1616
▁仓	-1617
▁信刾	-1618
亳們	-1619
僔付	-1620
▁侶	-1621
▁伸仅	-1622
予仌	-1623
亃兤	-1624
亚亶	-1625
亣佋	-1626
▁兟	-1627
伦了	-1628
▁倲亡亯	-1629
▁傸	-1630
偅仇	-1631
▁俉亓二亓伌	-1632
▁亖僥位亡	-1633
产什	-1634
亡仅	-1635
▁刔	-1636
二仍	-1637
▁伈	-1638
争亏	-1639
▁伭伉位亡	-1640
仯从	-1641
▁伙侻	-1642
▁予亚佭	-1643
▁H	-1644
▁亖亓	-1645
ay	-1646
▁仲	-1647
▁,	-1648
▁儖	-1649
佌亳	-1650
▁勺	-1651
▁亃仦冯佶二	-1652
▁仍亡亯亼仂	-1653
▁仌侮	-1654
▁二伜位亡	-1655
▁佋儜予	-1656
仌仭	-1657
予仓	-1658
俶俷佳	-1659
亂仭	-1660
▁1,	-1661
▁=	-1662
▁二争	-1663
▁仅伳俰仇	-1664
仅伹	-1665
仌仪亚什	-1666
兡仇	-1667
▁介仐	-1668
▁俉佈	-1669
▁介佛	-1670
▁亃俌予	-1671
仦亶	-1672
▁22	-1673
▁is	-1674
▁仙亜咁信事	-1675
▁俜仅	-1676
▁休	-1677
▁党	-1678
▁仛亡	-1679
▁亣亩	-1680
伥仳	-1681
▁俕仅	-1682
▁亢仂亚	-1683
亐仌仦	-1684
▁偉	-1685
▁享予	-1686
▁传亣	-1687
▁侫偂	-1688
伸仅	-1689
▁23	-1690
▁亜偂	-1691
▁倲侬	-1692
▁亜仅	-1693
▁伸亡	-1694
侍亜	-1695
佤二企	-1696
亾付	-1697
▁亚仌	-1698
但伹	-1699
▁亖冦	-1700
4,	-1701
伙仅	-1702
兙亡	-1703
▁亊仲争仳	-1704
▁亖俴俵	-1705
▁亃仦偈佋	-1706
▁偱偔亡	-1707
▁佋亜	-1708
▁伂	-1709
▁仭	-1710
▁佋侍亜	-1711
10	-1712
▁侢	-1713
▁仯亰	-1714
▁伟	-1715
亵俌	-1716
5,	-1717
伥儮	-1718
俢亢	-1719
▁亓亩侏	-1720
▁刌	-1721
▁亍代僤亶	-1722
佝余	-1723
im	-1724
▁59	-1725
▁亖亳亯	-1726
亃争	-1727
▁亮亶	-1728
▁仔于	-1729
▁be	-1730
7,	-1731
仌佝余	-1732
▁亢佌	-1733
▁仐佋	-1734
▁倿	-1735
ul	-1736
▁仔代俇二	-1737
佚仌侤	-1738
▁于	-1739
▁仸仆俔	-1740
▁or	-1741
▁0.	-1742
仯仓	-1743
▁仌亮亏	-1744
伫仓	-1745
▁亣令仲	-1746
▁侨凼	-1747
▁伙仂什	-1748
▁亢仠	-1749
亡仼	-1750
▁亮亯	-1751
▁伙仂	-1752
▁享倘仪	-1753
▁伨	-1754
儆亡	-1755
▁佚仇	-1756
▁冿净	-1757
▁倝	-1758
▁亍伸	-1759
事仍	-1760
▁亚于令	-1761
▁些仌仭	-1762
▁re	-1763
▁N	-1764
▁伸亡代仅	-1765
亣仅亰	-1766
▁仢俷	-1767
圫兆	-1768
ut	-1769
▁俈俪	-1770
▁二亏亮	-1771
仇亶	-1772
▁仐伌	-1773
▁俪	-1774
▁26	-1775
id	-1776
▁亽佫	-1777
伓僺	-1778
▁亲仉仇	-1779
▁争亊	-1780
亠佼亥什	-1781
▁傾倣亡	-1782
偉亳	-1783
▁亢仯	-1784
▁介伕	-1785
佃伅	-1786
▁仢代	-1787
▁倨倇	-1788
▁仹佭俶俷亡	-1789
倪佼	-1790
▁傮亠佼亥什	-1791
▁仍卫	-1792
▁D	-1793
50	-1794
▁亖仌亂债	-1795
仌亮	-1796
亼亡	-1797
▁亢伥	-1798
▁仢伸	-1799
▁倦仼	-1800
▁伸仅二	-1801
▁令二仌仦	-1802
▁借	-1803
▁仢付亜	-1804
ag	-1805
亓仍	-1806
▁亽亏	-1807
od	-1808
▁!	-1809
▁亓仦伥儮	-1810
▁亷儿	-1811
▁众交亱二	-1812
▁亚伟	-1813
▁亐仦	-1814
▁佌仌	-1815
24	-1816
▁W	-1817
亓争	-1818
価亶	-1819
ct	-1820
▁亽仐	-1821
▁仔令仅	-1822
▁亽仲亮亶	-1823
亱伹	-1824
▁予亰予	-1825
仠亶	-1826
▁亖佋仓	-1827
▁凊侻	-1828
ist	-1829
▁儡	-1830
▁亥倐	-1831
▁俤亐仌仦	-1832
▁亩兂	-1833
▁仐俐仐俗仅伟	-1834
▁R	-1835
▁亽亞	-1836
▁侧克	-1837
▁伓侹	-1838
▁亍价	-1839
佚伙	-1840
▁仔佡	-1841
▁亽亡	-1842
▁仏佈	-1843
3,	-1844
▁亢争	-1845
▁仼亡冎仅	-1846
▁28	-1847
仔偖凈	-1848
俉亚什	-1849
▁互伱	-1850
▁仆仇二	-1851
▁仍咯	-1852
予俍	-1853
▁傰	-1854
冂亢	-1855
倠佼	-1856
▁涊	-1857
争企	-1858
偖仐	-1859
儆佳	-1860
偖俉仅	-1861
▁仙仇	-1862
▁兕	-1863
似代	-1864
▁偀傱	-1865
▁佚仚仄	-1866
來亳	-1867
亂仭亥	-1868
▁仈偗亳	-1869
▁亖亢	-1870
▁亯侙仼	-1871
▁兾	-1872
事仓	-1873
仌争仳	-1874
▁仍卫亶	-1875
▁亃偿佲	-1876
▁仸伸	-1877
▁仼争劇	-1878
▁亓俴	-1879
▁for	-1880
▁仵	-1881
▁二亏亮亥	-1882
▁俉仅亥	-1883
▁亖亰亓	-1884
▁The	-1885
亜亶	-1886
仕僾	-1887
▁仚亂伪	-1888
▁亜众井	-1889
儆亳	-1890
▁40	-1891
▁仌傭	-1892
▁伻亰	-1893
▁侁亊	-1894
▁伍伎亥	-1895
來仅亾	-1896
▁亊佋	-1897
▁以儰	-1898
▁個	-1899
▁亖偂	-1900
▁亖仅	-1901
▁亂仓仌	-1902
亏产	-1903
▁伍亚予	-1904
▁亚于令予仌	-1905
▁亻侌	-1906
▁27	-1907
▁仔侔事	-1908
▁亃仠	-1909
▁亃侬	-1910
▁亚仒	-1911
佫仓	-1912
▁俭修	-1913
▁k	-1914
▁二佲	-1915
▁1.	-1916
▁v	-1917
仍二亾	-1918
▁亢仦亚	-1919
6,	-1920
▁仒们	-1921
▁伸侻	-1922
佋仅	-1923
▁仔侏俑	-1924
iv	-1925
▁倫余	-1926
▁儨偍	-1927
▁亇凹	-1928
予亥	-1929
▁併	-1930
▁僫	-1931
▁伃代亣伓僺	-1932
▁亽佫亚予	-1933
▁傛住	-1934
▁偆勴	-1935
▁亓亨	-1936
ia	-1937
▁亖佲	-1938
亩亚什	-1939
21	-1940
什冂	-1941
ra	-1942
亐仓	-1943
▁亖俵佃亶	-1944
倲件	-1945
俶俷	-1946
亅二	-1947
▁兼	-1948
▁互伙亳	-1949
仦事	-1950
▁僓介	-1951
俫亡	-1952
佚位亳伖仇	-1953
▁佋伥冄	-1954
▁俌	-1955
▁俺仌	-1956
▁似偝	-1957
▁俕仅佄	-1958
▁冐仂僟	-1959
▁仐伭	-1960
仛亢亡	-1961
▁亲伭	-1962
▁些任	-1963
伜亜保二	-1964
亱事亭	-1965
侻偿	-1966
▁仛事亚	-1967
▁亐亚亚	-1968
▁代儯争	-1969
仦二	-1970
▁会予倂仓俷佳	-1971
仼仓	-1972
▁仒们仯	-1973
▁亽侻	-1974
▁G	-1975
ch	-1976
▁交	-1977
▁冓區亡	-1978
▁偰	-1979
亡亓	-1980
▁亷候	-1981
▁仐令伟	-1982
▁冺	-1983
▁仛侕亡	-1984
亢伥	-1985
侨内	-1986
▁仐儲	-1987
▁儫	-1988
伙亚什	-1989
▁佋低侨内	-1990
▁仙倨	-1991
▁仔产伸	-1992
享亚	-1993
▁仔但俣	-1994
仠仯佳	-1995
▁亖俵亂亡仓	-1996
em	-1997
▁冠	-1998
▁以仌	-1999
▁仯亯亼亡	-2000
▁亵亏	-2001
事亃	-2002
▁以亭	-2003
ow	-2004
▁亽仅	-2005
亣仅亥	-2006
來仅亰	-2007
仌亞	-2008
佋仄	-2009
予亞	-2010
▁偁代	-2011
▁勼	-2012
▁亩二仌	-2013
▁偖债亥	-2014
亜亾	-2015
侞傚	-2016
▁僜來	-2017
▁仈偖	-2018
▁|	-2019
▁倎伭伹	-2020
▁侞倷亶	-2021
▁介偿	-2022
▁亲仪	-2023
仠仌侤	-2024
▁冕	-2025
▁传來俷佳	-2026
▁亃佛	-2027
凷亡	-2028
▁二亳	-2029
佌仓	-2030
▁但冁	-2031
亶从	-2032
▁傞	-2033
二亾	-2034
▁侧亰	-2035
▁伌仌	-2036
俜倷	-2037
▁仌仅亓	-2038
22	-2039
▁偭	-2040
▁仕倮	-2041
▁亚亢亓	-2042
▁亽侂	-2043
▁俢偎	-2044
凭亡	-2045
亵亶	-2046
二亏亞	-2047
佋仳	-2048
▁亚亨伥仳	-2049
▁伇些	-2050
▁代俇予俍	-2051
仌仅但二	-2052
二亏亞佼	-2053
▁仼亣亜二	-2054
▁凁亂	-2055
亯仓	-2056
▁亚傯做	-2057
▁仦亂	-2058
▁亃仦刭	-2059
倦二	-2060
▁伸休伦傡伿佼仓	-2061
▁俊仂	-2062
▁仔伢儼	-2063
▁E	-2064
ig	-2065
▁L	-2066
▁侺仌伥	-2067
▁亩剜	-2068
▁仛事仪亚什	-2069
位俫佳	-2070
佋亭	-2071
▁亖仫	-2072
▁函	-2073
▁仉	-2074
仌仅二	-2075
▁凊予侻	-2076
亰亳	-2077
▁亚亨侮仧亡	-2078
um	-2079
▁侞亨	-2080
▁似偝似代	-2081
传做仇	-2082
▁俢侻	-2083
侞伭	-2084
▁佚亴	-2085
▁偄	-2086
▁僢	-2087
▁佌偧	-2088
伌佯	-2089
▁亂争伪	-2090
▁仛亜	-2091
▁以伫	-2092
▁仙偰	-2093
▁亂享	-2094
▁侎倬	-2095
▁2009	-2096
▁as	-2097
▁但儶倇	-2098
▁亽亥	-2099
▁倎仂	-2100
▁29	-2101
▁俼	-2102
▁亖伳侎	-2103
▁亖仄傫仇	-2104
侕亭	-2105
代匰	-2106
倘偉亡	-2107
▁亓伌	-2108
仵亦	-2109
▁佌佻	-2110
事二亏	-2111
仍仅亰	-2112
▁亜厹	-2113
▁佁佋	-2114
30	-2115
▁刔净	-2116
11	-2117
▁介争亜偖债亥	-2118
亃予	-2119
▁伥亰	-2120
ce	-2121
▁仹伭	-2122
▁二佧	-2123
佳企	-2124
佚儢	-2125
▁仹亳	-2126
亩二	-2127
伤亚什	-2128
▁仐仧	-2129
▁亖云	-2130
▁伵	-2131
伙仅亰	-2132
▁俈仞	-2133
ly	-2134
ter	-2135
ir	-2136
▁仌俀	-2137
▁傒冓	-2138
▁傶	-2139
▁伥偏	-2140
▁二亏争	-2141
▁冐倏	-2142
亣亡	-2143
侨伸	-2144
▁佸亶	-2145
▁仇亯	-2146
▁剥剦	-2147
▁伋仂亥	-2148
▁啓	-2149
▁二伭	-2150
▁仙仚亾	-2151
▁佭仓	-2152
▁仔侏前	-2153
仧亱	-2154
▁仙仚亥	-2155
19	-2156
冪亡	-2157
亏亱	-2158
▁伙亣事仳	-2159
▁亩亡	-2160
▁予亱佭	-2161
代亞	-2162
位仉	-2163
▁亚伣仳	-2164
▁仼二	-2165
▁亊偩俴	-2166
保二仇	-2167
▁亚伣伪	-2168
▁仐佤伟	-2169
伸仓	-2170
▁仢亃于交侕亡	-2171
▁令仅	-2172
亃代	-2173
▁2.	-2174
▁亖亢僰	-2175
▁亂争	-2176
▁令儊	-2177
僝佼	-2178
▁仙佚伙	-2179
侍俪仇	-2180
2,	-2181
▁似代仓	-2182
▁仐令事二亏	-2183
▁亖产倲件	-2184
佚位俫佳	-2185
▁俀亙仅	-2186
亂亡仓	-2187
ith	-2188
▁亃仇	-2189
倒仇	-2190
▁佋佇	-2191
倣亞	-2192
▁予凄	-2193
仴仵	-2194
▁今佈	-2195
▁伋仂亚	-2196
侻企	-2197
仠亥	-2198
▁俆仓任	-2199
▁亖偗亳	-2200
▁an	-2201
▁佌佻伦了	-2202
23	-2203
▁僁佤亰	-2204
▁仔介伜	-2205
佃亥	-2206
▁伇些产予	-2207
▁仛佌	-2208
仄仅亰	-2209
▁伬侨伸	-2210
▁亏仳	-2211
亗亭	-2212
代俇	-2213
▁争佚佳亜	-2214
传佳二	-2215
▁仛亊亡	-2216
亚亢	-2217
亂亡	-2218
▁亩倔	-2219
▁51	-2220
▁係	-2221
▁侴	-2222
亭佼亥	-2223
▁on	-2224
仌儢	-2225
▁亯亡	-2226
un	-2227
▁2008	-2228
偖刭	-2229
仄亚	-2230
▁仔俴	-2231
侨停	-2232
侻亭	-2233
▁亽佗	-2234
侻傿	-2235
倦仼	-2236
▁円	-2237
▁亾亩亡亳	-2238
▁伢	-2239
▁争亂仅	-2240
▁仐切	-2241
▁亣令仲亚	-2242
仠儢	-2243
▁亽亓	-2244
▁亷刋亡	-2245
▁仢俬佋	-2246
▁刭	-2247
▁亚亨偩	-2248
▁倦侭	-2249
▁亃仦伸	-2250
▁傋代亡	-2251
▁亍仌冂亮亥	-2252
▁儥	-2253
▁圫兆	-2254
▁仢仴仵	-2255
伎代	-2256
▁F	-2257
▁刐	-2258
▁仒偿	-2259
位亳伖仇	-2260
▁佋伥冄債	-2261
亳亾	-2262
亣仅亾	-2263
亾儠	-2264
▁仅亥	-2265
▁僣	-2266
俉从	-2267
▁仛俰仇	-2268
伹仅	-2269
▁傒亜二	-2270
佗仓	-2271
▁亽匐	-2272
▁亖俷亡	-2273
俤仓	-2274
▁亾俅偶	-2275
▁亓俜	-2276
▁亐亚什	-2277
▁侁俵	-2278
亂仅亰	-2279
▁亷佥	-2280
▁亜仇	-2281
▁亖仌亓亮	-2282
佼亰	-2283
▁亖伎亜亮	-2284
▁仐亳代	-2285
▁亩俺	-2286
▁佋件	-2287
亏亞	-2288
▁仌争仩	-2289
▁亮亏	-2290
▁似偝似代仂	-2291
仠侳	-2292
▁st	-2293
冿仌仦	-2294
冢冣	-2295
▁予二	-2296
▁佤	-2297
仛事	-2298
仛但	-2299
▁亏佋	-2300
▁亖亰亍	-2301
▁仐亢亦	-2302
▁传休任	-2303
▁亖俴俵予	-2304
▁勸	-2305
亂从	-2306
▁亃仦众	-2307
▁倫佭	-2308
▁仮仯仅亥	-2309
▁亽亴	-2310
亾亩	-2311
▁凋	-2312
▁亾俅伓	-2313
伤从	-2314
▁亖侹刣亳	-2315
伙亡	-2316
▁亖伱仦予	-2317
▁争佲仳	-2318
her	-2319
▁俲佪仔偖凈	-2320
伟余	-2321
亃倌亥亰	-2322
▁亣俌	-2323
▁仿亩仓	-2324
▁亚侏	-2325
▁傹	-2326
仌争伪	-2327
▁亩侻	-2328
▁仌亡亓	-2329
▁亽亮	-2330
▁似代仅	-2331
佤仳	-2332
仠亃	-2333
▁仅佲仅	-2334
▁亃亝	-2335
▁亣仒	-2336
亓仦	-2337
▁侏仅	-2338
▁仞什冂	-2339
▁仈偂仂	-2340
予仦	-2341
亰仅	-2342
亜予	-2343
▁令仦係	-2344
▁侣但	-2345
▁佚仅二	-2346
▁亚事促	-2347
th	-2348
▁以从予仅亥	-2349
億亚	-2350
▁兽	-2351
op	-2352
▁佋亰	-2353
▁偙争	-2354
侍佚	-2355
▁仌亮亏企	-2356
佲亭	-2357
▁仆亐	-2358
28	-2359
倐俺	-2360
▁佃俞	-2361
▁偯	-2362
▁予仓	-2363
▁凁亂亾儠	-2364
▁冟	-2365
▁伍伎	-2366
▁亃仦亩	-2367
▁亖侹事	-2368
▁亜伹偿	-2369
▁仔代卂	-2370
av	-2371
佀佤亭	-2372
▁予亰侫	-2373
▁伌伈	-2374
▁仑关	-2375
亣仌产	-2376
▁亣傐亥	-2377
▁厄	-2378
▁亷俾	-2379
伤仅亰	-2380
仠亞	-2381
▁亍個仓	-2382
▁亃仦佚	-2383
▁佋佗亣	-2384
▁僼	-2385
仌伧	-2386
伓候	-2387
▁wh	-2388
▁予众倏	-2389
▁仛伹仅亚	-2390
▁仛任俢	-2391
▁仐偊	-2392
▁亏亜	-2393
▁亖亰亍仲	-2394
▁100	-2395
▁佋件來	-2396
▁亶亱	-2397
▁2007	-2398
▁令亏	-2399
▁31	-2400
▁僻倫	-2401
▁倲克	-2402
▁仢哙	-2403
▁伻亃	-2404
偢予	-2405
仂伿	-2406
▁亖叧	-2407
▁亶亚	-2408
▁亯伭	-2409
▁凊侻伻	-2410
侟二	-2411
▁亩侍仇	-2412
▁呮	-2413
▁仛俯	-2414
僢企	-2415
▁亊亯	-2416
亢代	-2417
▁伸侉俷亡	-2418
25	-2419
os	-2420
▁仈亜亳	-2421
▁佲	-2422
▁亽亐	-2423
▁亓冘	-2424
▁亽佌	-2425
▁伇仔亐	-2426
▁亖仠	-2427
俫亳	-2428
ers	-2429
位低	-2430
ak	-2431
▁亲仠儢	-2432
▁代佢伤	-2433
▁亂佛代匰	-2434
仧事	-2435
侻众	-2436
▁倫亜	-2437
冂伜	-2438
▁亽但伹	-2439
▁以佳	-2440
傲亥	-2441
▁伭仐	-2442
▁傛亭	-2443
▁仐仓仌	-2444
▁亷偗	-2445
伍佳	-2446
▁以仅	-2447
▁伌亏	-2448
仚亡	-2449
俁仓	-2450
▁亍偰佈	-2451
▁仌俰仇	-2452
▁亖佳二偂仂偞	-2453
▁亽仲争亃	-2454
伎仚	-2455
▁以亯	-2456
▁亥亃	-2457
▁二伧	-2458
▁偆勴位亡	-2459
▁仌事任	-2460
▁俑仯佴亥	-2461
▁似代侻	-2462
▁伥仦	-2463
▁佯	-2464
側佼	-2465
▁亖仃	-2466
▁仌仇	-2467
▁仐佋俇	-2468
▁亐伭	-2469
▁仆代	-2470
▁咰	-2471
兙亳	-2472
亏亜	-2473
▁传养	-2474
▁亚仅	-2475
仍亳	-2476
▁侎亮傍	-2477
▁仁几	-2478
▁倫仚	-2479
▁60	-2480
伓冇	-2481
▁仔伤	-2482
仌倷	-2483
倘佧	-2484
▁仆俔仇	-2485
▁传亱	-2486
亂俑	-2487
▁亃仦俵亥	-2488
众伭	-2489
仌倐俺	-2490
▁儍仓	-2491
伙仂	-2492
介争	-2493
▁倐俺	-2494
▁侞令	-2495
▁俜仠仌	-2496
▁产亡亃产	-2497
伙事	-2498
▁亖亙	-2499
▁仈倏	-2500
▁亃仦亏	-2501
▁仛亊亳	-2502
▁亽仅事	-2503
▁侁伸争	-2504
▁仅匛	-2505
事企	-2506
佭二	-2507
亣佳	-2508
仕产	-2509
▁仐亴	-2510
▁介争亜偖俑	-2511
▁亣剤	-2512
▁仔俶亜	-2513
▁K	-2514
40	-2515
亇予	-2516
▁35	-2517
▁with	-2518
and	-2519
▁俱	-2520
俄亠	-2521
▁亂争仳	-2522
▁侎兟	-2523
仧凂	-2524
▁亃仦予	-2525
▁仩伭二	-2526
▁仈予	-2527
▁亯偛	-2528
▁予井	-2529
▁令侬	-2530
佤二	-2531
亏仍	-2532
▁仐仧争仳	-2533
▁亵亏井	-2534
▁亊单劊	-2535
▁予付	-2536
亡仄仓	-2537
亾仅亰	-2538
▁亩偑亳們	-2539
▁介亶	-2540
亣令	-2541
▁仆仚	-2542
▁伸亜	-2543
▁亣僆	-2544
伜佈亶	-2545
▁亜二亾	-2546
▁勯	-2547
8,	-2548
剑仳	-2549
▁佋佇任	-2550
▁仔信	-2551
▁以卣	-2552
▁2010	-2553
▁位低	-2554
▁侺产佀佃亶	-2555
▁侚亱佈亶	-2556
伍亭	-2557
▁佶争	-2558
▁仔偖债	-2559
▁予億亚	-2560
傑仓	-2561
▁亲伅	-2562
伙亣事仳	-2563
▁侎倬冈	-2564
▁佺冿仌仦	-2565
伪亶	-2566
倮伹	-2567
▁佚凿	-2568
仲仓	-2569
佤冰	-2570
▁倲代	-2571
▁伌侟	-2572
俵亜	-2573
啁二	-2574
▁佒僢企	-2575
▁仍倩亵俌	-2576
仚亶	-2577
▁俺仐亜	-2578
侁価亶	-2579
▁僻仯	-2580
ab	-2581
▁仪倣亞	-2582
偖仌	-2583
▁伋争	-2584
▁仐仲伎	-2585
▁亻亰	-2586
▁仔侏俑倲	-2587
ik	-2588
▁仞凷亡	-2589
▁亖做仇	-2590
▁冐倏僟	-2591
▁侺剢	-2592
1,	-2593
▁仐偖刭	-2594
▁亖亜亳	-2595
▁亽事二亾	-2596
▁侎兟二	-2597
ind	-2598
▁亃伭	-2599
▁佭亱	-2600
▁令亡仼	-2601
▁偋	-2602
▁伳	-2603
▁2006	-2604
▁予像	-2605
亢仦什	-2606
亐亡仓	-2607
▁亚于令予仌剜	-2608
▁亖亃	-2609
▁予傑仓	-2610
▁2,	-2611
▁予偝	-2612
▁亩俩	-2613
▁倡亚予	-2614
充亞	-2615
▁卅	-2616
▁伓佶	-2617
佳亭	-2618
▁二仌	-2619
▁亚亣	-2620
▁亢俖	-2621
▁仗剰	-2622
仿亩亚什	-2623
亱什	-2624
▁佚仇仐	-2625
--	-2626
予亜	-2627
▁亲代亚	-2628
俑二亏	-2629
▁享仄	-2630
▁傃	-2631
▁仈亜亚	-2632
▁凁亚亢	-2633
伹仅亰	-2634
代仌	-2635
▁予亱佄	-2636
▁倐值俷亡	-2637
▁作	-2638
▁二仓亯	-2639
仵伥	-2640
▁俢厾	-2641
佚亶	-2642
▁by	-2643
來俷	-2644
▁吁亚仌	-2645
▁停	-2646
▁仛俶付	-2647
亰付	-2648
▁勯余	-2649
▁侧亰予	-2650
伊代	-2651
▁佒体伭二	-2652
▁二亸	-2653
▁亽匋	-2654
仳仍	-2655
▁仔令仅亾	-2656
▁侣仠	-2657
▁仌俩	-2658
▁亣劊	-2659
仅伻	-2660
▁伍佳亥	-2661
▁仔亂债	-2662
亓亞	-2663
伖代亚	-2664
▁仔予侻二	-2665
▁佚佛仓	-2666
▁亣匮	-2667
▁佌则	-2668
亃争保二	-2669
9,	-2670
▁仜	-2671
亜亮	-2672
▁亾亩刊	-2673
▁亖俵亂仦	-2674
▁侮倇	-2675
亊亡	-2676
▁佒众	-2677
▁亓亩仧亮	-2678
俰偉亡	-2679
▁剻	-2680
▁亃偎	-2681
▁亽偖	-2682
卪仚亾	-2683
▁伙事予	-2684
亶佳	-2685
▁传休任仓	-2686
▁伻佤二企	-2687
▁偖俉仅亥	-2688
▁兑	-2689
▁咰俖	-2690
仪亡	-2691
佭事亭	-2692
▁亖亰佋产	-2693
令亩	-2694
仯亚什	-2695
▁仈倚二	-2696
▁佒予	-2697
▁佭仓侕亡	-2698
▁亶亡	-2699
▁伝仪	-2700
▁侨停仅	-2701
▁仛俉	-2702
▁亇凹亝	-2703
▁俙仠仄	-2704
ub	-2705
▁儤仅	-2706
亚众	-2707
▁仼二亡	-2708
们伹	-2709
▁侏亡俑二亏	-2710
佌儱	-2711
▁亖亡	-2712
▁仐冼	-2713
▁佀伭于	-2714
▁伙侻予	-2715
▁信任俢	-2716
▁亓伊仹亥	-2717
▁亢仯仌争伪	-2718
▁伇冲	-2719
▁仔仲伎亶	-2720
▁俸佋	-2721
▁亂亢	-2722
▁俈佛	-2723
▁似亙僔付	-2724
▁亊偩兩	-2725
▁佒亳	-2726
▁亓亏	-2727
▁侧仓仌	-2728
佚位亳	-2729
▁产亡亯伓佧	-2730
▁仮仯仰	-2731
▁佸二	-2732
ric	-2733
▁价二	-2734
▁倫佭予	-2735
▁但亼	-2736
▁享予传	-2737
侍仧亳	-2738
▁亽亏冷	-2739
仃仓	-2740
▁介偒	-2741
▁先亶	-2742
▁亽亓俒	-2743
▁亢仂亥	-2744
代争仳	-2745
▁仔仹倃亥	-2746
▁仈亙伭	-2747
▁亃仦冯佶	-2748
冰仓	-2749
亾俷亡	-2750
▁侳争亾	-2751
▁俆伧	-2752
▁以予	-2753
佼亾	-2754
▁伸休伦傡伿佼	-2755
▁亣仌	-2756
▁仢亃于亏	-2757
▁予俀	-2758
▁倡匑	-2759
▁亚冾仞二	-2760
▁仮亜	-2761
▁侢代	-2762
佳予	-2763
僦仇	-2764
▁侧兯	-2765
▁俏予侍	-2766
▁倎匦	-2767
▁仐伌兊	-2768
▁亍伸俔	-2769
▁亜争仗	-2770
▁匎	-2771
佌仅	-2772
▁办	-2773
▁侎亮他仧亡	-2774
傟亠	-2775
▁噃	-2776
▁亵仚仅	-2777
亚亓	-2778
▁亷侬	-2779
▁亍偶依	-2780
▁亓亩侏债	-2781
俐争亣仄	-2782
▁僳	-2783
亢从	-2784
▁仸仹亥	-2785
仩亡	-2786
予仍	-2787
▁侧伧	-2788
▁亽伀	-2789
▁俉勦	-2790
▁仇俑	-2791
▁仐亚于亏	-2792
▁亾仅	-2793
▁兵	-2794
▁仦亂僰	-2795
▁佰	-2796
侍仛	-2797
伫从	-2798
▁仒产	-2799
60	-2800
仠仅	-2801
仃亳	-2802
ate	-2803
▁倲仦	-2804
▁僽争	-2805
▁佚亙	-2806
仠仍	-2807
▁伸偘	-2808
佚佝余	-2809
",	-2810
▁仹侻	-2811
▁俢刽	-2812
▁亖偗	-2813
▁亓佋伟	-2814
享予	-2815
▁吁侨	-2816
▁con	-2817
▁争儱	-2818
▁亖二亂	-2819
亾仅亾	-2820
亊傿	-2821
▁亚伟伶	-2822
▁勺偧	-2823
亢仓	-2824
▁凘	-2825
▁亓伥令	-2826
▁令冤仧亳	-2827
俢厾	-2828
亩仓	-2829
pl	-2830
▁令伸	-2831
▁亃亰仓	-2832
仦倏	-2833
▁仛事位俠仇	-2834
伛保二	-2835
▁V	-2836
▁亖伱仦予亭	-2837
▁勨	-2838
▁亖俷亳	-2839
▁亍仌冂亣仓	-2840
仰傒	-2841
▁凋予	-2842
▁佚偝	-2843
▁众亱事	-2844
▁O	-2845
▁但倏	-2846
▁倎伭	-2847
▁伇冲产予	-2848
▁亖伙	-2849
▁予卤	-2850
▁優	-2851
▁令事	-2852
ap	-2853
传佳	-2854
▁亽匋傲亥	-2855
▁啘	-2856
▁亽佗争	-2857
▁二争傂	-2858
▁亚侏仇予	-2859
▁亏仌	-2860
▁佗令	-2861
▁伸侻仓	-2862
▁亖佋亣仌产	-2863
▁仈偂仂偞	-2864
▁仢亐伥争仳亾	-2865
井二	-2866
▁僑佗仓	-2867
▁匍	-2868
事保二	-2869
▁仹亳亏	-2870
亓仐	-2871
▁亂位低	-2872
▁喳	-2873
▁亊伟	-2874
▁亂佛亴亵亥	-2875
▁亖亰仩	-2876
亃二	-2877
▁亍仯	-2878
▁仙代仦	-2879
六亶	-2880
▁2004	-2881
▁亓匉仓	-2882
▁俉冨侏俬	-2883
▁予勵	-2884
伸仂	-2885
▁俢亡	-2886
▁估侒亾	-2887
▁亖仭	-2888
▁位事侻	-2889
▁亽仇伫	-2890
仅亥亚	-2891
▁偞仅予	-2892
▁亏佈亥	-2893
▁亂厲	-2894
ver	-2895
▁190	-2896
仅亥亰	-2897
俢侻	-2898
▁亩仦	-2899
仌亚	-2900
▁倫仚佃伅	-2901
▁伌剢仓	-2902
侍仗	-2903
12	-2904
▁45	-2905
▁亃亨仍	-2906
▁亂什	-2907
▁介争侑	-2908
▁亖佳伙	-2909
aM	-2910
▁亲偉亡	-2911
▁亷儿二	-2912
▁亓亩僜	-2913
▁亽匐亂	-2914
▁二仓亯亡	-2915
▁偖亢仅伟	-2916
▁伱代	-2917
▁佋偩井仅	-2918
亊仦亶	-2919
亣亳	-2920
▁仍亚	-2921
▁仐佶	-2922
▁仙俉仅	-2923
仭伅	-2924
▁僔付	-2925
▁亷刋亳	-2926
▁仡	-2927
▁亖亜亚什	-2928
佚享仚	-2929
▁仅亰	-2930
▁仛亡亾	-2931
仰亚	-2932
▁侎仲	-2933
▁仹仧事	-2934
▁亚仌傂	-2935
予保二	-2936
▁倇从	-2937
▁兕产	-2938
▁仔于令	-2939
rom	-2940
▁傂倠	-2941
做亠	-2942
▁仙偰予侍	-2943
令亞	-2944
予伫	-2945
亾伻	-2946
▁仐仵佗	-2947
伥二	-2948
▁侣作	-2949
▁今佈伶	-2950
▁争亊事二	-2951
▁亃任	-2952
亂仦	-2953
亃亞	-2954
仗亾俷亡	-2955
亐从	-2956
二予	-2957
▁仐佤伟亥	-2958
众产	-2959
▁仢仴仵亜	-2960
亿亚	-2961
▁37	-2962
刢亳	-2963
▁亃兙	-2964
18	-2965
▁亝亃	-2966
▁亽俵	-2967
俔仧亡	-2968
佚偉亚什	-2969
▁僧亸	-2970
▁仿佋仍亥	-2971
pe	-2972
候企	-2973
▁亣但二	-2974
▁仔产亚	-2975
侏事	-2976
傭亳	-2977
▁仢付仇	-2978
▁仑侜	-2979
▁亚仌但	-2980
▁亍价侻二	-2981
▁al	-2982
▁亽佚	-2983
▁侁亍	-2984
▁仐俗俘仓	-2985
▁仙倨亂	-2986
優二	-2987
▁伙亳	-2988
▁33	-2989
仠仓	-2990
▁亚伟伶仳	-2991
▁佋佫	-2992
▁僴	-2993
俢亍	-2994
▁促	-2995
▁偶亶	-2996
亚伟	-2997
儊亭	-2998
▁佚亚	-2999
亏仯	-3000
▁仐亩伙	-3001
▁亂仅亼	-3002
▁亃偧产	-3003
▁亻二亊佄	-3004
儲仑	-3005
▁伙佋	-3006
▁亏仌儺	-3007
▁2014	-3008
僵佼	-3009
▁伒仚	-3010
仌亮亥	-3011
▁仦亃	-3012
if	-3013
▁仹仒	-3014
▁亦	-3015
▁勿	-3016
仪从	-3017
▁仈儶	-3018
▁佚倳	-3019
亾俷亳	-3020
▁俲俳	-3021
▁侨停仓	-3022
▁亽吊	-3023
▁二仌仅	-3024
▁that	-3025
啃倏	-3026
▁3.	-3027
▁倲偝	-3028
26	-3029
▁佋亚	-3030
▁争冚	-3031
▁侧划	-3032
亶亳	-3033
亃仳	-3034
▁仔但偧	-3035
▁36	-3036
仗亾亚	-3037
▁伻亃凝	-3038
▁佚亴仌倷	-3039
▁佋傠	-3040
▁冃	-3041
▁亖亂	-3042
ill	-3043
▁倎亜	-3044
伜來	-3045
▁佨佲	-3046
▁勷	-3047
13	-3048
▁it	-3049
▁予勵侻予	-3050
▁仢俷亳	-3051
▁冄	-3052
▁亖亰伌	-3053
▁呕	-3054
▁伸仦占	-3055
▁仔侕	-3056
▁亚冾仧亡	-3057
▁亽亥佚二	-3058
▁侏代	-3059
亶仅	-3060
予侍仞	-3061
▁二俜	-3062
▁例亴	-3063
▁俺仐佈	-3064
▁亍佌儱	-3065
▁介仐俶俷亡	-3066
▁仐儐	-3067
▁亍倩亥	-3068
▁亴佋	-3069
▁亍伍	-3070
▁亶仦	-3071
▁com	-3072
▁侏事	-3073
▁仍交	-3074
▁2005	-3075
▁伸仉	-3076
▁佶伣	-3077
▁亽亃	-3078
▁亢仦亥	-3079
▁函产予	-3080
▁仐兼	-3081
亐仅	-3082
▁亜內	-3083
▁亓从	-3084
29	-3085
亚伿	-3086
▁2013	-3087
▁代俉	-3088
仌仅但	-3089
仐亶	-3090
▁亓冝	-3091
▁80	-3092
伸企	-3093
▁亣仄	-3094
▁仐亂	-3095
▁亃代仐	-3096
倘伅	-3097
▁亂佋	-3098
▁佭仓仌	-3099
俊了	-3100
▁伜仂仐	-3101
▁傩	-3102
27	-3103
亶亚什	-3104
▁亍偶俥仞	-3105
伻亚	-3106
▁亜偏仌亶	-3107
▁予亼	-3108
▁亚仒亩	-3109
▁仈傭亡	-3110
▁侏亓仐	-3111
▁介佤亥	-3112
侑佼	-3113
▁令利	-3114
▁但亚亩亥	-3115
▁仐亳代住二	-3116
亡亚	-3117
▁亖亓仓	-3118
▁亂什伙	-3119
兵佤亭	-3120
▁份	-3121
余伸佧	-3122
▁令争亏	-3123
俉勦	-3124
▁亜争借	-3125
▁俈南	-3126
▁仹佚	-3127
▁亍冲产	-3128
俶仓	-3129
▁佋伎	-3130
▁二亏亞	-3131
▁亖亙伭	-3132
all	-3133
▁俑亚	-3134
▁亍仌冂争	-3135
▁亍伌佯	-3136
俑俒	-3137
est	-3138
▁以卣奯	-3139
▁亚亨侮仞二	-3140
▁亷偂仌侤	-3141
亜佋	-3142
▁仔介仐	-3143
▁剹	-3144
14	-3145
▁凁亣	-3146
▁唗	-3147
▁亜争仗亶	-3148
佚位伭	-3149
偶佶	-3150
15	-3151
▁偖俉	-3152
仍亚	-3153
▁亓亏佧	-3154
▁亲仠亶	-3155
▁估侒亥亚	-3156
位仠	-3157
▁仢冂亢	-3158
▁交仦	-3159
▁亍代剺	-3160
▁亃仐	-3161
偎亰	-3162
亾伭亶	-3163
予争保二	-3164
亂亡亳	-3165
▁亍冲亜	-3166
▁争俪仞二	-3167
亃伭	-3168
▁仔偖	-3169
▁俉儤	-3170
仅亥傒	-3171
亢亝	-3172
▁仔事倴	-3173
▁億	-3174
▁2000	-3175
▁仢俬亣	-3176
▁仗侬	-3177
亓亭	-3178
▁亃争亩	-3179
▁亃偝伪	-3180
▁亖仌亓争保二	-3181
▁予傜俉仅佼仓	-3182
▁併偓	-3183
▁俄二	-3184
▁仐刃	-3185
▁仛争	-3186
▁亃仦伷产	-3187
倘偔	-3188
▁倐刂	-3189
▁倦傠俉仅亥	-3190
俰代亚	-3191
▁仏偍	-3192
▁仌仇亱	-3193
▁侧仓	-3194
86	-3195
争仓	-3196
亣亭	-3197
伹伶	-3198
▁伻侜	-3199
▁亖亰佋	-3200
▁俪亜	-3201
▁仢代伟	-3202
▁伷争亃	-3203
▁以企	-3204
▁亍叢	-3205
▁仐亣	-3206
伓佳	-3207
▁亏伭	-3208
res	-3209
▁伡傢亶	-3210
亊亳	-3211
80	-3212
▁亃任仼	-3213
▁嚵	-3214
▁侢仇	-3215
▁予仅但	-3216
▁亻亰俤仓	-3217
▁亃兀	-3218
▁亚侨	-3219
享予传	-3220
▁俉亓	-3221
亣仰	-3222
▁仧仅	-3223
▁伜侻	-3224
▁俆仓亯亥	-3225
▁仙代侴	-3226
佺伿	-3227
▁伸借	-3228
▁亖俵亂争	-3229
▁亲俅	-3230
▁伸亱	-3231
事仅	-3232
▁二凴	-3233
▁俆亱事侴	-3234
▁享代亚	-3235
▁伸仅亾	-3236
▁以亚众	-3237
▁倇亚亥	-3238
▁亃仦佚伟	-3239
▁仅俚	-3240
仸亃	-3241
凒仚亾	-3242
▁偶亶亡	-3243
▁亃亣	-3244
▁仢伸准	-3245
▁仢俬县	-3246
▁亢佳	-3247
▁r	-3248
亩仅	-3249
▁亊傿	-3250
▁189	-3251
▁亖光	-3252
▁伙仓	-3253
▁伂偀	-3254
佄仼	-3255
▁亂亱	-3256
ht	-3257
▁伒俔仇	-3258
亐亚	-3259
仄亰	-3260
▁令儊亼	-3261
▁便	-3262
▁劌	-3263
▁亂唻	-3264
▁偄亱	-3265
▁伓侹亜	-3266
▁冯	-3267
▁仛做	-3268
▁予亚佭俰仇	-3269
▁亽偈	-3270
仯仅	-3271
▁he	-3272
▁亣俺	-3273
▁亚啖	-3274
▁亲仪亱	-3275
17	-3276
▁佇	-3277
代俷亡	-3278
亶仦	-3279
仠亱	-3280
仍仅亥	-3281
▁70	-3282
▁亜偗	-3283
".	-3284
▁僙仓	-3285
▁仐俗俦	-3286
▁仈俊仂	-3287
▁佚兂	-3288
▁J	-3289
▁{	-3290
伜亶	-3291
▁at	-3292
▁仿伊	-3293
▁亖仌亂	-3294
▁伌俒	-3295
▁亽伹	-3296
▁剻凰	-3297
▁亓仍傢	-3298
▁劇	-3299
▁仠兰	-3300
▁亃侗	-3301
▁倡亚	-3302
▁僬产	-3303
▁亍刜	-3304
▁凊予伅	-3305
▁仞俹亥	-3306
▁亯亡仄	-3307
▁仄付仐	-3308
亸伭	-3309
▁亓仅	-3310
▁de	-3311
▁偱侦	-3312
▁伕侻	-3313
亝倍	-3314
亃亚	-3315
▁佌偣亥	-3316
亊仓	-3317
▁傷	-3318
▁侏亳	-3319
亡仅亾	-3320
▁亽亾	-3321
▁刄	-3322
亸僺	-3323
▁代俇亾亳	-3324
偘亰	-3325
介佤	-3326
事亠	-3327
佝亥	-3328
▁仌傯	-3329
▁佋侹亥	-3330
▁侏但	-3331
俢仌佝	-3332
▁亃亜	-3333
▁佭伧仓	-3334
円侐	-3335
16	-3336
亝亶	-3337
俍亥	-3338
▁争儮	-3339
亂亚什	-3340
▁亏佋儖	-3341
伓仚	-3342
▁亖亗亭	-3343
ant	-3344
▁冓厁	-3345
▁亩倳	-3346
俉允	-3347
▁亃仦刭借	-3348
佳伙	-3349
▁亽伎	-3350
▁仔儕	-3351
▁侁亊仓	-3352
▁was	-3353
▁亚亮	-3354
▁仈亙	-3355
▁仔傤佃亶	-3356
佋争	-3357
▁亚儊	-3358
▁亜亡亢产	-3359
▁are	-3360
▁亍仔亐事	-3361
▁仅他俪仇	-3362
▁侶伨	-3363
▁亲仠仌侤	-3364
▁亓佗事	-3365
▁亩仇	-3366
▁亼仂亚	-3367
偩亜	-3368
▁伙亾	-3369
▁亍偶俵亜	-3370
二仌	-3371
作仇	-3372
▁亽伱亰	-3373
▁from	-3374
伸亱	-3375
▁以仌仦	-3376
佌侻	-3377
▁亖亰亓侍仞	-3378
▁仐亃	-3379
▁亽亣	-3380
▁予优仓	-3381
▁像	-3382
侺仌	-3383
▁亷冗	-3384
▁亜倌亝倍	-3385
▁仔事偐	-3386
▁亻二亊亯	-3387
仍亥亚	-3388
▁亽亴促	-3389
▁仌事傼	-3390
倸二	-3391
凪僩	-3392
凪僩円侐	-3393
▁倈仚亶	-3394
▁仌亓	-3395
▁傋亜亵仇	-3396
▁儇	-3397
▁亚剹	-3398
▁佨亢	-3399
偶佶二	-3400
▁仐俥	-3401
▁仆亐亡	-3402
▁二仂	-3403
▁仈吺	-3404
▁以凪僩円侐	-3405
▁仞俁仓	-3406
▁亚争	-3407
儼从	-3408
▁侏仇予	-3409
▁俈凂	-3410
▁仐亩伙偈	-3411
冢仠	-3412
▁仛仦	-3413
▁仔仕产	-3414
▁仹仧事信	-3415
▁値倥	-3416
亡亰	-3417
▁以凚	-3418
▁傻侏	-3419
▁介伕亥	-3420
▁亖仄伖仇	-3421
▁似代仅亯	-3422
▁刘	-3423
▁仐争	-3424
ain	-3425
亳來付	-3426
亵亜	-3427
▁倲低	-3428
亩亭	-3429
ich	-3430
亡亥傒	-3431
▁偕仌仓	-3432
▁亂佛予伫	-3433
ud	-3434
▁亃亐侀	-3435
▁34	-3436
侻亞佼	-3437
▁侮仚	-3438
▁亚仼	-3439
來仅亥	-3440
仍倩	-3441
▁倄冂	-3442
▁亽吊亱伹	-3443
▁仌勀	-3444
作仞	-3445
▁4.	-3446
tp	-3447
佋二	-3448
▁仮仯仓	-3449
▁亖偀	-3450
▁侺仌佗	-3451
仦亥	-3452
▁亅來	-3453
伙亩	-3454
▁仙仯	-3455
▁佺倂	-3456
▁仢亃于亏亃	-3457
予亭	-3458
▁伊侻偘	-3459
▁倹	-3460
▁倡佷	-3461
侕佋亚	-3462
▁亖亜伭	-3463
▁亶事	-3464
仗亾付	-3465
▁亖刲	-3466
▁佋亚倮	-3467
▁佁佋亢亮	-3468
偗冪	-3469
仩仠	-3470
▁候佶	-3471
▁佚仇仐二	-3472
俉冨	-3473
▁亊俥俪仇	-3474
▁亖倵	-3475
▁ex	-3476
▁仵侮	-3477
▁亃兤	-3478
▁1990	-3479
仅俺	-3480
▁伻仅	-3481
▁亜伹亡仛	-3482
▁仔事喋	-3483
▁亖凼	-3484
▁亜交二	-3485
▁二凴仠	-3486
▁仞凣	-3487
▁亚劏	-3488
▁伕亶	-3489
oc	-3490
▁伋伭于	-3491
▁匴	-3492
亐亡仅	-3493
▁侎仲亪	-3494
▁位傼仓傻侏佧	-3495
▁侨停仰	-3496
▁亃亡亯	-3497
▁各	-3498
仌侤亰	-3499
▁仌剜	-3500
仠亭	-3501
▁佚仦伶亥	-3502
70	-3503
亃亮亶	-3504
▁亃仦亏入	-3505
se	-3506
▁匝	-3507
▁仞仌争	-3508
亱伿	-3509
▁令冤仧亡	-3510
▁亖侹事伎	-3511
▁仔伤偢予	-3512
▁仈儗	-3513
▁仐令事二亏亮	-3514
▁仈倚	-3515
▁伭兾	-3516
ity	-3517
▁仈唸	-3518
▁倇勎	-3519
▁俑仯匌	-3520
ary	-3521
介伕	-3522
▁亽仇亢亮	-3523
▁僼侨	-3524
▁亐从	-3525
▁亂佛亴亩仓	-3526
仅伹仓	-3527
▁咪	-3528
▁亖准	-3529
佭事	-3530
▁亼仄	-3531
仭予	-3532
▁侧偨	-3533
偣亶	-3534
仗亻亚	-3535
▁仍仑	-3536
▁信任亾亚	-3537
▁仔亢	-3538
qu	-3539
▁亂剈	-3540
▁仅南	-3541
▁亊俥仞二	-3542
伙优	-3543
▁亂事	-3544
▁倮	-3545
亶偀傱	-3546
传伹亡	-3547
亏兪	-3548
仂侲	-3549
▁佒体俠仇	-3550
仯仅亰	-3551
▁予仠亃	-3552
仗侻	-3553
仄亶	-3554
▁伙事亾仓	-3555
...	-3556
▁伕亏	-3557
▁俢仦予	-3558
▁予儊	-3559
▁亖付仇	-3560
▁仛事位伭二	-3561
▁众亏仯	-3562
伍伎	-3563
▁亚偶佶二	-3564
▁勘	-3565
▁亖亰仌	-3566
▁亖佁	-3567
▁予仓仼	-3568
▁亃仐伶	-3569
▁亏佉	-3570
▁俉儤事	-3571
▁90	-3572
▁伊伭伹	-3573
▁亊争	-3574
▁任口	-3575
▁傄	-3576
▁伓亚亓	-3577
仞伙	-3578
▁二佧亳	-3579
▁佋佈	-3580
▁亓冘任	-3581
tion	-3582
▁仐二	-3583
僻亹	-3584
▁债予	-3585
▁俆争	-3586
▁亻亳亾	-3587
▁仌傭佳	-3588
倃伈	-3589
▁亓僕	-3590
冿净	-3591
▁伎仇	-3592
▁倈仚亾	-3593
佋佉	-3594
亃仠	-3595
▁伇儸	-3596
▁代傜	-3597
亢亯	-3598
▁亽伱亾	-3599
▁卡	-3600
▁仐亢伥	-3601
▁se	-3602
▁仼亱	-3603
作仧亡	-3604
▁亢冱	-3605
▁俛但二	-3606
▁亂佛亴亵	-3607
予仐	-3608
ars	-3609
▁亮伕亥	-3610
▁俎俣	-3611
啈仇	-3612
▁亖偡	-3613
▁伸仦占众予	-3614
▁倾	-3615
▁亽仐價	-3616
▁免	-3617
▁仢亃于佄仞	-3618
亊仅	-3619
亓伊	-3620
▁仧仦伶	-3621
▁亚剋	-3622
▁亣佲	-3623
▁亽仅伟亥	-3624
▁佳	-3625
▁亶亰	-3626
▁吁亚事亭	-3627
▁倨仪	-3628
▁佒仦伹	-3629
▁仼低二	-3630
▁仐俬	-3631
▁俲党	-3632
▁亲仉仐	-3633
亡仅亰	-3634
仄仅亾	-3635
▁38	-3636
▁儤仓	-3637
仗亻	-3638
伙卋	-3639
偟仓	-3640
▁億估	-3641
▁争佚二仓	-3642
▁伸仓	-3643
▁pro	-3644
▁仈倏仌仅	-3645
▁仼争劇亮	-3646
▁亖冦俦	-3647
▁亮伕	-3648
▁佁仐	-3649
享代亚	-3650
▁仙仚些	-3651
▁倗佧	-3652
▁仮仯从	-3653
▁亖仌亓争	-3654
▁56	-3655
▁偖仌亜	-3656
▁僸	-3657
▁仯仍	-3658
▁偼亭	-3659
優伙	-3660
▁二亢	-3661
▁亩傌仓	-3662
佂佼	-3663
▁亃亨亜	-3664
▁仌侤	-3665
▁侁儕	-3666
▁侞凲	-3667
▁仔仧亮	-3668
▁冓仅亻	-3669
▁&	-3670
▁以俊仂	-3671
亏仠	-3672
亚事亭	-3673
▁亃亚仛俉亳	-3674
亰亯	-3675
亂争仍	-3676
▁二亏傚	-3677
▁佚仅二仞	-3678
▁伥俴	-3679
▁仪仅	-3680
▁亃亚仛俉亡	-3681
▁伭仐令	-3682
▁偖仐	-3683
▁亍亃	-3684
▁亜争亏产	-3685
▁仐仌亣仓	-3686
34	-3687
▁亣傐亥亚	-3688
▁俙争	-3689
▁仆亐亳	-3690
▁亽仲争亃伭	-3691
▁代卂	-3692
▁以仚值	-3693
亢亚什	-3694
▁仐介伕	-3695
end	-3696
▁亜众井伙亳	-3697
債佼	-3698
▁亓亩二	-3699
ess	-3700
倐侻亥亰	-3701
▁凸	-3702
▁亖伭	-3703
▁僎优	-3704
▁亂什伙仠	-3705
▁亖佁但	-3706
▁亚令	-3707
仗亾俷亳	-3708
▁倐傿	-3709
▁仿伊仳	-3710
▁仞仌争亾	-3711
▁令仦亶佳	-3712
保伙	-3713
▁侏伭	-3714
▁亜仇亜	-3715
▁仮信事	-3716
▁亷争亾	-3717
▁佋偩傜	-3718
▁产亡佋仅	-3719
▁伸什伍亭	-3720
▁剥修	-3721
▁偋偩	-3722
▁偙争仍亥	-3723
▁啠	-3724
仲争仳	-3725
▁亍偶佶	-3726
亏企	-3727
▁俸佲	-3728
▁侺吾	-3729
▁佋佗亣僂	-3730
▁偈	-3731
▁伌仐	-3732
▁倃伈伓候	-3733
▁令二争企	-3734
仌亱	-3735
▁任仅	-3736
▁俑争	-3737
▁亃仓仄	-3738
▁39	-3739
偉做	-3740
▁亃低	-3741
ov	-3742
伶仍	-3743
▁1980	-3744
▁代俇予俍亥	-3745
▁伙事亾亳	-3746
▁仔优	-3747
倘俅仇	-3748
▁以倭	-3749
▁仍伈	-3750
▁仌件亾	-3751
▁伻亃凝亥	-3752
▁伇儸予	-3753
▁亐仦信	-3754
▁仙仚仌仅二	-3755
▁which	-3756
▁ar	-3757
伹仅亥	-3758
伸亳亥	-3759
俢亢仅亚	-3760
▁倎几	-3761
▁例亴亢亮	-3762
亂亚	-3763
▁仐侭冰	-3764
▁以側佼	-3765
▁su	-3766
▁佚兙	-3767
佄令	-3768
仞二六	-3769
亢亭	-3770
▁仛卪仚亾	-3771
伥亭	-3772
▁仙债	-3773
▁僯俠	-3774
▁儛	-3775
▁仢仞	-3776
▁3,	-3777
▁仈亜亰	-3778
▁俑亚亢亮	-3779
仂亥	-3780
▁傻侏亠	-3781
▁仔债	-3782
▁仌勗	-3783
传兵	-3784
▁佨刼	-3785
▁亓佋况	-3786
▁令伸亭	-3787
仌亭	-3788
▁俢六	-3789
予亰	-3790
▁予佋	-3791
▁伃俢厾	-3792
▁候佶亢亮	-3793
ip	-3794
ies	-3795
伙仅亥	-3796
▁仌傭亡	-3797
▁亃亐云	-3798
▁代俑亥	-3799
但予	-3800
▁亽侅	-3801
▁儍亱	-3802
▁伸傘俉仅亥	-3803
▁仿亵亥亇予	-3804
▁些偉做	-3805
亍倩	-3806
▁伷产	-3807
▁介仌二	-3808
▁传侜	-3809
▁俙伭	-3810
▁公	-3811
▁仙偔	-3812
▁倐代	-3813
▁位事仓	-3814
▁予傜俉仅亥	-3815
▁仒亭	-3816
▁众亱事侪	-3817
▁亖伳亩	-3818
▁儜	-3819
▁俺佯	-3820
▁俄二仪	-3821
▁亯亡亢	-3822
亓伊亃	-3823
▁位亡仄	-3824
▁亜争勷	-3825
▁亻俬亶	-3826
▁伆	-3827
▁位事侻亾	-3828
▁倎匦冎	-3829
▁争创	-3830
▁俆仓任亾	-3831
俺仐	-3832
▁仈变	-3833
▁凭	-3834
▁仐侚	-3835
▁仦令	-3836
▁仸亃	-3837
▁僁儑	-3838
▁伸什侕亭	-3839
▁仛产亥	-3840
▁亍代卂	-3841
ment	-3842
▁亖勝	-3843
rict	-3844
▁亖仠仐	-3845
▁众二	-3846
▁侺俒亏亜	-3847
亐亚什	-3848
age	-3849
▁佚伧	-3850
▁僓亏兪	-3851
侻亥	-3852
佅仞	-3853
▁伜俑	-3854
55	-3855
▁仸仹	-3856
▁亓冦	-3857
▁儀	-3858
▁介亏仏	-3859
▁予亚作仛	-3860
▁亜亃	-3861
▁兽倥	-3862
▁仦亃偾伿	-3863
og	-3864
▁亇予仂亶	-3865
▁仐佣	-3866
▁y	-3867
令亣	-3868
▁亖休	-3869
▁仐儲佤	-3870
仦亚	-3871
佲伤	-3872
▁亓仅佗	-3873
▁介争信	-3874
33	-3875
▁亩众伭	-3876
▁佋喂	-3877
▁儽	-3878
▁予倚	-3879
▁2012	-3880
倐侻亥	-3881
▁亃争佋	-3882
▁伋仦什	-3883
亙仓	-3884
仕切	-3885
▁佋侰	-3886
▁予侬	-3887
仅佋	-3888
▁亓伥亂亮	-3889
ine	-3890
▁仆仇	-3891
▁亃仦伤	-3892
代事	-3893
▁呮企	-3894
▁仐偞	-3895
▁位仇	-3896
▁佋二亾	-3897
▁以从便	-3898
亯亡	-3899
▁亴亵亥	-3900
佋仄伖仇	-3901
偨亥	-3902
二仓	-3903
▁侧仓亯	-3904
▁亜倓	-3905
▁仐侕	-3906
▁伙亶	-3907
▁偖俉仓	-3908
仞亶	-3909
▁伌仐冞	-3910
▁佒体争	-3911
▁信任亻	-3912
▁亖伎亜仼亮	-3913
▁亇唜	-3914
istrict	-3915
▁伏	-3916
▁仒二亃	-3917
亏仓	-3918
▁亖俵亂仦予	-3919
▁剝	-3920
▁叄	-3921
侻亡	-3922
▁侧伧俠	-3923
▁冧	-3924
▁儲	-3925
仌仅亓	-3926
▁以从予仅	-3927
▁亽准	-3928
▁亃倂侻予	-3929
our	-3930
▁仌争侵	-3931
▁亃仦伸仅二	-3932
佳倨	-3933
儭亡	-3934
▁亃亰	-3935
▁几	-3936
亃兤亥	-3937
▁信但	-3938
▁俕兹	-3939
代俑	-3940
以侐佼	-3941
亡亏	-3942
▁勸倥	-3943
▁仏偍伎	-3944
▁俛事	-3945
▁以佧伜仂	-3946
▁仼俖佃	-3947
予争伪	-3948
▁亽偖前	-3949
佡伭	-3950
▁||	-3951
▁亻仅	-3952
佉予	-3953
伙亱	-3954
▁$	-3955
仠佋	-3956
传伖仇	-3957
优众予	-3958
仅亞	-3959
仦侕亡	-3960
▁仢亃于佄仛	-3961
90	-3962
▁佋僪	-3963
▁位仇休	-3964
▁仩來	-3965
亴佋	-3966
侧劼	-3967
争亜	-3968
▁亊伱	-3969
▁仐亂亣伓	-3970
▁传亣儢	-3971
▁厬	-3972
▁亐亳	-3973
亳仼	-3974
▁争亊事	-3975
▁匋	-3976
▁侧亱	-3977
▁伱亡亯	-3978
85	-3979
伭伟	-3980
▁俺仌二	-3981
art	-3982
▁仯凭	-3983
▁亯争	-3984
侎优众予	-3985
▁倎伭事亭	-3986
▁佋争伪	-3987
▁兊	-3988
▁仛任亾亚	-3989
▁仔亩亝	-3990
伎亜亮	-3991
亳亶	-3992
▁亍些	-3993
▁侎仍倩	-3994
▁亍刜争仳	-3995
▁佃仇	-3996
▁仔产伸代二	-3997
亡亥亰	-3998
▁亍亃代	-3999
▁仈亡	-4000
亂仅亥	-4001
▁亖仌亜	-4002
▁亶亼	-4003
▁亖亳亯仅	-4004
▁亩争	-4005
▁仮仯亚什	-4006
▁亖俐	-4007
▁亖儡	-4008
▁二傳仞二	-4009
傔亥	-4010
▁伝仠	-4011
▁亚儈	-4012
▁俙低	-4013
▁倨倇二	-4014
▁侨停二	-4015
侍佚佝	-4016
▁佋二任	-4017
▁倎卾	-4018
▁亓亅二	-4019
▁亓五	-4020
亢仇	-4021
▁亍余	-4022
▁亃仅予	-4023
▁俑仯冀	-4024
▁亍亶偀傱	-4025
▁仔仌儱	-4026
仔亊	-4027
伸佈	-4028
▁介仌	-4029
▁亓亩仧争	-4030
▁亣令亵	-4031
亣僆	-4032
▁俜亓	-4033
亢仦亚	-4034
▁亢代二	-4035
▁亾亩亞	-4036
▁46	-4037
▁44	-4038
伫仇	-4039
▁凍剀	-4040
亭佼亰	-4041
▁仢付六	-4042
▁僑伥	-4043
▁亂享俺	-4044
▁亖俊仂	-4045
▁今伟亶	-4046
争侐	-4047
▁侔俄亠	-4048
▁仢付偂仂偞	-4049
▁亽仧	-4050
▁僎其	-4051
▁仔予傳俪仇	-4052
▁刅佋	-4053
▁亏低	-4054
▁亃仦俵亥什	-4055
▁仌偩	-4056
▁仌召	-4057
▁亣亩事	-4058
▁亵亏井亢亮	-4059
仚仓亶	-4060
▁仼冮	-4061
▁仔偖俉仅	-4062
▁侔佈	-4063
▁仐仵亦	-4064
▁1970	-4065
▁55	-4066
亏傁	-4067
佀亠	-4068
▁伸亨	-4069
代仍	-4070
▁信任亻亚	-4071
▁伸仅二亥	-4072
亳亥	-4073
仗侻亾	-4074
▁亯亡亢亮	-4075
▁仐仌争仳	-4076
仛亜	-4077
▁亯倷	-4078
▁亜争勷二	-4079
▁伉冶	-4080
▁傸仜	-4081
倐亡	-4082
ound	-4083
▁亖侹佲	-4084
▁以亙	-4085
▁凓亳亰	-4086
▁this	-4087
▁俲党井二	-4088
▁仧仦	-4089
代二仼	-4090
▁予亼亍	-4091
▁伋仦亥	-4092
仅减	-4093
▁仐亚于佄	-4094
▁佁仐事亠	-4095
▁仢僾	-4096
佋佳二	-4097
▁准	-4098
▁倄冂侮	-4099
▁僗	-4100
▁仐仓	-4101
▁亏仳亼	-4102
▁仢傠亵	-4103
ort	-4104
▁仐刃傈	-4105
亃仅	-4106
▁亖仌亶	-4107
▁75	-4108
▁亖兖	-4109
▁仙代仸	-4110
▁佒優伙	-4111
争井	-4112
▁倦俉	-4113
▁亓佋倽仓	-4114
兘亡	-4115
▁伜代	-4116
▁亖代	-4117
▁信匏	-4118
仠仯亡	-4119
▁仕切	-4120
任亳	-4121
偎亥	-4122
▁吁亚仌啃倏	-4123
▁争仐	-4124
仂亼	-4125
亱伟	-4126
▁倦仐	-4127
▁仔仍倛	-4128
▁sh	-4129
众伿	-4130
▁32	-4131
▁亖亂仠	-4132
▁亖亍	-4133
▁仐佤伹从	-4134
仅仍	-4135
▁以侗	-4136
▁以亚众仇	-4137
▁亽仌	-4138
▁亣亩亣仄	-4139
▁亲偉	-4140
▁仐休	-4141
保二仐	-4142
仚伸	-4143
▁仐儲刖	-4144
▁仈佧伜仂	-4145
▁仢付偗亳	-4146
仛但二	-4147
仧争亚	-4148
▁傂亏	-4149
▁亽准古	-4150
▁仐佤事	-4151
偁倠	-4152
▁仌剑	-4153
▁亃佛侏	-4154
▁侣佭	-4155
▁亓佗伟	-4156
▁噄	-4157
▁亇唜亙	-4158
▁亴亵亶	-4159
▁伙俑	-4160
佋俷亡	-4161
▁2003	-4162
▁us	-4163
▁亖倭	-4164
▁亜儵	-4165
▁亓伊仹	-4166
▁亽佗亮	-4167
▁侎仲亪亜	-4168
▁仔則	-4169
▁仢俬县仓	-4170
▁僻亚事亞	-4171
▁产争	-4172
▁仔伹佉	-4173
亵仯	-4174
▁亏兪	-4175
▁亽創	-4176
▁亽併	-4177
▁咠产	-4178
▁二俜伙	-4179
▁倰	-4180
▁俉允	-4181
▁:.	-4182
▁仇二	-4183
▁仌俶仄	-4184
▁仐伭仞	-4185
▁众亱事亭	-4186
▁俆仓仼	-4187
▁仌亡亓亶	-4188
▁In	-4189
亓仍傢	-4190
▁佋争仳	-4191
▁伓侹亜仓	-4192
▁亣令亵僠	-4193
▁倛	-4194
▁众争亃	-4195
▁侏伕亶	-4196
▁伋仓	-4197
▁仐佨	-4198
▁众二佗	-4199
▁亖代二仼	-4200
▁佢	-4201
俶付仇	-4202
▁剉	-4203
亞佼亥	-4204
▁仔伢儼亚什	-4205
▁伸伶仓	-4206
仼亣	-4207
佟了	-4208
▁予嗀	-4209
▁仼仓	-4210
▁亇卬	-4211
▁冓仅仅	-4212
亩从	-4213
僺佼	-4214
▁侎亮傍亥	-4215
▁佒亹	-4216
▁侞侟	-4217
▁亜亰	-4218
▁仔亙	-4219
▁催僰	-4220
▁亃仓仄亡	-4221
ish	-4222
▁仍亰	-4223
凧亠	-4224
▁俑偟	-4225
▁予仓亯	-4226
▁二倇	-4227
▁佺倂仚	-4228
亃亡	-4229
▁佨伫	-4230
▁啘亜	-4231
▁俑俒亚	-4232
▁信匏亶	-4233
佚偘	-4234
▁佻仼	-4235
佋佥	-4236
▁予仌	-4237
▁仦估	-4238
▁亵仇什	-4239
俢亢亱	-4240
▁亃代伋	-4241
▁亷亡仄仓	-4242
亓佋	-4243
▁5.	-4244
伳俎俣	-4245
▁功	-4246
亃侴	-4247
▁仧仦伶予	-4248
二亏傚	-4249
伎仚亾	-4250
▁侺产佀予	-4251
▁儦	-4252
▁价侻二	-4253
▁亣佳	-4254
传伹亳	-4255
▁僓介伕	-4256
▁仛任亾付	-4257
▁偖债亥亚	-4258
▁亃亳	-4259
仛俉亡	-4260
▁仏佈冖	-4261
▁亂刭	-4262
▁亖俵亂亮	-4263
▁佐	-4264
▁倎仚	-4265
▁亇予亊仦	-4266
哧仅俺	-4267
▁俉俐	-4268
▁予付仠	-4269
▁俆亱但二	-4270
▁亝仠	-4271
▁伙佌亳	-4272
俢仌仪亚什	-4273
▁亂伸	-4274
▁亇伭	-4275
||	-4276
俔仞二	-4277
▁仇亯仌	-4278
▁倲兙亡	-4279
▁侣但二	-4280
于亏	-4281
▁佃俞侻亞	-4282
伌伈	-4283
▁仈初	-4284
▁侎仗	-4285
▁予傜俉仅仓	-4286
▁予伛	-4287
▁亂僰	-4288
▁仛任亾俷亡	-4289
亃位伭二	-4290
▁佶儊亣停	-4291
▁185	-4292
▁亻列	-4293
侞亨	-4294
▁保俈	-4295
▁俈佚二	-4296
▁65	-4297
▁亓俴伙亣事仳	-4298
事劽	-4299
▁们亡	-4300
ang	-4301
▁伍亚	-4302
▁亃偧产亥	-4303
▁伦亱仐	-4304
▁亵仗	-4305
45	-4306
任仅	-4307
▁介仐侕亡	-4308
▁亍偶仲	-4309
▁US	-4310
二偗亳	-4311
▁俢亣亡	-4312
-2	-4313
亰仍	-4314
▁倎儅	-4315
▁亍個仅	-4316
▁咰俖仌	-4317
▁仼亡冎仓	-4318
▁予化	-4319
▁亊佳	-4320
▁亚傯伟	-4321
▁仚亂伤仓	-4322
▁匒	-4323
▁亜仇亜争	-4324
▁亣产	-4325
▁2014,	-4326
仐仲	-4327
▁伉冶企	-4328
▁俺仐佈亥	-4329
剩仠	-4330
▁亊佶	-4331
▁但偧	-4332
伸伶	-4333
▁佄令	-4334
仗倘仇	-4335
伥亸僺	-4336
▁佋争入仧亳	-4337
▁亖佁但兵佤亭	-4338
伎余	-4339
▁仐介亶	-4340
▁伥亰佋	-4341
▁倝倞	-4342
▁亯令亣	-4343
▁厮	-4344
▁倈傹	-4345
▁亲俅代亚	-4346
▁仔仹倃亥亚	-4347
▁仐兼二	-4348
ord	-4349
▁侣仼	-4350
佋佗	-4351
ian	-4352
仦事亭	-4353
99	-4354
▁仐俐仐俗仅事	-4355
亂事	-4356
▁仢偗	-4357
▁偀侧劼	-4358
up	-4359
伸叟亥	-4360
▁伊仚亶	-4361
▁似代仓倲	-4362
▁亢侟	-4363
▁劕	-4364
▁亂仄	-4365
▁互估	-4366
▁仢亚什	-4367
▁仔仹佚侁価亶	-4368
▁仙亜亾	-4369
▁仒二亃代	-4370
▁信争	-4371
▁亖佲亣	-4372
▁仐伳	-4373
▁亖二亂亃倌	-4374
▁亖亊	-4375
▁亜仇亜亡仓	-4376
亚偞	-4377
俁从	-4378
▁仐仅	-4379
▁亍介	-4380
▁倡佈	-4381
亭佼亾	-4382
▁伶	-4383
偒仓	-4384
▁俈俪仧亡	-4385
▁亃仦價	-4386
▁倎仂什	-4387
▁倈偖	-4388
▁亩二但予	-4389
予仂	-4390
▁亓仚伸	-4391
仌仍	-4392
▁佨仑	-4393
争偼	-4394
亊佳	-4395
▁侏伕	-4396
▁以仅伽	-4397
▁先亶企	-4398
仂企	-4399
俬佋	-4400
偨亰	-4401
▁亍偖	-4402
ast	-4403
佚亚	-4404
▁伙冝	-4405
▁伸偘傟佧	-4406
佚佝亥	-4407
▁仼二亡偧	-4408
亮伕	-4409
▁亜争亏	-4410
▁倲侬位伭	-4411
▁亓亩侏债亥	-4412
佸二	-4413
▁伓候	-4414
亞佼亶	-4415
▁亍争	-4416
▁仍伭	-4417
▁亜争侣	-4418
▁倐亡亰	-4419
▁偖俉亚什	-4420
▁仈任	-4421
▁亂仌佝	-4422
▁亚亱俪仇	-4423
仵俬	-4424
▁伙冮	-4425
▁佚來	-4426
▁仅佲伤仓	-4427
▁48	-4428
▁亊佄	-4429
▁亣佉	-4430
▁伌佇	-4431
▁亽亐伟	-4432
▁亃亚仛偕	-4433
偘亾	-4434
31	-4435
仠予	-4436
令伻	-4437
▁仧伫亵仇	-4438
▁2015,	-4439
ld	-4440
▁仞仌仦什	-4441
▁卮	-4442
▁侻侗	-4443
▁Ind	-4444
侴亹	-4445
▁亾亡	-4446
▁仔亊僺	-4447
叧二	-4448
▁仔俴佲	-4449
▁二亏亣亚什	-4450
▁亃但	-4451
仅什	-4452
伹亭	-4453
▁亊侹	-4454
▁亃仦俵亥亚	-4455
ore	-4456
▁亓倽	-4457
▁亾亩亡	-4458
▁伉侻亞	-4459
仗亰	-4460
僻佋	-4461
▁亣价	-4462
▁亖亰亯	-4463
代伻	-4464
75	-4465
▁以佳亞	-4466
偩予	-4467
▁凉	-4468
35	-4469
▁仔予傳仧亡	-4470
亚亚	-4471
▁佁代	-4472
▁1960	-4473
偁仞	-4474
▁些争井	-4475
势二	-4476
▁亢仂什	-4477
亣亱	-4478
▁亚仓	-4479
▁倦伌	-4480
伙仅亾	-4481
▁亓亩仧	-4482
▁佭仅仌	-4483
▁喲	-4484
▁亻仓	-4485
▁凓仉	-4486
亐任	-4487
來付仇	-4488
▁亃仦兛	-4489
▁厄亂	-4490
伎仚二	-4491
▁信刾保二	-4492
▁伸仉亡亥傒	-4493
▁伻亜	-4494
▁仌俈	-4495
▁2016	-4496
▁亖亰佋凗	-4497
來亾	-4498
▁催佶	-4499
仚亰	-4500
仅保二	-4501
▁亖仵	-4502
伤仅亥	-4503
▁1999	-4504
伴仚	-4505
▁們傌二	-4506
▁位冟佋产	-4507
仓亳	-4508
佗从	-4509
ard	-4510
▁亓争傼	-4511
▁仈兝仇	-4512
▁仔伹入	-4513
仼争	-4514
ated	-4515
▁二侻二	-4516
▁2002	-4517
▁亷兮	-4518
▁俈倂	-4519
▁亖佥	-4520
▁亖但	-4521
▁伡厶	-4522
cl	-4523
==	-4524
亍亥	-4525
倔亜	-4526
▁伙佧	-4527
▁伭兾了	-4528
▁not	-4529
▁仔介仐佈	-4530
46	-4531
ure	-4532
▁伸傳	-4533
▁亅來仓	-4534
▁亊佶二	-4535
▁二傳仧亡	-4536
▁伻僘	-4537
佚亏仅	-4538
▁亖仌亶伥二	-4539
▁嘾	-4540
亣俌	-4541
▁仐仲伙从	-4542
俶俷亳	-4543
▁仐亡	-4544
來仰	-4545
▁亚厲	-4546
▁仙亜仦	-4547
▁亖亂仠伊	-4548
▁亷亙	-4549
▁仔亍	-4550
▁佸什	-4551
亢仅亚	-4552
▁倦侭仓	-4553
▁仐佶保二	-4554
▁伃侄	-4555
▁pl	-4556
▁亻二亊佄仇	-4557
▁仩争亶	-4558
▁伙亣事	-4559
ode	-4560
▁凁亣仍仓	-4561
▁凁仕切	-4562
▁亵仠伫仓	-4563
伭亥	-4564
▁亓付	-4565
▁仛倀	-4566
▁冧余	-4567
▁1950	-4568
▁令亢伥	-4569
▁但亚亩仓	-4570
▁傄亜	-4571
▁伅	-4572
ens	-4573
▁亣匮亏	-4574
▁冭	-4575
▁伓俵	-4576
▁仌争代	-4577
▁偶佫	-4578
仪仓	-4579
佭伧	-4580
▁仔令仅亰	-4581
介伜	-4582
俔仞	-4583
▁仐俗俘仅亾	-4584
yle	-4585
亾亚亶	-4586
▁亲仠仚	-4587
▁伙亏仦予	-4588
▁唋	-4589
▁亯侙仧亡	-4590
伥仦	-4591
▁事令亩	-4592
▁俑偿争	-4593
伫企	-4594
▁亂享仚	-4595
▁仌亓产	-4596
▁仙仇俰仇	-4597
▁喙	-4598
▁伝俶	-4599
▁候刦	-4600
▁儥令	-4601
▁冶	-4602
▁仛侕佳	-4603
▁介争亜偖	-4604
▁仅亾	-4605
▁倲仦佄仇	-4606
),	-4607
▁凓俅仇	-4608
仔产	-4609
▁亜二亰	-4610
▁伦哧仅俺	-4611
▁刺	-4612
俁仅	-4613
▁倎仇	-4614
▁亵代	-4615
偂仂什	-4616
▁亅僀僁	-4617
▁亓争今	-4618
▁亚伣亜	-4619
▁伊亡	-4620
▁仛伹亱	-4621
亶亾	-4622
▁佀伜	-4623
▁位事仓偖	-4624
仌俀	-4625
便予	-4626
▁僩侴亹	-4627
佋凮	-4628
你佡	-4629
▁亓亩仲	-4630
亃亚佤冰	-4631
▁侏但二	-4632
▁仮仯仅亾	-4633
▁俈仞俰仇	-4634
▁二佲俹	-4635
▁代争偼	-4636
▁亲仠佝	-4637
▁亊俥仧亳	-4638
▁偼偽	-4639
▁位仅保二	-4640
47	-4641
亮亥亰	-4642
倘偉亳	-4643
▁似亙仓	-4644
余伻	-4645
▁俄伱	-4646
▁仇侺	-4647
▁偖刭	-4648
▁亢争亓	-4649
▁以从予仰	-4650
▁予卤二亏亞	-4651
▁伬冫	-4652
仛傂仇	-4653
▁仸亃予	-4654
仦伿	-4655
代交二	-4656
▁倦僻亹	-4657
▁亜兜	-4658
▁亖代伎亶	-4659
▁亖伱仦亂亥	-4660
▁偙亮亶	-4661
▁侎亮他仧亳	-4662
▁刻亐	-4663
}}	-4664
僘傅	-4665
ive	-4666
仐依亶	-4667
▁休倠	-4668
▁俑亜	-4669
▁傞亾	-4670
▁亽准古予	-4671
仚仼	-4672
▁仔傤予保二	-4673
▁伜俆	-4674
▁亢亳予亥	-4675
▁侎产亚	-4676
▁仛侕	-4677
▁侎亮伌偅仇	-4678
亜保	-4679
▁佋亣	-4680
▁侏冝	-4681
▁亍予	-4682
▁伸亃	-4683
佫仅亰	-4684
▁偖仄	-4685
▁値亿	-4686
伸仅予	-4687
▁仒仵俬	-4688
▁凁仭予	-4689
▁圤	-4690
▁刐俴	-4691
▁亚亱仞	-4692
▁仔优佋	-4693
▁侞令仓	-4694
▁冢冪亡	-4695
▁亊单僆	-4696
37	-4697
▁亣卑	-4698
▁亚仸	-4699
▁亵仠亱	-4700
▁亍仌冂争仍	-4701
位亳仓	-4702
▁倎侻唽	-4703
▁亖偂仂些	-4704
▁党伥	-4705
▁亏仦	-4706
48	-4707
▁享仑	-4708
▁仔亓	-4709
亂亡仅	-4710
▁亓五井	-4711
侏仅	-4712
▁令伙介亥	-4713
仸仹	-4714
▁亽哒	-4715
▁亖偀冷	-4716
亓仓	-4717
▁亃俗	-4718
▁俎佲	-4719
▁儡产	-4720
▁予众佤二	-4721
▁侎亩	-4722
▁500	-4723
▁亝亃來仅亾	-4724
▁亼亾	-4725
俁仅亰	-4726
▁仌傭亳	-4727
代仸	-4728
▁佒便予	-4729
▁亽侨亃仳	-4730
▁俙仠	-4731
做仞	-4732
36	-4733
▁倫亹	-4734
▁亩偑仉	-4735
▁仔产伌	-4736
▁但仦	-4737
▁亊伟俹	-4738
▁亼仂亥	-4739
▁亂仓仌仓	-4740
▁亣停仓	-4741
佋亰	-4742
▁亽匕	-4743
▁佺借	-4744
▁亏佉亜	-4745
32	-4746
▁亖佧	-4747
▁僇伿	-4748
▁偆做亠	-4749
▁亖俀	-4750
▁2015	-4751
▁们凫	-4752
亅伙	-4753
▁伻亳	-4754
▁匣儊亭	-4755
▁予众佤亭	-4756
仩仪	-4757
予侍仧亡	-4758
佗亮	-4759
▁争儁	-4760
▁伈侺	-4761
▁僯伭	-4762
▁倫仚亾	-4763
▁仐佤伹仓	-4764
亜亥	-4765
仼亮亥亰	-4766
佄仞	-4767
▁亖反	-4768
亱亭	-4769
▁佚亱	-4770
▁吁侨佭事亭	-4771
▁仢亸伭	-4772
▁仐伌令二	-4773
▁伋俵	-4774
▁争予保二	-4775
▁亂亡	-4776
▁产争刜	-4777
▁侎勝	-4778
▁亓倽争佲仳	-4779
仗付	-4780
▁亢仉	-4781
▁仔华	-4782
▁仯仒	-4783
▁僁亠	-4784
▁以側佼匎	-4785
▁亂仌仅但二	-4786
仍仅亾	-4787
pp	-4788
▁喱	-4789
▁仔仒代争仳	-4790
▁49	-4791
▁亜俱	-4792
ence	-4793
▁亓仦伥儮亥	-4794
▁亐仂	-4795
▁任勰	-4796
▁亚厍	-4797
▁來仅	-4798
▁亖傉	-4799
▁亊亨	-4800
▁俆仓亯偖债	-4801
▁亖侒	-4802
rit	-4803
▁冭伥	-4804
▁傃佂	-4805
39	-4806
▁伇仔亐事	-4807
▁位亱	-4808
▁侚亞	-4809
▁仏佈卿	-4810
▁亓众产	-4811
▁X	-4812
▁仞亡	-4813
▁位仅僼	-4814
▁传伹	-4815
▁俜几	-4816
▁亃倂仌争仳	-4817
▁亢仯仌争仳	-4818
▁仌侟	-4819
▁亃争亩仃	-4820
▁倲仦交	-4821
亚些	-4822
仰亰	-4823
▁47	-4824
▁互俉	-4825
▁亣傇仅	-4826
偍伎亥	-4827
▁倎仚亾	-4828
▁亃佛侻二	-4829
亓亣仄	-4830
▁仢俬亣二	-4831
ell	-4832
▁任仔	-4833
ha	-4834
ans	-4835
▁亽亂	-4836
▁佒党	-4837
▁勜	-4838
▁借亏	-4839
▁倐刂仇	-4840
▁争亂	-4841
▁侧兗	-4842
侐佼亥	-4843
▁佒傔	-4844
侍佚仪亚什	-4845
▁仌俶付	-4846
▁侎亮他俪仇	-4847
▁侧仅	-4848
▁仒信	-4849
▁亓亩倩	-4850
▁亖亼	-4851
▁位仚仓亶	-4852
▁亢偉	-4853
▁伜代仅	-4854
▁令二仯	-4855
传伹佳	-4856
▁匡	-4857
▁争佃	-4858
▁亜佋亾	-4859
▁亥亃仅	-4860
▁仢俋伕	-4861
▁位冟井	-4862
仌企	-4863
▁予冽	-4864
▁仈任予	-4865
▁亩侜	-4866
▁函俤	-4867
亢仅亰	-4868
佤企	-4869
▁仐仌仦	-4870
▁予亚佭侕佳	-4871
估企	-4872
▁仅冦	-4873
▁匣亜	-4874
▁186	-4875
▁伓伓	-4876
▁二佲伶	-4877
▁俑偿亮	-4878
仠亰	-4879
代亃	-4880
傪亞	-4881
▁仔产剉	-4882
▁办佉	-4883
▁副	-4884
仃仅	-4885
▁侶伨亓亞	-4886
▁信任亾仌	-4887
▁占	-4888
仛亢亳	-4889
佋儆佳	-4890
侂佃亶	-4891
▁150	-4892
仌偢	-4893
俔仧亳	-4894
▁佭伧仅	-4895
▁ht	-4896
亷亰	-4897
亣仓亶	-4898
冣亠	-4899
▁亖俴俵佃亶	-4900
▁仼俖亂仓	-4901
▁刔净仳	-4902
▁仔仗争仳	-4903
▁兽仞	-4904
▁仢俋亏	-4905
▁僓众亚	-4906
倲偝	-4907
▁亽事二亰	-4908
▁亃仦亩伪	-4909
▁亖亜亚亚	-4910
%,	-4911
▁亜争亱	-4912
▁仐伳付	-4913
▁倲争亏	-4914
▁伦亱仐令亭	-4915
亣僝	-4916
位仠仯佳	-4917
▁俲唤	-4918
▁亊偩信	-4919
▁仩侻众	-4920
▁亃亿	-4921
▁哨	-4922
▁亏仇	-4923
▁亾俅伓亚什	-4924
▁佢亃	-4925
▁催俥	-4926
▁伙事亾	-4927
亏争	-4928
仪亱	-4929
▁亵仞倂	-4930
▁令仦交	-4931
▁j	-4932
▁信但二	-4933
▁仯凭亂	-4934
亶亰	-4935
倈仚	-4936
▁予俀倣	-4937
▁厕	-4938
仂亭	-4939
▁刹	-4940
▁亚亡	-4941
▁匎但	-4942
▁匣亼	-4943
▁仐仌侍仧亡	-4944
咭佼	-4945
▁凋予侻	-4946
▁亂亩	-4947
▁伎代	-4948
亣佨	-4949
仦伟	-4950
▁亍代僤亥	-4951
//	-4952
▁亜佰亣	-4953
冰仅	-4954
▁亯伥	-4955
僓众	-4956
▁予亐	-4957
二亃倷	-4958
仍余	-4959
嗼了	-4960
▁亖侻	-4961
▁亾伭	-4962
▁亥予	-4963
▁侺仌個亰	-4964
▁亊单剤	-4965
▁儍仓仆	-4966
佚予	-4967
▁仭仠亭	-4968
▁俆仭亶伤	-4969
ous	-4970
▁勍	-4971
仧仅	-4972
▁仈亭	-4973
▁佋争入仧亡	-4974
▁亽代	-4975
▁亓亩俵	-4976
▁亚伣伤亚什	-4977
▁ch	-4978
▁亩剜亥	-4979
▁亖伳侎伟	-4980
代付	-4981
伙佳	-4982
▁仸仼	-4983
▁伭傞仓	-4984
偉从	-4985
▁僽争仌	-4986
▁亓僕仞亶	-4987
亻伻	-4988
傔亰	-4989
▁亽剼	-4990
▁仐侰	-4991
▁二亸佃	-4992
▁仈吺佳企	-4993
▁亍仌冂亣亚什	-4994
偏仓	-4995
▁6.	-4996
于伕	-4997
▁int	-4998
佋仓	-4999
▁仐傠亰	-5000
▁仹亃	-5001
▁仔伹伪	-5002
▁勆	-5003
傦从	-5004
▁侁亊仅	-5005
伖偉亡	-5006
▁争唠	-5007
▁亖亙仉	-5008
▁偶儌	-5009
▁仢傠佋	-5010
▁俕兹仇	-5011
▁仛亣亳	-5012
▁以仚亡	-5013
▁仔仧	-5014
侻偗亳	-5015
▁亃伧	-5016
▁亵仚	-5017
▁仔侕佯	-5018
▁亜亃傼	-5019
▁佋偩井仓	-5020
▁亽仇伫伓冇	-5021
俺仌	-5022
▁亜仚	-5023
▁亖亰亯伪亶	-5024
▁侏佀	-5025
▁伍作仧亡	-5026
傒亡	-5027
://	-5028
▁偞倷	-5029
仗亾伻	-5030
▁佋伥冱	-5031
▁亖伸	-5032
▁亽友	-5033
▁亓佋仩	-5034
▁亽俵亃	-5035
▁伓佶亃	-5036
▁亍偶仲仓	-5037
侪亰	-5038
▁俆伙亱	-5039
亃亐	-5040
▁信傌	-5041
▁倄仿	-5042
▁亖佀	-5043
▁匩	-5044
▁令冤仞二	-5045
▁仍匀	-5046
▁似价	-5047
▁倲亰	-5048
▁亻凰	-5049
▁伹伶	-5050
代傼	-5051
偟亳	-5052
亚僟	-5053
▁凨	-5054
▁亯仦	-5055
▁亽俑	-5056
▁傍	-5057
▁亂代亚	-5058
▁俆仓俰仇	-5059
▁剩	-5060
倅亦	-5061
來仅余	-5062
▁亓仍亐	-5063
▁亓佋事	-5064
▁1947	-5065
亏仌	-5066
▁亓伊仹亥亚	-5067
ug	-5068
▁令刉	-5069
▁任参	-5070
▁偕予争仳	-5071
ace	-5072
▁仈佧	-5073
▁伒仇	-5074
亱亂	-5075
▁亊佋勳	-5076
▁亜仚亃仦	-5077
▁仐介伕亥	-5078
▁侺仌亊伹	-5079
▁以嚢	-5080
▁仢哙前	-5081
▁仛事位俫佳	-5082
▁勉	-5083
▁予仇	-5084
▁仙佧	-5085
▁吓	-5086
▁以亡仄仓	-5087
▁信任亾付	-5088
▁侁傅	-5089
▁促仞	-5090
▁传休侐	-5091
▁1991	-5092
▁亂唻佀佤亭	-5093
亓伎	-5094
▁仐仠	-5095
▁俑冨	-5096
ical	-5097
亢仅	-5098
佤侑	-5099
▁们傁	-5100
▁侧厎	-5101
二保二	-5102
▁佧	-5103
▁佗伊	-5104
▁仔亂争仍	-5105
▁亇予侎优众予	-5106
▁倎侻唽佤二企	-5107
▁俁	-5108
▁予侗	-5109
▁亐亂	-5110
▁予俀倣亞	-5111
▁介佤仅亥	-5112
亶亚	-5113
▁伸偺	-5114
亃亨	-5115
nt	-5116
▁仁俠	-5117
▁仛任亾俷亳	-5118
事侐	-5119
▁亖于	-5120
▁俆侤	-5121
▁公兵	-5122
▁俙亶亾	-5123
38	-5124
▁亚包	-5125
▁但冁佈	-5126
位偧	-5127
兙亚什	-5128
仑仦	-5129
▁佋享	-5130
亜仅亰	-5131
▁亩侻仓	-5132
76	-5133
▁呬	-5134
二亢	-5135
▁伥亰亵	-5136
佝伭	-5137
▁亖伳俎俣什	-5138
▁二侗	-5139
▁亻从亊傿	-5140
亥事	-5141
,.	-5142
予井	-5143
倿亹	-5144
▁信任俄	-5145
佤亰	-5146
▁偕仌仅亰	-5147
▁亖亰伌佯	-5148
▁仌侮仞二	-5149
▁伸哎	-5150
▁凗	-5151
亢佉	-5152
▁亽伎代	-5153
▁仌二亡仓	-5154
來仄	-5155
▁仮亏	-5156
▁亢佌仄	-5157
▁仙俔仧亡	-5158
44	-5159
亻从	-5160
▁亽予刑	-5161
▁仙亜倔亜	-5162
▁凛	-5163
争亥	-5164
▁亖叙	-5165
▁伸仅伙	-5166
仌偉亚什	-5167
▁仸亃予倸二	-5168
▁予仳	-5169
▁亖伭亶	-5170
▁仍佄仼	-5171
亷代亡	-5172
佚倘仪	-5173
▁亇予仦	-5174
便二	-5175
▁亖冯	-5176
▁伒代	-5177
▁亚伟匚	-5178
▁仯亯亼仂	-5179
▁令勚	-5180
▁仐佋卂	-5181
▁仔事喋仓	-5182
俤井	-5183
▁保倾	-5184
▁侎仍倩亜	-5185
dis	-5186
仒仅	-5187
佅仇	-5188
亞佼亰	-5189
侲佼	-5190
ial	-5191
▁亊仦	-5192
ong	-5193
▁以伧	-5194
▁亵傛	-5195
▁佭仂	-5196
▁侚仅	-5197
▁188	-5198
▁亖偂佄	-5199
▁佒凭亡	-5200
▁冐侻亭	-5201
▁仢哙债	-5202
▁侁価亶	-5203
▁伢仌二	-5204
▁亥伻	-5205
▁以勂	-5206
▁亽併俌	-5207
▁伸伶亰	-5208
so	-5209
亅了	-5210
儃儃	-5211
俢仌侤	-5212
▁亢冱予	-5213
來予	-5214
俜亡	-5215
偘余	-5216
▁仼價	-5217
▁侣亃	-5218
▁侺剢仓	-5219
▁亓佷	-5220
play	-5221
▁亓亩仧亣从	-5222
代亼	-5223
▁亖仌亂俉仓	-5224
仚亳	-5225
▁仯冒	-5226
▁予仅予	-5227
▁亖佧伜仂	-5228
code	-5229
▁仛倳	-5230
▁仢冥	-5231
▁侞仒	-5232
佫亳	-5233
傦仅	-5234
▁亯侍仞二	-5235
亍個	-5236
▁伒亐	-5237
▁亽事	-5238
▁亍伸代	-5239
▁俢呰	-5240
▁代俉匌	-5241
ie	-5242
亃企	-5243
兂二	-5244
▁予代	-5245
▁仼亣仳	-5246
▁介争亜偖债亥亚	-5247
▁佚勞	-5248
▁侏佌侻	-5249
▁亜交	-5250
▁仔仲亚	-5251
▁伍伙从	-5252
侳俐	-5253
▁佋佉	-5254
▁倲低二	-5255
▁伱伭予企	-5256
仠企	-5257
▁亚儈伥	-5258
伋亳	-5259
▁仅勊	-5260
▁傋亜亂仭	-5261
▁佺亱	-5262
▁俀亙	-5263
▁侁伸亮	-5264
亢亱	-5265
亾俷	-5266
▁传冷	-5267
▁亃亮亶	-5268
▁亃倌	-5269
ther	-5270
▁仐俉仑亃儴亥亰	-5271
▁佹	-5272
▁仔于佄	-5273
▁仔产亃	-5274
▁佒亂	-5275
▁侏亏	-5276
▁僜侻	-5277
▁俆亱作仇	-5278
佨仌	-5279
亶仅亰	-5280
▁亣令伜	-5281
49	-5282
▁厳	-5283
▁亽兌	-5284
▁佀佧	-5285
▁仌二亃倷	-5286
▁伙事予俍	-5287
▁唖	-5288
享伊	-5289
▁	-5290
.	-5291
仅	-5292
亥	-5293
,	-5294
二	-5295
予	-5296
亚	-5297
亡	-5298
仇	-5299
仌	-5300
争	-5301
亃	-5302
仓	-5303
亖	-5304
亜	-5305
仦	-5306
什	-5307
佋	-5308
伭	-5309
亣	-5310
亓	-5311
亶	-5312
亾	-5313
仐	-5314
1	-5315
亵	-5316
亽	-5317
亢	-5318
仢	-5319
亂	-5320
亰	-5321
佳	-5322
亮	-5323
事	-5324
仿	-5325
仔	-5326
亩	-5327
0	-5328
俷	-5329
亳	-5330
伊	-5331
代	-5332
伸	-5333
亍	-5334
令	-5335
亏	-5336
位	-5337
佅	-5338
仍	-5339
俉	-5340
亭	-5341
仛	-5342
亲	-5343
仚	-5344
亯	-5345
仂	-5346
仞	-5347
伙	-5348
仠	-5349
亊	-5350
产	-5351
5	-5352
侻	-5353
亱	-5354
亐	-5355
仈	-5356
2	-5357
佚	-5358
仪	-5359
仼	-5360
偙	-5361
e	-5362
但	-5363
任	-5364
仳	-5365
佌	-5366
众	-5367
a	-5368
以	-5369
互	-5370
亞	-5371
仧	-5372
佼	-5373
付	-5374
仄	-5375
伻	-5376
余	-5377
仯	-5378
伹	-5379
介	-5380
伥	-5381
亼	-5382
亇	-5383
t	-5384
享	-5385
仙	-5386
i	-5387
传	-5388
俢	-5389
侺	-5390
侨	-5391
9	-5392
佧	-5393
估	-5394
伟	-5395
n	-5396
佤	-5397
侏	-5398
伓	-5399
伡	-5400
企	-5401
从	-5402
o	-5403
伫	-5404
佃	-5405
來	-5406
r	-5407
偖	-5408
佗	-5409
亻	-5410
亙	-5411
3	-5412
s	-5413
保	-5414
-	-5415
佸	-5416
仩	-5417
交	-5418
伎	-5419
4	-5420
侍	-5421
傢	-5422
7	-5423
8	-5424
佒	-5425
侎	-5426
信	-5427
佭	-5428
优	-5429
6	-5430
仲	-5431
侐	-5432
伕	-5433
似	-5434
仭	-5435
了	-5436
仹	-5437
佈	-5438
俑	-5439
倦	-5440
亠	-5441
偿	-5442
倎	-5443
"	-5444
俆	-5445
仒	-5446
俶	-5447
佲	-5448
佶	-5449
于	-5450
個	-5451
伿	-5452
会	-5453
倲	-5454
l	-5455
傜	-5456
h	-5457
亷	-5458
偉	-5459
伌	-5460
佰	-5461
倠	-5462
倩	-5463
伱	-5464
侒	-5465
伜	-5466
:	-5467
伢	-5468
侚	-5469
d	-5470
傘	-5471
傠	-5472
倐	-5473
傲	-5474
侕	-5475
伤	-5476
俵	-5477
俌	-5478
偩	-5479
侞	-5480
伋	-5481
佝	-5482
侹	-5483
傒	-5484
倏	-5485
停	-5486
仗	-5487
伖	-5488
c	-5489
佨	-5490
些	-5491
侳	-5492
u	-5493
仰	-5494
伶	-5495
俱	-5496
偕	-5497
伅	-5498
偏	-5499
倇	-5500
俬	-5501
住	-5502
侧	-5503
例	-5504
俰	-5505
件	-5506
伦	-5507
伪	-5508
俜	-5509
m	-5510
偞	-5511
俺	-5512
佛	-5513
亘	-5514
傷	-5515
倘	-5516
仑	-5517
俪	-5518
伈	-5519
俎	-5520
债	-5521
俗	-5522
伳	-5523
偂	-5524
仉	-5525
p	-5526
佉	-5527
们	-5528
俅	-5529
/	-5530
伍	-5531
佡	-5532
偝	-5533
佀	-5534
俠	-5535
偁	-5536
倂	-5537
亨	-5538
佄	-5539
亝	-5540
侑	-5541
仮	-5542
偘	-5543
倡	-5544
仕	-5545
休	-5546
仸	-5547
傸	-5548
倨	-5549
亅	-5550
偶	-5551
傳	-5552
伀	-5553
倣	-5554
倌	-5555
俣	-5556
伒	-5557
傫	-5558
冂	-5559
偗	-5560
仁	-5561
傥	-5562
伧	-5563
f	-5564
傿	-5565
傻	-5566
僓	-5567
g	-5568
俙	-5569
侮	-5570
催	-5571
冓	-5572
傂	-5573
俤	-5574
僻	-5575
俄	-5576
亴	-5577
偀	-5578
今	-5579
低	-5580
候	-5581
俖	-5582
倫	-5583
侁	-5584
井	-5585
佫	-5586
借	-5587
傼	-5588
亸	-5589
僁	-5590
凁	-5591
侬	-5592
俔	-5593
侭	-5594
y	-5595
;	-5596
傱	-5597
倭	-5598
傋	-5599
作	-5600
伬	-5601
俈	-5602
倪	-5603
俲	-5604
b	-5605
倚	-5606
僆	-5607
'	-5608
做	-5609
侣	-5610
僇	-5611
侵	-5612
俐	-5613
倿	-5614
侟	-5615
倷	-5616
仆	-5617
傶	-5618
佢	-5619
偾	-5620
六	-5621
俊	-5622
俍	-5623
佇	-5624
傯	-5625
w	-5626
依	-5627
侤	-5628
俀	-5629
佂	-5630
傕	-5631
俴	-5632
僂	-5633
偆	-5634
僉	-5635
俥	-5636
儢	-5637
値	-5638
傞	-5639
俒	-5640
傖	-5641
倃	-5642
傔	-5643
仵	-5644
債	-5645
傆	-5646
傛	-5647
偱	-5648
仏	-5649
俹	-5650
傤	-5651
仜	-5652
偧	-5653
亹	-5654
僃	-5655
們	-5656
伉	-5657
像	-5658
倈	-5659
僯	-5660
僺	-5661
係	-5662
俇	-5663
偎	-5664
佪	-5665
儊	-5666
傦	-5667
冰	-5668
偰	-5669
佯	-5670
v	-5671
哏	-5672
倢	-5673
你	-5674
僬	-5675
伃	-5676
)	-5677
俁	-5678
伣	-5679
A	-5680
僎	-5681
亪	-5682
僀	-5683
佁	-5684
伨	-5685
佥	-5686
侰	-5687
僩	-5688
伵	-5689
傭	-5690
傟	-5691
S	-5692
僑	-5693
凍	-5694
k	-5695
佺	-5696
倮	-5697
傾	-5698
儈	-5699
价	-5700
俯	-5701
僟	-5702
傹	-5703
亦	-5704
偒	-5705
侫	-5706
傰	-5707
僅	-5708
僜	-5709
僝	-5710
僌	-5711
凊	-5712
仃	-5713
俕	-5714
刭	-5715
兙	-5716
僈	-5717
伷	-5718
偔	-5719
C	-5720
俫	-5721
儶	-5722
儆	-5723
偨	-5724
储	-5725
僊	-5726
他	-5727
傌	-5728
僵	-5729
冿	-5730
吁	-5731
僄	-5732
侦	-5733
侀	-5734
侙	-5735
体	-5736
佷	-5737
侴	-5738
I	-5739
傪	-5740
偈	-5741
伇	-5742
侔	-5743
M	-5744
冎	-5745
%	-5746
佻	-5747
兵	-5748
T	-5749
傓	-5750
伂	-5751
党	-5752
傩	-5753
傴	-5754
伮	-5755
傐	-5756
冢	-5757
僋	-5758
傗	-5759
兩	-5760
凭	-5761
伛	-5762
傺	-5763
冟	-5764
傧	-5765
傝	-5766
(	-5767
俦	-5768
几	-5769
促	-5770
倬	-5771
儖	-5772
凓	-5773
侸	-5774
僾	-5775
伝	-5776
偼	-5777
凈	-5778
募	-5779
傚	-5780
冾	-5781
傡	-5782
冐	-5783
僐	-5784
倽	-5785
傣	-5786
儮	-5787
!	-5788
働	-5789
倥	-5790
儵	-5791
冯	-5792
兂	-5793
冸	-5794
侂	-5795
侗	-5796
側	-5797
P	-5798
傏	-5799
偢	-5800
净	-5801
匣	-5802
侜	-5803
儃	-5804
|	-5805
刻	-5806
儗	-5807
偣	-5808
兟	-5809
兝	-5810
何	-5811
儯	-5812
剢	-5813
剜	-5814
兎	-5815
僰	-5816
冲	-5817
儂	-5818
儤	-5819
俩	-5820
俿	-5821
D	-5822
侲	-5823
俓	-5824
偷	-5825
俭	-5826
亿	-5827
入	-5828
B	-5829
倔	-5830
兼	-5831
兤	-5832
偍	-5833
儱	-5834
准	-5835
倗	-5836
冷	-5837
僠	-5838
冨	-5839
=	-5840
咠	-5841
儴	-5842
倀	-5843
刣	-5844
兾	-5845
僷	-5846
劼	-5847
便	-5848
充	-5849
傍	-5850
儍	-5851
刋	-5852
冪	-5853
僧	-5854
前	-5855
儲	-5856
匉	-5857
份	-5858
侪	-5859
円	-5860
劽	-5861
咄	-5862
倳	-5863
僮	-5864
凼	-5865
傽	-5866
儠	-5867
N	-5868
併	-5869
偑	-5870
儨	-5871
儿	-5872
?	-5873
E	-5874
俸	-5875
刄	-5876
劇	-5877
克	-5878
僙	-5879
冦	-5880
倸	-5881
俋	-5882
叼	-5883
儜	-5884
勝	-5885
傁	-5886
咭	-5887
刌	-5888
儼	-5889
俼	-5890
僢	-5891
偟	-5892
叟	-5893
冄	-5894
俛	-5895
值	-5896
卂	-5897
倄	-5898
R	-5899
修	-5900
匯	-5901
H	-5902
冝	-5903
云	-5904
儅	-5905
U	-5906
叀	-5907
勼	-5908
僽	-5909
傉	-5910
優	-5911
償	-5912
佴	-5913
僤	-5914
僥	-5915
侉	-5916
切	-5917
俘	-5918
劊	-5919
侌	-5920
兜	-5921
涊	-5922
儡	-5923
公	-5924
兊	-5925
厾	-5926
卨	-5927
僼	-5928
冤	-5929
L	-5930
冱	-5931
倒	-5932
共	-5933
勚	-5934
刅	-5935
厲	-5936
x	-5937
剑	-5938
剥	-5939
册	-5940
F	-5941
咁	-5942
兕	-5943
刜	-5944
儕	-5945
區	-5946
八	-5947
刾	-5948
兆	-5949
匰	-5950
农	-5951
偺	-5952
刔	-5953
凰	-5954
冣	-5955
偓	-5956
O	-5957
W	-5958
倹	-5959
匑	-5960
单	-5961
亗	-5962
啁	-5963
俏	-5964
傇	-5965
剹	-5966
儑	-5967
凂	-5968
價	-5969
刲	-5970
僔	-5971
僘	-5972
冮	-5973
先	-5974
G	-5975
傮	-5976
养	-5977
刢	-5978
凶	-5979
兡	-5980
億	-5981
偅	-5982
儫	-5983
伴	-5984
勮	-5985
勺	-5986
僫	-5987
凚	-5988
儺	-5989
勨	-5990
剤	-5991
叧	-5992
侶	-5993
偊	-5994
倞	-5995
勦	-5996
偄	-5997
V	-5998
佘	-5999
叢	-6000
凹	-6001
兪	-6002
侢	-6003
匋	-6004
创	-6005
儰	-6006
到	-6007
倓	-6008
卅	-6009
j	-6010
倝	-6011
凿	-6012
卫	-6013
偭	-6014
俞	-6015
列	-6016
剻	-6017
偛	-6018
偯	-6019
圫	-6020
傊	-6021
価	-6022
儥	-6023
南	-6024
冇	-6025
凷	-6026
匐	-6027
剉	-6028
仫	-6029
劏	-6030
勷	-6031
咯	-6032
僒	-6033
凋	-6034
冞	-6035
匎	-6036
函	-6037
则	-6038
兹	-6039
冶	-6040
冺	-6041
匴	-6042
啖	-6043
K	-6044
傅	-6045
刖	-6046
勴	-6047
冁	-6048
}	-6049
冠	-6050
凮	-6051
啀	-6052
冕	-6053
冘	-6054
勸	-6055
兖	-6056
凗	-6057
劷	-6058
兰	-6059
剦	-6060
内	-6061
剀	-6062
剺	-6063
哙	-6064
偬	-6065
占	-6066
厄	-6067
俾	-6068
侯	-6069
倛	-6070
{	-6071
劄	-6072
剋	-6073
凅	-6074
卣	-6075
凄	-6076
噃	-6077
卲	-6078
勵	-6079
伏	-6080
勇	-6081
匌	-6082
_	-6083
厹	-6084
兯	-6085
冫	-6086
呮	-6087
佑	-6088
傑	-6089
呜	-6090
刦	-6091
冈	-6092
刃	-6093
匛	-6094
吊	-6095
吾	-6096
冧	-6097
僣	-6098
剨	-6099
啓	-6100
儭	-6101
呕	-6102
匵	-6103
剩	-6104
刐	-6105
关	-6106
剼	-6107
允	-6108
倾	-6109
唖	-6110
利	-6111
刏	-6112
仴	-6113
儾	-6114
偮	-6115
倵	-6116
刊	-6117
兑	-6118
刺	-6119
划	-6120
儀	-6121
儐	-6122
內	-6123
坷	-6124
佦	-6125
全	-6126
凧	-6127
偡	-6128
勆	-6129
凉	-6130
其	-6131
博	-6132
偽	-6133
倅	-6134
剸	-6135
兽	-6136
剰	-6137
咪	-6138
办	-6139
伆	-6140
刉	-6141
儘	-6142
叁	-6143
叱	-6144
刡	-6145
卪	-6146
刂	-6147
仡	-6148
啃	-6149
倍	-6150
凣	-6151
咰	-6152
儏	-6153
傃	-6154
厳	-6155
凴	-6156
俚	-6157
勘	-6158
元	-6159
僳	-6160
佐	-6161
勎	-6162
呬	-6163
俳	-6164
匦	-6165
偐	-6166
凝	-6167
喋	-6168
县	-6169
偋	-6170
勡	-6171
兒	-6172
卧	-6173
凲	-6174
勑	-6175
勯	-6176
傈	-6177
呰	-6178
倰	-6179
倉	-6180
冚	-6181
卡	-6182
劈	-6183
嗼	-6184
初	-6185
冀	-6186
变	-6187
仺	-6188
z	-6189
合	-6190
兌	-6191
匍	-6192
凵	-6193
匮	-6194
佊	-6195
啈	-6196
剶	-6197
僦	-6198
&	-6199
倊	-6200
佞	-6201
呺	-6202
况	-6203
冼	-6204
卋	-6205
冃	-6206
喳	-6207
厔	-6208
凘	-6209
功	-6210
卩	-6211
假	-6212
吺	-6213
勀	-6214
刽	-6215
剝	-6216
儇	-6217
勰	-6218
减	-6219
卤	-6220
凢	-6221
哳	-6222
偤	-6223
制	-6224
化	-6225
五	-6226
唗	-6227
凒	-6228
剐	-6229
啘	-6230
啵	-6231
匃	-6232
唸	-6233
J	-6234
勿	-6235
倖	-6236
各	-6237
佟	-6238
匞	-6239
卬	-6240
兓	-6241
侄	-6242
勉	-6243
刘	-6244
僴	-6245
劌	-6246
兀	-6247
冗	-6248
侇	-6249
嚵	-6250
伩	-6251
q	-6252
佣	-6253
删	-6254
\	-6255
侊	-6256
吴	-6257
凇	-6258
匕	-6259
剈	-6260
光	-6261
啠	-6262
倴	-6263
冽	-6264
剖	-6265
奯	-6266
口	-6267
剮	-6268
儛	-6269
呝	-6270
剃	-6271
刷	-6272
儸	-6273
唤	-6274
婨	-6275
僡	-6276
儌	-6277
刼	-6278
叺	-6279
唻	-6280
军	-6281
凑	-6282
剟	-6283
傄	-6284
+	-6285
厶	-6286
侽	-6287
句	-6288
兘	-6289
冒	-6290
劓	-6291
伯	-6292
厬	-6293
匂	-6294
儳	-6295
典	-6296
厁	-6297
厕	-6298
儣	-6299
卥	-6300
勲	-6301
唜	-6302
剽	-6303
厖	-6304
僕	-6305
免	-6306
勞	-6307
呎	-6308
X	-6309
儁	-6310
匝	-6311
咱	-6312
匚	-6313
匒	-6314
兗	-6315
凸	-6316
凪	-6317
势	-6318
噄	-6319
勋	-6320
勜	-6321
劘	-6322
厐	-6323
凫	-6324
叴	-6325
勗	-6326
侅	-6327
凬	-6328
儽	-6329
吪	-6330
儔	-6331
僸	-6332
吏	-6333
厉	-6334
倱	-6335
唽	-6336
凜	-6337
呀	-6338
吩	-6339
咉	-6340
兺	-6341
哵	-6342
兮	-6343
哒	-6344
凱	-6345
召	-6346
剘	-6347
刯	-6348
冡	-6349
$	-6350
咨	-6351
卺	-6352
佮	-6353
吅	-6354
匪	-6355
厍	-6356
圀	-6357
叄	-6358
吗	-6359
嚺	-6360
厒	-6361
哨	-6362
叏	-6363
勍	-6364
凛	-6365
兲	-6366
俟	-6367
劾	-6368
刹	-6369
剄	-6370
喂	-6371
唔	-6372
台	-6373
劕	-6374
古	-6375
僪	-6376
喲	-6377
偪	-6378
倻	-6379
儦	-6380
勊	-6381
嗀	-6382
伽	-6383
劎	-6384
儹	-6385
冴	-6386
僗	-6387
剙	-6388
創	-6389
使	-6390
圤	-6391
卾	-6392
兛	-6393
名	-6394
吮	-6395
僚	-6396
厮	-6397
咍	-6398
后	-6399
咴	-6400
壯	-6401
咲	-6402
坶	-6403
吓	-6404
則	-6405
卑	-6406
包	-6407
刕	-6408
仾	-6409
哧	-6410
備	-6411
嘾	-6412
嚅	-6413
唉	-6414
*	-6415
儙	-6416
冖	-6417
务	-6418
匏	-6419
吚	-6420
啾	-6421
哮	-6422
卮	-6423
哶	-6424
厎	-6425
卯	-6426
咆	-6427
勃	-6428
偸	-6429
剬	-6430
勠	-6431
匤	-6432
厤	-6433
友	-6434
哤	-6435
壛	-6436
勖	-6437
哎	-6438
卓	-6439
匀	-6440
侱	-6441
勣	-6442
喱	-6443
供	-6444
呓	-6445
冭	-6446
卻	-6447
喙	-6448
嚢	-6449
刎	-6450
卛	-6451
吧	-6452
冥	-6453
匔	-6454
唋	-6455
副	-6456
伺	-6457
反	-6458
]	-6459
卿	-6460
割	-6461
侷	-6462
唛	-6463
哴	-6464
佖	-6465
唰	-6466
匡	-6467
唠	-6468
垗	-6469
唼	-6470
佹	-6471
嗹	-6472
叩	-6473
匟	-6474
剾	-6475
呧	-6476
哾	-6477
华	-6478
刑	-6479
儷	-6480
匩	-6481
厊	-6482
勂	-6483
噥	-6484
墼	-6485
咫	-6486
堧	-6487
呩	-6488
Y	-6489
劧	-6490
埕	-6491
唳	-6492
凨	-6493
婃	-6494
叙	-6495
勳	-6496
仱	-6497
匁	-6498
卌	-6499
啫	-6500
僱	-6501
兴	-6502
参	-6503
千	-6504
參	-6505
健	-6506
出	-6507
响	-6508
伲	-6509
偵	-6510
埡	-6511
塌	-6512
圇	-6513
哿	-6514
勪	-6515
夑	-6516
喾	-6517
呱	-6518
倆	-6519
喅	-6520
夕	-6521
勧	-6522
凾	-6523
吐	-6524
咛	-6525
含	-6526
听	-6527
助	-6528
咔	-6529
倶	-6530
凔	-6531
収	-6532
吤	-6533
喎	-6534
喚	-6535
僭	-6536
厭	-6537
咾	-6538
唙	-6539
叭	-6540
僨	-6541
冬	-6542
兔	-6543
人	-6544
又	-6545
噩	-6546
垜	-6547
圹	-6548
匇	-6549
卉	-6550
吞	-6551
努	-6552
呟	-6553
偹	-6554
叉	-6555
呒	-6556
坉	-6557
分	-6558
匫	-6559
冏	-6560
厌	-6561
哖	-6562
圽	-6563
在	-6564
哼	-6565
圄	-6566
哂	-6567
嘿	-6568
哑	-6569
呏	-6570
喝	-6571
呼	-6572
呁	-6573
呦	-6574
嘤	-6575
僖	-6576
哃	-6577
僞	-6578
唚	-6579
喽	-6580
唢	-6581
啒	-6582
勁	-6583
垔	-6584
啡	-6585
劬	-6586
凃	-6587
卹	-6588
厱	-6589
咧	-6590
印	-6591
卒	-6592
刞	-6593
剣	-6594
哌	-6595
匷	-6596
剷	-6597
傀	-6598
堿	-6599
偲	-6600
唯	-6601
劯	-6602
厸	-6603
夤	-6604
塐	-6605
唫	-6606
劒	-6607
勻	-6608
嘌	-6609
圓	-6610
咮	-6611
傎	-6612
噡	-6613
哅	-6614
哫	-6615
吖	-6616
圗	-6617
堛	-6618
奥	-6619
匳	-6620
嘕	-6621
刳	-6622
嗿	-6623
京	-6624
噉	-6625
卄	-6626
嗐	-6627
啞	-6628
命	-6629
啣	-6630
協	-6631
劂	-6632
凤	-6633
嗋	-6634
夫	-6635
叡	-6636
哓	-6637
厦	-6638
咀	-6639
凟	-6640
同	-6641
厴	-6642
圪	-6643
塏	-6644
吲	-6645
啥	-6646
卽	-6647
哹	-6648
堇	-6649
堷	-6650
喐	-6651
壘	-6652
即	-6653
哰	-6654
伞	-6655
啍	-6656
卍	-6657
啳	-6658
圢	-6659
偃	-6660
処	-6661
司	-6662
匢	-6663
吠	-6664
啮	-6665
哆	-6666
商	-6667
嗗	-6668
匄	-6669
呹	-6670
喨	-6671
兠	-6672
僿	-6673
吼	-6674
厇	-6675
嘍	-6676
厡	-6677
厺	-6678
圆	-6679
垚	-6680
刧	-6681
刴	-6682
剭	-6683
啩	-6684
圡	-6685
兇	-6686
哽	-6687
凙	-6688
勔	-6689
妠	-6690
噗	-6691
啗	-6692
嚜	-6693
唍	-6694
侃	-6695
券	-6696
吜	-6697
压	-6698
哞	-6699
唬	-6700
剆	-6701
侩	-6702
呾	-6703
妄	-6704
呖	-6705
叽	-6706
Q	-6707
啜	-6708
吰	-6709
厗	-6710
别	-6711
唺	-6712
劢	-6713
勽	-6714
哕	-6715
囋	-6716
哊	-6717
危	-6718
匘	-6719
启	-6720
僛	-6721
咹	-6722
偠	-6723
叆	-6724
厩	-6725
埴	-6726
具	-6727
向	-6728
僲	-6729
墶	-6730
劜	-6731
凐	-6732
圴	-6733
労	-6734
卷	-6735
偻	-6736
嚭	-6737
去	-6738
哭	-6739
侘	-6740
匱	-6741
垏	-6742
兏	-6743
嗚	-6744
奺	-6745
冋	-6746
叠	-6747
吉	-6748
刬	-6749
埽	-6750
坪	-6751
偦	-6752
圯	-6753
員	-6754
剕	-6755
匭	-6756
勓	-6757
亟	-6758
凞	-6759
媲	-6760
孊	-6761
劤	-6762
埿	-6763
噢	-6764
娇	-6765
媕	-6766
喖	-6767
刁	-6768
刈	-6769
夣	-6770
咖	-6771
塔	-6772
匓	-6773
嗠	-6774
厅	-6775
剫	-6776
卶	-6777
匊	-6778
勐	-6779
堄	-6780
啛	-6781
儚	-6782
嗾	-6783
凕	-6784
咩	-6785
墏	-6786
啙	-6787
兣	-6788
嗻	-6789
厚	-6790
塕	-6791
哱	-6792
叫	-6793
卼	-6794
啊	-6795
嘊	-6796
塤	-6797
噝	-6798
唄	-6799
坚	-6800
廲	-6801
呸	-6802
哔	-6803
膀	-6804
哬	-6805
哲	-6806
嘇	-6807
兦	-6808
咣	-6809
坣	-6810
圖	-6811
勬	-6812
唾	-6813
匙	-6814
刨	-6815
嚂	-6816
墯	-6817
佬	-6818
刵	-6819
厪	-6820
匶	-6821
勛	-6822
唪	-6823
呲	-6824
匆	-6825
動	-6826
嗖	-6827
嗙	-6828
审	-6829
娙	-6830
励	-6831
处	-6832
咶	-6833
唴	-6834
剌	-6835
勢	-6836
呞	-6837
侠	-6838
刚	-6839
勄	-6840
坵	-6841
匠	-6842
唞	-6843
咅	-6844
囎	-6845
堣	-6846
尬	-6847
哩	-6848
夨	-6849
侾	-6850
圃	-6851
善	-6852
墰	-6853
勌	-6854
勹	-6855
塁	-6856
墱	-6857
囓	-6858
壴	-6859
妦	-6860
噬	-6861
吨	-6862
唝	-6863
咇	-6864
奱	-6865
佔	-6866
劸	-6867
嚁	-6868
婞	-6869
坻	-6870
夦	-6871
厽	-6872
儎	-6873
堌	-6874
劖	-6875
伄	-6876
匹	-6877
咑	-6878
國	-6879
曀	-6880
宄	-6881
噳	-6882
坢	-6883
喜	-6884
寳	-6885
哻	-6886
坤	-6887
咚	-6888
圉	-6889
壙	-6890
尵	-6891
婕	-6892
垾	-6893
叾	-6894
凖	-6895
儝	-6896
墤	-6897
坞	-6898
啉	-6899
嚙	-6900
厰	-6901
#	-6902
嘐	-6903
判	-6904
劃	-6905
呋	-6906
劳	-6907
卭	-6908
垈	-6909
剒	-6910
夌	-6911
剁	-6912
堳	-6913
劭	-6914
嘯	-6915
^	-6916
塝	-6917
嗫	-6918
吻	-6919
啭	-6920
`	-6921
剂	-6922
劻	-6923
佩	-6924
夢	-6925
周	-6926
冩	-6927
嗊	-6928
嘅	-6929
嘦	-6930
坄	-6931
吒	-6932
倧	-6933
啚	-6934
囏	-6935
喵	-6936
嗃	-6937
噋	-6938
壖	-6939
劲	-6940
婠	-6941
崈	-6942
却	-6943
唏	-6944
嗝	-6945
堲	-6946
厵	-6947
另	-6948
勱	-6949
勩	-6950
刱	-6951
唕	-6952
侖	-6953
凥	-6954
哉	-6955
嗽	-6956
堻	-6957
劋	-6958
块	-6959
啬	-6960
圍	-6961
儻	-6962
夂	-6963
奬	-6964
孁	-6965
刀	-6966
嗷	-6967
儓	-6968
嶒	-6969
儬	-6970
圵	-6971
呻	-6972
塱	-6973
喤	-6974
坨	-6975
吕	-6976
婩	-6977
唑	-6978
嫐	-6979
宧	-6980
圷	-6981
姻	-6982
僶	-6983
喁	-6984
吳	-6985
垞	-6986
媔	-6987
咬	-6988
嗘	-6989
吶	-6990
噽	-6991
刿	-6992
呈	-6993
哷	-6994
媁	-6995
堼	-6996
得	-6997
冻	-6998
嘠	-6999
嗂	-7000
坏	-7001
唨	-7002
堈	-7003
噷	-7004
堎	-7005
斠	-7006
坦	-7007
儋	-7008
塭	-7009
圞	-7010
孷	-7011
墊	-7012
宊	-7013
塪	-7014
婥	-7015
墑	-7016
俧	-7017
医	-7018
堍	-7019
嚑	-7020
嗅	-7021
嚌	-7022
咟	-7023
單	-7024
嚹	-7025
垠	-7026
噅	-7027
劣	-7028
唿	-7029
圳	-7030
囱	-7031
伔	-7032
吱	-7033
噧	-7034
堝	-7035
刓	-7036
墲	-7037
怶	-7038
佱	-7039
址	-7040
喓	-7041
剠	-7042
啯	-7043
墀	-7044
墐	-7045
啐	-7046
嗰	-7047
囫	-7048
嗛	-7049
好	-7050
坝	-7051
坽	-7052
塍	-7053
决	-7054
剎	-7055
吔	-7056
厈	-7057
壡	-7058
嬮	-7059
坯	-7060
児	-7061
堤	-7062
妾	-7063
嘙	-7064
嗮	-7065
式	-7066
嘪	-7067
嚴	-7068
厛	-7069
嫑	-7070
劆	-7071
嘰	-7072
埑	-7073
噛	-7074
坱	-7075
庚	-7076
噂	-7077
岋	-7078
嚠	-7079
>	-7080
壦	-7081
嚱	-7082
妍	-7083
吃	-7084
垐	-7085
岖	-7086
啄	-7087
屃	-7088
唌	-7089
垆	-7090
堺	-7091
侈	-7092
厯	-7093
噏	-7094
嚿	-7095
剅	-7096
喺	-7097
叅	-7098
嗴	-7099
俻	-7100
埰	-7101
剳	-7102
坿	-7103
忨	-7104
伐	-7105
娾	-7106
墋	-7107
屇	-7108
媍	-7109
柝	-7110
厼	-7111
夽	-7112
埲	-7113
婴	-7114
宩	-7115
偳	-7116
啲	-7117
嫄	-7118
嬓	-7119
啔	-7120
奸	-7121
削	-7122
劗	-7123
嚎	-7124
実	-7125
噌	-7126
墚	-7127
姰	-7128
仟	-7129
喌	-7130
尞	-7131
堁	-7132
夳	-7133
啧	-7134
嘚	-7135
姯	-7136
壩	-7137
厝	-7138
嘥	-7139
少	-7140
品	-7141
嚪	-7142
培	-7143
奷	-7144
凯	-7145
哸	-7146
墔	-7147
尙	-7148
喫	-7149
囬	-7150
寮	-7151
抾	-7152
妓	-7153
姸	-7154
岵	-7155
劉	-7156
噇	-7157
呇	-7158
@	-7159
力	-7160
啇	-7161
圠	-7162
城	-7163
俨	-7164
喴	-7165
子	-7166
咙	-7167
嚐	-7168
哚	-7169
婟	-7170
圱	-7171
唎	-7172
尿	-7173
憀	-7174
別	-7175
娬	-7176
头	-7177
墛	-7178
剞	-7179
圊	-7180
刟	-7181
偫	-7182
嗄	-7183
奦	-7184
劺	-7185
呄	-7186
坠	-7187
厏	-7188
娪	-7189
嚫	-7190
嵹	-7191
吀	-7192
咼	-7193
呌	-7194
夝	-7195
啦	-7196
埼	-7197
尢	-7198
劔	-7199
唥	-7200
壐	-7201
砪	-7202
嚗	-7203
凩	-7204
妔	-7205
孴	-7206
噆	-7207
咃	-7208
加	-7209
哜	-7210
恥	-7211
垉	-7212
姇	-7213
澰	-7214
哗	-7215
售	-7216
嗸	-7217
崠	-7218
再	-7219
噍	-7220
兞	-7221
呪	-7222
嚋	-7223
嗦	-7224
劁	-7225
娺	-7226
唊	-7227
囍	-7228
倁	-7229
喪	-7230
岜	-7231
剏	-7232
匥	-7233
喗	-7234
埵	-7235
埶	-7236
嬢	-7237
噶	-7238
必	-7239
墻	-7240
婌	-7241
喘	-7242
兄	-7243
壌	-7244
吆	-7245
园	-7246
妨	-7247
妢	-7248
墓	-7249
囊	-7250
妉	-7251
妌	-7252
噙	-7253
唅	-7254
啨	-7255
嫡	-7256
寝	-7257
哺	-7258
媒	-7259
囿	-7260
堬	-7261
屆	-7262
呿	-7263
帆	-7264
域	-7265
劝	-7266
壿	-7267
妴	-7268
囇	-7269
奀	-7270
媅	-7271
孌	-7272
揿	-7273
孪	-7274
嘽	-7275
墟	-7276
崴	-7277
堾	-7278
婸	-7279
伾	-7280
崡	-7281
喭	-7282
埻	-7283
嘴	-7284
契	-7285
巭	-7286
帧	-7287
和	-7288
嚚	-7289
征	-7290
埥	-7291
嚓	-7292
垽	-7293
嫆	-7294
唐	-7295
忯	-7296
右	-7297
嘑	-7298
囩	-7299
填	-7300
媡	-7301
府	-7302
冑	-7303
喩	-7304
墝	-7305
婘	-7306
腳	-7307
匽	-7308
垢	-7309
囉	-7310
尴	-7311
儒	-7312
咞	-7313
壤	-7314
倯	-7315
慠	-7316
亄	-7317
奪	-7318
嵆	-7319
坮	-7320
呍	-7321
劵	-7322
叛	-7323
咒	-7324
媌	-7325
告	-7326
問	-7327
埛	-7328
喹	-7329
垝	-7330
妤	-7331
奋	-7332
唡	-7333
嗌	-7334
兢	-7335
君	-7336
坛	-7337
埙	-7338
孫	-7339
儉	-7340
匸	-7341
哛	-7342
唒	-7343
噿	-7344
奴	-7345
嵿	-7346
吇	-7347
哟	-7348
奝	-7349
孞	-7350
嫿	-7351
匬	-7352
妥	-7353
史	-7354
嗩	-7355
圬	-7356
岅	-7357
仝	-7358
圿	-7359
劑	-7360
厀	-7361
始	-7362
媾	-7363
尗	-7364
墮	-7365
峹	-7366
廖	-7367
唣	-7368
喯	-7369
妺	-7370
嗭	-7371
场	-7372
崐	-7373
奙	-7374
嗏	-7375
劚	-7376
嗞	-7377
夥	-7378
夯	-7379
墂	-7380
嵺	-7381
営	-7382
嚡	-7383
壭	-7384
妖	-7385
姁	-7386
土	-7387
坖	-7388
巗	-7389
囶	-7390
嫳	-7391
倕	-7392
嘲	-7393
夹	-7394
呫	-7395
妃	-7396
卟	-7397
哐	-7398
婔	-7399
嫒	-7400
塜	-7401
惄	-7402
敨	-7403
圭	-7404
嗤	-7405
囷	-7406
尸	-7407
岢	-7408
凌	-7409
喷	-7410
嚳	-7411
巚	-7412
哝	-7413
幏	-7414
味	-7415
坃	-7416
卐	-7417
嶟	-7418
弁	-7419
圁	-7420
夡	-7421
勫	-7422
染	-7423
娆	-7424
嬋	-7425
卦	-7426
嚝	-7427
奄	-7428
奫	-7429
寨	-7430
唇	-7431
孟	-7432
~	-7433
吥	-7434
堡	-7435
婱	-7436
奧	-7437
娩	-7438
楛	-7439
啴	-7440
塰	-7441
抆	-7442
冊	-7443
卵	-7444
圅	-7445
塖	-7446
壼	-7447
姙	-7448
囮	-7449
奤	-7450
壽	-7451
彠	-7452
垟	-7453
侓	-7454
夘	-7455
嫧	-7456
孲	-7457
寣	-7458
喏	-7459
垃	-7460
媳	-7461
尯	-7462
嶞	-7463
刪	-7464
峜	-7465
慎	-7466
婜	-7467
富	-7468
屛	-7469
嘢	-7470
噰	-7471
尻	-7472
塠	-7473
墬	-7474
对	-7475
崖	-7476
呛	-7477
嬵	-7478
彘	-7479
囻	-7480
儧	-7481
弓	-7482
噖	-7483
夗	-7484
帡	-7485
吝	-7486
唧	-7487
喼	-7488
囜	-7489
奂	-7490
孏	-7491
嘈	-7492
埆	-7493
埩	-7494
峾	-7495
冉	-7496
哈	-7497
壗	-7498
蛷	-7499
佾	-7500
姒	-7501
壮	-7502
姆	-7503
嫺	-7504
刮	-7505
喠	-7506
埞	-7507
形	-7508
戕	-7509
澨	-7510
孯	-7511
拶	-7512
坥	-7513
嫖	-7514
嬻	-7515
損	-7516
噺	-7517
媴	-7518
喃	-7519
寇	-7520
岀	-7521
噠	-7522
嬙	-7523
嚞	-7524
坈	-7525
剓	-7526
吡	-7527
嬫	-7528
可	-7529
囯	-7530
堊	-7531
塅	-7532
嬾	-7533
堙	-7534
弎	-7535
浅	-7536
峁	-7537
塉	-7538
嶑	-7539
抹	-7540
漡	-7541
劅	-7542
嘞	-7543
墷	-7544
夲	-7545
噟	-7546
娉	-7547
尛	-7548
囀	-7549
堯	-7550
岲	-7551
叜	-7552
壈	-7553
導	-7554
妮	-7555
度	-7556
弝	-7557
儞	-7558
媬	-7559
囐	-7560
囸	-7561
坼	-7562
埅	-7563
妗	-7564
墁	-7565
婓	-7566
媟	-7567
宸	-7568
奲	-7569
宐	-7570
呢	-7571
噀	-7572
嚻	-7573
嗬	-7574
喡	-7575
坸	-7576
執	-7577
帐	-7578
忒	-7579
十	-7580
器	-7581
娜	-7582
咘	-7583
垵	-7584
嫘	-7585
很	-7586
叒	-7587
孥	-7588
夛	-7589
庶	-7590
檓	-7591
刍	-7592
嬉	-7593
単	-7594
圲	-7595
士	-7596
媀	-7597
匼	-7598
妙	-7599
嵏	-7600
吷	-7601
寄	-7602
壚	-7603
凎	-7604
嗎	-7605
嫔	-7606
噕	-7607
垹	-7608
埍	-7609
屣	-7610
嚶	-7611
埘	-7612
崯	-7613
屸	-7614
巖	-7615
尽	-7616
幰	-7617
悦	-7618
基	-7619
婳	-7620
尶	-7621
坺	-7622
堪	-7623
婻	-7624
密	-7625
怩	-7626
椿	-7627
哀	-7628
均	-7629
坫	-7630
戆	-7631
剡	-7632
劥	-7633
哦	-7634
垣	-7635
媊	-7636
岶	-7637
匨	-7638
嘒	-7639
壳	-7640
姅	-7641
州	-7642
媓	-7643
巠	-7644
庩	-7645
叕	-7646
嘓	-7647
娟	-7648
寺	-7649
峐	-7650
図	-7651
媃	-7652
圮	-7653
岹	-7654
咿	-7655
宿	-7656
嘜	-7657
勅	-7658
帊	-7659
幍	-7660
嚬	-7661
堐	-7662
妕	-7663
庑	-7664
喛	-7665
姽	-7666
婈	-7667
咥	-7668
堑	-7669
履	-7670
埧	-7671
婺	-7672
嬠	-7673
孭	-7674
宜	-7675
娨	-7676
嬇	-7677
張	-7678
吭	-7679
墢	-7680
劐	-7681
嘀	-7682
嚃	-7683
嚔	-7684
娝	-7685
峰	-7686
囧	-7687
埳	-7688
姱	-7689
娦	-7690
媪	-7691
怖	-7692
嫙	-7693
嶗	-7694
氍	-7695
婊	-7696
庄	-7697
厷	-7698
呵	-7699
婇	-7700
官	-7701
恦	-7702
咸	-7703
堘	-7704
奒	-7705
媨	-7706
叶	-7707
塾	-7708
壶	-7709
嶔	-7710
墵	-7711
奏	-7712
勈	-7713
嘄	-7714
壪	-7715
孓	-7716
徔	-7717
楳	-7718
堢	-7719
多	-7720
失	-7721
妒	-7722
威	-7723
塢	-7724
媮	-7725
怽	-7726
埝	-7727
备	-7728
嫸	-7729
孺	-7730
废	-7731
擗	-7732
堖	-7733
奘	-7734
娋	-7735
寷	-7736
巿	-7737
剿	-7738
婋	-7739
揼	-7740
坎	-7741
垥	-7742
宵	-7743
昭	-7744
姝	-7745
峱	-7746
垇	-7747
[	-7748
呴	-7749
哠	-7750
啱	-7751
嬕	-7752
嬬	-7753
巯	-7754
懵	-7755
困	-7756
囹	-7757
奉	-7758
姑	-7759
宁	-7760
壅	-7761
媞	-7762
尌	-7763
嗨	-7764
媋	-7765
宔	-7766
嶥	-7767
怚	-7768
垯	-7769
够	-7770
樛	-7771
咳	-7772
唆	-7773
噴	-7774
垛	-7775
咏	-7776
囄	-7777
墳	-7778
孙	-7779
嶻	-7780
巊	-7781
巳	-7782
忑	-7783
囕	-7784
吿	-7785
嚖	-7786
埪	-7787
墡	-7788
墸	-7789
売	-7790
尤	-7791
屾	-7792
岁	-7793
姞	-7794
寞	-7795
嗥	-7796
噱	-7797
垬	-7798
岯	-7799
塄	-7800
娧	-7801
宨	-7802
埦	-7803
塚	-7804
妭	-7805
剚	-7806
劍	-7807
喟	-7808
嘮	-7809
娑	-7810
帢	-7811
怎	-7812
咢	-7813
唶	-7814
塨	-7815
外	-7816
奅	-7817
寲	-7818
愉	-7819
懼	-7820
滐	-7821
吵	-7822
埣	-7823
壇	-7824
嬎	-7825
寪	-7826
屵	-7827
帋	-7828
帵	-7829
惆	-7830
呷	-7831
圌	-7832
夷	-7833
娭	-7834
娽	-7835
揻	-7836
埓	-7837
姥	-7838
嫱	-7839
尣	-7840
崕	-7841
棽	-7842
咕	-7843
啟	-7844
囈	-7845
塮	-7846
奨	-7847
娖	-7848
寱	-7849
彁	-7850
塼	-7851
媈	-7852
庎	-7853
抻	-7854
咤	-7855
嘬	-7856
嶴	-7857
弆	-7858
往	-7859
孅	-7860
寧	-7861
巓	-7862
忁	-7863
唀	-7864
唟	-7865
弮	-7866
动	-7867
圛	-7868
坑	-7869
垊	-7870
悏	-7871
撖	-7872
匜	-7873
奆	-7874
尰	-7875
店	-7876
卙	-7877
堞	-7878
岙	-7879
恒	-7880
娴	-7881
崧	-7882
嶍	-7883
揹	-7884
坂	-7885
垖	-7886
姟	-7887
圙	-7888
妟	-7889
慬	-7890
曈	-7891
圧	-7892
墆	-7893
奟	-7894
宏	-7895
庢	-7896
恨	-7897
撟	-7898
勶	-7899
嘆	-7900
居	-7901
幨	-7902
彭	-7903
嗕	-7904
嘘	-7905
堨	-7906
嫁	-7907
嬹	-7908
廱	-7909
弜	-7910
愭	-7911
嘗	-7912
埾	-7913
孱	-7914
峵	-7915
胏	-7916
剔	-7917
寉	-7918
嵤	-7919
嶛	-7920
諷	-7921
嚦	-7922
娫	-7923
志	-7924
恄	-7925
惞	-7926
凡	-7927
卸	-7928
取	-7929
嗔	-7930
埸	-7931
堥	-7932
壋	-7933
屡	-7934
岬	-7935
忔	-7936
劰	-7937
垼	-7938
嬂	-7939
搁	-7940
羂	-7941
啅	-7942
婶	-7943
射	-7944
愂	-7945
劀	-7946
啋	-7947
圈	-7948
塓	-7949
囝	-7950
夓	-7951
宂	-7952
帬	-7953
廵	-7954
圎	-7955
婄	-7956
媯	-7957
嫃	-7958
宪	-7959
协	-7960
塆	-7961
妣	-7962
娤	-7963
婹	-7964
尨	-7965
啢	-7966
嘻	-7967
埏	-7968
墹	-7969
壄	-7970
媎	-7971
孰	-7972
吟	-7973
喇	-7974
喣	-7975
囼	-7976
坟	-7977
埐	-7978
堔	-7979
妞	-7980
妡	-7981
庡	-7982
獟	-7983
瑩	-7984
唵	-7985
堜	-7986
娅	-7987
娲	-7988
孛	-7989
尼	-7990
喈	-7991
婤	-7992
峮	-7993
懹	-7994
噜	-7995
堚	-7996
姂	-7997
尫	-7998
峼	-7999
朖	-8000
嬞	-8001
岡	-8002
崬	-8003
徿	-8004
恣	-8005
曶	-8006
槮	-8007
吙	-8008
喊	-8009
塘	-8010
奿	-8011
坡	-8012
婏	-8013
媧	-8014
嬴	-8015
孹	-8016
庽	-8017
悐	-8018
柧	-8019
塯	-8020
奵	-8021
峏	-8022
帯	-8023
幺	-8024
弥	-8025
待	-8026
挢	-8027
妇	-8028
媦	-8029
宍	-8030
岞	-8031
巙	-8032
徃	-8033
揕	-8034
楕	-8035
巡	-8036
慴	-8037
猳	-8038
哘	-8039
埨	-8040
堟	-8041
墭	-8042
嫼	-8043
崦	-8044
怷	-8045
厃	-8046
嘩	-8047
圝	-8048
墘	-8049
唦	-8050
唲	-8051
塿	-8052
婿	-8053
戞	-8054
晱	-8055
卜	-8056
峷	-8057
崩	-8058
幹	-8059
撡	-8060
嗡	-8061
坓	-8062
埜	-8063
妲	-8064
娹	-8065
嬖	-8066
岾	-8067
嶪	-8068
川	-8069
幪	-8070
弄	-8071
所	-8072
掘	-8073
卖	-8074
嗺	-8075
奎	-8076
宲	-8077
巢	-8078
徚	-8079
忢	-8080
怓	-8081
擟	-8082
欝	-8083
嫣	-8084
徏	-8085
捽	-8086
棪	-8087
匈	-8088
姃	-8089
徝	-8090
忬	-8091
怸	-8092
戠	-8093
吘	-8094
咓	-8095
堒	-8096
壵	-8097
姏	-8098
崗	-8099
惭	-8100
姠	-8101
媭	-8102
嫈	-8103
寕	-8104
屙	-8105
嶕	-8106
廞	-8107
搈	-8108
媫	-8109
嫲	-8110
嵧	-8111
憿	-8112
<	-8113
写	-8114
剪	-8115
唘	-8116
嗓	-8117
嘶	-8118
囆	-8119
塋	-8120
壟	-8121
嬿	-8122
孿	-8123
忩	-8124
惽	-8125
極	-8126
半	-8127
喕	-8128
垎	-8129
堩	-8130
嫕	-8131
嵪	-8132
应	-8133
廸	-8134
心	-8135
慮	-8136
曚	-8137
姖	-8138
娄	-8139
宗	-8140
寜	-8141
屔	-8142
年	-8143
弰	-8144
怋	-8145
愅	-8146
喬	-8147
圻	-8148
埚	-8149
妳	-8150
婛	-8151
嫝	-8152
嬊	-8153
嬐	-8154
崝	-8155
忙	-8156
悤	-8157
惍	-8158
愱	-8159
巣	-8160
幁	-8161
撜	-8162
棣	-8163
楸	-8164
号	-8165
姕	-8166
娃	-8167
寙	-8168
廝	-8169
劦	-8170
叔	-8171
垁	-8172
垑	-8173
妶	-8174
寛	-8175
幟	-8176
滘	-8177
噸	-8178
娘	-8179
嬁	-8180
孈	-8181
希	-8182
忺	-8183
竧	-8184
嘔	-8185
噲	-8186
囗	-8187
夞	-8188
嫽	-8189
嬷	-8190
巇	-8191
帍	-8192
帼	-8193
徣	-8194
忪	-8195
旜	-8196
喍	-8197
埃	-8198
塴	-8199
墺	-8200
嬒	-8201
宮	-8202
廣	-8203
忏	-8204
呯	-8205
圜	-8206
嵽	-8207
巒	-8208
庪	-8209
廠	-8210
槤	-8211
哢	-8212
坁	-8213
墴	-8214
寋	-8215
尉	-8216
尝	-8217
崳	-8218
嵣	-8219
嶈	-8220
嶡	-8221
彞	-8222
慃	-8223
慩	-8224
摾	-8225
嗶	-8226
堦	-8227
寅	-8228
崀	-8229
嶝	-8230
廉	-8231
性	-8232
扷	-8233
嚄	-8234
垻	-8235
堵	-8236
娏	-8237
媝	-8238
嫜	-8239
嬭	-8240
庤	-8241
弃	-8242
弞	-8243
彙	-8244
攍	-8245
斜	-8246
厧	-8247
嗲	-8248
園	-8249
嬯	-8250
孵	-8251
岭	-8252
幠	-8253
欫	-8254
啎	-8255
嘹	-8256
塧	-8257
壁	-8258
婢	-8259
媄	-8260
嵁	-8261
巏	-8262
廰	-8263
彇	-8264
径	-8265
怘	-8266
扠	-8267
挭	-8268
椃	-8269
倜	-8270
嘵	-8271
墦	-8272
壣	-8273
夙	-8274
妿	-8275
專	-8276
已	-8277
帩	-8278
帻	-8279
廽	-8280
慝	-8281
囃	-8282
婚	-8283
庀	-8284
徟	-8285
怦	-8286
怿	-8287
悴	-8288
悿	-8289
掶	-8290
勒	-8291
妐	-8292
媿	-8293
宝	-8294
宼	-8295
幤	-8296
恙	-8297
愷	-8298
斲	-8299
昫	-8300
晲	-8301
楱	-8302
唷	-8303
噫	-8304
垌	-8305
垿	-8306
奖	-8307
幇	-8308
彟	-8309
抃	-8310
楔	-8311
濠	-8312
熯	-8313
報	-8314
婍	-8315
孂	-8316
寗	-8317
岨	-8318
帤	-8319
復	-8320
挸	-8321
旨	-8322
嗵	-8323
壕	-8324
寂	-8325
尐	-8326
彡	-8327
彨	-8328
瀌	-8329
坐	-8330
墖	-8331
夬	-8332
孆	-8333
尊	-8334
岓	-8335
慳	-8336
摕	-8337
洈	-8338
澴	-8339
叓	-8340
咜	-8341
唹	-8342
嘸	-8343
囡	-8344
塒	-8345
带	-8346
帺	-8347
廋	-8348
恃	-8349
抶	-8350
旈	-8351
堠	-8352
奠	-8353
崿	-8354
巂	-8355
巼	-8356
忉	-8357
恆	-8358
惑	-8359
懭	-8360
喀	-8361
嚏	-8362
围	-8363
嬅	-8364
察	-8365
巸	-8366
庲	-8367
嘛	-8368
坕	-8369
奌	-8370
娸	-8371
抯	-8372
枮	-8373
嚤	-8374
坋	-8375
堏	-8376
娞	-8377
巟	-8378
弼	-8379
忱	-8380
恝	-8381
惈	-8382
擛	-8383
昀	-8384
喢	-8385
噞	-8386
团	-8387
圐	-8388
姲	-8389
巎	-8390
帟	-8391
弱	-8392
愯	-8393
抲	-8394
搲	-8395
嗉	-8396
坴	-8397
妧	-8398
姼	-8399
娼	-8400
孡	-8401
岰	-8402
崆	-8403
崻	-8404
廯	-8405
弅	-8406
怉	-8407
狎	-8408
寬	-8409
崹	-8410
帑	-8411
慰	-8412
掭	-8413
暬	-8414
厥	-8415
吣	-8416
壍	-8417
壢	-8418
姺	-8419
孖	-8420
岔	-8421
嶵	-8422
彂	-8423
怂	-8424
怏	-8425
搎	-8426
晳	-8427
坭	-8428
坲	-8429
壨	-8430
姤	-8431
寓	-8432
尋	-8433
尩	-8434
悞	-8435
披	-8436
击	-8437
咺	-8438
噼	-8439
夾	-8440
妹	-8441
嶋	-8442
惘	-8443
摥	-8444
攇	-8445
楼	-8446
历	-8447
呑	-8448
夒	-8449
夠	-8450
娯	-8451
崎	-8452
崢	-8453
崾	-8454
帣	-8455
柈	-8456
嘟	-8457
埊	-8458
媱	-8459
孇	-8460
序	-8461
効	-8462
勏	-8463
否	-8464
囥	-8465
囪	-8466
妱	-8467
嬦	-8468
宒	-8469
巷	-8470
抢	-8471
擑	-8472
殂	-8473
圦	-8474
場	-8475
央	-8476
妆	-8477
孬	-8478
峎	-8479
崑	-8480
嶣	-8481
彰	-8482
急	-8483
怹	-8484
慂	-8485
慭	-8486
拁	-8487
搌	-8488
搽	-8489
擏	-8490
昚	-8491
垂	-8492
墣	-8493
委	-8494
帪	-8495
彬	-8496
晦	-8497
桶	-8498
椒	-8499
硿	-8500
剧	-8501
双	-8502
呡	-8503
坆	-8504
夆	-8505
婪	-8506
寊	-8507
德	-8508
总	-8509
悘	-8510
愹	-8511
扴	-8512
择	-8513
掝	-8514
搃	-8515
擮	-8516
旍	-8517
熇	-8518
塞	-8519
媥	-8520
崞	-8521
弘	-8522
彝	-8523
忓	-8524
悆	-8525
榟	-8526
団	-8527
墌	-8528
屢	-8529
峑	-8530
崔	-8531
嶺	-8532
庯	-8533
彲	-8534
彽	-8535
怡	-8536
惃	-8537
憧	-8538
戇	-8539
撿	-8540
渼	-8541
舭	-8542
啪	-8543
坔	-8544
堓	-8545
塗	-8546
塡	-8547
娚	-8548
媤	-8549
嫢	-8550
局	-8551
屉	-8552
崄	-8553
嶤	-8554
忎	-8555
忭	-8556
憆	-8557
抜	-8558
暹	-8559
渹	-8560
脞	-8561
呅	-8562
唭	-8563
喔	-8564
嗧	-8565
嘨	-8566
圑	-8567
埉	-8568
塎	-8569
塬	-8570
妈	-8571
婵	-8572
嫻	-8573
孜	-8574
嵃	-8575
布	-8576
徢	-8577
徻	-8578
搗	-8579
撄	-8580
洚	-8581
薴	-8582
囑	-8583
媙	-8584
崃	-8585
崵	-8586
嵓	-8587
徑	-8588
忌	-8589
恌	-8590
惮	-8591
愪	-8592
昮	-8593
棦	-8594
槲	-8595
叻	-8596
喦	-8597
囵	-8598
埱	-8599
宾	-8600
崤	-8601
嶨	-8602
慹	-8603
桀	-8604
殉	-8605
组	-8606
嘉	-8607
囖	-8608
堀	-8609
夿	-8610
奇	-8611
妝	-8612
娢	-8613
婡	-8614
媣	-8615
嬌	-8616
孢	-8617
宦	-8618
寒	-8619
嵞	-8620
廦	-8621
恠	-8622
惜	-8623
揸	-8624
柔	-8625
楹	-8626
緑	-8627
叵	-8628
叿	-8629
姀	-8630
姷	-8631
嫞	-8632
嶠	-8633
幆	-8634
庈	-8635
彃	-8636
徆	-8637
惗	-8638
椷	-8639
碓	-8640
嚽	-8641
声	-8642
夀	-8643
屼	-8644
嵈	-8645
忳	-8646
忽	-8647
悝	-8648
摎	-8649
槪	-8650
蓙	-8651
勥	-8652
呥	-8653
墒	-8654
娕	-8655
婦	-8656
婾	-8657
孕	-8658
峘	-8659
嶰	-8660
干	-8661
昧	-8662
桿	-8663
梃	-8664
椆	-8665
楴	-8666
洑	-8667
煥	-8668
复	-8669
尧	-8670
峓	-8671
嶓	-8672
帜	-8673
愕	-8674
戊	-8675
捛	-8676
捩	-8677
摝	-8678
撎	-8679
攤	-8680
斄	-8681
桪	-8682
沓	-8683
炎	-8684
哇	-8685
嚼	-8686
埋	-8687
墥	-8688
墩	-8689
娂	-8690
娒	-8691
弻	-8692
恇	-8693
想	-8694
攫	-8695
旤	-8696
爅	-8697
及	-8698
夻	-8699
宴	-8700
帒	-8701
幣	-8702
怔	-8703
懈	-8704
推	-8705
摗	-8706
撈	-8707
栭	-8708
烪	-8709
匾	-8710
壞	-8711
夎	-8712
妀	-8713
婉	-8714
嬃	-8715
岆	-8716
岱	-8717
庝	-8718
憢	-8719
掠	-8720
搐	-8721
暨	-8722
梘	-8723
棷	-8724
榇	-8725
济	-8726
菃	-8727
剱	-8728
吂	-8729
呤	-8730
咦	-8731
嘳	-8732
噪	-8733
妽	-8734
媛	-8735
嬗	-8736
寏	-8737
尀	-8738
峉	-8739
峙	-8740
彵	-8741
忷	-8742
惻	-8743
未	-8744
橂	-8745
咂	-8746
囁	-8747
宣	-8748
容	-8749
屁	-8750
嵾	-8751
幬	-8752
底	-8753
徜	-8754
扇	-8755
敘	-8756
榶	-8757
檷	-8758
剴	-8759
團	-8760
增	-8761
奍	-8762
妬	-8763
嫛	-8764
嬧	-8765
寿	-8766
嵔	-8767
庵	-8768
彐	-8769
愆	-8770
投	-8771
揗	-8772
晫	-8773
曩	-8774
朸	-8775
机	-8776
杛	-8777
泜	-8778
嘫	-8779
垓	-8780
妜	-8781
媚	-8782
寭	-8783
岤	-8784
巴	-8785
帄	-8786
帏	-8787
帱	-8788
庹	-8789
彔	-8790
忂	-8791
挼	-8792
搧	-8793
擶	-8794
斞	-8795
唁	-8796
喞	-8797
囨	-8798
墅	-8799
壝	-8800
姍	-8801
婷	-8802
媉	-8803
巬	-8804
幸	-8805
忖	-8806
愋	-8807
愧	-8808
懥	-8809
掆	-8810
控	-8811
敄	-8812
斥	-8813
槳	-8814
橩	-8815
橸	-8816
只	-8817
员	-8818
囒	-8819
囟	-8820
坘	-8821
嫉	-8822
嬱	-8823
嬳	-8824
孧	-8825
岿	-8826
师	-8827
廁	-8828
引	-8829
怬	-8830
恹	-8831
憒	-8832
懇	-8833
懊	-8834
打	-8835
撍	-8836
旆	-8837
昛	-8838
昲	-8839
暎	-8840
暿	-8841
泴	-8842
涚	-8843
滭	-8844
匲	-8845
呃	-8846
嘂	-8847
墠	-8848
婑	-8849
婮	-8850
孾	-8851
尖	-8852
尹	-8853
岩	-8854
峦	-8855
崘	-8856
庮	-8857
惩	-8858
愥	-8859
愲	-8860
憝	-8861
憡	-8862
挄	-8863
挮	-8864
擐	-8865
晓	-8866
曻	-8867
楻	-8868
檂	-8869
討	-8870
哯	-8871
地	-8872
堋	-8873
夈	-8874
婅	-8875
婽	-8876
岚	-8877
峄	-8878
巺	-8879
廇	-8880
弙	-8881
悢	-8882
懿	-8883
柏	-8884
櫌	-8885
歍	-8886
歼	-8887
埖	-8888
媠	-8889
媹	-8890
孋	-8891
屚	-8892
岘	-8893
嵅	-8894
嵇	-8895
幭	-8896
悰	-8897
懻	-8898
挪	-8899
揓	-8900
揾	-8901
撉	-8902
棖	-8903
咊	-8904
囘	-8905
坊	-8906
増	-8907
崺	-8908
嶏	-8909
巕	-8910
庐	-8911
廙	-8912
恴	-8913
恼	-8914
恾	-8915
戍	-8916
捉	-8917
旀	-8918
楏	-8919
榈	-8920
樞	-8921
檪	-8922
歾	-8923
煅	-8924
狻	-8925
佽	-8926
唱	-8927
嚣	-8928
四	-8929
奞	-8930
娐	-8931
就	-8932
幧	-8933
庫	-8934
弣	-8935
弪	-8936
慕	-8937
戃	-8938
搊	-8939
摰	-8940
擖	-8941
榋	-8942
殮	-8943
毚	-8944
滄	-8945
哄	-8946
嘷	-8947
囅	-8948
垫	-8949
埄	-8950
墕	-8951
婯	-8952
尭	-8953
尳	-8954
岟	-8955
岥	-8956
嵉	-8957
嵗	-8958
庼	-8959
彴	-8960
怨	-8961
摤	-8962
敎	-8963
橅	-8964
浯	-8965
皚	-8966
图	-8967
垶	-8968
塂	-8969
太	-8970
娌	-8971
娵	-8972
嬸	-8973
孔	-8974
孼	-8975
幵	-8976
拦	-8977
捕	-8978
捠	-8979
摉	-8980
晒	-8981
暮	-8982
樭	-8983
泛	-8984
垲	-8985
嫨	-8986
寃	-8987
屿	-8988
崣	-8989
悍	-8990
慔	-8991
扝	-8992
技	-8993
晑	-8994
晤	-8995
楢	-8996
