<unk>	0
<s>	0
</s>	0
.	-2.75864
,	-3.41478
▁	-3.6942
亥	-4.60314
仓	-4.8082
▁佅伭	-4.86268
▁什	-4.88601
▁仢俷佳	-5.0674
亶	-5.06882
仅	-5.07923
亰	-5.09514
▁伊	-5.13299
▁亲仇	-5.15759
亚	-5.17369
二	-5.18816
▁仿亵	-5.23756
▁偙亮亥	-5.30398
亾	-5.31698
▁互	-5.34789
▁10	-5.40042
▁亽	-5.4218
亡	-5.42847
予	-5.51736
▁仿亵亥	-5.57254
▁亖	-5.57876
争	-5.62762
仌	-5.68192
▁佋仦佌	-5.71439
▁5	-5.73124
亜	-5.78737
亳	-5.8528
▁伡傢	-5.8727
余	-5.90087
▁亇予	-5.93092
▁亓伊亃	-5.94419
亭	-5.94472
什	-5.97216
亃	-5.99788
亏	-6.02551
仇	-6.04525
仦	-6.04832
▁仐	-6.05536
佋	-6.05689
仍	-6.07943
▁仩仪	-6.10942
事	-6.13634
亱	-6.13997
▁予	-6.15738
仠	-6.16414
仅亰	-6.17817
▁佰亣	-6.19121
伙	-6.20765
亣	-6.214
▁亂	-6.29958
▁会予傲	-6.31331
伭	-6.334
亞	-6.33457
亢	-6.3399
侻	-6.34848
-	-6.36153
企	-6.3633
仐	-6.3897
▁佸位伭二	-6.39227
▁亍倩	-6.39417
亩	-6.40627
▁估侒	-6.41168
:	-6.4124
▁予傜俉仅	-6.46128
▁仌	-6.46786
代	-6.49781
▁"	-6.50486
▁亃	-6.51337
▁伸傘俉仅	-6.51432
亂	-6.51591
仼	-6.51958
亓	-6.52931
伻	-6.54067
佚	-6.54963
▁仔伢俱	-6.55507
▁亓	-6.56725
▁19	-6.56843
▁亥	-6.57436
▁亘亙	-6.59868
伫	-6.60512
仂	-6.60625
▁以	-6.60847
▁侺仌個	-6.61092
▁佋	-6.62318
佼	-6.63082
▁仿亩亚什	-6.64448
▁亚	-6.64583
▁享仚	-6.6478
▁争伥亐仦	-6.65795
▁仈仇	-6.66039
仞	-6.67007
仅亾	-6.67168
佳	-6.67556
▁亣	-6.68913
伹	-6.68975
▁亓争侚亣	-6.69183
▁仔	-6.70318
侐	-6.71385
▁仢付	-6.73046
▁亩	-6.73422
仰	-6.75568
▁亍	-6.7737
▁伸	-6.77689
从	-6.77946
▁亢	-6.79129
令	-6.79232
▁仈	-6.79715
产	-6.81875
▁侎优众予	-6.82159
亠	-6.82229
仛	-6.82616
仄	-6.82662
仅亥	-6.83103
▁二	-6.84898
仚	-6.8628
▁亽侨傥	-6.87009
▁亊亩估予	-6.88676
伎	-6.8913
亐	-6.90623
付	-6.90707
伸	-6.91944
但	-6.92644
亯	-6.92936
保二	-6.93173
仯	-6.94661
众	-6.96061
▁亥仼	-6.96266
▁亜二	-6.96356
佸	-6.97144
"	-6.97486
▁傻侏佧	-6.99286
▁伙	-6.99833
▁仢	-6.99857
▁亖亚	-7.00323
s	-7.00925
▁偁仇	-7.01101
▁伸佧	-7.01308
亚什	-7.0276
▁倦傠	-7.03102
伿	-7.03282
▁以偏仌	-7.05135
亼	-7.05558
;	-7.0585
伥	-7.0759
▁仐俗	-7.07822
亮	-7.08191
仗	-7.09191
偿	-7.09357
▁佒	-7.10412
▁但亚亩	-7.133
▁亜	-7.1396
▁伒仇二	-7.14088
▁亊	-7.14189
亊	-7.14401
▁亼亡	-7.15345
▁佃伅	-7.157
任	-7.15802
佝	-7.16253
仧亡	-7.18017
▁仍	-7.18494
▁仈亜争	-7.186
▁/	-7.19107
位	-7.19366
▁仔仲二	-7.20765
伟	-7.20931
▁侺仌亊事	-7.21264
▁伓	-7.21849
▁1	-7.21955
▁-	-7.2233
▁亖伻	-7.22969
▁侏	-7.2303
▁佅仞	-7.24809
▁们	-7.254
亥亚	-7.25718
▁僇亾	-7.26348
▁仢俷亡	-7.26884
仪	-7.26951
▁亻	-7.26993
▁亽事二	-7.27796
▁仐侭侑	-7.27965
▁俢了	-7.28571
▁俢亍	-7.28702
▁亜亡亢亜	-7.28789
▁亍個	-7.28958
▁位	-7.29071
侏	-7.29494
仭	-7.29563
▁亢亮	-7.29738
▁仢亃	-7.29935
▁俢	-7.30255
▁仔亂亮	-7.30777
▁亏	-7.31355
了	-7.31358
▁亽任亃俌	-7.31373
▁令二亏仳二	-7.31373
▁仁亳	-7.31602
▁亇予仂	-7.31631
▁亃偾伿	-7.31672
佧	-7.31789
▁亃优佃	-7.31908
交	-7.31945
▁享亐	-7.32381
▁傸亭	-7.34447
▁令	-7.34452
▁亾	-7.34498
▁伕侻仅	-7.34644
佶	-7.34655
▁傕傖侵	-7.34753
▁亢佉僆	-7.35007
▁倦傠俉仅	-7.35123
▁传	-7.35492
▁2	-7.35881
▁任	-7.36117
仅余	-7.3648
▁亖伳俎俣	-7.37599
▁7	-7.37791
▁亽傷任	-7.38125
佌	-7.38782
▁介争亜	-7.38972
仒	-7.39774
▁3	-7.3979
俢	-7.39871
▁传傶傷任	-7.39894
偉	-7.3995
▁侧	-7.40191
仳	-7.4028
亍	-7.40423
佃	-7.409
侨	-7.41257
仲	-7.41728
▁亢仦	-7.43119
▁僁佤亭	-7.43862
▁但	-7.44155
享	-7.44364
▁凁	-7.44376
▁僓	-7.44721
▁哏	-7.44755
▁亯	-7.4511
▁争	-7.45137
▁仙	-7.45229
▁亣僂	-7.45266
佭	-7.45394
▁亖亰	-7.45913
佀	-7.45937
仞二	-7.46409
亥亰	-7.46863
佲	-7.47319
▁佋侹	-7.48313
▁侺仌亊伹亚什	-7.48354
亸	-7.48778
▁伭傞	-7.49711
侳	-7.50166
▁侨僃	-7.50262
亥傒	-7.50494
佤	-7.50937
伌	-7.51606
六	-7.51813
▁the	-7.51977
仉	-7.52257
偖	-7.52873
e	-7.53255
▁仒信事	-7.53379
▁产仦交	-7.53517
佗	-7.53537
俑	-7.53647
▁仛	-7.54063
佈	-7.54153
▁仔傤予	-7.54803
來	-7.54842
俪仇	-7.55252
▁4	-7.56958
▁仔产	-7.5768
傒	-7.58438
▁仼	-7.58889
仧亳	-7.58931
▁18	-7.59053
亭佼	-7.59339
▁僯	-7.59398
▁亅僀	-7.60338
▁亲俅仇	-7.60446
▁仧伫	-7.60939
n	-7.60963
▁仐依亶	-7.61123
估	-7.61287
于	-7.61418
/	-7.6177
亵	-7.62765
▁予亱交	-7.62817
介	-7.63278
侬	-7.63533
▁佒仪仇	-7.63821
伓	-7.64173
▁佭	-7.64673
▁亻从	-7.64746
▁倲件	-7.64856
▁亶	-7.64861
传	-7.64877
▁仌争亾	-7.64985
▁令亡亯傫仇	-7.65128
▁亵仇	-7.65668
俰仇	-7.65843
俵	-7.66161
▁仇	-7.67116
仪亚什	-7.67182
▁伱	-7.68579
▁伜仂	-7.6904
▁仂	-7.69339
亙	-7.69342
▁亼仂	-7.6935
▁仢你佡	-7.69387
▁俑	-7.69428
▁亷	-7.7026
儢	-7.70948
倠	-7.71324
o	-7.71386
▁倐亡	-7.71447
▁亽伱	-7.71884
▁6	-7.72312
▁亖伻予	-7.72555
▁众	-7.72614
▁倲	-7.72835
偩	-7.73334
▁侳	-7.73388
俺	-7.73755
亢亡	-7.73847
俉	-7.73963
'	-7.75039
▁佚	-7.7538
▁仞	-7.75884
▁仍亡亯亼仂	-7.76003
▁代	-7.76293
▁仙仚伖仇	-7.76373
亞佼	-7.76373
偞	-7.76844
些	-7.77035
▁俙亳亯伙	-7.78274
t	-7.78372
▁亢亡	-7.78914
▁位傼	-7.78971
佥	-7.79138
休	-7.79779
佉	-7.80206
)	-7.80373
▁仛但二	-7.8079
倇	-7.81574
y	-7.81585
▁俆仓亯	-7.8159
▁今伟	-7.82052
伕	-7.82308
▁二伀仚	-7.82612
▁亃仦	-7.82685
伶	-7.83181
偝	-7.8319
▁亍僈	-7.83242
▁伬	-7.83377
俯	-7.8341
▁似代仂	-7.84049
▁仙了	-7.84074
▁亾俅位	-7.84092
▁仯	-7.8432
▁of	-7.85084
▁2011	-7.85263
▁俎佡	-7.8533
▁仹	-7.85989
借	-7.86187
▁亍亜	-7.86935
▁佨佲仳	-7.87011
▁佋佗	-7.87055
偨	-7.87379
▁侞	-7.87774
▁8	-7.88148
▁亂倂仅伟	-7.88563
仔	-7.88581
▁争亢伤	-7.88768
▁令亡亯伖仇	-7.88802
▁亂亶	-7.89028
倪	-7.90043
▁亻争亾	-7.90461
▁亜佋	-7.90889
▁亃例	-7.90938
▁仐俖侍仞	-7.91284
▁仔仌偩俰仇	-7.91468
▁亥亚	-7.91863
▁僄亝	-7.91908
▁亵仠仅	-7.92051
▁仛事	-7.92103
▁僅争	-7.92287
▁亩侹众予	-7.92366
▁'	-7.92389
▁亂仓仌仅	-7.92426
▁仪倣傿	-7.92637
俬	-7.92954
低	-7.92969
侕亡	-7.93107
▁仌件	-7.93282
▁伭	-7.93385
亝	-7.93449
▁仍亡亯亼亡	-7.93768
倏	-7.93893
▁信	-7.93993
侑	-7.94377
▁伡佇仓	-7.94439
▁仔伢俍	-7.94719
▁亏傓亂仅	-7.94848
a	-7.95538
▁仞付	-7.96073
僻	-7.96173
井	-7.96399
亣仄	-7.96406
▁僊倡倏	-7.96478
▁偕亢	-7.96551
▁仐亚于伕	-7.96637
▁伊代	-7.96684
▁仛俉亡	-7.96806
▁偙亮	-7.96878
▁亽仜	-7.96991
▁倦	-7.97009
▁亊亩亪	-7.97418
▁佨例	-7.97431
亢亳	-7.97554
仍仓	-7.97709
偘	-7.97792
▁似代住二	-7.98013
▁亾伫仅	-7.984
▁亐	-7.98411
▁亂佛予侟	-7.98657
▁倡佂	-7.99024
▁亍伵佋	-7.99028
▁亍侞傯	-7.99574
▁仹佭僌	-7.99693
▁保亐伎	-7.99842
▁侎	-7.99922
▁储佤佶	-8.00001
倨	-8.0008
▁伫	-8.00163
▁俆亏仅	-8.00214
▁佸	-8.00246
▁亓伥亂争	-8.00266
▁仒	-8.00288
▁亚众傆	-8.00293
▁侎优众俢付亜	-8.00349
▁仛俶俷亡	-8.00381
▁令伙介	-8.00518
亖	-8.00612
亻	-8.00622
们	-8.0068
亃倌	-8.00785
偕	-8.00834
▁亜儈亜	-8.00843
i	-8.00867
享仚	-8.00977
▁僎像仅伟	-8.01077
伅	-8.01136
▁亍争佲仳	-8.01181
▁伓仅仅	-8.01278
伊	-8.01388
▁伥	-8.01426
▁似傹企	-8.0161
▁倎侻傺亠	-8.01661
伧	-8.01675
▁俤	-8.01686
▁亢僋亃俌予	-8.01851
▁亽傝	-8.02025
▁亓佗事予	-8.02148
▁仮仯仅	-8.02173
▁亩僉傳倠	-8.02314
偎	-8.02386
ar	-8.0239
▁亽侻仅	-8.02395
▁亽俉	-8.0249
▁仔傦傧事	-8.02709
仓亶	-8.02817
▁傛亚事亞	-8.02948
▁傗些佤亭	-8.03031
▁亓債	-8.03081
▁佋亏亢仦	-8.03412
▁俜亳	-8.03486
▁令伙介余	-8.03522
傔	-8.03565
信	-8.03583
▁令二二	-8.0359
▁仛但	-8.03678
▁传借倠	-8.03699
▁亍仧争	-8.03749
伜	-8.03755
▁伸亣伱伭予企	-8.0385
▁亽仠亢仦	-8.03869
▁今	-8.03882
▁偿俠倠	-8.04014
▁僐	-8.0406
▁値伮偘亥	-8.04088
▁佋争伤仅	-8.04165
佋亚	-8.04181
▁佭亭	-8.04206
▁亓佋	-8.04259
an	-8.04304
▁仈傔余	-8.04447
▁伸仦例侹	-8.04659
伋	-8.04671
伀	-8.0481
▁in	-8.04914
▁住亭	-8.05072
▁15	-8.05122
▁亩仯	-8.0515
▁仙亜	-8.05157
▁传倢	-8.05262
▁亢倿	-8.05396
▁仙亏亭	-8.05426
▁倫	-8.05426
▁伦亱傸亭	-8.05649
▁亩僉亠	-8.05725
代亚	-8.05816
▁亖佳倨	-8.05931
▁倇亚	-8.05987
▁仢侸代予	-8.06287
▁9	-8.06315
▁--	-8.0632
▁亓争侚亣仅	-8.06455
▁20	-8.06507
▁亃亙伻	-8.06664
▁俄伨	-8.06736
▁伀	-8.07041
▁佗仓	-8.07158
▁伋佫仅	-8.0737
▁僑佗仌亓亣仅	-8.07379
▁俜	-8.07407
▁传佤亂佗争	-8.07411
▁亖亜亚	-8.07493
▁倎	-8.07713
▁偕予侍仛	-8.07767
▁亥亰	-8.07966
▁亻仦事亞	-8.07983
俷	-8.07986
▁仌俶仄仓	-8.08017
▁佃予争	-8.08055
▁亃争亃产	-8.0813
%	-8.08139
▁12	-8.08196
▁侺侀仅亰	-8.08286
▁仇傣亯仅	-8.08313
▁亓伊仕亜	-8.08351
▁倎傳仂偞	-8.08433
▁亖亚事亜	-8.08486
▁亐亚	-8.08679
▁亖仌亓亣仅	-8.08728
▁位于傴侐	-8.08802
▁佋亡亯傰傱	-8.08987
▁伭傩傪偿	-8.0914
▁佒倏以倪	-8.09173
▁亖亥亃产	-8.09216
▁亷俬亰	-8.09308
▁侣	-8.09558
▁仸	-8.09671
伖仇	-8.09832
▁伦亱仿倭	-8.09941
▁催	-8.10054
▁亃偝仳保二	-8.10064
▁伸争催侕	-8.10082
▁俊了	-8.1009
侰	-8.10416
00	-8.10549
u	-8.10817
m	-8.11034
▁仿亩仅	-8.11045
侕	-8.11087
▁伌	-8.1112
佨	-8.11152
▁佌	-8.11182
僵	-8.11233
▁亖伉働	-8.11269
▁伡伈保二	-8.11275
偏	-8.11328
er	-8.11481
▁侳伻估傟佧	-8.11482
▁侨停亾	-8.11527
▁仌二亡仅	-8.11535
位俠仇	-8.1157
▁伓仅位伭	-8.12028
作	-8.12297
▁亻俬	-8.12307
al	-8.12454
▁佃	-8.1263
▁亲偉佳	-8.13046
d	-8.13175
伪	-8.13176
▁亖佋仅仄傫仇	-8.13274
ed	-8.1355
▁仌仅二	-8.13569
▁侨	-8.13605
▁a	-8.13665
▁似傆	-8.13695
2	-8.14017
▁亇	-8.14121
▁偆	-8.14621
▁亂亼	-8.14634
們	-8.14679
▁俆仭亶仳	-8.14724
▁亽倭	-8.1487
俜	-8.15166
▁介	-8.15217
僝	-8.15324
伈	-8.1535
佯	-8.15362
▁亵仠仭	-8.15487
倌	-8.15654
倿	-8.15811
▁佗	-8.16003
▁亯侍仞	-8.16064
▁仚	-8.16207
▁亾傜佳仅	-8.16358
▁伸募	-8.16379
候	-8.16719
▁俙	-8.17189
▁仌仦	-8.17271
▁A	-8.17873
▁位傼仓	-8.17897
俤	-8.17982
▁伸傘俉仅仓	-8.18004
▁但儶仇	-8.18125
偗	-8.18271
▁僻	-8.18349
A	-8.18368
冓	-8.18473
▁令仅	-8.1854
▁亼	-8.18994
▁侨停亢偿	-8.19159
▁偱仪	-8.19334
仌侤	-8.19433
兎	-8.1957
仅亚	-8.19639
▁仛产仹仼仅	-8.19663
▁亓佋伟亥	-8.19712
企佼	-8.19794
▁令仦交二	-8.20016
▁亖佳二	-8.20064
▁什亥伊侻偘	-8.20185
r	-8.21153
▁亖仄來俷佳	-8.21218
▁倎令亼侍倠	-8.21347
▁仅	-8.21515
▁偙亮亥傒	-8.22362
▁亲	-8.22447
仧	-8.22855
p	-8.22997
1	-8.23078
位伭	-8.23165
▁伸伶	-8.2319
伤	-8.23235
▁享	-8.24032
亾仓	-8.2427
▁侺仌亊伟	-8.24856
以	-8.24885
仹	-8.2493
▁亖仇	-8.2593
亽	-8.26319
僟	-8.26631
ing	-8.26742
▁S	-8.26764
▁伋	-8.27057
俀	-8.27082
俁	-8.27124
▁仈亙仠	-8.27224
佂	-8.27334
▁些	-8.27355
▁享亚	-8.27375
▁似	-8.27452
佚佝	-8.27471
▁俄	-8.2762
▁仙偉亡	-8.27658
▁伻	-8.28071
▁c	-8.28089
冰	-8.28337
▁亖从	-8.28353
▁侁	-8.2839
倢	-8.28829
佤亭	-8.28954
佼亥	-8.2899
▁s	-8.29145
▁会予倂仓	-8.29152
▁亩伶侳	-8.29364
亣仓	-8.29461
▁余	-8.29552
c	-8.29568
俔	-8.30116
▁亂亚	-8.30124
來付	-8.30234
▁候	-8.30551
倘仪	-8.30752
傿	-8.31023
▁仿佋	-8.31136
亹	-8.31137
倮	-8.31161
re	-8.31306
亦	-8.3134
偗亳	-8.31377
仩	-8.31381
▁偶	-8.3139
▁亵	-8.31718
僷	-8.31767
▁倈仚	-8.31859
▁产	-8.31879
or	-8.3189
偀	-8.3193
k	-8.32093
▁佒冸佧	-8.32116
▁11	-8.32176
▁仦	-8.32199
▁(	-8.32208
▁似代住二仐	-8.32241
▁介佤	-8.32271
▁16	-8.32272
▁亣傐	-8.32737
事亭	-8.32888
▁仯亡	-8.32932
▁伻亡亶	-8.32934
▁享亡	-8.32967
▁仛偕	-8.33037
亷	-8.33222
保	-8.33242
係	-8.33298
▁14	-8.33315
▁亃仓	-8.33336
▁17	-8.33359
俶	-8.33487
亂仅	-8.33654
▁仌倚二	-8.34116
▁亖产	-8.34117
仃	-8.34189
▁亲仉	-8.34208
亣停	-8.34281
件	-8.3434
▁:	-8.34384
做	-8.34484
俶付	-8.34667
▁仧	-8.35107
俄	-8.35259
佫	-8.35344
儃	-8.35744
仑	-8.35864
仄仓	-8.36619
亻亚	-8.36654
▁亣令	-8.37042
傦	-8.37131
兵	-8.37159
▁仈件亡	-8.37181
▁to	-8.3734
▁俲佪	-8.37554
份	-8.37877
倐	-8.37928
▁位偩亮亏	-8.37957
偀傱	-8.38051
侒	-8.38249
位伭二	-8.38377
▁亣停	-8.38417
住二	-8.38774
▁亂仭亥	-8.38843
▁亖亜亰	-8.38914
▁予仅	-8.38938
▁予优	-8.39157
仍亥	-8.39388
3	-8.39393
俖	-8.39413
伣	-8.3947
侮	-8.39536
▁and	-8.39762
仯佳	-8.40084
债	-8.4011
偒	-8.40156
in	-8.40495
仜	-8.40974
▁例俣	-8.41011
▁凍	-8.41162
侕佳	-8.41166
來仓	-8.41177
▁亖仌	-8.41186
伱	-8.41471
▁仩	-8.41588
▁俈	-8.41963
伸亳	-8.42348
▁俉仅	-8.42487
俪	-8.4249
▁仐仐佶	-8.42529
▁侞倷	-8.42556
?	-8.42801
▁倡	-8.42913
僺	-8.43027
C	-8.43231
刄	-8.43459
▁产亡亯來俷佳	-8.43513
偉亚什	-8.43673
▁仙仚伓佧亥	-8.43681
b	-8.43763
争仳	-8.43959
▁俺	-8.43969
▁倎仚亥	-8.44091
僮	-8.44167
▁們傌	-8.44299
▁亵仞亼仂	-8.44425
▁伹	-8.44575
俷亡	-8.44625
俠	-8.44735
▁儂	-8.44831
偂	-8.44886
亥什	-8.44922
▁佁	-8.44948
仸	-8.45068
停	-8.45102
优	-8.45553
佡	-8.45618
▁仛傂仇	-8.45973
▁代佢仳	-8.45981
▁仌伧	-8.46388
▁仔仹佚	-8.46414
▁争佢亜	-8.46418
侲	-8.46453
▁佨	-8.4659
▁亜伹亡	-8.4669
▁俆	-8.46693
f	-8.46764
仼亮	-8.47011
儊	-8.47061
▁亃亚仛	-8.47232
▁俉	-8.47324
▁倇亚亚	-8.47327
▁13	-8.474
住	-8.47419
側	-8.47542
▁亵仠伫亚什	-8.47563
!	-8.4766
at	-8.47667
侧	-8.47711
h	-8.47944
俶俷亡	-8.48195
5	-8.4826
▁亵仞	-8.48723
g	-8.48841
例	-8.48991
▁佋二	-8.49002
亏仅	-8.49168
俌	-8.49331
俐	-8.495
▁佀	-8.49709
仌二亡仰什	-8.49788
佢	-8.50444
▁亍仌冂亣仅	-8.50592
侞	-8.50751
▁亹	-8.51097
▁倐	-8.51105
M	-8.51596
▁仢俬争	-8.51843
▁仈仐	-8.51848
亠佼	-8.52423
侦	-8.52637
▁傾倣傿俷佳	-8.52692
▁僩	-8.52989
侞亞	-8.53008
S	-8.53101
▁僓众	-8.53124
▁僬	-8.53127
▁50	-8.53151
▁仔令仓	-8.53194
几	-8.53214
▁亏仅	-8.53539
俲佪咠产	-8.53593
咭	-8.53629
俹	-8.53767
▁以侐	-8.53817
亢仦	-8.53841
党	-8.54263
▁仌仚仓來俷	-8.54417
侐佼	-8.54536
凭	-8.54559
▁伦	-8.54635
0	-8.5464
▁仔仍仑	-8.54662
争亚	-8.54702
▁伙仓亯	-8.54749
▁亇予亡	-8.55099
▁亢傽仚	-8.55376
予争仳	-8.55936
偔	-8.55939
刭	-8.56015
▁冓	-8.56118
偆	-8.56212
▁亽俦予	-8.56604
▁亢仂	-8.56718
伛	-8.56719
▁亂争伪亶	-8.56815
俴	-8.56828
伙仓	-8.56927
ri	-8.56958
▁予亱交二	-8.56984
▁亖偖	-8.57246
▁俿	-8.57357
侍	-8.57399
儆	-8.57417
▁亃亚	-8.57528
▁侚	-8.57553
le	-8.5774
▁w	-8.57775
伍	-8.57856
亥伻	-8.57968
▁偖仌	-8.58051
▁亥傒	-8.58134
▁亵俌	-8.58256
▁予亱但	-8.58284
▁亍仌冂亮	-8.58348
▁仁仠仌	-8.58388
▁p	-8.58785
佷	-8.58879
th	-8.58913
佃亶	-8.58952
▁俉仑	-8.59026
▁亖伻仇	-8.59138
▁値	-8.59166
▁亖俵予	-8.59184
▁俑俒	-8.59628
位亳伖仇	-8.59915
催	-8.59967
叀	-8.60041
▁亖付	-8.60111
亊仦	-8.60325
▁仍儵亡	-8.60831
傷	-8.60862
仵	-8.60909
▁令仦佄仇	-8.60979
偰	-8.61013
伳	-8.6103
仅佸	-8.61276
▁倃	-8.6131
▁估	-8.61528
兜	-8.61784
倷	-8.62051
倘	-8.62113
伭亶	-8.62119
仍亰	-8.62224
佄	-8.62254
▁偀	-8.62352
▁伋仦	-8.62437
▁亖仐	-8.63105
▁亣佋	-8.63388
4	-8.63425
亾付	-8.63475
伵	-8.63535
仯亡	-8.63569
▁仔令仅	-8.63621
傠	-8.63634
▁C	-8.63696
▁佶	-8.63748
ra	-8.63826
偼	-8.64005
二仍	-8.64025
▁亷亡仄	-8.64148
▁倨	-8.64166
▁仮佈亥	-8.64505
伦	-8.64705
▁仙伅	-8.65045
▁仿佋仍	-8.65263
l	-8.65486
▁伋亡	-8.6561
▁亓伥	-8.65803
▁偷	-8.65901
▁佚仦伶	-8.66073
佅伭	-8.66118
俱	-8.66516
侪	-8.66529
共	-8.66553
▁传倏	-8.66671
▁伸傘俉仅佼仓	-8.66744
偢	-8.66776
▁俓	-8.66819
▁仈伫	-8.66847
侕亳	-8.66857
▁佈僠	-8.67092
倐侻	-8.67256
▁亖兩亜	-8.6734
▁仔俶佈	-8.67397
傜	-8.67417
▁以偏仌亶	-8.67439
▁事	-8.67867
仍仅	-8.67984
倲	-8.68066
▁伸仅	-8.68181
▁仞俹	-8.68332
▁仮佈	-8.68486
叼	-8.685
卨	-8.68617
亣仅	-8.68787
▁亊仲争伪亶	-8.68861
兙	-8.68944
倚	-8.68944
▁佒体	-8.68955
充	-8.69115
亂仓	-8.69421
亾亳	-8.69458
▁亖伫係	-8.698
▁亜偏仌	-8.69841
ic	-8.6996
▁仌儗	-8.70036
僜	-8.7034
兼	-8.70373
it	-8.70491
侚	-8.70501
亴	-8.7074
亂亮	-8.70867
▁伃代亣伓仚	-8.71172
亃倌亥	-8.7135
▁予傜	-8.71573
倀	-8.71633
▁侺俒	-8.72034
▁介争信事	-8.72039
▁任亩亡	-8.72068
▁予亱	-8.72116
二仇	-8.72327
交仦	-8.72596
▁俕亱	-8.72652
▁偕	-8.72676
▁亍偰亜	-8.72843
侗	-8.72862
▁仌兝仇	-8.72939
en	-8.7294
▁來	-8.7295
▁償	-8.72955
I	-8.73335
▁亵仠仭亥亚	-8.73365
▁伓仄仅	-8.73387
傚	-8.73618
▁仑	-8.73906
▁佋侨	-8.7391
▁仛任	-8.74306
):	-8.74667
佈亶	-8.74727
俍	-8.75354
仌亮	-8.75452
▁僬咄侐	-8.75626
▁偩	-8.75827
T	-8.76059
▁亖亙仠	-8.76071
▁位偩亮伕亶	-8.76232
▁亰	-8.76649
▁30	-8.76865
▁亖伳	-8.77221
▁f	-8.77247
▁亣令偞事	-8.77263
▁仛事佝	-8.77503
位俫佳	-8.77576
▁亂仅	-8.77732
▁仛亡	-8.77783
20	-8.77903
册	-8.78202
▁亂倘仪	-8.78207
▁25	-8.78389
僩	-8.78626
亾仅	-8.78717
債	-8.78739
▁偕仌	-8.78859
▁亢仦什	-8.79396
代俇	-8.79406
w	-8.79541
伂二	-8.79614
▁亖伱仦亂	-8.79624
事亚	-8.79687
傯	-8.79939
佚仪亚什	-8.79999
仏众	-8.80155
侴	-8.80194
D	-8.80279
▁亐亐仼	-8.80288
▁傋亜	-8.80362
亿	-8.80523
俩	-8.80578
▁仪倣亡	-8.80686
▁俲	-8.80775
▁仌倚	-8.80777
▁倇	-8.80808
亜争	-8.80881
es	-8.80894
▁仐傠	-8.8095
倥	-8.81009
▁催亡伓仄仅	-8.81104
亃仦	-8.81744
▁伸休伦傡伿	-8.81775
▁倎亂	-8.81788
▁予傭	-8.81864
事仍	-8.82237
▁仐亳代仅	-8.82294
偖仐	-8.82295
倂	-8.82303
▁伡伈	-8.82328
▁偖	-8.82389
▁m	-8.82705
侻亞	-8.82833
伿佼	-8.82849
傂仇	-8.82856
倃	-8.82939
仚仓	-8.82969
▁伜	-8.8304
▁予俷	-8.83056
倹	-8.83066
6	-8.83102
佝余	-8.83142
仍亶	-8.8336
▁佻	-8.8349
▁仞伶	-8.83649
佛	-8.83678
偁	-8.83701
▁P	-8.83717
凍	-8.83745
ur	-8.83771
伙从	-8.83917
伬	-8.83927
▁亂仭	-8.84263
▁侮偙	-8.84367
▁M	-8.84552
▁倐亡余	-8.84576
▁亖二亶	-8.84797
▁亂仚	-8.84814
争仍	-8.84994
促	-8.85002
俉亡	-8.85098
▁亃亐	-8.85366
亾俷亳	-8.85492
v	-8.85504
來仅	-8.85738
▁亖争	-8.85768
▁佋争	-8.8592
亮亶	-8.86002
亅	-8.86026
▁传傫仇	-8.86094
▁冓仅	-8.86173
侤	-8.86178
▁匣伙	-8.86303
▁亍偶俥仞二	-8.86348
▁57	-8.86562
▁亜倌	-8.86633
▁B	-8.86805
劽	-8.86999
侫	-8.87
侹	-8.87083
P	-8.87123
▁侨停	-8.87138
▁仍倩	-8.87197
▁倇亚什	-8.87252
▁伡傢亥	-8.87719
倔	-8.87893
▁佺	-8.87982
▁伓亶	-8.88098
▁亃匯佋	-8.88282
▁代儯争	-8.8852
仦伹	-8.88638
▁介伕亶	-8.88786
▁享予	-8.89345
▁仕农	-8.89654
se	-8.89681
仆	-8.89771
俷佳	-8.89984
▁亷偂	-8.90011
50	-8.90068
ch	-8.90178
倭	-8.90277
▁亢亳	-8.90375
仿亵亥	-8.90906
公	-8.91274
佒	-8.91276
▁仪	-8.91297
▁争佚佳亜	-8.91517
▁偖债	-8.91543
▁俆亱伸亡	-8.9158
▁伃	-8.91585
▁吁	-8.91673
傏	-8.91732
偟	-8.91921
▁佃倲亼	-8.91951
▁以冰	-8.91974
佇	-8.92027
▁仔仒	-8.92102
▁互事二	-8.92229
▁会	-8.92237
亨	-8.92251
亣从	-8.9227
▁何	-8.92349
亃兤	-8.92402
傂	-8.92669
傉	-8.92801
▁仛亃	-8.93011
▁仙仚	-8.93066
勝	-8.93177
▁亖偂仂	-8.93286
▁偒	-8.93296
儮	-8.93371
伎代	-8.93458
▁侦	-8.93529
亃产	-8.93564
▁亩俹	-8.93567
亵仠	-8.93624
▁仔偖凈	-8.93675
▁佨仌	-8.93709
▁信任亾	-8.93749
▁b	-8.93786
俊	-8.93868
▁仍倩保二	-8.94093
▁仐令事亢仠	-8.94102
▁保	-8.94136
仠亚	-8.94153
▁n	-8.94163
▁俜仅	-8.9427
▁be	-8.94473
▁二亏亮	-8.94495
▁亇些	-8.94496
▁偖俑	-8.94528
佘	-8.94871
▁二仇	-8.94945
▁仛俉亳	-8.952
倦	-8.95246
▁2001	-8.95266
▁亇亙	-8.95434
▁伝	-8.955
▁傂	-8.95647
佅	-8.95652
▁偱偔亡	-8.95672
30	-8.95743
僬	-8.95861
偶	-8.95891
▁伍	-8.959
佚位俠仇	-8.96118
▁仕僾	-8.96187
勮仚亾	-8.96198
E	-8.9631
▁刻	-8.96363
▁仐俐	-8.96452
亪	-8.96524
▁亅仓	-8.9657
▁亂予	-8.9676
亡亯	-8.96819
▁亮亯	-8.96831
▁俆仓任	-8.96982
▁傋仠	-8.97157
▁俉佈	-8.9724
仧佳	-8.97367
冯	-8.9753
▁仏众	-8.97579
▁凓	-8.97594
傋仠	-8.97614
传做仇	-8.97752
▁伸侻	-8.97801
32	-8.97818
▁倬	-8.97883
▁仐俉仑亃儴	-8.98267
▁俉亓二亓伌	-8.98285
▁亖僥位亡	-8.98319
俶俷佳	-8.9847
兂	-8.98756
▁I	-8.98773
▁伭伉位亡	-8.98818
儠	-8.98841
偈	-8.98854
10	-8.99014
▁亲仠	-8.99215
▁俎	-8.99264
亶伻	-8.99351
▁0	-8.99706
▁予仐	-8.9974
佼亰	-8.99799
▁俀	-8.99843
▁亃仦冯佶二	-8.99973
▁亖俵	-9.00028
▁佋儜予	-9.00043
▁二伜位亡	-9.0025
▁劼	-9.00329
▁H	-9.0051
▁伍佳	-9.00541
仯亳	-9.00585
傋	-9.00589
▁仅伳俰仇	-9.00656
仄仅	-9.00718
侺	-9.00922
▁倘	-9.01262
▁介争亜偖债亥	-9.01383
亂争	-9.01442
仢	-9.01571
倘仇	-9.01579
▁亜仅	-9.01615
▁亅來	-9.01631
傳	-9.01719
▁介佛	-9.0175
▁仙亜咁信事	-9.01785
佻	-9.01849
on	-9.01984
亜亰	-9.02062
剑	-9.02243
▁亩侻	-9.02295
▁亃俌予	-9.02469
la	-9.02522
us	-9.0255
▁亃争	-9.02737
ro	-9.02752
▁侫偂	-9.02984
佺	-9.03143
▁些任	-9.03172
▁伍作	-9.03223
▁亢仂亚	-9.03302
▁仼亡冎仅	-9.03413
▁佌偣	-9.0347
33	-9.03579
▁亃仦偈佋	-9.03629
亾俷亡	-9.03647
▁仞仌仦	-9.03688
▁is	-9.03722
7	-9.03782
▁亊仲争仳	-9.03936
仚亾	-9.03947
儈	-9.03963
▁亓亩	-9.04075
仈	-9.0418
傰	-9.04231
19	-9.04452
亚伹	-9.04469
▁佋侍亜	-9.04481
45	-9.04618
▁仈傏	-9.04811
伤仓	-9.04932
ation	-9.04955
▁俸	-9.04984
伖	-9.05025
▁24	-9.05057
准	-9.05166
傊	-9.05181
▁亍代僤亶	-9.05241
▁=	-9.05314
▁倏	-9.05835
伤仅	-9.05849
▁亓仍伈	-9.0612
▁仔代俇二	-9.0634
▁亃偧产	-9.06388
000	-9.06521
▁亱	-9.06597
▁佌仌	-9.06642
价	-9.06758
▁信任	-9.06806
▁仯亰	-9.06884
享予	-9.06894
▁侫	-9.06897
仿	-9.06951
il	-9.06984
八	-9.07003
ad	-9.07069
▁估侒亥	-9.07325
▁21	-9.07329
▁侨凼	-9.07349
▁亃仠	-9.07551
ol	-9.07616
像	-9.0765
但二	-9.07686
▁倗	-9.07722
▁伙仂什	-9.07735
▁享倘仪	-9.07757
亐亡	-9.07791
▁or	-9.07949
僓	-9.07981
亮亥	-9.08111
▁伙仂	-9.08288
▁伸亡代仅	-9.08371
▁仿	-9.08392
▁些仌仭	-9.08471
▁佶儊	-9.08558
ent	-9.08584
來俷亡	-9.08813
▁介亏	-9.08841
▁冿净	-9.08938
二亚	-9.08944
▁侣但	-9.09046
▁倦仼	-9.09133
了佼	-9.0923
亜仓	-9.09342
▁傾倣亡	-9.09402
▁佚仚仄	-9.09403
▁亯侙佚	-9.09457
▁亣令仲亚	-9.09568
N	-9.09788
予争	-9.09818
▁仹佭俶俷亡	-9.09827
▁傮亠佼亥	-9.09832
伹仓	-9.09837
▁亲仉仇	-9.09955
俥	-9.10264
▁众交亱二	-9.10331
▁亖仌亂债	-9.10393
冄	-9.10469
▁倄	-9.10485
▁58	-9.10549
冂	-9.10593
▁佷事	-9.10615
▁冓區亡	-9.10616
▁令二仌仦	-9.10764
令二	-9.10822
am	-9.1105
st	-9.11074
▁N	-9.11117
儑	-9.11213
8	-9.11271
11	-9.11371
▁侔	-9.11438
以侐	-9.11466
▁亓仦伥儮	-9.11471
养	-9.11471
伙亳	-9.11557
倪佼	-9.11585
42	-9.11645
▁仢付亜	-9.1179
侂予	-9.11877
▁亓仦	-9.11966
18	-9.12073
▁亚伣伪	-9.12288
伭亚	-9.123
▁俭	-9.1235
▁予亰予	-9.12402
▁介伕	-9.12403
▁亽仲亮亶	-9.12439
勚	-9.12626
▁俤亐仌仦	-9.12705
▁伕	-9.12815
40	-9.12935
▁俛	-9.12939
▁仐俐仐俗仅伟	-9.1294
▁亥倐	-9.13015
▁亩兂	-9.13017
▁侧克	-9.13103
▁T	-9.13164
ly	-9.13179
▁亖佋仓	-9.13276
俢仌佝	-9.13298
▁刅	-9.13384
倫	-9.13414
▁兟	-9.13462
▁俆亱事	-9.13529
▁二亏争	-9.13559
僁	-9.13734
▁D	-9.13819
▁仔佡	-9.13908
伂	-9.1406
▁22	-9.14203
▁伬仚	-9.14247
▁0.	-9.14279
▁亽仅伟	-9.14462
(	-9.14529
倬	-9.14599
▁仍咯	-9.14635
僌	-9.14747
仦什	-9.14749
▁亣事	-9.14818
▁伸侉	-9.14877
佼亾	-9.14953
▁倿	-9.14962
凶	-9.15031
侁	-9.15035
▁偖债亥	-9.15048
▁R	-9.15052
仧仅亚	-9.15159
俈	-9.15318
佌亳	-9.15387
▁仆仇二	-9.15393
伸仅	-9.15412
48	-9.15435
代亡	-9.15481
▁亯侙仼	-9.15528
▁仚亂伪	-9.15662
ul	-9.15699
▁偉	-9.15759
▁亃代	-9.1578
▁仹侻	-9.15789
予仅	-9.15803
▁仈偗亳	-9.15987
啀	-9.16094
▁!	-9.16157
▁伍伎亥	-9.1618
▁互伱	-9.16187
▁仍卫亶	-9.16216
▁亃偿佲	-9.16216
▁仔侔事	-9.16223
刻	-9.16262
▁亖伫	-9.16263
優	-9.16451
▁仐佤	-9.16492
侍仞	-9.16689
倒	-9.1677
▁涊	-9.168
亵仇	-9.16867
▁The	-9.17002
儱	-9.17059
▁代俑	-9.1709
ter	-9.1712
et	-9.17136
亜保二	-9.17213
▁僽	-9.17217
34	-9.17287
劇	-9.17523
▁以儰	-9.17689
儆亳	-9.17777
▁争佚二	-9.17866
▁侎亮他	-9.17894
▁伍亚予	-9.17911
内	-9.18032
▁兾	-9.18143
▁伋仂	-9.18173
▁亻侌	-9.18196
刲	-9.18276
▁俭修	-9.18313
▁亲伭	-9.1835
36	-9.18357
便	-9.1839
▁佋亜	-9.18442
亃仠	-9.18673
付仇	-9.18758
B	-9.18892
▁俉仅亥	-9.18942
▁亃侬	-9.18967
▁伻亰	-9.19071
▁俺仌	-9.19103
俉仑	-9.19142
24	-9.19168
75	-9.19317
▁仄付	-9.19334
俉仅	-9.19431
▁亂仓仌	-9.19436
仼亮亥	-9.19478
傍	-9.19559
▁位仅	-9.19575
▁仐令伟	-9.19618
j	-9.19632
俅仇	-9.19662
▁儨偍	-9.19676
▁傛住	-9.19763
▁令亏	-9.19827
到	-9.19896
個	-9.19942
▁亽佫亚予	-9.20065
▁59	-9.20105
伙仂	-9.20209
▁刌	-9.20263
仕	-9.20299
ha	-9.20354
▁仒们仯	-9.20389
▁h	-9.20519
▁倫余	-9.20541
80	-9.20609
▁伃代亣伓僺	-9.2063
▁俢侻	-9.20703
▁23	-9.20742
▁亖俵佃亶	-9.20794
ce	-9.20866
▁僫	-9.20913
O	-9.20927
▁侺	-9.2097
▁偀傱	-9.2104
▁亖佋	-9.21209
创	-9.21226
▁仙仚亥	-9.21244
兕	-9.21262
冟	-9.21307
▁仙佚伙	-9.21342
佁	-9.21385
互	-9.21418
▁U	-9.21423
▁仐仲伎	-9.21497
併	-9.21552
二偗亳	-9.21672
▁冐仂僟	-9.2171
▁互伙亳	-9.21749
▁亽亞	-9.21809
劄	-9.2181
▁二亏亮亥	-9.21879
仌争亾	-9.21889
▁僙	-9.21925
12	-9.21966
▁亖俵亂亡仓	-9.22037
二六	-9.22053
▁倎仂	-9.22093
事亞	-9.22127
▁侰	-9.22143
▁亢仦亚	-9.22161
▁g	-9.22206
倗	-9.22292
冷	-9.22318
伙事亾	-9.2232
保二仇	-9.2245
▁会予倂仓俷佳	-9.22534
侞傚	-9.22556
佳二	-9.22837
70	-9.23068
▁伷争	-9.23101
▁仠	-9.232
仌亞	-9.23295
▁亓伊仹亥	-9.2334
位仠	-9.23361
▁仛侕亡	-9.234
▁冺	-9.23419
▁佋低侨	-9.23467
65	-9.23476
un	-9.23576
▁亩二仌	-9.23586
▁俕	-9.23701
▁仔但俣	-9.23761
卲	-9.23864
▁佚佛	-9.23941
▁仯亯亼亡	-9.2401
▁亐亚亚	-9.24098
▁佋仦	-9.24184
仧争	-9.24235
▁令亡亯	-9.24258
伙亚什	-9.24314
▁偁代	-9.24323
享亚	-9.2447
▁仛事亚	-9.24489
兾	-9.24493
僘	-9.24538
亜仍	-9.24564
▁冿	-9.24648
仦予	-9.24671
偉亡	-9.24685
▁僧	-9.24698
▁倎伭伹	-9.24721
伹从	-9.24727
▁亅	-9.24759
▁仈偖	-9.24765
勼	-9.24811
22	-9.24849
伏	-9.24877
伸叟	-9.24981
37	-9.25039
▁令二	-9.25135
亓仍	-9.25142
▁凊予侻	-9.25203
56	-9.25289
▁介偿	-9.25328
▁传來俷佳	-9.25375
=	-9.25514
俜倷	-9.2556
44	-9.25585
x	-9.25624
侎	-9.25654
55	-9.25688
▁俌	-9.25694
亐仓	-9.25743
仍二亾	-9.25753
41	-9.25788
倲兙	-9.25818
▁26	-9.25845
▁偞	-9.25951
▁亚亨	-9.26007
偧	-9.26239
▁仛亜	-9.2632
▁仕倮	-9.26351
_	-9.26424
▁侞倷亶	-9.26476
亣佋	-9.26575
▁侎亮伌	-9.26613
亚亶	-9.2663
儼	-9.26745
▁亽侻	-9.26782
▁亢仠	-9.26785
▁亚亨伥仳	-9.27025
▁俢偎	-9.27025
▁仌仅亓	-9.27052
▁于	-9.2731
▁仼亣亜二	-9.27312
儖	-9.27456
俉亳	-9.27484
9	-9.27527
亓争	-9.27529
▁亚傯做	-9.27555
▁以仚	-9.27559
▁亓亨	-9.27608
伭什	-9.27624
▁俊仂	-9.27771
予仍	-9.28052
▁亩剜	-9.28115
85	-9.28118
▁G	-9.2815
偅仇	-9.28189
▁伸休伦傡伿佼仓	-9.28269
仍二	-9.28282
佑	-9.283
▁仛事仪亚什	-9.283
冢冣	-9.28305
兟	-9.28318
侨停	-9.28471
▁亂争伪	-9.28517
▁2014	-9.28529
▁亖仫	-9.28569
▁以从予	-9.28595
43	-9.28639
▁仼二	-9.28657
▁但儶	-9.28665
予企	-9.28828
▁亚亨侮仧亡	-9.28844
▁伥仦	-9.28895
25	-9.28932
▁27	-9.28946
倸	-9.28986
▁信刾	-9.29062
仼亳	-9.29069
71	-9.29081
▁亜偂	-9.29084
呜	-9.29097
▁佌偧	-9.29222
▁2009	-9.2929
▁二亳	-9.29415
23	-9.29488
剹	-9.29496
亂亡仓	-9.29576
叢	-9.29609
倳	-9.29659
21	-9.29693
亮伕	-9.2974
俐争	-9.29768
仵伥	-9.29848
▁re	-9.29885
46	-9.29891
38	-9.299
▁亓佗	-9.2996
39	-9.30053
▁L	-9.30103
▁儍	-9.30124
▁亖仄傫仇	-9.30201
仌侟	-9.30448
▁仌俶仄	-9.30503
▁t	-9.30565
仳仍	-9.30656
lo	-9.30683
▁倃伈	-9.30716
僼	-9.30788
俰	-9.30798
▁倈	-9.30802
傱	-9.30854
▁争亂仅	-9.31152
▁亍偰佈	-9.31197
▁E	-9.31218
▁仔亊	-9.31275
刜	-9.31355
▁亓伌	-9.3137
▁以伫	-9.31387
仸亃	-9.31394
▁仐佤伟	-9.31503
俼	-9.31546
位仉	-9.3156
▁for	-9.31594
偬	-9.31623
儭	-9.31623
亣亚什	-9.31667
▁住	-9.31707
▁伨	-9.31738
侵	-9.31812
倈	-9.31841
▁28	-9.31993
亣佳	-9.32057
▁亂佛	-9.32112
匵	-9.32145
▁亖云	-9.32271
侻亾	-9.32276
入	-9.32287
傘	-9.32288
▁亽亡	-9.32309
▁伋仂亥	-9.32334
▁僁佤亰	-9.32463
円	-9.32577
▁傒冓	-9.32594
▁亚仅	-9.32624
▁伙亏	-9.32763
▁偱	-9.32788
▁以亭	-9.32801
▁40	-9.3284
▁侞亨	-9.32917
唖	-9.32958
R	-9.32963
▁剥剦	-9.32974
兊	-9.32978
何	-9.33048
▁啓	-9.33066
14	-9.33074
▁倫亜	-9.33138
似	-9.33163
15	-9.3318
侯	-9.33198
▁位冟	-9.33322
傞	-9.33391
▁亐伭	-9.336
86	-9.33627
▁俀亙仅	-9.33712
伎亜	-9.33725
儿	-9.33727
仅伟	-9.33781
亰付	-9.33802
传佳二	-9.3382
▁似代仓	-9.3383
亽亞	-9.3391
▁仢俷	-9.33939
95	-9.33966
▁佌佻伦了	-9.3402
佚位伭二	-9.34128
亳亯	-9.34133
▁产亡	-9.34178
▁予亱佭	-9.34244
儾	-9.34246
▁亚伣仳	-9.34247
62	-9.34293
▁仌俀	-9.34389
▁亊偩俴	-9.34441
▁傶	-9.3447
▁仈亙伭	-9.34513
偮	-9.3462
ta	-9.34676
▁亚亨侮佚	-9.3472
▁亓匉	-9.34739
凚	-9.34777
▁亚冾佚	-9.34818
▁伙亣事仳	-9.34819
位亳	-9.34875
▁仢亃于交侕亡	-9.34917
is	-9.34986
亂仭	-9.35024
俶俷	-9.35049
▁佸亶	-9.35102
64	-9.35166
▁亖亢僰	-9.35224
▁倝	-9.35269
俉允	-9.35299
▁亩傌	-9.35339
▁二伭	-9.35341
▁俆亱	-9.35366
冎	-9.35397
90	-9.35415
▁傸	-9.35592
▁似亙	-9.35699
▁亝	-9.35783
72	-9.35813
倠佼	-9.35817
传仌佝	-9.35828
▁亖产倲件	-9.35847
▁亮亶	-9.35991
49	-9.36009
佫仓	-9.36098
代亞	-9.36215
仚亡	-9.36341
代争	-9.36435
▁2007	-9.36522
傁	-9.36598
▁仔介伜	-9.36716
▁W	-9.3687
67	-9.37029
▁伇些产予	-9.37174
▁伬侨伸	-9.37174
▁仅佲仅	-9.37181
亢伥	-9.37265
▁交	-9.37321
▁伋仂亚	-9.37427
▁傋	-9.37436
▁侨停仅	-9.37453
▁仔仗侍	-9.37654
▁偿	-9.37659
仛但	-9.37665
▁偖俉仅	-9.37681
▁俉冨	-9.37745
▁仈亜亚	-9.37766
仌争	-9.37797
▁亖偗亳	-9.3795
28	-9.38116
侞伭	-9.38209
仛事	-9.38266
▁侶	-9.38336
▁仛亊亡	-9.38362
▁2008	-9.38379
传佳	-9.3839
ir	-9.38401
77	-9.38538
▁亖亸	-9.38666
▁价	-9.38725
▁仔俶亜	-9.38826
▁亩亡	-9.38848
亣事	-9.38933
吁	-9.39036
争伤	-9.39136
亢代	-9.39168
刣	-9.39231
伜來	-9.39261
▁伇	-9.39507
侍佚	-9.39566
侣	-9.39568
▁亾亩亡亳	-9.39658
仭亶	-9.3967
伌仌	-9.39712
偙	-9.39717
▁伷产	-9.39736
▁仢俬佋	-9.39744
13	-9.39764
▁仞俁仅	-9.3982
17	-9.39906
▁仔仹倃亥	-9.39933
▁仏	-9.39936
|	-9.40014
▁傋代亡	-9.40081
ac	-9.40107
▁亷刋亡	-9.40148
▁圫兆	-9.40259
俒	-9.40303
來俷	-9.40426
争亓	-9.40486
凓	-9.40528
▁亃仇	-9.40529
伭二	-9.40574
▁亖仌亓亮	-9.40604
剤	-9.40655
▁佋伥冄債	-9.4069
▁亯亡	-9.40718
▁仒产	-9.40718
俷亳	-9.40724
全	-9.40742
亜仅	-9.40748
▁亖二	-9.40768
亂从	-9.40795
▁亍冲产	-9.40829
▁仒偿	-9.40994
▁儤仅	-9.41005
▁2013	-9.41016
勆	-9.41036
54	-9.41087
▁傒亜二	-9.41141
li	-9.41204
▁仅佲	-9.41216
▁僣	-9.41226
▁亚亢亓	-9.41266
▁亃偝	-9.41294
▁亾俅偶	-9.41297
凉	-9.41314
▁俑仯佴	-9.41393
▁仛俰仇	-9.41446
L	-9.41454
▁53	-9.41561
▁侁俵	-9.41583
▁亖伎亜亮	-9.41678
▁仢仴仵亜	-9.4168
▁亷佥	-9.41756
亱予	-9.41781
82	-9.42008
▁傾	-9.42096
兩	-9.42186
▁仐仓仌	-9.42227
代仦	-9.42234
▁似偝似代仂	-9.42276
▁亖俷亡	-9.42284
▁仔予傳	-9.42341
▁亩俺	-9.42341
69	-9.42387
▁伓仅	-9.42496
83	-9.42525
61	-9.42552
▁仐亢亦	-9.42699
ss	-9.42714
▁F	-9.4272
▁亖俴俵予	-9.42733
傭	-9.42766
16	-9.42771
▁仢亃于佄佚	-9.42782
凰	-9.42839
92	-9.42913
剸	-9.42945
▁偙	-9.43005
84	-9.4303
▁円	-9.43032
te	-9.43061
▁亽侂	-9.43077
▁仌争仩	-9.43104
▁傛亭	-9.43164
侏俬	-9.43306
▁侴	-9.43332
兹	-9.43335
偖俉仓	-9.4335
▁佋伥	-9.43404
仠侳	-9.4341
▁仌亮亏企	-9.43443
▁侣仠	-9.43473
▁儤	-9.43474
▁亍仌冂亮亥	-9.43481
▁介争亜偖债	-9.43488
侟	-9.43559
▁亖侹刣亳	-9.43579
▁仿亩仓	-9.43625
伴	-9.43655
傳倠	-9.43664
余伸佧	-9.43684
89	-9.43729
▁争佲仳	-9.43736
63	-9.43737
信事	-9.43804
仸仹	-9.43919
▁佭伧仅	-9.4392
仔于	-9.4393
94	-9.43931
▁亣傐亥	-9.43938
sh	-9.44011
▁俲佪仔偖凈	-9.44048
仕僾	-9.44063
97	-9.44121
來俷佳	-9.4419
ver	-9.44196
▁亐亚什	-9.44241
刦	-9.44352
74	-9.44355
▁仐令事	-9.44468
亏仍	-9.44496
侙	-9.44531
▁亣俌	-9.44579
78	-9.44579
俅	-9.44601
偓	-9.44626
▁伍伎	-9.44679
▁僢	-9.44746
▁亓佋倽	-9.4482
▁d	-9.44852
今	-9.44898
▁仞什冂	-9.44982
叱	-9.45054
▁侏亡	-9.45146
▁令仦係	-9.45235
▁傹	-9.45341
勇	-9.45379
▁亚事促	-9.4538
▁亃亝	-9.45523
体	-9.45551
伸佧	-9.45651
▁冠	-9.45731
仏	-9.45777
侌	-9.45799
▁亣仒	-9.45846
▁勼	-9.45876
im	-9.45994
▁係	-9.46009
亮亏	-9.46047
▁储	-9.46053
亗	-9.46082
亓仦	-9.46109
偷	-9.4615
儅	-9.46152
▁凁亂亾儠	-9.46216
66	-9.46242
产亚	-9.46259
▁仆代	-9.46266
93	-9.46342
剼	-9.46381
刌	-9.4647
匴	-9.46471
▁亜伹偿	-9.46492
▁以从予仅亥	-9.46501
冪	-9.46614
▁亓佗事	-9.46639
代仅	-9.46653
争伪	-9.46782
▁侁伸争	-9.46804
▁仑关	-9.4686
僝佼	-9.47001
▁亷俾	-9.47019
▁ma	-9.47044
as	-9.47049
47	-9.47225
▁亃仦伷产	-9.47263
▁亚亨偩	-9.47281
▁仪倣亞	-9.47345
▁予众倏	-9.47356
▁仛伹仅亚	-9.47469
前	-9.47485
坷	-9.47503
▁偭	-9.47572
亃伭	-9.47647
儏	-9.47651
▁俏予侍	-9.47663
偍	-9.47701
仌侤亰	-9.4772
厳	-9.478
▁29	-9.47855
▁亩仦	-9.47876
▁佋件來	-9.47893
▁俼	-9.47917
兖	-9.48004
亜伎	-9.48198
伍佳	-9.48199
亢亝	-9.48247
伸仂	-9.48248
▁仛仦	-9.48259
▁亖亜伭	-9.48273
▁僻倫	-9.48324
▁倲克	-9.4834
冐	-9.48396
▁侏仅	-9.48463
傾	-9.48472
▁俑仯佴亥	-9.48648
▁债予	-9.48658
倓	-9.48714
兤	-9.48721
刢	-9.48771
▁休	-9.48805
▁仙仇	-9.4888
▁凊侻伻	-9.4889
||	-9.48893
▁亖亳亯	-9.48911
ve	-9.4892
予侟	-9.48943
81	-9.48951
▁亩侍仇	-9.48958
凈	-9.49051
▁亍仌冂亣仓	-9.49239
傟	-9.49305
▁仛俯	-9.49364
▁伸侉俷亡	-9.49383
▁仈亜亳	-9.49422
▁仐介伕	-9.49505
儲	-9.49517
涊	-9.4954
▁亃偝伪	-9.49573
▁仌事任	-9.49583
▁亶亱	-9.49634
冢	-9.49729
▁佋偩井仅	-9.49815
▁亶事	-9.49857
仍仅亰	-9.50001
偖债	-9.50044
佲仳	-9.50051
▁仐佋俇	-9.50109
▁亂佛代匰	-9.50135
▁亊亯	-9.50175
倞	-9.50223
侜	-9.50279
▁亏亜	-9.50316
87	-9.50334
▁伋争	-9.50351
▁亃仦俵亥	-9.50356
▁亽但伹	-9.50362
亃亮亶	-9.50376
▁倲低	-9.50404
▁亷偗	-9.50525
充亞	-9.50585
俗	-9.50586
▁亲仠儢	-9.50689
▁仙代	-9.50704
傲	-9.50738
伓僺	-9.50786
呬	-9.50834
亜亮	-9.50879
68	-9.50896
▁亖佳二偂仂偞	-9.50906
▁俺仐亜	-9.50914
▁亜争	-9.50958
▁亖仅	-9.50998
▁亖佳	-9.50999
▁偆勴位亡	-9.51121
all	-9.51133
兡仇	-9.51187
▁似代侻	-9.51199
▁亽仅事	-9.51215
▁佶争	-9.51232
60	-9.51257
▁as	-9.51383
▁佋佇任	-9.5139
偂仂偞	-9.51524
亇予	-9.51543
偺	-9.51544
佰	-9.51626
噃	-9.51641
▁二伧	-9.51661
儗	-9.51906
▁仌俰仇	-9.51921
76	-9.51966
仸伸	-9.52005
▁仁几	-9.5206
▁仮仯仅亥	-9.52082
▁仔伢	-9.52237
勨	-9.5225
▁倨倇	-9.5229
26	-9.52308
um	-9.52426
F	-9.52504
▁仆俔仇	-9.52551
傪	-9.52648
▁亷候	-9.52828
仌倐俺	-9.52844
31	-9.52857
57	-9.53084
▁亃伭	-9.5317
▁亍個仓	-9.53239
亴佋	-9.53256
伨	-9.53282
▁俜仠仌	-9.53297
88	-9.53394
▁倐俺	-9.53399
▁产亡亃产	-9.53409
冶	-9.53411
劏	-9.53443
▁亶亚	-9.53456
依	-9.53602
偉佳	-9.53617
于伕	-9.5364
▁仛亊亳	-9.53707
▁侞令	-9.53717
仅伻	-9.5377
▁仅匛	-9.53797
▁佒僢企	-9.53845
▁倲亡亯	-9.53871
79	-9.53942
73	-9.53995
▁亢仂亥	-9.54013
仧凂	-9.54021
事企	-9.54029
▁俪亜	-9.54048
介伕	-9.54142
▁介争亜偖俑	-9.54144
▁党	-9.54188
V	-9.54239
{	-9.54319
▁with	-9.54358
勡	-9.54438
▁2006	-9.54477
儍	-9.54481
兒	-9.54537
卧	-9.54537
傛	-9.54565
52	-9.54576
▁仞凷亡	-9.54636
di	-9.54843
凁	-9.54847
▁2010	-9.54891
▁仢亐伥争仳	-9.54923
▁仩伭二	-9.54965
倡	-9.55154
▁亯偛	-9.55163
亢仠	-9.55222
▁仐仧争仳	-9.55235
▁亂争仳	-9.55283
ct	-9.55369
▁亊单劊	-9.55454
H	-9.55524
俎	-9.55564
倰	-9.55595
▁令侬	-9.55613
▁K	-9.55635
▁亩偑亳們	-9.55684
om	-9.55702
俢仌仪亚什	-9.55765
伸代	-9.55856
亡仄	-9.5586
▁仆仚	-9.55901
啁	-9.55904
冮	-9.55922
亂亡仅	-9.55951
▁位低	-9.56073
▁予井	-9.5624
僒	-9.5634
▁侺产佀佃亶	-9.56351
▁仸仹亥	-9.56368
0,000	-9.56475
代二	-9.5652
倩	-9.56575
▁仔信	-9.56607
▁侚亱佈亶	-9.56701
▁亵仚仅	-9.56768
▁亣僆	-9.56857
▁仔偖债	-9.56878
▁亓匉仓	-9.56886
▁侎倬冈	-9.56908
▁亲伅	-9.56954
伟亶	-9.56964
▁伜代	-9.57007
▁佚凿	-9.57126
亂事	-9.57219
▁侺仌	-9.57246
凗	-9.57254
▁佺冿仌仦	-9.57274
▁伌侟	-9.5729
仿亩亚什	-9.57348
亂仭亥	-9.57414
仺	-9.57438
29	-9.57441
▁亖亰佋产	-9.57482
佪	-9.57504
▁仍倩亵俌	-9.57581
合	-9.57601
伤从	-9.57612
▁亓伊	-9.57689
▁偖俉仅亥	-9.57771
▁以亙	-9.57781
仠亞	-9.57819
▁伂	-9.57837
剻	-9.58032
▁伸亜	-9.58096
偖俉仅	-9.58158
▁伒	-9.58191
▁俢亡	-9.58215
佄仇	-9.58221
▁k	-9.58291
亩伎	-9.58305
▁冐倏僟	-9.58341
▁侎兟二	-9.58403
▁二仌仅	-9.58448
佊	-9.58465
▁仐偖刭	-9.58507
▁亖亜亳	-9.58534
凭亡	-9.58548
▁亖做仇	-9.58645
35	-9.58713
倐侻亥	-9.58735
▁予傑仓	-9.58817
▁de	-9.5882
剶	-9.58983
▁亚于令予仌剜	-9.59003
▁伸仦	-9.59047
伊代	-9.59077
伸仓	-9.59138
凮	-9.59159
▁倡亚予	-9.59239
▁亓俴	-9.59256
▁亽仇	-9.59311
▁亜二亾	-9.59347
剜	-9.59403
▁仸仆俔	-9.59442
▁倎亜	-9.59541
▁亣傇仅	-9.59548
▁伍佳亥	-9.59577
ay	-9.59617
▁亖伱仦予亭	-9.59628
佗亮	-9.59629
▁仗剰	-9.59817
亐从	-9.59859
▁亓亩仧亮	-9.59908
▁伻佤二企	-9.59921
偂仂	-9.59966
▁佒予	-9.6
27	-9.60099
▁儖	-9.60138
▁佒亳	-9.60185
▁亲代亚	-9.60197
▁伓佶	-9.60273
▁亖仄	-9.6029
予亞	-9.60355
▁佤	-9.60377
ng	-9.60379
▁倐值俷亡	-9.60425
▁倫佭予	-9.60426
俆	-9.60496
▁予偝	-9.60501
01	-9.60568
▁享仄	-9.60621
傻侏佧	-9.60626
▁俢厾	-9.60666
▁信但	-9.60683
▁31	-9.60725
▁侧亰予	-9.60743
▁by	-9.60763
亾亩亞	-9.60792
▁2015	-9.60805
佋佉	-9.60826
儘	-9.60883
作仞	-9.60889
▁伸仅二	-9.60891
▁亚亢	-9.60923
▁伓侹亜	-9.60943
▁价二	-9.60976
▁勯余	-9.60982
▁佒体伭二	-9.61033
▁仛俶付	-9.61067
偣	-9.61199
▁仙仚亾	-9.61224
▁亖亙伭	-9.61231
▁亣劊	-9.61327
倦仼	-9.6133
▁仔亂债	-9.61399
僙	-9.6143
伌伈	-9.61451
▁佯	-9.61536
▁仔予侻二	-9.61569
▁仈予	-9.61588
儵	-9.61621
伖代亚	-9.61626
厲	-9.6168
▁亾亩刊	-9.61697
▁侮倇	-9.61764
呺	-9.61803
▁伉	-9.61805
俰偉亡	-9.61967
▁儫	-9.6201
▁亓佗伟	-9.62021
傶	-9.62022
▁佚佛仓	-9.62135
08	-9.62181
刡	-9.6221
仌仅但二	-9.62211
▁匣	-9.62263
儆佳	-9.6228
亃俠仇	-9.6229
▁佋偩井	-9.62329
▁仔令仅亾	-9.62417
▁僬产	-9.62476
▁兕产	-9.62497
▁侧仓仌	-9.6258
亊亡	-9.62652
▁俙仠仄	-9.62727
剢	-9.62733
▁仹伭	-9.62735
51	-9.62737
仁	-9.6275
▁亃偎	-9.62835
▁伙侻予	-9.62848
▁传休任仓	-9.62912
▁亽事二亾	-9.62931
偄	-9.62936
▁俏	-9.63017
▁俸佋	-9.63043
▁仐伭	-9.63162
▁仛俉	-9.63211
厔	-9.63223
功	-9.63266
▁仕	-9.63346
卩	-9.63353
▁佭仓侕亡	-9.63377
假	-9.63439
亊佳	-9.63545
▁亇凹亝	-9.63657
▁伝仪	-9.63687
▁僜	-9.63769
▁儡	-9.63817
▁亚亣	-9.63909
佋亭	-9.6392
亃倌亥亰	-9.63937
▁亢仯仌争伪	-9.6394
剉	-9.64005
▁仢亃于亏	-9.64007
▁侏亡俑二亏	-9.64049
▁仮仯仰	-9.6418
伆	-9.64246
▁佀伭于	-9.6429
▁仈倚二	-9.64418
▁仔仲伎亶	-9.64596
伭伹	-9.64665
▁似亙僔付	-9.64816
▁俈佛	-9.64867
▁亊偩兩	-9.64882
傼	-9.64921
53	-9.64967
ne	-9.64996
▁亖俵亂亡仅	-9.65051
▁产亡亯伓佧	-9.65062
傫仇	-9.65111
剀	-9.65124
▁仢亃于佄仞	-9.65174
▁仐俖侍	-9.65201
▁仙偰予侍	-9.65215
伓候	-9.65356
▁伸休伦傡伿佼	-9.65385
▁亽亏冷	-9.65392
▁侢代	-9.65479
▁亽亓俒	-9.65479
佄仞	-9.65491
▁介偒	-9.65517
俉从	-9.65656
▁51	-9.65728
二亏亞	-9.65749
▁亍偶依	-9.65813
▁侳争亾	-9.65824
▁俆伧	-9.65943
冞	-9.65944
▁100	-9.65953
儀	-9.66012
仧亱	-9.66021
▁倡匑	-9.66096
▁但亼	-9.66125
仩亡	-9.66238
偶佶	-9.66267
▁侧兯	-9.66309
倣	-9.66313
仅减	-9.66375
▁仐伌兊	-9.66391
▁52	-9.66405
▁亽匋傲亥	-9.66413
em	-9.66429
▁亐仦	-9.66442
ma	-9.66468
偖仌	-9.66525
▁亍伸俔	-9.66538
58	-9.66564
哳	-9.66637
▁冟	-9.66644
▁亚冾仞二	-9.66693
▁伝仠	-9.66801
▁俺仐	-9.66847
偤	-9.66861
亣令	-9.66868
伷	-9.66871
▁侎亮他仧亡	-9.66873
▁亖佋亣仌产	-9.67122
倘偉亡	-9.67342
▁亷侬	-9.67347
勷	-9.67357
剐	-9.67492
▁僳	-9.67548
冪亡	-9.67577
伎仚	-9.67635
▁仦亂僰	-9.67673
▁亶亡	-9.67735
id	-9.67755
▁2004	-9.67924
▁仹亳亏	-9.67929
▁仢亃于佄	-9.67934
▁佸二	-9.6798
ut	-9.67986
亯仓	-9.6803
亐亡仓	-9.68093
el	-9.68165
▁l	-9.68222
hi	-9.68266
▁仔伤偢予	-9.68355
▁俢刽	-9.68472
冱	-9.68573
劷	-9.68727
位亞	-9.68748
候企	-9.68767
▁争儱	-9.68787
▁亽偈	-9.68831
冂亢	-9.68835
▁停	-9.68889
▁勺偧	-9.68913
▁佈	-9.68935
▁con	-9.68943
仲二	-9.68963
仠仍	-9.68988
▁亯亡仄	-9.69013
仵亦	-9.69039
产什	-9.6909
厹	-9.69163
99	-9.69188
匋	-9.69202
▁亓伥令	-9.69283
▁倲侬	-9.69291
▁令冤仧亳	-9.69294
▁亏佈亥	-9.69312
偁倠	-9.69338
▁亓佋伟	-9.69377
▁仈偂仂	-9.69425
59	-9.69456
俙	-9.6948
仌亮亥	-9.69585
亱伹	-9.6966
co	-9.69688
▁亃亰仓	-9.69697
▁俉勦	-9.69713
兓	-9.69778
▁亢佌	-9.69818
仂伿	-9.69839
侍仛	-9.69865
元	-9.69871
儨	-9.6994
▁勺	-9.69956
▁仛事位俠仇	-9.70004
▁亍仔亐事	-9.70057
则	-9.70145
亃仉	-9.70236
op	-9.70328
倊	-9.70358
▁亮亏	-9.70402
佧伜仂	-9.70461
侍仧亡	-9.70494
▁佚偝	-9.7057
▁亖俷亳	-9.70572
▁伇冲产予	-9.70591
事劽	-9.70663
二亏亞佼	-9.7068
and	-9.70696
▁亃偝仳	-9.70764
▁但倏	-9.70832
勉	-9.70848
▁傂倠	-9.70877
▁亍仌冂争仍	-9.70885
▁侨停仓	-9.70913
傸	-9.70917
僵佼	-9.70929
亲	-9.70974
▁亲偉	-9.70986
▁亚侏仇予	-9.71082
亳們	-9.71082
ig	-9.71191
▁僑佗仓	-9.71293
▁亖佳伙	-9.71319
▁亽佗争	-9.71367
刋	-9.71412
▁仔侏俑	-9.71455
刘	-9.71481
▁倎侻	-9.71641
▁亜众井	-9.71658
冸	-9.71693
▁仔仧亮	-9.71735
▁仈偂仂偞	-9.71826
▁亃亨仍	-9.71846
▁亂位低	-9.71859
0%	-9.71912
冢仠	-9.7192
07	-9.71924
▁位事侻	-9.72177
▁仢亐伥争仳亾	-9.72227
▁儥	-9.72243
▁亃兙	-9.72268
▁亖俵亂亮	-9.72272
▁伻亜	-9.72315
云	-9.7239
vi	-9.72405
▁亂佛亴亵亥	-9.72424
▁俉冨侏俬	-9.72461
▁60	-9.72504
剨仂	-9.72519
▁伌剢仓	-9.72579
▁亶仦	-9.72636
传伹亡	-9.72652
▁仔仕产	-9.72702
划	-9.72711
▁亯伭	-9.72746
▁st	-9.72765
▁佨亢	-9.72771
▁伎仇	-9.72787
▁V	-9.72807
▁偞仅予	-9.72811
令亞	-9.72839
▁亊佋	-9.72853
仭伅	-9.72896
▁35	-9.72943
▁勨	-9.72986
▁伸侻仓	-9.73007
▁亷儿二	-9.73054
▁倫仚佃伅	-9.73141
▁亽匐亂	-9.73213
仯亚什	-9.73262
伹伶	-9.73308
啁二	-9.73327
冂伜	-9.73585
▁介争侑	-9.73626
▁冢	-9.73652
▁伜侻	-9.73657
▁仐令伹	-9.73847
▁二仓亯亡	-9.73861
▁儨	-9.73878
▁仿佋仍亥	-9.73881
▁亓亩僜	-9.73967
儕	-9.73993
▁偖亢仅伟	-9.74054
▁仔侏前	-9.74088
仔亊僺	-9.74235
ment	-9.74236
ru	-9.7424
▁亲偉亡	-9.74409
▁O	-9.74561
▁侏代	-9.74629
▁僔付	-9.7466
做仇	-9.74709
▁仙俉仅	-9.74728
▁僜來	-9.74741
偱	-9.74751
▁亷刋亳	-9.74843
▁倲代	-9.74866
ab	-9.74875
ow	-9.74892
▁亚仌傂	-9.74952
伹亚什	-9.74976
争伤仓	-9.75097
▁僓介伕	-9.75121
仌仅但	-9.75124
98	-9.7515
pa	-9.752
冝	-9.75247
▁伌剢仅	-9.75254
▁倇从	-9.75361
05	-9.75399
▁争亊事二	-9.75415
▁今佈伶	-9.75415
▁仐佤伟亥	-9.75439
06	-9.75472
▁仢傠亵	-9.75586
俢亍	-9.75691
僎	-9.75806
03	-9.75863
▁仙俔仧	-9.75897
侊	-9.76127
叟	-9.76144
▁亖亜亚什	-9.76166
吴	-9.76201
▁代佢伤	-9.76201
啖	-9.7623
ion	-9.76267
▁僊	-9.76336
亃儴	-9.76393
▁仐俗俘仓	-9.76398
▁亖偂	-9.7645
▁僧亸	-9.76493
仌伧	-9.7654
▁亍冲亜	-9.76621
亃亳伖仇	-9.76689
仌佝	-9.76701
▁仑侜	-9.76742
▁2005	-9.76815
凵	-9.76819
▁亍价侻二	-9.7682
09	-9.76856
▁亣但二	-9.76895
▁传亱	-9.76921
▁on	-9.76999
亐伎	-9.77032
▁伸什伍亭	-9.77043
▁侁亍	-9.7714
伜亜保二	-9.77143
▁介佤亥	-9.77239
▁凊	-9.77254
▁亚伟伶仳	-9.77391
▁亃亣	-9.77479
倲低	-9.77615
▁伒仚	-9.77695
96	-9.77749
▁佋佫	-9.77763
▁勸	-9.77846
亐亡仅	-9.77875
▁傛	-9.77935
▁亲仠亶	-9.77953
▁亻二亊佄	-9.77956
占	-9.78042
ot	-9.78075
▁亖伎亜仼亮	-9.78125
俢侻	-9.78172
▁亽佗亮	-9.78251
▁亏伭	-9.78305
▁亂仅亼	-9.78382
二偂仂偞	-9.78417
▁俈仞	-9.78428
冧	-9.7849
▁亮伕亥	-9.78507
02	-9.78632
予争保二	-9.78642
▁俲俳	-9.78702
▁佚倳	-9.78723
▁亜争亏产	-9.78724
亾俷	-9.78732
▁倎令	-9.78739
侍仗	-9.78747
伡	-9.78796
▁侏事	-9.78822
刖	-9.78823
位仠仯佳	-9.78837
▁倈仚亶	-9.78841
91	-9.78845
▁that	-9.78901
▁勿	-9.78918
▁偯	-9.78935
伙优	-9.79053
卡	-9.79077
▁|	-9.79096
倚二	-9.79096
▁亾仅	-9.79123
▁产亡亯	-9.79156
僃	-9.79185
侻傿	-9.79236
▁争冚	-9.79272
亃争保二	-9.7932
▁仐亚于亏亐亡	-9.79408
▁仔但偧	-9.79408
制	-9.79433
va	-9.79471
仛亢亡	-9.79481
ti	-9.79489
▁佚亴仌倷	-9.7951
ill	-9.79531
仮	-9.79541
伤亚什	-9.79567
倽	-9.796
▁仹佚	-9.79607
U	-9.7963
侍仞二	-9.79666
俭	-9.79708
仪从	-9.79716
亴亵	-9.79757
▁俆争	-9.79875
res	-9.79918
▁佨佲	-9.79955
▁佋傠	-9.79978
仛但二	-9.8007
▁予勵侻予	-9.80072
俁从	-9.80188
▁二仌	-9.80236
▁仼俖佃	-9.80252
▁亽亥佚二	-9.80304
▁伻仅	-9.80318
▁2016	-9.80323
na	-9.80476
▁亜偗	-9.80486
倅	-9.80509
▁亍佌儱	-9.80534
伢	-9.80557
▁亚冾仧亡	-9.80597
▁介仐俶俷亡	-9.80663
▁仢俷亳	-9.80719
冫	-9.80766
▁倲偝	-9.80843
▁仛争	-9.80869
▁仐佤伹仅	-9.80917
仯从	-9.80929
▁二俜伙	-9.81003
俉勦	-9.81013
▁偄亱	-9.81058
▁佶伣	-9.81105
倘伅	-9.81143
▁伥偏	-9.81144
兆	-9.81154
剖	-9.81206
▁函产予	-9.81232
切	-9.81252
▁产亡佋仅	-9.81272
侻偿	-9.81299
俔仞	-9.81321
▁亜內	-9.81392
代匰	-9.81435
俑俒	-9.81509
▁仮仯仓	-9.81518
剮	-9.81518
▁仢付仇	-9.81551
儺	-9.81648
▁com	-9.81698
偉亳	-9.81703
俫	-9.81706
▁仐令事二亏亮	-9.81756
he	-9.81782
▁呕	-9.81803
▁俑偿亮	-9.81807
凹	-9.81856
哙	-9.81856
▁v	-9.81991
▁予仅但	-9.82012
▁亍偶俥仞	-9.8211
▁亓冝	-9.82141
▁伙佋	-9.82146
-1	-9.82157
▁侺仌伥侍	-9.82177
▁俆仓亯亥	-9.82188
傭亡	-9.82199
亓亭	-9.82228
剋	-9.82236
▁亖侹事伎	-9.8238
▁亃代仐	-9.82398
佋仄	-9.82526
亂亡亳	-9.82535
呝	-9.82668
ka	-9.82731
}	-9.82738
▁僅	-9.82841
剃	-9.82905
▁亜偏仌亶	-9.82971
▁亻亳亾	-9.83022
倘偔	-9.83117
▁佋佈	-9.83132
▁侏亓仐	-9.83173
▁仞俹亥	-9.83179
事侐	-9.8324
劈	-9.83249
▁仈傭亡	-9.83257
佃伅	-9.83273
ist	-9.8329
▁亃任仼	-9.83295
▁令利	-9.83319
▁仐亳代住二	-9.83328
刷	-9.83355
▁亖亓仓	-9.83386
▁信任俢	-9.83432
冾	-9.83487
亅二	-9.8349
▁令争亏	-9.83498
亣僝	-9.83526
▁亂佛亴亩仅	-9.83542
▁亢佌仄	-9.83591
▁亂什伙仠	-9.83646
▁俈南	-9.83683
婨	-9.83832
ga	-9.83843
▁亃亙	-9.83863
▁伜仂仐	-9.83882
仦事亭	-9.83941
▁仧仅	-9.83946
04	-9.84021
▁亴佋	-9.84085
佲亭	-9.84138
▁以卣奯	-9.84206
▁亃仦佚伟	-9.8434
▁亜争仗亶	-9.8434
來亳	-9.84389
▁偖俉	-9.84497
僰	-9.84523
▁亷偂仌侤	-9.84671
▁亓亏佧	-9.84719
▁俺仐佈	-9.84835
▁亚亨侮仞二	-9.84898
俢亢仅亚	-9.84913
▁争俪仞二	-9.84984
兰	-9.84995
军	-9.85038
de	-9.85039
▁吁亚事亭	-9.85051
亃俫亡	-9.85097
▁传休任	-9.85135
亴亩	-9.85154
儢余	-9.85192
ia	-9.85254
▁2000	-9.8535
▁併偓	-9.85416
▁予傜俉仅佼仓	-9.8542
ci	-9.85471
▁仮亜	-9.85496
▁亖仌亓争保二	-9.85524
▁仢代伟	-9.85568
▁亖亰亓侍仞	-9.85606
冿	-9.8561
俰代亚	-9.85661
▁仌仇亱	-9.85675
▁亖仌亓争	-9.85682
▁偶亶亡	-9.85699
du	-9.85756
+	-9.85768
佯仞	-9.85797
▁二亏亞	-9.85807
▁伻侜	-9.8589
▁伸什侕亭	-9.85903
凿	-9.85911
佐	-9.86066
侽	-9.86094
▁俙伭	-9.86136
▁亓冘任	-9.86284
▁侢仇	-9.86313
▁亻亰俤仓	-9.86421
▁佋伎	-9.86428
亶傒	-9.86485
亃兤亥	-9.86564
▁亃兀	-9.8658
亢仦什	-9.86631
侍俪仇	-9.86636
倦二	-9.86714
侀	-9.86746
▁偼亭	-9.86747
▁仙代侴	-9.86771
凋	-9.86776
介佤	-9.86781
▁亖俵亂争	-9.86891
▁伙亳	-9.8696
▁二凴仠	-9.86968
兝仇	-9.8702
▁俆亱事侴	-9.8711
▁亽仲争亃伭	-9.87361
但伹	-9.87363
仼亣	-9.87375
儯	-9.87376
▁令事	-9.87399
凊	-9.87407
▁仅俚	-9.8742
▁it	-9.87438
凅	-9.87469
▁仐切	-9.87534
仓俷佳	-9.87538
传伹亳	-9.87627
伯	-9.87685
刺	-9.87685
匑	-9.87745
做仞	-9.8775
匂	-9.87768
▁伒俔仇	-9.87768
仌仅二	-9.87819
凣	-9.87823
▁令亡仼	-9.87853
▁冓仅亻	-9.87885
▁俉亓二	-9.87969
▁仙倨	-9.8798
刔	-9.88025
age	-9.88154
▁令儊亼	-9.88157
▁侧亱	-9.88158
倎	-9.8819
典	-9.88295
▁估侒亥亚	-9.88402
▁倇亚亥	-9.88459
▁仛伹	-9.88489
冦	-9.88498
▁以企	-9.88549
▁予亚佭俰仇	-9.88558
仕亜	-9.88592
▁倲仦交	-9.88615
der	-9.88637
▁亲仪亱	-9.88659
▁侏伭	-9.88702
呮	-9.88771
偖仄亳	-9.88783
代俷亡	-9.88835
▁亚啖	-9.88849
one	-9.88878
厕	-9.88909
▁侏但	-9.89023
▁仛产	-9.8903
俊了	-9.89048
卥	-9.89078
佦	-9.89106
▁代俇予俍	-9.89163
▁仈俊仂	-9.8919
▁仐俗俦	-9.89206
▁兑代	-9.89278
▁亖仵	-9.89346
▁剻凰	-9.89359
▁佚兂	-9.89362
▁伌俒	-9.89382
▁亷儿	-9.894
亂亚什	-9.89423
仌俀	-9.89439
▁仠兰	-9.89459
亃伭二	-9.89526
佚偘	-9.89542
初	-9.89584
円侐	-9.89638
▁享代亚	-9.89667
厖	-9.89725
▁偱侦	-9.89732
刉	-9.89742
▁令伸亭	-9.89755
▁亊傿	-9.8977
▁佌偣亥	-9.89804
▁J	-9.8986
▁仄付仐	-9.89894
ge	-9.89907
▁介伕亥	-9.89912
▁亃侗	-9.89968
仧仦	-9.90031
▁亚伣亜	-9.90068
厾	-9.90108
傒亡	-9.90164
剺	-9.90177
亚些	-9.90179
pe	-9.90293
ant	-9.90311
▁吁亚	-9.90324
匃	-9.90433
呎	-9.90461
X	-9.90518
▁亖亗亭	-9.90521
▁佭伧仓	-9.90542
▁代俇亾亳	-9.90565
佂佼	-9.90575
▁僙仓	-9.90589
傟亠	-9.90647
▁侁亊仓	-9.90667
亊亳	-9.90722
▁仛任俢	-9.90761
二仼亳	-9.90856
介伜	-9.90866
▁仞俁仓	-9.90892
▁仌傯	-9.90986
仍仅亥	-9.91003
▁争儮	-9.9101
偖俑	-9.91016
▁冓厁	-9.91032
▁亍偶俵亜	-9.91118
▁佚亚传	-9.91135
▁亃仦刭借	-9.91232
▁亓仍傢	-9.91283
勑	-9.9129
▁亩倳	-9.91346
刔净仃	-9.91379
億	-9.91404
傴	-9.91477
▁亯侙仞	-9.91524
▁亽仅伟亥	-9.91635
伸亳亥	-9.91638
▁was	-9.91657
仌产	-9.91704
▁仔傤佃亶	-9.91721
▁仙俔佚	-9.91735
▁亜亡亢产	-9.91836
偖俉亚什	-9.91848
▁仅他俪仇	-9.91865
▁pro	-9.91959
▁仢代	-9.92026
▁仐偊	-9.92041
凧	-9.92067
▁are	-9.92237
▁from	-9.92298
▁凊予	-9.92307
▁伙事予俍	-9.92356
▁以佳亞	-9.92381
▁以仌仦	-9.92421
傥	-9.92501
▁亲仠仌侤	-9.92525
ho	-9.92584
▁亷冗	-9.92598
▁佚仦伶亥	-9.92629
伫从	-9.9267
▁仔事偐	-9.92675
▁亻二亊亯	-9.92734
▁亖俵亂仦	-9.92743
▁亽亴促	-9.92792
▁仌事傼	-9.92792
凪僩	-9.9285
办	-9.92878
▁侣佭	-9.92894
▁亃亨亜	-9.9295
▁傋亜亵仇	-9.92999
▁亖叧	-9.9317
▁仆亐亡	-9.93172
▁亊俥佚	-9.93212
俉冨	-9.93264
▁僎像仅	-9.93416
劘	-9.93434
修	-9.93482
▁予优仓	-9.93522
▁he	-9.93534
▁侏仇予	-9.9354
▁仢亃于交	-9.9355
W	-9.93583
偽	-9.9361
▁俙争	-9.93682
僑	-9.93696
▁便	-9.93699
凄	-9.93705
儼从	-9.93737
▁仹仧事信	-9.93786
▁俉儤事	-9.93816
側佼	-9.93848
冣	-9.94071
传兵	-9.94119
▁伢	-9.94149
▁以凚	-9.94208
▁似代仅亯	-9.9423
▁亖仄伖仇	-9.94274
▁伊侻偘	-9.94307
▁仁	-9.94371
▁以仚亡	-9.9441
ted	-9.94442
▁亖侹刣	-9.94454
▁亓佋倽仅	-9.94532
勘	-9.94583
▁伙事亾仓	-9.94607
▁亽吊亱伹	-9.94613
伙卋	-9.94656
僡	-9.94732
倛	-9.94761
▁二仂	-9.94781
▁以从予仅	-9.94793
lu	-9.94875
▁仙仯	-9.94907
▁値倥	-9.94941
刏	-9.95029
▁亖伎亜	-9.95123
佼亥亚	-9.95166
亐亚什	-9.95413
▁侨停仰	-9.95438
僧	-9.95501
▁佁佋亢亮	-9.95506
▁佒众	-9.95537
▁侺产佀予	-9.95538
▁伋仓	-9.95562
侕佋亚	-9.95599
伸叟亥	-9.95603
▁佋亚倮	-9.95634
俢亢亱	-9.95647
▁1990	-9.95674
▁亍伍	-9.95701
▁亊俥俪仇	-9.95716
int	-9.95735
吪	-9.95776
▁仵侮	-9.95778
▁ex	-9.95778
儔	-9.95836
bo	-9.95872
▁佚仇仐二	-9.95955
▁佭伧	-9.95977
▁倐代	-9.95987
▁俑亜	-9.95992
吏	-9.96016
▁仈倚	-9.9604
传伖仇	-9.96053
ate	-9.96061
亢亯	-9.96102
▁亜交二	-9.96134
▁亃倂	-9.96135
享代亚	-9.96151
俥佚	-9.96175
作佚	-9.96199
▁伕亶	-9.96364
▁亖刲	-9.96388
▁仢亃于佄仛	-9.96395
倱	-9.96408
刂	-9.96438
▁亖凼	-9.96474
▁仞仌争	-9.96604
叁	-9.96619
▁伋伭于	-9.9662
ea	-9.96632
▁令二争企	-9.96633
介亶从	-9.96687
吩	-9.96801
▁亃仦亩伪	-9.96801
來仄	-9.96937
俋	-9.96952
咉	-9.96983
▁偕仌仓	-9.97007
▁仌剜	-9.97039
▁令冤仧亡	-9.97074
▁亓仅佗	-9.97114
兺	-9.97134
▁亂佛亴亵	-9.97148
保二仐	-9.97256
兼伎	-9.97278
▁亂佛亴亩仓	-9.97287
▁仈儗	-9.97372
▁亽仇亢亮	-9.97378
▁倇勎	-9.9738
▁俑仯匌	-9.97408
哵	-9.97408
▁仈唸	-9.97416
▁仛佌	-9.97432
仙	-9.97444
▁亼仂亚	-9.97532
▁佺倂仚	-9.97561
▁僼侨	-9.97717
ity	-9.97763
est	-9.97768
▁仼争劇亣	-9.97836
ine	-9.97841
▁亼仄	-9.979
咄	-9.97928
佄佚	-9.97942
五	-9.97959
▁亽伱亰	-9.97981
▁仇亯仌	-9.97995
▁佋仯	-9.98021
▁亣亩	-9.98067
凱	-9.98081
qu	-9.98097
卅	-9.98144
仔产	-9.98223
up	-9.98334
佗争	-9.98348
匍	-9.98388
▁侧偨	-9.98465
來仅亰	-9.98473
▁仍仑	-9.98495
▁佒体俠仇	-9.98512
偎亰	-9.98532
▁予仠亃	-9.98573
▁俑偿争	-9.98587
▁亽仲争	-9.9863
ca	-9.9868
众偟	-9.98691
予争伪	-9.98777
▁mo	-9.98786
▁傕	-9.98837
▁予儊	-9.9887
▁仼亱	-9.98873
凼	-9.98969
▁伕亏	-9.9898
▁俢仦予	-9.98982
▁众亏仯	-9.99009
▁亚偶佶二	-9.991
仦交	-9.99132
ke	-9.99133
▁仛事位伭二	-9.99166
ive	-9.99178
俣	-9.99185
▁2017	-9.99188
儡	-9.99216
剘	-9.99223
▁亓亩二	-9.99251
亃亚佤冰	-9.99255
▁伓亚亓	-9.99268
▁予仓仼	-9.99281
▁亃仐伶	-9.99288
▁二佧亳	-9.99353
nd	-9.99383
仗俢	-9.9942
▁代俑亥	-9.99432
于交	-9.995
▁二亏亣仅	-9.99537
▁咪	-9.99621
▁信任亾亚	-9.99748
冡	-9.99909
▁仌傭佳	-9.9994
僯	-9.99948
僾	-9.99988
▁仼争劇亮	-10.0006
▁me	-10.0013
▁亊俥仞二	-10.0017
ry	-10.002
▁伊伭伹	-10.0025
僉	-10.0041
咨	-10.0041
G	-10.0047
卺	-10.005
▁俛但二	-10.0066
▁佃俞侻亞	-10.0075
予侍佚	-10.0076
▁亖付仇	-10.0077
ak	-10.0078
▁俎俣	-10.008
▁伸仦占众予	-10.0088
倉	-10.0095
▁仐亢伥	-10.0096
▁伻亃凝亥	-10.0107
亚事亭	-10.0109
俢仌侤	-10.0111
位俫亳	-10.0111
佮	-10.0114
吅	-10.0117
▁亖偡	-10.0119
▁仼低二	-10.0134
▁仛亃兙	-10.0138
▁仛产亥	-10.0139
匪	-10.0142
圀	-10.0145
▁亚剋	-10.0147
▁佒仦伹	-10.0149
偑	-10.0154
▁侔俄亠	-10.0155
侑佼	-10.0163
儲仑	-10.0168
▁以从	-10.017
▁倐傿	-10.0176
▁倾	-10.0178
啵	-10.018
▁倨仪	-10.018
嚺	-10.0183
▁卅	-10.0192
▁仈倏仌仅	-10.0193
佞	-10.0198
喋	-10.0199
伉	-10.0199
▁俓仗	-10.0204
▁亖冦俦	-10.0212
▁争佚二仓	-10.0214
▁亐从	-10.0226
厒	-10.0228
僠	-10.0234
▁佚仅二	-10.0239
▁似代仅	-10.0246
▁仮仯从	-10.0247
▁仙仚些	-10.0257
佀仑	-10.026
▁倗佧	-10.0265
▁僸	-10.0274
ni	-10.0275
侏事	-10.0275
▁亃亨仯	-10.0275
▁倈仚亾	-10.0276
倮伹	-10.0279
▁俢六	-10.0284
佋佳二	-10.0285
▁亲仠佝	-10.0286
亃争佚	-10.0295
勍	-10.0296
凛	-10.0299
z	-10.0304
▁侞凲	-10.0304
倵	-10.0312
▁以俊仂	-10.0312
▁儤仓	-10.0322
兲	-10.0325
▁亃亚仛俉亳	-10.0326
▁偙争	-10.033
▁伻仂	-10.0331
▁二亏傚	-10.0331
▁仯仍	-10.0341
嚵	-10.0341
▁仐仌亣仓	-10.0341
侍仧亳	-10.0344
佄仧	-10.0346
▁偙争仍亥	-10.0347
▁亲仉仐	-10.0347
仗亾亚	-10.0352
▁亃亚仛俉亡	-10.0356
ec	-10.0356
▁伥俴	-10.0356
▁冃	-10.036
▁佁佋	-10.0365
▁介佯佚	-10.0375
▁仆亐亳	-10.0376
倘俅仇	-10.0379
侁価亶	-10.038
▁以仚值	-10.0386
俟	-10.0393
▁仙代仦	-10.0395
▁亜众井伙亳	-10.0404
▁傻侏亠	-10.0406
▁亩傌仓	-10.0414
刹	-10.0415
▁僎优	-10.0419
▁亖仃	-10.0419
▁侏亳予	-10.0434
▁仿伊仳	-10.0435
▁令仦亶佳	-10.0438
▁代俇予俍亥	-10.0441
倐亡	-10.0445
▁偖仄	-10.0445
▁仮信事	-10.0448
▁&	-10.045
▁亊伟	-10.0454
凷	-10.0458
剝	-10.0458
▁佋偩傜	-10.0461
▁2012	-10.0462
▁亷争亾	-10.0463
da	-10.0465
▁剥修	-10.0471
▁仢付六	-10.0473
▁仆仇	-10.0486
▁位亡仄	-10.049
▁余侻	-10.0492
傌	-10.0494
▁仞仌争亾	-10.0499
傃	-10.05
▁侺吾	-10.0501
▁佋佗亣僂	-10.0504
▁僎像	-10.0506
▁亍偶佶	-10.0508
▁倃伈伓候	-10.0509
▁偋偩來	-10.0514
▁亣傐亥亚	-10.0516
伜佈亶	-10.0521
▁1980	-10.0523
si	-10.0531
▁伇儸予	-10.0537
▁仐儲佤	-10.054
▁予亚佭	-10.0541
▁伙事亾亳	-10.0545
▁亃亰仅	-10.055
▁which	-10.0553
亓伊亃	-10.0559
▁呮企	-10.0563
▁佋二任	-10.0566
唔	-10.0567
▁仙仚仌仅二	-10.0575
▁仏偍伎	-10.0577
其	-10.058
▁伕侻	-10.0581
台	-10.0583
博	-10.0587
亐任	-10.0596
▁例亴亢亮	-10.0596
刃	-10.06
▁侺俒亏亜	-10.06
▁仐侭冰	-10.0612
▁伸仅二亥	-10.0615
▁仍伈	-10.0615
▁li	-10.0618
▁佋低	-10.0624
▁争亂仓	-10.0627
▁仛卪仚亾	-10.0643
偪	-10.0646
▁俑亚亢亮	-10.065
▁代俇亾	-10.0652
倘佧俷	-10.0665
仅伹仅	-10.0673
佅仞	-10.0675
▁仙债	-10.0677
▁亵仚	-10.0678
仧亮	-10.0685
▁俿仦	-10.0686
▁仈亜亰	-10.07
▁仔产伸俔	-10.07
▁佨刼	-10.0704
▁僻仯	-10.0707
▁候佶亢亮	-10.071
▁仌亡亓	-10.0717
▁儛	-10.0722
▁伃俢厾	-10.0723
▁亃亐云	-10.0736
ear	-10.074
仠仯亡	-10.0742
▁亽侅	-10.0746
▁些偉做	-10.0747
▁以倭	-10.0751
▁仌傭亡	-10.0751
▁仒亭	-10.0758
▁予像	-10.0771
劎	-10.0777
儹	-10.0784
▁众亱事侪	-10.0788
▁仙偔	-10.08
▁倎伭事亭	-10.0801
▁俄二仪	-10.0801
▁亚亱仞	-10.0803
▁介仌二	-10.0811
厶	-10.0815
▁亖仠仐	-10.0828
▁俲党井二	-10.0828
▁倎匦冎	-10.0828
▁先	-10.0829
傅	-10.0839
伒	-10.0844
冴	-10.0845
▁亖亸亢仦	-10.0849
亘	-10.0854
▁僁儑	-10.0859
▁予亚作仛	-10.0866
傆	-10.0866
▁亍代卂	-10.0876
▁亩众伭	-10.0877
▁位事侻亾	-10.0889
位俫亡	-10.089
▁亵亏	-10.0901
佶仍	-10.0901
▁侎仲亪亜	-10.0903
▁僓亏兪	-10.0907
佀亠	-10.0917
▁伜俑	-10.0933
▁仐俗俘仅	-10.0934
佟了	-10.0936
▁亴亵亥	-10.0936
▁佚伧	-10.0941
per	-10.0942
▁亢伭	-10.0945
▁兽倥	-10.0948
▁亓冦	-10.0948
ish	-10.095
仕产	-10.0963
▁儜	-10.0964
凢	-10.0969
伓佧	-10.0974
▁仔亙	-10.0974
佋仄伖仇	-10.0976
▁仦亃偾伿	-10.0981
倲倒仇	-10.0993
ight	-10.1003
▁亖勝	-10.1007
传伹佳	-10.101
使	-10.1017
圤	-10.102
▁佋喂	-10.1021
你	-10.1022
佀佤亭	-10.1022
▁亃仅予	-10.1024
▁冓仅仅	-10.1026
勜	-10.1031
勵	-10.1034
厐	-10.1038
偯	-10.1042
▁众亱事亭	-10.1045
▁亽亐伟	-10.1046
仗亾俷亡	-10.1047
剩仠	-10.1054
▁亃争佋	-10.1054
▁In	-10.1055
偱侻	-10.107
僦	-10.1083
卂	-10.1085
su	-10.1089
▁仡	-10.1102
▁亓亅二	-10.1102
俥仞	-10.1105
▁侧仓亯	-10.1109
仐依亶	-10.111
▁亍亃代	-10.1112
伝	-10.1117
亏傁	-10.1122
▁亖伱仦亂亥	-10.1123
便二	-10.1125
仔亐	-10.1137
侎优众予	-10.1142
▁信争	-10.1145
亻伻	-10.1154
▁佋侰	-10.1154
名	-10.1156
▁侺产佀	-10.1158
▁伋仦什	-10.1161
▁伇仔亐事	-10.1163
侔事	-10.1167
▁侧伧俠	-10.1167
僚	-10.117
叺	-10.1174
代俑	-10.1175
咍	-10.1181
▁亃倂侻予	-10.1185
后	-10.1188
▁亖亳亯仅	-10.1191
▁亖俵亂仦予	-10.1191
嗼	-10.1199
勲	-10.1199
▁亃仦伸仅二	-10.1202
▁仌争侵	-10.1202
▁個伫	-10.1207
▁俛事	-10.1212
▁俤仠	-10.1216
伍亃二	-10.1222
咴	-10.1223
壯	-10.1227
▁仔亩亝	-10.1234
咲	-10.1237
▁亣仌佝	-10.1248
冨	-10.1249
变	-10.1252
▁位冟佋产	-10.1263
out	-10.1269
▁以佧伜仂	-10.1272
▁佋二亾	-10.13
mp	-10.13
位亳來付	-10.13
匎	-10.1302
▁信任亻	-10.1308
吓	-10.1309
▁佋僪	-10.1317
倃刢	-10.1319
▁位仇休	-10.1319
仵佗仅	-10.132
佗从	-10.1321
凂	-10.1323
▁亍价	-10.1328
▁$	-10.1336
▁传亣儢	-10.1337
▁促仞	-10.1343
佋儆佳	-10.1357
▁仏佈	-10.1363
▁伉侻亞	-10.1369
價	-10.1375
▁仛任亾付	-10.1377
倖	-10.138
▁2003	-10.1383
▁伱亡亯	-10.1385
仧亣	-10.1387
▁仭仠亭	-10.1395
▁仛任亾亚	-10.1403
▁予伛	-10.1411
▁亊伱亜	-10.1413
▁厬	-10.1415
▁佋争伪	-10.1415
▁亍刜争仳	-10.142
侻偘	-10.1424
仛俉亡	-10.1426
▁仔产伸代二	-10.1427
▁予亚作佚	-10.1427
ers	-10.1439
▁亃仦伷來仅	-10.1452
▁傞亾	-10.1454
▁二傳仞二	-10.1456
劌	-10.1459
刕	-10.147
仾	-10.1485
▁仮仯亚什	-10.1485
勰	-10.1496
▁佁仐事亠	-10.1499
備	-10.151
伩	-10.1514
▁佃仇	-10.1517
▁儍仓仗	-10.152
▁俙低	-10.1529
値	-10.1544
▁亃亿	-10.1544
▁亍亶偀傱	-10.1547
▁俺仌二	-10.1547
▁仔仌儱	-10.155
end	-10.1555
▁亓亩仧争	-10.1561
嘾	-10.1565
▁亏低	-10.1567
嚅	-10.1569
况	-10.1572
唉	-10.1572
▁仐伭仞	-10.1577
*	-10.1591
儙	-10.1598
▁凍剀	-10.1598
▁僑伥	-10.1602
▁亢代二	-10.1603
▁亂享俺	-10.1605
▁亖俊仂	-10.1605
▁倨倇二	-10.1608
▁亶亼	-10.1612
▁亓匉仅	-10.1617
▁僎其	-10.162
▁亵亏井亢亮	-10.1627
儣	-10.1627
▁仔予傳俪仇	-10.1631
▁仌召	-10.1634
▁啘亜	-10.1635
▁仢付偂仂偞	-10.1636
▁介亶仓	-10.1637
俉博	-10.1649
▁侔佈	-10.165
▁仼冮	-10.1652
▁1970	-10.1656
仼亡冎	-10.1657
ies	-10.1661
▁凁仭予	-10.1661
oc	-10.1662
亾凒仚亾	-10.1662
▁仔偖俉仅	-10.1664
▁伙侻佃	-10.1665
▁亃仦俵亥什	-10.1679
▁侨停二	-10.1679
匞	-10.1679
冘	-10.1682
▁介仌	-10.1688
予倸	-10.1689
▁亯亡亢亮	-10.169
仗侻亾	-10.1691
▁仐仵亦	-10.1692
▁仐仌争仳	-10.1694
▁俜亓	-10.1697
▁喳	-10.1698
▁亜争勷二	-10.1701
▁this	-10.1702
▁俺仐佈亥	-10.1704
▁侎亮傍亥	-10.1706
伟仚	-10.171
▁傸仜	-10.171
列	-10.1715
吚	-10.172
▁亖侹佲	-10.172
▁凓亳亰	-10.1724
▁佭仅仌	-10.1729
啾	-10.1735
▁仛佌侻	-10.1735
▁予亼亍	-10.1739
▁仐亚于佄	-10.1742
▁亚傯伟	-10.1746
▁佶侍仞	-10.1748
▁信任亻亚	-10.1749
僢	-10.1754
▁仢僾	-10.1761
▁仐刃傈	-10.1768
仧佛	-10.1769
亓仍傢	-10.1773
▁佒優伙	-10.1779
▁仙代仸	-10.178
ous	-10.1784
▁予付仠	-10.1785
▁予二位	-10.1793
倣亞	-10.1795
亃亨	-10.1807
▁亓众产	-10.1811
仦侕亡	-10.1813
予优	-10.1814
▁吁亚仌啃倏	-10.1817
▁仔伹佉	-10.1825
ence	-10.1826
▁亣亩亣仄	-10.1829
▁亓佋倽仓	-10.1832
傂伥	-10.1836
▁仔仍倛	-10.1843
亵仯	-10.186
哶	-10.1862
▁仐佤伹从	-10.1869
▁以亚众仇	-10.187
傗	-10.187
▁侺仌伥仦	-10.187
▁仹佭	-10.1874
▁令仦佭	-10.1877
▁令伫	-10.188
▁俆仓仼	-10.1883
偶依	-10.1919
仦事企	-10.192
▁仐儲刖	-10.1922
兌	-10.1926
咆	-10.1926
▁以侗	-10.1928
▁仌争代	-10.1929
▁亊俥仧	-10.1931
▁侣仼	-10.1932
▁侁亊仅	-10.1933
▁仢俋伕	-10.1934
▁仐兼二	-10.1935
佤仳	-10.1935
▁亷刋	-10.1937
仅傉	-10.1939
▁仈佧伜仂	-10.1941
▁咠产	-10.1942
▁僜來仄仅	-10.1946
▁仒來仅	-10.1946
佋俷亡	-10.1946
▁亇唜亙	-10.1953
刾	-10.1957
▁亴亵亶	-10.1959
form	-10.1967
▁仢伸准佌	-10.1972
▁仢俬县仓	-10.1976
ub	-10.1976
凸	-10.198
▁僻亚事亞	-10.198
▁仔則	-10.198
our	-10.1983
▁亜儵	-10.1988
▁仧仦伶予	-10.1999
▁仢付偗亳	-10.2
亻付	-10.2
▁亏兪	-10.2001
▁亢亳予亥	-10.2006
俵亂仦	-10.2016
偡	-10.2022
▁伌事	-10.2036
▁亣令亵僠	-10.2037
亊亏亞	-10.2041
▁众争亃	-10.2042
▁亚冾仧	-10.2042
K	-10.2048
▁亖代二仼	-10.2049
勃	-10.2052
佋凮	-10.2054
侍倠	-10.2059
▁仔伢儼亚什	-10.2064
代交二	-10.2066
偊	-10.207
偸	-10.2075
▁亇卬	-10.2077
ph	-10.2081
▁信匏亶	-10.2083
▁亃仓仄亡	-10.2091
▁仌亡亓亶	-10.2093
伎仚亾	-10.2096
▁侞侟	-10.2099
▁亖佲亣	-10.2103
伳俎俣	-10.2103
▁伒代	-10.2105
▁侏伕亶	-10.2105
▁催僰	-10.2107
刯	-10.211
▁亖倭	-10.2111
冀	-10.2118
▁予仓亯	-10.2123
▁伉冶企	-10.2137
▁亃偧來仅	-10.2145
▁佒亹	-10.2146
▁伭兾了	-10.2157
▁伓侹亜仓	-10.2159
仂侲	-10.216
▁亃代伋	-10.2162
▁先亶企	-10.2176
他	-10.2183
予传倨	-10.219
▁争佃	-10.2191
亃俌予	-10.2192
▁价侻二	-10.2192
伸伶	-10.2199
▁佨伫	-10.2202
ld	-10.2203
▁佚亴	-10.2215
剬	-10.2219
▁仏佈冖	-10.2219
▁仐仲伙仅	-10.2227
▁200	-10.2227
▁傄亜	-10.2228
▁亃佛	-10.2234
區亡	-10.2242
▁亵仗	-10.2246
▁亩二但予	-10.2246
▁二倇	-10.2255
▁亖二亂亃倌	-10.2259
▁倲兙亡	-10.2277
勠	-10.2278
▁侁伸亮	-10.2278
▁伊仚亶	-10.2281
▁仼俖亂仅	-10.2281
▁亓俴伙亣事仳	-10.2282
▁俆倚	-10.2293
匤	-10.2297
sa	-10.2303
兑	-10.2308
▁仛任亾俷亡	-10.231
-2	-10.2311
▁侎仍倩亜	-10.2313
▁佶儊亣停	-10.2317
代儯	-10.2317
凇	-10.2317
▁俈佚二	-10.2325
▁亂刭	-10.2326
▁亻列	-10.2328
▁亂僰	-10.2329
▁亵代	-10.233
▁仒二亃代	-10.2341
▁個仭	-10.235
▁仼亡冎仓	-10.2359
▁亇予亊仦	-10.2367
▁仐令事伜佈	-10.2372
▁仩仠	-10.2372
▁介仐侕亡	-10.2372
▁亜仇亜争	-10.2388
▁仯凭亂	-10.2388
▁偖债亥亚	-10.2389
▁US	-10.239
▁俢亣亡	-10.239
▁仚亂伤仓	-10.2392
▁二亸	-10.2398
仹伭來	-10.24
▁咰俖仌	-10.2404
▁倎儅	-10.2407
勋	-10.2408
▁侺剢仅	-10.2412
各	-10.2415
▁佒亰亯	-10.2423
▁二佲伶	-10.2424
位亳來俷佳	-10.2425
▁予化	-10.2425
厤	-10.2432
▁仔伹伪	-10.2436
▁俆亱但二	-10.2436
▁仅佲伤仓	-10.2439
▁佄令	-10.2445
亂倂	-10.2447
傖	-10.2448
▁但偧	-10.2452
▁亖佁但兵佤亭	-10.2456
▁佋争入仧亳	-10.2456
▁伌仌伎	-10.2469
儥	-10.2483
▁亲俅代亚	-10.2484
▁亊交	-10.2484
▁倈傹	-10.2485
▁侏伕	-10.2497
▁休倠	-10.2501
删	-10.2516
僫	-10.2524
▁仐俐仐俗仅事	-10.2524
▁1999	-10.2525
勖	-10.2528
▁2002	-10.2528
▁偀侧劼	-10.2532
▁冐侻亭	-10.2536
呕	-10.2536
▁亇佡伭	-10.2544
▁亓亩侏债亥	-10.2557
▁亢侟	-10.2563
▁仔仹佚侁価亶	-10.2563
▁仢偗	-10.2564
▁亖仌亶伥二	-10.2569
势二	-10.2569
▁介争信佌	-10.2577
ame	-10.258
县	-10.2581
▁厄亂	-10.2581
▁仢亸伭	-10.2581
▁仐侭	-10.2583
▁侎亮傍	-10.2583
▁亜仇亜亡仓	-10.2589
▁伭仐令亭	-10.2589
▁伹代	-10.2592
侱	-10.2601
俤伸	-10.2602
侍仧	-10.2607
▁仔仹倃亥亚	-10.2607
▁但偣	-10.2621
勣	-10.2621
▁亣匮亏	-10.2621
▁俈俪仧亡	-10.2626
口	-10.2637
▁亽准古予	-10.2638
▁倡佈	-10.2638
▁倈偖	-10.264
▁亃仦众亜	-10.2648
fi	-10.2658
伙亣事仳	-10.266
▁仐仌亣仅	-10.2676
▁伸偘傟佧	-10.2678
▁仼二亡偧	-10.2682
伎仚二	-10.2683
▁亂仌佝	-10.2686
ag	-10.2689
▁sp	-10.2689
▁倎仂什	-10.269
▁倲侬位伭	-10.2691
▁伙冝	-10.2694
利	-10.2696
呓	-10.2699
▁亵仠伫仓	-10.2703
保伙	-10.2703
匉	-10.2709
▁亜争侣	-10.2709
▁信刾保二	-10.2712
▁俕仅佄佚	-10.2715
no	-10.2716
▁亚亱俪仇	-10.272
▁亥亃仅	-10.2727
▁佭亱仛	-10.2733
偛	-10.2737
▁侶伨亓亞	-10.274
▁亃亚仛偕	-10.2747
喙	-10.2756
▁仧伫亵仇	-10.2759
侍佚佝	-10.276
▁亓亩侏俉	-10.2761
侂	-10.2768
▁冧余	-10.2769
▁亖光亜	-10.277
▁亷亙	-10.2772
▁仔俴佲	-10.2777
▁二亏亣亚什	-10.2781
▁仌亓产	-10.2782
▁倦侭仓	-10.2782
▁佚來	-10.2795
▁傰争	-10.2797
刎	-10.2802
ud	-10.2805
▁1960	-10.2807
▁亃仦俵亥亚	-10.2813
▁介亶仅	-10.2815
仌亿亚	-10.2825
卛	-10.2827
▁亊侹	-10.2827
▁冢冪亡	-10.2828
吧	-10.2839
▁予卤二亏亞	-10.2839
勀	-10.284
▁仞仌仦什	-10.2841
▁些争井	-10.2847
▁位仭	-10.2848
冥	-10.2852
▁仔予傳仧亡	-10.2861
▁伥偏仅	-10.2868
伷产	-10.2874
▁侁儕	-10.2877
▁亏佉亜	-10.2877
▁伸仉亡亥傒	-10.2885
▁亓佋仩	-10.2892
▁凓仉	-10.2893
▁亖亰佋凗	-10.2893
咪	-10.2894
▁亃仦冯佶亾	-10.2897
倘侻	-10.29
叧	-10.2901
▁佒凭亡	-10.2906
▁仔亩代	-10.2919
仗亾付	-10.2922
▁儡产	-10.2926
▁仔介仐佈	-10.2927
▁亓争傼	-10.2931
---	-10.2937
亊傿	-10.2938
▁僇伿	-10.2945
▁二侻二	-10.2947
僋	-10.2948
▁仈兝仇	-10.2948
▁亷兮	-10.2949
▁仈任予	-10.2961
傩	-10.2965
▁刻亐	-10.2976
▁二傳仧亡	-10.2986
▁亊佶二	-10.2987
▁凁亣仍仓	-10.2994
▁佒傔	-10.2997
▁仐佶保二	-10.2999
▁亢仂什	-10.3
▁not	-10.3001
▁仐仲伙从	-10.3003
▁仐冼亜	-10.3003
喲	-10.3007
▁1950	-10.3008
争劓	-10.3012
▁仈伛	-10.3015
▁儖伭	-10.3015
▁仔傤予保二	-10.3017
▁冕仹	-10.3019
▁亖亂仠伊	-10.3028
▁伃侄	-10.3037
▁僁亠	-10.3039
]	-10.3049
▁亚厲	-10.3056
▁仼亣仳	-10.3062
▁俀亙	-10.3063
ast	-10.3063
iv	-10.3068
▁位仅保二	-10.3076
▁伦亱仐令亭	-10.3079
▁亻二亊佄仇	-10.3081
▁傃佂	-10.3084
▁侧債	-10.309
▁仛倀	-10.3098
▁僜侻	-10.3106
style	-10.3109
▁凊侻	-10.3125
▁仌俶付	-10.3132
侭	-10.3133
▁亯侙仧亡	-10.3137
▁仙仇俰仇	-10.3137
▁伝俶	-10.3139
侷	-10.3143
▁以从予仰	-10.3145
▁倲仦佄仇	-10.3147
▁亲仠仚	-10.3148
▁似亙仅	-10.3154
唛	-10.3156
▁匣儊亭	-10.3156
tra	-10.3157
ip	-10.3161
佰亣	-10.3163
信佌	-10.3164
▁仐俗俘仅亾	-10.3165
匚	-10.3169
-20	-10.3176
▁仛侕佳	-10.3176
▁伦哧仅俺	-10.3177
傈	-10.3181
哴	-10.3181
▁侎伤	-10.3182
▁厄予	-10.3183
呰	-10.3183
位偧	-10.3193
▁仢俋亯仅	-10.3199
▁仈吺佳企	-10.3203
▁僩侴亹	-10.3203
▁伡佇仅	-10.3203
你佡	-10.3209
ction	-10.3215
▁仛伹亱	-10.3228
▁二佲俹	-10.3229
▁俈仞俰仇	-10.3233
▁偆做亠	-10.3238
▁仇侺	-10.324
ell	-10.3241
▁偼偽	-10.3242
▁免亏	-10.3243
唰	-10.3255
匡	-10.3268
▁亊俥仧亳	-10.327
▁佭仓仌	-10.3271
▁亖伳侎伟	-10.3277
倲偝	-10.3281
仩仪	-10.3281
▁代争偼俶	-10.329
▁倦僻亹	-10.329
倻	-10.3294
▁亖代伎亶	-10.3294
▁亜厹佚	-10.3297
▁亻二亊交	-10.3307
垗	-10.3307
fe	-10.331
匯	-10.3311
▁侎亮他仧亳	-10.3314
▁仮亜仍	-10.3315
▁偰仯	-10.3322
▁仼俖予	-10.3325
▁吁侨佭事亭	-10.3333
▁予仐亜	-10.3334
▁侎亮伌偅仇	-10.3336
▁亂争伤仅	-10.3339
▁仐佤伹仓	-10.3342
佹	-10.3351
▁伜俆二	-10.3355
▁仅伳	-10.3357
▁但冁佈	-10.3368
▁仔优佋	-10.3368
▁仒仵俬	-10.3372
▁侏冝亡	-10.3373
冿净	-10.3377
▁偖仌亜仅	-10.3378
▁亃仦俵	-10.3381
▁刐俴	-10.3381
▁亩倔仍	-10.3386
亘亙	-10.3387
▁亊单僆	-10.339
▁倎几	-10.3405
傹	-10.3407
ome	-10.3408
▁介佯仞	-10.3422
▁亍代僤亥	-10.343
噄	-10.3434
劕	-10.3434
▁仢俋亏	-10.3434
▁亚傯伹	-10.3436
▁亖偂仂些	-10.3443
剟	-10.3443
▁凋予侻	-10.3447
▁俄伱亣	-10.3447
兪	-10.3449
▁仔仲亚	-10.345
▁令亡亯來付	-10.345
啠	-10.3452
▁亖偀冷	-10.3456
▁刔净仳	-10.3458
凜	-10.3458
▁伓伓	-10.3467
傮	-10.3474
▁亝亃來仅亾	-10.3478
▁佒便予	-10.3483
亏仅仚	-10.3483
▁亽侨亃仳	-10.3487
嗹	-10.3487
▁俎佲	-10.3492
▁仌傭亳	-10.3498
▁亩偑仉	-10.35
▁亊伟俹	-10.3512
冽	-10.3518
▁倫亹	-10.3525
剾	-10.3527
▁佺借	-10.3532
▁们凫	-10.3544
克	-10.3548
▁偖俑仍	-10.3549
呧	-10.3549
哾	-10.3549
卣	-10.3558
仗付仇	-10.3563
▁争予保二	-10.3568
▁争儁	-10.3571
冲	-10.3572
ap	-10.358
▁倫仚亾	-10.358
刑	-10.3581
▁亃亐侀仅	-10.3586
▁仐伌令二	-10.359
▁仔产伌	-10.3593
▁仗侬	-10.3597
咁	-10.3608
▁亥亃亱	-10.361
▁亓倽争佲仳	-10.3612
匒	-10.3614
▁仢俬亣	-10.3616
借倠	-10.3625
pr	-10.3638
▁唗伿	-10.364
▁伋俵	-10.3642
▁傋亜亂仭	-10.3649
唗	-10.3651
▁仼亣伤	-10.3652
▁仔仒代争仳	-10.3657
▁介佤仅亥	-10.3668
▁仼俖亂仓	-10.3671
▁予众佤亭	-10.3674
▁亂仌仅但二	-10.3679
▁冭伥	-10.368
▁凓仠	-10.3684
匩	-10.3684
▁俆仓亯偖债	-10.3707
▁侏但二	-10.3707
▁亜俱	-10.371
▁仐切仄	-10.3714
▁仯仒	-10.3715
▁仏佈卿	-10.3725
▁倐偘	-10.3734
倍	-10.3738
▁侎仗傲	-10.3739
侇	-10.3748
▁亢仯仌争仳	-10.3752
▁亃倂仌争仳	-10.3752
▁亃争亩仃	-10.3752
▁俈亃亞	-10.3761
▁僑佗仅	-10.3761
▁俜几	-10.3772
▁亃佛侻二	-10.3775
▁令仦交	-10.3779
刅	-10.378
噥	-10.3784
▁倎仚亾	-10.3787
亊单剤	-10.3789
位傁	-10.3798
▁倐刂仇	-10.3802
▁侧兗	-10.3811
儌	-10.3812
墼	-10.3812
▁以側佼匎侐	-10.3816
匌	-10.3816
▁仐伳付	-10.3821
偖仄亚	-10.3825
▁仸亃予倸二	-10.3825
咫	-10.3825
剩	-10.3831
▁Ma	-10.3834
▁仢俬亣二	-10.3836
▁亓亩倩	-10.3837
▁侎亮他俪仇	-10.3838
▁位仚仓亶	-10.3839
▁佒党	-10.385
堧	-10.3853
呩	-10.3857
侔	-10.3862
Y	-10.3862
▁仛俶俷	-10.3864
▁1947	-10.3869
▁以予亣仅	-10.3872
▁位冟井	-10.3872
叴	-10.3876
▁令二仯	-10.388
▁办佉	-10.3881
▁仌俩仅	-10.3883
▁予亚佭侕佳	-10.3884
▁仐佨伛	-10.3885
▁传休侐	-10.3886
仌儊	-10.3889
▁仸伸事仅	-10.389
▁俆伙亱	-10.389
▁仅冦	-10.3892
▁亲仗	-10.3893
▁pl	-10.3896
▁亩侜	-10.3906
ya	-10.3911
code	-10.3918
侂佃亶	-10.392
▁二亸佃	-10.3936
▁亖俴俵佃亶	-10.395
剨	-10.395
▁予俀倣亞	-10.3952
▁兽仞	-10.3955
剄	-10.3959
兯	-10.3962
劧	-10.3964
▁仔仗争仳	-10.3964
▁伓俵來	-10.3975
▁傂佗	-10.3976
僗	-10.3978
埕	-10.3987
▁倲争亏	-10.3988
▁亩仇仦亶	-10.3992
▁亖伳侎事	-10.3996
▁亊偩信	-10.4006
▁仩侻众	-10.4006
剽	-10.4008
▁亾俅伓亚什	-10.4015
ound	-10.4015
ical	-10.4016
婃	-10.402
▁仏众亢仦	-10.4027
▁信任亾付	-10.4034
亾亩仦	-10.4041
▁亚佫仅	-10.4042
▁亖亰亯伪亶	-10.4043
▁亜争亱	-10.4045
▁亵仞倂仅	-10.4048
勊	-10.4056
tion	-10.4057
▁仐仌侍仧亡	-10.4057
嗀	-10.4076
介争亜	-10.4078
厉	-10.408
儐	-10.4081
app	-10.4089
▁亜佰亣	-10.409
▁倲亡亯代仅	-10.4096
傭亳	-10.41
▁亚于令予	-10.41
▁俆仭亶伤	-10.41
仱	-10.4133
▁亍仯伎	-10.4133
匁	-10.4137
卌	-10.4137
▁令冤仞二	-10.4156
▁佋争入仧亡	-10.4156
凑	-10.4156
▁亏仌儺亞	-10.4161
儜	-10.4162
▁亩倔	-10.4164
▁倎侻唽佤二企	-10.4166
▁亚伣伤亚什	-10.4166
\	-10.417
偾	-10.4175
▁亓亩俵	-10.4185
刐	-10.4189
儫	-10.4191
▁亓僕仞亶	-10.4194
▁亚儈伥	-10.4194
▁僽争仌	-10.4196
▁亍仌冂亣亚什	-10.4204
▁僴僵	-10.4204
▁1991	-10.4206
啫	-10.4209
傂倠	-10.421
▁仅佲伤仅	-10.4218
仅儆亡	-10.4219
▁仢傠佋	-10.4233
▁仯亯亼仂	-10.4237
▁仔侏前仞	-10.424
僱	-10.4242
▁俕兹仇	-10.4242
▁亃仦價侍	-10.4242
伖偉亡	-10.4246
凬	-10.4247
▁仔于令伙	-10.4247
▁亖亙仉	-10.4247
兴	-10.4252
▁伌伟	-10.4256
▁仛亣亳	-10.4257
▁仌二亡仓	-10.4271
▁亽仇伫伓冇	-10.4285
▁亜亃傼	-10.4285
▁伙亏仦予亜	-10.429
▁侺剢仓	-10.429
://	-10.4295
儇	-10.4304
▁India	-10.4305
參	-10.4309
介争佈	-10.4313
▁亍偶仲仓	-10.4315
▁偞倷	-10.432
▁佋伥冱	-10.4325
▁伍作仧亡	-10.4325
儖倠	-10.4343
仮佈	-10.4344
健	-10.4348
▁信傌	-10.4348
仌争仩	-10.4349
▁伒仇	-10.4372
-19	-10.4376
▁仌亮亏仰	-10.4377
伌剢	-10.439
▁仔亂争仍	-10.4392
▁俆仓俰仇	-10.4392
▁侏佌侻	-10.4392
▁亖仃仄	-10.4392
▁亻凰仦	-10.4411
▁亊佋勳	-10.4425
▁亜仚亃仦	-10.4425
▁偕予争仳	-10.4427
▁令刉	-10.4427
▁亖仌亜侍	-10.4429
▁亃仦亏入佚	-10.443
响	-10.444
▁亚厍伛	-10.4445
▁以亡仄仓	-10.4446
募	-10.4448
▁仛事位俫佳	-10.445
▁亂唻佀佤亭	-10.445
▁侁傅	-10.4453
▁亍冲佈	-10.4455
▁们亡仚	-10.4464
▁亩偑仠	-10.447
劊	-10.4471
ff	-10.4473
仲争仳	-10.4474
伲	-10.4474
▁仍佄仼	-10.4474
▁侧厎	-10.4476
▁仈亜亡仅	-10.448
偵	-10.4484
▁们傁	-10.449
俘	-10.4493
▁俙亶亾	-10.4497
▁佗伊	-10.4513
▁侨佋亭	-10.4519
亍個	-10.4519
▁仛任亾俷亳	-10.4521
▁伸偺	-10.4523
▁亚包	-10.4528
▁俆侤	-10.4529
▁仌侮仞二	-10.4533
▁位事仓	-10.4552
傺	-10.4553
埡	-10.4558
▁亻从亊傿	-10.4558
▁亍代剺	-10.4559
僇	-10.4561
ated	-10.4563
▁侎仳	-10.4567
匕	-10.4567
圇	-10.4568
仌仅亓	-10.4574
▁仐令事二亏争	-10.4577
哿	-10.4577
▁令儊亭	-10.4578
▁信任俄	-10.4582
▁伥亰亵來	-10.4582
▁予俀倣	-10.459
▁仐亩二	-10.4591
▁仙亜倔亜	-10.4592
▁仔事喋仓	-10.4597
叼佼	-10.4602
▁亜倓仗	-10.4602
勪	-10.4602
▁二侗	-10.4621
able	-10.4625
介亢仅	-10.4629
▁二争傂伥	-10.4637
▁公兵侻	-10.4642
侺仌個	-10.4655
▁仐佋卂	-10.4662
▁亢冱予	-10.4662
偋	-10.4667
▁保倾	-10.4668
▁予亰侫二	-10.4677
▁仙俔仛	-10.4677
夑	-10.4682
▁亖仌亂俉仓	-10.4687
▁凊伭	-10.4691
▁仢哙债	-10.4697
▁亽併俌	-10.4702
other	-10.4707
▁仐侚仅	-10.4714
▁传休任仅	-10.4716
冕	-10.4721
▁亓亩仧亣从	-10.4722
▁仼價	-10.4724
pos	-10.473
佴	-10.4732
仭代仦	-10.4749
▁仛倳	-10.476
▁亊俥仞	-10.4763
呱	-10.4767
▁俢呰	-10.477
倆	-10.4772
▁以勂二	-10.4777
仲佷	-10.4782
▁佚勞	-10.4786
作俪仇	-10.4787
▁伱伭予企	-10.4792
▁伍伙从	-10.4794
哮	-10.4797
▁亽仲亣仓	-10.4813
gu	-10.4817
▁伂偀倣亞	-10.4829
▁亜倌亝倍仓	-10.4833
喅	-10.4838
▁亓亩侏债	-10.4843
▁俆亱作仇	-10.4843
▁佃俞侻	-10.4845
▁勘債	-10.4848
▁亽匕予	-10.4848
▁传冷	-10.4851
▁仌二亃倷	-10.4853
▁俉亓伙	-10.4856
▁仢亃于佄仗	-10.4859
▁仐俉仑亃儴亥亰	-10.4861
display	-10.4863
▁亖伳侎伹	-10.4863
▁優仌	-10.4867
儃儃	-10.4873
▁亖兖佳	-10.4874
倘偉亳	-10.4877
俐争亣仄	-10.4879
倘佧付	-10.4884
▁亂亗亭	-10.4885
佤佂	-10.4887
冁	-10.4889
▁仔仌侮	-10.4889
▁偼仯	-10.4891
侄	-10.4893
▁{\	-10.4894
夕	-10.4894
▁亣僂亃产	-10.4897
▁亚争亓二	-10.4904
▁佀佧	-10.4905
▁仐俖争仳	-10.492
▁亚亨侮仧	-10.4928
▁仐亩伙偈伟	-10.493
▁伌伈亜	-10.4933
▁亖偂儅	-10.4942
勧	-10.4945
▁仈偂仂些	-10.4949
▁佋争入仞二	-10.495
▁伍作佚位俠仇	-10.4951
▁亣俺伙亩	-10.4955
▁仸仆俔佚	-10.4961
▁亖亰仌俔	-10.4964
▁伓亱予	-10.4972
▁1998	-10.4975
▁亂仌佝余	-10.4977
▁仼争伸仅予	-10.4981
咛	-10.4981
▁二亢候	-10.4981
仐俗	-10.4984
俥仛	-10.499
▁仛事仌侤	-10.5003
含	-10.5007
▁亽亮伌	-10.5008
▁二偓	-10.5011
佼二亏亞佼	-10.5016
化	-10.5016
凲	-10.5024
▁予凄仧	-10.5035
▁http	-10.5038
凘	-10.5038
助	-10.5048
▁亖僦仇	-10.5054
▁仔儕亜	-10.5054
▁仐休伎	-10.5054
▁仐偊亍	-10.5059
▁伻僘俍亥	-10.5069
侕二亚	-10.5069
▁僜佲亭	-10.5076
咔	-10.5079
▁仢伸俵	-10.5079
▁佨仄亳	-10.508
▁俈俪佚	-10.5082
▁仐冼佈亶	-10.509
▁亃仦伸借	-10.5095
▁亷偎	-10.5098
估侒	-10.5103
ele	-10.5104
▁亖俵亂仦佃亶	-10.5114
剥	-10.5121
▁亖亰亍仲伎	-10.5126
伮	-10.5126
▁倐值二	-10.5126
凔	-10.5131
▁仔侏债	-10.5132
▁偖亢仅事	-10.5137
▁仌侮仧亳	-10.5137
亃俫亳	-10.5148
▁亜偂亚亓仦	-10.5152
収	-10.5158
▁亖叧亰亳	-10.5158
▁侎产亚刏	-10.5163
佚仦伶	-10.5164
▁倦侭亳	-10.5164
▁争吾	-10.5168
▁亖侻伋	-10.5169
▁do	-10.517
▁僻令亭	-10.5172
吤	-10.5173
亇	-10.5177
ew	-10.5177
伦了	-10.5185
▁仈傭亳	-10.5191
▁亚亢亍	-10.5194
▁刐兩	-10.5205
▁产争刜侍	-10.5215
喎	-10.5221
▁二傳仧亳	-10.5242
▁亓俜亦	-10.5252
喚	-10.5268
▁侺伟	-10.5272
催兵	-10.5274
劼圫兆	-10.5279
▁仩來亡	-10.5279
▁位事仂	-10.528
介争产	-10.5281
▁仁冪	-10.5286
亢任仓	-10.5288
▁亢争任	-10.5291
▁佋仦从	-10.53
▁1996	-10.5303
▁亻仦伹	-10.5306
僭	-10.5311
哒	-10.5311
▁僻仯亣佋	-10.5312
倐儅	-10.5313
以侐佼	-10.5314
伇	-10.5315
▁亂伫亚什	-10.5317
▁倝倞企	-10.5321
厭	-10.5327
▁凊予伅俐争	-10.5333
▁his	-10.5356
▁亍仔亐伟	-10.5364
▁亚事众	-10.5365
▁俆亱但	-10.5367
农	-10.5369
▁今倸	-10.537
咾	-10.5375
函	-10.5375
▁亚仒亩伓冇	-10.538
俦	-10.5393
▁以偗冪	-10.5396
▁Ch	-10.54
▁仛來仅	-10.5404
▁亣佋仕僾	-10.5407
偭	-10.5408
▁亏仌儺	-10.5413
唙	-10.5418
▁侫伧	-10.5422
▁亜伹争	-10.5425
传仌儢	-10.5425
▁享予传仌佝	-10.5428
伴仚	-10.5428
▁佚代争仼	-10.5434
▁偖俉仰	-10.5442
▁侣倀	-10.5442
▁佗倽	-10.5446
▁僓仍仅	-10.5453
偎佳倨	-10.5456
▁亮亶偀傱	-10.5458
呀	-10.546
▁仈傏佝	-10.5461
▁仞俁亚什	-10.5466
▁亡仞	-10.547
▁伥亰佋傋仠	-10.5472
rt	-10.5474
▁例偧	-10.5483
伖偉佳	-10.5486
俕	-10.5486
▁偆勴位亞	-10.5488
▁亚仒亚什	-10.5488
▁亚亨侮仛	-10.5493
▁亖亰仩仅	-10.5494
以倭	-10.5494
▁以亯佋产	-10.5499
啃	-10.5504
▁俤伸仅	-10.5505
▁仒來仓	-10.5508
▁仔仲二亵俌	-10.551
▁各侐	-10.5511
叭	-10.552
▁叄俬	-10.552
ide	-10.5521
▁俸佲亾仅	-10.5531
冬	-10.5537
倄	-10.5546
▁仙倨亂予	-10.5548
han	-10.5551
gra	-10.5559
▁侎亮伌保二	-10.5563
▁仛兡仇	-10.5564
人	-10.5575
卯了	-10.5577
剙	-10.558
▁仔介仌	-10.5582
厮	-10.5586
▁令勚侐	-10.5592
噩	-10.5597
前仞	-10.5602
▁仙俉仓	-10.5604
僔	-10.5607
▁冐仂冎	-10.5613
圹	-10.5613
▁亃仦冯佶伙	-10.5619
匇	-10.5619
▁仢仞亜	-10.5621
▁伢仌二交仦	-10.563
卉	-10.563
吞	-10.5641
}}	-10.5642
▁亖冦傂	-10.5646
▁亱佭	-10.5646
净	-10.565
亣僆	-10.5656
▁仁俠仂	-10.5663
努	-10.5663
▁亾亩争	-10.567
▁仐仓倦二	-10.568
仩仠仚	-10.5687
呟	-10.5701
俠倠	-10.5704
仗亾伻	-10.5719
▁仢俷事亚	-10.5724
俼佝	-10.5727
偹	-10.5729
▁佨倸	-10.5731
伀伥亭	-10.5739
▁倦俉倉	-10.5751
呒	-10.5751
俢仌儢	-10.5753
▁僧儵	-10.5759
▁亃亚仛俶付	-10.576
▁俺仐仯从	-10.5775
坉	-10.5779
▁亽亮傍	-10.5779
bl	-10.5788
▁亖二亂亃倌亥亰	-10.5788
▁僩僻	-10.579
▁仛侍仇	-10.579
iz	-10.5798
▁仢你冰仅	-10.5801
▁劼伹偺	-10.5807
吊	-10.5813
俎佡	-10.5813
▁仔事割	-10.5818
▁伌仐冞冰	-10.5824
匫	-10.5824
▁二傳俪仇	-10.5824
▁俉俐亜	-10.583
▁偖刭事	-10.5841
▁仔仹倃	-10.5843
▁事凅	-10.5845
▁仇俑亶	-10.5853
▁俤佫佋	-10.5858
二亏亮	-10.5858
▁仐介亶仅	-10.5858
▁催亡伓仄仓	-10.5863
▁仛产仹仼仓	-10.5869
▁俺仄仅	-10.5877
▁伌亏伜來	-10.588
▁亚劏侍	-10.5882
▁亚亨侮仞	-10.5887
▁仛任倘仇	-10.5893
▁介争亜偖俉亚什	-10.5898
傽仚亾	-10.5901
▁亾亩亡仓	-10.5914
▁亷候仯亡	-10.5925
▁会予倂享	-10.5925
厌	-10.5925
▁侻侗仅	-10.5931
▁倎伈	-10.5933
▁伸哎俴	-10.5942
▁亩二仄仅	-10.5943
▁侧划亳	-10.5948
位亳傫仇	-10.5949
▁唋佭事	-10.5953
圽	-10.5953
▁亢仠仯亡	-10.5958
▁倏倿亹	-10.5965
ana	-10.5965
▁亍仌冂争	-10.5973
▁以仌亡	-10.5973
偶仠	-10.5977
厄	-10.598
俶俷争亚	-10.5981
▁仙仚仌伧	-10.5985
勸	-10.5987
▁亽侨句	-10.5988
▁傩佳亭	-10.5993
▁伙俑伎	-10.5993
亏亱係	-10.6011
▁任勰亣仄	-10.6022
ture	-10.6024
哂	-10.6027
▁亜儯	-10.6028
嘿	-10.6033
low	-10.6036
▁价伎亶	-10.6039
▁亃仦亓争	-10.6061
偐	-10.6073
▁亣匮伕	-10.6073
唼	-10.6073
呏	-10.6079
亢啁	-10.6084
&	-10.6086
喝	-10.6091
▁介佯仧亡	-10.6091
▁仐介亶仓	-10.6091
▁侣佝伭	-10.6097
▁倐仦侻	-10.6097
▁俈倂倐侻	-10.6102
呁	-10.6125
呦	-10.6131
▁亂佛予伫伸仅	-10.6137
▁佷事亢仇	-10.6137
▁偕予侍仞	-10.6138
卬	-10.614
▁位仅僼二	-10.6154
▁亏佰仅	-10.6155
俲	-10.6181
▁亖务亜	-10.6183
▁以仠佋	-10.6192
凒	-10.6192
哃	-10.6195
亣佶二	-10.6199
▁佭仓仼	-10.6203
▁倐值俷亳	-10.6206
▁亵傛亡	-10.6206
▁仅他佚	-10.6218
僞	-10.6224
▁哨亭	-10.6227
▁予卤二亏傚	-10.623
▁亯令亣侑	-10.623
伓冇	-10.623
俞	-10.6235
▁儂儂	-10.6236
凍低	-10.6237
▁仔傤偁仞	-10.6241
▁伙侻亂仅	-10.6247
▁亇予亐亚	-10.6254
▁凁亚亢侐	-10.6271
▁仹仒債	-10.6282
▁仼列	-10.6285
▁俑仯匔	-10.6288
▁亜争佗	-10.6288
▁予億亚冷	-10.6294
喽	-10.6294
唢	-10.63
▁俱争亥	-10.63
district	-10.6306
償	-10.6307
▁仐亢佗	-10.6308
▁佅仛	-10.6313
▁仈亣亭	-10.6314
▁仔亊亮	-10.6317
▁以嚢亽亞	-10.6317
俰偉佳	-10.632
▁仠倥	-10.6333
▁仢又	-10.6336
▁俆亱傂仇	-10.634
▁亡伈	-10.6342
兊倠	-10.6345
▁亍代剺仅亥	-10.6345
勁	-10.6353
垔	-10.6353
▁亲偔	-10.6357
冒	-10.6359
啡	-10.6365
▁亣傇仓	-10.6365
▁佗令争	-10.6365
▁亖亰仩仭亶	-10.6371
▁亚剹俥	-10.6389
▁俱争亶	-10.6394
▁仉偉	-10.6398
伽	-10.64
▁亩俩仅	-10.6401
▁佋仦亻从	-10.6412
▁has	-10.6413
儦	-10.6418
▁啠亚僟	-10.6418
▁亃亡亯仓	-10.6419
▁仸仆俔仞二	-10.6435
劬	-10.6436
卻	-10.6442
僂	-10.6453
▁亣卑伈	-10.6454
▁噃亠	-10.646
▁仞叏	-10.6461
▁倲亡亯伖仇	-10.6463
伃	-10.6465
凃	-10.6466
吺	-10.6472
▁仐亴做	-10.6472
act	-10.6477
▁伸凴	-10.6478
▁伭伉位亞	-10.6484
▁亓代傼	-10.6484
▁佋侹亂仭亥	-10.6488
兝	-10.649
▁仛亣亡	-10.6492
唻	-10.6496
▁仔产亚俵	-10.6496
▁侎亩佉予	-10.6508
▁亖仚仼	-10.651
▁予仅予凶	-10.652
▁仙亜仦佲	-10.6526
▁億估伟	-10.6532
▁亍亜侍仗	-10.6532
卪仚亾	-10.6539
▁伙喾	-10.6552
▁侧劷	-10.656
壛	-10.6562
傝	-10.6572
▁传亱倀	-10.6578
卹	-10.658
▁亥伿佼亓伌	-10.6586
厱	-10.6592
▁亮佪仍	-10.6598
▁仈侻休	-10.6598
▁亐仦信傂仇	-10.6605
南	-10.6608
▁亚亨偩侕亡	-10.6616
咧	-10.6616
▁众二佗	-10.6617
▁僯倲亭	-10.6629
▁予仐俍	-10.6631
副	-10.6634
▁亂亩偀傱	-10.6635
▁咰俖仄	-10.664
▁亅僀僁佤亭	-10.6646
▁似代儅	-10.6653
▁亖仠仄仅	-10.666
▁众交亱	-10.6676
▁侎勝二	-10.6677
state	-10.6685
刞	-10.6701
剣	-10.6701
哌	-10.6701
▁予冽二	-10.6701
俾	-10.6703
▁匝匞	-10.6707
▁亲亳亰	-10.6709
▁伈仌	-10.6712
▁亾俅伓仅	-10.672
儽	-10.672
▁倎卾了	-10.672
▁伙冮亜	-10.672
▁凨伭于	-10.6726
剷	-10.6732
▁仛亡倘仇	-10.6734
mon	-10.6737
傀	-10.6738
予传佳伙	-10.6746
▁勸倥佼	-10.675
▁候俣	-10.6755
倿佒	-10.6767
堿	-10.6781
▁争亊事亚予	-10.6787
▁二伜位亞	-10.6787
▁亢伥伙仅	-10.6788
▁倶倷	-10.6793
▁仢冂亢仅	-10.6804
▁亩偑仪亡	-10.6806
▁亣仍亳	-10.6816
▁亓仦传	-10.6816
▁仔代卂佚	-10.6824
▁匍候	-10.6825
▁伱代伿	-10.6833
▁似代啈仇	-10.6837
偲	-10.6837
唯	-10.6837
▁伙亶叧二	-10.6843
▁仔债亓	-10.6843
▁仩争亶事仓	-10.6849
劯	-10.6849
▁亲仪仅亚	-10.6849
厸	-10.6862
夤	-10.6862
ance	-10.6866
▁伍伙仅	-10.6877
▁亣佋倃伈	-10.688
▁傂佫	-10.6888
▁偶亶亮	-10.6894
塐	-10.6899
▁伬仚亯亡	-10.6905
傻	-10.6911
▁亖凑众亚伟	-10.6918
▁仌俈仓	-10.6931
▁伭俞倏	-10.6936
唫	-10.6936
▁佨仄亚	-10.6954
▁仐仲伙仓	-10.6955
▁亖伭交	-10.6958
▁僩亽亞以侐	-10.6968
▁仼供	-10.6971
▁亍偶仲仅	-10.6974
▁亓亩伎亶	-10.6975
▁亃仦予亣仅	-10.6987
▁亓佋伹亚什	-10.6989
▁亖佲亣倽亜	-10.6993
▁亽亏删	-10.6993
▁佚亙亶	-10.6994
劒	-10.6999
▁仙代仦偞	-10.7014
▁信任亾俷亡	-10.7024
勻	-10.7024
▁仼亣伪	-10.7025
▁伌仌二	-10.7033
▁II	-10.7046
▁仹僃	-10.7047
▁who	-10.7048
▁僴仼	-10.705
▁倎仇亣	-10.7057
▁佋二傼	-10.7062
▁伸呼佚	-10.7062
▁仍伥亸僺	-10.7062
嘌	-10.7062
▁仐争佋仳	-10.7062
圓	-10.7062
▁争俪仧亡	-10.7062
俓	-10.7064
▁侧仓亃仅	-10.7075
▁伸亨信	-10.7081
▁亃仦伷來仓	-10.7088
▁卅儿	-10.709
咮	-10.71
▁亍叢仅	-10.7105
傎	-10.7107
▁5310	-10.7112
噡	-10.7113
▁亃匯亩二	-10.712
▁亖僥位亞	-10.7132
▁亩偑亳	-10.7136
▁仢俬亮	-10.714
▁予凄佚	-10.7148
哅	-10.7158
▁亂剈亡	-10.7158
亻俷亳	-10.7161
哫	-10.7164
▁俎冰仓	-10.7164
傓	-10.7171
▁吁亚仌匰倏	-10.7177
▁俲唤亥	-10.7177
▁亵仠伫仅	-10.7177
光	-10.7187
▁予众佤二亞	-10.7197
▁亖佀们伹	-10.7203
吖	-10.7203
▁以仍予	-10.7207
▁偶儌偖凈	-10.7209
▁伳付	-10.7211
▁仔仌侟二	-10.7216
▁伃佞	-10.7218
▁俈凂亚	-10.7222
▁侣仠仌侤	-10.7228
▁仐匷任	-10.7229
伃代亣伓僺	-10.7255
amu	-10.7257
圗	-10.7261
▁亽亴佋仳	-10.7261
勞	-10.7263
▁亣令偞伹仅	-10.7267
▁仔事倴仧	-10.7274
僽	-10.7274
俰仠亶	-10.7275
堛	-10.7287
▁伙侻亂仓	-10.7293
▁仔伢儼从	-10.7295
▁僬咄任	-10.7306
劼	-10.7314
冈	-10.7319
▁亣傇亚什	-10.7319
▁仈儶仚仓	-10.7339
▁値伮亡仓	-10.7339
嘕	-10.7345
▁任倇勎	-10.7345
▁争冞亭	-10.7345
▁仔亩伪	-10.7352
▁個仅	-10.7352
▁佋侨倦仼	-10.7357
儷	-10.7358
創	-10.7358
▁亖倵付亜	-10.7358
▁儥令伎	-10.7358
刳	-10.7365
▁以亯仌	-10.7367
▁亃仦众佈	-10.7372
嗿	-10.7378
▁佌则亚什	-10.7378
二争傂佗	-10.7378
▁佚仍亡	-10.7393
儰	-10.7397
▁亐仦信	-10.7407
▁亖仭予侍	-10.7409
adj	-10.7416
京	-10.7417
噉	-10.7417
▁伌咱	-10.7426
▁喳偗二	-10.7437
▁仐令事伜亜保二	-10.7439
卄	-10.7444
嗐	-10.7444
ood	-10.7448
▁俑偟仄	-10.745
▁俆仓兡仇	-10.7457
▁亰列	-10.7462
▁仙仚亾俷亡	-10.7464
▁亩倔代俇	-10.7465
▁亃仦刭仅二	-10.747
▁伭估侻企	-10.747
▁仙俔仞二	-10.7477
▁伫仂亭	-10.748
啞	-10.7483
▁俑俒伜亜保二	-10.7495
亷亡仄	-10.7498
佣佤	-10.7502
▁仐儐仌	-10.7503
▁佭仓仌位仉	-10.7504
▁佇仌	-10.7508
▁亖亜从	-10.7516
▁仮亏伪	-10.7516
命	-10.7523
▁亏仳亃产	-10.7523
▁亖伭亶亳	-10.7524
▁伙係俐争亣仄	-10.753
▁佷事俜倷	-10.7535
单	-10.7536
▁侏伫仇	-10.7537
卮	-10.7543
▁亖倵俬佋	-10.7549
啣	-10.7549
▁亩俜仓	-10.7553
協	-10.7556
傡	-10.7556
▁佚吮争	-10.757
▁二亏亣从	-10.757
介亶亚什	-10.7574
▁亽予冱	-10.7577
▁仅他仧佳	-10.7583
▁伇伈亜	-10.7583
▁仐亚作	-10.7586
▁保俈亡	-10.759
夫	-10.7596
▁亖仐亼产	-10.7597
▁傋伒	-10.7598
▁仩侜	-10.7611
5,000	-10.7616
▁亯倷俯	-10.7616
▁倦侭	-10.7618
▁佋僻仚	-10.7624
▁仢冂亢仓	-10.763
▁冕亃	-10.7631
▁亚冾仞	-10.764
仭代仸	-10.765
▁偈偧	-10.765
仫	-10.7652
▁以仌亅伙	-10.7657
▁倦伌伜亶	-10.7663
佖	-10.7663
▁仛任亾伻	-10.7664
▁侁佫仅	-10.7675
叡	-10.7677
▁僯俠仞	-10.7678
哓	-10.7684
▁亃偧來仓	-10.7684
▁仌俩仓	-10.7692
ough	-10.7697
▁众偈佋	-10.7704
厦	-10.7711
▁亃仦佤冰	-10.7711
▁亓仍佇	-10.7711
▁also	-10.7717
▁仌剑伸佈	-10.7724
▁令交傦仅	-10.7724
▁亚亢争仳	-10.7725
▁凋予伅俐	-10.7731
▁仔亂俑	-10.7731
咀	-10.7744
▁亏仳二	-10.7746
▁先亏兘亡	-10.7751
▁俙仠倦二	-10.7751
亢任仅	-10.7752
▁亚仌但俶俷亡	-10.7753
▁仅他仞二	-10.7758
▁仈儶仇	-10.7758
吾	-10.7764
▁仢俋亯仓	-10.7765
▁令二亍倩	-10.7765
▁亍介佤仳	-10.7772
ition	-10.7776
凟	-10.7778
同	-10.7785
▁俉亓伎	-10.7785
▁冢兂	-10.7789
哤	-10.7798
厴	-10.7799
圪	-10.7799
▁仈亜伭	-10.7801
▁仼儳	-10.7809
▁倎匦僟	-10.7812
▁仈争倦	-10.782
▁亯伭亢仠	-10.7822
▁偯亱予	-10.7822
塏	-10.7826
吲	-10.7833
▁亽偍伎亥	-10.7833
▁亖反亡	-10.7833
▁亖侹刣伭亶	-10.7838
▁侧仠凇	-10.784
▁亝仠伹伶	-10.7847
▁仪仅偘	-10.7847
▁亽仑仦	-10.785
8%	-10.7857
▁任仅傍亶	-10.786
▁亂厲亾仅	-10.7881
▁仐侴亜	-10.7889
▁仔产千	-10.789
傇	-10.7893
俆仭亶仳	-10.7897
呀傱	-10.7903
▁亚儊企	-10.7903
▁傋代仦	-10.7906
▁仇俑亥	-10.7907
哹	-10.7909
▁亽代争仳	-10.7909
堇	-10.7916
▁例伌	-10.7917
▁伙亣事僒	-10.7929
▁争俪仧亳	-10.7929
▁佚仇仐	-10.7931
▁倐值付	-10.7936
▁代倂剟	-10.7943
▁刻侻企	-10.7945
僥	-10.7964
▁亖争亾亥事亥	-10.7971
▁仑俤井	-10.7971
喐	-10.7985
僕	-10.7992
▁劌入	-10.7992
▁代俇伎	-10.8008
▁侮仚仄仓	-10.8015
800	-10.8022
▁佋亜亃争保二	-10.803
俢仌偉亚什	-10.803
▁今佈俹	-10.8034
▁亽亡亯亡	-10.8042
▁倦争侐	-10.8046
刊	-10.8048
▁以仌仸	-10.8048
佟	-10.8051
▁亽仐價侍	-10.8055
▁儖仇來	-10.8056
即	-10.8062
哰	-10.8062
▁仔仗仦	-10.8064
値倥	-10.8064
伞	-10.8069
▁凓偉佳	-10.808
卍	-10.8083
啳	-10.809
▁仌侮仧亡	-10.8097
▁凍仇侍	-10.8099
▁事令亩亚	-10.8104
▁凁佋产	-10.8104
▁亽仅伹亚什	-10.8119
port	-10.8123
▁介亏仏卓	-10.8132
偃	-10.8132
▁予众佤	-10.8133
唳	-10.8139
▁党伥代	-10.8139
▁佚代仌	-10.8147
▁亍于亏	-10.8148
兡	-10.8165
▁亖亰亍仲二保	-10.8167
▁亽仐價争仳	-10.8174
司	-10.8181
出低	-10.8183
▁亖准亃亾	-10.8196
▁仔伹仳	-10.8199
▁亜众儠	-10.8203
俐亡亳	-10.8204
仡	-10.8206
▁仍匀仍	-10.821
▁众亰仍	-10.8212
▁代卂仗	-10.8213
匢	-10.8217
▁仙倨亂倘仪	-10.8217
吠	-10.8224
▁匣亜亪	-10.8224
▁仐仌侍佚	-10.823
啮	-10.8245
▁來仅但	-10.8248
▁佶剽	-10.8248
儤	-10.8264
▁互估圄	-10.8274
▁侰凍企	-10.8274
▁dis	-10.8278
▁亖俵亏促	-10.8281
▁亂享僝	-10.8283
▁傾佺伿	-10.8288
▁佺僖	-10.8296
▁任口亭	-10.8303
商	-10.831
哨	-10.8313
▁亏仳亼事保二	-10.8317
▁俕仓亜	-10.8318
▁亖付佋佥	-10.8324
▁佗令亡	-10.8332
傫	-10.8337
▁仔代卂仧	-10.8339
▁以从便伙亡	-10.8339
▁但冁亜	-10.8339
▁伌佇佚仭	-10.8353
▁佚仅二仞伶	-10.8353
凾	-10.836
Sub	-10.8363
嗗	-10.8367
▁have	-10.8368
▁交仦令二	-10.8368
▁伱仒仦倏	-10.8375
匄	-10.8375
▁先亶休	-10.8382
▁仈亙仉	-10.8382
▁亢伥二	-10.8382
▁僅亡仓	-10.8383
▁亽哒亚伹	-10.8389
喨	-10.8396
▁似价企	-10.8404
▁亣事仅僻佋	-10.8411
▁俕亱亊仦亶	-10.8411
▁侎倬伩	-10.8425
▁信任倘偉	-10.8426
▁亮哼	-10.8433
匛	-10.8436
▁以仪仦	-10.8441
▁俕仅佄仞	-10.8447
▁亩亳亯仅	-10.8455
価	-10.8461
兠	-10.8469
▁亣僂仍亥亚	-10.8477
▁剉仚仄	-10.8484
▁仢哙前仞	-10.8491
▁仈倏仌亱	-10.8498
僈	-10.8501
吼	-10.852
▁佢亃佉	-10.8528
▁亓仍伈佋兙亚	-10.8535
▁亽創儖	-10.8535
▁代佢伤匐亂	-10.8535
▁亣剤从	-10.8535
▁仔侕仌二	-10.855
▁倡亚亾仓	-10.855
亃俫佳	-10.855
▁亽侂伥俴	-10.8557
mber	-10.8557
▁侮仚	-10.8563
▁亚亮亜亮	-10.8564
▁互俉亪	-10.8564
▁僯侻众	-10.8565
厇	-10.8572
▁仔俴俦	-10.8579
▁予倚佈亶	-10.8587
▁侮仚仄仅	-10.8589
▁亖佲争	-10.8593
▁佋仞休亃儴	-10.8594
▁凘侻仦	-10.8594
▁仈初仅亚	-10.8594
▁伋俺倏倫	-10.8601
▁亜争仼二	-10.8616
▁侻哖	-10.8624
▁亚仼仃仓	-10.8631
厡	-10.8631
吮	-10.8638
剈	-10.8645
圆	-10.8646
▁仐佣佤仳	-10.8653
▁亷倓仇	-10.8653
亊亶亳	-10.8654
▁亍仔亐伹仅	-10.8661
刧	-10.8668
▁什亥伊侻傿	-10.8675
▁亽匐予亭	-10.8675
冤	-10.8683
▁亂佛亴亩从	-10.869
▁亂仄二	-10.8696
▁仯冒亱予	-10.8698
▁代傜仅	-10.8698
▁亐仑仓	-10.8706
▁偊亓	-10.8706
会	-10.8706
刴	-10.8713
剭	-10.8713
▁亖仌亂俑	-10.872
▁予佋伫	-10.8724
▁亽仲亮	-10.8725
圡	-10.8728
▁仸伸事仓	-10.8728
▁仕切亳	-10.8735
▁亣傇仰	-10.8735
▁儍亱仞	-10.874
▁僈侻亊仅	-10.8743
兇	-10.8743
▁亽亮他	-10.8743
▁伱代亳	-10.8744
▁函俤偢予	-10.875
▁予仅佳予	-10.8751
伖仠亶	-10.8759
▁冠侻偿	-10.876
▁亇伭偒	-10.8765
▁凘俤仓	-10.8773
▁亽兌佛	-10.8773
▁仈件仸	-10.8788
▁亓亩侏俑	-10.8795
▁亖亊仲争仳	-10.8795
▁亽俵亃兩	-10.8803
哽	-10.8803
凙	-10.881
▁偖俑侁価亶	-10.8821
▁伂偀倣	-10.8824
▁伬嗼了	-10.8826
內	-10.884
▁佚亙亚	-10.8841
妠	-10.8848
▁佁佤企	-10.8849
▁争唠伈	-10.8856
▁俢企佼予亜	-10.8856
▁仌勗予争仳	-10.8871
噗	-10.8871
▁佁代亡亳	-10.8871
▁偞侟二	-10.8871
▁亐亳仅	-10.888
▁亖亰佚亡	-10.8888
▁亜倌亝倍仅	-10.8917
▁予亱佄仛	-10.8917
▁亓争今产	-10.8924
▁亚仌但俶付	-10.8927
啗	-10.8932
嚜	-10.8947
偖仌亣事	-10.8952
▁亩俩仓	-10.8957
唍	-10.897
▁亢伥伎	-10.8972
▁亖俵亂亣从	-10.8978
▁佰亮	-10.8988
侃	-10.8993
▁僁佤劽	-10.8993
▁亃亐侀仓	-10.8993
叄	-10.9001
券	-10.9001
▁亃佛侏佲仳	-10.9016
▁仌勗予侍	-10.9017
▁亢俖仌	-10.9025
▁以亡仼	-10.9027
▁仔亩伤仅	-10.9032
▁予亳仼	-10.9037
▁代儯仦	-10.9038
▁亱众伦了	-10.904
友	-10.9055
吜	-10.9078
压	-10.9086
▁亃仦伸仅伙	-10.9094
▁佒众儢伅	-10.9102
▁亃仦伤亩	-10.9102
▁俑冨仞什冂	-10.9117
▁part	-10.9117
▁伶傏	-10.9118
ount	-10.9122
▁仢刺亚伹	-10.9125
俇	-10.9129
哞	-10.9133
▁亓亩仲伎	-10.9133
▁侮亓	-10.9137
▁予代亱予	-10.9141
▁亃但佺伿	-10.9156
▁亚亱佭侏	-10.9156
▁佋享倮伹	-10.9156
儁	-10.9173
唤	-10.9179
兗	-10.9181
▁伙佳予	-10.9183
▁先亯兘亡	-10.9187
剆	-10.9187
▁仔亩仳	-10.9194
▁article	-10.9195
侩	-10.9195
▁传养仧亡	-10.9195
▁仦估吊佤	-10.9203
▁位來予亸	-10.9203
▁亓亣亓仦	-10.9211
output	-10.9227
▁令仦作	-10.9227
▁亐亳仓	-10.9231
▁亚儳佡	-10.9235
▁冐倏冎	-10.9235
▁仲匑	-10.9235
呾	-10.9242
妄	-10.9242
呖	-10.9258
俳	-10.9288
叽	-10.929
咰	-10.929
卋	-10.9302
劓	-10.9304
啜	-10.9322
Q	-10.9322
叩	-10.9345
吰	-10.9353
佣	-10.9371
厗	-10.9401
别	-10.9433
唺	-10.9514
劢	-10.9522
勽	-10.953
凝	-10.9555
哕	-10.9571
囋	-10.9571
匣	-10.9577
哊	-10.9587
免	-10.9602
危	-10.9604
區	-10.9609
匘	-10.9636
喱	-10.9645
启	-10.9653
僛	-10.9677
咹	-10.9686
僀	-10.9693
偠	-10.971
叆	-10.9744
埴	-10.9752
具	-10.976
向	-10.9768
侸	-10.9793
唽	-10.9793
僲	-10.981
墶	-10.981
劜	-10.9818
凐	-10.986
圴	-10.9911
卫	-10.9928
傧	-10.9944
労	-11.0012
卷	-11.0012
偻	-11.0038
嚭	-11.0038
去	-11.0046
哭	-11.0046
侘	-11.0081
匐	-11.0098
兏	-11.0115
嗚	-11.0115
奺	-11.0124
匟	-11.0141
冋	-11.015
叠	-11.0167
吉	-11.0228
刬	-11.0236
坪	-11.0254
凫	-11.0255
坶	-11.0262
偦	-11.028
圯	-11.028
員	-11.0297
剕	-11.0324
伺	-11.0359
匭	-11.0368
傄	-11.0374
勓	-11.0385
劾	-11.0421
亟	-11.0447
僊	-11.0506
凞	-11.0519
媲	-11.0519
唸	-11.0543
啈	-11.0555
劤	-11.0564
埿	-11.0573
倾	-11.0578
勦	-11.0584
卑	-11.0609
噢	-11.0609
媕	-11.0636
厍	-11.0654
喖	-11.0672
刁	-11.0709
刈	-11.0736
夣	-11.0745
垜	-11.0745
咖	-11.0764
匓	-11.08
值	-11.0827
厅	-11.0847
剫	-11.0874
卶	-11.0884
匊	-11.0902
咠	-11.0911
勐	-11.0958
堄	-11.0958
啛	-11.0977
嗾	-11.1005
儚	-11.1005
凕	-11.1015
匀	-11.1024
咩	-11.1033
卓	-11.1043
僨	-11.1052
墏	-11.1052
啙	-11.11
兣	-11.1109
厚	-11.1128
哱	-11.1166
叫	-11.1176
啊	-11.1185
嘊	-11.1195
塤	-11.1195
噝	-11.1205
唄	-11.1214
坚	-11.1214
廲	-11.1243
呸	-11.132
哔	-11.133
膀	-11.135
哲	-11.1389
嘇	-11.1389
兦	-11.1398
咣	-11.1398
坣	-11.1398
听	-11.1418
勬	-11.1467
咱	-11.1474
冚	-11.149
匙	-11.1497
兔	-11.1506
刨	-11.1506
剦	-11.1516
嚂	-11.1526
墯	-11.1566
佬	-11.1596
刵	-11.1626
卒	-11.1626
厪	-11.1626
偅	-11.1642
匶	-11.1656
勛	-11.1666
呲	-11.1686
動	-11.1716
嗖	-11.1726
嗙	-11.1726
唠	-11.1777
娙	-11.1787
励	-11.1797
务	-11.1807
咶	-11.1838
唴	-11.1889
圢	-11.19
剌	-11.191
傢	-11.1929
勢	-11.1941
势	-11.196
呞	-11.1993
侠	-11.2034
刚	-11.2076
勄	-11.2076
塌	-11.2086
坵	-11.2128
匠	-11.215
厊	-11.2192
咅	-11.2202
囎	-11.2202
勺	-11.2255
尬	-11.2352
堣	-11.2352
働	-11.2373
夨	-11.2373
参	-11.2384
俚	-11.2401
侾	-11.2406
唜	-11.2417
圃	-11.2449
善	-11.246
墰	-11.2471
勌	-11.2482
勹	-11.2493
傕	-11.2498
反	-11.2525
塁	-11.2526
囓	-11.2569
壴	-11.258
妦	-11.2591
兘	-11.2625
兛	-11.2635
唝	-11.2636
吨	-11.2636
咇	-11.2647
唚	-11.2647
奱	-11.2658
佔	-11.2702
劸	-11.2702
嚁	-11.2702
婞	-11.2702
句	-11.2747
嗋	-11.2747
坻	-11.2781
夦	-11.2803
兮	-11.2855
厽	-11.2859
儎	-11.2871
堌	-11.2905
傤	-11.2928
劖	-11.2928
匹	-11.295
國	-11.295
伄	-11.295
咑	-11.295
僳	-11.2968
曀	-11.2985
噳	-11.3031
坢	-11.3054
喜	-11.3065
儳	-11.3071
寳	-11.31
哻	-11.3112
q	-11.3117
匰	-11.3121
供	-11.3141
坤	-11.3158
咚	-11.317
圉	-11.317
壙	-11.3205
尵	-11.3252
卪	-11.3286
剰	-11.3287
婕	-11.3287
J	-11.329
关	-11.3333
叾	-11.3347
儂	-11.3348
凖	-11.337
厬	-11.3387
儝	-11.3394
儛	-11.3399
墤	-11.3442
坞	-11.3454
啉	-11.3478
嚙	-11.3478
厰	-11.349
#	-11.3514
嘐	-11.3551
判	-11.3563
劃	-11.3563
呋	-11.3563
卭	-11.3599
劳	-11.3599
垈	-11.3611
剒	-11.3624
夌	-11.3624
剁	-11.3648
堳	-11.3648
劭	-11.366
俏	-11.3684
嘯	-11.3697
卯	-11.3729
^	-11.3747
塝	-11.3747
印	-11.3771
嗫	-11.3771
吻	-11.3796
啭	-11.3846
`	-11.3858
劻	-11.3871
剂	-11.3871
佩	-11.3896
夢	-11.3909
冺	-11.3914
周	-11.4022
匦	-11.4022
冩	-11.4035
嘅	-11.4035
嗊	-11.4035
嘦	-11.4035
坄	-11.4035
嘤	-11.4061
匝	-11.4073
吒	-11.4073
倧	-11.4099
囏	-11.4112
吐	-11.4125
喵	-11.415
噋	-11.4176
壖	-11.4176
劲	-11.4202
婠	-11.4241
崈	-11.4241
却	-11.4254
唏	-11.428
嗝	-11.4359
堲	-11.4385
厵	-11.4398
另	-11.4398
勱	-11.4411
勩	-11.4438
刱	-11.4464
刼	-11.4489
唕	-11.4491
侖	-11.4504
凥	-11.4518
包	-11.453
哉	-11.4531
嗽	-11.4544
冗	-11.4567
堻	-11.4585
劋	-11.4598
块	-11.4598
圍	-11.4625
勗	-11.4638
儻	-11.4639
夂	-11.4639
奬	-11.4666
孁	-11.4666
僿	-11.4679
刀	-11.4706
嗷	-11.4747
冃	-11.4762
儓	-11.4775
儸	-11.4775
嶒	-11.4788
圵	-11.483
儬	-11.483
嚢	-11.4844
呻	-11.4857
塱	-11.4857
喤	-11.4885
坨	-11.4913
僅	-11.4917
吕	-11.4941
哎	-11.4969
唑	-11.4983
嫐	-11.4983
唬	-11.5011
圷	-11.5011
姻	-11.5025
僶	-11.5039
喁	-11.5039
勮	-11.5044
吳	-11.5053
媔	-11.5081
咬	-11.5109
吶	-11.5152
噽	-11.5166
刿	-11.5195
呈	-11.5209
哷	-11.5223
媁	-11.5223
啒	-11.5238
堼	-11.5266
得	-11.5266
冻	-11.5281
匔	-11.5281
嘠	-11.5281
嗂	-11.5295
坏	-11.5295
唨	-11.531
堈	-11.5324
噷	-11.5353
斠	-11.5368
堎	-11.5368
侢	-11.5469
厩	-11.547
坦	-11.547
儋	-11.5544
塭	-11.5544
圞	-11.5573
孷	-11.5573
墊	-11.5588
僆	-11.5615
宊	-11.5618
塪	-11.5633
婥	-11.5648
墑	-11.5693
俧	-11.5708
医	-11.5708
堍	-11.5708
嚑	-11.5723
垚	-11.5753
嗅	-11.5753
嚌	-11.5753
單	-11.5784
嚹	-11.5799
垠	-11.5829
噅	-11.586
劣	-11.589
唿	-11.5921
在	-11.5921
圳	-11.5921
囱	-11.5936
伔	-11.5967
勔	-11.5967
吱	-11.5967
噧	-11.5998
匮	-11.6014
堝	-11.6014
刓	-11.6029
墲	-11.6029
怶	-11.6045
出	-11.6057
倝	-11.6064
佱	-11.6076
址	-11.6139
喓	-11.6154
分	-11.6202
唋	-11.6249
俸	-11.6274
剠	-11.6281
啯	-11.6281
千	-11.6308
先	-11.6323
墀	-11.6345
墐	-11.6361
啐	-11.6409
嗰	-11.6409
囫	-11.6425
嗛	-11.6458
好	-11.6458
坝	-11.649
坽	-11.6507
啥	-11.6539
塍	-11.6588
决	-11.6605
僣	-11.6606
厎	-11.6615
剎	-11.6621
吔	-11.6621
圖	-11.6621
嬮	-11.6638
厈	-11.6638
壡	-11.6638
坯	-11.6671
叉	-11.6671
児	-11.6687
堤	-11.6704
嘙	-11.6721
式	-11.6737
嗮	-11.6737
嘪	-11.6754
冠	-11.6776
嚴	-11.6788
嫑	-11.6821
厛	-11.6821
劆	-11.6855
嘰	-11.6855
埑	-11.6889
噛	-11.6923
坱	-11.694
庚	-11.694
兽	-11.6956
噂	-11.6957
岋	-11.6957
嚠	-11.6974
>	-11.6991
壦	-11.6991
妍	-11.7042
嚱	-11.7042
俿	-11.7054
吃	-11.7059
垐	-11.7059
岖	-11.7059
圫	-11.7094
啄	-11.7111
唌	-11.7129
垆	-11.7163
堺	-11.7163
厯	-11.7181
侈	-11.7181
噏	-11.7181
嚿	-11.7181
哆	-11.7198
剅	-11.7233
喺	-11.7268
叅	-11.7286
嗴	-11.7286
俻	-11.7304
割	-11.7321
埰	-11.7321
剳	-11.7357
坿	-11.7357
伐	-11.7392
匱	-11.7464
娾	-11.7464
古	-11.75
墋	-11.75
屇	-11.75
柝	-11.7536
媍	-11.7536
厼	-11.7554
夽	-11.7554
埲	-11.759
婴	-11.759
宩	-11.7608
偳	-11.7626
僴	-11.7643
啲	-11.7681
嫄	-11.7718
嬓	-11.7718
儶	-11.773
啔	-11.7736
冏	-11.7773
削	-11.7773
劗	-11.7792
嚎	-11.781
実	-11.7848
呹	-11.7866
噌	-11.7866
墚	-11.7866
姰	-11.7866
兀	-11.787
仟	-11.7885
喌	-11.7885
尞	-11.7904
凤	-11.7941
堁	-11.7941
夳	-11.8017
啧	-11.8036
嘚	-11.8055
姯	-11.8055
壩	-11.8074
劂	-11.8112
厝	-11.8112
嘥	-11.8112
少	-11.8112
品	-11.817
召	-11.8173
嚪	-11.8189
奷	-11.8208
孊	-11.8247
凯	-11.8247
墔	-11.8325
尙	-11.8325
囬	-11.8344
喫	-11.8344
寮	-11.8344
抾	-11.8364
妓	-11.8384
姸	-11.8384
岵	-11.8384
嘍	-11.8403
啘	-11.842
凨	-11.8423
劉	-11.8463
噇	-11.8463
呇	-11.8483
@	-11.8502
力	-11.8502
啇	-11.8502
圠	-11.8502
城	-11.8522
俨	-11.8542
子	-11.8582
喴	-11.8582
咙	-11.8602
嚐	-11.8623
傑	-11.8643
傣	-11.8663
哚	-11.8683
婟	-11.8703
圱	-11.8724
唎	-11.8744
尿	-11.8785
憀	-11.8785
別	-11.8826
娬	-11.8826
头	-11.8847
唾	-11.8888
墛	-11.8888
剞	-11.8909
啍	-11.8929
圊	-11.8929
刟	-11.895
塔	-11.895
偫	-11.8971
嗄	-11.8971
奦	-11.8971
劺	-11.8992
呄	-11.8992
坠	-11.8992
娪	-11.9013
厏	-11.9013
嚫	-11.9034
嵹	-11.9034
吀	-11.9076
咼	-11.9076
夝	-11.9118
呌	-11.9118
啦	-11.916
埼	-11.9182
尢	-11.9182
劔	-11.9267
唥	-11.9267
壐	-11.9267
砪	-11.9332
嚗	-11.9354
凩	-11.9375
妔	-11.9397
孴	-11.9397
噆	-11.9419
咃	-11.9441
加	-11.9462
哜	-11.9462
恥	-11.9506
垉	-11.9528
姇	-11.9528
澰	-11.9528
哗	-11.955
售	-11.955
嗸	-11.955
崠	-11.955
壘	-11.9595
再	-11.9617
噍	-11.9639
兞	-11.9662
呪	-11.9662
嚋	-11.9662
嗦	-11.9684
勎	-11.9727
仴	-11.9729
卽	-11.9751
劁	-11.9751
娺	-11.9751
囍	-11.9774
倁	-11.9797
喪	-11.9888
勿	-11.9917
岜	-11.9933
剏	-11.9956
匥	-11.9956
啩	-11.9979
喗	-11.9979
傐	-11.999
埵	-12.0003
埶	-12.0003
嬢	-12.0003
噶	-12.0026
必	-12.0026
勴	-12.0072
墻	-12.0072
婌	-12.0072
喘	-12.0119
哧	-12.0189
兄	-12.0213
壌	-12.0213
吆	-12.0236
园	-12.0236
妨	-12.0236
妢	-12.026
墓	-12.0284
囊	-12.0308
妉	-12.0332
妌	-12.0332
噙	-12.0356
嫡	-12.0379
寝	-12.0379
唅	-12.0379
侶	-12.0398
哖	-12.0427
喳	-12.0472
哺	-12.0476
媒	-12.0476
囿	-12.05
堬	-12.0525
屆	-12.0525
呿	-12.0549
帆	-12.0598
域	-12.0623
壿	-12.0672
劝	-12.0672
妴	-12.0697
囇	-12.0721
奀	-12.0746
媅	-12.0746
孌	-12.0746
揿	-12.0771
埽	-12.0796
孪	-12.0846
嘽	-12.0872
墟	-12.0872
堾	-12.0897
婸	-12.0897
咯	-12.0939
伾	-12.0948
崡	-12.0948
喭	-12.0973
墱	-12.0998
巭	-12.0998
帧	-12.0998
契	-12.0999
和	-12.1024
征	-12.1024
嚚	-12.1024
$	-12.1035
埥	-12.105
嚓	-12.1075
垽	-12.1075
嫆	-12.1075
唐	-12.1101
忯	-12.1127
侅	-12.1135
右	-12.1179
嘑	-12.1179
囩	-12.1179
填	-12.1205
媡	-12.1231
哼	-12.1257
冑	-12.1257
喩	-12.1257
墝	-12.1283
婘	-12.1283
儴	-12.1289
匽	-12.131
垢	-12.131
囉	-12.1336
尴	-12.1363
儒	-12.1389
咞	-12.1389
壤	-12.1416
倯	-12.1442
慠	-12.1442
亄	-12.1469
嵆	-12.1523
奪	-12.1523
坮	-12.155
呍	-12.1577
劵	-12.1604
叛	-12.1604
咒	-12.1604
告	-12.1658
問	-12.1658
埛	-12.1686
垝	-12.1713
妤	-12.1713
喹	-12.1713
奋	-12.1741
唡	-12.1768
嗌	-12.1768
傽	-12.1794
兢	-12.1796
君	-12.1796
坛	-12.1796
埙	-12.1823
孫	-12.1823
卤	-12.1851
唒	-12.1851
儉	-12.1851
匸	-12.1851
哛	-12.1851
噿	-12.1851
奴	-12.1879
嵿	-12.1879
俛	-12.1884
吇	-12.1907
哟	-12.1907
奝	-12.1907
孞	-12.1935
圄	-12.1963
嫿	-12.1963
宧	-12.1963
匬	-12.1991
妥	-12.1991
圬	-12.202
岅	-12.202
史	-12.202
嗩	-12.202
仝	-12.2105
圿	-12.2105
劑	-12.2133
厀	-12.2133
始	-12.2133
媾	-12.2133
尗	-12.2133
墮	-12.2162
峹	-12.2162
廖	-12.2162
冼	-12.219
唣	-12.2191
喯	-12.2191
妺	-12.2191
嗭	-12.222
场	-12.2248
崐	-12.2248
匆	-12.2277
奥	-12.2306
奙	-12.2306
嗏	-12.2336
夥	-12.2365
劚	-12.2365
嗞	-12.2365
夯	-12.2394
墂	-12.2424
嵺	-12.2424
営	-12.2453
嚡	-12.2453
妖	-12.2453
姁	-12.2453
坖	-12.2483
土	-12.2483
巗	-12.2483
囶	-12.2512
嫳	-12.2512
倕	-12.2542
嘲	-12.2542
夹	-12.2542
妃	-12.2572
呫	-12.2572
卟	-12.2602
哐	-12.2602
婔	-12.2602
嫒	-12.2602
喾	-12.2652
塜	-12.2662
惄	-12.2662
敨	-12.2662
圭	-12.2692
嗤	-12.2723
囷	-12.2723
尸	-12.2723
僖	-12.2782
岢	-12.2814
喷	-12.2845
嚳	-12.2845
巚	-12.2845
凌	-12.2845
哝	-12.2875
幏	-12.2875
味	-12.2906
坃	-12.2968
弁	-12.3
卐	-12.3
嶟	-12.3
圁	-12.3031
夡	-12.3031
染	-12.3062
勫	-12.3062
娆	-12.3094
嬋	-12.3094
寨	-12.3189
卦	-12.3189
嚝	-12.3189
奫	-12.3189
奄	-12.3189
唇	-12.322
孟	-12.322
~	-12.3252
婱	-12.3252
吥	-12.3252
堡	-12.3252
奧	-12.3349
嗻	-12.3381
娩	-12.3414
楛	-12.3414
啴	-12.3446
塰	-12.3479
抆	-12.3479
冊	-12.3512
卵	-12.3512
塖	-12.3545
壼	-12.3545
圅	-12.3545
姙	-12.3545
奤	-12.3578
囮	-12.3578
彠	-12.3611
壽	-12.3611
垟	-12.3677
叏	-12.3706
夘	-12.3711
嫧	-12.3744
孲	-12.3744
寣	-12.3744
喏	-12.3778
垃	-12.3778
尯	-12.3778
嶞	-12.3778
刪	-12.3846
峜	-12.3846
慎	-12.3846
倶	-12.388
婜	-12.388
屛	-12.388
富	-12.388
嘢	-12.3914
噰	-12.3914
尻	-12.3914
塠	-12.4017
对	-12.4017
崖	-12.4017
墬	-12.4017
勯	-12.4038
嬵	-12.4086
呛	-12.4086
彘	-12.4086
嗠	-12.4156
囻	-12.4156
弓	-12.4191
儧	-12.4191
噖	-12.4262
夗	-12.4262
吝	-12.4297
唧	-12.4297
喼	-12.4333
奂	-12.4333
囜	-12.4333
孏	-12.4333
嘈	-12.4368
埩	-12.4368
埆	-12.4368
峾	-12.4368
冉	-12.4404
哈	-12.4404
壗	-12.4404
蛷	-12.4404
佾	-12.444
姒	-12.444
壮	-12.4476
姆	-12.4476
嫺	-12.4476
喠	-12.4512
埞	-12.4512
戕	-12.4512
澨	-12.4512
刮	-12.4512
形	-12.4512
孯	-12.4585
拶	-12.4585
坥	-12.4622
嫖	-12.4622
嬻	-12.4622
噺	-12.4659
媴	-12.4659
喃	-12.4696
寇	-12.4696
岀	-12.4696
噠	-12.4733
嬙	-12.4733
嚞	-12.477
坈	-12.477
剓	-12.4807
吡	-12.4807
嬫	-12.4807
可	-12.4845
囯	-12.4845
堊	-12.4845
塅	-12.4845
嬾	-12.4882
堙	-12.492
弎	-12.492
浅	-12.492
峁	-12.4958
嶑	-12.4996
抹	-12.4996
漡	-12.4996
劅	-12.5072
嘞	-12.5072
墷	-12.5072
夲	-12.5072
叙	-12.5148
噟	-12.5149
娉	-12.5149
尛	-12.5149
堯	-12.5188
囀	-12.5188
岲	-12.5188
導	-12.5227
叜	-12.5227
壈	-12.5227
妮	-12.5266
弝	-12.5305
度	-12.5305
儞	-12.5345
媬	-12.5345
囐	-12.5384
囸	-12.5384
坼	-12.5384
审	-12.5384
妗	-12.5424
埅	-12.5424
媟	-12.5464
墁	-12.5464
宸	-12.5464
奲	-12.5504
宐	-12.5504
呢	-12.5544
噀	-12.5544
嚻	-12.5544
嗬	-12.5584
喡	-12.5625
坸	-12.5625
執	-12.5665
帐	-12.5665
忒	-12.5665
処	-12.5665
十	-12.5706
器	-12.5747
娜	-12.5747
垵	-12.583
咘	-12.583
嫘	-12.583
很	-12.583
叒	-12.5871
孥	-12.5913
夛	-12.5955
庶	-12.5955
檓	-12.5955
刍	-12.6039
嬉	-12.6039
圲	-12.6081
単	-12.6081
士	-12.6081
媀	-12.6081
匼	-12.6124
妙	-12.6124
嵏	-12.6124
吷	-12.6167
寄	-12.6167
壚	-12.6209
卾	-12.6253
凎	-12.6253
嗎	-12.6253
宄	-12.6253
噕	-12.6296
埍	-12.6296
屣	-12.6296
嚶	-12.6383
埘	-12.6383
崯	-12.6383
屸	-12.6427
巖	-12.6427
冭	-12.6471
幰	-12.6471
悦	-12.6471
基	-12.6515
婳	-12.6515
尶	-12.6515
坺	-12.656
堪	-12.656
婻	-12.656
密	-12.656
怩	-12.656
椿	-12.656
哀	-12.6604
坫	-12.6604
戆	-12.6604
垣	-12.6649
媊	-12.6649
剡	-12.6649
劥	-12.6649
岶	-12.6649
匨	-12.6694
嘒	-12.6694
壳	-12.6694
姅	-12.6694
唞	-12.6739
州	-12.6785
媓	-12.683
巠	-12.683
庩	-12.683
叕	-12.6876
娟	-12.6876
寺	-12.6876
嘓	-12.6876
峐	-12.6876
図	-12.6922
媃	-12.6922
僸	-12.6955
岹	-12.6969
圮	-12.6969
咿	-12.7015
宿	-12.7015
嘜	-12.7062
勅	-12.7109
帊	-12.7109
幍	-12.7109
嚬	-12.7156
堐	-12.7156
妕	-12.7156
庑	-12.7156
喛	-12.7203
姽	-12.7203
婈	-12.7203
咥	-12.7251
堑	-12.7251
履	-12.7251
埧	-12.7299
嬠	-12.7299
孭	-12.7299
宜	-12.7299
婺	-12.7299
唪	-12.7347
娇	-12.7347
娨	-12.7347
嬇	-12.7347
勂	-12.7395
吭	-12.7395
墢	-12.7395
劐	-12.7444
嘀	-12.7444
嚃	-12.7444
嚔	-12.7444
娝	-12.7444
峰	-12.7444
囧	-12.7493
埳	-12.7493
姱	-12.7493
娦	-12.7493
媪	-12.7493
怖	-12.7493
嫙	-12.7542
嶗	-12.7542
氍	-12.7542
僪	-12.7577
婊	-12.7591
庄	-12.7591
厷	-12.764
呵	-12.764
官	-12.764
恦	-12.764
咸	-12.769
堘	-12.769
奒	-12.769
媨	-12.769
叶	-12.774
塾	-12.774
壶	-12.774
奏	-12.779
墵	-12.779
勈	-12.7841
哩	-12.7841
嘄	-12.7892
壪	-12.7892
孓	-12.7892
徔	-12.7892
堷	-12.7892
楳	-12.7892
堢	-12.7943
多	-12.7943
失	-12.7943
妒	-12.7943
威	-12.7943
塢	-12.7994
媮	-12.7994
怽	-12.7994
埝	-12.8046
备	-12.8046
嫸	-12.8097
孺	-12.8097
废	-12.8097
擗	-12.8097
娋	-12.8149
巿	-12.8149
堖	-12.8149
奘	-12.8149
婋	-12.8254
揼	-12.8254
剿	-12.8254
坎	-12.8307
垥	-12.8307
宵	-12.8361
昭	-12.8361
姝	-12.8414
峱	-12.8414
垇	-12.8468
嬬	-12.8522
巯	-12.8522
[	-12.8522
呴	-12.8522
哠	-12.8522
啱	-12.8522
嬕	-12.8522
懵	-12.8522
囹	-12.8576
困	-12.8576
姑	-12.8576
奉	-12.8576
宁	-12.8576
壅	-12.8631
媞	-12.8631
尌	-12.8631
嗨	-12.8686
媋	-12.8686
宔	-12.8686
嶥	-12.8686
怚	-12.8686
垯	-12.8741
够	-12.8741
樛	-12.8741
咳	-12.8797
唆	-12.8797
垛	-12.8797
噴	-12.8797
咏	-12.8852
囄	-12.8852
巳	-12.8909
孙	-12.8909
嶻	-12.8909
巊	-12.8909
忑	-12.8909
墳	-12.8909
吿	-12.9079
埪	-12.9079
墡	-12.9079
売	-12.9079
尤	-12.9079
屾	-12.9079
岁	-12.9079
嚖	-12.9079
姞	-12.9137
寞	-12.9137
嗥	-12.9194
噱	-12.9194
垬	-12.9194
岯	-12.9194
娧	-12.9253
宨	-12.9253
冇	-12.9305
塚	-12.9311
妭	-12.9311
埦	-12.9311
喟	-12.937
剚	-12.937
劍	-12.937
娑	-12.937
帢	-12.937
怎	-12.937
嘮	-12.937
唶	-12.9429
咢	-12.9429
塨	-12.9429
外	-12.9429
奅	-12.9429
寲	-12.9429
愉	-12.9429
懼	-12.9429
滐	-12.9429
刽	-12.9482
埣	-12.9489
壇	-12.9489
嬎	-12.9489
寪	-12.9489
屵	-12.9489
帋	-12.9489
帵	-12.9489
吵	-12.9489
惆	-12.9489
則	-12.9536
呷	-12.9548
圌	-12.9548
夷	-12.9548
娽	-12.9548
揻	-12.9548
娭	-12.9548
储	-12.9604
埓	-12.9609
姥	-12.9609
嫱	-12.9609
尣	-12.9609
崕	-12.9669
棽	-12.9669
娖	-12.973
咕	-12.973
啟	-12.973
囈	-12.973
塮	-12.973
奨	-12.973
寱	-12.973
彁	-12.973
抻	-12.9792
塼	-12.9792
媈	-12.9792
庎	-12.9792
咤	-12.9853
嶴	-12.9853
弆	-12.9853
往	-12.9853
寧	-12.9915
巓	-12.9915
忁	-12.9915
孅	-12.9915
啚	-12.9978
唀	-12.9978
唟	-12.9978
弮	-12.9978
圛	-13.0041
动	-13.0041
坑	-13.0041
垊	-13.0041
悏	-13.0041
撖	-13.0041
喂	-13.009
呼	-13.0104
奆	-13.0104
店	-13.0104
匜	-13.0104
卙	-13.0168
堞	-13.0168
岙	-13.0168
娴	-13.0232
崧	-13.0232
嶍	-13.0232
揹	-13.0232
坂	-13.0296
垖	-13.0296
曈	-13.0361
妟	-13.0361
慬	-13.0361
撟	-13.0427
墆	-13.0427
奟	-13.0427
宏	-13.0427
庢	-13.0427
恨	-13.0427
允	-13.0452
勶	-13.0492
嘆	-13.0492
居	-13.0492
幨	-13.0492
彭	-13.0492
卿	-13.0558
嗕	-13.0559
嘘	-13.0559
堨	-13.0559
嫁	-13.0559
嬹	-13.0559
廱	-13.0559
弜	-13.0559
愭	-13.0559
埾	-13.0625
孱	-13.0625
峵	-13.0625
胏	-13.0625
剔	-13.0692
哬	-13.0692
寉	-13.0692
嵤	-13.0692
嶛	-13.0692
諷	-13.0692
志	-13.076
嚦	-13.076
恄	-13.076
凡	-13.0828
卸	-13.0828
取	-13.0828
嗔	-13.0828
堥	-13.0828
壋	-13.0828
埸	-13.0828
忔	-13.0897
屡	-13.0897
岬	-13.0897
垼	-13.0966
嬂	-13.0966
搁	-13.0966
劰	-13.0966
羂	-13.0966
冖	-13.1035
啅	-13.1035
射	-13.1035
愂	-13.1035
劀	-13.1105
啋	-13.1105
圈	-13.1105
塓	-13.1105
囝	-13.1175
夓	-13.1175
宂	-13.1175
帬	-13.1175
廵	-13.1175
宪	-13.1246
圎	-13.1246
婄	-13.1246
媯	-13.1246
嫃	-13.1246
协	-13.1318
塆	-13.1318
妣	-13.1318
娤	-13.1318
婹	-13.1318
尨	-13.1318
埏	-13.139
媎	-13.139
啢	-13.139
嘻	-13.139
墹	-13.139
壄	-13.139
孰	-13.139
囼	-13.1462
妞	-13.1462
妡	-13.1462
喇	-13.1462
喣	-13.1462
坟	-13.1462
埐	-13.1462
堔	-13.1462
庡	-13.1462
獟	-13.1462
瑩	-13.1462
吟	-13.1462
唵	-13.1535
堜	-13.1535
娅	-13.1535
娲	-13.1535
孛	-13.1535
尼	-13.1535
喈	-13.1609
婤	-13.1609
峮	-13.1609
懹	-13.1609
姂	-13.1683
噜	-13.1683
尫	-13.1683
朖	-13.1683
峼	-13.1683
又	-13.1748
嬞	-13.1757
岡	-13.1757
崬	-13.1757
徿	-13.1757
恣	-13.1757
槮	-13.1757
曶	-13.1757
吙	-13.1832
塘	-13.1833
奿	-13.1833
坡	-13.1908
婏	-13.1908
媧	-13.1908
嬴	-13.1908
孹	-13.1908
庽	-13.1908
悐	-13.1908
柧	-13.1908
塯	-13.1985
峏	-13.1985
幺	-13.1985
弥	-13.1985
待	-13.1985
挢	-13.1985
奵	-13.1985
帯	-13.1985
妇	-13.2062
媦	-13.2062
岞	-13.2062
巙	-13.2062
揕	-13.2062
宍	-13.2062
楕	-13.2062
巡	-13.2139
慴	-13.2139
猳	-13.2139
哘	-13.2217
嫼	-13.2217
埨	-13.2217
塕	-13.2217
墭	-13.2217
崦	-13.2217
怷	-13.2217
墘	-13.2296
嘩	-13.2296
厃	-13.2296
圝	-13.2296
唲	-13.2375
塿	-13.2375
婿	-13.2375
戞	-13.2375
唦	-13.2375
晱	-13.2375
峷	-13.2455
崩	-13.2455
幹	-13.2455
撡	-13.2455
卜	-13.2455
嗡	-13.2536
埜	-13.2536
娹	-13.2536
嬖	-13.2536
岾	-13.2536
嶪	-13.2536
川	-13.2536
幪	-13.2536
弄	-13.2536
掘	-13.2536
坓	-13.2536
妲	-13.2536
卖	-13.2617
嗺	-13.2617
奎	-13.2617
宲	-13.2617
徚	-13.2617
忢	-13.2617
怓	-13.2617
擟	-13.2617
欝	-13.2617
巢	-13.2617
徏	-13.2699
捽	-13.2699
棪	-13.2699
嫣	-13.2699
匈	-13.2782
姃	-13.2782
徝	-13.2782
忬	-13.2782
怸	-13.2782
戠	-13.2782
吘	-13.2865
堒	-13.2865
姏	-13.2865
崗	-13.2865
咓	-13.2865
惭	-13.2865
嶕	-13.2949
屙	-13.2949
姠	-13.2949
媭	-13.2949
嫈	-13.2949
寕	-13.2949
廞	-13.2949
搈	-13.2949
憿	-13.3034
媫	-13.3034
嫲	-13.3034
嵧	-13.3034
惽	-13.3119
<	-13.3119
写	-13.3119
剪	-13.3119
唘	-13.3119
嗓	-13.3119
嘶	-13.3119
塋	-13.3119
壟	-13.3119
嬿	-13.3119
孿	-13.3119
忩	-13.3119
囆	-13.3119
極	-13.3119
半	-13.3206
嵪	-13.3206
廸	-13.3206
垎	-13.3206
堩	-13.3206
嫕	-13.3206
心	-13.3206
曚	-13.3206
喕	-13.3206
慮	-13.3206
姖	-13.3293
娄	-13.3293
宗	-13.3293
寜	-13.3293
弰	-13.3293
愅	-13.3293
屔	-13.3293
怋	-13.3293
年	-13.3293
嬊	-13.338
喬	-13.338
圻	-13.338
妳	-13.338
婛	-13.338
嫝	-13.338
嬐	-13.338
崝	-13.338
忙	-13.338
悤	-13.338
惍	-13.338
愱	-13.338
埚	-13.338
棣	-13.3469
处	-13.3469
奯	-13.3469
幁	-13.3469
撜	-13.3469
楸	-13.3469
啓	-13.349
娃	-13.3558
廝	-13.3558
号	-13.3558
姕	-13.3558
寙	-13.3558
劦	-13.3648
叔	-13.3648
垁	-13.3648
妶	-13.3648
寛	-13.3648
幟	-13.3648
垑	-13.3648
滘	-13.3648
希	-13.3739
噸	-13.3739
孈	-13.3739
忺	-13.3739
竧	-13.3739
嬁	-13.3739
噲	-13.3831
囗	-13.3831
嬷	-13.3831
徣	-13.3831
嘔	-13.3831
夞	-13.3831
嫽	-13.3831
巇	-13.3831
帍	-13.3831
帼	-13.3831
忪	-13.3831
旜	-13.3831
墺	-13.3923
忏	-13.3923
塴	-13.3923
嬒	-13.3923
宮	-13.3923
廣	-13.3923
喍	-13.3923
埃	-13.3923
呯	-13.4017
嵽	-13.4017
巒	-13.4017
庪	-13.4017
廠	-13.4017
槤	-13.4017
摾	-13.4111
哢	-13.4111
坁	-13.4111
尉	-13.4111
尝	-13.4111
崳	-13.4111
嵣	-13.4111
嶈	-13.4111
嶡	-13.4111
慃	-13.4111
墴	-13.4111
寋	-13.4111
彞	-13.4111
慩	-13.4111
寅	-13.4206
崀	-13.4206
嗶	-13.4206
嶝	-13.4206
廉	-13.4206
性	-13.4206
堦	-13.4206
匏	-13.4303
堵	-13.4303
娏	-13.4303
弃	-13.4303
弞	-13.4303
彙	-13.4303
攍	-13.4303
斜	-13.4303
嚄	-13.4303
垻	-13.4303
媝	-13.4303
嫜	-13.4303
嬭	-13.4303
庤	-13.4303
厧	-13.44
嗲	-13.44
園	-13.44
嬯	-13.44
孵	-13.44
岭	-13.44
幠	-13.44
欫	-13.44
挭	-13.4498
嘹	-13.4498
塧	-13.4498
壁	-13.4498
媄	-13.4498
巏	-13.4498
廰	-13.4498
径	-13.4498
怘	-13.4498
扠	-13.4498
椃	-13.4498
嵁	-13.4498
彇	-13.4498
倜	-13.4597
嘵	-13.4597
墦	-13.4597
壣	-13.4597
妿	-13.4597
專	-13.4597
帩	-13.4597
帻	-13.4597
廽	-13.4597
慝	-13.4597
囃	-13.4697
婚	-13.4697
庀	-13.4697
徟	-13.4697
怦	-13.4697
怿	-13.4697
悴	-13.4697
悿	-13.4697
掶	-13.4697
妐	-13.4798
媿	-13.4798
宼	-13.4798
幤	-13.4798
恙	-13.4798
斲	-13.4798
楱	-13.4798
宝	-13.4798
愷	-13.4798
昫	-13.4798
唷	-13.49
噫	-13.49
垌	-13.49
垿	-13.49
奖	-13.49
幇	-13.49
抃	-13.49
楔	-13.49
報	-13.5003
婍	-13.5003
寗	-13.5003
岨	-13.5003
帤	-13.5003
復	-13.5003
旨	-13.5003
孂	-13.5003
挸	-13.5003
嗵	-13.5107
瀌	-13.5107
壕	-13.5107
寂	-13.5107
尐	-13.5107
彡	-13.5107
彨	-13.5107
坐	-13.5212
夬	-13.5212
孆	-13.5212
尊	-13.5212
澴	-13.5212
摕	-13.5212
洈	-13.5212
墖	-13.5212
岓	-13.5212
慳	-13.5212
叓	-13.5319
唹	-13.5319
囡	-13.5319
塒	-13.5319
带	-13.5319
帺	-13.5319
咜	-13.5319
恃	-13.5319
抶	-13.5319
旈	-13.5319
嘸	-13.5319
廋	-13.5319
堠	-13.5426
巂	-13.5426
巼	-13.5426
忉	-13.5426
恆	-13.5426
惑	-13.5426
懭	-13.5426
奠	-13.5426
嚏	-13.5535
围	-13.5535
嬅	-13.5535
察	-13.5535
巸	-13.5535
庲	-13.5535
喀	-13.5535
抯	-13.5645
嘛	-13.5645
奌	-13.5645
娸	-13.5645
枮	-13.5645
坕	-13.5645
嚤	-13.5756
坋	-13.5756
娞	-13.5756
巟	-13.5756
弼	-13.5756
恝	-13.5756
惈	-13.5756
擛	-13.5756
昀	-13.5756
堏	-13.5756
忱	-13.5756
愯	-13.5868
圐	-13.5868
抲	-13.5868
喢	-13.5868
噞	-13.5868
团	-13.5868
姲	-13.5868
巎	-13.5868
帟	-13.5868
弱	-13.5868
搲	-13.5868
嗉	-13.5982
妧	-13.5982
娼	-13.5982
孡	-13.5982
岰	-13.5982
崆	-13.5982
崻	-13.5982
廯	-13.5982
弅	-13.5982
狎	-13.5982
怉	-13.5982
帑	-13.6097
掭	-13.6097
寬	-13.6097
崹	-13.6097
暬	-13.6097
慰	-13.6097
厥	-13.6213
壢	-13.6213
彂	-13.6213
搎	-13.6213
壍	-13.6213
姺	-13.6213
孖	-13.6213
嶵	-13.6213
怂	-13.6213
晳	-13.6213
吣	-13.6213
怏	-13.6213
岔	-13.6213
坲	-13.6331
壨	-13.6331
姤	-13.6331
寓	-13.6331
尋	-13.6331
尩	-13.6331
悞	-13.6331
披	-13.6331
夾	-13.645
击	-13.645
咺	-13.645
噼	-13.645
妹	-13.645
嶋	-13.645
惘	-13.645
攇	-13.645
摥	-13.645
楼	-13.645
匷	-13.657
历	-13.657
呑	-13.657
啬	-13.657
夒	-13.657
夠	-13.657
娯	-13.657
崎	-13.657
崢	-13.657
崾	-13.657
帣	-13.657
嘟	-13.6692
媱	-13.6692
孇	-13.6692
序	-13.6692
埊	-13.6692
囪	-13.6816
効	-13.6816
勏	-13.6816
否	-13.6816
囥	-13.6816
妱	-13.6816
嬦	-13.6816
宒	-13.6816
巷	-13.6816
抢	-13.6816
擑	-13.6816
殂	-13.6816
厁	-13.6939
場	-13.6941
央	-13.6941
孬	-13.6941
崑	-13.6941
怹	-13.6941
搌	-13.6941
搽	-13.6941
妆	-13.6941
嶣	-13.6941
急	-13.6941
慂	-13.6941
昚	-13.6941
彰	-13.6941
拁	-13.6941
擏	-13.6941
慭	-13.6941
墣	-13.7067
垂	-13.7067
委	-13.7067
帪	-13.7067
彬	-13.7067
晦	-13.7067
桶	-13.7067
椒	-13.7067
硿	-13.7067
总	-13.7196
搃	-13.7196
剧	-13.7196
双	-13.7196
呡	-13.7196
坆	-13.7196
夆	-13.7196
婪	-13.7196
寊	-13.7196
德	-13.7196
悘	-13.7196
愹	-13.7196
择	-13.7196
掝	-13.7196
旍	-13.7196
熇	-13.7196
弘	-13.7325
媥	-13.7325
崞	-13.7325
彝	-13.7325
忓	-13.7325
悆	-13.7325
榟	-13.7325
塞	-13.7325
団	-13.7457
墌	-13.7457
屢	-13.7457
崔	-13.7457
庯	-13.7457
峑	-13.7457
嶺	-13.7457
彲	-13.7457
憧	-13.7457
戇	-13.7457
撿	-13.7457
渼	-13.7457
舭	-13.7457
怡	-13.7457
忎	-13.759
啪	-13.759
嫢	-13.759
屉	-13.759
坔	-13.759
堓	-13.759
塗	-13.759
塡	-13.759
局	-13.759
崄	-13.759
嶤	-13.759
忭	-13.759
憆	-13.759
抜	-13.759
暹	-13.759
渹	-13.759
脞	-13.759
媤	-13.759
妈	-13.7725
婵	-13.7725
布	-13.7725
徻	-13.7725
呅	-13.7725
喔	-13.7725
嗧	-13.7725
圑	-13.7725
塎	-13.7725
塬	-13.7725
嫻	-13.7725
孜	-13.7725
嵃	-13.7725
徢	-13.7725
搗	-13.7725
撄	-13.7725
洚	-13.7725
薴	-13.7725
埉	-13.7725
媙	-13.7862
崃	-13.7862
崵	-13.7862
嵓	-13.7862
徑	-13.7862
惮	-13.7862
愪	-13.7862
棦	-13.7862
槲	-13.7862
囑	-13.7862
忌	-13.7862
昮	-13.7862
培	-13.8001
叻	-13.8001
宾	-13.8001
慹	-13.8001
桀	-13.8001
殉	-13.8001
喦	-13.8001
埱	-13.8001
囵	-13.8001
组	-13.8001
孢	-13.8142
惜	-13.8142
囖	-13.8142
堀	-13.8142
奇	-13.8142
妝	-13.8142
娢	-13.8142
婡	-13.8142
媣	-13.8142
宦	-13.8142
寒	-13.8142
嵞	-13.8142
廦	-13.8142
恠	-13.8142
揸	-13.8142
柔	-13.8142
緑	-13.8142
楹	-13.8142
叿	-13.8285
姷	-13.8285
嫞	-13.8285
嶠	-13.8285
彃	-13.8285
叵	-13.8285
姀	-13.8285
幆	-13.8285
庈	-13.8285
徆	-13.8285
惗	-13.8285
碓	-13.8285
椷	-13.8285
侉	-13.8418
嚽	-13.843
声	-13.843
嵈	-13.843
悝	-13.843
蓙	-13.843
夀	-13.843
忳	-13.843
忽	-13.843
摎	-13.843
槪	-13.843
凴	-13.8565
勳	-13.8576
勥	-13.8577
墒	-13.8577
峘	-13.8577
桿	-13.8577
呥	-13.8577
娕	-13.8577
婦	-13.8577
婾	-13.8577
孕	-13.8577
嶰	-13.8577
昧	-13.8577
梃	-13.8577
洑	-13.8577
煥	-13.8577
楴	-13.8577
僐	-13.8629
尧	-13.8726
峓	-13.8726
嶓	-13.8726
帜	-13.8726
戊	-13.8726
捛	-13.8726
捩	-13.8726
摝	-13.8726
撎	-13.8726
攤	-13.8726
斄	-13.8726
桪	-13.8726
沓	-13.8726
炎	-13.8726
复	-13.8726
愕	-13.8726
娒	-13.8878
嚼	-13.8878
墥	-13.8878
墩	-13.8878
弻	-13.8878
恇	-13.8878
想	-13.8878
旤	-13.8878
爅	-13.8878
埋	-13.8878
及	-13.9032
宴	-13.9032
懈	-13.9032
推	-13.9032
摗	-13.9032
撈	-13.9032
夻	-13.9032
帒	-13.9032
幣	-13.9032
怔	-13.9032
栭	-13.9032
烪	-13.9032
暨	-13.9188
匾	-13.9188
夎	-13.9188
婉	-13.9188
嬃	-13.9188
岆	-13.9188
岱	-13.9188
掠	-13.9188
梘	-13.9188
榇	-13.9188
壞	-13.9188
妀	-13.9188
搐	-13.9188
棷	-13.9188
菃	-13.9188
庝	-13.9188
嘳	-13.9347
吂	-13.9347
呤	-13.9347
咦	-13.9347
妽	-13.9347
嬗	-13.9347
寏	-13.9347
尀	-13.9347
彵	-13.9347
忷	-13.9347
惻	-13.9347
未	-13.9347
剱	-13.9347
噪	-13.9347
媛	-13.9347
峉	-13.9347
峙	-13.9347
扇	-13.9508
榶	-13.9508
囁	-13.9508
宣	-13.9508
容	-13.9508
屁	-13.9508
嵾	-13.9508
幬	-13.9508
徜	-13.9508
敘	-13.9508
檷	-13.9508
咂	-13.9508
奍	-13.9672
剴	-13.9672
机	-13.9672
杛	-13.9672
團	-13.9672
妬	-13.9672
嫛	-13.9672
嬧	-13.9672
寿	-13.9672
嵔	-13.9672
彐	-13.9672
投	-13.9672
揗	-13.9672
曩	-13.9672
泜	-13.9672
愆	-13.9672
帏	-13.9838
媚	-13.9838
帄	-13.9838
嘫	-13.9838
垓	-13.9838
妜	-13.9838
岤	-13.9838
帱	-13.9838
庹	-13.9838
彔	-13.9838
挼	-13.9838
搧	-13.9838
擶	-13.9838
斞	-13.9838
巴	-13.9838
壝	-14.0008
斥	-14.0008
唁	-14.0008
喞	-14.0008
囨	-14.0008
墅	-14.0008
媉	-14.0008
愧	-14.0008
槳	-14.0008
橩	-14.0008
姍	-14.0008
巬	-14.0008
幸	-14.0008
掆	-14.0008
控	-14.0008
敄	-14.0008
忖	-14.0008
愋	-14.0008
只	-14.018
囒	-14.018
囟	-14.018
嬱	-14.018
嬳	-14.018
廁	-14.018
引	-14.018
憒	-14.018
打	-14.018
昛	-14.018
昲	-14.018
暿	-14.018
泴	-14.018
滭	-14.018
坘	-14.018
嫉	-14.018
孧	-14.018
岿	-14.018
师	-14.018
怬	-14.018
恹	-14.018
懇	-14.018
懊	-14.018
撍	-14.018
旆	-14.018
涚	-14.018
匲	-14.0356
呃	-14.0356
墠	-14.0356
婑	-14.0356
婮	-14.0356
孾	-14.0356
尖	-14.0356
尹	-14.0356
峦	-14.0356
崘	-14.0356
愥	-14.0356
憝	-14.0356
曻	-14.0356
檂	-14.0356
討	-14.0356
嘂	-14.0356
庮	-14.0356
惩	-14.0356
挮	-14.0356
擐	-14.0356
晓	-14.0356
楻	-14.0356
巺	-14.0534
哯	-14.0534
地	-14.0534
堋	-14.0534
婅	-14.0534
婽	-14.0534
岚	-14.0534
峄	-14.0534
懿	-14.0534
柏	-14.0534
櫌	-14.0534
歍	-14.0534
歼	-14.0534
夈	-14.0534
廇	-14.0534
弙	-14.0534
悢	-14.0534
媠	-14.0716
懻	-14.0716
媹	-14.0716
孋	-14.0716
屚	-14.0716
岘	-14.0716
嵅	-14.0716
嵇	-14.0716
幭	-14.0716
悰	-14.0716
挪	-14.0716
揓	-14.0716
撉	-14.0716
棖	-14.0716
埖	-14.0716
増	-14.0901
恼	-14.0901
恾	-14.0901
崺	-14.0901
嶏	-14.0901
巕	-14.0901
廙	-14.0901
恴	-14.0901
戍	-14.0901
捉	-14.0901
楏	-14.0901
榈	-14.0901
檪	-14.0901
歾	-14.0901
咊	-14.0901
囘	-14.0901
坊	-14.0901
樞	-14.0901
煅	-14.0901
狻	-14.0901
旀	-14.0901
摰	-14.109
四	-14.109
弣	-14.109
弪	-14.109
唱	-14.109
奞	-14.109
娐	-14.109
就	-14.109
幧	-14.109
庫	-14.109
慕	-14.109
戃	-14.109
搊	-14.109
擖	-14.109
榋	-14.109
殮	-14.109
滄	-14.109
嚣	-14.109
毚	-14.109
嘷	-14.1282
垫	-14.1282
尭	-14.1282
尳	-14.1282
岟	-14.1282
嵉	-14.1282
敎	-14.1282
橅	-14.1282
哄	-14.1282
囅	-14.1282
墕	-14.1282
婯	-14.1282
岥	-14.1282
嵗	-14.1282
庼	-14.1282
彴	-14.1282
摤	-14.1282
浯	-14.1282
皚	-14.1282
埄	-14.1282
哏	-14.143
垶	-14.1478
塂	-14.1478
太	-14.1478
娵	-14.1478
嬸	-14.1478
孼	-14.1478
拦	-14.1478
捕	-14.1478
捠	-14.1478
摉	-14.1478
晒	-14.1478
暮	-14.1478
樭	-14.1478
泛	-14.1478
孔	-14.1478
图	-14.1478
幵	-14.1478
垲	-14.1678
嫨	-14.1678
屿	-14.1678
崣	-14.1678
忨	-14.1678
慔	-14.1678
扝	-14.1678
技	-14.1678
晑	-14.1678
楢	-14.1678
寃	-14.1678
悍	-14.1678
晤	-14.1678
垏	-14.9101
减	-15.137
噬	-15.2663
娌	-15.7054
怨	-15.7055
佽	-15.7056
庐	-15.7057
揾	-15.7058
挄	-15.7059
憡	-15.706
愲	-15.7061
岩	-15.7062
暎	-15.7063
员	-15.7064
橸	-15.7065
懥	-15.7066
婷	-15.7067
忂	-15.7068
寭	-15.7069
朸	-15.707
晫	-15.7071
庵	-15.7072
增	-15.7073
底	-15.7074
橂	-15.7075
济	-15.7076
憢	-15.7077
攫	-15.7078
娂	-15.7079
哇	-15.708
椆	-15.7081
干	-15.7082
屼	-15.7083
嬌	-15.7084
夿	-15.7085
嘉	-15.7086
嶨	-15.7087
崤	-15.7088
恌	-15.7089
嘨	-15.709
唭	-15.7091
娚	-15.7092
惃	-15.7093
彽	-15.7094
擮	-15.7095
扴	-15.7096
峎	-15.7097
圦	-15.7098
柈	-15.7099
坭	-15.71
姼	-15.7101
坴	-15.7102
崿	-15.7103
熯	-15.7104
濠	-15.7105
彟	-15.7106
晲	-15.7107
勒	-15.7108
已	-15.7109
夙	-15.711
婢	-15.7111
啎	-15.7112
扷	-15.7113
圜	-15.7114
娘	-15.7115
巣	-15.7116
应	-15.7117
壵	-15.7118
所	-15.7119
堟	-15.712
徃	-15.7121
喊	-15.7122
堚	-15.7123
婶	-15.7124
惞	-15.7125
娫	-15.7126
嘗	-15.7127
圧	-15.7128
圙	-15.7129
姟	-15.713
恒	-15.7131
尰	-15.7132
嘬	-15.7133
塄	-15.7134
墸	-15.7135
囕	-15.7136
寷	-15.7137
嶔	-15.7138
婇	-15.7139
張	-15.714
哦	-15.7141
均	-15.7142
尽	-15.7143
垹	-15.7144
嫔	-15.7145
婓	-15.7146
塉	-15.7147
損	-15.7148
帡	-15.7149
媳	-15.715
侓	-15.7151
壭	-15.7152
媌	-15.7153
腳	-15.7154
府	-15.7155
嘴	-15.7156
埻	-15.7157
崴	-15.7158
啨	-15.7159
唊	-15.716
哸	-15.7161
奸	-15.7162
屃	-15.7163
妾	-15.7164
咟	-15.7165
嗘	-15.7166
垞	-15.7167
婩	-15.7168
嗃	-15.7169
垾	-15.717
卼	-15.7171
厺	-15.7172
匳	-15.7173
哑	-15.7174
华	-15.7175
吗	-15.7176
倴	-15.7177
僤	-15.7178
僄	-15.7179
凪	-15.7179
