<unk>	0
<s>	0
</s>	0
▁亖	-0
▁仢	-1
▁亽	-2
▁仿	-3
▁仔	-4
▁亓	-5
▁亃	-6
▁仐	-7
▁1	-8
▁佋	-9
▁仿亵	-10
▁佅	-11
▁亍	-12
▁亲	-13
▁什	-14
▁予	-15
▁佅伭	-16
俷佳	-17
▁伸	-18
▁亂	-19
▁仌	-20
▁伊	-21
▁仢俷佳	-22
▁仈	-23
亮亥	-24
▁亢	-25
▁仛	-26
▁偙	-27
▁亲仇	-28
▁令	-29
亚什	-30
▁亜	-31
▁偙亮亥	-32
▁互	-33
俉仅	-34
▁亚	-35
▁10	-36
▁以	-37
▁亣	-38
▁亩	-39
▁亇	-40
▁仙	-41
▁5	-42
▁侺	-43
▁伡	-44
▁仿亵亥	-45
▁亥	-46
▁二	-47
▁争	-48
▁亊	-49
▁亇予	-50
▁2	-51
仅亰	-52
▁佋仦	-53
▁佋仦佌	-54
▁传	-55
▁享	-56
▁侺仌	-57
▁亓伊	-58
▁介	-59
▁伡傢	-60
▁位	-61
▁亵	-62
▁佒	-63
亡亯	-64
▁亻	-65
▁仩	-66
▁侎	-67
▁俢	-68
▁亓伊亃	-69
▁仍	-70
位伭	-71
俷亡	-72
保二	-73
▁似	-74
▁倎	-75
▁会	-76
▁伙	-77
▁俆	-78
▁亾	-79
▁倦	-80
▁仩仪	-81
▁会予	-82
▁但	-83
▁佸	-84
仅亾	-85
▁伓	-86
仅亥	-87
佰亣	-88
▁佰亣	-89
位伭二	-90
▁亷	-91
▁估	-92
▁侨	-93
▁伸傘	-94
▁伸傘俉仅	-95
▁20	-96
▁仔伢	-97
▁亏	-98
▁仞	-99
▁会予傲	-100
▁估侒	-101
▁予傜	-102
▁佚	-103
▁19	-104
▁仿亩	-105
▁倲	-106
▁亓争	-107
▁佸位伭二	-108
▁亍倩	-109
▁亃仦	-110
▁佃	-111
▁亼	-112
▁仼	-113
▁予傜俉仅	-114
▁亯	-115
▁侺仌亊	-116
仧亡	-117
众予	-118
仞二	-119
侚亣	-120
▁亓争侚亣	-121
▁伭	-122
▁侏	-123
▁代	-124
▁倦傠	-125
伖仇	-126
▁"	-127
▁仢付	-128
▁伋	-129
▁侎优	-130
▁仔伢俱	-131
亐仦	-132
▁偖	-133
佤亭	-134
▁产	-135
▁亊亩	-136
亘亙	-137
▁佨	-138
▁仹	-139
▁亘亙	-140
▁亖伻	-141
▁争伥	-142
▁侧	-143
▁侺仌個	-144
▁令二	-145
▁仒	-146
争仳	-147
▁享仚	-148
▁仿亩亚什	-149
▁似代	-150
亥亚	-151
▁争伥亐仦	-152
▁仈仇	-153
偏仌	-154
俰仇	-155
傷任	-156
▁亖亚	-157
▁佭	-158
▁亐	-159
▁介争	-160
▁倐	-161
▁信	-162
争亾	-163
▁仢亃	-164
▁仅	-165
▁俑	-166
▁亽侨	-167
▁亵仠	-168
仅伟	-169
▁3	-170
▁予亱	-171
事二	-172
▁仮	-173
▁俉	-174
▁t	-175
▁-	-176
傫仇	-177
▁侎优众予	-178
▁偕	-179
▁仙仚	-180
▁偁	-181
▁仯	-182
▁伒	-183
亃俌	-184
▁仐俗	-185
估予	-186
▁仈亜	-187
▁亽侨傥	-188
▁以偏仌	-189
傻侏	-190
▁亶	-191
▁仁	-192
侕亡	-193
▁亊亩估予	-194
▁伻	-195
侻仅	-196
▁亜二	-197
亣仅	-198
仇二	-199
▁a	-200
▁倇	-201
傻侏佧	-202
in	-203
▁俙	-204
▁令亡亯	-205
傸亭	-206
▁任	-207
▁亖仌	-208
亢仦	-209
▁亖亰	-210
▁侞	-211
但二	-212
▁俜	-213
▁仇	-214
▁侨停	-215
▁亥仼	-216
佲仳	-217
▁仧	-218
信事	-219
▁亓佋	-220
仦交	-221
▁伌	-222
00	-223
▁僓	-224
▁傻侏佧	-225
▁介争亜	-226
俪仇	-227
▁众	-228
仧亳	-229
▁伸佧	-230
▁偁仇	-231
▁亖伳	-232
▁伕	-233
仓亯	-234
he	-235
▁伜	-236
▁仔仲	-237
▁伦	-238
▁201	-239
▁伍	-240
▁仛事	-241
▁亅	-242
住二	-243
亃产	-244
仌仅	-245
▁4	-246
▁亢仦	-247
侍仞	-248
▁今	-249
▁亖俵	-250
亂亮	-251
▁侳	-252
▁们	-253
▁僁	-254
▁凁	-255
▁佌	-256
仅余	-257
亡亢	-258
亚亩	-259
事亞	-260
▁亖佳	-261
▁7	-262
▁仍亡亯	-263
▁但亚亩	-264
▁仪	-265
▁伒仇二	-266
▁亂佛	-267
▁亖亜	-268
▁仍亡亯亼	-269
▁亼亡	-270
▁佃伅	-271
▁倡	-272
仪亚什	-273
▁仐侭	-274
▁僇	-275
▁仔仲二	-276
▁/	-277
▁仈亜争	-278
▁亽事二	-279
▁亍個	-280
亞佼	-281
▁亜亡亢	-282
▁侁	-283
亥亰	-284
仚亾	-285
仄仓	-286
▁.	-287
▁侺仌亊事	-288
▁佗	-289
俶俷亡	-290
▁仸	-291
▁伓仅	-292
▁仔产	-293
▁倫	-294
亭佼	-295
偾伿	-296
仌冂	-297
▁佅仞	-298
俎俣	-299
仳二	-300
on	-301
er	-302
▁僇亾	-303
來俷佳	-304
▁仢俷亡	-305
▁200	-306
▁位傼	-307
▁亃优	-308
▁亍仌冂	-309
▁令伙	-310
争伪	-311
▁傕	-312
予侍	-313
伹亚什	-314
▁仐侭侑	-315
亏仳二	-316
▁俢亍	-317
▁俢了	-318
▁亜亡亢亜	-319
▁伬	-320
▁予亱交	-321
▁伦亱	-322
代亚	-323
▁亽任	-324
▁亩僉	-325
▁侣	-326
佚位	-327
▁亢佉	-328
▁仔亂亮	-329
▁亢亮	-330
▁伥	-331
▁亇予仂	-332
▁亽任亃俌	-333
▁令二亏仳二	-334
▁俈	-335
▁仁亳	-336
▁亃偾伿	-337
亂仅	-338
仂偞	-339
▁亃优佃	-340
▁享亐	-341
俠仇	-342
▁俄	-343
▁令伙介	-344
▁傕傖	-345
▁俺	-346
▁6	-347
亳亯	-348
▁冓	-349
仓亶	-350
▁傸亭	-351
▁傕傖侵	-352
俅仇	-353
▁亢佉僆	-354
▁仔傤	-355
▁倦傠俉仅	-356
▁伱	-357
二亡	-358
▁亚亨	-359
▁亣僂	-360
▁亖伳俎俣	-361
仅亚	-362
▁亽傷任	-363
仅二	-364
▁伕侻仅	-365
仂亚	-366
亃倌	-367
傶傷任	-368
▁仮仯	-369
▁传傶傷任	-370
▁二亏	-371
▁俲	-372
▁値	-373
亓亣仅	-374
偉亡	-375
▁仪倣	-376
▁亣令	-377
▁o	-378
▁佋侹	-379
▁倐亡	-380
▁僁佤亭	-381
偗亳	-382
▁些	-383
▁佋争	-384
▁亖佋	-385
▁似代住二	-386
▁亓伥	-387
▁亓亩	-388
▁哏	-389
▁俤	-390
▁倇亚	-391
俉亡	-392
仌仦	-393
▁傋	-394
任亾	-395
亮亶	-396
at	-397
▁俎	-398
▁僯	-399
佃亶	-400
亏仅	-401
▁亃亚	-402
▁傛	-403
▁亓佗	-404
▁侺仌亊伹亚什	-405
▁仔傤予	-406
▁亾俅	-407
▁保	-408
▁偱	-409
▁伭傞	-410
依亶	-411
▁侨僃	-412
▁仆	-413
▁8	-414
仄仅	-415
▁亃争	-416
▁the	-417
亂争	-418
▁仐令	-419
予争	-420
▁仒信事	-421
▁仐亚	-422
倘仪	-423
▁产仦交	-424
▁僎	-425
▁亃偝	-426
▁仧伫	-427
▁佶	-428
▁倈	-429
an	-430
▁18	-431
is	-432
re	-433
▁仙亜	-434
▁亅僀	-435
▁伃	-436
事亭	-437
▁仢亃于	-438
▁催	-439
▁仢你	-440
亥傒	-441
▁仔仌	-442
▁僻	-443
仠仌	-444
▁伜仂	-445
亮亏	-446
▁s	-447
▁亻从	-448
▁俆亱	-449
位亡	-450
▁仂	-451
亢亡	-452
▁亲俅仇	-453
▁亂仓	-454
▁仐依亶	-455
ar	-456
亡仓	-457
▁亽伱	-458
▁仿佋	-459
▁仕	-460
仪仇	-461
▁俆仓亯	-462
佚佝	-463
:.	-464
▁仹佭	-465
▁侎亮	-466
仭亶	-467
事予	-468
▁亖仄	-469
▁佒仪仇	-470
▁偆	-471
▁仚	-472
▁仦	-473
▁仌争亾	-474
en	-475
▁倲件	-476
▁亵仇	-477
▁令亡亯傫仇	-478
▁仐亚于	-479
亣仓	-480
▁仔令	-481
俷亳	-482
▁仐俖	-483
仍仓	-484
仧争	-485
▁僑	-486
▁亼仂	-487
▁仌俶	-488
▁僅	-489
▁c	-490
亙仠	-491
▁仢你佡	-492
▁亵仞	-493
▁仢俬	-494
▁亵仠仭	-495
▁9	-496
▁伡伈	-497
▁僬	-498
▁偿	-499
▁亂倂	-500
▁亖伻予	-501
偉佳	-502
it	-503
▁佋佗	-504
▁俊	-505
予企	-506
仍亥	-507
▁二伀	-508
▁伸仦	-509
▁亍偶	-510
亣仄	-511
▁亢亡	-512
伤仅	-513
▁俕	-514
佼亥	-515
▁令仦	-516
▁倎侻	-517
▁仙仚伖仇	-518
伟亥	-519
al	-520
▁位偩	-521
▁住	-522
▁僎像	-523
▁伡佇	-524
亾仓	-525
▁俙亳亯	-526
傂仇	-527
▁储	-528
偀傱	-529
▁仛但二	-530
佗争	-531
▁俙亳亯伙	-532
▁傾	-533
..	-534
▁亍亜	-535
▁仔仹	-536
仌侤	-537
▁僑佗	-538
佼仓	-539
傳倠	-540
代仅	-541
佈亶	-542
▁亐亚	-543
▁例	-544
▁僊	-545
▁僄	-546
偩俰仇	-547
亯仅	-548
▁今伟	-549
仌佝	-550
▁凊	-551
or	-552
▁伫	-553
▁仛产	-554
▁二伀仚	-555
▁亍僈	-556
付亜	-557
予侟	-558
▁仏	-559
亢伤	-560
▁亽仠	-561
仚仓	-562
▁仙了	-563
二亏	-564
▁亲仉	-565
▁p	-566
▁似代仂	-567
▁亾俅位	-568
▁佁	-569
▁会予倂	-570
争佲仳	-571
▁亩侹	-572
▁of	-573
伫仅	-574
▁俎佡	-575
▁2011	-576
▁仌倚	-577
▁亂亶	-578
ed	-579
▁w	-580
亚予	-581
es	-582
亐伎	-583
▁亥亚	-584
亣伓	-585
▁佨佲仳	-586
争伪亶	-587
▁偶	-588
▁仐佤	-589
仭亥	-590
亡亶	-591
偘亥	-592
▁亂倂仅伟	-593
來仓	-594
偖债	-595
▁争亢伤	-596
▁令亡亯伖仇	-597
▁b	-598
佋亚	-599
▁亜争	-600
亏亭	-601
▁'	-602
▁但儶	-603
▁佀	-604
ic	-605
亚事亞	-606
▁亏傓	-607
▁亻争亾	-608
▁亚众	-609
▁亃亚仛	-610
▁亃亙	-611
▁佋亏	-612
▁亃例	-613
▁伀	-614
▁亜佋	-615
仂什	-616
▁仔仌偩俰仇	-617
亃俌予	-618
▁亃偝仳	-619
代予	-620
▁亣傐	-621
伕亶	-622
▁僄亝	-623
些佤亭	-624
侻偘	-625
▁亵仠仅	-626
▁僅争	-627
▁亩侹众予	-628
侞傯	-629
▁余	-630
仕亜	-631
▁仪倣傿	-632
▁伇	-633
▁値伮	-634
▁倃	-635
▁亚亨侮	-636
▁亂仓仌仅	-637
俶付	-638
▁仌件	-639
佈亥	-640
仅仄	-641
▁伊代	-642
▁仍亡亯亼亡	-643
借倠	-644
▁15	-645
▁储佤	-646
伭予企	-647
傟佧	-648
▁亜儈	-649
▁仔伢俍	-650
▁亻仦	-651
亢亳	-652
▁亯侙	-653
▁仐俖侍仞	-654
▁in	-655
▁仌二亡	-656
佫仅	-657
▁伡佇仓	-658
▁亖佳二	-659
▁12	-660
▁f	-661
▁会予倂仓	-662
企佼	-663
▁僊倡	-664
俠倠	-665
▁亍伵	-666
▁偕予侍	-667
▁仛俉亡	-668
伭二	-669
▁偕亢	-670
▁僊倡倏	-671
▁伸亣	-672
▁仐亚于伕	-673
▁亽仜	-674
仅仌	-675
▁侎优众	-676
▁亢僋	-677
▁佨例	-678
▁亊亩亪	-679
▁亖俵亂	-680
▁传佤	-681
傦傧	-682
▁亮	-683
▁仈傔	-684
▁倨	-685
▁仍倩	-686
▁侳伻	-687
▁亜伹	-688
▁亰	-689
事亜	-690
▁亂佛予侟	-691
▁伹	-692
▁仔傦傧	-693
▁倡佂	-694
▁亍伵佋	-695
nd	-696
▁亚伣	-697
▁产亡亯	-698
▁亍侞傯	-699
▁仹佭僌	-700
▁保亐伎	-701
▁亏傓亂仅	-702
俢付亜	-703
▁储佤佶	-704
傺亠	-705
▁仑	-706
▁伸争	-707
▁傗	-708
▁亓伥亂争	-709
▁亚众傆	-710
▁亾伫仅	-711
▁仛俶俷亡	-712
▁侎优众俢付亜	-713
▁什亥	-714
傹企	-715
▁亥亰	-716
仼仅	-717
▁介佤	-718
▁亜儈亜	-719
▁m	-720
▁僎像仅伟	-721
▁亍争佲仳	-722
▁吁	-723
▁佋亡亯	-724
▁俆亏仅	-725
▁倎侻傺亠	-726
▁伓仅仅	-727
▁佒体	-728
▁似傹企	-729
▁亢僋亃俌予	-730
▁亖产	-731
▁亽傝	-732
▁亽俉	-733
▁亓佗事予	-734
▁仞付	-735
▁亩僉傳倠	-736
▁倎令	-737
▁佺	-738
▁--	-739
▁仔傦傧事	-740
▁傛亚事亞	-741
▁俉仅	-742
▁亓債	-743
▁傗些佤亭	-744
佳仅	-745
▁俜亳	-746
▁位于	-747
▁令伙介余	-748
享仚	-749
▁令二二	-750
▁佋亏亢仦	-751
伱伭予企	-752
▁伸仦例	-753
侀仅亰	-754
▁仢侸	-755
傴侐	-756
▁传借倠	-757
▁亍仧争	-758
▁亽侻仅	-759
伎亜	-760
▁伸亣伱伭予企	-761
▁亽仠亢仦	-762
來付	-763
▁佭亭	-764
▁偿俠倠	-765
▁僐	-766
▁値伮偘亥	-767
▁亓争侚亣仅	-768
▁候	-769
仌亓亣仅	-770
▁佋二	-771
▁仈傔余	-772
▁俆仭亶	-773
▁传佤亂	-774
▁俲佪	-775
▁佋亡亯傰	-776
▁伸仦例侹	-777
▁亩仯	-778
▁亲仠	-779
▁佋争伤仅	-780
亡仄	-781
▁亖亥	-782
仦予	-783
▁传倢	-784
佄仇	-785
▁亢倿	-786
傡伿	-787
▁侮	-788
▁仙亏亭	-789
▁以从	-790
佚二	-791
▁住亭	-792
▁伦亱傸亭	-793
▁亩僉亠	-794
代亣伓	-795
ion	-796
▁亖佳倨	-797
▁傾倣	-798
▁仛但	-799
侍倠	-800
▁仢侸代予	-801
伦傡伿	-802
▁佗仓	-803
倏以	-804
▁亷俬	-805
伓佧	-806
▁侞倷	-807
▁亃亙伻	-808
▁俄伨	-809
▁代佢	-810
▁倎傳	-811
▁伸休	-812
佶二	-813
▁传佤亂佗争	-814
▁予仅	-815
傣亯仅	-816
▁僑佗仌亓亣仅	-817
▁偕予侍仛	-818
▁仌俶仄仓	-819
▁亖亜亚	-820
▁偙亮	-821
▁亻仦事亞	-822
仦交二	-823
▁佃予争	-824
▁亃争亃产	-825
傩傪	-826
▁侺侀仅亰	-827
▁亓伊仕亜	-828
▁侚	-829
▁倎傳仂偞	-830
▁亖亚事亜	-831
來俷亡	-832
仿倭	-833
▁仇傣亯仅	-834
▁亾亩	-835
▁位于傴侐	-836
▁佋亡亯傰傱	-837
倏以倪	-838
傩傪偿	-839
▁亖二	-840
▁伋佫仅	-841
▁伭傩傪偿	-842
▁佒倏以倪	-843
▁亖亥亃产	-844
▁亚冾	-845
▁亷俬亰	-846
▁伸休伦傡伿	-847
倐侻	-848
▁俊了	-849
▁伸争催	-850
伎亥	-851
▁伦亱仿倭	-852
偂仂偞	-853
▁亃偝仳保二	-854
▁伸争催侕亡	-855
▁仍亡亯亼仂亚	-856
伉働	-857
亵亥	-858
▁亽仲	-859
▁仛产仹	-860
▁予亚	-861
估傟佧	-862
▁仐俐	-863
▁什亥伊	-864
▁亊仲	-865
▁伡伈保二	-866
▁凍	-867
▁亖伉働	-868
▁侨停亾	-869
▁倎令亼	-870
▁侳伻估傟佧	-871
▁倈仚	-872
▁事	-873
▁伓仅位伭	-874
▁亻俬	-875
le	-876
仦伶	-877
亜保二	-878
▁亖佋仅仄	-879
0.	-880
▁亍代	-881
▁亲偉佳	-882
▁仌仅二	-883
伙仓	-884
▁亖佋仅仄傫仇	-885
▁俑仯	-886
▁似傆	-887
▁伸傘俉仅仓	-888
▁伝	-889
▁亾傜	-890
亳伖仇	-891
▁亂亼	-892
▁俆仭亶仳	-893
▁亽倭	-894
▁冐	-895
▁A	-896
▁伃代亣伓	-897
▁亃仓	-898
仗亾	-899
亢偿	-900
▁亖伱	-901
▁199	-902
▁11	-903
侕佳	-904
亾亳	-905
▁仌仦	-906
▁亍偰	-907
仯佳	-908
▁仌二亡仅	-909
▁伸募	-910
▁亾傜佳仅	-911
▁信任	-912
▁位傼仓	-913
▁佒冸	-914
▁亖侹	-915
▁仢亃于佄	-916
▁僩	-917
▁但儶仇	-918
▁亖仌亓亣仅	-919
亥什	-920
亡亳	-921
亢亮	-922
▁偖债	-923
亓二	-924
仯亡	-925
▁亖伫	-926
▁侨停亢偿	-927
▁予优	-928
亣事	-929
▁偱仪	-930
▁仛产仹仼仅	-931
▁令仦交二	-932
▁亓佋伟亥	-933
▁匣	-934
伫亚什	-935
▁什亥伊侻偘	-936
▁14	-937
亻亚	-938
▁侫	-939
▁亖仄來俷佳	-940
▁16	-941
▁倎令亼侍倠	-942
▁偙亮亥傒	-943
偂仂	-944
佚仪亚什	-945
▁亩伶	-946
as	-947
▁仈件	-948
侐佼	-949
亣停	-950
俉亳	-951
▁亖仇	-952
▁伸伶	-953
▁亃亐	-954
▁S	-955
▁17	-956
ou	-957
▁亂佛亴	-958
▁傂	-959
伤仓	-960
佚位俠仇	-961
▁傒	-962
偖凈	-963
亼仂	-964
▁仐令事	-965
▁俿	-966
予争仳	-967
伸亳	-968
▁亓仦	-969
▁亢仂	-970
▁仔俶	-971
ing	-972
亜二	-973
▁仮仯仅	-974
▁d	-975
伭亶	-976
▁享亚	-977
▁亂亚	-978
▁侺仌亊伟	-979
▁亯侍仞	-980
仼亮	-981
亜仓	-982
▁代俇	-983
▁亊俥	-984
伙亳	-985
▁亖从	-986
侻二	-987
亂仓	-988
▁仈亙仠	-989
仅予	-990
▁仙偉亡	-991
▁俺仐	-992
做仇	-993
▁亓仍	-994
▁仐仲	-995
俉仑	-996
▁亖付	-997
争仍	-998
▁凓	-999
伹仓	-1000
▁以从予	-1001
▁俀	-1002
仚亥	-1003
佳二	-1004
伎亶	-1005
▁亩伶侳	-1006
产予	-1007
來仅	-1008
▁俆仓	-1009
▁仿亩仅	-1010
代二	-1011
▁13	-1012
▁仯亡	-1013
▁仐仌	-1014
兝仇	-1015
▁俓	-1016
▁佈	-1017
▁仔仹佚	-1018
▁們	-1019
▁(	-1020
▁仌倚二	-1021
▁亣佋	-1022
位俠仇	-1023
▁似代住二仐	-1024
▁仔仍	-1025
▁佒冸佧	-1026
伕亥	-1027
▁享亡	-1028
▁仔侏	-1029
咠产	-1030
▁亩二	-1031
▁伻亡亶	-1032
▁仛偕	-1033
▁:	-1034
▁信任亾	-1035
▁予亰	-1036
仰什	-1037
亐亡	-1038
▁儂	-1039
▁仔代	-1040
偉亚什	-1041
亢仠	-1042
仐佶	-1043
争亚	-1044
侻亾	-1045
▁仔予	-1046
仓仌	-1047
亃儴	-1048
▁亣停	-1049
▁亖仌亓	-1050
▁偀	-1051
亣从	-1052
▁价	-1053
▁亂仅	-1054
▁T	-1055
▁仈件亡	-1056
仌二	-1057
▁仠	-1058
▁傋亜	-1059
▁侔	-1060
▁仛任	-1061
▁仔介	-1062
▁侎亮他	-1063
▁仐亳	-1064
产亚	-1065
▁位偩亮亏	-1066
予传	-1067
▁仙代	-1068
伭伹	-1069
▁to	-1070
▁亖亜亰	-1071
▁亹	-1072
亠佼	-1073
交仦	-1074
仦亂	-1075
▁and	-1076
▁偖仌	-1077
俫佳	-1078
▁僜	-1079
▁亂仭亥	-1080
om	-1081
000	-1082
仅佸	-1083
1.	-1084
争保二	-1085
争亃	-1086
▁仞俹	-1087
侻亞	-1088
▁仅佲	-1089
▁佚仦伶	-1090
▁例俣	-1091
仔亐	-1092
▁冿	-1093
▁I	-1094
事亚	-1095
▁亻二	-1096
▁50	-1097
佢亜	-1098
▁亜偏仌	-1099
▁伋仦	-1100
▁亱	-1101
▁仗	-1102
▁仐亢	-1103
▁仙仚伓佧	-1104
▁仐仐佶	-1105
▁亚亢	-1106
仅事	-1107
傽仚亾	-1108
▁亡	-1109
▁产亡亯來俷佳	-1110
仍二	-1111
▁們傌	-1112
▁亊偩	-1113
▁佋伥	-1114
伙从	-1115
▁伎	-1116
▁仼亣	-1117
▁C	-1118
▁亵仞亼仂	-1119
▁仄	-1120
▁亽俦	-1121
▁偞	-1122
▁h	-1123
▁俭	-1124
▁伷	-1125
▁仌伧	-1126
▁仌争	-1127
▁仼亡	-1128
▁仛傂仇	-1129
▁代佢仳	-1130
▁198	-1131
亾仅	-1132
▁倇亚亚	-1133
▁争佢亜	-1134
亓伌	-1135
亊仦	-1136
亥伻	-1137
▁产亡	-1138
侻予	-1139
▁俸	-1140
▁亜伹亡	-1141
▁亵仠伫亚什	-1142
▁亣令偞	-1143
仍亰	-1144
▁俑俒	-1145
▁倎仚亥	-1146
▁佋偩	-1147
▁亖仐	-1148
▁n	-1149
▁仌仚仓	-1150
▁儤	-1151
▁侺俒	-1152
3.	-1153
▁凊予	-1154
▁冓仅	-1155
2.	-1156
am	-1157
▁亏仅	-1158
▁亇予亡	-1159
▁仢俬争	-1160
伸亡	-1161
▁仞俁	-1162
▁亥傒	-1163
▁介争亜偖债	-1164
▁仈仐	-1165
▁亍偶俥	-1166
▁仍儵	-1167
仧佳	-1168
仍仅	-1169
俲佪	-1170
us	-1171
亂债	-1172
▁亻二亊	-1173
▁亍冲	-1174
傿俷佳	-1175
▁亢傽仚亾	-1176
亡亾	-1177
仐俗	-1178
▁傾倣傿俷佳	-1179
二企	-1180
▁197	-1181
▁亩偑	-1182
▁亃仦冯	-1183
▁亃代	-1184
▁仙仚伓佧亥	-1185
▁以侐	-1186
于令	-1187
▁亓匉	-1188
▁仙俔	-1189
il	-1190
▁仔令仓	-1191
▁予亱交二	-1192
▁仌仚仓來俷亡	-1193
▁令仅仌	-1194
▁仔仍仑	-1195
▁伙仓亯	-1196
▁令仅仌二亡	-1197
▁俛	-1198
▁偷	-1199
▁亖偖	-1200
▁亴	-1201
▁仛亃	-1202
▁僬咄	-1203
代亡	-1204
▁僧	-1205
伹从	-1206
▁僓众	-1207
▁亂争伪亶	-1208
▁令仅仌二亡仰什	-1209
▁來	-1210
▁亖伱仦亂	-1211
▁伍佳	-1212
▁亽俦予	-1213
亜争	-1214
▁亷偂	-1215
侻仓	-1216
▁催亡	-1217
▁俉仑	-1218
5.	-1219
▁亜倌	-1220
交二	-1221
▁亖伻仇	-1222
▁亵俌	-1223
▁仁仠仌	-1224
▁佷	-1225
▁以仚	-1226
▁传休	-1227
▁仛任亾	-1228
仦伹	-1229
亵仇	-1230
▁亖伎亜	-1231
伿佼	-1232
4.	-1233
仍亶	-1234
俲佪咠产	-1235
▁亢亳	-1236
▁刻	-1237
▁位事	-1238
▁亽仇	-1239
低二	-1240
▁似亙	-1241
▁M	-1242
任仓	-1243
亱予	-1244
▁亍仌冂亮	-1245
▁予仐	-1246
▁仔事	-1247
佋产	-1248
▁195	-1249
▁佋侨	-1250
▁仔亩	-1251
▁196	-1252
▁仍儵亡	-1253
▁令仦佄仇	-1254
▁偖俑	-1255
▁仢俋	-1256
▁伸侉	-1257
ent	-1258
▁俕亱	-1259
▁仛亊	-1260
亡亥	-1261
▁25	-1262
6.	-1263
俐争	-1264
偈佋	-1265
▁偩	-1266
▁亚傯	-1267
▁仔但	-1268
▁亃仦俵	-1269
7.	-1270
▁亃亨	-1271
▁亃偧	-1272
,000	-1273
▁仐俉仑	-1274
俉仓	-1275
▁仼亡冎	-1276
▁伍作	-1277
▁偕仌	-1278
▁亷刋	-1279
▁仔仒	-1280
▁仐俐仐俗	-1281
▁仼俖	-1282
付仇	-1283
▁以偏仌亶	-1284
▁佭伧	-1285
▁俉亓二	-1286
俌予	-1287
▁194	-1288
兩亜	-1289
▁予亱但	-1290
▁仙伅	-1291
▁催亡伓	-1292
▁仮佈	-1293
▁亃匯	-1294
▁仿佋仍	-1295
▁仈伫	-1296
亣亚什	-1297
▁仐介	-1298
伭什	-1299
侕亳	-1300
▁令冤	-1301
▁传倏	-1302
▁伸傘俉仅佼仓	-1303
▁代儯	-1304
▁佈僠	-1305
▁伙事	-1306
▁亖兩亜	-1307
▁儍	-1308
▁佻	-1309
▁仔俶佈	-1310
▁位冟	-1311
倘仇	-1312
亜仅	-1313
亃仦	-1314
亜亰	-1315
8.	-1316
▁佌偣	-1317
▁仔伹	-1318
▁僽	-1319
▁亊仲争伪亶	-1320
仌争	-1321
▁伋仂	-1322
亾亚	-1323
▁30	-1324
侞亞	-1325
伭亚	-1326
▁劼	-1327
佅伭	-1328
亰仓	-1329
产佀	-1330
▁亖伫係	-1331
▁亖俵予	-1332
▁仌儗	-1333
▁伡傢亥	-1334
ad	-1335
▁伋亡	-1336
▁任亩	-1337
9.	-1338
-1	-1339
▁亍仌冂亣仅	-1340
▁倄	-1341
亣事仳	-1342
▁亓佋倽	-1343
▁二傳	-1344
▁仢亐	-1345
▁亚事	-1346
▁l	-1347
▁吁亚	-1348
伂二	-1349
▁佚佛	-1350
仹亥	-1351
▁介争信事	-1352
二亚	-1353
▁侁伸	-1354
ro	-1355
位亳	-1356
▁償	-1357
▁偼	-1358
▁仌兝仇	-1359
▁儨	-1360
产亥	-1361
▁亍偰亜	-1362
▁仛伹	-1363
▁亝	-1364
▁亵仠仭亥亚	-1365
▁倗	-1366
▁偖俉仅	-1367
▁0	-1368
▁仏众	-1369
仗俢	-1370
▁位仅	-1371
▁57	-1372
▁争佚	-1373
):	-1374
▁伓仄仅	-1375
交亱	-1376
亐仼	-1377
▁侺产佀	-1378
20	-1379
偔亡	-1380
▁仚亂	-1381
▁俑仯佴	-1382
仦什	-1383
亮伕亶	-1384
▁仮佈亥	-1385
el	-1386
▁亖亙仠	-1387
伸佧	-1388
▁仛事佝	-1389
▁亽仅伟	-1390
▁位偩亮伕亶	-1391
伜仂	-1392
亃倌亥	-1393
仠亚	-1394
▁仅伳	-1395
▁亣令偞事	-1396
▁剥	-1397
▁亢仦什	-1398
▁予众	-1399
伭于	-1400
▁亂倘仪	-1401
▁B	-1402
▁佷事	-1403
▁仔予傳	-1404
▁仐俉仑亃儴	-1405
▁亖俴	-1406
▁亍代僤	-1407
亶伻	-1408
▁侎亮伌	-1409
▁仞仌仦	-1410
▁侦	-1411
二仇	-1412
俊仂	-1413
▁亃仦伷	-1414
亚伹	-1415
ac	-1416
▁仼争	-1417
位亞	-1418
▁e	-1419
亶亡	-1420
▁亃偿	-1421
▁代俑	-1422
▁倐值	-1423
▁侰	-1424
▁僙	-1425
▁g	-1426
傭亡	-1427
▁亖争	-1428
▁亐亐仼	-1429
▁仔亊	-1430
▁伭伉	-1431
▁亚亱	-1432
了佼	-1433
▁仐傠	-1434
仧仅亚	-1435
亽亞	-1436
▁佶儊	-1437
▁催亡伓仄仅	-1438
▁P	-1439
▁仪倣亡	-1440
佚位伭二	-1441
▁亖僥	-1442
▁亖侹刣	-1443
▁予傭	-1444
▁僬咄侐	-1445
▁倎亂	-1446
傋仠	-1447
▁仅他	-1448
▁争佚二	-1449
仇予	-1450
仼亮亥	-1451
▁何	-1452
▁二伜	-1453
▁倏	-1454
ur	-1455
▁亖偂仂	-1456
仧亮	-1457
亜仍	-1458
亳亰	-1459
▁倃伈	-1460
▁予俷	-1461
▁俉冨	-1462
▁亂仚	-1463
▁仙亜咁	-1464
▁仞伶	-1465
st	-1466
▁亂仭	-1467
▁倐亡余	-1468
▁争佚佳	-1469
▁亂佛亴亩	-1470
▁偖亢	-1471
仼亳	-1472
▁侮偙	-1473
俇二	-1474
▁仈傏	-1475
▁侚亱	-1476
仏众	-1477
▁亣傇	-1478
俔仇	-1479
▁伉	-1480
侂予	-1481
▁仔仹倃	-1482
仚仄	-1483
▁俏	-1484
▁介佯	-1485
▁仸仆	-1486
亶仓	-1487
▁传傫仇	-1488
▁亍偶俥仞二	-1489
儜予	-1490
▁伓亶	-1491
▁匣伙	-1492
▁佋偩井	-1493
争亶	-1494
▁倇亚什	-1495
▁刅	-1496
▁仐亳代仅	-1497
▁th	-1498
▁佋低	-1499
▁倘	-1500
▁亖二亶	-1501
令二	-1502
伥争仳	-1503
▁任亩亡	-1504
et	-1505
▁傮	-1506
仓仼	-1507
▁侏亡	-1508
▁介伕亶	-1509
以侐	-1510
▁亃匯佋	-1511
二亃	-1512
ri	-1513
佧伜仂	-1514
▁仔仗	-1515
亠佼亥	-1516
▁仐俗俘	-1517
▁193	-1518
仚仅	-1519
▁冢	-1520
仌争亾	-1521
▁24	-1522
▁偒	-1523
亙仅	-1524
令亭	-1525
▁先	-1526
▁佋争入	-1527
▁亍仔亐	-1528
▁仕农	-1529
▁U	-1530
▁仄付	-1531
▁亊单	-1532
▁二仇	-1533
▁伙亏	-1534
▁亃倂	-1535
倚二	-1536
▁亽予	-1537
▁佃倲	-1538
▁亂予	-1539
侍仧亡	-1540
▁伌剢	-1541
偖俑	-1542
▁仢亃于交	-1543
▁亓仍伈	-1544
▁亣事	-1545
ation	-1546
仌产	-1547
▁亷亡仄	-1548
▁介亏	-1549
▁伃代亣伓仚	-1550
▁众交亱	-1551
ol	-1552
▁俆亱伸亡	-1553
▁仯亯	-1554
▁亜众	-1555
▁以冰	-1556
伸叟	-1557
仵佗	-1558
▁佃倲亼	-1559
▁互事二	-1560
代仦	-1561
▁僁佤	-1562
争予	-1563
▁仌事	-1564
▁予亚作	-1565
▁21	-1566
▁仍倩保二	-1567
▁仢傠	-1568
侏俬	-1569
▁佨仌	-1570
▁亩俹	-1571
▁仐亩	-1572
▁侻	-1573
争仌	-1574
▁仔偖凈	-1575
▁债	-1576
仄亳	-1577
侔事	-1578
▁仢亐伥争仳	-1579
仿亵亥	-1580
亱事	-1581
▁仐令事亢仠	-1582
伪亥	-1583
▁仌仅	-1584
ot	-1585
▁58	-1586
▁亇些	-1587
▁亩傌	-1588
▁仕僾	-1589
▁俆亱事	-1590
▁伬仚	-1591
侍仞二	-1592
▁傋仠	-1593
▁仛俉亳	-1594
▁冐仂	-1595
伟亶	-1596
▁亇亙	-1597
传伹	-1598
▁2001	-1599
仯亳	-1600
▁倬	-1601
▁估侒亥	-1602
區亡	-1603
勮仚亾	-1604
▁53	-1605
代争	-1606
▁争俪	-1607
予仅	-1608
侍仇	-1609
▁俑偿	-1610
▁亖亸	-1611
亙伭	-1612
▁亅仓	-1613
▁伸什	-1614
仦亜	-1615
仠仄	-1616
▁仓	-1617
▁信刾	-1618
亳們	-1619
僔付	-1620
▁侶	-1621
▁伸仅	-1622
予仌	-1623
亃兤	-1624
亚亶	-1625
亣佋	-1626
▁兟	-1627
伦了	-1628
▁倲亡亯	-1629
▁傸	-1630
偅仇	-1631
▁俉亓二亓伌	-1632
▁亖僥位亡	-1633
产什	-1634
亡仅	-1635
▁刔	-1636
二仍	-1637
▁伈	-1638
争亏	-1639
▁伭伉位亡	-1640
仯从	-1641
▁伙侻	-1642
▁予亚佭	-1643
▁H	-1644
▁亖亓	-1645
ay	-1646
▁仲	-1647
▁,	-1648
▁儖	-1649
佌亳	-1650
▁勺	-1651
▁亃仦冯佶二	-1652
▁仍亡亯亼仂	-1653
▁仌侮	-1654
▁二伜位亡	-1655
▁佋儜予	-1656
仌仭	-1657
予仓	-1658
俶俷佳	-1659
亂仭	-1660
▁1,	-1661
▁=	-1662
▁二争	-1663
▁仅伳俰仇	-1664
仅伹	-1665
仌仪亚什	-1666
兡仇	-1667
▁介仐	-1668
▁俉佈	-1669
▁介佛	-1670
▁亃俌予	-1671
仦亶	-1672
▁22	-1673
▁is	-1674
▁仙亜咁信事	-1675
▁俜仅	-1676
▁休	-1677
▁党	-1678
▁仛亡	-1679
▁亣亩	-1680
伥仳	-1681
▁俕仅	-1682
▁亢仂亚	-1683
亐仌仦	-1684
▁偉	-1685
▁享予	-1686
▁传亣	-1687
▁侫偂	-1688
伸仅	-1689
▁23	-1690
▁亜偂	-1691
▁倲侬	-1692
▁亜仅	-1693
▁伸亡	-1694
侍亜	-1695
佤二企	-1696
亾付	-1697
▁亚仌	-1698
但伹	-1699
▁亖冦	-1700
4,	-1701
伙仅	-1702
兙亡	-1703
▁亊仲争仳	-1704
▁亖俴俵	-1705
▁亃仦偈佋	-1706
▁偱偔亡	-1707
▁佋亜	-1708
▁伂	-1709
▁仭	-1710
▁佋侍亜	-1711
10	-1712
▁侢	-1713
▁仯亰	-1714
▁伟	-1715
亵俌	-1716
5,	-1717
伥儮	-1718
俢亢	-1719
▁亓亩侏	-1720
▁刌	-1721
▁亍代僤亶	-1722
佝余	-1723
im	-1724
▁59	-1725
▁亖亳亯	-1726
亃争	-1727
▁亮亶	-1728
▁仔于	-1729
▁be	-1730
7,	-1731
仌佝余	-1732
▁亢佌	-1733
▁仐佋	-1734
▁倿	-1735
ul	-1736
▁仔代俇二	-1737
佚仌侤	-1738
▁于	-1739
▁仸仆俔	-1740
▁or	-1741
▁0.	-1742
仯仓	-1743
▁仌亮亏	-1744
伫仓	-1745
▁亣令仲	-1746
▁侨凼	-1747
▁伙仂什	-1748
▁亢仠	-1749
亡仼	-1750
▁亮亯	-1751
▁伙仂	-1752
▁享倘仪	-1753
▁伨	-1754
儆亡	-1755
▁佚仇	-1756
▁冿净	-1757
▁倝	-1758
▁亍伸	-1759
事仍	-1760
▁亚于令	-1761
▁些仌仭	-1762
▁re	-1763
▁N	-1764
▁伸亡代仅	-1765
亣仅亰	-1766
▁仢俷	-1767
圫兆	-1768
ut	-1769
▁俈俪	-1770
▁二亏亮	-1771
仇亶	-1772
▁仐伌	-1773
▁俪	-1774
▁26	-1775
id	-1776
▁亽佫	-1777
伓僺	-1778
▁亲仉仇	-1779
▁争亊	-1780
亠佼亥什	-1781
▁傾倣亡	-1782
偉亳	-1783
▁亢仯	-1784
▁介伕	-1785
佃伅	-1786
▁仢代	-1787
▁倨倇	-1788
▁仹佭俶俷亡	-1789
倪佼	-1790
▁傮亠佼亥什	-1791
▁仍卫	-1792
▁D	-1793
50	-1794
▁亖仌亂债	-1795
仌亮	-1796
亼亡	-1797
▁亢伥	-1798
▁仢伸	-1799
▁倦仼	-1800
▁伸仅二	-1801
▁令二仌仦	-1802
▁借	-1803
▁仢付亜	-1804
ag	-1805
亓仍	-1806
▁亽亏	-1807
od	-1808
▁!	-1809
▁亓仦伥儮	-1810
▁亷儿	-1811
▁众交亱二	-1812
▁亚伟	-1813
▁亐仦	-1814
▁佌仌	-1815
24	-1816
▁W	-1817
亓争	-1818
価亶	-1819
ct	-1820
▁亽仐	-1821
▁仔令仅	-1822
▁亽仲亮亶	-1823
亱伹	-1824
▁予亰予	-1825
仠亶	-1826
▁亖佋仓	-1827
▁凊侻	-1828
ist	-1829
▁儡	-1830
▁亥倐	-1831
▁俤亐仌仦	-1832
▁亩兂	-1833
▁仐俐仐俗仅伟	-1834
▁R	-1835
▁亽亞	-1836
▁侧克	-1837
▁伓侹	-1838
▁亍价	-1839
佚伙	-1840
▁仔佡	-1841
▁亽亡	-1842
▁仏佈	-1843
3,	-1844
▁亢争	-1845
▁仼亡冎仅	-1846
▁28	-1847
仔偖凈	-1848
俉亚什	-1849
▁互伱	-1850
▁仆仇二	-1851
▁仍咯	-1852
予俍	-1853
▁傰	-1854
冂亢	-1855
倠佼	-1856
▁涊	-1857
争企	-1858
偖仐	-1859
儆佳	-1860
偖俉仅	-1861
▁仙仇	-1862
▁兕	-1863
似代	-1864
▁偀傱	-1865
▁佚仚仄	-1866
來亳	-1867
亂仭亥	-1868
▁仈偗亳	-1869
▁亖亢	-1870
▁亯侙仼	-1871
▁兾	-1872
事仓	-1873
仌争仳	-1874
▁仍卫亶	-1875
▁亃偿佲	-1876
▁仸伸	-1877
▁仼争劇	-1878
▁亓俴	-1879
▁for	-1880
▁仵	-1881
▁二亏亮亥	-1882
▁俉仅亥	-1883
▁亖亰亓	-1884
▁The	-1885
亜亶	-1886
仕僾	-1887
▁仚亂伪	-1888
▁亜众井	-1889
儆亳	-1890
▁40	-1891
▁仌傭	-1892
▁伻亰	-1893
▁侁亊	-1894
▁伍伎亥	-1895
來仅亾	-1896
▁亊佋	-1897
▁以儰	-1898
▁個	-1899
▁亖偂	-1900
▁亖仅	-1901
▁亂仓仌	-1902
亏产	-1903
▁伍亚予	-1904
▁亚于令予仌	-1905
▁亻侌	-1906
▁27	-1907
▁仔侔事	-1908
▁亃仠	-1909
▁亃侬	-1910
▁亚仒	-1911
佫仓	-1912
▁俭修	-1913
▁k	-1914
▁二佲	-1915
▁1.	-1916
▁v	-1917
仍二亾	-1918
▁亢仦亚	-1919
6,	-1920
▁仒们	-1921
▁伸侻	-1922
佋仅	-1923
▁仔侏俑	-1924
iv	-1925
▁倫余	-1926
▁儨偍	-1927
▁亇凹	-1928
予亥	-1929
▁併	-1930
▁僫	-1931
▁伃代亣伓僺	-1932
▁亽佫亚予	-1933
▁傛住	-1934
▁偆勴	-1935
▁亓亨	-1936
ia	-1937
▁亖佲	-1938
亩亚什	-1939
21	-1940
什冂	-1941
ra	-1942
亐仓	-1943
▁亖俵佃亶	-1944
倲件	-1945
俶俷	-1946
亅二	-1947
▁兼	-1948
▁互伙亳	-1949
仦事	-1950
▁僓介	-1951
俫亡	-1952
佚位亳伖仇	-1953
▁佋伥冄	-1954
▁俌	-1955
▁俺仌	-1956
▁似偝	-1957
▁俕仅佄	-1958
▁冐仂僟	-1959
▁仐伭	-1960
仛亢亡	-1961
▁亲伭	-1962
▁些任	-1963
伜亜保二	-1964
亱事亭	-1965
侻偿	-1966
▁仛事亚	-1967
▁亐亚亚	-1968
▁代儯争	-1969
仦二	-1970
▁会予倂仓俷佳	-1971
仼仓	-1972
▁仒们仯	-1973
▁亽侻	-1974
▁G	-1975
ch	-1976
▁交	-1977
▁冓區亡	-1978
▁偰	-1979
亡亓	-1980
▁亷候	-1981
▁仐令伟	-1982
▁冺	-1983
▁仛侕亡	-1984
亢伥	-1985
侨内	-1986
▁仐儲	-1987
▁儫	-1988
伙亚什	-1989
▁佋低侨内	-1990
▁仙倨	-1991
▁仔产伸	-1992
享亚	-1993
▁仔但俣	-1994
仠仯佳	-1995
▁亖俵亂亡仓	-1996
em	-1997
▁冠	-1998
▁以仌	-1999
▁仯亯亼亡	-2000
▁亵亏	-2001
事亃	-2002
▁以亭	-2003
ow	-2004
▁亽仅	-2005
亣仅亥	-2006
來仅亰	-2007
仌亞	-2008
佋仄	-2009
予亞	-2010
▁偁代	-2011
▁勼	-2012
▁亩二仌	-2013
▁偖债亥	-2014
亜亾	-2015
侞傚	-2016
▁僜來	-2017
▁仈偖	-2018
▁|	-2019
▁倎伭伹	-2020
▁侞倷亶	-2021
▁介偿	-2022
▁亲仪	-2023
仠仌侤	-2024
▁冕	-2025
▁传來俷佳	-2026
▁亃佛	-2027
凷亡	-2028
▁二亳	-2029
佌仓	-2030
▁但冁	-2031
亶从	-2032
▁傞	-2033
二亾	-2034
▁侧亰	-2035
▁伌仌	-2036
俜倷	-2037
▁仌仅亓	-2038
22	-2039
▁偭	-2040
▁仕倮	-2041
▁亚亢亓	-2042
▁亽侂	-2043
▁俢偎	-2044
凭亡	-2045
亵亶	-2046
二亏亞	-2047
佋仳	-2048
▁亚亨伥仳	-2049
▁伇些	-2050
▁代俇予俍	-2051
仌仅但二	-2052
二亏亞佼	-2053
▁仼亣亜二	-2054
▁凁亂	-2055
亯仓	-2056
▁亚傯做	-2057
▁仦亂	-2058
▁亃仦刭	-2059
倦二	-2060
▁伸休伦傡伿佼仓	-2061
▁俊仂	-2062
▁仔伢儼	-2063
▁E	-2064
ig	-2065
▁L	-2066
▁侺仌伥	-2067
▁亩剜	-2068
▁仛事仪亚什	-2069
位俫佳	-2070
佋亭	-2071
▁亖仫	-2072
▁函	-2073
▁仉	-2074
仌仅二	-2075
▁凊予侻	-2076
亰亳	-2077
▁亚亨侮仧亡	-2078
um	-2079
▁侞亨	-2080
▁似偝似代	-2081
传做仇	-2082
▁俢侻	-2083
侞伭	-2084
▁佚亴	-2085
▁偄	-2086
▁僢	-2087
▁佌偧	-2088
伌佯	-2089
▁亂争伪	-2090
▁仛亜	-2091
▁以伫	-2092
▁仙偰	-2093
▁亂享	-2094
▁侎倬	-2095
▁2009	-2096
▁as	-2097
▁但儶倇	-2098
▁亽亥	-2099
▁倎仂	-2100
▁29	-2101
▁俼	-2102
▁亖伳侎	-2103
▁亖仄傫仇	-2104
侕亭	-2105
代匰	-2106
倘偉亡	-2107
▁亓伌	-2108
仵亦	-2109
▁佌佻	-2110
事二亏	-2111
仍仅亰	-2112
▁亜厹	-2113
▁佁佋	-2114
30	-2115
▁刔净	-2116
11	-2117
▁介争亜偖债亥	-2118
亃予	-2119
▁伥亰	-2120
ce	-2121
▁仹伭	-2122
▁二佧	-2123
佳企	-2124
佚儢	-2125
▁仹亳	-2126
亩二	-2127
伤亚什	-2128
▁仐仧	-2129
▁亖云	-2130
▁伵	-2131
伙仅亰	-2132
▁俈仞	-2133
ly	-2134
ter	-2135
ir	-2136
▁仌俀	-2137
▁傒冓	-2138
▁傶	-2139
▁伥偏	-2140
▁二亏争	-2141
▁冐倏	-2142
亣亡	-2143
侨伸	-2144
▁佸亶	-2145
▁仇亯	-2146
▁剥剦	-2147
▁伋仂亥	-2148
▁啓	-2149
▁二伭	-2150
▁仙仚亾	-2151
▁佭仓	-2152
▁仔侏前	-2153
仧亱	-2154
▁仙仚亥	-2155
19	-2156
冪亡	-2157
亏亱	-2158
▁伙亣事仳	-2159
▁亩亡	-2160
▁予亱佭	-2161
代亞	-2162
位仉	-2163
▁亚伣仳	-2164
▁仼二	-2165
▁亊偩俴	-2166
保二仇	-2167
▁亚伣伪	-2168
▁仐佤伟	-2169
伸仓	-2170
▁仢亃于交侕亡	-2171
▁令仅	-2172
亃代	-2173
▁2.	-2174
▁亖亢僰	-2175
▁亂争	-2176
▁令儊	-2177
僝佼	-2178
▁仙佚伙	-2179
侍俪仇	-2180
2,	-2181
▁似代仓	-2182
▁仐令事二亏	-2183
▁亖产倲件	-2184
佚位俫佳	-2185
▁俀亙仅	-2186
亂亡仓	-2187
ith	-2188
▁亃仇	-2189
倒仇	-2190
▁佋佇	-2191
倣亞	-2192
▁予凄	-2193
仴仵	-2194
▁今佈	-2195
▁伋仂亚	-2196
侻企	-2197
仠亥	-2198
▁俆仓任	-2199
▁亖偗亳	-2200
▁an	-2201
▁佌佻伦了	-2202
23	-2203
▁僁佤亰	-2204
▁仔介伜	-2205
佃亥	-2206
▁伇些产予	-2207
▁仛佌	-2208
仄仅亰	-2209
▁伬侨伸	-2210
▁亏仳	-2211
亗亭	-2212
代俇	-2213
▁争佚佳亜	-2214
传佳二	-2215
▁仛亊亡	-2216
亚亢	-2217
亂亡	-2218
▁亩倔	-2219
▁51	-2220
▁係	-2221
▁侴	-2222
亭佼亥	-2223
▁on	-2224
仌儢	-2225
▁亯亡	-2226
un	-2227
▁2008	-2228
偖刭	-2229
仄亚	-2230
▁仔俴	-2231
侨停	-2232
侻亭	-2233
▁亽佗	-2234
侻傿	-2235
倦仼	-2236
▁円	-2237
▁亾亩亡亳	-2238
▁伢	-2239
▁争亂仅	-2240
▁仐切	-2241
▁亣令仲亚	-2242
仠儢	-2243
▁亽亓	-2244
▁亷刋亡	-2245
▁仢俬佋	-2246
▁刭	-2247
▁亚亨偩	-2248
▁倦侭	-2249
▁亃仦伸	-2250
▁傋代亡	-2251
▁亍仌冂亮亥	-2252
▁儥	-2253
▁圫兆	-2254
▁仢仴仵	-2255
伎代	-2256
▁F	-2257
▁刐	-2258
▁仒偿	-2259
位亳伖仇	-2260
▁佋伥冄債	-2261
亳亾	-2262
亣仅亾	-2263
亾儠	-2264
▁仅亥	-2265
▁僣	-2266
俉从	-2267
▁仛俰仇	-2268
伹仅	-2269
▁傒亜二	-2270
佗仓	-2271
▁亽匐	-2272
▁亖俷亡	-2273
俤仓	-2274
▁亾俅偶	-2275
▁亓俜	-2276
▁亐亚什	-2277
▁侁俵	-2278
亂仅亰	-2279
▁亷佥	-2280
▁亜仇	-2281
▁亖仌亓亮	-2282
佼亰	-2283
▁亖伎亜亮	-2284
▁仐亳代	-2285
▁亩俺	-2286
▁佋件	-2287
亏亞	-2288
▁仌争仩	-2289
▁亮亏	-2290
▁似偝似代仂	-2291
仠侳	-2292
▁st	-2293
冿仌仦	-2294
冢冣	-2295
▁予二	-2296
▁佤	-2297
仛事	-2298
仛但	-2299
▁亏佋	-2300
▁亖亰亍	-2301
▁仐亢亦	-2302
▁传休任	-2303
▁亖俴俵予	-2304
▁勸	-2305
亂从	-2306
▁亃仦众	-2307
▁倫佭	-2308
▁仮仯仅亥	-2309
▁亽亴	-2310
亾亩	-2311
▁凋	-2312
▁亾俅伓	-2313
伤从	-2314
▁亖侹刣亳	-2315
伙亡	-2316
▁亖伱仦予	-2317
▁争佲仳	-2318
her	-2319
▁俲佪仔偖凈	-2320
伟余	-2321
亃倌亥亰	-2322
▁亣俌	-2323
▁仿亩仓	-2324
▁亚侏	-2325
▁傹	-2326
仌争伪	-2327
▁亩侻	-2328
▁仌亡亓	-2329
▁亽亮	-2330
▁似代仅	-2331
佤仳	-2332
仠亃	-2333
▁仅佲仅	-2334
▁亃亝	-2335
▁亣仒	-2336
亓仦	-2337
▁侏仅	-2338
▁仞什冂	-2339
▁仈偂仂	-2340
予仦	-2341
亰仅	-2342
亜予	-2343
▁令仦係	-2344
▁侣但	-2345
▁佚仅二	-2346
▁亚事促	-2347
th	-2348
▁以从予仅亥	-2349
億亚	-2350
▁兽	-2351
op	-2352
▁佋亰	-2353
▁偙争	-2354
侍佚	-2355
▁仌亮亏企	-2356
佲亭	-2357
▁仆亐	-2358
28	-2359
倐俺	-2360
▁佃俞	-2361
▁偯	-2362
▁予仓	-2363
▁凁亂亾儠	-2364
▁冟	-2365
▁伍伎	-2366
▁亃仦亩	-2367
▁亖侹事	-2368
▁亜伹偿	-2369
▁仔代卂	-2370
av	-2371
佀佤亭	-2372
▁予亰侫	-2373
▁伌伈	-2374
▁仑关	-2375
亣仌产	-2376
▁亣傐亥	-2377
▁厄	-2378
▁亷俾	-2379
伤仅亰	-2380
仠亞	-2381
▁亍個仓	-2382
▁亃仦佚	-2383
▁佋佗亣	-2384
▁僼	-2385
仌伧	-2386
伓候	-2387
▁wh	-2388
▁予众倏	-2389
▁仛伹仅亚	-2390
▁仛任俢	-2391
▁仐偊	-2392
▁亏亜	-2393
▁亖亰亍仲	-2394
▁100	-2395
▁佋件來	-2396
▁亶亱	-2397
▁2007	-2398
▁令亏	-2399
▁31	-2400
▁僻倫	-2401
▁倲克	-2402
▁仢哙	-2403
▁伻亃	-2404
偢予	-2405
仂伿	-2406
▁亖叧	-2407
▁亶亚	-2408
▁亯伭	-2409
▁凊侻伻	-2410
侟二	-2411
▁亩侍仇	-2412
▁呮	-2413
▁仛俯	-2414
僢企	-2415
▁亊亯	-2416
亢代	-2417
▁伸侉俷亡	-2418
25	-2419
os	-2420
▁仈亜亳	-2421
▁佲	-2422
▁亽亐	-2423
▁亓冘	-2424
▁亽佌	-2425
▁伇仔亐	-2426
▁亖仠	-2427
俫亳	-2428
ers	-2429
位低	-2430
ak	-2431
▁亲仠儢	-2432
▁代佢伤	-2433
▁亂佛代匰	-2434
仧事	-2435
侻众	-2436
▁倫亜	-2437
冂伜	-2438
▁亽但伹	-2439
▁以佳	-2440
傲亥	-2441
▁伭仐	-2442
▁傛亭	-2443
▁仐仓仌	-2444
▁亷偗	-2445
伍佳	-2446
▁以仅	-2447
▁伌亏	-2448
仚亡	-2449
俁仓	-2450
▁亍偰佈	-2451
▁仌俰仇	-2452
▁亖佳二偂仂偞	-2453
▁亽仲争亃	-2454
伎仚	-2455
▁以亯	-2456
▁亥亃	-2457
▁二伧	-2458
▁偆勴位亡	-2459
▁仌事任	-2460
▁俑仯佴亥	-2461
▁似代侻	-2462
▁伥仦	-2463
▁佯	-2464
側佼	-2465
▁亖仃	-2466
▁仌仇	-2467
▁仐佋俇	-2468
▁亐伭	-2469
▁仆代	-2470
▁咰	-2471
兙亳	-2472
亏亜	-2473
▁传养	-2474
▁亚仅	-2475
仍亳	-2476
▁侎亮傍	-2477
▁仁几	-2478
▁倫仚	-2479
▁60	-2480
伓冇	-2481
▁仔伤	-2482
仌倷	-2483
倘佧	-2484
▁仆俔仇	-2485
▁传亱	-2486
亂俑	-2487
▁亃仦俵亥	-2488
众伭	-2489
仌倐俺	-2490
▁儍仓	-2491
伙仂	-2492
介争	-2493
▁倐俺	-2494
▁侞令	-2495
▁俜仠仌	-2496
▁产亡亃产	-2497
伙事	-2498
▁亖亙	-2499
▁仈倏	-2500
▁亃仦亏	-2501
▁仛亊亳	-2502
▁亽仅事	-2503
▁侁伸争	-2504
▁仅匛	-2505
事企	-2506
佭二	-2507
亣佳	-2508
仕产	-2509
▁仐亴	-2510
▁介争亜偖俑	-2511
▁亣剤	-2512
▁仔俶亜	-2513
▁K	-2514
40	-2515
亇予	-2516
▁35	-2517
▁with	-2518
and	-2519
▁俱	-2520
俄亠	-2521
▁亂争仳	-2522
▁侎兟	-2523
仧凂	-2524
▁亃仦予	-2525
▁仩伭二	-2526
▁仈予	-2527
▁亯偛	-2528
▁予井	-2529
▁令侬	-2530
佤二	-2531
亏仍	-2532
▁仐仧争仳	-2533
▁亵亏井	-2534
▁亊单劊	-2535
▁予付	-2536
亡仄仓	-2537
亾仅亰	-2538
▁亩偑亳們	-2539
▁介亶	-2540
亣令	-2541
▁仆仚	-2542
▁伸亜	-2543
▁亣僆	-2544
伜佈亶	-2545
▁亜二亾	-2546
▁勯	-2547
8,	-2548
剑仳	-2549
▁佋佇任	-2550
▁仔信	-2551
▁以卣	-2552
▁2010	-2553
▁位低	-2554
▁侺产佀佃亶	-2555
▁侚亱佈亶	-2556
伍亭	-2557
▁佶争	-2558
▁仔偖债	-2559
▁予億亚	-2560
傑仓	-2561
▁亲伅	-2562
伙亣事仳	-2563
▁侎倬冈	-2564
▁佺冿仌仦	-2565
伪亶	-2566
倮伹	-2567
▁佚凿	-2568
仲仓	-2569
佤冰	-2570
▁倲代	-2571
▁伌侟	-2572
俵亜	-2573
啁二	-2574
▁佒僢企	-2575
▁仍倩亵俌	-2576
仚亶	-2577
▁俺仐亜	-2578
侁価亶	-2579
▁僻仯	-2580
ab	-2581
▁仪倣亞	-2582
偖仌	-2583
▁伋争	-2584
▁仐仲伎	-2585
▁亻亰	-2586
▁仔侏俑倲	-2587
ik	-2588
▁仞凷亡	-2589
▁亖做仇	-2590
▁冐倏僟	-2591
▁侺剢	-2592
1,	-2593
▁仐偖刭	-2594
▁亖亜亳	-2595
▁亽事二亾	-2596
▁侎兟二	-2597
ind	-2598
▁亃伭	-2599
▁佭亱	-2600
▁令亡仼	-2601
▁偋	-2602
▁伳	-2603
▁2006	-2604
▁予像	-2605
亢仦什	-2606
亐亡仓	-2607
▁亚于令予仌剜	-2608
▁亖亃	-2609
▁予傑仓	-2610
▁2,	-2611
▁予偝	-2612
▁亩俩	-2613
▁倡亚予	-2614
充亞	-2615
▁卅	-2616
▁伓佶	-2617
佳亭	-2618
▁二仌	-2619
▁亚亣	-2620
▁亢俖	-2621
▁仗剰	-2622
仿亩亚什	-2623
亱什	-2624
▁佚仇仐	-2625
--	-2626
予亜	-2627
▁亲代亚	-2628
俑二亏	-2629
▁享仄	-2630
▁傃	-2631
▁仈亜亚	-2632
▁凁亚亢	-2633
伹仅亰	-2634
代仌	-2635
▁予亱佄	-2636
▁倐值俷亡	-2637
▁作	-2638
▁二仓亯	-2639
仵伥	-2640
▁俢厾	-2641
佚亶	-2642
▁by	-2643
來俷	-2644
▁吁亚仌	-2645
▁停	-2646
▁仛俶付	-2647
亰付	-2648
▁勯余	-2649
▁侧亰予	-2650
伊代	-2651
▁佒体伭二	-2652
▁二亸	-2653
▁亽匋	-2654
仳仍	-2655
▁仔令仅亾	-2656
▁侣仠	-2657
▁仌俩	-2658
▁亣劊	-2659
仅伻	-2660
▁伍佳亥	-2661
▁仔亂债	-2662
亓亞	-2663
伖代亚	-2664
▁仔予侻二	-2665
▁佚佛仓	-2666
▁亣匮	-2667
▁佌则	-2668
亃争保二	-2669
9,	-2670
▁仜	-2671
亜亮	-2672
▁亾亩刊	-2673
▁亖俵亂仦	-2674
▁侮倇	-2675
亊亡	-2676
▁佒众	-2677
▁亓亩仧亮	-2678
俰偉亡	-2679
▁剻	-2680
▁亃偎	-2681
▁亽偖	-2682
卪仚亾	-2683
▁伙事予	-2684
亶佳	-2685
▁传休任仓	-2686
▁伻佤二企	-2687
▁偖俉仅亥	-2688
▁兑	-2689
▁咰俖	-2690
仪亡	-2691
佭事亭	-2692
▁亖亰佋产	-2693
令亩	-2694
仯亚什	-2695
▁仈倚二	-2696
▁佒予	-2697
▁佭仓侕亡	-2698
▁亶亡	-2699
▁伝仪	-2700
▁侨停仅	-2701
▁仛俉	-2702
▁亇凹亝	-2703
▁俙仠仄	-2704
ub	-2705
▁儤仅	-2706
亚众	-2707
▁仼二亡	-2708
们伹	-2709
▁侏亡俑二亏	-2710
佌儱	-2711
▁亖亡	-2712
▁仐冼	-2713
▁佀伭于	-2714
▁伙侻予	-2715
▁信任俢	-2716
▁亓伊仹亥	-2717
▁亢仯仌争伪	-2718
▁伇冲	-2719
▁仔仲伎亶	-2720
▁俸佋	-2721
▁亂亢	-2722
▁俈佛	-2723
▁似亙僔付	-2724
▁亊偩兩	-2725
▁佒亳	-2726
▁亓亏	-2727
▁侧仓仌	-2728
佚位亳	-2729
▁产亡亯伓佧	-2730
▁仮仯仰	-2731
▁佸二	-2732
ric	-2733
▁价二	-2734
▁倫佭予	-2735
▁但亼	-2736
▁享予传	-2737
侍仧亳	-2738
▁亽亏冷	-2739
仃仓	-2740
▁介偒	-2741
▁先亶	-2742
▁亽亓俒	-2743
▁亢仂亥	-2744
代争仳	-2745
▁仔仹倃亥	-2746
▁仈亙伭	-2747
▁亃仦冯佶	-2748
冰仓	-2749
亾俷亡	-2750
▁侳争亾	-2751
▁俆伧	-2752
▁以予	-2753
佼亾	-2754
▁伸休伦傡伿佼	-2755
▁亣仌	-2756
▁仢亃于亏	-2757
▁予俀	-2758
▁倡匑	-2759
▁亚冾仞二	-2760
▁仮亜	-2761
▁侢代	-2762
佳予	-2763
僦仇	-2764
▁侧兯	-2765
▁俏予侍	-2766
▁倎匦	-2767
▁仐伌兊	-2768
▁亍伸俔	-2769
▁亜争仗	-2770
▁匎	-2771
佌仅	-2772
▁办	-2773
▁侎亮他仧亡	-2774
傟亠	-2775
▁噃	-2776
▁亵仚仅	-2777
亚亓	-2778
▁亷侬	-2779
▁亍偶依	-2780
▁亓亩侏债	-2781
俐争亣仄	-2782
▁僳	-2783
亢从	-2784
▁仸仹亥	-2785
仩亡	-2786
予仍	-2787
▁侧伧	-2788
▁亽伀	-2789
▁俉勦	-2790
▁仇俑	-2791
▁仐亚于亏	-2792
▁亾仅	-2793
▁兵	-2794
▁仦亂僰	-2795
▁佰	-2796
侍仛	-2797
伫从	-2798
▁仒产	-2799
60	-2800
仠仅	-2801
仃亳	-2802
ate	-2803
▁倲仦	-2804
▁僽争	-2805
▁佚亙	-2806
仠仍	-2807
▁伸偘	-2808
佚佝余	-2809
",	-2810
▁仹侻	-2811
▁俢刽	-2812
▁亖偗	-2813
▁亓佋伟	-2814
享予	-2815
▁吁侨	-2816
▁con	-2817
▁争儱	-2818
▁亖二亂	-2819
亾仅亾	-2820
亊傿	-2821
▁亚伟伶	-2822
▁勺偧	-2823
亢仓	-2824
▁凘	-2825
▁亓伥令	-2826
▁令冤仧亳	-2827
俢厾	-2828
亩仓	-2829
pl	-2830
▁令伸	-2831
▁亃亰仓	-2832
仦倏	-2833
▁仛事位俠仇	-2834
伛保二	-2835
▁V	-2836
▁亖伱仦予亭	-2837
▁勨	-2838
▁亖俷亳	-2839
▁亍仌冂亣仓	-2840
仰傒	-2841
▁凋予	-2842
▁佚偝	-2843
▁众亱事	-2844
▁O	-2845
▁但倏	-2846
▁倎伭	-2847
▁伇冲产予	-2848
▁亖伙	-2849
▁予卤	-2850
▁優	-2851
▁令事	-2852
ap	-2853
传佳	-2854
▁亽匋傲亥	-2855
▁啘	-2856
▁亽佗争	-2857
▁二争傂	-2858
▁亚侏仇予	-2859
▁亏仌	-2860
▁佗令	-2861
▁伸侻仓	-2862
▁亖佋亣仌产	-2863
▁仈偂仂偞	-2864
▁仢亐伥争仳亾	-2865
井二	-2866
▁僑佗仓	-2867
▁匍	-2868
事保二	-2869
▁仹亳亏	-2870
亓仐	-2871
▁亂位低	-2872
▁喳	-2873
▁亊伟	-2874
▁亂佛亴亵亥	-2875
▁亖亰仩	-2876
亃二	-2877
▁亍仯	-2878
▁仙代仦	-2879
六亶	-2880
▁2004	-2881
▁亓匉仓	-2882
▁俉冨侏俬	-2883
▁予勵	-2884
伸仂	-2885
▁俢亡	-2886
▁估侒亾	-2887
▁亖仭	-2888
▁位事侻	-2889
▁亽仇伫	-2890
仅亥亚	-2891
▁偞仅予	-2892
▁亏佈亥	-2893
▁亂厲	-2894
ver	-2895
▁190	-2896
仅亥亰	-2897
俢侻	-2898
▁亩仦	-2899
仌亚	-2900
▁倫仚佃伅	-2901
▁伌剢仓	-2902
侍仗	-2903
12	-2904
▁45	-2905
▁亃亨仍	-2906
▁亂什	-2907
▁介争侑	-2908
▁亖佳伙	-2909
aM	-2910
▁亲偉亡	-2911
▁亷儿二	-2912
▁亓亩僜	-2913
▁亽匐亂	-2914
▁二仓亯亡	-2915
▁偖亢仅伟	-2916
▁伱代	-2917
▁佋偩井仅	-2918
亊仦亶	-2919
亣亳	-2920
▁仍亚	-2921
▁仐佶	-2922
▁仙俉仅	-2923
仭伅	-2924
▁僔付	-2925
▁亷刋亳	-2926
▁仡	-2927
▁亖亜亚什	-2928
佚享仚	-2929
▁仅亰	-2930
▁仛亡亾	-2931
仰亚	-2932
▁侎仲	-2933
▁仹仧事	-2934
▁亚仌傂	-2935
予保二	-2936
▁倇从	-2937
▁兕产	-2938
▁仔于令	-2939
rom	-2940
▁傂倠	-2941
做亠	-2942
▁仙偰予侍	-2943
令亞	-2944
予伫	-2945
亾伻	-2946
▁仐仵佗	-2947
伥二	-2948
▁侣作	-2949
▁今佈伶	-2950
▁争亊事二	-2951
▁亃任	-2952
亂仦	-2953
亃亞	-2954
仗亾俷亡	-2955
亐从	-2956
二予	-2957
▁仐佤伟亥	-2958
众产	-2959
▁仢仴仵亜	-2960
亿亚	-2961
▁37	-2962
刢亳	-2963
▁亃兙	-2964
18	-2965
▁亝亃	-2966
▁亽俵	-2967
俔仧亡	-2968
佚偉亚什	-2969
▁僧亸	-2970
▁仿佋仍亥	-2971
pe	-2972
候企	-2973
▁亣但二	-2974
▁仔产亚	-2975
侏事	-2976
傭亳	-2977
▁仢付仇	-2978
▁仑侜	-2979
▁亚仌但	-2980
▁亍价侻二	-2981
▁al	-2982
▁亽佚	-2983
▁侁亍	-2984
▁仐俗俘仓	-2985
▁仙倨亂	-2986
優二	-2987
▁伙亳	-2988
▁33	-2989
仠仓	-2990
▁亚伟伶仳	-2991
▁佋佫	-2992
▁僴	-2993
俢亍	-2994
▁促	-2995
▁偶亶	-2996
亚伟	-2997
儊亭	-2998
▁佚亚	-2999
亏仯	-3000
▁仐亩伙	-3001
▁亂仅亼	-3002
▁亃偧产	-3003
▁亻二亊佄	-3004
儲仑	-3005
▁伙佋	-3006
▁亏仌儺	-3007
▁2014	-3008
僵佼	-3009
▁伒仚	-3010
仌亮亥	-3011
▁仦亃	-3012
if	-3013
▁仹仒	-3014
▁亦	-3015
▁勿	-3016
仪从	-3017
▁仈儶	-3018
▁佚倳	-3019
亾俷亳	-3020
▁俲俳	-3021
▁侨停仓	-3022
▁亽吊	-3023
▁二仌仅	-3024
▁that	-3025
啃倏	-3026
▁3.	-3027
▁倲偝	-3028
26	-3029
▁佋亚	-3030
▁争冚	-3031
▁侧划	-3032
亶亳	-3033
亃仳	-3034
▁仔但偧	-3035
▁36	-3036
仗亾亚	-3037
▁伻亃凝	-3038
▁佚亴仌倷	-3039
▁佋傠	-3040
▁冃	-3041
▁亖亂	-3042
ill	-3043
▁倎亜	-3044
伜來	-3045
▁佨佲	-3046
▁勷	-3047
13	-3048
▁it	-3049
▁予勵侻予	-3050
▁仢俷亳	-3051
▁冄	-3052
▁亖亰伌	-3053
▁呕	-3054
▁伸仦占	-3055
▁仔侕	-3056
▁亚冾仧亡	-3057
▁亽亥佚二	-3058
▁侏代	-3059
亶仅	-3060
予侍仞	-3061
▁二俜	-3062
▁例亴	-3063
▁俺仐佈	-3064
▁亍佌儱	-3065
▁介仐俶俷亡	-3066
▁仐儐	-3067
▁亍倩亥	-3068
▁亴佋	-3069
▁亍伍	-3070
▁亶仦	-3071
▁com	-3072
▁侏事	-3073
▁仍交	-3074
▁2005	-3075
▁伸仉	-3076
▁佶伣	-3077
▁亽亃	-3078
▁亢仦亥	-3079
▁函产予	-3080
▁仐兼	-3081
亐仅	-3082
▁亜內	-3083
▁亓从	-3084
29	-3085
亚伿	-3086
▁2013	-3087
▁代俉	-3088
仌仅但	-3089
仐亶	-3090
▁亓冝	-3091
▁80	-3092
伸企	-3093
▁亣仄	-3094
▁仐亂	-3095
▁亃代仐	-3096
倘伅	-3097
▁亂佋	-3098
▁佭仓仌	-3099
俊了	-3100
▁伜仂仐	-3101
▁傩	-3102
27	-3103
亶亚什	-3104
▁亍偶俥仞	-3105
伻亚	-3106
▁亜偏仌亶	-3107
▁予亼	-3108
▁亚仒亩	-3109
▁仈傭亡	-3110
▁侏亓仐	-3111
▁介佤亥	-3112
侑佼	-3113
▁令利	-3114
▁但亚亩亥	-3115
▁仐亳代住二	-3116
亡亚	-3117
▁亖亓仓	-3118
▁亂什伙	-3119
兵佤亭	-3120
▁份	-3121
余伸佧	-3122
▁令争亏	-3123
俉勦	-3124
▁亜争借	-3125
▁俈南	-3126
▁仹佚	-3127
▁亍冲产	-3128
俶仓	-3129
▁佋伎	-3130
▁二亏亞	-3131
▁亖亙伭	-3132
all	-3133
▁俑亚	-3134
▁亍仌冂争	-3135
▁亍伌佯	-3136
俑俒	-3137
est	-3138
▁以卣奯	-3139
▁亚亨侮仞二	-3140
▁亷偂仌侤	-3141
亜佋	-3142
▁仔介仐	-3143
▁剹	-3144
14	-3145
▁凁亣	-3146
▁唗	-3147
▁亜争仗亶	-3148
佚位伭	-3149
偶佶	-3150
15	-3151
▁偖俉	-3152
仍亚	-3153
▁亓亏佧	-3154
▁亲仠亶	-3155
▁估侒亥亚	-3156
位仠	-3157
▁仢冂亢	-3158
▁交仦	-3159
▁亍代剺	-3160
▁亃仐	-3161
偎亰	-3162
亾伭亶	-3163
予争保二	-3164
亂亡亳	-3165
▁亍冲亜	-3166
▁争俪仞二	-3167
亃伭	-3168
▁仔偖	-3169
▁俉儤	-3170
仅亥傒	-3171
亢亝	-3172
▁仔事倴	-3173
▁億	-3174
▁2000	-3175
▁仢俬亣	-3176
▁仗侬	-3177
亓亭	-3178
▁亃争亩	-3179
▁亃偝伪	-3180
▁亖仌亓争保二	-3181
▁予傜俉仅佼仓	-3182
▁併偓	-3183
▁俄二	-3184
▁仐刃	-3185
▁仛争	-3186
▁亃仦伷产	-3187
倘偔	-3188
▁倐刂	-3189
▁倦傠俉仅亥	-3190
俰代亚	-3191
▁仏偍	-3192
▁仌仇亱	-3193
▁侧仓	-3194
86	-3195
争仓	-3196
亣亭	-3197
伹伶	-3198
▁伻侜	-3199
▁亖亰佋	-3200
▁俪亜	-3201
▁仢代伟	-3202
▁伷争亃	-3203
▁以企	-3204
▁亍叢	-3205
▁仐亣	-3206
伓佳	-3207
▁亏伭	-3208
res	-3209
▁伡傢亶	-3210
亊亳	-3211
80	-3212
▁亃任仼	-3213
▁嚵	-3214
▁侢仇	-3215
▁予仅但	-3216
▁亻亰俤仓	-3217
▁亃兀	-3218
▁亚侨	-3219
享予传	-3220
▁俉亓	-3221
亣仰	-3222
▁仧仅	-3223
▁伜侻	-3224
▁俆仓亯亥	-3225
▁仙代侴	-3226
佺伿	-3227
▁伸借	-3228
▁亖俵亂争	-3229
▁亲俅	-3230
▁伸亱	-3231
事仅	-3232
▁二凴	-3233
▁俆亱事侴	-3234
▁享代亚	-3235
▁伸仅亾	-3236
▁以亚众	-3237
▁倇亚亥	-3238
▁亃仦佚伟	-3239
▁仅俚	-3240
仸亃	-3241
凒仚亾	-3242
▁偶亶亡	-3243
▁亃亣	-3244
▁仢伸准	-3245
▁仢俬县	-3246
▁亢佳	-3247
▁r	-3248
亩仅	-3249
▁亊傿	-3250
▁189	-3251
▁亖光	-3252
▁伙仓	-3253
▁伂偀	-3254
佄仼	-3255
▁亂亱	-3256
ht	-3257
▁伒俔仇	-3258
亐亚	-3259
仄亰	-3260
▁令儊亼	-3261
▁便	-3262
▁劌	-3263
▁亂唻	-3264
▁偄亱	-3265
▁伓侹亜	-3266
▁冯	-3267
▁仛做	-3268
▁予亚佭俰仇	-3269
▁亽偈	-3270
仯仅	-3271
▁he	-3272
▁亣俺	-3273
▁亚啖	-3274
▁亲仪亱	-3275
17	-3276
▁佇	-3277
代俷亡	-3278
亶仦	-3279
仠亱	-3280
仍仅亥	-3281
▁70	-3282
▁亜偗	-3283
".	-3284
▁僙仓	-3285
▁仐俗俦	-3286
▁仈俊仂	-3287
▁佚兂	-3288
▁J	-3289
▁{	-3290
伜亶	-3291
▁at	-3292
▁仿伊	-3293
▁亖仌亂	-3294
▁伌俒	-3295
▁亽伹	-3296
▁剻凰	-3297
▁亓仍傢	-3298
▁劇	-3299
▁仠兰	-3300
▁亃侗	-3301
▁倡亚	-3302
▁僬产	-3303
▁亍刜	-3304
▁凊予伅	-3305
▁仞俹亥	-3306
▁亯亡仄	-3307
▁仄付仐	-3308
亸伭	-3309
▁亓仅	-3310
▁de	-3311
▁偱侦	-3312
▁伕侻	-3313
亝倍	-3314
亃亚	-3315
▁佌偣亥	-3316
亊仓	-3317
▁傷	-3318
▁侏亳	-3319
亡仅亾	-3320
▁亽亾	-3321
▁刄	-3322
亸僺	-3323
▁代俇亾亳	-3324
偘亰	-3325
介佤	-3326
事亠	-3327
佝亥	-3328
▁仌傯	-3329
▁佋侹亥	-3330
▁侏但	-3331
俢仌佝	-3332
▁亃亜	-3333
▁佭伧仓	-3334
円侐	-3335
16	-3336
亝亶	-3337
俍亥	-3338
▁争儮	-3339
亂亚什	-3340
▁亏佋儖	-3341
伓仚	-3342
▁亖亗亭	-3343
ant	-3344
▁冓厁	-3345
▁亩倳	-3346
俉允	-3347
▁亃仦刭借	-3348
佳伙	-3349
▁亽伎	-3350
▁仔儕	-3351
▁侁亊仓	-3352
▁was	-3353
▁亚亮	-3354
▁仈亙	-3355
▁仔傤佃亶	-3356
佋争	-3357
▁亚儊	-3358
▁亜亡亢产	-3359
▁are	-3360
▁亍仔亐事	-3361
▁仅他俪仇	-3362
▁侶伨	-3363
▁亲仠仌侤	-3364
▁亓佗事	-3365
▁亩仇	-3366
▁亼仂亚	-3367
偩亜	-3368
▁伙亾	-3369
▁亍偶俵亜	-3370
二仌	-3371
作仇	-3372
▁亽伱亰	-3373
▁from	-3374
伸亱	-3375
▁以仌仦	-3376
佌侻	-3377
▁亖亰亓侍仞	-3378
▁仐亃	-3379
▁亽亣	-3380
▁予优仓	-3381
▁像	-3382
侺仌	-3383
▁亷冗	-3384
▁亜倌亝倍	-3385
▁仔事偐	-3386
▁亻二亊亯	-3387
仍亥亚	-3388
▁亽亴促	-3389
▁仌事傼	-3390
倸二	-3391
凪僩	-3392
凪僩円侐	-3393
▁倈仚亶	-3394
▁仌亓	-3395
▁傋亜亵仇	-3396
▁儇	-3397
▁亚剹	-3398
▁佨亢	-3399
偶佶二	-3400
▁仐俥	-3401
▁仆亐亡	-3402
▁二仂	-3403
▁仈吺	-3404
▁以凪僩円侐	-3405
▁仞俁仓	-3406
▁亚争	-3407
儼从	-3408
▁侏仇予	-3409
▁俈凂	-3410
▁仐亩伙偈	-3411
冢仠	-3412
▁仛仦	-3413
▁仔仕产	-3414
▁仹仧事信	-3415
▁値倥	-3416
亡亰	-3417
▁以凚	-3418
▁傻侏	-3419
▁介伕亥	-3420
▁亖仄伖仇	-3421
▁似代仅亯	-3422
▁刘	-3423
▁仐争	-3424
ain	-3425
亳來付	-3426
亵亜	-3427
▁倲低	-3428
亩亭	-3429
ich	-3430
亡亥傒	-3431
▁偕仌仓	-3432
▁亂佛予伫	-3433
ud	-3434
▁亃亐侀	-3435
▁34	-3436
侻亞佼	-3437
▁侮仚	-3438
▁亚仼	-3439
來仅亥	-3440
仍倩	-3441
▁倄冂	-3442
▁亽吊亱伹	-3443
▁仌勀	-3444
作仞	-3445
▁4.	-3446
tp	-3447
佋二	-3448
▁仮仯仓	-3449
▁亖偀	-3450
▁侺仌佗	-3451
仦亥	-3452
▁亅來	-3453
伙亩	-3454
▁仙仯	-3455
▁佺倂	-3456
▁仢亃于亏亃	-3457
予亭	-3458
▁伊侻偘	-3459
▁倹	-3460
▁倡佷	-3461
侕佋亚	-3462
▁亖亜伭	-3463
▁亶事	-3464
仗亾付	-3465
▁亖刲	-3466
▁佋亚倮	-3467
▁佁佋亢亮	-3468
偗冪	-3469
仩仠	-3470
▁候佶	-3471
▁佚仇仐二	-3472
俉冨	-3473
▁亊俥俪仇	-3474
▁亖倵	-3475
▁ex	-3476
▁仵侮	-3477
▁亃兤	-3478
▁1990	-3479
仅俺	-3480
▁伻仅	-3481
▁亜伹亡仛	-3482
▁仔事喋	-3483
▁亖凼	-3484
▁亜交二	-3485
▁二凴仠	-3486
▁仞凣	-3487
▁亚劏	-3488
▁伕亶	-3489
oc	-3490
▁伋伭于	-3491
▁匴	-3492
亐亡仅	-3493
▁侎仲亪	-3494
▁位傼仓傻侏佧	-3495
▁侨停仰	-3496
▁亃亡亯	-3497
▁各	-3498
仌侤亰	-3499
▁仌剜	-3500
仠亭	-3501
▁佚仦伶亥	-3502
70	-3503
亃亮亶	-3504
▁亃仦亏入	-3505
se	-3506
▁匝	-3507
▁仞仌争	-3508
亱伿	-3509
▁令冤仧亡	-3510
▁亖侹事伎	-3511
▁仔伤偢予	-3512
▁仈儗	-3513
▁仐令事二亏亮	-3514
▁仈倚	-3515
▁伭兾	-3516
ity	-3517
▁仈唸	-3518
▁倇勎	-3519
▁俑仯匌	-3520
ary	-3521
介伕	-3522
▁亽仇亢亮	-3523
▁僼侨	-3524
▁亐从	-3525
▁亂佛亴亩仓	-3526
仅伹仓	-3527
▁咪	-3528
▁亖准	-3529
佭事	-3530
▁亼仄	-3531
仭予	-3532
▁侧偨	-3533
偣亶	-3534
仗亻亚	-3535
▁仍仑	-3536
▁信任亾亚	-3537
▁仔亢	-3538
qu	-3539
▁亂剈	-3540
▁仅南	-3541
▁亊俥仞二	-3542
伙优	-3543
▁亂事	-3544
▁倮	-3545
亶偀傱	-3546
传伹亡	-3547
亏兪	-3548
仂侲	-3549
▁佒体俠仇	-3550
仯仅亰	-3551
▁予仠亃	-3552
仗侻	-3553
仄亶	-3554
▁伙事亾仓	-3555
...	-3556
▁伕亏	-3557
▁俢仦予	-3558
▁予儊	-3559
▁亖付仇	-3560
▁仛事位伭二	-3561
▁众亏仯	-3562
伍伎	-3563
▁亚偶佶二	-3564
▁勘	-3565
▁亖亰仌	-3566
▁亖佁	-3567
▁予仓仼	-3568
▁亃仐伶	-3569
▁亏佉	-3570
▁俉儤事	-3571
▁90	-3572
▁伊伭伹	-3573
▁亊争	-3574
▁任口	-3575
▁傄	-3576
▁伓亚亓	-3577
仞伙	-3578
▁二佧亳	-3579
▁佋佈	-3580
▁亓冘任	-3581
tion	-3582
▁仐二	-3583
僻亹	-3584
▁债予	-3585
▁俆争	-3586
▁亻亳亾	-3587
▁仌傭佳	-3588
倃伈	-3589
▁亓僕	-3590
冿净	-3591
▁伎仇	-3592
▁倈仚亾	-3593
佋佉	-3594
亃仠	-3595
▁伇儸	-3596
▁代傜	-3597
亢亯	-3598
▁亽伱亾	-3599
▁卡	-3600
▁仐亢伥	-3601
▁se	-3602
▁仼亱	-3603
作仧亡	-3604
▁亢冱	-3605
▁俛但二	-3606
▁亂佛亴亵	-3607
予仐	-3608
ars	-3609
▁亮伕亥	-3610
▁俎俣	-3611
啈仇	-3612
▁亖偡	-3613
▁伸仦占众予	-3614
▁倾	-3615
▁亽仐價	-3616
▁免	-3617
▁仢亃于佄仞	-3618
亊仅	-3619
亓伊	-3620
▁仧仦伶	-3621
▁亚剋	-3622
▁亣佲	-3623
▁亽仅伟亥	-3624
▁佳	-3625
▁亶亰	-3626
▁吁亚事亭	-3627
▁倨仪	-3628
▁佒仦伹	-3629
▁仼低二	-3630
▁仐俬	-3631
▁俲党	-3632
▁亲仉仐	-3633
亡仅亰	-3634
仄仅亾	-3635
▁38	-3636
▁儤仓	-3637
仗亻	-3638
伙卋	-3639
偟仓	-3640
▁億估	-3641
▁争佚二仓	-3642
▁伸仓	-3643
▁pro	-3644
▁仈倏仌仅	-3645
▁仼争劇亮	-3646
▁亖冦俦	-3647
▁亮伕	-3648
▁佁仐	-3649
享代亚	-3650
▁仙仚些	-3651
▁倗佧	-3652
▁仮仯从	-3653
▁亖仌亓争	-3654
▁56	-3655
▁偖仌亜	-3656
▁僸	-3657
▁仯仍	-3658
▁偼亭	-3659
優伙	-3660
▁二亢	-3661
▁亩傌仓	-3662
佂佼	-3663
▁亃亨亜	-3664
▁仌侤	-3665
▁侁儕	-3666
▁侞凲	-3667
▁仔仧亮	-3668
▁冓仅亻	-3669
▁&	-3670
▁以俊仂	-3671
亏仠	-3672
亚事亭	-3673
▁亃亚仛俉亳	-3674
亰亯	-3675
亂争仍	-3676
▁二亏傚	-3677
▁佚仅二仞	-3678
▁伥俴	-3679
▁仪仅	-3680
▁亃亚仛俉亡	-3681
▁伭仐令	-3682
▁偖仐	-3683
▁亍亃	-3684
▁亜争亏产	-3685
▁仐仌亣仓	-3686
34	-3687
▁亣傐亥亚	-3688
▁俙争	-3689
▁仆亐亳	-3690
▁亽仲争亃伭	-3691
▁代卂	-3692
▁以仚值	-3693
亢亚什	-3694
▁仐介伕	-3695
end	-3696
▁亜众井伙亳	-3697
債佼	-3698
▁亓亩二	-3699
ess	-3700
倐侻亥亰	-3701
▁凸	-3702
▁亖伭	-3703
▁僎优	-3704
▁亂什伙仠	-3705
▁亖佁但	-3706
▁亚令	-3707
仗亾俷亳	-3708
▁倐傿	-3709
▁仿伊仳	-3710
▁仞仌争亾	-3711
▁令仦亶佳	-3712
保伙	-3713
▁侏伭	-3714
▁亜仇亜	-3715
▁仮信事	-3716
▁亷争亾	-3717
▁佋偩傜	-3718
▁产亡佋仅	-3719
▁伸什伍亭	-3720
▁剥修	-3721
▁偋偩	-3722
▁偙争仍亥	-3723
▁啠	-3724
仲争仳	-3725
▁亍偶佶	-3726
亏企	-3727
▁俸佲	-3728
▁侺吾	-3729
▁佋佗亣僂	-3730
▁偈	-3731
▁伌仐	-3732
▁倃伈伓候	-3733
▁令二争企	-3734
仌亱	-3735
▁任仅	-3736
▁俑争	-3737
▁亃仓仄	-3738
▁39	-3739
偉做	-3740
▁亃低	-3741
ov	-3742
伶仍	-3743
▁1980	-3744
▁代俇予俍亥	-3745
▁伙事亾亳	-3746
▁仔优	-3747
倘俅仇	-3748
▁以倭	-3749
▁仍伈	-3750
▁仌件亾	-3751
▁伻亃凝亥	-3752
▁伇儸予	-3753
▁亐仦信	-3754
▁仙仚仌仅二	-3755
▁which	-3756
▁ar	-3757
伹仅亥	-3758
伸亳亥	-3759
俢亢仅亚	-3760
▁倎几	-3761
▁例亴亢亮	-3762
亂亚	-3763
▁仐侭冰	-3764
▁以側佼	-3765
▁su	-3766
▁佚兙	-3767
佄令	-3768
仞二六	-3769
亢亭	-3770
▁仛卪仚亾	-3771
伥亭	-3772
▁仙债	-3773
▁僯俠	-3774
▁儛	-3775
▁仢仞	-3776
▁3,	-3777
▁仈亜亰	-3778
▁俑亚亢亮	-3779
仂亥	-3780
▁傻侏亠	-3781
▁仔债	-3782
▁仌勗	-3783
传兵	-3784
▁佨刼	-3785
▁亓佋况	-3786
▁令伸亭	-3787
仌亭	-3788
▁俢六	-3789
予亰	-3790
▁予佋	-3791
▁伃俢厾	-3792
▁候佶亢亮	-3793
ip	-3794
ies	-3795
伙仅亥	-3796
▁仌傭亡	-3797
▁亃亐云	-3798
▁代俑亥	-3799
但予	-3800
▁亽侅	-3801
▁儍亱	-3802
▁伸傘俉仅亥	-3803
▁仿亵亥亇予	-3804
▁些偉做	-3805
亍倩	-3806
▁伷产	-3807
▁介仌二	-3808
▁传侜	-3809
▁俙伭	-3810
▁公	-3811
▁仙偔	-3812
▁倐代	-3813
▁位事仓	-3814
▁予傜俉仅亥	-3815
▁仒亭	-3816
▁众亱事侪	-3817
▁亖伳亩	-3818
▁儜	-3819
▁俺佯	-3820
▁俄二仪	-3821
▁亯亡亢	-3822
亓伊亃	-3823
▁位亡仄	-3824
▁亜争勷	-3825
▁亻俬亶	-3826
▁伆	-3827
▁位事侻亾	-3828
▁倎匦冎	-3829
▁争创	-3830
▁俆仓任亾	-3831
俺仐	-3832
▁仈变	-3833
▁凭	-3834
▁仐侚	-3835
▁仦令	-3836
▁仸亃	-3837
▁僁儑	-3838
▁伸什侕亭	-3839
▁仛产亥	-3840
▁亍代卂	-3841
ment	-3842
▁亖勝	-3843
rict	-3844
▁亖仠仐	-3845
▁众二	-3846
▁侺俒亏亜	-3847
亐亚什	-3848
age	-3849
▁佚伧	-3850
▁僓亏兪	-3851
侻亥	-3852
佅仞	-3853
▁伜俑	-3854
55	-3855
▁仸仹	-3856
▁亓冦	-3857
▁儀	-3858
▁介亏仏	-3859
▁予亚作仛	-3860
▁亜亃	-3861
▁兽倥	-3862
▁仦亃偾伿	-3863
og	-3864
▁亇予仂亶	-3865
▁仐佣	-3866
▁y	-3867
令亣	-3868
▁亖休	-3869
▁仐儲佤	-3870
仦亚	-3871
佲伤	-3872
▁亓仅佗	-3873
▁介争信	-3874
33	-3875
▁亩众伭	-3876
▁佋喂	-3877
▁儽	-3878
▁予倚	-3879
▁2012	-3880
倐侻亥	-3881
▁亃争佋	-3882
▁伋仦什	-3883
亙仓	-3884
仕切	-3885
▁佋侰	-3886
▁予侬	-3887
仅佋	-3888
▁亓伥亂亮	-3889
ine	-3890
▁仆仇	-3891
▁亃仦伤	-3892
代事	-3893
▁呮企	-3894
▁仐偞	-3895
▁位仇	-3896
▁佋二亾	-3897
▁以从便	-3898
亯亡	-3899
▁亴亵亥	-3900
佋仄伖仇	-3901
偨亥	-3902
二仓	-3903
▁侧仓亯	-3904
▁亜倓	-3905
▁仐侕	-3906
▁伙亶	-3907
▁偖俉仓	-3908
仞亶	-3909
▁伌仐冞	-3910
▁佒体争	-3911
▁信任亻	-3912
▁亖伎亜仼亮	-3913
▁亇唜	-3914
istrict	-3915
▁伏	-3916
▁仒二亃	-3917
亏仓	-3918
▁亖俵亂仦予	-3919
▁剝	-3920
▁叄	-3921
侻亡	-3922
▁侧伧俠	-3923
▁冧	-3924
▁儲	-3925
仌仅亓	-3926
▁以从予仅	-3927
▁亽准	-3928
▁亃倂侻予	-3929
our	-3930
▁仌争侵	-3931
▁亃仦伸仅二	-3932
佳倨	-3933
儭亡	-3934
▁亃亰	-3935
▁几	-3936
亃兤亥	-3937
▁信但	-3938
▁俕兹	-3939
代俑	-3940
以侐佼	-3941
亡亏	-3942
▁勸倥	-3943
▁仏偍伎	-3944
▁俛事	-3945
▁以佧伜仂	-3946
▁仼俖佃	-3947
予争伪	-3948
▁亽偖前	-3949
佡伭	-3950
▁||	-3951
▁亻仅	-3952
佉予	-3953
伙亱	-3954
▁$	-3955
仠佋	-3956
传伖仇	-3957
优众予	-3958
仅亞	-3959
仦侕亡	-3960
▁仢亃于佄仛	-3961
90	-3962
▁佋僪	-3963
▁位仇休	-3964
▁仩來	-3965
亴佋	-3966
侧劼	-3967
争亜	-3968
▁亊伱	-3969
▁仐亂亣伓	-3970
▁传亣儢	-3971
▁厬	-3972
▁亐亳	-3973
亳仼	-3974
▁争亊事	-3975
▁匋	-3976
▁侧亱	-3977
▁伱亡亯	-3978
85	-3979
伭伟	-3980
▁俺仌二	-3981
art	-3982
▁仯凭	-3983
▁亯争	-3984
侎优众予	-3985
▁倎伭事亭	-3986
▁佋争伪	-3987
▁兊	-3988
▁仛任亾亚	-3989
▁仔亩亝	-3990
伎亜亮	-3991
亳亶	-3992
▁亍些	-3993
▁侎仍倩	-3994
▁亍刜争仳	-3995
▁佃仇	-3996
▁仔产伸代二	-3997
亡亥亰	-3998
▁亍亃代	-3999
▁仈亡	-4000
亂仅亥	-4001
▁亖仌亜	-4002
▁亶亼	-4003
▁亖亳亯仅	-4004
▁亩争	-4005
▁仮仯亚什	-4006
▁亖俐	-4007
▁亖儡	-4008
▁二傳仞二	-4009
傔亥	-4010
▁伝仠	-4011
▁亚儈	-4012
▁俙低	-4013
▁倨倇二	-4014
▁侨停二	-4015
侍佚佝	-4016
▁佋二任	-4017
▁倎卾	-4018
▁亓亅二	-4019
▁亓五	-4020
亢仇	-4021
▁亍余	-4022
▁亃仅予	-4023
▁俑仯冀	-4024
▁亍亶偀傱	-4025
▁仔仌儱	-4026
仔亊	-4027
伸佈	-4028
▁介仌	-4029
▁亓亩仧争	-4030
▁亣令亵	-4031
亣僆	-4032
▁俜亓	-4033
亢仦亚	-4034
▁亢代二	-4035
▁亾亩亞	-4036
▁46	-4037
▁44	-4038
伫仇	-4039
▁凍剀	-4040
亭佼亰	-4041
▁仢付六	-4042
▁僑伥	-4043
▁亂享俺	-4044
▁亖俊仂	-4045
▁今伟亶	-4046
争侐	-4047
▁侔俄亠	-4048
▁仢付偂仂偞	-4049
▁亽仧	-4050
▁僎其	-4051
▁仔予傳俪仇	-4052
▁刅佋	-4053
▁亏低	-4054
▁亃仦俵亥什	-4055
▁仌偩	-4056
▁仌召	-4057
▁亣亩事	-4058
▁亵亏井亢亮	-4059
仚仓亶	-4060
▁仼冮	-4061
▁仔偖俉仅	-4062
▁侔佈	-4063
▁仐仵亦	-4064
▁1970	-4065
▁55	-4066
亏傁	-4067
佀亠	-4068
▁伸亨	-4069
代仍	-4070
▁信任亻亚	-4071
▁伸仅二亥	-4072
亳亥	-4073
仗侻亾	-4074
▁亯亡亢亮	-4075
▁仐仌争仳	-4076
仛亜	-4077
▁亯倷	-4078
▁亜争勷二	-4079
▁伉冶	-4080
▁傸仜	-4081
倐亡	-4082
ound	-4083
▁亖侹佲	-4084
▁以亙	-4085
▁凓亳亰	-4086
▁this	-4087
▁俲党井二	-4088
▁仧仦	-4089
代二仼	-4090
▁予亼亍	-4091
▁伋仦亥	-4092
仅减	-4093
▁仐亚于佄	-4094
▁佁仐事亠	-4095
▁仢僾	-4096
佋佳二	-4097
▁准	-4098
▁倄冂侮	-4099
▁僗	-4100
▁仐仓	-4101
▁亏仳亼	-4102
▁仢傠亵	-4103
ort	-4104
▁仐刃傈	-4105
亃仅	-4106
▁亖仌亶	-4107
▁75	-4108
▁亖兖	-4109
▁仙代仸	-4110
▁佒優伙	-4111
争井	-4112
▁倦俉	-4113
▁亓佋倽仓	-4114
兘亡	-4115
▁伜代	-4116
▁亖代	-4117
▁信匏	-4118
仠仯亡	-4119
▁仕切	-4120
任亳	-4121
偎亥	-4122
▁吁亚仌啃倏	-4123
▁争仐	-4124
仂亼	-4125
亱伟	-4126
▁倦仐	-4127
▁仔仍倛	-4128
▁sh	-4129
众伿	-4130
▁32	-4131
▁亖亂仠	-4132
▁亖亍	-4133
▁仐佤伹从	-4134
仅仍	-4135
▁以侗	-4136
▁以亚众仇	-4137
▁亽仌	-4138
▁亣亩亣仄	-4139
▁亲偉	-4140
▁仐休	-4141
保二仐	-4142
仚伸	-4143
▁仐儲刖	-4144
▁仈佧伜仂	-4145
▁仢付偗亳	-4146
仛但二	-4147
仧争亚	-4148
▁傂亏	-4149
▁亽准古	-4150
▁仐佤事	-4151
偁倠	-4152
▁仌剑	-4153
▁亃佛侏	-4154
▁侣佭	-4155
▁亓佗伟	-4156
▁噄	-4157
▁亇唜亙	-4158
▁亴亵亶	-4159
▁伙俑	-4160
佋俷亡	-4161
▁2003	-4162
▁us	-4163
▁亖倭	-4164
▁亜儵	-4165
▁亓伊仹	-4166
▁亽佗亮	-4167
▁侎仲亪亜	-4168
▁仔則	-4169
▁仢俬县仓	-4170
▁僻亚事亞	-4171
▁产争	-4172
▁仔伹佉	-4173
亵仯	-4174
▁亏兪	-4175
▁亽創	-4176
▁亽併	-4177
▁咠产	-4178
▁二俜伙	-4179
▁倰	-4180
▁俉允	-4181
▁:.	-4182
▁仇二	-4183
▁仌俶仄	-4184
▁仐伭仞	-4185
▁众亱事亭	-4186
▁俆仓仼	-4187
▁仌亡亓亶	-4188
▁In	-4189
亓仍傢	-4190
▁佋争仳	-4191
▁伓侹亜仓	-4192
▁亣令亵僠	-4193
▁倛	-4194
▁众争亃	-4195
▁侏伕亶	-4196
▁伋仓	-4197
▁仐佨	-4198
▁众二佗	-4199
▁亖代二仼	-4200
▁佢	-4201
俶付仇	-4202
▁剉	-4203
亞佼亥	-4204
▁仔伢儼亚什	-4205
▁伸伶仓	-4206
仼亣	-4207
佟了	-4208
▁予嗀	-4209
▁仼仓	-4210
▁亇卬	-4211
▁冓仅仅	-4212
亩从	-4213
僺佼	-4214
▁侎亮傍亥	-4215
▁佒亹	-4216
▁侞侟	-4217
▁亜亰	-4218
▁仔亙	-4219
▁催僰	-4220
▁亃仓仄亡	-4221
ish	-4222
▁仍亰	-4223
凧亠	-4224
▁俑偟	-4225
▁予仓亯	-4226
▁二倇	-4227
▁佺倂仚	-4228
亃亡	-4229
▁佨伫	-4230
▁啘亜	-4231
▁俑俒亚	-4232
▁信匏亶	-4233
佚偘	-4234
▁佻仼	-4235
佋佥	-4236
▁予仌	-4237
▁仦估	-4238
▁亵仇什	-4239
俢亢亱	-4240
▁亃代伋	-4241
▁亷亡仄仓	-4242
亓佋	-4243
▁5.	-4244
伳俎俣	-4245
▁功	-4246
亃侴	-4247
▁仧仦伶予	-4248
二亏傚	-4249
伎仚亾	-4250
▁侺产佀予	-4251
▁儦	-4252
▁价侻二	-4253
▁亣佳	-4254
传伹亳	-4255
▁僓介伕	-4256
▁仛任亾付	-4257
▁偖债亥亚	-4258
▁亃亳	-4259
仛俉亡	-4260
▁仏佈冖	-4261
▁亂刭	-4262
▁亖俵亂亮	-4263
▁佐	-4264
▁倎仚	-4265
▁亇予亊仦	-4266
哧仅俺	-4267
▁俉俐	-4268
▁予付仠	-4269
▁俆亱但二	-4270
▁亝仠	-4271
▁伙佌亳	-4272
俢仌仪亚什	-4273
▁亂伸	-4274
▁亇伭	-4275
||	-4276
俔仞二	-4277
▁仇亯仌	-4278
▁倲兙亡	-4279
▁侣但二	-4280
于亏	-4281
▁佃俞侻亞	-4282
伌伈	-4283
▁仈初	-4284
▁侎仗	-4285
▁予傜俉仅仓	-4286
▁予伛	-4287
▁亂僰	-4288
▁仛任亾俷亡	-4289
▁	-4290
.	-4291
仅	-4292
亥	-4293
,	-4294
二	-4295
予	-4296
亚	-4297
亡	-4298
仇	-4299
仌	-4300
争	-4301
亃	-4302
仓	-4303
亖	-4304
亜	-4305
仦	-4306
什	-4307
佋	-4308
伭	-4309
亣	-4310
亓	-4311
亶	-4312
亾	-4313
仐	-4314
1	-4315
亵	-4316
亽	-4317
亢	-4318
仢	-4319
亂	-4320
亰	-4321
佳	-4322
亮	-4323
事	-4324
仿	-4325
仔	-4326
亩	-4327
0	-4328
俷	-4329
亳	-4330
伊	-4331
代	-4332
伸	-4333
亍	-4334
令	-4335
亏	-4336
位	-4337
佅	-4338
仍	-4339
俉	-4340
亭	-4341
仛	-4342
亲	-4343
仚	-4344
亯	-4345
仂	-4346
仞	-4347
伙	-4348
仠	-4349
亊	-4350
产	-4351
5	-4352
侻	-4353
亱	-4354
亐	-4355
仈	-4356
2	-4357
佚	-4358
仪	-4359
仼	-4360
偙	-4361
e	-4362
但	-4363
任	-4364
仳	-4365
佌	-4366
众	-4367
a	-4368
以	-4369
互	-4370
亞	-4371
仧	-4372
佼	-4373
付	-4374
仄	-4375
伻	-4376
余	-4377
仯	-4378
伹	-4379
介	-4380
伥	-4381
亼	-4382
亇	-4383
t	-4384
享	-4385
仙	-4386
i	-4387
传	-4388
俢	-4389
侺	-4390
侨	-4391
9	-4392
佧	-4393
估	-4394
伟	-4395
n	-4396
佤	-4397
侏	-4398
伓	-4399
伡	-4400
企	-4401
从	-4402
o	-4403
伫	-4404
佃	-4405
來	-4406
r	-4407
偖	-4408
佗	-4409
亻	-4410
亙	-4411
3	-4412
s	-4413
保	-4414
-	-4415
佸	-4416
仩	-4417
交	-4418
伎	-4419
4	-4420
侍	-4421
傢	-4422
7	-4423
8	-4424
佒	-4425
侎	-4426
信	-4427
佭	-4428
优	-4429
6	-4430
仲	-4431
侐	-4432
伕	-4433
似	-4434
仭	-4435
了	-4436
仹	-4437
佈	-4438
俑	-4439
倦	-4440
亠	-4441
偿	-4442
倎	-4443
"	-4444
俆	-4445
仒	-4446
俶	-4447
佲	-4448
佶	-4449
于	-4450
個	-4451
伿	-4452
会	-4453
倲	-4454
l	-4455
傜	-4456
h	-4457
亷	-4458
偉	-4459
伌	-4460
佰	-4461
倠	-4462
倩	-4463
伱	-4464
侒	-4465
伜	-4466
:	-4467
伢	-4468
侚	-4469
d	-4470
傘	-4471
傠	-4472
倐	-4473
傲	-4474
侕	-4475
伤	-4476
俵	-4477
俌	-4478
偩	-4479
侞	-4480
伋	-4481
佝	-4482
侹	-4483
傒	-4484
倏	-4485
停	-4486
仗	-4487
伖	-4488
c	-4489
佨	-4490
些	-4491
侳	-4492
u	-4493
仰	-4494
伶	-4495
俱	-4496
偕	-4497
伅	-4498
偏	-4499
倇	-4500
俬	-4501
住	-4502
侧	-4503
例	-4504
俰	-4505
件	-4506
伦	-4507
伪	-4508
俜	-4509
m	-4510
偞	-4511
俺	-4512
佛	-4513
亘	-4514
傷	-4515
倘	-4516
仑	-4517
俪	-4518
伈	-4519
俎	-4520
债	-4521
俗	-4522
伳	-4523
偂	-4524
仉	-4525
p	-4526
佉	-4527
们	-4528
俅	-4529
/	-4530
伍	-4531
佡	-4532
偝	-4533
佀	-4534
俠	-4535
偁	-4536
倂	-4537
亨	-4538
佄	-4539
亝	-4540
侑	-4541
仮	-4542
偘	-4543
倡	-4544
仕	-4545
休	-4546
仸	-4547
傸	-4548
倨	-4549
亅	-4550
偶	-4551
傳	-4552
伀	-4553
倣	-4554
倌	-4555
俣	-4556
伒	-4557
傫	-4558
冂	-4559
偗	-4560
仁	-4561
傥	-4562
伧	-4563
f	-4564
傿	-4565
傻	-4566
僓	-4567
g	-4568
俙	-4569
侮	-4570
催	-4571
冓	-4572
傂	-4573
俤	-4574
僻	-4575
俄	-4576
亴	-4577
偀	-4578
今	-4579
低	-4580
候	-4581
俖	-4582
倫	-4583
侁	-4584
井	-4585
佫	-4586
借	-4587
傼	-4588
亸	-4589
僁	-4590
凁	-4591
侬	-4592
俔	-4593
侭	-4594
y	-4595
;	-4596
傱	-4597
倭	-4598
傋	-4599
作	-4600
伬	-4601
俈	-4602
倪	-4603
俲	-4604
b	-4605
倚	-4606
僆	-4607
'	-4608
做	-4609
侣	-4610
僇	-4611
侵	-4612
俐	-4613
倿	-4614
侟	-4615
倷	-4616
仆	-4617
傶	-4618
佢	-4619
偾	-4620
六	-4621
俊	-4622
俍	-4623
佇	-4624
傯	-4625
w	-4626
依	-4627
侤	-4628
俀	-4629
佂	-4630
傕	-4631
俴	-4632
僂	-4633
偆	-4634
僉	-4635
俥	-4636
儢	-4637
値	-4638
傞	-4639
俒	-4640
傖	-4641
倃	-4642
傔	-4643
仵	-4644
債	-4645
傆	-4646
傛	-4647
偱	-4648
仏	-4649
俹	-4650
傤	-4651
仜	-4652
偧	-4653
亹	-4654
僃	-4655
們	-4656
伉	-4657
像	-4658
倈	-4659
僯	-4660
僺	-4661
係	-4662
俇	-4663
偎	-4664
佪	-4665
儊	-4666
傦	-4667
冰	-4668
偰	-4669
佯	-4670
v	-4671
哏	-4672
倢	-4673
你	-4674
僬	-4675
伃	-4676
)	-4677
俁	-4678
伣	-4679
A	-4680
僎	-4681
亪	-4682
僀	-4683
佁	-4684
伨	-4685
佥	-4686
侰	-4687
僩	-4688
伵	-4689
傭	-4690
傟	-4691
S	-4692
僑	-4693
凍	-4694
k	-4695
佺	-4696
倮	-4697
傾	-4698
儈	-4699
价	-4700
俯	-4701
僟	-4702
傹	-4703
亦	-4704
偒	-4705
侫	-4706
傰	-4707
僅	-4708
僜	-4709
僝	-4710
僌	-4711
凊	-4712
仃	-4713
俕	-4714
刭	-4715
兙	-4716
僈	-4717
伷	-4718
偔	-4719
C	-4720
俫	-4721
儶	-4722
儆	-4723
偨	-4724
储	-4725
僊	-4726
他	-4727
傌	-4728
僵	-4729
冿	-4730
吁	-4731
僄	-4732
侦	-4733
侀	-4734
侙	-4735
体	-4736
佷	-4737
侴	-4738
I	-4739
傪	-4740
偈	-4741
伇	-4742
侔	-4743
M	-4744
冎	-4745
%	-4746
佻	-4747
兵	-4748
T	-4749
傓	-4750
伂	-4751
党	-4752
傩	-4753
傴	-4754
伮	-4755
傐	-4756
冢	-4757
僋	-4758
傗	-4759
兩	-4760
凭	-4761
伛	-4762
傺	-4763
冟	-4764
傧	-4765
傝	-4766
(	-4767
俦	-4768
几	-4769
促	-4770
倬	-4771
儖	-4772
凓	-4773
侸	-4774
僾	-4775
伝	-4776
偼	-4777
凈	-4778
募	-4779
傚	-4780
冾	-4781
傡	-4782
冐	-4783
僐	-4784
倽	-4785
傣	-4786
儮	-4787
!	-4788
働	-4789
倥	-4790
儵	-4791
冯	-4792
兂	-4793
冸	-4794
侂	-4795
侗	-4796
側	-4797
P	-4798
傏	-4799
偢	-4800
净	-4801
匣	-4802
侜	-4803
儃	-4804
|	-4805
刻	-4806
儗	-4807
偣	-4808
兟	-4809
兝	-4810
何	-4811
儯	-4812
剢	-4813
剜	-4814
兎	-4815
僰	-4816
冲	-4817
儂	-4818
儤	-4819
俩	-4820
俿	-4821
D	-4822
侲	-4823
俓	-4824
偷	-4825
俭	-4826
亿	-4827
入	-4828
B	-4829
倔	-4830
兼	-4831
兤	-4832
偍	-4833
儱	-4834
准	-4835
倗	-4836
冷	-4837
僠	-4838
冨	-4839
=	-4840
咠	-4841
儴	-4842
倀	-4843
刣	-4844
兾	-4845
僷	-4846
劼	-4847
便	-4848
充	-4849
傍	-4850
儍	-4851
刋	-4852
冪	-4853
僧	-4854
前	-4855
儲	-4856
匉	-4857
份	-4858
侪	-4859
円	-4860
劽	-4861
咄	-4862
倳	-4863
僮	-4864
凼	-4865
傽	-4866
儠	-4867
N	-4868
併	-4869
偑	-4870
儨	-4871
儿	-4872
?	-4873
E	-4874
俸	-4875
刄	-4876
劇	-4877
克	-4878
僙	-4879
冦	-4880
倸	-4881
俋	-4882
叼	-4883
儜	-4884
勝	-4885
傁	-4886
咭	-4887
刌	-4888
儼	-4889
俼	-4890
僢	-4891
偟	-4892
叟	-4893
冄	-4894
俛	-4895
值	-4896
卂	-4897
倄	-4898
R	-4899
修	-4900
匯	-4901
H	-4902
冝	-4903
云	-4904
儅	-4905
U	-4906
叀	-4907
勼	-4908
僽	-4909
傉	-4910
優	-4911
償	-4912
佴	-4913
僤	-4914
僥	-4915
侉	-4916
切	-4917
俘	-4918
劊	-4919
侌	-4920
兜	-4921
涊	-4922
儡	-4923
公	-4924
兊	-4925
厾	-4926
卨	-4927
僼	-4928
冤	-4929
L	-4930
冱	-4931
倒	-4932
共	-4933
勚	-4934
刅	-4935
厲	-4936
x	-4937
剑	-4938
剥	-4939
册	-4940
F	-4941
咁	-4942
兕	-4943
刜	-4944
儕	-4945
區	-4946
八	-4947
刾	-4948
兆	-4949
匰	-4950
农	-4951
偺	-4952
刔	-4953
凰	-4954
冣	-4955
偓	-4956
O	-4957
W	-4958
倹	-4959
匑	-4960
单	-4961
亗	-4962
啁	-4963
俏	-4964
傇	-4965
剹	-4966
儑	-4967
凂	-4968
價	-4969
刲	-4970
僔	-4971
僘	-4972
冮	-4973
先	-4974
G	-4975
傮	-4976
养	-4977
刢	-4978
凶	-4979
兡	-4980
億	-4981
偅	-4982
儫	-4983
伴	-4984
勮	-4985
勺	-4986
僫	-4987
凚	-4988
儺	-4989
勨	-4990
剤	-4991
叧	-4992
侶	-4993
偊	-4994
倞	-4995
勦	-4996
偄	-4997
V	-4998
佘	-4999
叢	-5000
凹	-5001
兪	-5002
侢	-5003
匋	-5004
创	-5005
儰	-5006
到	-5007
倓	-5008
卅	-5009
j	-5010
倝	-5011
凿	-5012
卫	-5013
偭	-5014
俞	-5015
列	-5016
剻	-5017
偛	-5018
偯	-5019
圫	-5020
傊	-5021
価	-5022
儥	-5023
南	-5024
冇	-5025
凷	-5026
匐	-5027
剉	-5028
仫	-5029
劏	-5030
勷	-5031
咯	-5032
僒	-5033
凋	-5034
冞	-5035
匎	-5036
函	-5037
则	-5038
兹	-5039
冶	-5040
冺	-5041
匴	-5042
啖	-5043
K	-5044
傅	-5045
刖	-5046
勴	-5047
冁	-5048
}	-5049
冠	-5050
凮	-5051
啀	-5052
冕	-5053
冘	-5054
勸	-5055
兖	-5056
凗	-5057
劷	-5058
兰	-5059
剦	-5060
内	-5061
剀	-5062
剺	-5063
哙	-5064
偬	-5065
占	-5066
厄	-5067
俾	-5068
侯	-5069
倛	-5070
{	-5071
劄	-5072
剋	-5073
凅	-5074
卣	-5075
凄	-5076
噃	-5077
卲	-5078
勵	-5079
伏	-5080
勇	-5081
匌	-5082
_	-5083
厹	-5084
兯	-5085
冫	-5086
呮	-5087
佑	-5088
傑	-5089
呜	-5090
刦	-5091
冈	-5092
刃	-5093
匛	-5094
吊	-5095
吾	-5096
冧	-5097
僣	-5098
剨	-5099
啓	-5100
儭	-5101
呕	-5102
匵	-5103
剩	-5104
刐	-5105
关	-5106
剼	-5107
允	-5108
倾	-5109
唖	-5110
利	-5111
刏	-5112
仴	-5113
儾	-5114
偮	-5115
倵	-5116
刊	-5117
兑	-5118
刺	-5119
划	-5120
儀	-5121
儐	-5122
內	-5123
坷	-5124
佦	-5125
全	-5126
凧	-5127
偡	-5128
勆	-5129
凉	-5130
其	-5131
博	-5132
偽	-5133
倅	-5134
剸	-5135
兽	-5136
剰	-5137
咪	-5138
办	-5139
伆	-5140
刉	-5141
儘	-5142
叁	-5143
叱	-5144
刡	-5145
卪	-5146
刂	-5147
仡	-5148
啃	-5149
倍	-5150
凣	-5151
咰	-5152
儏	-5153
傃	-5154
厳	-5155
凴	-5156
俚	-5157
勘	-5158
元	-5159
僳	-5160
佐	-5161
勎	-5162
呬	-5163
俳	-5164
匦	-5165
偐	-5166
凝	-5167
喋	-5168
县	-5169
偋	-5170
勡	-5171
兒	-5172
卧	-5173
凲	-5174
勑	-5175
勯	-5176
傈	-5177
呰	-5178
倰	-5179
倉	-5180
冚	-5181
卡	-5182
劈	-5183
嗼	-5184
初	-5185
冀	-5186
变	-5187
仺	-5188
z	-5189
合	-5190
兌	-5191
匍	-5192
凵	-5193
匮	-5194
佊	-5195
啈	-5196
剶	-5197
僦	-5198
&	-5199
倊	-5200
佞	-5201
呺	-5202
况	-5203
冼	-5204
卋	-5205
冃	-5206
喳	-5207
厔	-5208
凘	-5209
功	-5210
卩	-5211
假	-5212
吺	-5213
勀	-5214
刽	-5215
剝	-5216
儇	-5217
勰	-5218
减	-5219
卤	-5220
凢	-5221
哳	-5222
偤	-5223
制	-5224
化	-5225
五	-5226
唗	-5227
凒	-5228
剐	-5229
啘	-5230
啵	-5231
匃	-5232
唸	-5233
J	-5234
勿	-5235
倖	-5236
各	-5237
佟	-5238
匞	-5239
卬	-5240
兓	-5241
侄	-5242
勉	-5243
刘	-5244
僴	-5245
劌	-5246
兀	-5247
冗	-5248
侇	-5249
嚵	-5250
伩	-5251
q	-5252
佣	-5253
删	-5254
\	-5255
侊	-5256
吴	-5257
凇	-5258
匕	-5259
剈	-5260
光	-5261
啠	-5262
倴	-5263
冽	-5264
剖	-5265
奯	-5266
口	-5267
剮	-5268
儛	-5269
呝	-5270
剃	-5271
刷	-5272
儸	-5273
唤	-5274
婨	-5275
僡	-5276
儌	-5277
刼	-5278
叺	-5279
唻	-5280
军	-5281
凑	-5282
剟	-5283
傄	-5284
+	-5285
厶	-5286
侽	-5287
句	-5288
兘	-5289
冒	-5290
劓	-5291
伯	-5292
厬	-5293
匂	-5294
儳	-5295
典	-5296
厁	-5297
厕	-5298
儣	-5299
卥	-5300
勲	-5301
唜	-5302
剽	-5303
厖	-5304
僕	-5305
免	-5306
勞	-5307
呎	-5308
X	-5309
儁	-5310
匝	-5311
咱	-5312
匚	-5313
匒	-5314
兗	-5315
凸	-5316
凪	-5317
势	-5318
噄	-5319
勋	-5320
勜	-5321
劘	-5322
厐	-5323
凫	-5324
叴	-5325
勗	-5326
侅	-5327
凬	-5328
儽	-5329
吪	-5330
儔	-5331
僸	-5332
吏	-5333
厉	-5334
倱	-5335
唽	-5336
凜	-5337
呀	-5338
吩	-5339
咉	-5340
兺	-5341
哵	-5342
兮	-5343
哒	-5344
凱	-5345
召	-5346
剘	-5347
刯	-5348
冡	-5349
$	-5350
咨	-5351
卺	-5352
佮	-5353
吅	-5354
匪	-5355
厍	-5356
圀	-5357
叄	-5358
吗	-5359
嚺	-5360
厒	-5361
哨	-5362
叏	-5363
勍	-5364
凛	-5365
兲	-5366
俟	-5367
劾	-5368
刹	-5369
剄	-5370
喂	-5371
唔	-5372
台	-5373
劕	-5374
古	-5375
僪	-5376
喲	-5377
偪	-5378
倻	-5379
儦	-5380
勊	-5381
嗀	-5382
伽	-5383
劎	-5384
儹	-5385
冴	-5386
僗	-5387
剙	-5388
創	-5389
使	-5390
圤	-5391
卾	-5392
兛	-5393
名	-5394
吮	-5395
僚	-5396
厮	-5397
咍	-5398
后	-5399
咴	-5400
壯	-5401
咲	-5402
坶	-5403
吓	-5404
則	-5405
卑	-5406
包	-5407
刕	-5408
仾	-5409
哧	-5410
備	-5411
嘾	-5412
嚅	-5413
唉	-5414
*	-5415
儙	-5416
冖	-5417
务	-5418
匏	-5419
吚	-5420
啾	-5421
哮	-5422
卮	-5423
哶	-5424
厎	-5425
卯	-5426
咆	-5427
勃	-5428
偸	-5429
剬	-5430
勠	-5431
匤	-5432
厤	-5433
友	-5434
哤	-5435
壛	-5436
勖	-5437
哎	-5438
卓	-5439
匀	-5440
侱	-5441
勣	-5442
喱	-5443
供	-5444
呓	-5445
冭	-5446
卻	-5447
喙	-5448
嚢	-5449
刎	-5450
卛	-5451
吧	-5452
冥	-5453
匔	-5454
唋	-5455
副	-5456
伺	-5457
反	-5458
]	-5459
卿	-5460
割	-5461
侷	-5462
唛	-5463
哴	-5464
佖	-5465
唰	-5466
匡	-5467
唠	-5468
垗	-5469
唼	-5470
佹	-5471
嗹	-5472
叩	-5473
匟	-5474
剾	-5475
呧	-5476
哾	-5477
华	-5478
刑	-5479
儷	-5480
匩	-5481
厊	-5482
勂	-5483
噥	-5484
墼	-5485
咫	-5486
堧	-5487
呩	-5488
Y	-5489
劧	-5490
埕	-5491
唳	-5492
凨	-5493
婃	-5494
叙	-5495
勳	-5496
仱	-5497
匁	-5498
卌	-5499
啫	-5500
僱	-5501
兴	-5502
参	-5503
千	-5504
參	-5505
健	-5506
出	-5507
响	-5508
伲	-5509
偵	-5510
埡	-5511
塌	-5512
圇	-5513
哿	-5514
勪	-5515
夑	-5516
喾	-5517
呱	-5518
倆	-5519
喅	-5520
夕	-5521
勧	-5522
凾	-5523
吐	-5524
咛	-5525
含	-5526
听	-5527
助	-5528
咔	-5529
倶	-5530
凔	-5531
収	-5532
吤	-5533
喎	-5534
喚	-5535
僭	-5536
厭	-5537
咾	-5538
唙	-5539
叭	-5540
僨	-5541
冬	-5542
兔	-5543
人	-5544
又	-5545
噩	-5546
垜	-5547
圹	-5548
匇	-5549
卉	-5550
吞	-5551
努	-5552
呟	-5553
偹	-5554
叉	-5555
呒	-5556
坉	-5557
分	-5558
匫	-5559
冏	-5560
厌	-5561
哖	-5562
圽	-5563
在	-5564
哼	-5565
圄	-5566
哂	-5567
嘿	-5568
哑	-5569
呏	-5570
喝	-5571
呼	-5572
呁	-5573
呦	-5574
嘤	-5575
僖	-5576
哃	-5577
僞	-5578
唚	-5579
喽	-5580
唢	-5581
啒	-5582
勁	-5583
垔	-5584
啡	-5585
劬	-5586
凃	-5587
卹	-5588
厱	-5589
咧	-5590
印	-5591
卒	-5592
刞	-5593
剣	-5594
哌	-5595
匷	-5596
剷	-5597
傀	-5598
堿	-5599
偲	-5600
唯	-5601
劯	-5602
厸	-5603
夤	-5604
塐	-5605
唫	-5606
劒	-5607
勻	-5608
嘌	-5609
圓	-5610
咮	-5611
傎	-5612
噡	-5613
哅	-5614
哫	-5615
吖	-5616
圗	-5617
堛	-5618
奥	-5619
匳	-5620
嘕	-5621
刳	-5622
嗿	-5623
京	-5624
噉	-5625
卄	-5626
嗐	-5627
啞	-5628
命	-5629
啣	-5630
協	-5631
劂	-5632
凤	-5633
嗋	-5634
夫	-5635
叡	-5636
哓	-5637
厦	-5638
咀	-5639
凟	-5640
同	-5641
厴	-5642
圪	-5643
塏	-5644
吲	-5645
啥	-5646
卽	-5647
哹	-5648
堇	-5649
堷	-5650
喐	-5651
壘	-5652
即	-5653
哰	-5654
伞	-5655
啍	-5656
卍	-5657
啳	-5658
圢	-5659
偃	-5660
処	-5661
司	-5662
匢	-5663
吠	-5664
啮	-5665
哆	-5666
商	-5667
嗗	-5668
匄	-5669
呹	-5670
喨	-5671
兠	-5672
僿	-5673
吼	-5674
厇	-5675
嘍	-5676
厡	-5677
厺	-5678
圆	-5679
垚	-5680
刧	-5681
刴	-5682
剭	-5683
啩	-5684
圡	-5685
兇	-5686
哽	-5687
凙	-5688
勔	-5689
妠	-5690
噗	-5691
啗	-5692
嚜	-5693
唍	-5694
侃	-5695
券	-5696
吜	-5697
压	-5698
哞	-5699
唬	-5700
剆	-5701
侩	-5702
呾	-5703
妄	-5704
呖	-5705
叽	-5706
Q	-5707
啜	-5708
吰	-5709
厗	-5710
别	-5711
唺	-5712
劢	-5713
勽	-5714
哕	-5715
囋	-5716
哊	-5717
危	-5718
匘	-5719
启	-5720
僛	-5721
咹	-5722
偠	-5723
叆	-5724
厩	-5725
埴	-5726
具	-5727
向	-5728
僲	-5729
墶	-5730
劜	-5731
凐	-5732
圴	-5733
労	-5734
卷	-5735
偻	-5736
嚭	-5737
去	-5738
哭	-5739
侘	-5740
匱	-5741
垏	-5742
兏	-5743
嗚	-5744
奺	-5745
冋	-5746
叠	-5747
吉	-5748
刬	-5749
埽	-5750
坪	-5751
偦	-5752
圯	-5753
員	-5754
剕	-5755
匭	-5756
勓	-5757
亟	-5758
凞	-5759
媲	-5760
孊	-5761
劤	-5762
埿	-5763
噢	-5764
娇	-5765
媕	-5766
喖	-5767
刁	-5768
刈	-5769
夣	-5770
咖	-5771
塔	-5772
匓	-5773
嗠	-5774
厅	-5775
剫	-5776
卶	-5777
匊	-5778
勐	-5779
堄	-5780
啛	-5781
儚	-5782
嗾	-5783
凕	-5784
咩	-5785
墏	-5786
啙	-5787
兣	-5788
嗻	-5789
厚	-5790
塕	-5791
哱	-5792
叫	-5793
卼	-5794
啊	-5795
嘊	-5796
塤	-5797
噝	-5798
唄	-5799
坚	-5800
廲	-5801
呸	-5802
哔	-5803
膀	-5804
哬	-5805
哲	-5806
嘇	-5807
兦	-5808
咣	-5809
坣	-5810
圖	-5811
勬	-5812
唾	-5813
匙	-5814
刨	-5815
嚂	-5816
墯	-5817
佬	-5818
刵	-5819
厪	-5820
匶	-5821
勛	-5822
唪	-5823
呲	-5824
匆	-5825
動	-5826
嗖	-5827
嗙	-5828
审	-5829
娙	-5830
励	-5831
处	-5832
咶	-5833
唴	-5834
剌	-5835
勢	-5836
呞	-5837
侠	-5838
刚	-5839
勄	-5840
坵	-5841
匠	-5842
唞	-5843
咅	-5844
囎	-5845
堣	-5846
尬	-5847
哩	-5848
夨	-5849
侾	-5850
圃	-5851
善	-5852
墰	-5853
勌	-5854
勹	-5855
塁	-5856
墱	-5857
囓	-5858
壴	-5859
妦	-5860
噬	-5861
吨	-5862
唝	-5863
咇	-5864
奱	-5865
佔	-5866
劸	-5867
嚁	-5868
婞	-5869
坻	-5870
夦	-5871
厽	-5872
儎	-5873
堌	-5874
劖	-5875
伄	-5876
匹	-5877
咑	-5878
國	-5879
曀	-5880
宄	-5881
噳	-5882
坢	-5883
喜	-5884
寳	-5885
哻	-5886
坤	-5887
咚	-5888
圉	-5889
壙	-5890
尵	-5891
婕	-5892
垾	-5893
叾	-5894
凖	-5895
儝	-5896
墤	-5897
坞	-5898
啉	-5899
嚙	-5900
厰	-5901
#	-5902
嘐	-5903
判	-5904
劃	-5905
呋	-5906
劳	-5907
卭	-5908
垈	-5909
剒	-5910
夌	-5911
剁	-5912
堳	-5913
劭	-5914
嘯	-5915
^	-5916
塝	-5917
嗫	-5918
吻	-5919
啭	-5920
`	-5921
剂	-5922
劻	-5923
佩	-5924
夢	-5925
周	-5926
冩	-5927
嗊	-5928
嘅	-5929
嘦	-5930
坄	-5931
吒	-5932
倧	-5933
啚	-5934
囏	-5935
喵	-5936
嗃	-5937
噋	-5938
壖	-5939
劲	-5940
婠	-5941
崈	-5942
却	-5943
唏	-5944
嗝	-5945
堲	-5946
厵	-5947
另	-5948
勱	-5949
勩	-5950
刱	-5951
唕	-5952
侖	-5953
凥	-5954
哉	-5955
嗽	-5956
堻	-5957
劋	-5958
块	-5959
啬	-5960
圍	-5961
儻	-5962
夂	-5963
奬	-5964
孁	-5965
刀	-5966
嗷	-5967
儓	-5968
嶒	-5969
儬	-5970
圵	-5971
呻	-5972
塱	-5973
喤	-5974
坨	-5975
吕	-5976
婩	-5977
唑	-5978
嫐	-5979
宧	-5980
圷	-5981
姻	-5982
僶	-5983
喁	-5984
吳	-5985
垞	-5986
媔	-5987
咬	-5988
嗘	-5989
吶	-5990
噽	-5991
刿	-5992
呈	-5993
哷	-5994
媁	-5995
堼	-5996
得	-5997
冻	-5998
嘠	-5999
嗂	-6000
坏	-6001
唨	-6002
堈	-6003
噷	-6004
堎	-6005
斠	-6006
坦	-6007
儋	-6008
塭	-6009
圞	-6010
孷	-6011
墊	-6012
宊	-6013
塪	-6014
婥	-6015
墑	-6016
俧	-6017
医	-6018
堍	-6019
嚑	-6020
嗅	-6021
嚌	-6022
咟	-6023
單	-6024
嚹	-6025
垠	-6026
噅	-6027
劣	-6028
唿	-6029
圳	-6030
囱	-6031
伔	-6032
吱	-6033
噧	-6034
堝	-6035
刓	-6036
墲	-6037
怶	-6038
佱	-6039
址	-6040
喓	-6041
剠	-6042
啯	-6043
墀	-6044
墐	-6045
啐	-6046
嗰	-6047
囫	-6048
嗛	-6049
好	-6050
坝	-6051
坽	-6052
塍	-6053
决	-6054
剎	-6055
吔	-6056
厈	-6057
壡	-6058
嬮	-6059
坯	-6060
児	-6061
堤	-6062
妾	-6063
嘙	-6064
嗮	-6065
式	-6066
嘪	-6067
嚴	-6068
厛	-6069
嫑	-6070
劆	-6071
嘰	-6072
埑	-6073
噛	-6074
坱	-6075
庚	-6076
噂	-6077
岋	-6078
嚠	-6079
>	-6080
壦	-6081
嚱	-6082
妍	-6083
吃	-6084
垐	-6085
岖	-6086
啄	-6087
屃	-6088
唌	-6089
垆	-6090
堺	-6091
侈	-6092
厯	-6093
噏	-6094
嚿	-6095
剅	-6096
喺	-6097
叅	-6098
嗴	-6099
俻	-6100
埰	-6101
剳	-6102
坿	-6103
忨	-6104
伐	-6105
娾	-6106
墋	-6107
屇	-6108
媍	-6109
柝	-6110
厼	-6111
夽	-6112
埲	-6113
婴	-6114
宩	-6115
偳	-6116
啲	-6117
嫄	-6118
嬓	-6119
啔	-6120
奸	-6121
削	-6122
劗	-6123
嚎	-6124
実	-6125
噌	-6126
墚	-6127
姰	-6128
仟	-6129
喌	-6130
尞	-6131
堁	-6132
夳	-6133
啧	-6134
嘚	-6135
姯	-6136
壩	-6137
厝	-6138
嘥	-6139
少	-6140
品	-6141
嚪	-6142
培	-6143
奷	-6144
凯	-6145
哸	-6146
墔	-6147
尙	-6148
喫	-6149
囬	-6150
寮	-6151
抾	-6152
妓	-6153
姸	-6154
岵	-6155
劉	-6156
噇	-6157
呇	-6158
@	-6159
力	-6160
啇	-6161
圠	-6162
城	-6163
俨	-6164
喴	-6165
子	-6166
咙	-6167
嚐	-6168
哚	-6169
婟	-6170
圱	-6171
唎	-6172
尿	-6173
憀	-6174
別	-6175
娬	-6176
头	-6177
墛	-6178
剞	-6179
圊	-6180
刟	-6181
偫	-6182
嗄	-6183
奦	-6184
劺	-6185
呄	-6186
坠	-6187
厏	-6188
娪	-6189
嚫	-6190
嵹	-6191
吀	-6192
咼	-6193
呌	-6194
夝	-6195
啦	-6196
埼	-6197
尢	-6198
劔	-6199
唥	-6200
壐	-6201
砪	-6202
嚗	-6203
凩	-6204
妔	-6205
孴	-6206
噆	-6207
咃	-6208
加	-6209
哜	-6210
恥	-6211
垉	-6212
姇	-6213
澰	-6214
哗	-6215
售	-6216
嗸	-6217
崠	-6218
再	-6219
噍	-6220
兞	-6221
呪	-6222
嚋	-6223
嗦	-6224
劁	-6225
娺	-6226
唊	-6227
囍	-6228
倁	-6229
喪	-6230
岜	-6231
剏	-6232
匥	-6233
喗	-6234
埵	-6235
埶	-6236
嬢	-6237
噶	-6238
必	-6239
墻	-6240
婌	-6241
喘	-6242
兄	-6243
壌	-6244
吆	-6245
园	-6246
妨	-6247
妢	-6248
墓	-6249
囊	-6250
妉	-6251
妌	-6252
噙	-6253
唅	-6254
啨	-6255
嫡	-6256
寝	-6257
哺	-6258
媒	-6259
囿	-6260
堬	-6261
屆	-6262
呿	-6263
帆	-6264
域	-6265
劝	-6266
壿	-6267
妴	-6268
囇	-6269
奀	-6270
媅	-6271
孌	-6272
揿	-6273
孪	-6274
嘽	-6275
墟	-6276
崴	-6277
堾	-6278
婸	-6279
伾	-6280
崡	-6281
喭	-6282
埻	-6283
嘴	-6284
契	-6285
巭	-6286
帧	-6287
和	-6288
嚚	-6289
征	-6290
埥	-6291
嚓	-6292
垽	-6293
嫆	-6294
唐	-6295
忯	-6296
右	-6297
嘑	-6298
囩	-6299
填	-6300
媡	-6301
府	-6302
冑	-6303
喩	-6304
墝	-6305
婘	-6306
腳	-6307
匽	-6308
垢	-6309
囉	-6310
尴	-6311
儒	-6312
咞	-6313
壤	-6314
倯	-6315
慠	-6316
亄	-6317
奪	-6318
嵆	-6319
坮	-6320
呍	-6321
劵	-6322
叛	-6323
咒	-6324
媌	-6325
告	-6326
問	-6327
埛	-6328
喹	-6329
垝	-6330
妤	-6331
奋	-6332
唡	-6333
嗌	-6334
兢	-6335
君	-6336
坛	-6337
埙	-6338
孫	-6339
儉	-6340
匸	-6341
哛	-6342
唒	-6343
噿	-6344
奴	-6345
嵿	-6346
吇	-6347
哟	-6348
奝	-6349
孞	-6350
嫿	-6351
匬	-6352
妥	-6353
史	-6354
嗩	-6355
圬	-6356
岅	-6357
仝	-6358
圿	-6359
劑	-6360
厀	-6361
始	-6362
媾	-6363
尗	-6364
墮	-6365
峹	-6366
廖	-6367
唣	-6368
喯	-6369
妺	-6370
嗭	-6371
场	-6372
崐	-6373
奙	-6374
嗏	-6375
劚	-6376
嗞	-6377
夥	-6378
夯	-6379
墂	-6380
嵺	-6381
営	-6382
嚡	-6383
壭	-6384
妖	-6385
姁	-6386
土	-6387
坖	-6388
巗	-6389
囶	-6390
嫳	-6391
倕	-6392
嘲	-6393
夹	-6394
呫	-6395
妃	-6396
卟	-6397
哐	-6398
婔	-6399
嫒	-6400
塜	-6401
惄	-6402
敨	-6403
圭	-6404
嗤	-6405
囷	-6406
尸	-6407
岢	-6408
凌	-6409
喷	-6410
嚳	-6411
巚	-6412
哝	-6413
幏	-6414
味	-6415
坃	-6416
卐	-6417
嶟	-6418
弁	-6419
圁	-6420
夡	-6421
勫	-6422
染	-6423
娆	-6424
嬋	-6425
卦	-6426
嚝	-6427
奄	-6428
奫	-6429
寨	-6430
唇	-6431
孟	-6432
~	-6433
吥	-6434
堡	-6435
婱	-6436
奧	-6437
娩	-6438
楛	-6439
啴	-6440
塰	-6441
抆	-6442
冊	-6443
卵	-6444
圅	-6445
塖	-6446
壼	-6447
姙	-6448
囮	-6449
奤	-6450
壽	-6451
彠	-6452
垟	-6453
侓	-6454
夘	-6455
嫧	-6456
孲	-6457
寣	-6458
喏	-6459
垃	-6460
媳	-6461
尯	-6462
嶞	-6463
刪	-6464
峜	-6465
慎	-6466
婜	-6467
富	-6468
屛	-6469
嘢	-6470
噰	-6471
尻	-6472
塠	-6473
墬	-6474
对	-6475
崖	-6476
呛	-6477
嬵	-6478
彘	-6479
囻	-6480
儧	-6481
弓	-6482
噖	-6483
夗	-6484
帡	-6485
吝	-6486
唧	-6487
喼	-6488
囜	-6489
奂	-6490
孏	-6491
嘈	-6492
埆	-6493
埩	-6494
峾	-6495
冉	-6496
哈	-6497
壗	-6498
蛷	-6499
佾	-6500
姒	-6501
壮	-6502
姆	-6503
嫺	-6504
刮	-6505
喠	-6506
埞	-6507
形	-6508
戕	-6509
澨	-6510
孯	-6511
拶	-6512
坥	-6513
嫖	-6514
嬻	-6515
損	-6516
噺	-6517
媴	-6518
喃	-6519
寇	-6520
岀	-6521
噠	-6522
嬙	-6523
嚞	-6524
坈	-6525
剓	-6526
吡	-6527
嬫	-6528
可	-6529
囯	-6530
堊	-6531
塅	-6532
嬾	-6533
堙	-6534
弎	-6535
浅	-6536
峁	-6537
塉	-6538
嶑	-6539
抹	-6540
漡	-6541
劅	-6542
嘞	-6543
墷	-6544
夲	-6545
噟	-6546
娉	-6547
尛	-6548
囀	-6549
堯	-6550
岲	-6551
叜	-6552
壈	-6553
導	-6554
妮	-6555
度	-6556
弝	-6557
儞	-6558
媬	-6559
囐	-6560
囸	-6561
坼	-6562
埅	-6563
妗	-6564
墁	-6565
婓	-6566
媟	-6567
宸	-6568
奲	-6569
宐	-6570
呢	-6571
噀	-6572
嚻	-6573
嗬	-6574
喡	-6575
坸	-6576
執	-6577
帐	-6578
忒	-6579
十	-6580
器	-6581
娜	-6582
咘	-6583
垵	-6584
嫘	-6585
很	-6586
叒	-6587
孥	-6588
夛	-6589
庶	-6590
檓	-6591
刍	-6592
嬉	-6593
単	-6594
圲	-6595
士	-6596
媀	-6597
匼	-6598
妙	-6599
嵏	-6600
吷	-6601
寄	-6602
壚	-6603
凎	-6604
嗎	-6605
嫔	-6606
噕	-6607
垹	-6608
埍	-6609
屣	-6610
嚶	-6611
埘	-6612
崯	-6613
屸	-6614
巖	-6615
尽	-6616
幰	-6617
悦	-6618
基	-6619
婳	-6620
尶	-6621
坺	-6622
堪	-6623
婻	-6624
密	-6625
怩	-6626
椿	-6627
哀	-6628
均	-6629
坫	-6630
戆	-6631
剡	-6632
劥	-6633
哦	-6634
垣	-6635
媊	-6636
岶	-6637
匨	-6638
嘒	-6639
壳	-6640
姅	-6641
州	-6642
媓	-6643
巠	-6644
庩	-6645
叕	-6646
嘓	-6647
娟	-6648
寺	-6649
峐	-6650
図	-6651
媃	-6652
圮	-6653
岹	-6654
咿	-6655
宿	-6656
嘜	-6657
勅	-6658
帊	-6659
幍	-6660
嚬	-6661
堐	-6662
妕	-6663
庑	-6664
喛	-6665
姽	-6666
婈	-6667
咥	-6668
堑	-6669
履	-6670
埧	-6671
婺	-6672
嬠	-6673
孭	-6674
宜	-6675
娨	-6676
嬇	-6677
張	-6678
吭	-6679
墢	-6680
劐	-6681
嘀	-6682
嚃	-6683
嚔	-6684
娝	-6685
峰	-6686
囧	-6687
埳	-6688
姱	-6689
娦	-6690
媪	-6691
怖	-6692
嫙	-6693
嶗	-6694
氍	-6695
婊	-6696
庄	-6697
厷	-6698
呵	-6699
婇	-6700
官	-6701
恦	-6702
咸	-6703
堘	-6704
奒	-6705
媨	-6706
叶	-6707
塾	-6708
壶	-6709
嶔	-6710
墵	-6711
奏	-6712
勈	-6713
嘄	-6714
壪	-6715
孓	-6716
徔	-6717
楳	-6718
堢	-6719
多	-6720
失	-6721
妒	-6722
威	-6723
塢	-6724
媮	-6725
怽	-6726
埝	-6727
备	-6728
嫸	-6729
孺	-6730
废	-6731
擗	-6732
堖	-6733
奘	-6734
娋	-6735
寷	-6736
巿	-6737
剿	-6738
婋	-6739
揼	-6740
坎	-6741
垥	-6742
宵	-6743
昭	-6744
姝	-6745
峱	-6746
垇	-6747
[	-6748
呴	-6749
哠	-6750
啱	-6751
嬕	-6752
嬬	-6753
巯	-6754
懵	-6755
困	-6756
囹	-6757
奉	-6758
姑	-6759
宁	-6760
壅	-6761
媞	-6762
尌	-6763
嗨	-6764
媋	-6765
宔	-6766
嶥	-6767
怚	-6768
垯	-6769
够	-6770
樛	-6771
咳	-6772
唆	-6773
噴	-6774
垛	-6775
咏	-6776
囄	-6777
墳	-6778
孙	-6779
嶻	-6780
巊	-6781
巳	-6782
忑	-6783
囕	-6784
吿	-6785
嚖	-6786
埪	-6787
墡	-6788
墸	-6789
売	-6790
尤	-6791
屾	-6792
岁	-6793
姞	-6794
寞	-6795
嗥	-6796
噱	-6797
垬	-6798
岯	-6799
塄	-6800
娧	-6801
宨	-6802
埦	-6803
塚	-6804
妭	-6805
剚	-6806
劍	-6807
喟	-6808
嘮	-6809
娑	-6810
帢	-6811
怎	-6812
咢	-6813
唶	-6814
塨	-6815
外	-6816
奅	-6817
寲	-6818
愉	-6819
懼	-6820
滐	-6821
吵	-6822
埣	-6823
壇	-6824
嬎	-6825
寪	-6826
屵	-6827
帋	-6828
帵	-6829
惆	-6830
呷	-6831
圌	-6832
夷	-6833
娭	-6834
娽	-6835
揻	-6836
埓	-6837
姥	-6838
嫱	-6839
尣	-6840
崕	-6841
棽	-6842
咕	-6843
啟	-6844
囈	-6845
塮	-6846
奨	-6847
娖	-6848
寱	-6849
彁	-6850
塼	-6851
媈	-6852
庎	-6853
抻	-6854
咤	-6855
嘬	-6856
嶴	-6857
弆	-6858
往	-6859
孅	-6860
寧	-6861
巓	-6862
忁	-6863
唀	-6864
唟	-6865
弮	-6866
动	-6867
圛	-6868
坑	-6869
垊	-6870
悏	-6871
撖	-6872
匜	-6873
奆	-6874
尰	-6875
店	-6876
卙	-6877
堞	-6878
岙	-6879
恒	-6880
娴	-6881
崧	-6882
嶍	-6883
揹	-6884
坂	-6885
垖	-6886
姟	-6887
圙	-6888
妟	-6889
慬	-6890
曈	-6891
圧	-6892
墆	-6893
奟	-6894
宏	-6895
庢	-6896
恨	-6897
撟	-6898
勶	-6899
嘆	-6900
居	-6901
幨	-6902
彭	-6903
嗕	-6904
嘘	-6905
堨	-6906
嫁	-6907
嬹	-6908
廱	-6909
弜	-6910
愭	-6911
嘗	-6912
埾	-6913
孱	-6914
峵	-6915
胏	-6916
剔	-6917
寉	-6918
嵤	-6919
嶛	-6920
諷	-6921
嚦	-6922
娫	-6923
志	-6924
恄	-6925
惞	-6926
凡	-6927
卸	-6928
取	-6929
嗔	-6930
埸	-6931
堥	-6932
壋	-6933
屡	-6934
岬	-6935
忔	-6936
劰	-6937
垼	-6938
嬂	-6939
搁	-6940
羂	-6941
啅	-6942
婶	-6943
射	-6944
愂	-6945
劀	-6946
啋	-6947
圈	-6948
塓	-6949
囝	-6950
夓	-6951
宂	-6952
帬	-6953
廵	-6954
圎	-6955
婄	-6956
媯	-6957
嫃	-6958
宪	-6959
协	-6960
塆	-6961
妣	-6962
娤	-6963
婹	-6964
尨	-6965
啢	-6966
嘻	-6967
埏	-6968
墹	-6969
壄	-6970
媎	-6971
孰	-6972
吟	-6973
喇	-6974
喣	-6975
囼	-6976
坟	-6977
埐	-6978
堔	-6979
妞	-6980
妡	-6981
庡	-6982
獟	-6983
瑩	-6984
唵	-6985
堜	-6986
娅	-6987
娲	-6988
孛	-6989
尼	-6990
喈	-6991
婤	-6992
峮	-6993
懹	-6994
噜	-6995
堚	-6996
姂	-6997
尫	-6998
峼	-6999
朖	-7000
嬞	-7001
岡	-7002
崬	-7003
徿	-7004
恣	-7005
曶	-7006
槮	-7007
吙	-7008
喊	-7009
塘	-7010
奿	-7011
坡	-7012
婏	-7013
媧	-7014
嬴	-7015
孹	-7016
庽	-7017
悐	-7018
柧	-7019
塯	-7020
奵	-7021
峏	-7022
帯	-7023
幺	-7024
弥	-7025
待	-7026
挢	-7027
妇	-7028
媦	-7029
宍	-7030
岞	-7031
巙	-7032
徃	-7033
揕	-7034
楕	-7035
巡	-7036
慴	-7037
猳	-7038
哘	-7039
埨	-7040
堟	-7041
墭	-7042
嫼	-7043
崦	-7044
怷	-7045
厃	-7046
嘩	-7047
圝	-7048
墘	-7049
唦	-7050
唲	-7051
塿	-7052
婿	-7053
戞	-7054
晱	-7055
卜	-7056
峷	-7057
崩	-7058
幹	-7059
撡	-7060
嗡	-7061
坓	-7062
埜	-7063
妲	-7064
娹	-7065
嬖	-7066
岾	-7067
嶪	-7068
川	-7069
幪	-7070
弄	-7071
所	-7072
掘	-7073
卖	-7074
嗺	-7075
奎	-7076
宲	-7077
巢	-7078
徚	-7079
忢	-7080
怓	-7081
擟	-7082
欝	-7083
嫣	-7084
徏	-7085
捽	-7086
棪	-7087
匈	-7088
姃	-7089
徝	-7090
忬	-7091
怸	-7092
戠	-7093
吘	-7094
咓	-7095
堒	-7096
壵	-7097
姏	-7098
崗	-7099
惭	-7100
姠	-7101
媭	-7102
嫈	-7103
寕	-7104
屙	-7105
嶕	-7106
廞	-7107
搈	-7108
媫	-7109
嫲	-7110
嵧	-7111
憿	-7112
<	-7113
写	-7114
剪	-7115
唘	-7116
嗓	-7117
嘶	-7118
囆	-7119
塋	-7120
壟	-7121
嬿	-7122
孿	-7123
忩	-7124
惽	-7125
極	-7126
半	-7127
喕	-7128
垎	-7129
堩	-7130
嫕	-7131
嵪	-7132
应	-7133
廸	-7134
心	-7135
慮	-7136
曚	-7137
姖	-7138
娄	-7139
宗	-7140
寜	-7141
屔	-7142
年	-7143
弰	-7144
怋	-7145
愅	-7146
喬	-7147
圻	-7148
埚	-7149
妳	-7150
婛	-7151
嫝	-7152
嬊	-7153
嬐	-7154
崝	-7155
忙	-7156
悤	-7157
惍	-7158
愱	-7159
巣	-7160
幁	-7161
撜	-7162
棣	-7163
楸	-7164
号	-7165
姕	-7166
娃	-7167
寙	-7168
廝	-7169
劦	-7170
叔	-7171
垁	-7172
垑	-7173
妶	-7174
寛	-7175
幟	-7176
滘	-7177
噸	-7178
娘	-7179
嬁	-7180
孈	-7181
希	-7182
忺	-7183
竧	-7184
嘔	-7185
噲	-7186
囗	-7187
夞	-7188
嫽	-7189
嬷	-7190
巇	-7191
帍	-7192
帼	-7193
徣	-7194
忪	-7195
旜	-7196
喍	-7197
埃	-7198
塴	-7199
墺	-7200
嬒	-7201
宮	-7202
廣	-7203
忏	-7204
呯	-7205
圜	-7206
嵽	-7207
巒	-7208
庪	-7209
廠	-7210
槤	-7211
哢	-7212
坁	-7213
墴	-7214
寋	-7215
尉	-7216
尝	-7217
崳	-7218
嵣	-7219
嶈	-7220
嶡	-7221
彞	-7222
慃	-7223
慩	-7224
摾	-7225
嗶	-7226
堦	-7227
寅	-7228
崀	-7229
嶝	-7230
廉	-7231
性	-7232
扷	-7233
嚄	-7234
垻	-7235
堵	-7236
娏	-7237
媝	-7238
嫜	-7239
嬭	-7240
庤	-7241
弃	-7242
弞	-7243
彙	-7244
攍	-7245
斜	-7246
厧	-7247
嗲	-7248
園	-7249
嬯	-7250
孵	-7251
岭	-7252
幠	-7253
欫	-7254
啎	-7255
嘹	-7256
塧	-7257
壁	-7258
婢	-7259
媄	-7260
嵁	-7261
巏	-7262
廰	-7263
彇	-7264
径	-7265
怘	-7266
扠	-7267
挭	-7268
椃	-7269
倜	-7270
嘵	-7271
墦	-7272
壣	-7273
夙	-7274
妿	-7275
專	-7276
已	-7277
帩	-7278
帻	-7279
廽	-7280
慝	-7281
囃	-7282
婚	-7283
庀	-7284
徟	-7285
怦	-7286
怿	-7287
悴	-7288
悿	-7289
掶	-7290
勒	-7291
妐	-7292
媿	-7293
宝	-7294
宼	-7295
幤	-7296
恙	-7297
愷	-7298
斲	-7299
昫	-7300
晲	-7301
楱	-7302
唷	-7303
噫	-7304
垌	-7305
垿	-7306
奖	-7307
幇	-7308
彟	-7309
抃	-7310
楔	-7311
濠	-7312
熯	-7313
報	-7314
婍	-7315
孂	-7316
寗	-7317
岨	-7318
帤	-7319
復	-7320
挸	-7321
旨	-7322
嗵	-7323
壕	-7324
寂	-7325
尐	-7326
彡	-7327
彨	-7328
瀌	-7329
坐	-7330
墖	-7331
夬	-7332
孆	-7333
尊	-7334
岓	-7335
慳	-7336
摕	-7337
洈	-7338
澴	-7339
叓	-7340
咜	-7341
唹	-7342
嘸	-7343
囡	-7344
塒	-7345
带	-7346
帺	-7347
廋	-7348
恃	-7349
抶	-7350
旈	-7351
堠	-7352
奠	-7353
崿	-7354
巂	-7355
巼	-7356
忉	-7357
恆	-7358
惑	-7359
懭	-7360
喀	-7361
嚏	-7362
围	-7363
嬅	-7364
察	-7365
巸	-7366
庲	-7367
嘛	-7368
坕	-7369
奌	-7370
娸	-7371
抯	-7372
枮	-7373
嚤	-7374
坋	-7375
堏	-7376
娞	-7377
巟	-7378
弼	-7379
忱	-7380
恝	-7381
惈	-7382
擛	-7383
昀	-7384
喢	-7385
噞	-7386
团	-7387
圐	-7388
姲	-7389
巎	-7390
帟	-7391
弱	-7392
愯	-7393
抲	-7394
搲	-7395
嗉	-7396
坴	-7397
妧	-7398
姼	-7399
娼	-7400
孡	-7401
岰	-7402
崆	-7403
崻	-7404
廯	-7405
弅	-7406
怉	-7407
狎	-7408
寬	-7409
崹	-7410
帑	-7411
慰	-7412
掭	-7413
暬	-7414
厥	-7415
吣	-7416
壍	-7417
壢	-7418
姺	-7419
孖	-7420
岔	-7421
嶵	-7422
彂	-7423
怂	-7424
怏	-7425
搎	-7426
晳	-7427
坭	-7428
坲	-7429
壨	-7430
姤	-7431
寓	-7432
尋	-7433
尩	-7434
悞	-7435
披	-7436
击	-7437
咺	-7438
噼	-7439
夾	-7440
妹	-7441
嶋	-7442
惘	-7443
摥	-7444
攇	-7445
楼	-7446
历	-7447
呑	-7448
夒	-7449
夠	-7450
娯	-7451
崎	-7452
崢	-7453
崾	-7454
帣	-7455
柈	-7456
嘟	-7457
埊	-7458
媱	-7459
孇	-7460
序	-7461
効	-7462
勏	-7463
否	-7464
囥	-7465
囪	-7466
妱	-7467
嬦	-7468
宒	-7469
巷	-7470
抢	-7471
擑	-7472
殂	-7473
圦	-7474
場	-7475
央	-7476
妆	-7477
孬	-7478
峎	-7479
崑	-7480
嶣	-7481
彰	-7482
急	-7483
怹	-7484
慂	-7485
慭	-7486
拁	-7487
搌	-7488
搽	-7489
擏	-7490
昚	-7491
垂	-7492
墣	-7493
委	-7494
帪	-7495
彬	-7496
晦	-7497
桶	-7498
椒	-7499
硿	-7500
剧	-7501
双	-7502
呡	-7503
坆	-7504
夆	-7505
婪	-7506
寊	-7507
德	-7508
总	-7509
悘	-7510
愹	-7511
扴	-7512
择	-7513
掝	-7514
搃	-7515
擮	-7516
旍	-7517
熇	-7518
塞	-7519
媥	-7520
崞	-7521
弘	-7522
彝	-7523
忓	-7524
悆	-7525
榟	-7526
団	-7527
墌	-7528
屢	-7529
峑	-7530
崔	-7531
嶺	-7532
庯	-7533
彲	-7534
彽	-7535
怡	-7536
惃	-7537
憧	-7538
戇	-7539
撿	-7540
渼	-7541
舭	-7542
啪	-7543
坔	-7544
堓	-7545
塗	-7546
塡	-7547
娚	-7548
媤	-7549
嫢	-7550
局	-7551
屉	-7552
崄	-7553
嶤	-7554
忎	-7555
忭	-7556
憆	-7557
抜	-7558
暹	-7559
渹	-7560
脞	-7561
呅	-7562
唭	-7563
喔	-7564
嗧	-7565
嘨	-7566
圑	-7567
埉	-7568
塎	-7569
塬	-7570
妈	-7571
婵	-7572
嫻	-7573
孜	-7574
嵃	-7575
布	-7576
徢	-7577
徻	-7578
搗	-7579
撄	-7580
洚	-7581
薴	-7582
囑	-7583
媙	-7584
崃	-7585
崵	-7586
嵓	-7587
徑	-7588
忌	-7589
恌	-7590
惮	-7591
愪	-7592
昮	-7593
棦	-7594
槲	-7595
叻	-7596
喦	-7597
囵	-7598
埱	-7599
宾	-7600
崤	-7601
嶨	-7602
慹	-7603
桀	-7604
殉	-7605
组	-7606
嘉	-7607
囖	-7608
堀	-7609
夿	-7610
奇	-7611
妝	-7612
娢	-7613
婡	-7614
媣	-7615
嬌	-7616
孢	-7617
宦	-7618
寒	-7619
嵞	-7620
廦	-7621
恠	-7622
惜	-7623
揸	-7624
柔	-7625
楹	-7626
緑	-7627
叵	-7628
叿	-7629
姀	-7630
姷	-7631
嫞	-7632
嶠	-7633
幆	-7634
庈	-7635
彃	-7636
徆	-7637
惗	-7638
椷	-7639
碓	-7640
嚽	-7641
声	-7642
夀	-7643
屼	-7644
嵈	-7645
忳	-7646
忽	-7647
悝	-7648
摎	-7649
槪	-7650
蓙	-7651
勥	-7652
呥	-7653
墒	-7654
娕	-7655
婦	-7656
婾	-7657
孕	-7658
峘	-7659
嶰	-7660
干	-7661
昧	-7662
桿	-7663
梃	-7664
椆	-7665
楴	-7666
洑	-7667
煥	-7668
复	-7669
尧	-7670
峓	-7671
嶓	-7672
帜	-7673
愕	-7674
戊	-7675
捛	-7676
捩	-7677
摝	-7678
撎	-7679
攤	-7680
斄	-7681
桪	-7682
沓	-7683
炎	-7684
哇	-7685
嚼	-7686
埋	-7687
墥	-7688
墩	-7689
娂	-7690
娒	-7691
弻	-7692
恇	-7693
想	-7694
攫	-7695
旤	-7696
爅	-7697
及	-7698
夻	-7699
宴	-7700
帒	-7701
幣	-7702
怔	-7703
懈	-7704
推	-7705
摗	-7706
撈	-7707
栭	-7708
烪	-7709
匾	-7710
壞	-7711
夎	-7712
妀	-7713
婉	-7714
嬃	-7715
岆	-7716
岱	-7717
庝	-7718
憢	-7719
掠	-7720
搐	-7721
暨	-7722
梘	-7723
棷	-7724
榇	-7725
济	-7726
菃	-7727
剱	-7728
吂	-7729
呤	-7730
咦	-7731
嘳	-7732
噪	-7733
妽	-7734
媛	-7735
嬗	-7736
寏	-7737
尀	-7738
峉	-7739
峙	-7740
彵	-7741
忷	-7742
惻	-7743
未	-7744
橂	-7745
咂	-7746
囁	-7747
宣	-7748
容	-7749
屁	-7750
嵾	-7751
幬	-7752
底	-7753
徜	-7754
扇	-7755
敘	-7756
榶	-7757
檷	-7758
剴	-7759
團	-7760
增	-7761
奍	-7762
妬	-7763
嫛	-7764
嬧	-7765
寿	-7766
嵔	-7767
庵	-7768
彐	-7769
愆	-7770
投	-7771
揗	-7772
晫	-7773
曩	-7774
朸	-7775
机	-7776
杛	-7777
泜	-7778
嘫	-7779
垓	-7780
妜	-7781
媚	-7782
寭	-7783
岤	-7784
巴	-7785
帄	-7786
帏	-7787
帱	-7788
庹	-7789
彔	-7790
忂	-7791
挼	-7792
搧	-7793
擶	-7794
斞	-7795
唁	-7796
喞	-7797
囨	-7798
墅	-7799
壝	-7800
姍	-7801
婷	-7802
媉	-7803
巬	-7804
幸	-7805
忖	-7806
愋	-7807
愧	-7808
懥	-7809
掆	-7810
控	-7811
敄	-7812
斥	-7813
槳	-7814
橩	-7815
橸	-7816
只	-7817
员	-7818
囒	-7819
囟	-7820
坘	-7821
嫉	-7822
嬱	-7823
嬳	-7824
孧	-7825
岿	-7826
师	-7827
廁	-7828
引	-7829
怬	-7830
恹	-7831
憒	-7832
懇	-7833
懊	-7834
打	-7835
撍	-7836
旆	-7837
昛	-7838
昲	-7839
暎	-7840
暿	-7841
泴	-7842
涚	-7843
滭	-7844
匲	-7845
呃	-7846
嘂	-7847
墠	-7848
婑	-7849
婮	-7850
孾	-7851
尖	-7852
尹	-7853
岩	-7854
峦	-7855
崘	-7856
庮	-7857
惩	-7858
愥	-7859
愲	-7860
憝	-7861
憡	-7862
挄	-7863
挮	-7864
擐	-7865
晓	-7866
曻	-7867
楻	-7868
檂	-7869
討	-7870
哯	-7871
地	-7872
堋	-7873
夈	-7874
婅	-7875
婽	-7876
岚	-7877
峄	-7878
巺	-7879
廇	-7880
弙	-7881
悢	-7882
懿	-7883
柏	-7884
櫌	-7885
歍	-7886
歼	-7887
埖	-7888
媠	-7889
媹	-7890
孋	-7891
屚	-7892
岘	-7893
嵅	-7894
嵇	-7895
幭	-7896
悰	-7897
懻	-7898
挪	-7899
揓	-7900
揾	-7901
撉	-7902
棖	-7903
咊	-7904
囘	-7905
坊	-7906
増	-7907
崺	-7908
嶏	-7909
巕	-7910
庐	-7911
廙	-7912
恴	-7913
恼	-7914
恾	-7915
戍	-7916
捉	-7917
旀	-7918
楏	-7919
榈	-7920
樞	-7921
檪	-7922
歾	-7923
煅	-7924
狻	-7925
佽	-7926
唱	-7927
嚣	-7928
四	-7929
奞	-7930
娐	-7931
就	-7932
幧	-7933
庫	-7934
弣	-7935
弪	-7936
慕	-7937
戃	-7938
搊	-7939
摰	-7940
擖	-7941
榋	-7942
殮	-7943
毚	-7944
滄	-7945
哄	-7946
嘷	-7947
囅	-7948
垫	-7949
埄	-7950
墕	-7951
婯	-7952
尭	-7953
尳	-7954
岟	-7955
岥	-7956
嵉	-7957
嵗	-7958
庼	-7959
彴	-7960
怨	-7961
摤	-7962
敎	-7963
橅	-7964
浯	-7965
皚	-7966
图	-7967
垶	-7968
塂	-7969
太	-7970
娌	-7971
娵	-7972
嬸	-7973
孔	-7974
孼	-7975
幵	-7976
拦	-7977
捕	-7978
捠	-7979
摉	-7980
晒	-7981
暮	-7982
樭	-7983
泛	-7984
垲	-7985
嫨	-7986
寃	-7987
屿	-7988
崣	-7989
悍	-7990
慔	-7991
扝	-7992
技	-7993
晑	-7994
晤	-7995
楢	-7996
