<unk>	0
<s>	0
</s>	0
▁0	-0
▁-	-1
▁-0	-2
▁1	-3
்க	-4
▁2	-5
்த	-6
ம்	-7
ன்	-8
ல்	-9
▁ப	-10
▁3	-11
்ட	-12
ப்	-13
▁க	-14
▁ம	-15
க்க	-16
ர்	-17
ிய	-18
ும்	-19
▁இ	-20
ப்ப	-21
த்த	-22
▁த	-23
▁வ	-24
▁அ	-25
ள்	-26
ில்	-27
ட்ட	-28
து	-29
ரு	-30
▁ச	-31
▁4	-32
ந்த	-33
55	-34
16	-35
06	-36
14	-37
24	-38
36	-39
04	-40
34	-41
26	-42
27	-43
17	-44
07	-45
94	-46
96	-47
08	-48
18	-49
37	-50
28	-51
97	-52
38	-53
54	-54
98	-55
56	-56
57	-57
58	-58
▁ந	-59
ின்	-60
ைய	-61
ற்	-62
ாக	-63
ங்க	-64
▁ஆ	-65
13	-66
03	-67
23	-68
▁எ	-69
93	-70
53	-71
டு	-72
ற்ற	-73
02	-74
12	-75
▁உ	-76
92	-77
ண்ட	-78
52	-79
ில	-80
்ச	-81
01	-82
66	-83
05	-84
ிற	-85
ிர	-86
44	-87
ள்ள	-88
95	-89
77	-90
ிக	-91
88	-92
91	-93
ான	-94
64	-95
▁04	-96
67	-97
ன்ற	-98
15	-99
▁07	-100
68	-101
▁08	-102
ுத	-103
09	-104
22	-105
ுக	-106
▁14	-107
33	-108
ார்	-109
11	-110
="	-111
▁18	-112
▁17	-113
99	-114
ர்க	-115
▁ஒ	-116
ரா	-117
டி	-118
ுக்க	-119
25	-120
74	-121
ந்து	-122
00	-123
ுற	-124
ைக	-125
▁06	-126
84	-127
ிக்க	-128
▁24	-129
19	-130
ிரு	-131
ின	-132
ாவ	-133
ுவ	-134
32	-135
78	-136
35	-137
▁16	-138
▁5	-139
ur	-140
▁செ	-141
id	-142
த்	-143
oc	-144
ik	-145
▁<	-146
iki	-147
wiki	-148
மை	-149
ப்பட்ட	-150
▁பெ	-151
doc	-152
▁தொ	-153
▁கா	-154
லை	-155
76	-156
▁(	-157
ரி	-158
▁03	-159
▁28	-160
▁வி	-161
▁02	-162
51	-163
ன்ப	-164
ாட்ட	-165
▁கொ	-166
▁12	-167
59	-168
த்தில்	-169
▁13	-170
▁இரு	-171
▁இந்த	-172
ால்	-173
ட்ச	-174
ளை	-175
டுக	-176
48	-177
ல்ல	-178
ச்ச	-179
▁27	-180
▁போ	-181
▁6	-182
▁26	-183
ய்	-184
▁உள்ள	-185
▁ஒரு	-186
▁20	-187
▁மு	-188
10	-189
ளில்	-190
86	-191
87	-192
ன்ன	-193
▁மற்ற	-194
ார	-195
46	-196
▁19	-197
29	-198
▁இவ	-199
47	-200
ிவ	-201
ாத	-202
ம்ப	-203
21	-204
ண்டு	-205
மி	-206
ிறது	-207
▁09	-208
ோய	-209
▁01	-210
ின்ற	-211
ால	-212
39	-213
31	-214
▁ஊ	-215
▁மற்றும்	-216
ுட	-217
▁10	-218
▁11	-219
▁00	-220
ழ்	-221
ண்	-222
ப்பட	-223
▁ஆக	-224
ப்பு	-225
▁05	-226
ற்க	-227
ஸ்	-228
க்	-229
or	-230
▁என்ற	-231
ச்	-232
ti	-233
▁வெ	-234
▁34	-235
▁அவ	-236
▁15	-237
று	-238
le	-239
த்து	-240
ta	-241
தி	-242
ia	-243
▁22	-244
லா	-245
டை	-246
ed	-247
▁23	-248
▁அமை	-249
tt	-250
னர்	-251
90	-252
ட்சி	-253
▁or	-254
htt	-255
http	-256
//	-257
://	-258
குத	-259
▁</	-260
tit	-261
▁org	-262
https	-263
edia	-264
cur	-265
">	-266
url	-267
pedia	-268
▁wiki	-269
▁wikipedia	-270
▁id	-271
title	-272
▁title	-273
▁url	-274
curid	-275
ர்கள்	-276
73	-277
ுக்கு	-278
ட்	-279
63	-280
▁21	-281
ளின்	-282
டுத்த	-283
▁"	-284
▁கு	-285
மாக	-286
க்கு	-287
ரை	-288
ையில்	-289
75	-290
65	-291
வி	-292
ட்டு	-293
72	-294
62	-295
வு	-296
▁அத	-297
83	-298
▁மே	-299
▁பொ	-300
▁தே	-301
▁மா	-302
ைக்	-303
85	-304
▁பிர	-305
82	-306
▁குற	-307
ான்	-308
ற்ப	-309
▁ஏ	-310
ுள்ள	-311
43	-312
▁முத	-313
ப்படுக	-314
▁பா	-315
ரும்	-316
45	-317
▁என்ப	-318
மான	-319
ாள	-320
ரிய	-321
42	-322
▁தமி	-323
▁25	-324
▁ஊரா	-325
▁என	-326
ங்கள்	-327
வும்	-328
ோயில்	-329
ரச	-330
▁வே	-331
▁37	-332
வா	-333
▁36	-334
▁அற	-335
▁38	-336
த்தின்	-337
ியில்	-338
▁7	-339
▁நா	-340
ையும்	-341
20	-342
ிட	-343
▁திரு	-344
▁இத	-345
▁செய	-346
▁ஊராட்சி	-347
▁சே	-348
▁மக்க	-349
▁29	-350
ிப்ப	-351
ூர்	-352
▁பய	-353
ங்கள	-354
▁மூ	-355
்கள்	-356
ழு	-357
ாகும்	-358
61	-359
▁30	-360
▁பு	-361
ித்த	-362
னை	-363
50	-364
ிலும்	-365
▁33	-366
▁கூ	-367
மா	-368
69	-369
வே	-370
▁வா	-371
81	-372
▁பே	-373
▁31	-374
ியல்	-375
71	-376
கை	-377
வை	-378
▁32	-379
த்தை	-380
79	-381
89	-382
வர்	-383
▁இது	-384
ித	-385
க்கும்	-386
▁ஜ	-387
▁பல	-388
ிற்க	-389
41	-390
▁ஆண்ட	-391
▁கோ	-392
▁வழ	-393
டிய	-394
49	-395
▁கொண்ட	-396
▁இந்திய	-397
பு	-398
▁தொட	-399
நில	-400
▁சு	-401
▁கி	-402
ிகள	-403
30	-404
▁தமிழ்	-405
ந்துள்ள	-406
சு	-407
ர்கள	-408
▁இய	-409
▁இக்க	-410
▁நில	-411
வில்	-412
ிகள்	-413
சிய	-414
ர்த	-415
▁மொ	-416
▁ஆகும்	-417
▁அல்ல	-418
கு	-419
ைகள்	-420
ப்பாட்ட	-421
ண்ண	-422
▁து	-423
▁வெள	-424
ர்ந்த	-425
ராக	-426
ப்படுகிறது	-427
ாம	-428
ின்றன	-429
ுகள்	-430
ிட்ட	-431
ஞ்ச	-432
▁ஆம்	-433
ர்வ	-434
ன்று	-435
ிரை	-436
▁நீ	-437
▁தெ	-438
▁நூ	-439
ாவட்ட	-440
▁நட	-441
▁சிற	-442
▁நிற	-443
ங்கு	-444
ையின்	-445
லி	-446
▁44	-447
பா	-448
ரம்	-449
▁அமைந்துள்ள	-450
பெ	-451
▁இட	-452
ுடன்	-453
ுத்	-454
ரோ	-455
▁பின்	-456
மைய	-457
லக	-458
▁54	-459
▁இர	-460
ுறை	-461
▁மாவட்ட	-462
நா	-463
▁அரச	-464
ம்ம	-465
▁35	-466
ப்பட்டது	-467
▁பி	-468
ணை	-469
▁மீ	-470
ிக்	-471
▁201	-472
▁கரு	-473
▁கோயில்	-474
▁ஆகிய	-475
▁உள்ளது	-476
▁உரு	-477
ுக்	-478
ற்று	-479
ய்ய	-480
▁பகுத	-481
லம்	-482
▁இருந்த	-483
60	-484
▁ஆண்டு	-485
▁198	-486
▁சம	-487
▁55	-488
▁பயன்ப	-489
80	-490
விய	-491
▁என்பது	-492
▁கண	-493
ப்படும்	-494
▁39	-495
▁ஐ	-496
▁ட	-497
▁197	-498
தாக	-499
▁அம	-500
சி	-501
▁56	-502
284	-503
▁அல்லது	-504
▁ய	-505
▁மக்கள்	-506
074	-507
144	-508
ாம்	-509
064	-510
ற்கு	-511
▁40	-512
084	-513
184	-514
244	-515
ங்களில்	-516
274	-517
264	-518
364	-519
374	-520
▁வள	-521
▁196	-522
384	-523
044	-524
174	-525
944	-526
▁பூ	-527
164	-528
▁இவர்	-529
344	-530
▁தன	-531
▁கொண்டு	-532
▁கட	-533
70	-534
▁பிற	-535
▁044	-536
ோயில	-537
சை	-538
▁அள	-539
584	-540
▁054	-541
ரில்	-542
▁பொரு	-543
▁056	-544
ல்க	-545
▁066	-546
▁சி	-547
▁41	-548
984	-549
▁055	-550
574	-551
▁017	-552
166	-553
▁ஓ	-554
▁077	-555
ணி	-556
ிற்கு	-557
▁028	-558
ுகள	-559
▁விள	-560
ெடு	-561
ொரு	-562
▁போன்ற	-563
▁மிக	-564
▁038	-565
248	-566
964	-567
266	-568
066	-569
▁007	-570
ாக்க	-571
▁42	-572
▁036	-573
974	-574
▁உய	-575
278	-576
▁இல	-577
146	-578
376	-579
267	-580
346	-581
▁018	-582
▁004	-583
277	-584
▁194	-585
067	-586
ைக்க	-587
▁088	-588
▁008	-589
167	-590
ிருந்து	-591
246	-592
348	-593
ிரைப்பட	-594
148	-595
ைகள	-596
055	-597
268	-598
168	-599
ரிக்க	-600
068	-601
▁("	-602
247	-603
ிருந்த	-604
லும்	-605
▁058	-606
377	-607
276	-608
▁057	-609
ியாக	-610
▁தலை	-611
347	-612
147	-613
ியின்	-614
▁47	-615
▁வர	-616
▁பெற்ற	-617
ியா	-618
▁57	-619
▁46	-620
▁48	-621
378	-622
▁43	-623
▁தொகுத	-624
176	-625
▁நக	-626
▁சில	-627
077	-628
▁108	-629
386	-630
ருக	-631
186	-632
046	-633
056	-634
▁097	-635
▁கால	-636
▁அதிக	-637
966	-638
▁என்று	-639
▁பட்ட	-640
094	-641
286	-642
986	-643
054	-644
047	-645
366	-646
388	-647
▁094	-648
▁064	-649
187	-650
076	-651
போ	-652
367	-653
▁செய்த	-654
188	-655
▁என்ன	-656
368	-657
177	-658
ரின்	-659
288	-660
▁155	-661
▁068	-662
▁முதல்	-663
▁144	-664
▁067	-665
178	-666
048	-667
078	-668
▁இருந்து	-669
ழி	-670
287	-671
நாட்ட	-672
987	-673
967	-674
ர்த்த	-675
097	-676
▁154	-677
387	-678
▁ஒன்ற	-679
ிக்கும்	-680
988	-681
086	-682
586	-683
▁156	-684
968	-685
மே	-686
▁பெய	-687
▁166	-688
087	-689
),	-690
▁188	-691
ப்பட்டுள்ள	-692
057	-693
னால்	-694
▁குறிப்ப	-695
▁வீ	-696
088	-697
588	-698
143	-699
வாக	-700
an	-701
ஆம்	-702
ாண்ட	-703
ையை	-704
165	-705
▁177	-706
க்கிய	-707
243	-708
ப்பின	-709
063	-710
▁செய்ய	-711
த்திர	-712
163	-713
வத	-714
▁போட்ட	-715
373	-716
033	-717
587	-718
065	-719
▁பர	-720
233	-721
133	-722
035	-723
ர்ச்ச	-724
▁157	-725
145	-726
▁அழ	-727
▁027	-728
265	-729
லாம்	-730
235	-731
946	-732
976	-733
▁034	-734
்வ	-735
▁ஹ	-736
263	-737
245	-738
125	-739
▁நி	-740
025	-741
▁கீ	-742
933	-743
135	-744
363	-745
375	-746
▁53	-747
935	-748
554	-749
▁கிர	-750
156	-751
ின்றது	-752
915	-753
162	-754
022	-755
285	-756
544	-757
டைய	-758
977	-759
015	-760
383	-761
▁52	-762
062	-763
925	-764
242	-765
▁என்னும்	-766
132	-767
073	-768
142	-769
183	-770
043	-771
185	-772
▁167	-773
175	-774
075	-775
045	-776
173	-777
032	-778
283	-779
275	-780
ாய	-781
232	-782
லில்	-783
▁ர	-784
985	-785
947	-786
948	-787
122	-788
▁இற	-789
963	-790
லிய	-791
372	-792
▁168	-793
978	-794
343	-795
பி	-796
▁இல்	-797
072	-798
262	-799
273	-800
▁சட்ட	-801
956	-802
▁164	-803
ிம	-804
932	-805
965	-806
983	-807
385	-808
362	-809
▁நே	-810
▁முக்க	-811
ிலிருந்து	-812
365	-813
345	-814
922	-815
▁தோ	-816
083	-817
042	-818
382	-819
▁காண	-820
ாவின்	-821
342	-822
533	-823
படி	-824
▁பயன்படுத்த	-825
085	-826
155	-827
576	-828
▁கட்ட	-829
ஸ்ட	-830
955	-831
ினை	-832
▁தீ	-833
272	-834
282	-835
578	-836
▁016	-837
982	-838
182	-839
ண்கள்	-840
▁ல	-841
535	-842
546	-843
172	-844
547	-845
▁ஈ	-846
577	-847
583	-848
ினார்	-849
564	-850
▁014	-851
▁024	-852
962	-853
975	-854
▁நிறுவ	-855
▁சொ	-856
ர்க்க	-857
பட்ட	-858
525	-859
▁ரா	-860
ுகிறது	-861
▁சூ	-862
▁037	-863
▁பத	-864
▁006	-865
585	-866
ின்றனர்	-867
▁026	-868
522	-869
▁நடை	-870
கா	-871
▁முக்கிய	-872
082	-873
ரண	-874
548	-875
582	-876
▁அடி	-877
ர்ம	-878
ேச	-879
ங்களை	-880
945	-881
▁வெளிய	-882
943	-883
▁மாத	-884
532	-885
973	-886
தை	-887
▁117	-888
▁தொகை	-889
ரவ	-890
ும்ப	-891
566	-892
▁45	-893
▁106	-894
▁096	-895
ேய	-896
▁098	-897
▁104	-898
ங்கில	-899
▁நூற்ற	-900
▁244	-901
▁107	-902
ர்களின்	-903
026	-904
▁114	-905
556	-906
942	-907
ியை	-908
▁உலக	-909
016	-910
036	-911
006	-912
▁ஏற்ப	-913
024	-914
004	-915
014	-916
▁சேர்ந்த	-917
▁124	-918
557	-919
▁கட்டு	-920
▁116	-921
▁தொடர்	-922
▁118	-923
972	-924
567	-925
ாலும்	-926
த்துவ	-927
▁கல	-928
ளி	-929
▁127	-930
டிவ	-931
ழக	-932
034	-933
▁தமிழ்நாட்ட	-934
▁136	-935
▁126	-936
568	-937
▁உறு	-938
த்திய	-939
▁134	-940
096	-941
மன்ற	-942
▁128	-943
575	-944
▁துடு	-945
154	-946
558	-947
▁பொது	-948
▁திரைப்பட	-949
▁பட	-950
▁58	-951
னி	-952
▁138	-953
573	-954
▁137	-955
017	-956
027	-957
954	-958
037	-959
▁கல்	-960
▁மேலும்	-961
▁கே	-962
▁துடுப்பாட்ட	-963
▁சா	-964
ண்டும்	-965
▁மெ	-966
ப்பாட்டில்	-967
ானது	-968
ழ்க	-969
028	-970
▁8	-971
▁மொத்த	-972
ிவு	-973
▁அண	-974
008	-975
ப்பா	-976
007	-977
038	-978
▁இக்கோயில்	-979
ப்பத	-980
▁266	-981
▁033	-982
▁குட	-983
058	-984
131	-985
▁உட	-986
018	-987
ாவில்	-988
098	-989
▁158	-990
▁கூற	-991
ரே	-992
051	-993
011	-994
▁குழ	-995
ம்மன்	-996
▁முன்ன	-997
சா	-998
▁இத்த	-999
031	-1000
▁பெரு	-1001
021	-1002
மும்	-1003
231	-1004
்கள	-1005
▁கொண்டுள்ள	-1006
121	-1007
▁சீ	-1008
029	-1009
ிகளில்	-1010
572	-1011
239	-1012
▁277	-1013
921	-1014
951	-1015
ற்றி	-1016
139	-1017
553	-1018
129	-1019
ுவத	-1020
059	-1021
099	-1022
911	-1023
039	-1024
ஸ்த	-1025
931	-1026
ுறையின்	-1027
959	-1028
▁உருவா	-1029
▁நிக	-1030
ப்பட்டுள்ளது	-1031
939	-1032
563	-1033
▁நூற்றாண்ட	-1034
543	-1035
ப்பின்	-1036
545	-1037
▁பண	-1038
ல்ப	-1039
919	-1040
ையாக	-1041
க்கப்பட்ட	-1042
▁வந்த	-1043
555	-1044
ற்றிய	-1045
ந்திர	-1046
▁288	-1047
929	-1048
வற்ற	-1049
ஷ்	-1050
565	-1051
▁மன	-1052
562	-1053
542	-1054
er	-1055
திய	-1056
ெரிக்க	-1057
▁133	-1058
▁வழங்க	-1059
019	-1060
▁உள்ளன	-1061
▁உறுப்பின	-1062
▁267	-1063
திர	-1064
த்திற்கு	-1065
்த்த	-1066
ழுத	-1067
▁வகை	-1068
ப்படுத்த	-1069
▁264	-1070
552	-1071
ிறார்	-1072
ாவது	-1073
▁022	-1074
▁முற	-1075
▁முதன்	-1076
▁சோ	-1077
341	-1078
▁மக்கள	-1079
▁49	-1080
▁மன்ற	-1081
▁206	-1082
531	-1083
▁மக	-1084
▁208	-1085
▁ஆவ	-1086
ருக்கு	-1087
டும்	-1088
279	-1089
▁நடைபெ	-1090
on	-1091
349	-1092
ைச்	-1093
▁274	-1094
▁ஆண்டில்	-1095
▁அக	-1096
▁268	-1097
▁இக்கோயில	-1098
▁வட	-1099
▁இருக்க	-1100
271	-1101
ங்	-1102
▁214	-1103
▁வரை	-1104
▁204	-1105
529	-1106
▁வக	-1107
▁அமெரிக்க	-1108
361	-1109
ெய	-1110
▁பெரும்	-1111
▁216	-1112
ிக்கு	-1113
ணம்	-1114
▁207	-1115
▁இதன்	-1116
539	-1117
▁வை	-1118
371	-1119
521	-1120
181	-1121
249	-1122
ைகளை	-1123
ரது	-1124
▁மாவட்டம்	-1125
am	-1126
▁இணை	-1127
999	-1128
வெ	-1129
▁இரா	-1130
▁அவர்	-1131
▁074	-1132
179	-1133
▁மாநில	-1134
241	-1135
▁நாட்ட	-1136
▁குறை	-1137
▁சிவ	-1138
▁084	-1139
▁நிறுவன	-1140
▁பாட	-1141
▁122	-1142
171	-1143
▁நாட	-1144
▁அந்த	-1145
▁284	-1146
யா	-1147
▁பின்னர்	-1148
369	-1149
289	-1150
389	-1151
▁226	-1152
")	-1153
ோர்	-1154
▁இக்கோயிலில்	-1155
▁அமைந்துள்ளது	-1156
061	-1157
த்தி	-1158
▁எழு	-1159
நக	-1160
151	-1161
189	-1162
981	-1163
▁அமைப்ப	-1164
071	-1165
ுக்கும்	-1166
ர்களை	-1167
▁64	-1168
049	-1169
in	-1170
▁காரண	-1171
081	-1172
281	-1173
961	-1174
▁அறிவ	-1175
041	-1176
381	-1177
▁இருக்கும்	-1178
லைக்க	-1179
379	-1180
▁51	-1181
069	-1182
ொண்ட	-1183
வர	-1184
ar	-1185
▁048	-1186
▁தி	-1187
161	-1188
க்கம்	-1189
▁படி	-1190
▁கணக்க	-1191
111	-1192
▁நெ	-1193
949	-1194
941	-1195
269	-1196
ய்வ	-1197
969	-1198
971	-1199
979	-1200
்கு	-1201
159	-1202
261	-1203
ட்டை	-1204
▁உண	-1205
000	-1206
169	-1207
▁தொழ	-1208
▁66	-1209
141	-1210
089	-1211
079	-1212
ட்டி	-1213
▁வளர்ச்ச	-1214
989	-1215
149	-1216
க்கூ	-1217
ிருக்க	-1218
▁மூலம்	-1219
நாடு	-1220
ியம்	-1221
ினர்	-1222
▁எழுத	-1223
ுடைய	-1224
▁218	-1225
மு	-1226
▁நாடுக	-1227
▁032	-1228
▁217	-1229
013	-1230
▁224	-1231
மாகும்	-1232
ப்படுகின்றன	-1233
▁047	-1234
▁254	-1235
▁003	-1236
053	-1237
003	-1238
▁278	-1239
▁நோ	-1240
▁078	-1241
581	-1242
தா	-1243
023	-1244
▁சார்	-1245
▁நிர்வ	-1246
571	-1247
ோக	-1248
▁255	-1249
▁தமிழ	-1250
ுகளில்	-1251
▁மரு	-1252
▁228	-1253
▁வரு	-1254
▁013	-1255
▁பழ	-1256
ிரிய	-1257
ம்பர்	-1258
கவ	-1259
▁227	-1260
at	-1261
119	-1262
▁உத	-1263
னு	-1264
▁256	-1265
589	-1266
ார்கள்	-1267
ிகளை	-1268
093	-1269
்ச்ச	-1270
579	-1271
▁238	-1272
ையான	-1273
▁உட்	-1274
▁தா	-1275
▁கோயில	-1276
095	-1277
ுகளை	-1278
ப்போ	-1279
▁237	-1280
டிக்க	-1281
▁053	-1282
▁087	-1283
ங்கிய	-1284
▁வட்ட	-1285
▁தனது	-1286
▁மூல	-1287
▁023	-1288
▁234	-1289
▁திர	-1290
005	-1291
012	-1292
092	-1293
▁344	-1294
ர்களில்	-1295
▁அனை	-1296
▁விரு	-1297
ைப்	-1298
al	-1299
▁046	-1300
▁174	-1301
▁002	-1302
ந்	-1303
▁236	-1304
ங்கி	-1305
▁தொகுதிக்கும்	-1306
டித்த	-1307
▁093	-1308
மீ	-1309
▁012	-1310
▁இரண்டு	-1311
்ட்	-1312
▁விளைய	-1313
002	-1314
▁ஆனால்	-1315
▁184	-1316
▁103	-1317
▁தூ	-1318
052	-1319
▁அதன்	-1320
▁பேரும்	-1321
த்தொ	-1322
▁இந்து	-1323
▁தேசிய	-1324
222	-1325
225	-1326
கால	-1327
▁அல	-1328
▁113	-1329
▁258	-1330
▁148	-1331
▁257	-1332
▁2011	-1333
▁123	-1334
▁மல	-1335
ற்றில்	-1336
▁முறை	-1337
▁போது	-1338
வர்கள்	-1339
▁மொழ	-1340
ப்பட்டு	-1341
▁052	-1342
▁துடுப்பாட்டப்	-1343
▁பெரிய	-1344
கம்	-1345
வ்	-1346
▁132	-1347
▁086	-1348
▁பேர	-1349
ையே	-1350
▁001	-1351
▁வடிவ	-1352
▁மாவட்டத்தில்	-1353
ch	-1354
வது	-1355
தாகும்	-1356
▁100	-1357
▁முதல	-1358
ளம்	-1359
ின்ன	-1360
டன்	-1361
▁092	-1362
▁பெண்கள்	-1363
▁147	-1364
தும்	-1365
▁102	-1366
▁தன்	-1367
▁233	-1368
ரீ	-1369
▁தமிழ்நாடு	-1370
▁,	-1371
ராய	-1372
▁புத	-1373
ுத்த	-1374
▁P	-1375
▁153	-1376
▁112	-1377
▁035	-1378
▁076	-1379
▁011	-1380
▁விர	-1381
551	-1382
▁அழைக்க	-1383
▁திட்ட	-1384
▁101	-1385
▁மாற்ற	-1386
561	-1387
க்கி	-1388
▁025	-1389
ழ்க்க	-1390
▁வருக	-1391
▁அட	-1392
▁டி	-1393
போது	-1394
▁எதிர	-1395
541	-1396
▁பரி	-1397
▁178	-1398
▁67	-1399
ைகளில்	-1400
வில்லை	-1401
ல்வே	-1402
▁தகவ	-1403
ள்க	-1404
ுட்	-1405
றை	-1406
▁மர	-1407
559	-1408
▁கண்ட	-1409
▁இரண்ட	-1410
▁091	-1411
▁சட்டமன்ற	-1412
549	-1413
▁146	-1414
▁019	-1415
தேச	-1416
▁193	-1417
ானிய	-1418
569	-1419
ிக்கப்படுகிறது	-1420
▁366	-1421
ப்பெ	-1422
▁059	-1423
ாட்டு	-1424
ங்களின்	-1425
▁051	-1426
▁294	-1427
▁இன	-1428
▁125	-1429
▁ஆவார்	-1430
▁நகர	-1431
ல்கள்	-1432
ேற்ற	-1433
ந்தது	-1434
en	-1435
▁கொண்டுள்ளது	-1436
▁009	-1437
▁276	-1438
▁கை	-1439
வீ	-1440
நிலைய	-1441
▁பட்டியல்	-1442
▁கணக்கெடு	-1443
▁152	-1444
▁187	-1445
▁கிராம	-1446
▁இவ்வ	-1447
விழ	-1448
▁111	-1449
▁192	-1450
▁நடைபெற	-1451
னா	-1452
684	-1453
▁மாதம்	-1454
335	-1455
▁296	-1456
▁அடிப்பட	-1457
▁மேற்க	-1458
லர்	-1459
ந்தார்	-1460
▁பார	-1461
▁தேர்ந்த	-1462
புரம்	-1463
▁135	-1464
▁பெரும்ப	-1465
▁063	-1466
▁அனு	-1467
774	-1468
▁199	-1469
▁109	-1470
▁எண்ண	-1471
▁முதன்மை	-1472
முறை	-1473
▁073	-1474
▁042	-1475
▁043	-1476
▁தமிழ்நாட்டில்	-1477
▁தொக	-1478
▁119	-1479
றி	-1480
ரம்ப	-1481
▁வில	-1482
கி	-1483
▁176	-1484
▁திருக்க	-1485
டம்	-1486
வன	-1487
டுத	-1488
▁062	-1489
றிய	-1490
▁082	-1491
▁பொருள	-1492
ாளர்	-1493
▁222	-1494
டுக்க	-1495
ரக	-1496
▁297	-1497
ப்படி	-1498
▁ஊரில்	-1499
▁பால	-1500
▁203	-1501
▁வரலா	-1502
▁அது	-1503
▁072	-1504
▁364	-1505
",	-1506
▁என்றும்	-1507
▁099	-1508
333	-1509
▁388	-1510
▁சந்த	-1511
ப்பி	-1512
▁298	-1513
▁186	-1514
▁348	-1515
▁பெற	-1516
▁முடிய	-1517
▁083	-1518
▁எனும்	-1519
ையம்	-1520
▁கொள்ள	-1521
செ	-1522
▁சுவ	-1523
▁வளர்ச்சி	-1524
கோ	-1525
சிரிய	-1526
மையான	-1527
▁68	-1528
▁367	-1529
ேயே	-1530
ஸ்க	-1531
▁377	-1532
▁பூசை	-1533
▁வய	-1534
▁மனித	-1535
001	-1536
த்துள்ள	-1537
▁015	-1538
▁நிலை	-1539
ண்ப	-1540
▁317	-1541
லின்	-1542
▁306	-1543
▁கணக்கெடுப்பின்	-1544
இல்	-1545
091	-1546
▁கல்ல	-1547
▁304	-1548
ப்பகுத	-1549
▁005	-1550
▁வச	-1551
▁தேர்ந்தெடு	-1552
ினால்	-1553
332	-1554
▁307	-1555
▁நிர்வக	-1556
▁010	-1557
ுக்கான	-1558
▁கிழ	-1559
▁314	-1560
▁இங்கு	-1561
▁191	-1562
▁மூன்று	-1563
▁374	-1564
▁202	-1565
444	-1566
▁308	-1567
▁ஸ்	-1568
▁248	-1569
▁முக	-1570
▁வேண்டும்	-1571
▁316	-1572
▁திற	-1573
▁உருவாக்க	-1574
ொள்ள	-1575
▁மிகவும்	-1576
▁031	-1577
▁பாத	-1578
▁இவை	-1579
வ்வ	-1580
▁151	-1581
▁213	-1582
▁சேர்ந்தது	-1583
▁கட்டுப்பாட்டில்	-1584
ோடு	-1585
664	-1586
▁ஆத	-1587
▁நான	-1588
▁105	-1589
884	-1590
யம்	-1591
674	-1592
▁223	-1593
திர்	-1594
▁143	-1595
▁G	-1596
ைத்	-1597
▁041	-1598
009	-1599
686	-1600
▁318	-1601
▁நடக்க	-1602
▁324	-1603
▁232	-1604
▁இலங்க	-1605
251	-1606
ருக்க	-1607
▁தர	-1608
▁159	-1609
ப்பிர	-1610
தால்	-1611
▁212	-1612
259	-1613
ப்படு	-1614
வர்கள	-1615
▁பள்ள	-1616
▁327	-1617
▁பல்க	-1618
பர்	-1619
▁திருவிழ	-1620
ிலுள்ள	-1621
▁039	-1622
ிருக்கும்	-1623
ாமல்	-1624
ாகவும்	-1625
▁061	-1626
▁029	-1627
▁326	-1628
வான	-1629
▁உள்ளனர்	-1630
▁095	-1631
▁அறநிலைய	-1632
▁வேறு	-1633
666	-1634
▁110	-1635
▁வகைப்பாட்டில்	-1636
▁247	-1637
ாதார	-1638
▁334	-1639
த்துறையின்	-1640
▁இயக்க	-1641
ியும்	-1642
நிலை	-1643
▁115	-1644
▁2015	-1645
▁021	-1646
▁நூற்றாண்டைச்	-1647
▁வாழ்	-1648
ங்கா	-1649
▁195	-1650
▁384	-1651
▁328	-1652
▁கோயிலாகும்	-1653
னின்	-1654
டுகள்	-1655
ாகப்	-1656
446	-1657
777	-1658
▁142	-1659
திப்ப	-1660
▁C	-1661
▁071	-1662
447	-1663
ிரி	-1664
687	-1665
ட்சியில்	-1666
ன்க	-1667
▁049	-1668
886	-1669
ay	-1670
▁கூட்ட	-1671
▁கிடை	-1672
ச்சு	-1673
▁162	-1674
▁பெயர்	-1675
▁200	-1676
676	-1677
▁069	-1678
▁இவ்	-1679
646	-1680
▁புக	-1681
▁081	-1682
▁173	-1683
▁163	-1684
▁வெளிவ	-1685
▁கீழ்	-1686
▁079	-1687
▁நேர	-1688
▁336	-1689
▁குறிப்பிட	-1690
ியூ	-1691
▁089	-1692
த்துக்க	-1693
னார்	-1694
▁378	-1695
▁தேவ	-1696
▁S	-1697
▁172	-1698
778	-1699
▁337	-1700
▁மொழி	-1701
▁121	-1702
▁211	-1703
0"	-1704
ழை	-1705
▁131	-1706
ட்டர்	-1707
▁சட்டமன்றத்	-1708
▁செல்ல	-1709
▁சங்க	-1710
ஜ்	-1711
ியம்மன்	-1712
887	-1713
▁59	-1714
▁246	-1715
667	-1716
வில	-1717
668	-1718
▁338	-1719
ிகளைக்	-1720
▁ஆண்கள்	-1721
▁045	-1722
▁ஆங்கில	-1723
678	-1724
▁கருத	-1725
ரான	-1726
▁சிற்ற	-1727
647	-1728
▁பல்வே	-1729
776	-1730
▁347	-1731
448	-1732
221	-1733
மாள்	-1734
ாள்	-1735
▁183	-1736
காலப்	-1737
▁ஆகியவற்ற	-1738
▁நு	-1739
வன்	-1740
ாண	-1741
தே	-1742
▁065	-1743
▁வெப்ப	-1744
▁பல்வேறு	-1745
▁வாய்	-1746
லூர்	-1747
▁252	-1748
▁காட்ட	-1749
▁உட்பட்ட	-1750
746	-1751
ந்தை	-1752
▁தமிழ்நாட்டின்	-1753
▁ஆய	-1754
வைத்	-1755
▁இந்	-1756
888	-1757
ருவ	-1758
▁253	-1759
▁368	-1760
▁மருத்துவ	-1761
775	-1762
▁9	-1763
ிடம்	-1764
▁354	-1765
▁356	-1766
▁கன	-1767
▁141	-1768
▁பாது	-1769
▁209	-1770
▁அறிய	-1771
▁தொடர்ப	-1772
▁129	-1773
▁அங்க	-1774
ப்ட	-1775
▁075	-1776
229	-1777
▁தகவல்	-1778
▁மட்டு	-1779
▁தரவ	-1780
▁முடி	-1781
ாட	-1782
th	-1783
ங்களும்	-1784
▁செல	-1785
தாம்	-1786
▁139	-1787
த்திற்க	-1788
▁பாக	-1789
648	-1790
ளோ	-1791
▁ஒருகாலப்	-1792
786	-1793
சன்	-1794
ங்கிலா	-1795
773	-1796
▁இதில்	-1797
முற	-1798
▁182	-1799
445	-1800
▁149	-1801
ந்திய	-1802
▁[	-1803
▁எடுத்த	-1804
▁எல்ல	-1805
▁அவரது	-1806
▁தவ	-1807
ரால்	-1808
▁இருந்தது	-1809
▁235	-1810
▁161	-1811
நாத	-1812
▁குடிய	-1813
▁000	-1814
▁355	-1815
748	-1816
▁இங்கிலா	-1817
ிச்ச	-1818
▁ஓர்	-1819
▁இவற்றில்	-1820
▁346	-1821
ென	-1822
665	-1823
645	-1824
▁085	-1825
▁171	-1826
▁வட்டார	-1827
747	-1828
ிகளும்	-1829
▁தொலை	-1830
▁திருக்கோயில்	-1831
ங்காவ	-1832
es	-1833
="1	-1834
▁தாக்க	-1835
நீ	-1836
ண்க	-1837
▁பரம்ப	-1838
▁உற	-1839
663	-1840
847	-1841
ிக்கப்பட்ட	-1842
▁இவர்களில்	-1843
ப்பில்	-1844
▁357	-1845
ண்டிய	-1846
த்துக்கு	-1847
is	-1848
▁நடைபெறுகிறது	-1849
885	-1850
▁219	-1851
443	-1852
வரி	-1853
▁முதன்மைத்	-1854
=1	-1855
▁நிகழ	-1856
▁படை	-1857
▁287	-1858
வரும்	-1859
675	-1860
▁தொழில்	-1861
▁ஆய்வ	-1862
நாய	-1863
▁358	-1864
ய்வு	-1865
ண்ம	-1866
லாக	-1867
883	-1868
ல்கள	-1869
மார்	-1870
ுதல்	-1871
சோ	-1872
"),	-1873
▁229	-1874
▁தேர்வ	-1875
ிகளிலும்	-1876
▁பங்க	-1877
லைக்கழக	-1878
பர	-1879
▁மொத்தம்	-1880
▁திரும	-1881
683	-1882
846	-1883
685	-1884
442	-1885
772	-1886
787	-1887
▁சமய	-1888
▁விட	-1889
▁வண	-1890
ில்லிய	-1891
▁நிகழ்	-1892
டுகிறது	-1893
▁மன்ன	-1894
673	-1895
தம்	-1896
▁'	-1897
▁தன்ன	-1898
▁பேரரச	-1899
▁குடும்ப	-1900
▁அரசு	-1901
▁ஒவ்வ	-1902
▁205	-1903
765	-1904
▁விருது	-1905
டுத்து	-1906
ற்போ	-1907
643	-1908
▁ஒன்று	-1909
வாத	-1910
ாது	-1911
848	-1912
▁பொதுவாக	-1913
▁145	-1914
▁169	-1915
ன்பதாம்	-1916
ுள்ளார்	-1917
321	-1918
672	-1919
ங்கும்	-1920
▁மக்களவைத்	-1921
▁இந்தியாவின்	-1922
▁242	-1923
சுவ	-1924
▁181	-1925
▁சமூ	-1926
▁ஆரம்ப	-1927
329	-1928
பிர	-1929
331	-1930
▁பல்கலைக்கழக	-1931
▁239	-1932
வராக	-1933
682	-1934
▁வீர	-1935
ளா	-1936
▁பத்தொ	-1937
▁செய்து	-1938
ிகளின்	-1939
▁பரம்பரை	-1940
▁221	-1941
லாள	-1942
▁293	-1943
▁A	-1944
▁கலந்து	-1945
ரல்	-1946
▁210	-1947
763	-1948
▁தேர்ந்தெடுக்க	-1949
▁286	-1950
▁கல்லூ	-1951
ற்ச	-1952
மானது	-1953
▁தெரி	-1954
882	-1955
ிலேயே	-1956
▁அல்லாத	-1957
▁ஆற்ற	-1958
▁அனைத்து	-1959
662	-1960
▁நடக்கின்றது	-1961
▁வான	-1962
▁அரு	-1963
▁292	-1964
642	-1965
▁அர	-1966
▁துறையின்	-1967
339	-1968
▁243	-1969
த்துடன்	-1970
பே	-1971
845	-1972
▁பற்றிய	-1973
ுட்ப	-1974
▁189	-1975
ின்படி	-1976
▁புதிய	-1977
745	-1978
ாடு	-1979
351	-1980
▁பத்தொன்பதாம்	-1981
▁251	-1982
783	-1983
ராச	-1984
▁காலத்தில்	-1985
▁அறங்காவ	-1986
785	-1987
▁215	-1988
762	-1989
ியான	-1990
▁இல்ல	-1991
▁165	-1992
க்கூடிய	-1993
ரிம	-1994
743	-1995
வின்	-1996
னம்	-1997
ுகின்றன	-1998
▁ஆறு	-1999
▁கண்டு	-2000
▁ஜெ	-2001
▁303	-2002
359	-2003
ியது	-2004
▁179	-2005
▁62	-2006
▁மாக	-2007
▁231	-2008
ினி	-2009
la	-2010
▁பகுதியில்	-2011
▁394	-2012
▁புல	-2013
▁சென்ன	-2014
ங்களுக்கு	-2015
▁உயிர	-2016
▁விளை	-2017
ித்து	-2018
▁காரணமாக	-2019
▁எதிர்	-2020
▁மண	-2021
▁225	-2022
ர்களைத்	-2023
ram	-2024
▁கீழ்க்க	-2025
க்த	-2026
ப்பை	-2027
▁63	-2028
▁போல	-2029
▁வரைய	-2030
▁175	-2031
="3	-2032
▁வழி	-2033
▁185	-2034
=3	-2035
▁ஃ	-2036
ில்லை	-2037
▁தேர்வுத்	-2038
843	-2039
▁தான்	-2040
▁நாள்	-2041
▁மட்ட	-2042
▁தொகுக்க	-2043
ிர்	-2044
▁துற	-2045
782	-2046
▁அரசியல்	-2047
▁தொகு	-2048
ணைய	-2049
ic	-2050
▁61	-2051
▁இவரது	-2052
▁பிறகு	-2053
▁387	-2054
ாமி	-2055
▁259	-2056
▁அவர்கள்	-2057
ளவு	-2058
▁50	-2059
▁சிற்றூ	-2060
▁386	-2061
▁எந்த	-2062
▁தேர்த	-2063
▁புற	-2064
742	-2065
வாறு	-2066
▁அவை	-2067
முக	-2068
▁அன்று	-2069
த்தார்	-2070
▁கல்வி	-2071
▁வெள்ள	-2072
▁291	-2073
▁உப	-2074
▁313	-2075
▁நம்ப	-2076
▁301	-2077
▁தற்போ	-2078
▁302	-2079
ட்க	-2080
▁சிறு	-2081
ரிச	-2082
▁செயல்ப	-2083
▁அருக	-2084
▁சொல்ல	-2085
னிய	-2086
கர்	-2087
ஸ்ட்	-2088
த்தா	-2089
▁ஊரக	-2090
▁கொள்க	-2091
▁கல்விய	-2092
▁ஆல	-2093
▁கலை	-2094
ிலோ	-2095
▁இசை	-2096
▁வித	-2097
சே	-2098
▁மாற	-2099
டுகள	-2100
▁262	-2101
▁397	-2102
▁பாதுகா	-2103
▁சாத	-2104
னும்	-2105
ட்சிய	-2106
▁272	-2107
▁அமைப்பால்	-2108
ஷ்ண	-2109
▁300	-2110
▁கீழ்க்கண்ட	-2111
ாவாக	-2112
▁சமூக	-2113
ற்காக	-2114
▁செயல்	-2115
த்திலும்	-2116
▁ஆண்டுத்	-2117
anch	-2118
ோட்ட	-2119
▁396	-2120
லே	-2121
ர்ந்து	-2122
▁பிரிவ	-2123
▁அறங்காவலர்	-2124
யாரி	-2125
▁டெ	-2126
▁சிறந்த	-2127
▁273	-2128
ுள்	-2129
▁ஊராட்சியில்	-2130
▁இறுத	-2131
▁பார்	-2132
▁வட்டாரத்தில்	-2133
னே	-2134
▁இம்ம	-2135
ினும்	-2136
▁ஒப்ப	-2137
▁மன்றத்	-2138
பாடு	-2139
▁உற்ப	-2140
▁தொகுதிகளைக்	-2141
▁புர	-2142
▁323	-2143
▁உறுப்பினர்களைத்	-2144
ைகளின்	-2145
842	-2146
▁இச	-2147
▁312	-2148
▁263	-2149
▁உட்பட்டதாகும்	-2150
ayat	-2151
▁மைய	-2152
ற்கான	-2153
▁Panch	-2154
▁Panchayat	-2155
▁Gram	-2156
▁மாண	-2157
▁பீ	-2158
ிலான	-2159
▁322	-2160
ுகளின்	-2161
ாரம்	-2162
▁ஊராட்சித்	-2163
▁241	-2164
▁வெளிவந்த	-2165
▁398	-2166
▁ஒவ்வொரு	-2167
▁தரவின்படி	-2168
▁சிற்றூர்களின்	-2169
▁407	-2170
▁முழு	-2171
▁இள	-2172
▁இடை	-2173
▁404	-2174
▁இங்கிலாந்து	-2175
▁நான்கு	-2176
வோ	-2177
486	-2178
▁தொடர்ந்து	-2179
மொ	-2180
▁பன்ன	-2181
▁தயாரி	-2182
ர்வு	-2183
▁மின்	-2184
மிய	-2185
▁தோன்ற	-2186
▁406	-2187
ர்களுக்கு	-2188
▁333	-2189
ந்தி	-2190
தான	-2191
487	-2192
ரைய	-2193
▁சென்ற	-2194
▁282	-2195
▁அடை	-2196
▁சன்ன	-2197
)">	-2198
▁இத்திரைப்பட	-2199
▁வல	-2200
▁283	-2201
▁தய	-2202
▁எஸ்	-2203
875	-2204
▁அவற்ற	-2205
▁சித்த	-2206
சீ	-2207
க்கில்	-2208
▁ஸ்ரீ	-2209
▁மட்டுமே	-2210
▁துவ	-2211
▁ராஜ	-2212
ருடைய	-2213
டா	-2214
▁நோய	-2215
▁செல்	-2216
ுகளுக்கு	-2217
▁408	-2218
ண்ட்	-2219
ிகை	-2220
▁376	-2221
▁வணிக	-2222
▁249	-2223
▁ஷ	-2224
ார்ப	-2225
ும	-2226
ிட்டு	-2227
▁மூன்ற	-2228
▁299	-2229
விட	-2230
▁இதனால்	-2231
▁அணி	-2232
றிவு	-2233
▁அளவ	-2234
▁என்பத	-2235
▁எழுதிய	-2236
த்தையும்	-2237
தாகவும்	-2238
்டோ	-2239
▁யூ	-2240
▁311	-2241
ண்டி	-2242
▁M	-2243
465	-2244
▁416	-2245
ுக்கள்	-2246
865	-2247
▁திருவிழாவாக	-2248
▁போட்டிய	-2249
▁261	-2250
ப்பது	-2251
▁417	-2252
▁ஏற்ற	-2253
▁சார்ந்த	-2254
▁நடி	-2255
ப்படுகின்றது	-2256
▁கெ	-2257
▁ஆர்	-2258
▁கூடிய	-2259
]]	-2260
▁B	-2261
வாய்	-2262
▁இச்ச	-2263
475	-2264
779	-2265
▁நாக	-2266
▁414	-2267
▁நவ	-2268
▁யா	-2269
▁நினை	-2270
▁முன்	-2271
்த்	-2272
மூ	-2273
873	-2274
▁ஈடு	-2275
▁மது	-2276
▁நிறை	-2277
▁விக	-2278
▁ஐக்கிய	-2279
ிறார்கள்	-2280
பாள	-2281
மன்	-2282
ர்க்	-2283
▁ஒன்றிய	-2284
▁முழ	-2285
▁பணியா	-2286
▁ஆன	-2287
மது	-2288
▁முய	-2289
▁271	-2290
▁வார	-2291
▁புத்த	-2292
771	-2293
▁நடத்த	-2294
872	-2295
ராஜ	-2296
▁என்பவர்	-2297
நெ	-2298
மெ	-2299
▁பொறு	-2300
த்தக்க	-2301
▁மீது	-2302
▁பெற்றார்	-2303
▁290	-2304
▁இப்ப	-2305
▁கண்ண	-2306
ல்களை	-2307
▁அமில	-2308
▁பங்கு	-2309
▁மோ	-2310
▁[[	-2311
▁இலக்கிய	-2312
ஃப்	-2313
▁அமைந்த	-2314
▁நீர்	-2315
ிழ	-2316
881	-2317
641	-2318
▁பொருள்	-2319
ிமுக	-2320
▁விளையாட்ட	-2321
ம்பெ	-2322
▁விவ	-2323
485	-2324
▁தீவ	-2325
த்தால்	-2326
▁பிரித்த	-2327
▁418	-2328
ப்பட்டன	-2329
863	-2330
ாளர்கள்	-2331
▁245	-2332
▁269	-2333
▁அம்மன்	-2334
ப்புகள்	-2335
பட	-2336
463	-2337
▁444	-2338
,000	-2339
▁மலை	-2340
ுள்ளது	-2341
473	-2342
▁குரு	-2343
▁295	-2344
▁353	-2345
▁போட்டிகளிலும்	-2346
▁424	-2347
▁428	-2348
க்கார	-2349
ம்ச	-2350
▁மேல்	-2351
▁வரும்	-2352
862	-2353
▁உருவ	-2354
ல்த	-2355
▁309	-2356
▁புது	-2357
671	-2358
றும்	-2359
▁விழ	-2360
மர்	-2361
மைப்பு	-2362
▁மேற்ப	-2363
யில்	-2364
▁எம்	-2365
▁குழந்த	-2366
661	-2367
▁கிற	-2368
▁427	-2369
ப்போது	-2370
▁சிறிய	-2371
ொண்டார்	-2372
▁281	-2373
▁நடித்த	-2374
▁மேற்கு	-2375
▁தனி	-2376
▁2008	-2377
679	-2378
▁எழுத்த	-2379
ீடு	-2380
▁மின்ன	-2381
ப்பிய	-2382
681	-2383
462	-2384
ப்த	-2385
ாகக்	-2386
▁305	-2387
483	-2388
ஜி	-2389
▁ஐரோ	-2390
om	-2391
ழுப்பு	-2392
ீன்	-2393
▁319	-2394
ிருந்தது	-2395
▁இரண்டாம்	-2396
▁தொடங்க	-2397
சன	-2398
tion	-2399
வரு	-2400
▁சீன	-2401
வரை	-2402
ம்பு	-2403
ிக்கை	-2404
▁தொழில	-2405
▁வாழ	-2406
▁அதே	-2407
▁இருப்பத	-2408
▁தள	-2409
▁மண்ட	-2410
▁279	-2411
வைய	-2412
▁436	-2413
669	-2414
▁போர்	-2415
ங்கம்	-2416
▁துணை	-2417
889	-2418
சாமி	-2419
▁426	-2420
▁434	-2421
of	-2422
▁f	-2423
472	-2424
▁தமிழக	-2425
ப்பான	-2426
▁பிரதேச	-2427
▁நடு	-2428
▁வழக்க	-2429
ர்ட	-2430
▁குறிப்பிட்ட	-2431
▁ஒரே	-2432
▁265	-2433
449	-2434
▁I	-2435
ச்சி	-2436
▁நிலைய	-2437
ாக்	-2438
▁அறி	-2439
▁கொண்டது	-2440
ாட்சி	-2441
▁பிறப்பு	-2442
▁கண்டுபி	-2443
ாச	-2444
482	-2445
▁அதிகார	-2446
க்கோ	-2447
தில்	-2448
▁352	-2449
ராட்ட	-2450
▁வெளியிட	-2451
▁அடைய	-2452
▁உயர்	-2453
னைய	-2454
▁மார	-2455
▁உல	-2456
▁289	-2457
▁சராச	-2458
441	-2459
▁கடை	-2460
நூ	-2461
=27	-2462
▁தாவ	-2463
வியல்	-2464
▁அறிமுக	-2465
="27	-2466
689	-2467
▁அச	-2468
▁ஆசிரிய	-2469
649	-2470
▁தலைநக	-2471
▁320	-2472
ொருள்	-2473
▁பற்றி	-2474
▁332	-2475
▁அளவு	-2476
த்திலிருந்து	-2477
▁315	-2478
▁பெருமாள்	-2479
▁பொருளாதார	-2480
▁310	-2481
பூ	-2482
ழுத்த	-2483
▁275	-2484
லு	-2485
▁உண்டு	-2486
▁மீண்டும்	-2487
▁மரப	-2488
▁அளவில்	-2489
ப்பட்டுள்ளன	-2490
▁அலுவ	-2491
▁ஸ்ட	-2492
▁நாய	-2493
த்தைக்	-2494
▁வின	-2495
▁ஜூ	-2496
▁74	-2497
▁பகுதி	-2498
▁மத்திய	-2499
▁கிழக்கு	-2500
▁இயற்க	-2501
▁நல்ல	-2502
▁துறை	-2503
▁தல	-2504
படுத்த	-2505
ிருஷ்ண	-2506
▁மார்	-2507
▁ஏற்பட்ட	-2508
ாய்	-2509
▁329	-2510
▁செப்ட	-2511
ிப்பு	-2512
ாலத்தில்	-2513
▁அய	-2514
="2	-2515
ட்டா	-2516
▁325	-2517
▁காவ	-2518
▁மத	-2519
ுவது	-2520
▁பற	-2521
el	-2522
ரன்	-2523
▁437	-2524
▁தயார	-2525
▁செய்	-2526
▁நடைபெற்ற	-2527
▁321	-2528
▁சுற்று	-2529
761	-2530
▁இறை	-2531
ள்ளி	-2532
▁கழக	-2533
as	-2534
▁339	-2535
▁நாட்டின்	-2536
▁438	-2537
▁இசு	-2538
789	-2539
த்தைப்	-2540
ரர்	-2541
னித	-2542
▁காணப்படும்	-2543
▁போட்டிகளில்	-2544
▁மதிப்ப	-2545
▁மாகாண	-2546
ராகவும்	-2547
ைட்	-2548
▁கூட	-2549
▁தற்போது	-2550
பதி	-2551
▁65	-2552
▁T	-2553
781	-2554
▁ஆட்சி	-2555
▁மறு	-2556
▁அறிவியல்	-2557
ol	-2558
769	-2559
=2	-2560
ணுவ	-2561
ண்மை	-2562
ழுது	-2563
ப்பினும்	-2564
ினம்	-2565
ில்லியன்	-2566
ிஸ்த	-2567
▁2007	-2568
▁பிறந்த	-2569
▁சேர்ம	-2570
▁)	-2571
▁பிரப	-2572
▁கீழ	-2573
▁பார்க்க	-2574
▁மை	-2575
▁363	-2576
ப்பூர்	-2577
ித்தார்	-2578
▁நிர	-2579
▁குறைந்த	-2580
▁இன்	-2581
▁சது	-2582
மண	-2583
ஸ்வர	-2584
ுக்காக	-2585
▁457	-2586
▁331	-2587
749	-2588
▁விளக்க	-2589
க்ச	-2590
▁343	-2591
▁வெற்றி	-2592
▁ஏற்படுத்த	-2593
லைப்	-2594
▁351	-2595
▁சித	-2596
▁பண்ப	-2597
741	-2598
▁மக்களின்	-2599
▁விடுத	-2600
▁R	-2601
ர்த்தி	-2602
ளு	-2603
ளிய	-2604
▁285	-2605
▁ரோ	-2606
▁ஆய்வு	-2607
லோ	-2608
▁பண்ட	-2609
பை	-2610
த்தது	-2611
த்தைச்	-2612
▁முடியும்	-2613
▁342	-2614
ர்களால்	-2615
849	-2616
்க்க	-2617
▁362	-2618
▁புவ	-2619
▁அச்ச	-2620
▁335	-2621
▁2009	-2622
tr	-2623
▁குறிக்க	-2624
ைகளும்	-2625
ிப்	-2626
ற்சி	-2627
▁புகழ்	-2628
▁விட்ட	-2629
▁நியூ	-2630
▁நிகழ்ச்ச	-2631
▁2006	-2632
▁இருப்பினும்	-2633
▁of	-2634
▁455	-2635
▁அங்கு	-2636
▁முடிவ	-2637
▁எடுத்துக்க	-2638
மாறு	-2639
▁இதனை	-2640
il	-2641
▁373	-2642
டக	-2643
▁தோற்ற	-2644
▁454	-2645
us	-2646
▁குழுவ	-2647
▁கவி	-2648
▁456	-2649
ூட்ட	-2650
க்குற	-2651
▁இடம்	-2652
▁ஆராய	-2653
▁இல்லை	-2654
▁செப்டம்பர்	-2655
841	-2656
▁359	-2657
▁இழ	-2658
▁ஐந்து	-2659
▁பேச	-2660
மைப்ப	-2661
▁வங்க	-2662
▁கடல்	-2663
▁செய்யப்பட்ட	-2664
▁சன	-2665
▁ஒளி	-2666
ஞ்சி	-2667
▁466	-2668
▁கைப்ப	-2669
ங்களையும்	-2670
▁ஆக்க	-2671
▁பணி	-2672
▁372	-2673
டர்	-2674
▁இன்ன	-2675
▁வெளி	-2676
▁காலம்	-2677
▁கள	-2678
▁350	-2679
▁448	-2680
ிருந்தார்	-2681
▁பெரும்பாலும்	-2682
▁சிறப்பு	-2683
வார்	-2684
▁நிலையில்	-2685
▁திரைப்படம்	-2686
▁458	-2687
▁ஆண்டுகளில்	-2688
மோ	-2689
▁விண்	-2690
்தொ	-2691
▁குவ	-2692
மாற்ற	-2693
▁இங்க	-2694
யி	-2695
▁நீதி	-2696
▁உள்ளட	-2697
▁வாழ்க்க	-2698
▁வினை	-2699
▁393	-2700
▁சுமார்	-2701
நுட்ப	-2702
▁கிலோ	-2703
ொண்டு	-2704
▁திக	-2705
▁402	-2706
்டோபர்	-2707
▁இடம்பெ	-2708
▁சிக	-2709
▁392	-2710
ேன்	-2711
க்குவ	-2712
▁அதி	-2713
▁தவிர	-2714
▁வைத்த	-2715
சம்பர்	-2716
▁இவற்ற	-2717
="4	-2718
▁ஜோ	-2719
▁ஹெ	-2720
▁நிறுவனம்	-2721
ாலான	-2722
▁இலங்கை	-2723
ad	-2724
லான	-2725
▁இணைந்து	-2726
=4	-2727
▁கம்ப	-2728
▁வேலை	-2729
ாடி	-2730
ேசிய	-2731
▁அடிப்படையில்	-2732
▁சென்னை	-2733
▁அமைப்பு	-2734
ங்களைக்	-2735
▁இயக்கு	-2736
▁எனப்படும்	-2737
ஞ்சு	-2738
ுக்கள	-2739
▁வைக்க	-2740
▁முதலில்	-2741
▁கத	-2742
ந்தைய	-2743
ுகளும்	-2744
ர்களும்	-2745
and	-2746
▁தென்	-2747
▁எனினும்	-2748
▁என்	-2749
நாள்	-2750
ப்பாக	-2751
▁இன்ற	-2752
▁383	-2753
▁அதில்	-2754
ங்கோ	-2755
▁தமிழ்த்	-2756
டுவத	-2757
மாகக்	-2758
mu	-2759
▁இந்தியாவில்	-2760
▁எனவும்	-2761
▁கன்ன	-2762
▁கர	-2763
▁இந்தப்	-2764
மான்	-2765
▁403	-2766
▁குள	-2767
▁பயண	-2768
▁விகித	-2769
▁மகா	-2770
▁என்பதை	-2771
▁ஆகியோர்	-2772
ங்களிலும்	-2773
871	-2774
▁ஒன்றாகும்	-2775
த்தின	-2776
▁341	-2777
▁சின்ன	-2778
▁இதற்கு	-2779
▁விளங்க	-2780
▁c	-2781
றிவ	-2782
ரங்க	-2783
மையாக	-2784
▁உள்	-2785
ழுவ	-2786
▁நடிக	-2787
▁போட்டியில்	-2788
நோ	-2789
▁முன்ப	-2790
ண்கள	-2791
▁குறிப்பிடத்தக்க	-2792
▁சூழ	-2793
▁உணவு	-2794
▁குழு	-2795
சார	-2796
▁382	-2797
ீட்ட	-2798
ென்	-2799
▁பெண்	-2800
▁முறையில்	-2801
▁413	-2802
▁தற்க	-2803
▁பரப்ப	-2804
re	-2805
▁2001	-2806
▁உடல்	-2807
▁புரி	-2808
▁சார்ப	-2809
▁தொலைக்க	-2810
▁அக்க	-2811
▁இந்தியா	-2812
▁புள்ள	-2813
▁391	-2814
▁அக்டோபர்	-2815
▁–	-2816
▁சென்று	-2817
▁அழை	-2818
ரத்தில்	-2819
▁412	-2820
▁446	-2821
▁அணியின்	-2822
டோ	-2823
தர	-2824
▁ஒலி	-2825
▁செய்யும்	-2826
நகர்	-2827
ங்கியது	-2828
வாய	-2829
மக்க	-2830
861	-2831
▁ஜன	-2832
ர்ட்	-2833
ப்படுவத	-2834
it	-2835
▁எனவே	-2836
▁பரவ	-2837
ிரா	-2838
ிக்கப்பட்டது	-2839
▁=	-2840
ீர்	-2841
▁ஆட்ட	-2842
▁கட்ச	-2843
வடிக்க	-2844
471	-2845
லுக்கு	-2846
▁செய்க	-2847
▁வகையில்	-2848
▁2004	-2849
புரி	-2850
▁பிரித்தானிய	-2851
ஞர்	-2852
▁முறைப்படி	-2853
▁மூலக்கூ	-2854
▁உற்பத்தி	-2855
▁349	-2856
▁423	-2857
னோ	-2858
ஞான	-2859
▁400	-2860
▁பிரான்	-2861
▁மீட்டர்	-2862
▁H	-2863
▁401	-2864
▁பயி	-2865
▁இருக்கிறது	-2866
▁464	-2867
▁467	-2868
▁முழுவத	-2869
▁கைய	-2870
மாகவும்	-2871
▁கொண்டுள்ளார்	-2872
ன்கள்	-2873
▁வருகிறது	-2874
▁பக்க	-2875
▁மட்டும்	-2876
ச்சிய	-2877
▁அமைச்ச	-2878
ரியில்	-2879
ர்ப்ப	-2880
▁பகுதிகளில்	-2881
▁நடவடிக்க	-2882
▁தாம	-2883
▁N	-2884
▁வெளிப்ப	-2885
869	-2886
▁இருப்ப	-2887
ாங்க	-2888
▁477	-2889
▁ஆசிய	-2890
ைகளுக்கு	-2891
ாவை	-2892
்தர	-2893
▁ஆக்ச	-2894
ட்ப	-2895
▁நிய	-2896
▁பிள	-2897
▁நடந்த	-2898
பெற்ற	-2899
▁சராசரி	-2900
▁ஆராய்ச்ச	-2901
▁77	-2902
▁361	-2903
▁பஞ்ச	-2904
▁வெளியிட்ட	-2905
மிட	-2906
▁1,	-2907
சம்	-2908
▁இதை	-2909
த்தூர்	-2910
ளவில்	-2911
▁வழியாக	-2912
um	-2913
ுகொண்டார்	-2914
▁வாய	-2915
▁இருந்தார்	-2916
ரியா	-2917
▁தொழில்நுட்ப	-2918
)"	-2919
▁474	-2920
▁மறை	-2921
▁திருத்த	-2922
ரூ	-2923
▁365	-2924
▁பேர்	-2925
▁அடுத்த	-2926
▁கிள	-2927
▁இருப	-2928
விக்க	-2929
▁D	-2930
த்தோ	-2931
▁ஆகியவை	-2932
▁2014	-2933
▁ஆகியோ	-2934
த்திரம்	-2935
▁for	-2936
▁447	-2937
▁நாடுகள்	-2938
▁நடித்துள்ள	-2939
லாமிய	-2940
ின்றார்	-2941
▁மலேசிய	-2942
கைய	-2943
▁குற்ற	-2944
▁குறிப்பாக	-2945
▁468	-2946
▁494	-2947
▁பெற்றது	-2948
ிகளுக்கு	-2949
▁உறுப்பினராக	-2950
▁எனக்	-2951
▁அவர்கள	-2952
▁சேர்த்த	-2953
▁முதல்தர	-2954
461	-2955
481	-2956
ையா	-2957
ட்கள்	-2958
▁மேம்ப	-2959
ன்ம	-2960
▁72	-2961
▁இலக்க	-2962
▁விழுப்பு	-2963
▁உடைய	-2964
ப்ரவ	-2965
▁வயது	-2966
ியல	-2967
▁நாடுகளில்	-2968
தன	-2969
879	-2970
469	-2971
▁நாள	-2972
▁நாடுகள	-2973
வுகள்	-2974
▁அதற்கு	-2975
ப்பகுதியில்	-2976
யூ	-2977
▁s	-2978
▁மி	-2979
▁விமான	-2980
ப்ரல்	-2981
▁உறுத	-2982
ராட்சி	-2983
▁பின்ன	-2984
நே	-2985
▁விஜ	-2986
▁விழுப்புரம்	-2987
ியே	-2988
▁சொல்	-2989
un	-2990
பூர்	-2991
em	-2992
▁நூற்றாண்டில்	-2993
ாதி	-2994
▁உருவாக	-2995
ிருக்கிறது	-2996
▁இரண்டாவது	-2997
▁433	-2998
▁கணித	-2999
▁பதின	-3000
ப்புக்	-3001
▁p	-3002
▁புனித	-3003
▁488	-3004
▁சம்ப	-3005
▁அடையாள	-3006
▁குறித்த	-3007
ac	-3008
ியன்	-3009
▁முக்கியமான	-3010
▁L	-3011
489	-3012
▁கருவ	-3013
▁கால்	-3014
ாலி	-3015
▁வகு	-3016
▁வெற்ற	-3017
▁சர்வ	-3018
▁சூரிய	-3019
▁345	-3020
▁பிள்ள	-3021
▁கடலூர்	-3022
▁390	-3023
ப்பர்	-3024
▁411	-3025
▁அனும	-3026
▁கடவு	-3027
ஸ்வரர்	-3028
▁நூல்	-3029
▁சுத	-3030
ண்களின்	-3031
பொ	-3032
பார	-3033
ெட்	-3034
ற்கும்	-3035
ியலில்	-3036
▁மில்லியன்	-3037
▁மாரியம்மன்	-3038
▁ரூ	-3039
▁உரி	-3040
ிறான்	-3041
▁ஒன்றியம்	-3042
ல்களில்	-3043
ing	-3044
ரசு	-3045
தாகக்	-3046
os	-3047
▁தேவை	-3048
வெளி	-3049
▁399	-3050
▁2012	-3051
▁தொடக்க	-3052
▁நவம்பர்	-3053
ளோரை	-3054
▁497	-3055
▁வேதிய	-3056
▁சிக்க	-3057
▁385	-3058
ன்ச	-3059
த்தல்	-3060
▁கிடைக்க	-3061
துக	-3062
▁மற	-3063
▁422	-3064
னாக	-3065
▁தாவர	-3066
▁வடக்கு	-3067
▁484	-3068
ப்ரவரி	-3069
▁இடத்தில்	-3070
479	-3071
▁(1	-3072
▁409	-3073
ர்மான	-3074
▁நாட்டு	-3075
தியும்	-3076
▁ஏப்ரல்	-3077
ொருள	-3078
▁375	-3079
▁478	-3080
▁காத	-3081
▁பேரா	-3082
▁போன்றவற்ற	-3083
▁கார்ப	-3084
▁தங்கள்	-3085
▁"(	-3086
மையை	-3087
▁கட்டிட	-3088
ம்மா	-3089
▁சோழ	-3090
த்தும்	-3091
க்காரர்	-3092
▁சை	-3093
▁தங்க	-3094
▁காணப்படுகிறது	-3095
▁பெரும்பாலான	-3096
▁371	-3097
▁69	-3098
▁496	-3099
▁இணைய	-3100
▁வந்து	-3101
▁சேவ	-3102
▁73	-3103
ாந்த	-3104
▁369	-3105
▁395	-3106
▁507	-3107
ுவதற்கு	-3108
▁ஐத	-3109
▁நிர்வாக	-3110
ுகின்றனர்	-3111
▁ஏற்படும்	-3112
▁கல்வியறிவு	-3113
ாளு	-3114
▁இருப்பதால்	-3115
▁யாழ்	-3116
▁தென்ன	-3117
▁மாநிலத்தில்	-3118
▁498	-3119
▁செல்லும்	-3120
▁60	-3121
▁டை	-3122
▁உத்த	-3123
▁உதவ	-3124
▁குடி	-3125
▁கூடுத	-3126
▁சத	-3127
▁குறிக்கும்	-3128
▁பௌ	-3129
▁2016	-3130
▁பத்திர	-3131
▁விலங்க	-3132
▁வழக்கு	-3133
▁அமைக்க	-3134
டுகின்றன	-3135
ாரண	-3136
ுந்த	-3137
திப்பு	-3138
▁வந்தது	-3139
▁மதுரை	-3140
னில்	-3141
▁கிருஷ்ண	-3142
ற்றினார்	-3143
▁ஆப	-3144
▁150	-3145
▁இவர்கள்	-3146
▁453	-3147
▁கதா	-3148
டல்	-3149
▁சிங்க	-3150
▁பிறந்தார்	-3151
ிரம்	-3152
ன்மை	-3153
டுகளை	-3154
▁பங்குகொண்டார்	-3155
▁ராம	-3156
டியாக	-3157
▁திருவ	-3158
▁சேர்க்க	-3159
▁அரிய	-3160
▁ஆண்டுகள்	-3161
mula	-3162
▁நீண்ட	-3163
▁நோக்க	-3164
பால	-3165
▁ல்	-3166
▁தாய	-3167
▁பிரபல	-3168
▁நகரம்	-3169
▁2005	-3170
▁அரி	-3171
▁அய்ய	-3172
ைக்கு	-3173
▁எல்	-3174
▁வெளியே	-3175
▁திரும்ப	-3176
▁2013	-3177
▁ஒருவர்	-3178
▁கோவில்	-3179
▁ஓட்ட	-3180
திகளும்	-3181
ாளுமன்ற	-3182
▁விரும்ப	-3183
க்ஸ்	-3184
▁ஓவிய	-3185
ருடன்	-3186
▁2017	-3187
▁காணப்படுகின்றன	-3188
▁381	-3189
▁தெற்கு	-3190
▁தஞ்ச	-3191
மய	-3192
▁வருட	-3193
▁379	-3194
னுக்கு	-3195
▁நாடாளுமன்ற	-3196
ியார்	-3197
நாட்டு	-3198
▁ஒள	-3199
▁கவன	-3200
▁கற்ப	-3201
▁விநாய	-3202
▁பாதுகாப்பு	-3203
▁விளையாட்டு	-3204
ேக்க	-3205
▁506	-3206
▁508	-3207
வார்கள்	-3208
ப்பூ	-3209
▁தமது	-3210
▁பருவ	-3211
▁தந்தை	-3212
▁நாடக	-3213
ைகளையும்	-3214
▁திருச்ச	-3215
சன்ன	-3216
▁தொலைவில்	-3217
▁தெற்க	-3218
▁விரை	-3219
▁பெற்று	-3220
▁78	-3221
ட்சு	-3222
த்துக்	-3223
திகள்	-3224
▁கருதப்படுகிறது	-3225
▁வல்ல	-3226
▁பை	-3227
ியர்	-3228
▁405	-3229
ராம	-3230
ில்ல	-3231
ரிக்	-3232
ப்புற	-3233
▁கொடு	-3234
▁இந்தக்	-3235
▁தாய்	-3236
▁ஆட்ச	-3237
▁செய்வத	-3238
▁இயற்ப	-3239
நிற	-3240
▁நடைமுறை	-3241
ரிக	-3242
▁452	-3243
▁அதாவது	-3244
▁410	-3245
ித்தது	-3246
யர்	-3247
ியால்	-3248
▁மனை	-3249
▁முனை	-3250
ங்களாக	-3251
▁வரலாற்று	-3252
ir	-3253
க்கா	-3254
▁443	-3255
டாக	-3256
தியாக	-3257
்த்து	-3258
ையாகும்	-3259
ப்பட்டி	-3260
▁வாழ்ந்த	-3261
சியம்	-3262
▁நாடு	-3263
சூ	-3264
▁பகுதிய	-3265
▁செயற்ப	-3266
▁அருகில்	-3267
▁ஏற	-3268
▁எரி	-3269
▁குறிப்பி	-3270
▁உதவிய	-3271
▁504	-3272
▁E	-3273
மிழ்	-3274
▁அதிகமாக	-3275
மன	-3276
▁514	-3277
லாளர்	-3278
▁படைய	-3279
904	-3280
▁பகு	-3281
▁76	-3282
சார்	-3283
▁கற்ற	-3284
▁கட்சி	-3285
ிலிருந்த	-3286
▁செய்தார்	-3287
ர்ச்சி	-3288
தன்	-3289
வீன	-3290
மைக்க	-3291
பின்	-3292
▁என்பவ	-3293
▁கோட்ட	-3294
▁இயங்க	-3295
▁இடம்பெற்ற	-3296
▁517	-3297
ேரி	-3298
▁71	-3299
3494	-3300
பெரு	-3301
▁காய	-3302
▁வாச	-3303
▁உச்ச	-3304
▁குறிய	-3305
▁அத்த	-3306
னியா	-3307
▁429	-3308
▁வேல	-3309
▁நோய்	-3310
▁அவருடைய	-3311
▁மொழியில்	-3312
தைய	-3313
▁நாட்க	-3314
▁சேர்ந்து	-3315
▁செலுத்த	-3316
ாரி	-3317
▁formula	-3318
▁திட்டத்தின்	-3319
▁பெயரில்	-3320
ிலி	-3321
▁வென்ற	-3322
▁யு	-3323
▁432	-3324
ப்பட்டார்	-3325
திரைப்பட	-3326
▁இவ்வாறு	-3327
▁முழுவதும்	-3328
▁சகோ	-3329
▁முருக	-3330
ஸ்வ	-3331
▁2018	-3332
▁பிரச்ச	-3333
பம்	-3334
▁இப்பட	-3335
▁காங்க	-3336
▁சிகிச்ச	-3337
▁லா	-3338
▁527	-3339
▁அழக	-3340
▁பிரதி	-3341
ro	-3342
வெள	-3343
லைக்	-3344
▁தொடர்பு	-3345
ன்ஸ்	-3346
▁அதை	-3347
▁திரைப்படமாகும்	-3348
▁பால்	-3349
ுகின்றது	-3350
▁சக்த	-3351
▁நிரு	-3352
மையில்	-3353
▁கொல்ல	-3354
▁பின்ப	-3355
3694	-3356
ிருப்ப	-3357
▁எண்	-3358
ுகிறார்	-3359
▁தலைவராக	-3360
ிற்கும்	-3361
▁476	-3362
▁516	-3363
▁தொழி	-3364
▁புரா	-3365
▁இராணுவ	-3366
ாண்டு	-3367
▁உலகின்	-3368
▁வேண்டிய	-3369
▁518	-3370
▁தனித்த	-3371
▁கேர	-3372
ந்துள்ளது	-3373
பீ	-3374
▁மேல	-3375
டைந்த	-3376
▁யாழ்ப்பா	-3377
▁415	-3378
▁பழைய	-3379
ap	-3380
மார	-3381
▁ஜெய	-3382
▁முன	-3383
▁கப்ப	-3384
ங்குடி	-3385
ஷ்ட	-3386
ுவை	-3387
▁லி	-3388
திரைப்படம்	-3389
▁கோவில	-3390
▁அரசின்	-3391
▁இடங்களில்	-3392
▁d	-3393
▁75	-3394
▁இசைய	-3395
906	-3396
934	-3397
முத	-3398
▁உள்ளிட்ட	-3399
▁மட	-3400
▁உயிர்	-3401
▁மேற்பட்ட	-3402
▁F	-3403
907	-3404
▁487	-3405
▁மணி	-3406
▁பதில	-3407
▁விரிவ	-3408
▁தேர்தலில்	-3409
ரிட	-3410
▁ஆற	-3411
▁பக	-3412
▁தெரிய	-3413
938	-3414
▁டே	-3415
▁419	-3416
▁பயன	-3417
▁முதலிய	-3418
த்தைத்	-3419
▁526	-3420
▁2010	-3421
3696	-3422
▁வரி	-3423
▁உரிம	-3424
▁எடுத்துக்காட்ட	-3425
3414	-3426
▁425	-3427
▁பட்டம்	-3428
▁கழ	-3429
▁421	-3430
ந்தர	-3431
▁காம	-3432
▁130	-3433
▁1998	-3434
ுகளைக்	-3435
▁காந்த	-3436
த்துவம்	-3437
▁பதிப்ப	-3438
▁திருமணம்	-3439
▁விற்ப	-3440
II	-3441
157	-3442
▁th	-3443
▁சர	-3444
சுவாமி	-3445
▁நட்ச	-3446
▁இவருக்கு	-3447
▁தண்ட	-3448
ப்படுவது	-3449
▁என்க	-3450
▁ஒப்பந்த	-3451
▁கருத்து	-3452
▁வாழும்	-3453
▁இயக்கத்தில்	-3454
997	-3455
ளைய	-3456
ியோ	-3457
ul	-3458
ிடையே	-3459
▁உலோக	-3460
ளும்	-3461
ட்டில்	-3462
ப்பெரு	-3463
▁கருத்த	-3464
▁ஜி	-3465
நெல்வே	-3466
▁சந்திர	-3467
-05	-3468
114	-3469
957	-3470
▁420	-3471
917	-3472
ம்பரிய	-3473
▁போன்றவை	-3474
▁ஆண்டுகளுக்கு	-3475
ங்கை	-3476
வம்	-3477
▁நைட்	-3478
திக்க	-3479
விட்ட	-3480
126	-3481
936	-3482
▁கிறித்த	-3483
▁120	-3484
▁அப்ப	-3485
சாய	-3486
▁அஞ்ச	-3487
ுகளாக	-3488
▁1996	-3489
▁பல்ல	-3490
107	-3491
▁நெடு	-3492
▁உபசன்ன	-3493
▁மிகப்பெ	-3494
▁ரீ	-3495
▁சதுர	-3496
▁எல்லா	-3497
ர்ண	-3498
▁பிரெ	-3499
926	-3500
ிரே	-3501
ுவர்	-3502
ுக்குப்	-3503
▁நகரில்	-3504
▁ஜே	-3505
908	-3506
▁சுழ	-3507
வையாக	-3508
▁அம்ப	-3509
▁போராட்ட	-3510
▁ரி	-3511
3714	-3512
சின்	-3513
▁160	-3514
▁வைத்து	-3515
ளைப்	-3516
்தொகை	-3517
▁சிவன்	-3518
ுக்குத்	-3519
▁நிலையம்	-3520
108	-3521
▁435	-3522
▁தான	-3523
▁கொடுக்க	-3524
க்கர்	-3525
▁ஐரோப்பிய	-3526
▁பயன்படுத்தி	-3527
▁தந்த	-3528
▁உருவாக்கப்பட்ட	-3529
▁524	-3530
▁வரையற	-3531
▁விநாயகர்	-3532
▁கடி	-3533
▁பதிவு	-3534
ாட்டுத்	-3535
▁பிரிவு	-3536
▁திருநெல்வே	-3537
▁ப்	-3538
ாவூர்	-3539
▁அப்போது	-3540
▁வண்ண	-3541
3614	-3542
நி	-3543
▁441	-3544
▁தோல்	-3545
198	-3546
916	-3547
918	-3548
னான	-3549
வித	-3550
937	-3551
லிக்க	-3552
ையைப்	-3553
▁கட்டுர	-3554
▁மூன்றாம்	-3555
914	-3556
ையாள	-3557
▁536	-3558
▁குல	-3559
▁தலைமை	-3560
▁தலைமைய	-3561
▁மார்ச்	-3562
▁வரலாற்ற	-3563
104	-3564
▁442	-3565
த்தம்	-3566
▁போல்	-3567
994	-3568
958	-3569
▁500	-3570
▁ஒருவ	-3571
ாகம	-3572
▁இராக	-3573
ருந்து	-3574
996	-3575
▁1984	-3576
▁தொகுதி	-3577
▁அவர்களின்	-3578
3716	-3579
▁1997	-3580
▁ஆண்டின்	-3581
▁எடுத்து	-3582
மிக்க	-3583
▁தலைவர்	-3584
▁பாரம்பரிய	-3585
138	-3586
மற்ற	-3587
▁கொண்டார்	-3588
196	-3589
br	-3590
▁ஸ்க	-3591
▁1994	-3592
▁அவற்றின்	-3593
▁திருவிழா	-3594
136	-3595
▁இண	-3596
▁புரோ	-3597
▁சுதந்திர	-3598
▁வரலாறு	-3599
ப்பிரிக்க	-3600
▁439	-3601
▁சண்ட	-3602
▁கலா	-3603
158	-3604
முட	-3605
924	-3606
ொன்ற	-3607
▁431	-3608
▁528	-3609
▁இல்லாத	-3610
▁140	-3611
▁விய	-3612
▁அழுத்த	-3613
▁இதழ	-3614
ராகப்	-3615
▁டிசம்பர்	-3616
ங்கலம்	-3617
▁534	-3618
3697	-3619
▁நொ	-3620
ag	-3621
116	-3622
ோன்	-3623
▁486	-3624
▁1957	-3625
▁ஆற்றல்	-3626
137	-3627
ப்பாள	-3628
▁எனப்	-3629
927	-3630
▁சாக	-3631
▁வேக	-3632
▁நிதி	-3633
▁தென்க	-3634
127	-3635
▁ஜான்	-3636
ங்களைப்	-3637
118	-3638
▁இடைய	-3639
▁அனுப்ப	-3640
▁சட்டம்	-3641
▁வந்தார்	-3642
3626	-3643
▁080	-3644
▁2003	-3645
▁நுண்ண	-3646
▁காங்கிர	-3647
▁தொலைக்காட்சி	-3648
194	-3649
மலை	-3650
▁அவ்	-3651
▁இராம	-3652
மின்	-3653
ெய்	-3654
▁451	-3655
▁விச	-3656
▁பாண்டிய	-3657
▁அய்யனார்	-3658
998	-3659
பட்டு	-3660
▁அதனை	-3661
ிகளையும்	-3662
ிருந்தனர்	-3663
2426	-3664
2894	-3665
▁கரை	-3666
ிச்சி	-3667
▁பிரத	-3668
▁அலுவலக	-3669
சில	-3670
ட்கள	-3671
ீட்டு	-3672
▁விடு	-3673
▁ஆகவும்	-3674
▁முன்னாள்	-3675
ாக்கம்	-3676
▁சனவரி	-3677
▁கல்லூரி	-3678
ணா	-3679
117	-3680
134	-3681
3624	-3682
▁462	-3683
▁ஆன்	-3684
▁குறித்து	-3685
▁கண்டுபிடி	-3686
▁இடையே	-3687
▁தெரிவி	-3688
▁வர்த்த	-3689
நல்ல	-3690
பாய்	-3691
▁நீள	-3692
▁சுவாமி	-3693
▁தயாரிக்க	-3694
பிற	-3695
▁சுர	-3696
ation	-3697
ூரில்	-3698
▁சர்வதேச	-3699
106	-3700
▁473	-3701
ைகளைக்	-3702
▁மூலமாக	-3703
▁090	-3704
▁ஒருநாள்	-3705
▁K	-3706
▁பிணை	-3707
▁திருநெல்வேலி	-3708
ுறு	-3709
வொரு	-3710
ிப்பத	-3711
1794	-3712
9216	-3713
ுள்ளன	-3714
▁சரி	-3715
197	-3716
928	-3717
▁அவரை	-3718
ter	-3719
0924	-3720
▁போட்டியிலும்	-3721
9196	-3722
▁மாநிலத்தின்	-3723
▁நப	-3724
▁அண்ண	-3725
▁என்பன	-3726
1654	-3727
3894	-3728
▁430	-3729
▁ஏழு	-3730
▁மற்றொரு	-3731
வார	-3732
▁விடுதலை	-3733
வேறு	-3734
ாவும்	-3735
124	-3736
▁அல்	-3737
▁நித	-3738
▁உண்ட	-3739
▁அதிகரி	-3740
வேண்டும்	-3741
▁மகன்	-3742
▁பாடல்	-3743
▁இவரின்	-3744
1796	-3745
ோட	-3746
▁சிந்த	-3747
▁எழுத்து	-3748
▁விட்டு	-3749
▁இசுலாமிய	-3750
1414	-3751
3698	-3752
▁180	-3753
▁கொடுத்த	-3754
▁நிருவாக	-3755
▁பகுதிகள்	-3756
▁நூற்றாண்டின்	-3757
▁தேர்தல்	-3758
▁170	-3759
ித்	-3760
2666	-3761
9355	-3762
ீக	-3763
ொழ	-3764
ையால்	-3765
ுகோ	-3766
நூல்	-3767
மாக்க	-3768
ள்ளது	-3769
▁இன்று	-3770
0596	-3771
▁463	-3772
▁ஒழு	-3773
பாடுகள்	-3774
he	-3775
2896	-3776
▁கொள்	-3777
0396	-3778
2816	-3779
ன்கு	-3780
ீர	-3781
1226	-3782
ற்சிய	-3783
டுகளில்	-3784
▁தம்	-3785
▁பொறிய	-3786
▁சிறப்ப	-3787
3896	-3788
9256	-3789
ம்பரம்	-3790
0255	-3791
3794	-3792
▁ஆளு	-3793
▁தொடர்பான	-3794
0136	-3795
2326	-3796
9506	-3797
▁பன்னாட்டு	-3798
▁இஸ்	-3799
▁கதை	-3800
ழைக்க	-3801
▁நாடுகளின்	-3802
நகர	-3803
மம்	-3804
2494	-3805
ெல்ல	-3806
▁வாக	-3807
▁அவ்வ	-3808
ையிலும்	-3809
ig	-3810
1396	-3811
2355	-3812
ரசன்	-3813
க்கப்பட்டு	-3814
0994	-3815
9156	-3816
▁அலை	-3817
▁மின	-3818
த்திற்கும்	-3819
▁பேராசிரிய	-3820
▁m	-3821
2496	-3822
▁உண்	-3823
▁2000	-3824
▁கடற்க	-3825
▁திருப்ப	-3826
தனை	-3827
0754	-3828
▁450	-3829
த்துறை	-3830
▁நேபாள	-3831
ப்பானிய	-3832
ைடு	-3833
0914	-3834
2854	-3835
3854	-3836
ெய்த	-3837
▁வடி	-3838
▁இருக்கலாம்	-3839
▁80	-3840
1255	-3841
▁பூச	-3842
ாதாரண	-3843
▁மிகப்பெரிய	-3844
9764	-3845
வக	-3846
2694	-3847
▁1956	-3848
▁ஆஸ்த	-3849
▁சொந்த	-3850
தர்	-3851
▁2002	-3852
▁சரிய	-3853
▁பக்த	-3854
▁நான்க	-3855
1755	-3856
9314	-3857
ம்பி	-3858
க்கான	-3859
ஜா	-3860
0156	-3861
9124	-3862
▁பெரும	-3863
▁ஒன்றாக	-3864
1216	-3865
1658	-3866
2804	-3867
▁சால	-3868
▁கோட்	-3869
▁சுற்ற	-3870
▁அவருக்கு	-3871
ுகு	-3872
1294	-3873
2417	-3874
▁459	-3875
▁537	-3876
ப்பாடு	-3877
நிலையில்	-3878
0104	-3879
0134	-3880
0306	-3881
9704	-3882
ாட்டில்	-3883
▁பிரிக்க	-3884
▁வேதியியல்	-3885
2655	-3886
3844	-3887
9116	-3888
▁the	-3889
▁ஏன	-3890
0155	-3891
2356	-3892
கொ	-3893
0206	-3894
0806	-3895
2304	-3896
9255	-3897
9396	-3898
▁483	-3899
ட்சுமி	-3900
ளோரைடு	-3901
எஸ்	-3902
▁லெ	-3903
2334	-3904
2354	-3905
▁472	-3906
1894	-3907
9206	-3908
9316	-3909
▁070	-3910
▁கதிர	-3911
லாந்து	-3912
0106	-3913
0854	-3914
2424	-3915
▁1954	-3916
▁கிமீ	-3917
த்தினர்	-3918
▁இறப்பு	-3919
ப்பதற்கு	-3920
0855	-3921
9126	-3922
▁தற்கால	-3923
▁கண்டறிய	-3924
ிலை	-3925
0355	-3926
2306	-3927
க்கே	-3928
▁எசு	-3929
ட்டிய	-3930
டிக	-3931
0524	-3932
ஆங்கில	-3933
▁உள்ளடக்கிய	-3934
▁அதிகமான	-3935
1814	-3936
3856	-3937
9294	-3938
9814	-3939
ூர்த	-3940
▁அதனால்	-3941
▁விவசாய	-3942
▁நவீன	-3943
1636	-3944
3796	-3945
▁வகையான	-3946
▁தன்னுடைய	-3947
3826	-3948
ம்ஸ்	-3949
▁445	-3950
▁மென்ப	-3951
▁கிலோமீ	-3952
▁நோக்கி	-3953
▁வங்காள	-3954
ெயர்	-3955
▁வாழ்க	-3956
புர	-3957
0294	-3958
2396	-3959
2897	-3960
9524	-3961
0936	-3962
1817	-3963
3766	-3964
3834	-3965
9324	-3966
▁1955	-3967
▁பௌத்த	-3968
மல	-3969
0356	-3970
0506	-3971
2324	-3972
▁வெவ்	-3973
▁முதலாவது	-3974
▁:	-3975
0996	-3976
9596	-3977
9804	-3978
▁தெள	-3979
▁தேர்வு	-3980
▁விருதுநகர்	-3981
பெய	-3982
0794	-3983
1816	-3984
2824	-3985
9514	-3986
்களை	-3987
1206	-3988
2314	-3989
2814	-3990
▁தேதி	-3991
▁மஞ்ச	-3992
▁பார்த்த	-3993
1214	-3994
1234	-3995
2855	-3996
த்தே	-3997
▁எதி	-3998
▁இந்தத்	-3999
0926	-4000
9155	-4001
9766	-4002
ூட	-4003
0514	-4004
2716	-4005
▁உயர	-4006
▁அட்ட	-4007
ைகிறது	-4008
▁மேற்கொள்ள	-4009
0826	-4010
1256	-4011
1854	-4012
9114	-4013
ராயண	-4014
▁காப்ப	-4015
▁நட்சத்திர	-4016
0204	-4017
0316	-4018
0714	-4019
1326	-4020
3814	-4021
9714	-4022
▁அத்துடன்	-4023
▁நீதிமன்ற	-4024
▁பகுதியாக	-4025
0055	-4026
0904	-4027
3855	-4028
9154	-4029
▁எடு	-4030
▁கர்	-4031
▁பில	-4032
ிகளாக	-4033
▁கனிம	-4034
▁கார்	-4035
ப்புப்	-4036
▁கிராமக்	-4037
▁முதலாம்	-4038
9117	-4039
9224	-4040
▁பொருட்க	-4041
▁முன்னர்	-4042
ப்படவில்லை	-4043
010	-4044
▁-1	-4045
3654	-4046
3717	-4047
5354	-4048
9254	-4049
9534	-4050
9854	-4051
2755	-4052
▁பெரி	-4053
▁மிகப்	-4054
ுகளையும்	-4055
0504	-4056
0804	-4057
0816	-4058
9296	-4059
9317	-4060
0516	-4061
2414	-4062
2806	-4063
3616	-4064
ையைக்	-4065
▁பங்குனி	-4066
▁யாழ்ப்பாண	-4067
1314	-4068
1834	-4069
3655	-4070
3816	-4071
9354	-4072
9504	-4073
▁பின்வரு	-4074
▁பொதுவான	-4075
0704	-4076
0755	-4077
1356	-4078
9104	-4079
9226	-4080
▁மருந்த	-4081
▁வசிக்க	-4082
0337	-4083
0956	-4084
1316	-4085
3837	-4086
9357	-4087
9394	-4088
ிறன்	-4089
ச்சார	-4090
▁1947	-4091
od	-4092
0256	-4093
1354	-4094
2327	-4095
பார்	-4096
▁040	-4097
▁எதிராக	-4098
0314	-4099
0744	-4100
குதி	-4101
▁எந்தவொரு	-4102
1296	-4103
1334	-4104
1804	-4105
3864	-4106
ப்பே	-4107
▁இடையில்	-4108
0196	-4109
0224	-4110
0254	-4111
0844	-4112
9136	-4113
9844	-4114
லால்	-4115
▁போக்குவ	-4116
0304	-4117
1855	-4118
2357	-4119
9306	-4120
ளிர்	-4121
▁460	-4122
▁மொழிய	-4123
ுய	-4124
ளித	-4125
0934	-4126
2316	-4127
3704	-4128
9157	-4129
9706	-4130
▁குண	-4131
க்குப்	-4132
ருக்கும்	-4133
0726	-4134
0796	-4135
0814	-4136
2834	-4137
▁தன்மை	-4138
ரெ	-4139
0884	-4140
ப்படுகிறார்	-4141
▁ரே	-4142
0004	-4143
1306	-4144
3754	-4145
3884	-4146
9134	-4147
9236	-4148
▁190	-4149
ுடனும்	-4150
▁இயற்கை	-4151
மொழ	-4152
0594	-4153
1394	-4154
1734	-4155
▁அளிக்க	-4156
▁யோ	-4157
0326	-4158
1324	-4159
1866	-4160
9194	-4161
▁1948	-4162
▁கரிம	-4163
▁பாகிஸ்த	-4164
0096	-4165
1726	-4166
2864	-4167
9594	-4168
9826	-4169
திரு	-4170
0124	-4171
0334	-4172
0706	-4173
0766	-4174
2826	-4175
9516	-4176
ிலே	-4177
0534	-4178
0955	-4179
3744	-4180
9334	-4181
9526	-4182
▁அன்ன	-4183
▁விஜய	-4184
▁புத்தக	-4185
▁முன்னேற்ற	-4186
0336	-4187
0354	-4188
0834	-4189
1877	-4190
2844	-4191
▁அந்	-4192
ுக்கொள்ள	-4193
த்திலுள்ள	-4194
▁கல்லூரியில்	-4195
0194	-4196
2874	-4197
9796	-4198
ிடும்	-4199
▁கேரள	-4200
▁சொற்க	-4201
2726	-4202
2756	-4203
3604	-4204
9855	-4205
▁250	-4206
ியைப்	-4207
▁முற்ற	-4208
▁கிரேக்க	-4209
▁எண்ணிக்க	-4210
னீ	-4211
1766	-4212
2796	-4213
2884	-4214
3824	-4215
கிரி	-4216
ரான்	-4217
▁டிர	-4218
▁தடு	-4219
▁வரிச	-4220
மாத	-4221
0014	-4222
0158	-4223
0234	-4224
2866	-4225
9824	-4226
ce	-4227
op	-4228
0866	-4229
9304	-4230
▁220	-4231
▁எவ்	-4232
மிருந்து	-4233
ேல்	-4234
0756	-4235
0867	-4236
0906	-4237
9806	-4238
▁திச	-4239
▁அறிமுகப்படுத்த	-4240
ாட்	-4241
ோம்	-4242
3734	-4243
3774	-4244
5855	-4245
ில்லி	-4246
ாப்	-4247
5356	-4248
▁ஆர்வ	-4249
▁உதாரண	-4250
கள்	-4251
1397	-4252
1806	-4253
2336	-4254
2714	-4255
2754	-4256
2777	-4257
9326	-4258
ாவிட	-4259
▁469	-4260
▁மாறு	-4261
ார்த்த	-4262
▁முயற்ச	-4263
ா்	-4264
1204	-4265
2856	-4266
9834	-4267
▁482	-4268
▁0466	-4269
0117	-4270
0296	-4271
1857	-4272
9214	-4273
ிவர்	-4274
▁சாதன	-4275
▁வேளா	-4276
▁உருவாக்கிய	-4277
1236	-4278
1856	-4279
9884	-4280
9896	-4281
▁030	-4282
▁060	-4283
▁அதிகம்	-4284
2394	-4285
9106	-4286
9756	-4287
▁449	-4288
▁ஏற்க	-4289
▁தெலு	-4290
340	-4291
0357	-4292
0734	-4293
1304	-4294
▁471	-4295
▁பச்ச	-4296
ak	-4297
0116	-4298
0784	-4299
0874	-4300
1254	-4301
2706	-4302
2744	-4303
9234	-4304
ன்கள	-4305
ேர்ம	-4306
▁0416	-4307
0236	-4308
2734	-4309
3804	-4310
3866	-4311
9536	-4312
▁திகதி	-4313
2766	-4314
3877	-4315
9755	-4316
▁0677	-4317
▁நடித்துள்ளனர்	-4318
0056	-4319
0214	-4320
0716	-4321
0774	-4322
0894	-4323
1224	-4324
1706	-4325
▁1958	-4326
▁கொண்டிருக்கும்	-4327
கே	-4328
0154	-4329
1896	-4330
3706	-4331
3736	-4332
9864	-4333
த்துப்	-4334
▁பன்னாட்டுத்	-4335
2736	-4336
5255	-4337
9894	-4338
▁020	-4339
ெனில்	-4340
▁தனிம	-4341
னது	-4342
ெல்	-4343
0226	-4344
0526	-4345
1824	-4346
2867	-4347
3755	-4348
3836	-4349
▁பண்டைய	-4350
0324	-4351
0597	-4352
0916	-4353
1336	-4354
▁481	-4355
▁சிர	-4356
▁0766	-4357
▁1999	-4358
▁தீவிர	-4359
▁குழந்தை	-4360
ணு	-4361
1724	-4362
1754	-4363
9204	-4364
▁இயல்ப	-4365
▁சான்ற	-4366
பவ	-4367
0034	-4368
0824	-4369
2784	-4370
2794	-4371
9356	-4372
▁அண்ட	-4373
ப்பகுதி	-4374
0857	-4375
1624	-4376
3806	-4377
9336	-4378
ையாகக்	-4379
▁கிட்ட	-4380
3724	-4381
3874	-4382
5234	-4383
5856	-4384
▁461	-4385
ந்தர்	-4386
▁0406	-4387
ையானது	-4388
▁மண்டல	-4389
▁ஆங்கிலேய	-4390
▁போக்குவர	-4391
▁தஞ்சாவூர்	-4392
0394	-4393
1126	-4394
9358	-4395
9836	-4396
னூர்	-4397
▁செல்க	-4398
▁தெய்வ	-4399
950	-4400
0126	-4401
3897	-4402
5304	-4403
▁ஆவார்கள்	-4404
▁சேர்த்து	-4405
▁அழைக்கப்படும்	-4406
0864	-4407
3857	-4408
9257	-4409
9856	-4410
ிமுற	-4411
▁0154	-4412
▁1006	-4413
▁மெய்ய	-4414
பிய	-4415
1355	-4416
1764	-4417
5216	-4418
9866	-4419
▁வேத	-4420
▁0457	-4421
▁நுட்ப	-4422
▁குடியரச	-4423
▁அமெரிக்கா	-4424
et	-4425
0958	-4426
2764	-4427
ல்லி	-4428
ாலம்	-4429
▁தின	-4430
▁பாவ	-4431
்களில்	-4432
▁விமர்	-4433
og	-4434
▁தை	-4435
0094	-4436
0536	-4437
9744	-4438
ுக்கொ	-4439
▁0304	-4440
▁இத்தகைய	-4441
1826	-4442
1864	-4443
ன்றி	-4444
▁ஆல்	-4445
▁நான்	-4446
0114	-4447
2724	-4448
5206	-4449
9726	-4450
ராக்	-4451
ெடுத்த	-4452
▁நூற்றாண்டு	-4453
▁நல	-4454
0054	-4455
0157	-4456
0896	-4457
1656	-4458
1884	-4459
0207	-4460
1657	-4461
ந்துக	-4462
▁0156	-4463
▁0296	-4464
▁0396	-4465
▁மாவட்டத்தின்	-4466
0836	-4467
1844	-4468
3726	-4469
5214	-4470
▁மான	-4471
▁1934	-4472
▁கௌ	-4473
0954	-4474
9434	-4475
▁வலி	-4476
ரையில்	-4477
ுவையில்	-4478
▁எதிரான	-4479
▁உயர்ந்த	-4480
▁கொண்டிருந்த	-4481
▁அமெரிக்காவில்	-4482
0257	-4483
3756	-4484
ழ்ச்ச	-4485
▁0655	-4486
▁பள்ளி	-4487
▁வாக்க	-4488
▁எண்ணிக்கை	-4489
2704	-4490
9754	-4491
▁யான	-4492
▁சேவை	-4493
▁பணிய	-4494
வதற்கு	-4495
2857	-4496
▁0206	-4497
ங்களுடன்	-4498
சிற	-4499
0764	-4500
2774	-4501
▁சுய	-4502
▁நெற	-4503
ையைச்	-4504
▁0014	-4505
▁0534	-4506
180	-4507
சால	-4508
0024	-4509
1836	-4510
2757	-4511
2888	-4512
5306	-4513
▁050	-4514
▁0496	-4515
▁0596	-4516
▁1967	-4517
▁உயிரின	-4518
▁திருமண	-4519
0957	-4520
2836	-4521
ரோடு	-4522
பாட்ட	-4523
▁பற்ற	-4524
▁ஆக்சி	-4525
▁பரிந்து	-4526
▁உள	-4527
1594	-4528
3757	-4529
ரிடம்	-4530
▁கட்டுப்படுத்த	-4531
ிகா	-4532
0258	-4533
9158	-4534
9816	-4535
9904	-4536
▁0624	-4537
▁சப	-4538
1744	-4539
1788	-4540
5254	-4541
9597	-4542
▁0096	-4543
▁0306	-4544
▁0606	-4545
▁வம்ச	-4546
▁இம்மாவட்ட	-4547
▁பொருட்கள்	-4548
9297	-4549
நாதர்	-4550
▁0755	-4551
▁0914	-4552
▁சுட்ட	-4553
▁பொழுது	-4554
0197	-4555
2696	-4556
▁0354	-4557
▁உட்க	-4558
▁உதவி	-4559
▁பலரும்	-4560
230	-4561
ாலய	-4562
▁இரும்	-4563
▁வெங்க	-4564
த்திற்கான	-4565
▁ஆகியவற்றை	-4566
கண	-4567
லெ	-4568
1655	-4569
5394	-4570
ந்த்	-4571
▁0794	-4572
ூர	-4573
்டு	-4574
1714	-4575
9397	-4576
9858	-4577
▁பயன்படுகிறது	-4578
1696	-4579
2358	-4580
▁சூலை	-4581
▁சாதாரண	-4582
ைகளிலும்	-4583
-1	-4584
ினா	-4585
1257	-4586
1867	-4587
▁தேச	-4588
▁0055	-4589
▁0104	-4590
▁0254	-4591
▁பதிவ	-4592
▁அடுத்து	-4593
▁தமிழில்	-4594
த்துள்ளார்	-4595
▁ஆழ	-4596
0507	-4597
2317	-4598
5204	-4599
5324	-4600
▁0258	-4601
▁0355	-4602
▁0788	-4603
▁0958	-4604
▁0994	-4605
av	-4606
910	-4607
ent	-4608
நர்	-4609
வாற	-4610
1124	-4611
1596	-4612
1888	-4613
▁0657	-4614
▁1004	-4615
▁1106	-4616
ுட்பட்ட	-4617
▁இவருடைய	-4618
▁துறைமுக	-4619
▁வெளிப்படுத்த	-4620
1258	-4621
1358	-4622
1858	-4623
▁ஒருங்கி	-4624
0856	-4625
1634	-4626
▁470	-4627
▁அரசியல்வாத	-4628
130	-4629
0777	-4630
5224	-4631
5236	-4632
▁0656	-4633
▁0658	-4634
▁0834	-4635
ுறுத்த	-4636
1774	-4637
னியம்	-4638
▁0054	-4639
▁0454	-4640
▁வாய்ந்த	-4641
0036	-4642
0397	-4643
1506	-4644
9198	-4645
ட்டம்	-4646
▁1014	-4647
▁1974	-4648
▁வெவ்வேறு	-4649
▁இலங்கையின்	-4650
▁புகழ்பெற்ற	-4651
▁ரெ	-4652
0724	-4653
2846	-4654
3867	-4655
▁480	-4656
▁0194	-4657
▁0714	-4658
0006	-4659
0058	-4660
2788	-4661
3758	-4662
3777	-4663
5355	-4664
9197	-4665
9335	-4666
9914	-4667
9996	-4668
▁ஆவண	-4669
▁0155	-4670
▁0688	-4671
▁0694	-4672
▁1977	-4673
▁பிரி	-4674
▁கேட்ட	-4675
▁முடிவு	-4676
▁தொடர்புடைய	-4677
▁V	-4678
0016	-4679
1534	-4680
3797	-4681
னைக்	-4682
ோவில்	-4683
▁0057	-4684
▁0804	-4685
▁வெடி	-4686
▁நூல்கள்	-4687
▁வாழ்க்கை	-4688
0917	-4689
5314	-4690
▁479	-4691
▁0106	-4692
▁0196	-4693
▁0814	-4694
த்துக்கள்	-4695
0757	-4696
1797	-4697
ல்லிய	-4698
▁0414	-4699
▁0758	-4700
▁துவக்க	-4701
▁பேரரசு	-4702
▁நிறுத்த	-4703
▁வர்த்தக	-4704
ையோ	-4705
▁லீ	-4706
0876	-4707
1217	-4708
9916	-4709
ாட்ச	-4710
▁கடு	-4711
▁0956	-4712
▁1924	-4713
▁1988	-4714
ுக்குக்	-4715
▁இயந்திர	-4716
3764	-4717
3858	-4718
ரைப்	-4719
▁0957	-4720
▁விவரிக்க	-4721
980	-4722
ெழு	-4723
0877	-4724
5256	-4725
5294	-4726
▁பரு	-4727
படும்	-4728
▁0114	-4729
▁0204	-4730
▁1980	-4731
▁காட்சி	-4732
▁ஈடுபட்ட	-4733
▁குறைவான	-4734
▁மிகுந்த	-4735
த்துள்ளது	-4736
▁நாட்டில்	-4737
im	-4738
0216	-4739
0297	-4740
2877	-4741
▁0358	-4742
▁0494	-4743
▁0634	-4744
▁0696	-4745
▁ஐந்த	-4746
▁விபர	-4747
▁சிற்ப	-4748
சல்	-4749
0736	-4750
1298	-4751
1758	-4752
1777	-4753
3886	-4754
பாத்	-4755
ற்றை	-4756
முள்ள	-4757
▁0004	-4758
▁0488	-4759
▁0744	-4760
▁1094	-4761
▁சக்க	-4762
▁வருகிறார்	-4763
▁ஆப்பிரிக்க	-4764
மதி	-4765
0997	-4766
1514	-4767
9398	-4768
9924	-4769
ின்றி	-4770
▁0357	-4771
▁0506	-4772
▁0604	-4773
▁0904	-4774
▁எளித	-4775
▁பத்து	-4776
▁முத்த	-4777
ட்டத்தில்	-4778
170	-4779
270	-4780
▁0006	-4781
▁0456	-4782
▁0856	-4783
▁1058	-4784
160	-4785
280	-4786
0358	-4787
1786	-4788
2767	-4789
▁0597	-4790
▁1987	-4791
▁1990	-4792
▁சூழ்	-4793
▁நண்ப	-4794
▁சோவிய	-4795
▁பங்கள	-4796
▁பரிசு	-4797
1736	-4798
மொழி	-4799
▁0255	-4800
▁0434	-4801
ாளர்கள	-4802
▁இருந்தன	-4803
▁சிதம்பரம்	-4804
020	-4805
ுடை	-4806
▁மய	-4807
0788	-4808
1716	-4809
3788	-4810
▁0477	-4811
▁0858	-4812
▁இதுவே	-4813
▁பிரெஞ்சு	-4814
260	-4815
1297	-4816
2454	-4817
5336	-4818
9258	-4819
யின்	-4820
▁0157	-4821
▁0504	-4822
▁0877	-4823
▁1355	-4824
▁தண்ண	-4825
பட்டி	-4826
▁0784	-4827
▁1057	-4828
▁சிங்	-4829
குப்பு	-4830
த்தினை	-4831
ம்பட்டி	-4832
வள	-4833
930	-4834
0846	-4835
0886	-4836
1846	-4837
2644	-4838
2656	-4839
▁0257	-4840
▁0954	-4841
▁1056	-4842
▁விதி	-4843
▁இறுதியில்	-4844
மர	-4845
0888	-4846
நல்லூர்	-4847
▁ஒருங்கிணை	-4848
சர்	-4849
2398	-4850
▁இக்	-4851
▁மரண	-4852
▁0654	-4853
▁0754	-4854
▁0866	-4855
▁1155	-4856
▁1978	-4857
▁நிகழ்வ	-4858
க்கப்பட்டார்	-4859
1194	-4860
1524	-4861
1756	-4862
3807	-4863
9127	-4864
▁0334	-4865
▁0756	-4866
920	-4867
=34	-4868
▁அன	-4869
1237	-4870
2848	-4871
5296	-4872
9955	-4873
="34	-4874
நாயக	-4875
டியம்	-4876
ிறாள்	-4877
▁0058	-4878
▁0094	-4879
▁0768	-4880
▁0896	-4881
▁பிடி	-4882
▁தட	-4883
1666	-4884
பால்	-4885
▁0524	-4886
▁0706	-4887
▁1204	-4888
▁தொகுப்பு	-4889
தீ	-4890
0026	-4891
0335	-4892
1307	-4893
1327	-4894
1335	-4895
1664	-4896
3868	-4897
9936	-4898
▁தடை	-4899
▁பண்	-4900
▁0234	-4901
▁0468	-4902
▁1936	-4903
▁அவன்	-4904
▁பழங்க	-4905
▁மார்க	-4906
▁வயதில்	-4907
1868	-4908
1996	-4909
9956	-4910
▁0594	-4911
▁0704	-4912
▁0857	-4913
ப்படாத	-4914
▁கடந்த	-4915
▁மிக்க	-4916
▁போரில்	-4917
2837	-4918
2876	-4919
த்தீ	-4920
▁0034	-4921
▁0458	-4922
▁1357	-4923
▁இணைக்க	-4924
▁பணியாற்றிய	-4925
நீர்	-4926
▁1158	-4927
▁சூன்	-4928
டெ	-4929
லாய	-4930
0227	-4931
0758	-4932
1536	-4933
1906	-4934
9874	-4935
▁ஊர்	-4936
▁குத	-4937
▁0394	-4938
▁ஆயுத	-4939
ிந்திய	-4940
▁உள்ளார்	-4941
1704	-4942
9926	-4943
▁அலக	-4944
▁ஞான	-4945
ுக்கோ	-4946
▁0724	-4947
▁0844	-4948
▁1214	-4949
க்குடி	-4950
▁விக்க	-4951
te	-4952
0127	-4953
1114	-4954
1338	-4955
1357	-4956
1606	-4957
1626	-4958
5334	-4959
ன்பது	-4960
ைகளாக	-4961
▁0294	-4962
▁கூறிய	-4963
120	-4964
5297	-4965
9877	-4966
▁230	-4967
▁0036	-4968
▁0796	-4969
▁1114	-4970
▁1256	-4971
▁ஒத்த	-4972
▁அமிலம்	-4973
▁இயக்கிய	-4974
▁தீர்மான	-4975
▁இருக்கின்றன	-4976
1784	-4977
▁240	-4978
்தான்	-4979
▁1055	-4980
▁1196	-4981
0008	-4982
9327	-4983
▁வளை	-4984
ுவின்	-4985
▁1254	-4986
▁கற்க	-4987
▁சுற்றி	-4988
ஞ்	-4989
0097	-4990
1504	-4991
1757	-4992
1897	-4993
1955	-4994
2858	-4995
5396	-4996
9225	-4997
▁(20	-4998
▁சுக	-4999
▁0404	-5000
▁1054	-5001
▁தொகையில்	-5002
▁பாடல்கள்	-5003
380	-5004
த்ம	-5005
துக்க	-5006
▁0256	-5007
▁0474	-5008
▁ஆதார	-5009
▁நகர்	-5010
▁பின்வருமாறு	-5011
1308	-5012
1874	-5013
5358	-5014
▁நாண	-5015
▁0614	-5016
▁0868	-5017
▁1104	-5018
▁சதவீ	-5019
▁நிலுவையில்	-5020
970	-5021
0238	-5022
5357	-5023
தான்	-5024
▁கந்த	-5025
1614	-5026
9867	-5027
த்தாழ	-5028
▁1896	-5029
▁தர்ம	-5030
ப்பான்	-5031
▁நிறைவே	-5032
▁கைப்பற்ற	-5033
ஃப	-5034
ானா	-5035
0327	-5036
1674	-5037
9137	-5038
▁465	-5039
▁0757	-5040
▁1154	-5041
▁1206	-5042
▁அம்ச	-5043
▁காட்ச	-5044
▁சாம்ப	-5045
▁இந்தியத்	-5046
370	-5047
0307	-5048
9934	-5049
தற்கு	-5050
▁1296	-5051
▁1304	-5052
▁1504	-5053
▁பிப்ரவரி	-5054
தோ	-5055
050	-5056
2677	-5057
9527	-5058
▁0636	-5059
▁இச்சேர்ம	-5060
▁in	-5061
2406	-5062
3846	-5063
9508	-5064
▁490	-5065
▁1358	-5066
▁பெர்	-5067
▁இறந்த	-5068
ப்புகளை	-5069
090	-5070
9897	-5071
்டர்	-5072
▁உட்பட	-5073
▁அணுக்க	-5074
▁கடைசிய	-5075
▁ஒன்றியத்தின்	-5076
9954	-5077
▁0136	-5078
▁0864	-5079
▁0867	-5080
▁1406	-5081
▁1857	-5082
▁1894	-5083
▁வெளியான	-5084
030	-5085
0217	-5086
0786	-5087
1827	-5088
1876	-5089
9208	-5090
▁ஆதர	-5091
▁கவு	-5092
▁0514	-5093
▁1914	-5094
▁நுழை	-5095
்களின்	-5096
▁காட்டு	-5097
1677	-5098
2604	-5099
3768	-5100
▁வைக	-5101
▁0336	-5102
▁0356	-5103
▁0436	-5104
▁0455	-5105
▁பின்பு	-5106
ஆங்கிலம்	-5107
▁தேவையான	-5108
▁கவ	-5109
0027	-5110
1956	-5111
▁1394	-5112
▁எட்டு	-5113
▁நிறுவனங்கள்	-5114
▁நிறுவனத்தின்	-5115
▁பணியாற்றினார்	-5116
0237	-5117
1225	-5118
1835	-5119
2674	-5120
2827	-5121
2865	-5122
2885	-5123
ிற்கான	-5124
▁பேரரசின்	-5125
0858	-5126
1904	-5127
2875	-5128
▁0158	-5129
▁0214	-5130
▁0955	-5131
▁1414	-5132
▁1906	-5133
▁உடன்	-5134
▁தத்துவ	-5135
1227	-5136
1847	-5137
2397	-5138
2886	-5139
5258	-5140
▁0134	-5141
▁0314	-5142
▁0855	-5143
▁0934	-5144
▁1964	-5145
▁1976	-5146
▁வரையறுக்க	-5147
▁நிருவாகியால்	-5148
0527	-5149
1337	-5150
1604	-5151
2307	-5152
2325	-5153
3888	-5154
▁1194	-5155
▁1354	-5156
▁1404	-5157
▁திறன்	-5158
▁கூட்டு	-5159
0057	-5160
0225	-5161
1644	-5162
1776	-5163
2455	-5164
3847	-5165
9237	-5166
9848	-5167
9857	-5168
ிட்டி	-5169
▁1096	-5170
▁1458	-5171
மானார்	-5172
ைகளைப்	-5173
வர்களுக்கு	-5174
▁84	-5175
▁475	-5176
▁544	-5177
ாட்டி	-5178
ானின்	-5179
▁1157	-5180
▁ஜூன்	-5181
▁உலகப்	-5182
▁ஜெர்ம	-5183
▁போன்று	-5184
▁விகிதம்	-5185
0537	-5186
1134	-5187
2835	-5188
9325	-5189
▁அணு	-5190
▁0854	-5191
▁1234	-5192
▁1356	-5193
▁1455	-5194
▁நேரத்தில்	-5195
0927	-5196
2636	-5197
2667	-5198
9307	-5199
9794	-5200
9994	-5201
ச்சுவ	-5202
▁0894	-5203
▁1306	-5204
▁1466	-5205
ும்போது	-5206
▁காரணம்	-5207
0878	-5208
ன்ட்	-5209
ரைக்க	-5210
▁0224	-5211
▁0806	-5212
▁1986	-5213
▁முன்பு	-5214
மல்	-5215
▁க்	-5216
2337	-5217
▁உணவ	-5218
▁0644	-5219
▁1294	-5220
▁1904	-5221
த்தினால்	-5222
கிழ	-5223
▁அம்ம	-5224
▁இராஜ	-5225
▁அரசாங்க	-5226
▁என்றால்	-5227
▁இந்தியாவ	-5228
▁கிடைக்கும்	-5229
0007	-5230
1155	-5231
1208	-5232
1898	-5233
9298	-5234
9517	-5235
▁இதே	-5236
▁0536	-5237
▁1477	-5238
▁வடிவமை	-5239
▁ஆராய்ச்சி	-5240
1807	-5241
1848	-5242
3825	-5243
5226	-5244
▁0924	-5245
▁1688	-5246
▁ஆல்ப	-5247
▁பந்த	-5248
▁வளிம	-5249
▁இறுதி	-5250
ராள	-5251
9757	-5252
▁1258	-5253
▁1594	-5254
▁1644	-5255
▁வாங்க	-5256
▁உள்ளூர்	-5257
▁முந்தைய	-5258
990	-5259
2868	-5260
9107	-5261
▁485	-5262
▁பாய	-5263
▁1606	-5264
▁1877	-5265
▁பத்த	-5266
ளவ	-5267
0515	-5268
0868	-5269
2845	-5270
3876	-5271
9337	-5272
9906	-5273
9957	-5274
9958	-5275
▁நாவ	-5276
▁1396	-5277
▁மன்னர்	-5278
▁பயிற்சி	-5279
▁அடிப்படை	-5280
▁மூன்றாவது	-5281
520	-5282
1886	-5283
3835	-5284
5326	-5285
9784	-5286
▁0906	-5287
▁1134	-5288
▁1596	-5289
▁1758	-5290
▁1866	-5291
மங்கலம்	-5292
ip	-5293
ாலா	-5294
களில்	-5295
▁0056	-5296
▁0124	-5297
▁1855	-5298
▁சேலம்	-5299
▁நாட்கள்	-5300
070	-5301
1317	-5302
1885	-5303
2758	-5304
5257	-5305
ஸ்தா	-5306
▁0484	-5307
▁1024	-5308
▁1494	-5309
▁அன்ப	-5310
▁எலும்	-5311
▁தெளிவ	-5312
▁வானூர்த	-5313
▁செய்யப்பட்டது	-5314
▁லூ	-5315
1694	-5316
2887	-5317
▁1656	-5318
▁குறைவாக	-5319
0317	-5320
2684	-5321
2817	-5322
ொழுது	-5323
▁0996	-5324
▁1604	-5325
ாக்கள்	-5326
▁காலப்	-5327
▁ஆட்சிய	-5328
ண்மையில்	-5329
▁தாக்குத	-5330
ec	-5331
கிர	-5332
▁பன	-5333
1924	-5334
2688	-5335
2807	-5336
9507	-5337
9997	-5338
▁489	-5339
▁ஆண்	-5340
▁0767	-5341
▁1806	-5342
▁1814	-5343
▁உடன்ப	-5344
▁முருகன்	-5345
ப்பட்டனர்	-5346
▁வருகின்றன	-5347
iv	-5348
சிவ	-5349
▁டோ	-5350
2847	-5351
9227	-5352
9876	-5353
▁ஆலய	-5354
▁டால	-5355
▁0874	-5356
▁1454	-5357
▁இத்தால	-5358
▁n	-5359
0107	-5360
1936	-5361
3878	-5362
9888	-5363
▁1257	-5364
▁கண்க	-5365
▁பயிர	-5366
▁ஏறத்தாழ	-5367
0897	-5368
9332	-5369
நிதி	-5370
▁1034	-5371
▁1696	-5372
▁நேரம்	-5373
▁வெள்ளை	-5374
▁திரைப்படத்தில்	-5375
ang	-5376
யோக	-5377
0847	-5378
2797	-5379
3887	-5380
த்தள	-5381
▁0424	-5382
▁0848	-5383
▁1156	-5384
▁1496	-5385
▁திரை	-5386
▁திராவிட	-5387
▁இருந்தாலும்	-5388
0115	-5389
0137	-5390
1104	-5391
2333	-5392
2654	-5393
ரைக்	-5394
ப்பம்	-5395
▁0734	-5396
▁தக்க	-5397
ப்பிரமண	-5398
▁படுத்த	-5399
3875	-5400
9115	-5401
▁0497	-5402
ரியின்	-5403
ங்களால்	-5404
▁நினைவு	-5405
▁சோவியத்	-5406
▁திட்டம்	-5407
▁b	-5408
0748	-5409
1957	-5410
5316	-5411
9505	-5412
▁0144	-5413
▁0764	-5414
▁ஆஸ்திரே	-5415
▁இன்னும்	-5416
1954	-5417
2335	-5418
3747	-5419
5327	-5420
ீரர்	-5421
▁554	-5422
▁ஊடக	-5423
ிக்கோ	-5424
▁கிரிக்க	-5425
▁என்பதால்	-5426
ath	-5427
0017	-5428
2878	-5429
9868	-5430
தியான	-5431
▁1973	-5432
▁ஒல	-5433
1914	-5434
2614	-5435
ரமாக	-5436
▁அணை	-5437
வைகள்	-5438
▁0467	-5439
ப்பொரு	-5440
வர்களின்	-5441
▁2,	-5442
2668	-5443
3746	-5444
▁1464	-5445
▁1704	-5446
▁1706	-5447
▁நாராயண	-5448
▁கொள்ளவில்லை	-5449
360	-5450
1207	-5451
1865	-5452
1887	-5453
2606	-5454
ப்பர	-5455
ையைத்	-5456
▁1255	-5457
▁செரு	-5458
▁அறிவு	-5459
▁எழுத்தாளர்	-5460
1106	-5461
1767	-5462
1994	-5463
▁தவற	-5464
▁ஆவர்	-5465
▁ஆகியன	-5466
▁ஏற்று	-5467
▁கட்சியின்	-5468
▁இங்கிலாந்த	-5469
ud	-5470
1004	-5471
1116	-5472
1878	-5473
2657	-5474
2825	-5475
9395	-5476
9887	-5477
▁1655	-5478
▁1677	-5479
▁1788	-5480
▁செயற்க	-5481
▁0236	-5482
▁1614	-5483
▁கல்வெ	-5484
▁எதிர்க	-5485
▁நடைபெறும்	-5486
2778	-5487
▁எதிர்ம	-5488
080	-5489
ஷன்	-5490
▁சேக	-5491
▁போக	-5492
த்தான	-5493
ராவார்	-5494
▁பெண்ண	-5495
▁விளைவ	-5496
▁பொருத்த	-5497
▁ஆண	-5498
3817	-5499
ங்கல்	-5500
▁0464	-5501
▁1966	-5502
▁இருவரும்	-5503
ையிலிருந்து	-5504
0768	-5505
2634	-5506
3784	-5507
சியா	-5508
▁and	-5509
▁1457	-5510
▁1468	-5511
▁1856	-5512
▁கீழே	-5513
▁அதிகரிக்க	-5514
▁உபசன்னதிகளும்	-5515
0325	-5516
1875	-5517
▁0397	-5518
▁1434	-5519
▁1456	-5520
▁1514	-5521
லத்தில்	-5522
▁மதிப்பு	-5523
▁குடியேற்ற	-5524
ேர்	-5525
▁70	-5526
0907	-5527
1196	-5528
ந்தா	-5529
▁இப்	-5530
▁1314	-5531
▁1757	-5532
▁1804	-5533
▁சுரு	-5534
▁நூலக	-5535
▁படுக	-5536
1322	-5537
2308	-5538
ாளையம்	-5539
▁கதாபா	-5540
0517	-5541
1516	-5542
1845	-5543
9338	-5544
▁1794	-5545
▁1858	-5546
▁பாடிய	-5547
▁மாற்றம்	-5548
▁அடங்கும்	-5549
nd	-5550
▁82	-5551
▁ஹோ	-5552
1688	-5553
9537	-5554
9598	-5555
▁தரு	-5556
▁1944	-5557
▁கான்	-5558
பிறப்பு	-5559
ிக்கிறது	-5560
▁ட்	-5561
1154	-5562
2444	-5563
2787	-5564
3634	-5565
டியோ	-5566
▁0297	-5567
த்தனர்	-5568
▁ஏனெனில்	-5569
மிழ	-5570
1333	-5571
3644	-5572
5225	-5573
9333	-5574
▁0388	-5575
▁1694	-5576
▁அமைந்துள்ளன	-5577
▁O	-5578
1684	-5579
1837	-5580
2833	-5581
3833	-5582
9217	-5583
ென்ற	-5584
க்கள்	-5585
▁1657	-5586
▁1714	-5587
▁1834	-5588
▁நீக்க	-5589
ீப	-5590
ரசி	-5591
0398	-5592
0998	-5593
1315	-5594
2747	-5595
த்தட்ட	-5596
▁வீட்ட	-5597
▁பெண்கள	-5598
▁நடித்தார்	-5599
▁தொடங்கியது	-5600
▁பெரும்பான்	-5601
▁மூலக்கூற்று	-5602
மக	-5603
0037	-5604
1398	-5605
2664	-5606
5307	-5607
▁1755	-5608
▁1796	-5609
▁வழங்கப்பட்டது	-5610
0208	-5611
9222	-5612
▁0024	-5613
▁2056	-5614
▁நெரு	-5615
▁இராச்சிய	-5616
ிருக்கிறார்	-5617
▁குழந்தைகள்	-5618
0215	-5619
0395	-5620
2315	-5621
2873	-5622
3674	-5623
3815	-5624
ட்ஸ்	-5625
னுடன்	-5626
▁1334	-5627
▁நியம	-5628
ுறையில்	-5629
▁உலகில்	-5630
ிச	-5631
0322	-5632
0767	-5633
2895	-5634
3767	-5635
ராய்	-5636
▁564	-5637
லிங்க	-5638
▁0044	-5639
▁0197	-5640
முறையில்	-5641
▁பெண்களின்	-5642
0198	-5643
0508	-5644
1156	-5645
1395	-5646
1768	-5647
▁0364	-5648
▁1506	-5649
▁1534	-5650
▁நாம்	-5651
▁விண்வெளி	-5652
லீ	-5653
0095	-5654
0787	-5655
1325	-5656
▁1868	-5657
▁1983	-5658
▁நின்ற	-5659
▁புராண	-5660
ினோ	-5661
▁ம்	-5662
5335	-5663
▁அரை	-5664
▁0478	-5665
▁0878	-5666
▁வேண்ட	-5667
த்தியில்	-5668
▁அனைத்தும்	-5669
▁மக்கள்தொகை	-5670
டே	-5671
1056	-5672
1934	-5673
3776	-5674
▁548	-5675
▁தொலைவ	-5676
1136	-5677
9223	-5678
▁1854	-5679
▁பாக்க	-5680
ுள்ளனர்	-5681
1094	-5682
2748	-5683
2883	-5684
9734	-5685
▁0516	-5686
▁பிரா	-5687
up	-5688
514	-5689
2746	-5690
3733	-5691
மீன்	-5692
லாந்த	-5693
▁பாதுக	-5694
ப்பெருமாள்	-5695
0308	-5696
0938	-5697
1707	-5698
1825	-5699
9774	-5700
▁இளவ	-5701
▁0748	-5702
▁1484	-5703
▁1878	-5704
▁1968	-5705
▁1991	-5706
2838	-5707
5298	-5708
9308	-5709
▁0084	-5710
▁0664	-5711
▁1754	-5712
த்திரி	-5713
▁சுல்த	-5714
▁எடுக்க	-5715
▁பிரம்ம	-5716
▁சிகிச்சை	-5717
தல்	-5718
0778	-5719
1863	-5720
2808	-5721
2898	-5722
3725	-5723
3786	-5724
9315	-5725
வரான	-5726
▁யூத	-5727
ட்சம்	-5728
▁1658	-5729
▁பதவி	-5730
ையிலான	-5731
ப்பள்ளி	-5732
த்திலேயே	-5733
1746	-5734
1805	-5735
3664	-5736
▁மித	-5737
▁வலை	-5738
ிப்பை	-5739
▁1488	-5740
▁1766	-5741
▁எட்ட	-5742
▁ஏனைய	-5743
ப்புத்	-5744
▁அரங்க	-5745
▁இத்திரைப்படம்	-5746
ai	-5747
பத	-5748
வழ	-5749
்க்	-5750
1353	-5751
விலான	-5752
▁1867	-5753
ியியல்	-5754
▁உறுப்பினர்	-5755
▁கட்டுப்பாட்ட	-5756
0195	-5757
0903	-5758
1833	-5759
3656	-5760
9108	-5761
▁1324	-5762
▁எழுதி	-5763
▁பல்கலைக்கழகம்	-5764
0123	-5765
3666	-5766
ண்டோ	-5767
▁260	-5768
▁604	-5769
▁0324	-5770
▁1654	-5771
▁ஆப்க	-5772
குதியில்	-5773
▁நடத்திய	-5774
▁கூறினார்	-5775
ழல்	-5776
2616	-5777
2786	-5778
2822	-5779
▁அக்	-5780
▁0116	-5781
த்தான்	-5782
▁இந்தி	-5783
▁ஐரோப்ப	-5784
▁நிகழ்த்த	-5785
▁மேம்படுத்த	-5786
வின	-5787
3748	-5788
9105	-5789
9777	-5790
நாடக	-5791
▁உடை	-5792
▁கோய	-5793
லாக்க	-5794
▁1224	-5795
▁1744	-5796
▁கிராமம்	-5797
0908	-5798
1842	-5799
2338	-5800
சாலை	-5801
▁389	-5802
▁547	-5803
▁ஆசிரியர்	-5804
▁2114	-5805
▁அறிஞ	-5806
▁கழகம்	-5807
ிருப்பத	-5808
டித்தார்	-5809
▁அமெரிக்காவின்	-5810
ஹ்	-5811
ிகு	-5812
0797	-5813
1238	-5814
1958	-5815
2678	-5816
2776	-5817
3606	-5818
5333	-5819
ம்பர	-5820
▁1734	-5821
▁முப்ப	-5822
ப்பெற்ற	-5823
ின்றார்கள்	-5824
tic	-5825
ிகோ	-5826
▁சக	-5827
0905	-5828
1205	-5829
1295	-5830
2322	-5831
2768	-5832
3657	-5833
5397	-5834
ுதாய	-5835
▁270	-5836
▁1474	-5837
▁2055	-5838
▁வில்லிய	-5839
▁பகுதிகளை	-5840
530	-5841
596	-5842
ளோரோ	-5843
▁0184	-5844
▁0824	-5845
▁1784	-5846
▁1864	-5847
▁1960	-5848
▁1995	-5849
பாளையம்	-5850
▁இருப்பது	-5851
▁சன்னதியும்	-5852
்சி	-5853
0108	-5854
0315	-5855
▁உரிமை	-5856
▁வடிவம்	-5857
ிருக்கின்றன	-5858
▁ஆள	-5859
1747	-5860
2676	-5861
2733	-5862
ெட்ட	-5863
▁காள	-5864
▁0216	-5865
▁0344	-5866
ஸ்தான்	-5867
▁சமுதாய	-5868
▁பின்வரும்	-5869
▁ஆகியவற்றின்	-5870
▁வகைப்படுத்த	-5871
ராத	-5872
▁அப	-5873
1785	-5874
2624	-5875
▁0288	-5876
▁1467	-5877
▁2054	-5878
▁சிறுக	-5879
த்தோலிக்க	-5880
258	-5881
மாண	-5882
0747	-5883
1158	-5884
▁எது	-5885
▁துண	-5886
ஸ்டர்	-5887
▁0097	-5888
▁ஜனவரி	-5889
டுகிறார்	-5890
▁கொண்டாட	-5891
0937	-5892
1006	-5893
1787	-5894
1843	-5895
2658	-5896
3842	-5897
9207	-5898
▁விப	-5899
▁1634	-5900
▁1844	-5901
▁துறையில்	-5902
294	-5903
3848	-5904
5237	-5905
▁1624	-5906
▁வியா	-5907
ித்தான்	-5908
▁குறைக்க	-5909
="6	-5910
ாசி	-5911
ொல்	-5912
▁0374	-5913
ூராட்சி	-5914
▁வெளியிடப்பட்டது	-5915
▁தக	-5916
1024	-5917
1055	-5918
1808	-5919
1815	-5920
5398	-5921
▁0616	-5922
▁மீன்	-5923
=6	-5924
▁வன	-5925
0298	-5926
0333	-5927
1763	-5928
1822	-5929
2686	-5930
▁கிட	-5931
வரின்	-5932
ியைச்	-5933
▁1724	-5934
▁கதாபாத்திர	-5935
ாலை	-5936
3684	-5937
5325	-5938
னுடைய	-5939
ியைத்	-5940
▁0016	-5941
▁1124	-5942
▁1764	-5943
▁முஸ்	-5944
▁நரம்ப	-5945
▁மஞ்சள்	-5946
▁செய்தது	-5947
▁பெருங்க	-5948
புற	-5949
ொள்க	-5950
ப்படை	-5951
▁0164	-5952
▁0316	-5953
▁0747	-5954
▁0847	-5955
▁கள்ள	-5956
▁ஒன்றை	-5957
0138	-5958
1096	-5959
1215	-5960
2708	-5961
9768	-5962
க்கல்	-5963
▁பரிச	-5964
▁விலை	-5965
▁வில்	-5966
▁தொடர்ச்ச	-5967
%25	-5968
296	-5969
மாய	-5970
0105	-5971
0295	-5972
1157	-5973
2332	-5974
9195	-5975
▁0444	-5976
▁ஆனது	-5977
▁கிளை	-5978
206	-5979
0205	-5980
0708	-5981
1305	-5982
1798	-5983
9305	-5984
வதாக	-5985
▁தூண்ட	-5986
▁தோன்றிய	-5987
வகை	-5988
1036	-5989
1328	-5990
9322	-5991
செய்ய	-5992
▁0074	-5993
▁1756	-5994
ளுக்கு	-5995
▁கிறிஸ்த	-5996
23"	-5997
ொலி	-5998
▁ரு	-5999
1873	-6000
▁0277	-6001
▁தற்போதைய	-6002
▁எழுதியுள்ளார்	-6003
594	-6004
93"	-6005
9128	-6006
▁0098	-6007
▁0244	-6008
▁1478	-6009
▁கிரு	-6010
ியாகவும்	-6011
▁வருவாய்	-6012
▁இந்தியப்	-6013
▁கிறித்தவ	-6014
▁முக்கியத்துவம்	-6015
ow	-6016
255	-6017
92"	-6018
0228	-6019
1725	-6020
2395	-6021
5215	-6022
9295	-6023
9758	-6024
▁கார	-6025
▁2104	-6026
▁உத்தர	-6027
▁காந்தி	-6028
▁அமையும்	-6029
ொலை	-6030
0745	-6031
9767	-6032
▁மரா	-6033
▁1424	-6034
▁1993	-6035
▁பலர்	-6036
ுக்களை	-6037
▁தென்கிழ	-6038
00"	-6039
03"	-6040
கார	-6041
2745	-6042
3636	-6043
3845	-6044
9205	-6045
9215	-6046
9724	-6047
▁ராய	-6048
▁0064	-6049
▁0168	-6050
▁0174	-6051
▁கொண்டுவ	-6052
▁வார்த்த	-6053
▁இல்லாமல்	-6054
ஷி	-6055
ேக	-6056
▁ஏவ	-6057
0005	-6058
1034	-6059
3735	-6060
▁நெல்	-6061
▁சமயம்	-6062
▁சுற்றுலா	-6063
504	-6064
1916	-6065
2305	-6066
மல்ல	-6067
▁596	-6068
▁0264	-6069
▁0284	-6070
▁0648	-6071
▁0884	-6072
ந்தனர்	-6073
ப்பும்	-6074
▁வியட்	-6075
ருகிறது	-6076
▁சன்னதி	-6077
ிருக்கலாம்	-6078
லாத	-6079
2646	-6080
3778	-6081
5207	-6082
தாவது	-6083
▁0198	-6084
▁1767	-6085
▁2057	-6086
▁தரவு	-6087
ாவிற்கு	-6088
▁அங்கீக	-6089
ிடமிருந்து	-6090
150	-6091
லன்	-6092
3808	-6093
▁பல்	-6094
▁படம்	-6095
▁கிலோமீட்டர்	-6096
▁()	-6097
1332	-6098
2725	-6099
2798	-6100
9788	-6101
க்கண	-6102
ண்டன்	-6103
▁0544	-6104
▁1384	-6105
த்துச்	-6106
▁ஈரோடு	-6107
▁ஆகத்து	-6108
▁தொடங்கி	-6109
0898	-6110
3885	-6111
லியா	-6112
▁0426	-6113
▁1848	-6114
▁ஆதரவ	-6115
▁சிலர்	-6116
நாதபுரம்	-6117
வையாகும்	-6118
மணி	-6119
0328	-6120
1883	-6121
3658	-6122
3798	-6123
3865	-6124
சித்த	-6125
▁1064	-6126
▁பரவலாக	-6127
534	-6128
1253	-6129
1733	-6130
ந்தன	-6131
ல்லூ	-6132
டுவது	-6133
ெடுக்க	-6134
▁உலகம்	-6135
▁அவற்றை	-6136
▁கோட்டை	-6137
▁விற்பனை	-6138
0746	-6139
3677	-6140
ஸின்	-6141
▁1963	-6142
▁2206	-6143
▁பட்டு	-6144
▁விளைவாக	-6145
▁என்றாலும்	-6146
▁ஏற்பட்டது	-6147
0845	-6148
1778	-6149
3688	-6150
3872	-6151
3898	-6152
9153	-6153
▁உரோ	-6154
▁கவித	-6155
256	-6156
1997	-6157
3883	-6158
ியப்	-6159
▁558	-6160
▁ஏரி	-6161
▁பூம	-6162
▁1748	-6163
▁2304	-6164
▁அன்ற	-6165
▁செய்வ	-6166
▁இசையமை	-6167
▁இவற்றின்	-6168
▁உள்நாட்டு	-6169
▁ஜீ	-6170
1828	-6171
ண்டை	-6172
▁0188	-6173
▁0274	-6174
▁0984	-6175
▁2196	-6176
▁உண்ண	-6177
▁நன்கு	-6178
க்கோட்டை	-6179
▁கார்பன்	-6180
▁அவர்களது	-6181
▁ஷா	-6182
0953	-6183
1054	-6184
3678	-6185
டியா	-6186
▁0384	-6187
▁0554	-6188
▁1768	-6189
▁1946	-6190
மேற்கு	-6191
▁காஞ்சி	-6192
ியு	-6193
0305	-6194
0735	-6195
1222	-6196
▁0498	-6197
▁0574	-6198
▁1884	-6199
▁ஆஃப்	-6200
▁இப்போது	-6201
க்குறிச்சி	-6202
0222	-6203
1832	-6204
2783	-6205
3863	-6206
▁574	-6207
▁2158	-6208
▁2194	-6209
▁மேலா	-6210
பாடுகள	-6211
▁சகோதர	-6212
▁பதிலாக	-6213
0776	-6214
5217	-6215
9595	-6216
ாளராக	-6217
▁0674	-6218
▁1144	-6219
▁2106	-6220
▁வளர்ந்த	-6221
204	-6222
▁ஆட	-6223
0798	-6224
ட்டோ	-6225
க்கலை	-6226
▁1824	-6227
▁இளைய	-6228
வச	-6229
எம்	-6230
ரின	-6231
0848	-6232
2775	-6233
2842	-6234
3783	-6235
▁நூல்கள	-6236
▁முனைவர்	-6237
0332	-6238
3745	-6239
9716	-6240
▁0177	-6241
▁0974	-6242
▁2096	-6243
▁பாரா	-6244
த்தவர்	-6245
ைகளால்	-6246
கத்தில்	-6247
▁சிவாகம	-6248
ப்படலாம்	-6249
▁கத்தோலிக்க	-6250
234	-6251
0783	-6252
3787	-6253
▁மழை	-6254
▁அமைய	-6255
▁கேள்	-6256
ட்டும்	-6257
▁ஒளிபர	-6258
கத்தின்	-6259
ுக்குள்	-6260
▁முடியாது	-6261
0113	-6262
2722	-6263
3773	-6264
3822	-6265
9055	-6266
ராட்ச	-6267
ேட்டு	-6268
▁0348	-6269
▁0647	-6270
▁2058	-6271
▁2257	-6272
▁காணலாம்	-6273
டுகின்றது	-6274
நட	-6275
வழி	-6276
0153	-6277
0253	-6278
0782	-6279
1444	-6280
3805	-6281
▁557	-6282
▁0298	-6283
▁0716	-6284
▁1164	-6285
▁1274	-6286
▁1674	-6287
▁2204	-6288
▁நேர்	-6289
தியில்	-6290
ுக்கொண்ட	-6291
506	-6292
பல்	-6293
0887	-6294
1926	-6295
2843	-6296
2863	-6297
▁493	-6298
▁0226	-6299
▁2255	-6300
▁பெயர	-6301
▁முதன்முத	-6302
▁வழங்கும்	-6303
0098	-6304
1293	-6305
1526	-6306
2862	-6307
9014	-6308
9733	-6309
▁ஆய்	-6310
▁வயத	-6311
▁0048	-6312
▁1264	-6313
▁1364	-6314
ட்டாசி	-6315
▁நெருக்க	-6316
த்திற்காக	-6317
▁பின்பற்ற	-6318
254	-6319
1117	-6320
3765	-6321
9253	-6322
9776	-6323
▁567	-6324
▁நகை	-6325
▁0208	-6326
▁0777	-6327
▁2156	-6328
ிகளைப்	-6329
வண	-6330
02"	-6331
0393	-6332
1252	-6333
2735	-6334
▁546	-6335
▁1174	-6336
▁2154	-6337
ித்துவ	-6338
▁காதல்	-6339
ையையும்	-6340
▁அரியலூர்	-6341
க்குறிப்பு	-6342
1318	-6343
2318	-6344
ன்னி	-6345
போர்	-6346
▁0368	-6347
▁1278	-6348
▁1524	-6349
▁2094	-6350
▁2294	-6351
▁தங்கள	-6352
▁மின்க	-6353
▁பூங்கா	-6354
▁பரிமாற்ற	-6355
தெ	-6356
91"	-6357
்சு	-6358
0598	-6359
0775	-6360
1218	-6361
1748	-6362
3742	-6363
3772	-6364
3843	-6365
்டன்	-6366
▁1874	-6367
▁1926	-6368
▁கொள்கை	-6369
▁முறையாக	-6370
▁தெரிவிக்க	-6371
▁பயன்படும்	-6372
0733	-6373
1014	-6374
3862	-6375
▁0567	-6376
▁1048	-6377
▁காலக	-6378
▁வால்	-6379
▁கோபுரம்	-6380
▁போர்த்த	-6381
334	-6382
9797	-6383
▁0367	-6384
▁1068	-6385
▁1970	-6386
▁2356	-6387
▁முது	-6388
▁பார்க்கப்பட்ட	-6389
ொள்	-6390
0505	-6391
0885	-6392
0995	-6393
1998	-6394
3785	-6395
ழும்	-6396
ஞ்சிய	-6397
▁0268	-6398
▁0667	-6399
▁விளங்குகிறது	-6400
ோச	-6401
9927	-6402
▁0564	-6403
▁ஆகஸ்ட்	-6404
▁தீர்த்த	-6405
▁திசம்பர்	-6406
ww	-6407
0833	-6408
2765	-6409
▁0126	-6410
▁0487	-6411
▁0547	-6412
▁1985	-6413
▁2134	-6414
▁ஜூலை	-6415
ேந்திர	-6416
▁படிப்ப	-6417
▁இருந்தனர்	-6418
நோய்	-6419
ராஜ்	-6420
▁இளம்	-6421
▁பாத்திர	-6422
▁சிறப்பாக	-6423
ோண	-6424
01"	-6425
09"	-6426
1635	-6427
1862	-6428
3676	-6429
3686	-6430
▁0026	-6431
▁0178	-6432
▁0398	-6433
▁0964	-6434
▁2254	-6435
▁சமன்ப	-6436
▁படைகள்	-6437
▁புரட்டாசி	-6438
▁83	-6439
3625	-6440
மைக்	-6441
▁உரை	-6442
▁வேள	-6443
▁0347	-6444
▁0568	-6445
▁0584	-6446
▁0774	-6447
▁0787	-6448
▁1074	-6449
▁2155	-6450
▁கடைசியாகப்	-6451
0103	-6452
0323	-6453
1057	-6454
1895	-6455
3358	-6456
▁வாத	-6457
ர்களாக	-6458
▁போலவே	-6459
▁தமிழர்	-6460
▁88	-6461
1687	-6462
1775	-6463
3715	-6464
3873	-6465
5208	-6466
9747	-6467
▁திவ	-6468
▁0526	-6469
▁2157	-6470
▁2457	-6471
திலும்	-6472
ற்றுள்	-6473
ிகளால்	-6474
▁எக்ஸ்	-6475
▁தானிய	-6476
▁பணிபுரி	-6477
ri	-6478
190	-6479
ெர்	-6480
2715	-6481
5322	-6482
9778	-6483
ச்சே	-6484
வான்	-6485
▁568	-6486
▁0486	-6487
▁1244	-6488
▁1284	-6489
▁தம்ப	-6490
▁விளையா	-6491
▁அமைந்தது	-6492
▁எடுத்துக்	-6493
▁எழுதப்பட்ட	-6494
▁கிட்டத்தட்ட	-6495
110	-6496
ாளி	-6497
1743	-6498
2872	-6499
3832	-6500
9113	-6501
9213	-6502
▁0148	-6503
▁0588	-6504
▁இந்தோ	-6505
▁உருசிய	-6506
▁சென்றார்	-6507
▁பெரிதும்	-6508
▁என்றழைக்க	-6509
▁பொறியியல்	-6510
ab	-6511
0353	-6512
0773	-6513
1667	-6514
2773	-6515
2815	-6516
3646	-6517
3648	-6518
9218	-6519
9352	-6520
9998	-6521
▁594	-6522
▁2455	-6523
▁அருகே	-6524
▁கணினி	-6525
▁வரலாற்றில்	-6526
▁விளையாட்டுவ	-6527
▁விபரக்குறிப்பு	-6528
▁5%	-6529
0742	-6530
1773	-6531
2785	-6532
2832	-6533
3895	-6534
9054	-6535
▁ஆதி	-6536
மாகப்	-6537
▁0408	-6538
▁1077	-6539
▁1787	-6540
▁2477	-6541
▁பயணம்	-6542
▁மனைவி	-6543
▁பிரதான	-6544
▁தொகுதியில்	-6545
▁விளையாட்டுவீரர்	-6546
354	-6547
மடை	-6548
ானி	-6549
0696	-6550
1668	-6551
3775	-6552
▁584	-6553
▁0087	-6554
▁2414	-6555
்களும்	-6556
ழிய	-6557
▁81	-6558
0835	-6559
1715	-6560
9006	-6561
வற்றை	-6562
▁0077	-6563
▁0598	-6564
▁1374	-6565
▁செலு	-6566
▁ஏற்பட	-6567
டுகளின்	-6568
ப்பொருள்	-6569
▁பள்ளியில்	-6570
▁வெப்பநிலை	-6571
2805	-6572
9785	-6573
ேசன்	-6574
▁0248	-6575
▁1268	-6576
▁1876	-6577
வையில்	-6578
▁தொல்ல	-6579
ங்களுக்கும்	-6580
0883	-6581
3763	-6582
5222	-6583
9746	-6584
▁0433	-6585
▁0577	-6586
▁0684	-6587
▁0988	-6588
▁1044	-6589
▁2258	-6590
▁2314	-6591
▁ஆல்க	-6592
▁இரயில்	-6593
▁நடிகர்	-6594
ுவதற்காக	-6595
▁மாநிலம்	-6596
▁பொருட்கள	-6597
356	-6598
0707	-6599
1818	-6600
3743	-6601
9604	-6602
9786	-6603
▁0176	-6604
▁0287	-6605
▁0687	-6606
▁0978	-6607
▁1084	-6608
▁வான்	-6609
க்கட்ட	-6610
▁செல்வ	-6611
▁கொண்டுள்ளன	-6612
சுக	-6613
ணிய	-6614
நித	-6615
▁ஈழ	-6616
0993	-6617
1648	-6618
1765	-6619
1783	-6620
3732	-6621
▁280	-6622
▁பொற	-6623
▁0068	-6624
▁1989	-6625
▁2234	-6626
▁இரத்த	-6627
▁வித்த	-6628
▁பிரச்சின	-6629
▁என்பவரால்	-6630
▁தொடங்கினார்	-6631
12"	-6632
1745	-6633
1882	-6634
5332	-6635
9004	-6636
▁0378	-6637
▁0558	-6638
▁0846	-6639
▁1067	-6640
▁1972	-6641
▁2354	-6642
▁நாணய	-6643
ிருந்தன	-6644
▁ஆந்திர	-6645
ிட்டுள்ள	-6646
▁பரப்பளவு	-6647
2882	-6648
3667	-6649
3827	-6650
9193	-6651
ள்ளை	-6652
▁578	-6653
▁ஆடி	-6654
▁2357	-6655
▁2488	-6656
▁சகோத	-6657
▁தீவு	-6658
▁புகை	-6659
▁பூர்	-6660
▁வளர்	-6661
▁மலையாள	-6662
0013	-6663
0674	-6664
0843	-6665
1213	-6666
9745	-6667
முனை	-6668
ரியாக	-6669
▁0267	-6670
▁0548	-6671
▁1347	-6672
▁1847	-6673
▁1945	-6674
▁2034	-6675
▁சங்கம்	-6676
▁நெடுஞ்ச	-6677
▁தெலுங்கு	-6678
2665	-6679
3762	-6680
9878	-6681
="24	-6682
▁க்க	-6683
ியலாள	-6684
▁0776	-6685
▁பாகிஸ்தான்	-6686
ராஜா	-6687
▁1962	-6688
▁2224	-6689
▁நீளம்	-6690
▁இயற்பியல்	-6691
=24	-6692
▁டொ	-6693
0152	-6694
0193	-6695
0865	-6696
1685	-6697
5395	-6698
9152	-6699
ரமான	-6700
▁0187	-6701
▁0207	-6702
▁1544	-6703
▁1992	-6704
▁கடின	-6705
▁வங்கி	-6706
த்தன்மை	-6707
355	-6708
ப்ர	-6709
0655	-6710
0664	-6711
0825	-6712
0875	-6713
9138	-6714
ரிமை	-6715
ாவிய	-6716
▁0088	-6717
▁0286	-6718
▁1982	-6719
▁2396	-6720
▁2604	-6721
▁படத்தில்	-6722
▁தென்னிந்திய	-6723
▁வருகின்றனர்	-6724
all	-6725
0118	-6726
1646	-6727
9034	-6728
ாரின்	-6729
▁0046	-6730
▁0448	-6731
▁2355	-6732
▁சக்தி	-6733
▁தன்னை	-6734
▁பாட்ட	-6735
▁முத்து	-6736
ர்ஜ	-6737
2743	-6738
▁614	-6739
▁0626	-6740
▁1147	-6741
▁1187	-6742
▁2454	-6743
ாவுக்கு	-6744
▁அசிட்ட	-6745
0992	-6746
1625	-6747
3668	-6748
9515	-6749
தைப்	-6750
ஸ்கோ	-6751
வுடன்	-6752
▁1126	-6753
▁1148	-6754
▁1554	-6755
▁1933	-6756
▁தட்ட	-6757
▁சிறுவ	-6758
ல்களின்	-6759
▁வாய்ப்பு	-6760
▁தனிப்பட்ட	-6761
▁கட்டப்பட்ட	-6762
▁அமைக்கப்பட்ட	-6763
</	-6764
28"	-6765
0882	-6766
0902	-6767
1676	-6768
2813	-6769
ளிக்க	-6770
▁0047	-6771
▁0557	-6772
▁1979	-6773
ையுடன்	-6774
▁நம்பிக்க	-6775
▁இலங்கையில்	-6776
ers	-6777
0923	-6778
3705	-6779
9865	-6780
த்தில	-6781
▁0944	-6782
▁2214	-6783
▁கடைசி	-6784
▁ஒன்பது	-6785
ணர்	-6786
▁90	-6787
1026	-6788
1732	-6789
3615	-6790
3882	-6791
▁0387	-6792
▁0422	-6793
▁0948	-6794
▁1444	-6795
▁உரிய	-6796
▁கிளா	-6797
பொருள்	-6798
வையும்	-6799
ுகளைப்	-6800
▁மீட்ட	-6801
▁சாத்திய	-6802
▁வடிவில்	-6803
ங்காட்சிய	-6804
▁தொடர்ந்த	-6805
3722	-6806
9787	-6807
ன்னா	-6808
▁566	-6809
▁உடன	-6810
▁0167	-6811
▁2296	-6812
▁2458	-6813
▁வலிய	-6814
▁சந்தை	-6815
▁முன்னோ	-6816
394	-6817
▁ஓர	-6818
0863	-6819
0952	-6820
1633	-6821
1742	-6822
9293	-6823
9846	-6824
ுடிய	-6825
▁0476	-6826
▁0678	-6827
▁0876	-6828
▁1344	-6829
்களுக்கு	-6830
▁மின்னோட்ட	-6831
1127	-6832
2853	-6833
3496	-6834
9833	-6835
9905	-6836
னைப்	-6837
▁499	-6838
நாதன்	-6839
மைகள்	-6840
▁0247	-6841
▁1167	-6842
▁1168	-6843
▁1184	-6844
▁1888	-6845
▁2256	-6846
▁2358	-6847
▁மண்ண	-6848
▁இயக்கம்	-6849
0785	-6850
1872	-6851
2762	-6852
3622	-6853
▁அசை	-6854
▁0147	-6855
▁0326	-6856
▁1368	-6857
▁1388	-6858
▁1774	-6859
▁2514	-6860
▁வாகன	-6861
▁வேதி	-6862
▁எவ்வாறு	-6863
▁மாணவர்கள்	-6864
▁குறிக்கிறது	-6865
1058	-6866
3444	-6867
9221	-6868
வியை	-6869
▁0926	-6870
▁1664	-6871
▁1981	-6872
▁இரவு	-6873
▁பராம	-6874
▁கண்டுபிடிக்க	-6875
304	-6876
306	-6877
ிலா	-6878
0722	-6879
1223	-6880
9057	-6881
9748	-6882
▁606	-6883
▁திட	-6884
வாக்க	-6885
▁1448	-6886
▁1487	-6887
▁ஆவது	-6888
ருக்கான	-6889
▁பார்வைய	-6890
▁இங்குள்ள	-6891
▁நடைபெற்றது	-6892
396	-6893
0052	-6894
0743	-6895
1686	-6896
2717	-6897
2772	-6898
9843	-6899
▁ஆரோ	-6900
▁முர	-6901
ரியல்	-6902
ிக்ஸ்	-6903
▁0386	-6904
▁1668	-6905
▁1684	-6906
▁1959	-6907
▁2404	-6908
ப்பிடி	-6909
▁சுத்த	-6910
▁மும்ப	-6911
▁தொகுதிய	-6912
▁பாடல்கள	-6913
ிக்கப்பட்டார்	-6914
▁அருங்காட்சிய	-6915
0093	-6916
0202	-6917
9444	-6918
9765	-6919
9847	-6920
9875	-6921
▁556	-6922
▁0067	-6923
▁0246	-6924
▁0778	-6925
▁0887	-6926
▁2324	-6927
▁2466	-6928
▁கலைஞ	-6929
இந்திய	-6930
▁அதன்ப	-6931
▁என்கிற	-6932
▁இருந்தால்	-6933
▁போக்குவரத்து	-6934
▁அடிப்படையாகக்	-6935
▁திரைப்படங்களில்	-6936
%,	-6937
ian	-6938
0023	-6939
0313	-6940
2705	-6941
2852	-6942
▁மதி	-6943
நிறுவ	-6944
▁0888	-6945
▁0977	-6946
▁1574	-6947
▁மூத்த	-6948
▁காற்று	-6949
▁பெறும்	-6950
தொ	-6951
358	-6952
524	-6953
ard	-6954
0872	-6955
2763	-6956
9454	-6957
9995	-6958
▁0578	-6959
▁0668	-6960
▁0722	-6961
▁0746	-6962
▁துரு	-6963
ிக்கான	-6964
▁தாண்ட	-6965
▁பூச்ச	-6966
▁மாதிர	-6967
ுவதற்கான	-6968
0765	-6969
1705	-6970
2893	-6971
3782	-6972
9123	-6973
9885	-6974
பொரு	-6975
▁கனட	-6976
▁1248	-6977
▁1584	-6978
▁கணின	-6979
கிருஷ்ண	-6980
▁கண்டறி	-6981
357	-6982
▁சௌ	-6983
0815	-6984
1647	-6985
9112	-6986
▁பசு	-6987
▁0078	-6988
▁0186	-6989
▁0726	-6990
▁இவரை	-6991
▁விண்ண	-6992
▁சரியான	-6993
▁மாற்று	-6994
0763	-6995
1678	-6996
1795	-6997
5315	-6998
9056	-6999
டுதல்	-7000
▁0586	-7001
▁0968	-7002
ங்கில்	-7003
▁அவரின்	-7004
▁குளோரைடு	-7005
214	-7006
38"	-7007
9118	-7008
9886	-7009
▁1267	-7010
▁ஆணைய	-7011
▁குறி	-7012
▁சிறை	-7013
ிருத்த	-7014
ுகளால்	-7015
▁உருவான	-7016
▁பூசைகள்	-7017
▁முடியாத	-7018
▁முன்னணி	-7019
ாயி	-7020
0614	-7021
0832	-7022
0913	-7023
0918	-7024
9024	-7025
9736	-7026
9775	-7027
▁பவு	-7028
▁0986	-7029
▁1287	-7030
ிக்காக	-7031
இல	-7032
நிக	-7033
0318	-7034
0352	-7035
2818	-7036
▁இளை	-7037
▁1188	-7038
▁தேவி	-7039
▁பகுதிகள	-7040
▁அடையாளம்	-7041
ra	-7042
ிவி	-7043
▁86	-7044
0976	-7045
1115	-7046
9825	-7047
த்தன	-7048
ியாய	-7049
ோறும்	-7050
▁0967	-7051
▁1938	-7052
ித்தனர்	-7053
▁அடிக்க	-7054
▁பத்திரிக	-7055
257	-7056
்டீ	-7057
0213	-7058
0292	-7059
0822	-7060
2645	-7061
2782	-7062
9464	-7063
9725	-7064
9835	-7065
ல்லா	-7066
▁0166	-7067
▁0366	-7068
▁0686	-7069
▁2456	-7070
▁உபயோக	-7071
▁கருப்ப	-7072
▁புற்று	-7073
▁ஆண்களின்	-7074
%)	-7075
0725	-7076
9058	-7077
9353	-7078
சில்	-7079
▁0066	-7080
▁0447	-7081
▁1277	-7082
▁உப்பு	-7083
க்குழுவ	-7084
▁ஒலிம்ப	-7085
▁எழுதினார்	-7086
▁பாதுகாக்க	-7087
பாட	-7088
▁ஃப	-7089
▁டு	-7090
0595	-7091
1663	-7092
9743	-7093
ப்து	-7094
ாணம்	-7095
▁மால	-7096
▁0622	-7097
▁1088	-7098
▁2596	-7099
▁2614	-7100
▁தனியார்	-7101
▁வழங்கிய	-7102
▁பயன்பாட்ட	-7103
99"	-7104
ாவி	-7105
ேசு	-7106
0566	-7107
0715	-7108
0762	-7109
9096	-7110
▁நீல	-7111
▁1078	-7112
▁1568	-7113
▁1975	-7114
▁பிற்ப	-7115
▁மாறிய	-7116
▁ஒன்றியத்தில்	-7117
பாய	-7118
மாற	-7119
்கோ	-7120
0544	-7121
0554	-7122
0656	-7123
0862	-7124
3456	-7125
3823	-7126
5205	-7127
9026	-7128
9292	-7129
9845	-7130
▁வரத	-7131
▁0276	-7132
▁1177	-7133
▁இடது	-7134
▁அமைப்பின்	-7135
▁முதன்மையான	-7136
▁உறுப்பினர்கள்	-7137
▁ஆர	-7138
1772	-7139
1937	-7140
3687	-7141
9456	-7142
9842	-7143
9883	-7144
ிருத	-7145
ராக்ச	-7146
▁0146	-7147
▁0346	-7148
▁1348	-7149
▁1447	-7150
▁1786	-7151
▁2024	-7152
▁2468	-7153
ற்றும்	-7154
வியில்	-7155
▁தோட்ட	-7156
▁இருபது	-7157
▁உதாரணமாக	-7158
▁பெப்ரவரி	-7159
0454	-7160
0873	-7161
1735	-7162
2742	-7163
9103	-7164
9722	-7165
9862	-7166
9873	-7167
▁0946	-7168
▁1026	-7169
▁1047	-7170
▁1276	-7171
▁1557	-7172
▁2244	-7173
▁சேமி	-7174
லையும்	-7175
▁கோட்ப	-7176
▁எண்ணெய்	-7177
▁தலைமையில்	-7178
ine	-7179
0912	-7180
3424	-7181
3457	-7182
9424	-7183
9863	-7184
மாய்	-7185
ராம்	-7186
ாகவே	-7187
▁வரிசை	-7188
▁t	-7189
▁ரச	-7190
0203	-7191
3647	-7192
பவர்	-7193
ல்ஸ்	-7194
ாக்கி	-7195
ாலயம்	-7196
▁0076	-7197
▁0566	-7198
▁1178	-7199
▁2654	-7200
▁வின்	-7201
▁அங்கே	-7202
▁தொடரில்	-7203
▁சுப்பிரமண	-7204
▁நடக்கின்றன	-7205
▁போட்டியிட்டு	-7206
ut	-7207
0038	-7208
0218	-7209
1782	-7210
9655	-7211
மில்	-7212
த்தொட	-7213
▁0376	-7214
▁0446	-7215
▁0947	-7216
▁1564	-7217
▁1578	-7218
▁நீரா	-7219
ரியும்	-7220
▁குளிர	-7221
▁சிவபெரு	-7222
▁அவர்களுக்கு	-7223
0028	-7224
0223	-7225
1016	-7226
1466	-7227
5295	-7228
ேசுவ	-7229
▁நடன	-7230
தமிழ்	-7231
▁1937	-7232
▁2464	-7233
▁கடன்	-7234
மக்கள்	-7235
வியின்	-7236
▁எல்லை	-7237
▁வகைகள்	-7238
▁கார்த்த	-7239
▁உருவாகும்	-7240
ev	-7241
ஹா	-7242
▁h	-7243
திக	-7244
0606	-7245
1917	-7246
9657	-7247
9773	-7248
9815	-7249
ண்டல	-7250
▁588	-7251
ப்பன்	-7252
▁0633	-7253
▁0786	-7254
▁1927	-7255
▁சாலை	-7256
▁சீனா	-7257
ணியில்	-7258
▁தரும்	-7259
ிட்டார்	-7260
ெல்லாம்	-7261
▁இரட்டை	-7262
0128	-7263
0404	-7264
0946	-7265
3466	-7266
3853	-7267
▁இம்	-7268
▁0733	-7269
▁1288	-7270
▁1577	-7271
▁ஒட்டு	-7272
▁மந்திர	-7273
0564	-7274
1762	-7275
2647	-7276
9783	-7277
▁0278	-7278
▁0966	-7279
▁1965	-7280
▁2467	-7281
▁மீதான	-7282
▁இரும்பு	-7283
▁மாற்றிய	-7284
ot	-7285
த்ய	-7286
▁சவ	-7287
0705	-7288
0727	-7289
1616	-7290
1995	-7291
9192	-7292
9654	-7293
9715	-7294
9763	-7295
▁யோக	-7296
▁1547	-7297
▁2744	-7298
▁போரா	-7299
▁மரபு	-7300
வாகும்	-7301
▁அரண்ம	-7302
▁கடத்த	-7303
▁ஆத்திர	-7304
2633	-7305
9393	-7306
ப்பொ	-7307
▁0576	-7308
▁1176	-7309
▁1588	-7310
▁2677	-7311
▁பொன்ன	-7312
▁மாறாக	-7313
▁தில்லி	-7314
▁நேரடியாக	-7315
▁நடித்துள்ளார்	-7316
224	-7317
ாறு	-7318
0392	-7319
2313	-7320
9414	-7321
9913	-7322
மைப்	-7323
▁சைவ	-7324
ரிகள்	-7325
ும்பி	-7326
▁0666	-7327
▁0976	-7328
▁1548	-7329
▁1846	-7330
▁பரவிய	-7331
▁அடங்கிய	-7332
▁வந்தனர்	-7333
▁கொள்ளும்	-7334
▁அறியப்பட்ட	-7335
▁இச்சேர்மம்	-7336
0229	-7337
0252	-7338
3484	-7339
க்கள	-7340
டிகள்	-7341
▁0377	-7342
▁0587	-7343
▁0676	-7344
▁1322	-7345
▁2758	-7346
▁வழிவ	-7347
▁காற்ற	-7348
▁பாதிக்க	-7349
▁பிடித்த	-7350
▁பிரதேசம்	-7351
▁காட்டிலும்	-7352
▁85	-7353
0192	-7354
0737	-7355
9953	-7356
பிக்	-7357
▁1247	-7358
▁1377	-7359
▁1939	-7360
ுகின்ற	-7361
▁முஸ்லி	-7362
▁கூடுதல்	-7363
0466	-7364
0772	-7365
1645	-7366
1683	-7367
1737	-7368
2353	-7369
▁கம்	-7370
▁0322	-7371
▁1246	-7372
▁தழுவ	-7373
▁வேட்	-7374
ியாகும	-7375
▁கும்ப	-7376
▁விவாத	-7377
▁வீரர்	-7378
▁அலுவலகம்	-7379
▁g	-7380
ஜரா	-7381
ாதே	-7382
0018	-7383
0842	-7384
3155	-7385
3633	-7386
மானம்	-7387
▁2484	-7388
▁சீக்கிய	-7389
▁தொடங்கிய	-7390
0112	-7391
0557	-7392
1727	-7393
9772	-7394
9805	-7395
ச்சூ	-7396
ிதழ்	-7397
▁511	-7398
▁577	-7399
▁0227	-7400
▁1066	-7401
▁1378	-7402
▁1576	-7403
▁1951	-7404
▁2594	-7405
வர்களை	-7406
▁வெட்ட	-7407
▁பழங்குடி	-7408
▁வானூர்தி	-7409
0456	-7410
3665	-7411
9882	-7412
பொருள	-7413
முடைய	-7414
ார்ட்	-7415
▁0432	-7416
▁1586	-7417
▁1887	-7418
▁பகுப்பா	-7419
ுகிறார்கள்	-7420
13"	-7421
ாஸ்	-7422
ையு	-7423
▁ஏழ	-7424
1643	-7425
1722	-7426
1905	-7427
2803	-7428
9203	-7429
▁0086	-7430
▁0822	-7431
▁1346	-7432
▁படிக	-7433
ித்தல்	-7434
பகுப்பு	-7435
▁வேறுபட்ட	-7436
▁சமயத்தில்	-7437
▁வெளியானது	-7438
▁ஆகியவற்றில்	-7439
▁வெளியிடப்பட்ட	-7440
08"	-7441
115	-7442
0434	-7443
0827	-7444
3454	-7445
9937	-7446
▁சாவ	-7447
▁நுக	-7448
▁0137	-7449
▁1778	-7450
▁கோல்	-7451
▁விலக	-7452
▁பிள்ளை	-7453
▁தொழிற்ச	-7454
▁நாட்காட்ட	-7455
நாம	-7456
ாதை	-7457
ோல்	-7458
0496	-7459
0556	-7460
0657	-7461
2954	-7462
3635	-7463
5293	-7464
த்தன்	-7465
▁0743	-7466
▁1046	-7467
▁1687	-7468
▁2766	-7469
▁ஒட்ட	-7470
▁செங்க	-7471
ொள்ளும்	-7472
▁வேண்டு	-7473
▁படையெடு	-7474
▁கலாச்சார	-7475
▁செயல்படுத்த	-7476
▁வாழ்கின்றனர்	-7477
ப்படுத்தப்பட்ட	-7478
▁ஈர	-7479
5956	-7480
ிராம	-7481
▁0127	-7482
▁0646	-7483
▁1929	-7484
நிலைப்	-7485
▁ஆக்கை	-7486
▁அனுமதி	-7487
▁கட்டுரைகள்	-7488
0221	-7489
0547	-7490
0558	-7491
2474	-7492
9318	-7493
ாக்ச	-7494
▁ஆப்	-7495
▁சர்	-7496
▁0826	-7497
▁ஆளுந	-7498
▁இன்னொரு	-7499
▁அனைத்துலக	-7500
நாக	-7501
0444	-7502
0464	-7503
2328	-7504
3675	-7505
9666	-7506
ங்க்	-7507
ர்கு	-7508
ொல்ல	-7509
▁1971	-7510
▁பாய்	-7511
▁குண்ட	-7512
▁சோதனை	-7513
▁வடகிழ	-7514
▁செய்தனர்	-7515
▁வில்லியம்	-7516
யு	-7517
27"	-7518
0677	-7519
1446	-7520
2914	-7521
5194	-7522
9094	-7523
9252	-7524
படிய	-7525
▁கோண	-7526
நகரம்	-7527
ையூர்	-7528
▁1476	-7529
▁1886	-7530
▁அணுக	-7531
▁போரின்	-7532
▁நூல்களை	-7533
▁மாகாணம்	-7534
▁உண்மையான	-7535
▁இயக்குனர்	-7536
0293	-7537
3642	-7538
3663	-7539
9832	-7540
ழ்ந்த	-7541
▁0556	-7542
▁2084	-7543
▁2655	-7544
▁அவள்	-7545
ங்களைத்	-7546
▁தந்தைய	-7547
0684	-7548
0837	-7549
2687	-7550
2795	-7551
3455	-7552
3683	-7553
ருவி	-7554
▁0546	-7555
▁1486	-7556
▁விழா	-7557
▁உறுதி	-7558
▁கலந்த	-7559
▁பிற்க	-7560
▁பெயரை	-7561
▁அறிக்க	-7562
▁தன்மைய	-7563
▁நிகழ்ந்த	-7564
0576	-7565
1717	-7566
2685	-7567
3154	-7568
9684	-7569
9993	-7570
போல்	-7571
லைத்	-7572
▁492	-7573
▁0833	-7574
▁1422	-7575
▁2757	-7576
▁சிறி	-7577
ச்சேரி	-7578
0732	-7579
2732	-7580
3893	-7581
5337	-7582
▁576	-7583
ாவார்	-7584
▁1146	-7585
▁1367	-7586
▁1558	-7587
ர்க்கு	-7588
▁கால்ப	-7589
▁காவல்	-7590
வர்களாக	-7591
▁இன்றும்	-7592
ity	-7593
1292	-7594
1673	-7595
2635	-7596
9742	-7597
விட்	-7598
▁எகி	-7599
▁எட்	-7600
▁பதி	-7601
▁0742	-7602
▁1087	-7603
▁1266	-7604
▁2424	-7605
▁2624	-7606
▁தயாரிப்ப	-7607
விக	-7608
ிறு	-7609
0604	-7610
0624	-7611
0666	-7612
0928	-7613
1118	-7614
1203	-7615
3828	-7616
▁வன்	-7617
▁0832	-7618
▁0987	-7619
▁1567	-7620
▁1952	-7621
▁2274	-7622
▁2474	-7623
▁அளவீ	-7624
▁கடவுள்	-7625
▁போதும்	-7626
▁விரிவு	-7627
ினார்கள்	-7628
▁அளவிலான	-7629
▁ஒழுங்கு	-7630
▁தோற்றம்	-7631
▁ஆய்வுகள்	-7632
▁உருவானது	-7633
▁பற்றியும்	-7634
314	-7635
324	-7636
0977	-7637
1228	-7638
5864	-7639
9907	-7640
▁0117	-7641
▁2657	-7642
▁முற்ப	-7643
▁அடைந்த	-7644
▁வளர்க்க	-7645
▁விருப்ப	-7646
ொல	-7647
0053	-7648
1665	-7649
1675	-7650
3994	-7651
9872	-7652
தேசம்	-7653
ப்புல	-7654
▁1546	-7655
▁1777	-7656
▁2688	-7657
▁2756	-7658
▁கடற்ப	-7659
▁பாரசீ	-7660
▁அடுக்க	-7661
▁கிழக்க	-7662
▁காலங்களில்	-7663
0895	-7664
1197	-7665
1393	-7666
1434	-7667
3474	-7668
3645	-7669
9696	-7670
▁0762	-7671
▁1386	-7672
▁1587	-7673
▁1921	-7674
▁2124	-7675
▁2394	-7676
▁இயல்	-7677
▁சல்ப	-7678
▁ஜார்	-7679
ினாலும்	-7680
▁குடும்பம்	-7681
ூற	-7682
தார	-7683
ேட்	-7684
0644	-7685
1313	-7686
9674	-7687
ப்பாட	-7688
மேற்க	-7689
ொன்று	-7690
▁0022	-7691
▁0266	-7692
▁0763	-7693
▁அரசியல	-7694
▁ஜெர்மான	-7695
▁நிலையான	-7696
▁உயரத்தில்	-7697
▁கன்னியாகும	-7698
ீழ	-7699
கன்	-7700
0646	-7701
0654	-7702
1105	-7703
1622	-7704
2323	-7705
3673	-7706
5353	-7707
▁பாற	-7708
பூர்வ	-7709
▁0307	-7710
▁0427	-7711
▁0483	-7712
▁1086	-7713
▁2644	-7714
▁அடிய	-7715
▁கரைய	-7716
ேற்றம்	-7717
▁தொல்லியல்	-7718
▁ஆஸ்திரேலிய	-7719
▁கூறப்படுகிறது	-7720
0474	-7721
1108	-7722
9952	-7723
ர்ஸ்	-7724
▁2344	-7725
▁2714	-7726
▁2814	-7727
▁சிவப்பு	-7728
▁நேரங்களில்	-7729
▁/	-7730
▁சட	-7731
0092	-7732
0338	-7733
0339	-7734
0634	-7735
0947	-7736
3685	-7737
▁0482	-7738
▁1446	-7739
▁2656	-7740
▁2788	-7741
▁குடியே	-7742
▁ஆற்றின்	-7743
னல்	-7744
0817	-7745
1893	-7746
2156	-7747
3607	-7748
தைத்	-7749
▁0107	-7750
ங்களான	-7751
▁குஜரா	-7752
▁என்பர்	-7753
▁சித்திரை	-7754
▁நிறுவப்பட்டது	-7755
▁பாதிக்கப்பட்ட	-7756
ub	-7757
கள	-7758
11"	-7759
0151	-7760
0457	-7761
0978	-7762
2055	-7763
2648	-7764
2663	-7765
2682	-7766
3695	-7767
3838	-7768
▁330	-7769
▁0317	-7770
▁1950	-7771
▁2857	-7772
ரையும்	-7773
▁உயரம்	-7774
▁செய்தி	-7775
95"	-7776
▁நை	-7777
0808	-7778
1642	-7779
2683	-7780
3737	-7781
5996	-7782
ேட்ட	-7783
▁1000	-7784
▁1676	-7785
▁1932	-7786
▁2494	-7787
▁2764	-7788
▁திறந்த	-7789
▁சுருக்க	-7790
▁பயன்பாடு	-7791
▁பொருட்களை	-7792
19"	-7793
=25	-7794
3464	-7795
9735	-7796
9782	-7797
9917	-7798
="25	-7799
▁491	-7800
▁1186	-7801
▁1633	-7802
▁2074	-7803
▁2854	-7804
▁2957	-7805
▁ராஜா	-7806
▁கருதுக	-7807
▁நூலில்	-7808
▁பகுதியை	-7809
▁சன்னதிகளும்	-7810
ஷா	-7811
ஒரு	-7812
0303	-7813
2351	-7814
2625	-7815
9656	-7816
ஸில்	-7817
▁360	-7818
▁காக	-7819
▁1376	-7820
▁1387	-7821
▁தடுக்க	-7822
வர்களில்	-7823
▁ஆக்கைவில்	-7824
▁நம்பிக்கை	-7825
ng	-7826
ph	-7827
2675	-7828
3486	-7829
▁அம்	-7830
▁0417	-7831
▁1648	-7832
▁1942	-7833
▁உரைய	-7834
▁மையம்	-7835
▁உயிரியல்	-7836
▁வீரர்கள்	-7837
▁செய்கிறது	-7838
ப்படுத்தும்	-7839
▁சேர்ந்தார்	-7840
0212	-7841
1113	-7842
1564	-7843
1632	-7844
2124	-7845
2393	-7846
2906	-7847
5994	-7848
9238	-7849
9822	-7850
▁0418	-7851
▁0732	-7852
▁0863	-7853
▁1746	-7854
▁1953	-7855
▁2048	-7856
▁2858	-7857
▁நகரின்	-7858
▁வாழ்ந்து	-7859
ந்துள்ளார்	-7860
9798	-7861
ுகிய	-7862
▁0517	-7863
▁1433	-7864
▁2504	-7865
▁2658	-7866
▁2864	-7867
▁அறிக	-7868
▁ஆதிக்க	-7869
▁வளரும்	-7870
▁சென்னையில்	-7871
▁கிராமத்தில்	-7872
1682	-7873
3795	-7874
▁522	-7875
ள்கள்	-7876
▁0108	-7877
▁1931	-7878
▁2284	-7879
▁2478	-7880
▁அரபு	-7881
▁க்கு	-7882
▁வல்லு	-7883
▁நடத்தி	-7884
▁நிறைந்த	-7885
னெ	-7886
1662	-7887
1695	-7888
3134	-7889
9212	-7890
9228	-7891
9644	-7892
9795	-7893
9817	-7894
▁கலி	-7895
▁மாவ	-7896
வதால்	-7897
▁1647	-7898
▁1943	-7899
▁2174	-7900
▁எளிய	-7901
▁பாலை	-7902
▁ஆயினும்	-7903
0676	-7904
2352	-7905
9494	-7906
9677	-7907
9908	-7908
▁1566	-7909
▁1747	-7910
▁2956	-7911
▁சிதை	-7912
▁இந்நூ	-7913
ப்பூர்வ	-7914
▁உதவும்	-7915
வருக்கும்	-7916
வல	-7917
0667	-7918
2955	-7919
5317	-7920
9732	-7921
9762	-7922
ையின	-7923
▁ஆண்கள	-7924
▁இன்றைய	-7925
▁சிங்கள	-7926
ப்படுகின்றனர்	-7927
0546	-7928
0688	-7929
0694	-7930
2302	-7931
3156	-7932
5318	-7933
▁624	-7934
▁மண்	-7935
ாரும்	-7936
்துறை	-7937
▁1646	-7938
▁1935	-7939
▁2164	-7940
▁பொறுப்ப	-7941
டுகின்றனர்	-7942
▁முழுமையாக	-7943
▁சேர்மமாகும்	-7944
▁79	-7945
0467	-7946
0578	-7947
1908	-7948
வாழ்	-7949
▁0327	-7950
▁0439	-7951
▁0783	-7952
▁2368	-7953
▁2844	-7954
▁2958	-7955
ிகளுடன்	-7956
▁கலைக்க	-7957
▁சோடியம்	-7958
▁செய்யப்படும்	-7959
st	-7960
▁w	-7961
்கா	-7962
0484	-7963
0795	-7964
▁532	-7965
▁அடு	-7966
▁1076	-7967
▁1366	-7968
▁1667	-7969
▁2047	-7970
▁வலைய	-7971
சிரியர்	-7972
ிப்படுத்த	-7973
▁மேற்கொண்ட	-7974
▁ஏற்றுக்கொள்ள	-7975
▁பயன்படுத்தும்	-7976
சேக	-7977
0002	-7978
0102	-7979
0455	-7980
0645	-7981
2851	-7982
3467	-7983
9251	-7984
பிள்	-7985
▁340	-7986
▁உயி	-7987
விடம்	-7988
▁0217	-7989
▁2824	-7990
ர்களையும்	-7991
▁கொண்டதாக	-7992
▁விளையாடி	-7993
▁போட்டிகள்	-7994
▁கன்னியாகுமரி	-7995
ஸி	-7996
▁ஹி	-7997
0003	-7998
0445	-7999
1095	-8000
1351	-8001
1557	-8002
1802	-8003
2632	-8004
5305	-8005
9151	-8006
ப்பய	-8007
▁மாட	-8008
▁0886	-8009
▁1776	-8010
▁2954	-8011
▁கோடி	-8012
▁கேட்க	-8013
▁தூக்க	-8014
▁அஞ்சல்	-8015
▁பிரபலமான	-8016
0658	-8017
0948	-8018
1212	-8019
1566	-8020
2155	-8021
3781	-8022
9474	-8023
ப்பெய	-8024
▁0472	-8025
▁0607	-8026
▁2167	-8027
▁கைது	-8028
▁ஆப்கான	-8029
▁ஆயிரம்	-8030
ிடப்பட்ட	-8031
▁வீழ்ச்ச	-8032
▁கிடைத்தது	-8033
97"	-8034
0159	-8035
1484	-8036
1852	-8037
2662	-8038
3852	-8039
9903	-8040
▁587	-8041
▁மகி	-8042
▁0308	-8043
▁0463	-8044
▁0533	-8045
▁1286	-8046
▁1922	-8047
▁2768	-8048
▁நன்ன	-8049
▁குறியீ	-8050
▁குறுக்க	-8051
37"	-8052
பன்	-8053
பாக	-8054
▁87	-8055
0414	-8056
1007	-8057
1672	-8058
2643	-8059
3672	-8060
3707	-8061
3728	-8062
9328	-8063
▁495	-8064
க்கால	-8065
▁2724	-8066
▁3056	-8067
போதும்	-8068
▁தியாக	-8069
▁நேர்ம	-8070
▁முட்ட	-8071
ாவிலும்	-8072
▁ரூபாய்	-8073
மைப்பின்	-8074
ராத்திரி	-8075
▁புரிந்து	-8076
▁வேளாண்மை	-8077
▁நிறைவேற்ற	-8078
▁திருப்பூர்	-8079
▁கொண்டிருந்தது	-8080
0468	-8081
0945	-8082
1302	-8083
1903	-8084
2727	-8085
9645	-8086
வால்	-8087
▁1919	-8088
▁2044	-8089
▁2184	-8090
▁2364	-8091
▁மாலை	-8092
▁கோப்ப	-8093
▁பிரதம	-8094
▁செயல்த	-8095
▁மென்பொருள்	-8096
வட	-8097
1339	-8098
1464	-8099
1918	-8100
3446	-8101
3488	-8102
3662	-8103
9664	-8104
9667	-8105
▁கழி	-8106
▁குக	-8107
▁சமண	-8108
பர்ட்	-8109
▁0407	-8110
▁1833	-8111
▁2524	-8112
▁2784	-8113
▁2855	-8114
▁ஆயிர	-8115
▁தாம்	-8116
ிட்டது	-8117
ிற்காக	-8118
▁வடக்க	-8119
ுகளுடன்	-8120
▁சாஸ்தா	-8121
▁வெள்ளி	-8122
▁பெற்றவர்	-8123
▁தயாரிப்பு	-8124
▁வளர்ச்சிய	-8125
▁அமைப்புகள்	-8126
▁பட்டியலில்	-8127
▁ஆங்கிலத்தில்	-8128
நோய	-8129
விர	-8130
5744	-8131
9455	-8132
9624	-8133
தேவி	-8134
▁எரு	-8135
▁2755	-8136
▁விழு	-8137
▁விவர	-8138
▁இங்கே	-8139
▁பாண்ட	-8140
ப்பிரிவ	-8141
ைகின்றன	-8142
வர்களும்	-8143
க்குட்பட்ட	-8144
▁ஒப்பந்தம்	-8145
▁காங்கிரஸ்	-8146
▁மாதத்தில்	-8147
ge	-8148
▁ஆச	-8149
1251	-8150
1928	-8151
3727	-8152
ட்ரோ	-8153
▁0008	-8154
▁0017	-8155
▁0473	-8156
▁2064	-8157
▁2444	-8158
▁செயல	-8159
▁வலுவ	-8160
ுக்களின்	-8161
▁கருப்பு	-8162
▁பெற்றுள்ளது	-8163
10"	-8164
0321	-8165
0575	-8166
1352	-8167
1861	-8168
1992	-8169
ோகன்	-8170
ுவதாக	-8171
▁1678	-8172
▁1911	-8173
▁எச்ச	-8174
▁மரம்	-8175
▁வீடு	-8176
▁ஆனார்	-8177
▁பெயரிட	-8178
▁எதிர்ப்பு	-8179
▁நடவடிக்கை	-8180
▁மாகாணத்தின்	-8181
0567	-8182
1195	-8183
3406	-8184
3739	-8185
க்கை	-8186
ர்வீ	-8187
ிதம்	-8188
ேற்ப	-8189
▁சீர	-8190
▁0128	-8191
▁0138	-8192
▁0143	-8193
▁0243	-8194
▁0862	-8195
▁2348	-8196
▁2754	-8197
▁சென்	-8198
▁அப்போ	-8199
ம்புத்த	-8200
▁இறைவன்	-8201
ந்துள்ளன	-8202
ுக்களில்	-8203
▁உற்பத்த	-8204
▁ஆங்கிலம்	-8205
▁திருச்சப	-8206
▁மொழிகளில்	-8207
0251	-8208
0458	-8209
0523	-8210
0548	-8211
1323	-8212
9694	-8213
9928	-8214
▁586	-8215
▁அழி	-8216
மானிய	-8217
லக்ட்	-8218
▁2077	-8219
▁3058	-8220
▁ஊட்ட	-8221
▁கிபி	-8222
▁பண்ண	-8223
தியின்	-8224
▁மிகக்	-8225
▁அந்தக்	-8226
▁சார்பாக	-8227
▁தாக்குதல்	-8228
▁தொடருந்து	-8229
▁செய்யப்பட்டு	-8230
கல்	-8231
0424	-8232
0494	-8233
0555	-8234
1128	-8235
1838	-8236
2672	-8237
3632	-8238
3741	-8239
ச்செ	-8240
▁சேர	-8241
▁மலா	-8242
▁0032	-8243
▁0238	-8244
▁0242	-8245
▁0373	-8246
▁0522	-8247
▁0873	-8248
▁1783	-8249
▁2144	-8250
▁பத்ம	-8251
▁ஆலயம்	-8252
▁முடிக	-8253
▁முதுக	-8254
▁எழுந்த	-8255
▁விண்டோ	-8256
▁ஹொ	-8257
1107	-8258
1803	-8259
1927	-8260
2154	-8261
2642	-8262
9351	-8263
▁மோச	-8264
▁0450	-8265
▁0781	-8266
▁1622	-8267
▁1850	-8268
▁1907	-8269
▁2388	-8270
க்குழு	-8271
▁அறிந்த	-8272
▁இதுவரை	-8273
ர்களுடன்	-8274
▁நுண்ணுய	-8275
▁வழக்கம்	-8276
ப்பதற்காக	-8277
▁அனைவரும்	-8278
▁முழுமையான	-8279
▁விடுதலைப்	-8280
ve	-8281
நல	-8282
▁3,	-8283
2673	-8284
3643	-8285
5352	-8286
5954	-8287
9614	-8288
▁அலெ	-8289
▁கொல	-8290
▁0617	-8291
▁0632	-8292
▁2767	-8293
தையும்	-8294
▁கட்டாய	-8295
▁ஆத்திரே	-8296
ell	-8297
0668	-8298
0975	-8299
1202	-8300
1938	-8301
1993	-8302
2956	-8303
3434	-8304
ிமுறை	-8305
▁0038	-8306
▁0263	-8307
▁0461	-8308
▁0462	-8309
▁0651	-8310
▁1166	-8311
▁தலைய	-8312
▁மிகச்	-8313
ர்களைக்	-8314
▁வீட்டு	-8315
▁அடிக்கடி	-8316
▁வழக்கமாக	-8317
▁பிறந்தவர்	-8318
யோ	-8319
152	-8320
17"	-8321
குவ	-8322
ெண்	-8323
1053	-8324
1454	-8325
1605	-8326
3723	-8327
9466	-8328
▁1432	-8329
▁1872	-8330
▁1873	-8331
▁2247	-8332
▁2264	-8333
▁கட்டட	-8334
▁துவங்க	-8335
▁ஆனாலும்	-8336
ம்பாளையம்	-8337
▁எசுப்பானிய	-8338
ஆர்	-8339
1455	-8340
1627	-8341
▁0843	-8342
▁2866	-8343
▁கிமு	-8344
▁அலங்க	-8345
▁புதித	-8346
▁நகரத்தில்	-8347
▁கருத்துக்க	-8348
▁e	-8349
0476	-8350
0486	-8351
0577	-8352
0625	-8353
2486	-8354
5955	-8355
9313	-8356
9477	-8357
▁515	-8358
▁கான	-8359
ங்கர்	-8360
ினான்	-8361
▁0698	-8362
▁1473	-8363
▁1556	-8364
▁1843	-8365
▁2148	-8366
▁மக்கட	-8367
▁விசார	-8368
▁வேட்ட	-8369
ப்பாற்ற	-8370
▁மொழிபெய	-8371
▁பரிந்துரை	-8372
கூ	-8373
0331	-8374
1198	-8375
1907	-8376
2994	-8377
ார்ட	-8378
▁சாய	-8379
ரிட்ட	-8380
▁0133	-8381
▁0237	-8382
▁0372	-8383
▁0851	-8384
▁0872	-8385
▁1686	-8386
▁மரிய	-8387
▁வளாக	-8388
▁இஸ்லாமிய	-8389
▁பொறுத்து	-8390
▁வடக்கில்	-8391
▁கூறுகிறது	-8392
ர்களுக்கும்	-8393
9016	-8394
9727	-8395
ல்கா	-8396
▁644	-8397
▁1072	-8398
▁சேகரி	-8399
▁பச்சை	-8400
▁சிறிது	-8401
▁வருடம்	-8402
▁வேட்பாள	-8403
▁குடியரசு	-8404
▁உருவாகிறது	-8405
▁என்பதாகும்	-8406
▁ஆரம்பத்தில்	-8407
▁வெளியிட்டார்	-8408
ah	-8409
ion	-8410
வதி	-8411
ுடா	-8412
0488	-8413
0805	-8414
1486	-8415
5755	-8416
5854	-8417
ங்கொ	-8418
ர்டு	-8419
▁பர்	-8420
▁0228	-8421
▁0735	-8422
▁0749	-8423
▁0898	-8424
▁1862	-8425
▁2178	-8426
▁இதழ்	-8427
ுவதில்	-8428
▁செயல்பட்ட	-8429
▁வயதுக்குட்பட்ட	-8430
0545	-8431
0678	-8432
2622	-8433
3476	-8434
9202	-8435
ல்லை	-8436
▁எளி	-8437
▁துள	-8438
▁மக்	-8439
▁0132	-8440
▁0933	-8441
▁1763	-8442
▁பென்	-8443
ாடுகள்	-8444
▁வானிய	-8445
ைகளுடன்	-8446
▁நிலையை	-8447
▁மன்னன்	-8448
▁முறையே	-8449
▁அணுக்கரு	-8450
▁கூடுதலாக	-8451
▁வரையிலான	-8452
▁தொலைவிலும்	-8453
-2	-8454
0435	-8455
1823	-8456
2626	-8457
ருந்த	-8458
ையார்	-8459
▁0027	-8460
▁0507	-8461
▁0842	-8462
▁0917	-8463
▁1143	-8464
▁நடிகை	-8465
▁இந்தச்	-8466
▁வட்டம்	-8467
▁மலேசியா	-8468
▁அவற்றில்	-8469
▁உரிமைகள்	-8470
▁பிராந்திய	-8471
ேஷ்	-8472
0663	-8473
0686	-8474
1259	-8475
5754	-8476
5764	-8477
5766	-8478
9486	-8479
▁0007	-8480
▁0538	-8481
▁1961	-8482
▁2268	-8483
▁2955	-8484
கங்கள்	-8485
சித்து	-8486
▁தங்கிய	-8487
▁திட்டமி	-8488
▁தொகுப்ப	-8489
▁வெளியேற்ற	-8490
18"	-8491
0259	-8492
0853	-8493
1123	-8494
1853	-8495
2435	-8496
3682	-8497
3713	-8498
▁com	-8499
▁சபை	-8500
ஸ்தான	-8501
▁2147	-8502
▁2188	-8503
▁2384	-8504
▁கொலை	-8505
▁பணம்	-8506
▁சதவீத	-8507
▁தேசியப்	-8508
▁விளங்கியது	-8509
ate	-8510
0475	-8511
0813	-8512
2464	-8513
2484	-8514
2861	-8515
9807	-8516
▁வேற	-8517
ந்தன்	-8518
▁1016	-8519
▁1032	-8520
▁1043	-8521
▁1860	-8522
▁2087	-8523
▁2168	-8524
▁2694	-8525
▁திசை	-8526
▁நிலவ	-8527
மடைந்த	-8528
ராலும்	-8529
▁கரும்	-8530
▁எப்படி	-8531
▁கிடைத்த	-8532
▁தோற்றுவ	-8533
▁எதிர்த்து	-8534
▁தொகுப்புக்	-8535
▁(2	-8536
0012	-8537
0351	-8538
2321	-8539
2466	-8540
3468	-8541
▁533	-8542
க்காக	-8543
▁0429	-8544
▁0460	-8545
▁0751	-8546
▁1063	-8547
▁1482	-8548
▁1733	-8549
▁1863	-8550
▁1917	-8551
▁2248	-8552
▁2896	-8553
▁வரவே	-8554
ிப்பது	-8555
▁கட்டி	-8556
0538	-8557
0807	-8558
1027	-8559
1869	-8560
3627	-8561
9102	-8562
மாலை	-8563
துவாக	-8564
மைச்ச	-8565
ளாவிய	-8566
▁0162	-8567
▁1142	-8568
▁1183	-8569
▁1666	-8570
▁1928	-8571
▁2078	-8572
▁2487	-8573
▁மைல்	-8574
▁ஆதரவு	-8575
▁அவர்களை	-8576
▁இரண்டும்	-8577
க்கப்பட்டன	-8578
நிய	-8579
▁ரொ	-8580
0648	-8581
0665	-8582
1839	-8583
2476	-8584
3889	-8585
9159	-8586
▁513	-8587
▁அன்	-8588
▁அயன	-8589
▁0062	-8590
▁0262	-8591
▁0839	-8592
▁0916	-8593
▁0922	-8594
▁1233	-8595
▁1822	-8596
▁1859	-8597
▁2277	-8598
▁திரி	-8599
▁நடுவ	-8600
▁மெய்	-8601
▁மேலே	-8602
▁இப்போ	-8603
▁நிறம்	-8604
ாட்டின்	-8605
▁இணைந்த	-8606
▁வானொலி	-8607
▁சுகாதார	-8608
▁தீவுகள்	-8609
▁மூலக்கூற	-8610
▁கிழக்கில்	-8611
▁உருவாக்கும்	-8612
250	-8613
ide	-8614
▁ஒழ	-8615
0465	-8616
0568	-8617
1435	-8618
1494	-8619
9323	-8620
9676	-8621
9923	-8622
▁543	-8623
▁0528	-8624
▁0998	-8625
▁1133	-8626
▁1732	-8627
▁மைக்	-8628
ப்புச்	-8629
▁குன்ற	-8630
▁பேச்ச	-8631
▁இவ்வகை	-8632
▁நீரில்	-8633
▁பெற்றோ	-8634
▁a	-8635
▁Ch	-8636
0447	-8637
1881	-8638
9312	-8639
9331	-8640
▁0163	-8641
▁0639	-8642
▁1073	-8643
▁1483	-8644
▁வளைய	-8645
ுகளிலும்	-8646
▁அறியப்படுகிறது	-8647
ne	-8648
ob	-8649
இய	-8650
153	-8651
போல	-8652
▁உர	-8653
1456	-8654
1615	-8655
3485	-8656
5756	-8657
9302	-8658
▁அவு	-8659
▁பீட	-8660
▁1122	-8661
▁2856	-8662
▁கையாள	-8663
▁குளிர்	-8664
▁வழிமுற	-8665
▁தொழிற்சால	-8666
▁பில்லியன்	-8667
ிலிருந்தும்	-8668
1448	-8669
1556	-8670
2446	-8671
2456	-8672
5884	-8673
9229	-8674
9528	-8675
பான்	-8676
▁656	-8677
▁0033	-8678
▁0451	-8679
▁2278	-8680
▁நிர்ண	-8681
ியிலும்	-8682
▁ஒன்றான	-8683
▁போட்டி	-8684
▁பெயர்கள்	-8685
▁In	-8686
1005	-8687
1359	-8688
1568	-8689
3404	-8690
5774	-8691
9476	-8692
9484	-8693
9705	-8694
9938	-8695
ீரல்	-8696
▁0627	-8697
▁0765	-8698
▁0861	-8699
▁1162	-8700
▁2177	-8701
▁2288	-8702
▁2367	-8703
▁2874	-8704
▁நீர்ம	-8705
▁எலக்ட்	-8706
▁என்பதுடன்	-8707
சர	-8708
0675	-8709
0852	-8710
1424	-8711
1488	-8712
3475	-8713
5896	-8714
9538	-8715
9753	-8716
ர்த்	-8717
▁0817	-8718
▁1163	-8719
▁இத்தொ	-8720
▁உண்மை	-8721
ப்பொருள	-8722
▁இவ்வாற	-8723
▁செயலாளர்	-8724
▁தொடக்கத்தில்	-8725
பக	-8726
பல	-8727
ேக்	-8728
1496	-8729
2467	-8730
3425	-8731
▁பகி	-8732
▁0741	-8733
▁0871	-8734
▁1722	-8735
▁1762	-8736
▁2496	-8737
▁மகள்	-8738
▁அந்தப்	-8739
▁விமர்ச	-8740
▁சம்பந்த	-8741
▁நிலப்பர	-8742
▁மக்களும்	-8743
0633	-8744
1098	-8745
2312	-8746
2871	-8747
2892	-8748
9392	-8749
9556	-8750
9912	-8751
வைப்	-8752
▁538	-8753
▁தூர	-8754
▁0337	-8755
▁0425	-8756
▁0438	-8757
▁1107	-8758
▁1243	-8759
▁1908	-8760
▁2868	-8761
▁3156	-8762
▁வழிக	-8763
கையில்	-8764
மையும்	-8765
▁நினைவ	-8766
▁பிரேச	-8767
▁இராகம்	-8768
▁பதிப்பு	-8769
▁மருந்து	-8770
▁சார்பில்	-8771
வதை	-8772
0487	-8773
0635	-8774
1467	-8775
1821	-8776
2054	-8777
3478	-8778
9339	-8779
பட்ச	-8780
▁இலா	-8781
ம்மது	-8782
ழ்த்த	-8783
▁0727	-8784
▁0736	-8785
▁0869	-8786
▁1216	-8787
▁1227	-8788
▁1743	-8789
▁2564	-8790
ட்டின்	-8791
னையும்	-8792
▁துண்ட	-8793
ுக்குச்	-8794
▁இறந்து	-8795
▁விழுக்க	-8796
▁கொண்டனர்	-8797
▁சிங்கப்பூர்	-8798
ess	-8799
0312	-8800
0446	-8801
1017	-8802
1037	-8803
1952	-8804
5844	-8805
5857	-8806
5867	-8807
9036	-8808
9467	-8809
த்ரா	-8810
▁எடை	-8811
▁பிட	-8812
்க்கு	-8813
▁0480	-8814
▁0982	-8815
▁1116	-8816
▁1463	-8817
▁2796	-8818
த்தீன்	-8819
▁சற்று	-8820
▁பந்து	-8821
ியலாளர்	-8822
▁இவற்றை	-8823
▁எலும்ப	-8824
▁ஒழுங்க	-8825
▁சுந்தர	-8826
▁கோயம்புத்த	-8827
▁கள்ளக்குறிச்சி	-8828
▁ஐய	-8829
1505	-8830
3465	-8831
9752	-8832
▁டாக	-8833
▁விஷ	-8834
க்கன்	-8835
▁0122	-8836
▁0233	-8837
▁0816	-8838
▁1042	-8839
▁2066	-8840
▁2877	-8841
ைகளைத்	-8842
▁கடவுள	-8843
▁செம்ப	-8844
▁வாயில	-8845
▁குறுகிய	-8846
▁முறைகள்	-8847
▁மேலாண்மை	-8848
ஜன்	-8849
▁டீ	-8850
0565	-8851
1465	-8852
1477	-8853
1567	-8854
2447	-8855
2889	-8856
9827	-8857
▁503	-8858
ாட்டை	-8859
▁0121	-8860
▁0508	-8861
▁1651	-8862
▁2287	-8863
▁2867	-8864
▁கவர்	-8865
ிக்குப்	-8866
க்கூடும்	-8867
953	-8868
ist	-8869
லின	-8870
0647	-8871
1303	-8872
1312	-8873
1558	-8874
1653	-8875
1829	-8876
1889	-8877
2823	-8878
9717	-8879
▁370	-8880
▁0471	-8881
▁0608	-8882
▁0830	-8883
▁2068	-8884
▁குரோ	-8885
▁நரசி	-8886
▁வசதி	-8887
ழுதும்	-8888
▁குரல்	-8889
▁மனைவிய	-8890
▁வாடிக்க	-8891
▁மராத்திய	-8892
▁சன்னதிகள்	-8893
=31	-8894
0643	-8895
1515	-8896
9303	-8897
9435	-8898
="31	-8899
ளைத்	-8900
ையர்	-8901
▁542	-8902
▁குர	-8903
ல்லது	-8904
ாடுகள	-8905
ுவதன்	-8906
▁0650	-8907
▁2076	-8908
▁3155	-8909
▁ஏற்றுக்	-8910
▁தோல்விய	-8911
▁பல்கலைக்	-8912
▁ஒலிம்பிக்	-8913
0973	-8914
3435	-8915
3753	-8916
5227	-8917
5253	-8918
9425	-8919
9853	-8920
▁இதர	-8921
▁0469	-8922
▁0721	-8923
▁0761	-8924
▁1263	-8925
▁2046	-8926
▁2378	-8927
▁அதிப	-8928
டியில்	-8929
ந்தூர்	-8930
▁நாளில்	-8931
பெருமாள்	-8932
▁துல்லிய	-8933
▁ரீதியாக	-8934
▁அனுமதிக்க	-8935
▁உபசன்னதியும்	-8936
க்ட	-8937
1221	-8938
1476	-8939
3443	-8940
ங்கே	-8941
ேயர்	-8942
▁பின	-8943
ச்சிற	-8944
லாமல்	-8945
▁0527	-8946
▁0537	-8947
▁0635	-8948
▁1173	-8949
▁1182	-8950
▁1851	-8951
▁1861	-8952
▁2374	-8953
▁2448	-8954
ந்தாட்ட	-8955
வதில்லை	-8956
▁அலுவலர்	-8957
▁தமிழ்ப்	-8958
▁வெற்றிக	-8959
ாளியம்மன்	-8960
=43	-8961
வாச	-8962
ிணை	-8963
ோள்	-8964
1331	-8965
1892	-8966
1923	-8967
3487	-8968
5866	-8969
9017	-8970
9457	-8971
9545	-8972
="43	-8973
▁0485	-8974
▁0659	-8975
▁0782	-8976
▁2067	-8977
▁3054	-8978
▁3096	-8979
▁ஓய்வு	-8980
▁உறுப்ப	-8981
▁கோட்பாடு	-8982
கட	-8983
▁பச	-8984
0485	-8985
0685	-8986
1487	-8987
1597	-8988
1841	-8989
2057	-8990
5874	-8991
ரியன்	-8992
▁1639	-8993
▁2774	-8994
▁2878	-8995
▁3254	-8996
பாடுகளை	-8997
ியாகும்	-8998
▁எதுவும்	-8999
▁பாராட்ட	-9000
▁கொடுத்து	-9001
▁குடும்பத்தில்	-9002
AE	-9003
▁ஸ	-9004
0563	-9005
0972	-9006
1229	-9007
1445	-9008
1507	-9009
2605	-9010
3605	-9011
3861	-9012
5846	-9013
ாற்ற	-9014
ூரின்	-9015
▁0697	-9016
▁0717	-9017
▁0725	-9018
▁0739	-9019
▁0798	-9020
▁1062	-9021
▁1632	-9022
▁1742	-9023
▁2186	-9024
▁2486	-9025
▁2664	-9026
▁சுவி	-9027
▁அருள்	-9028
▁நிக்க	-9029
▁தொடக்கம்	-9030
▁அறிவித்தது	-9031
ப்படுவதில்லை	-9032
▁மாகாணத்தில்	-9033
52"	-9034
0632	-9035
1153	-9036
1474	-9037
1849	-9038
2392	-9039
2849	-9040
3803	-9041
5724	-9042
▁0142	-9043
▁0532	-9044
▁0708	-9045
▁0835	-9046
▁0897	-9047
▁1022	-9048
▁1533	-9049
▁1969	-9050
▁உறவு	-9051
▁விசை	-9052
ழிப்பு	-9053
ிவர்பூ	-9054
▁அழகிய	-9055
▁பதவிய	-9056
▁கணிப்ப	-9057
▁கொண்டவை	-9058
▁வழியில்	-9059
▁மார்ச்சு	-9060
sh	-9061
▁லோ	-9062
1447	-9063
1871	-9064
1953	-9065
3703	-9066
3839	-9067
3859	-9068
9007	-9069
9564	-9070
9567	-9071
க்கல	-9072
த்மா	-9073
▁535	-9074
மாகிய	-9075
▁0139	-9076
▁0797	-9077
▁1761	-9078
▁1916	-9079
▁பாறை	-9080
ுக்கல்	-9081
▁இதற்க	-9082
ங்குளம்	-9083
ீஸ்வரர்	-9084
▁பாடல்களை	-9085
060	-9086
0943	-9087
1404	-9088
2829	-9089
3445	-9090
9566	-9091
ுறவு	-9092
▁583	-9093
▁655	-9094
▁வேட	-9095
▁வைண	-9096
றிவான	-9097
▁0430	-9098
▁0459	-9099
▁0479	-9100
▁0860	-9101
▁0907	-9102
▁1522	-9103
ுகொண்ட	-9104
▁அச்சு	-9105
▁பாடசால	-9106
▁அறிந்து	-9107
▁செய்வது	-9108
▁தண்ணீர்	-9109
▁வளர்த்த	-9110
▁வீட்டில்	-9111
▁வழங்கப்படும்	-9112
0673	-9113
2879	-9114
3433	-9115
3477	-9116
9625	-9117
▁நீர	-9118
▁0051	-9119
▁0111	-9120
▁1373	-9121
▁1915	-9122
▁ஒளிய	-9123
▁கொடி	-9124
▁சேர்	-9125
▁மாசி	-9126
ாளரும்	-9127
முடியும்	-9128
ாளர்களின்	-9129
▁முடிவில்	-9130
Ch	-9131
ணன்	-9132
ுதி	-9133
0329	-9134
1013	-9135
1097	-9136
1103	-9137
3448	-9138
3458	-9139
3721	-9140
3802	-9141
3813	-9142
9635	-9143
ண்கல	-9144
நாத்	-9145
▁0481	-9146
▁1136	-9147
▁1342	-9148
▁1871	-9149
▁1898	-9150
▁சூழல்	-9151
பவர்கள்	-9152
▁அறிகுற	-9153
▁பழமையான	-9154
▁வழிபாடு	-9155
ப்படுகின்ற	-9156
Th	-9157
ov	-9158
காத	-9159
ஷ்ய	-9160
0477	-9161
0495	-9162
0615	-9163
1012	-9164
2425	-9165
2457	-9166
5213	-9167
5784	-9168
9678	-9169
▁நேச	-9170
▁வைர	-9171
த்தலை	-9172
லானது	-9173
▁0011	-9174
▁0083	-9175
▁0232	-9176
▁0470	-9177
▁0489	-9178
▁0919	-9179
▁1232	-9180
▁1382	-9181
▁1461	-9182
▁1532	-9183
▁1832	-9184
▁அரசன்	-9185
▁எப்போ	-9186
▁கவனம்	-9187
▁உரிமைய	-9188
▁கடலில்	-9189
▁தெரிவு	-9190
▁பட்டியல	-9191
ங்களாகும்	-9192
▁முயற்சிய	-9193
▁மக்கட்தொகை	-9194
▁l	-9195
98"	-9196
0433	-9197
2475	-9198
2802	-9199
3447	-9200
கமாக	-9201
ண்டா	-9202
ுதான்	-9203
▁0021	-9204
▁0963	-9205
▁1007	-9206
▁1326	-9207
▁1842	-9208
▁1941	-9209
▁2558	-9210
▁சோதன	-9211
▁நோபல்	-9212
த்தொடர்	-9213
▁முதலான	-9214
▁நபர்கள்	-9215
▁மின்சார	-9216
▁லிவர்பூ	-9217
▁பகுதியின்	-9218
▁4,	-9219
5778	-9220
9465	-9221
9487	-9222
9523	-9223
9565	-9224
9902	-9225
மேன்	-9226
▁512	-9227
ஞ்ஞான	-9228
▁0363	-9229
▁0845	-9230
▁1282	-9231
▁2088	-9232
▁2544	-9233
▁2574	-9234
▁வழிப	-9235
தற்காக	-9236
▁எழுது	-9237
▁தாயார்	-9238
▁பேசும்	-9239
▁கடற்கரை	-9240
▁மருத்துவம்	-9241
▁ஞ	-9242
940	-9243
கோண	-9244
சுர	-9245
0503	-9246
1052	-9247
1902	-9248
2445	-9249
2477	-9250
2478	-9251
ாதம்	-9252
▁0879	-9253
▁0927	-9254
▁1098	-9255
▁1242	-9256
▁2554	-9257
▁3355	-9258
▁பயன்	-9259
▁மாநக	-9260
▁வலது	-9261
▁ஜேம்ஸ்	-9262
▁திருவி	-9263
▁புலவர்	-9264
▁மேற்பர	-9265
▁தலைநகர்	-9266
▁சிறப்பான	-9267
▁சராசரியாக	-9268
▁பேரூராட்சி	-9269
▁மக்களுக்கு	-9270
ாரை	-9271
0406	-9272
0442	-9273
0553	-9274
0642	-9275
1137	-9276
3829	-9277
3849	-9278
9321	-9279
9458	-9280
▁அலி	-9281
குந்த	-9282
▁0629	-9283
▁0630	-9284
▁0825	-9285
▁0836	-9286
▁1472	-9287
▁1839	-9288
▁2146	-9289
▁2267	-9290
பிரிக்க	-9291
▁புகைப்பட	-9292
▁இலக்கியம்	-9293
▁துறைகளில்	-9294
1192	-9295
2485	-9296
5746	-9297
9037	-9298
9496	-9299
ட்ரா	-9300
▁525	-9301
ினைப்	-9302
▁0037	-9303
▁0437	-9304
▁1273	-9305
▁1372	-9306
▁1925	-9307
▁3154	-9308
▁இவன்	-9309
ப்பள்ள	-9310
▁ஒற்றை	-9311
▁ரயில்	-9312
▁ஜார்ஜ்	-9313
▁தெற்கே	-9314
▁பயின்ற	-9315
▁மாணவர்	-9316
▁முன்னே	-9317
▁பிரிவில்	-9318
▁வெளியிட்டது	-9319
அம	-9320
நு	-9321
0359	-9322
0405	-9323
0422	-9324
0426	-9325
0543	-9326
2488	-9327
3426	-9328
9558	-9329
9568	-9330
9646	-9331
9668	-9332
▁வீத	-9333
▁0019	-9334
▁0063	-9335
▁0173	-9336
▁0730	-9337
▁0859	-9338
▁1111	-9339
▁1226	-9340
▁1336	-9341
▁1363	-9342
▁1397	-9343
▁1879	-9344
▁2086	-9345
▁2447	-9346
▁2476	-9347
▁2684	-9348
▁3456	-9349
பேட்டை	-9350
▁குமார	-9351
▁விஷ்ண	-9352
ட்டுகள்	-9353
▁உடலில்	-9354
▁வித்தியா	-9355
த்திற்குப்	-9356
வொ	-9357
0448	-9358
0859	-9359
1425	-9360
1433	-9361
1565	-9362
1813	-9363
2483	-9364
3482	-9365
5777	-9366
9095	-9367
9557	-9368
9685	-9369
9992	-9370
▁கண்	-9371
க்குழ	-9372
ுடனான	-9373
▁0531	-9374
▁1426	-9375
▁1527	-9376
▁இராச	-9377
ைக்கான	-9378
▁மங்கோ	-9379
▁சிந்து	-9380
ப்புக்கு	-9381
ிக்கொண்ட	-9382
▁இப்பகுத	-9383
▁செய்யப்படுகிறது	-9384
if	-9385
என்	-9386
நேர	-9387
0473	-9388
0881	-9389
1851	-9390
5203	-9391
5886	-9392
9687	-9393
ட்ஜ்	-9394
▁பனி	-9395
▁0039	-9396
▁0131	-9397
▁0239	-9398
▁0475	-9399
▁0625	-9400
▁0631	-9401
▁0759	-9402
▁0983	-9403
▁1236	-9404
▁1327	-9405
▁1451	-9406
▁1750	-9407
▁சில்	-9408
ிக்கிழ	-9409
▁அணிக்கு	-9410
▁தெற்கில்	-9411
▁பண்பாட்டு	-9412
ிட்டுள்ளார்	-9413
90"	-9414
=35	-9415
வாள	-9416
0687	-9417
1475	-9418
1595	-9419
1831	-9420
2416	-9421
3851	-9422
5252	-9423
5775	-9424
5786	-9425
9259	-9426
="35	-9427
▁654	-9428
▁புள	-9429
ண்டர்	-9430
ந்தம்	-9431
▁0785	-9432
▁0789	-9433
▁1027	-9434
▁2557	-9435
▁3255	-9436
ியுடன்	-9437
▁சக்கர	-9438
ங்களுள்	-9439
▁கடந்து	-9440
▁தனக்கு	-9441
▁ஆக்சிசன	-9442
▁பேராசிரியர்	-9443
▁காலகட்டத்தில்	-9444
0879	-9445
1859	-9446
2433	-9447
5768	-9448
9475	-9449
9665	-9450
▁கதி	-9451
▁0028	-9452
▁0151	-9453
▁0431	-9454
▁0529	-9455
▁0707	-9456
▁0827	-9457
▁1039	-9458
▁1059	-9459
▁1135	-9460
▁1197	-9461
▁1417	-9462
▁1741	-9463
▁2187	-9464
▁சஞ்ச	-9465
▁சீர்த	-9466
▁பட்டிய	-9467
▁தோன்றும்	-9468
த்துறையில்	-9469
லஸ்	-9470
0573	-9471
0592	-9472
0616	-9473
0851	-9474
1812	-9475
3881	-9476
ேயான	-9477
▁அவள	-9478
லியன்	-9479
▁0375	-9480
▁0821	-9481
▁1172	-9482
▁1272	-9483
▁1630	-9484
▁1635	-9485
▁2387	-9486
▁2547	-9487
▁குறு	-9488
▁முறைய	-9489
ந்திரன்	-9490
▁அளித்த	-9491
▁பார்வை	-9492
▁புரட்ச	-9493
▁விதமாக	-9494
நாட்டில்	-9495
▁இயற்றிய	-9496
▁இயங்கும்	-9497
▁மத்தியில்	-9498
▁அழைக்கப்பட்டது	-9499
▁திரைப்படத்தின்	-9500
▁வழங்கப்படுகிறது	-9501
ish	-9502
▁கச	-9503
0425	-9504
0682	-9505
0823	-9506
1432	-9507
1468	-9508
1478	-9509
5765	-9510
9005	-9511
9468	-9512
9647	-9513
▁0780	-9514
▁0807	-9515
▁0841	-9516
▁0865	-9517
▁0875	-9518
▁1127	-9519
▁1343	-9520
▁1362	-9521
▁2347	-9522
▁தூய்	-9523
▁நூலை	-9524
ல்லூரி	-9525
▁களில்	-9526
▁காண்ப	-9527
▁இராச்ச	-9528
▁போன்றவற்றை	-9529
▁திருத்தந்தை	-9530
▁எனப்படுகிறது	-9531
uc	-9532
னவே	-9533
ுவா	-9534
1138	-9535
1193	-9536
1329	-9537
1392	-9538
1698	-9539
2463	-9540
3463	-9541
9359	-9542
9686	-9543
▁சுட	-9544
▁0031	-9545
▁0921	-9546
▁0962	-9547
▁1036	-9548
▁1051	-9549
▁1739	-9550
▁1782	-9551
▁3354	-9552
▁சான்	-9553
▁பாடி	-9554
மின்றி	-9555
▁அணுகு	-9556
▁அவசிய	-9557
▁பொதுவ	-9558
▁வரையான	-9559
▁சுற்றிய	-9560
▁புராணம்	-9561
▁ஆத்திரேலிய	-9562
▁k	-9563
ஜர்	-9564
வல்	-9565
ாவா	-9566
0542	-9567
1038	-9568
1517	-9569
1607	-9570
5339	-9571
9488	-9572
▁502	-9573
▁வது	-9574
▁0760	-9575
▁1033	-9576
▁1132	-9577
▁1480	-9578
▁1583	-9579
▁1798	-9580
▁1897	-9581
▁2747	-9582
▁புரத	-9583
▁வள்ள	-9584
ந்தும்	-9585
▁உணர்வ	-9586
▁திண்ட	-9587
▁நேரடி	-9588
▁ஐதரசன்	-9589
▁இயக்குந	-9590
▁அடர்த்தி	-9591
▁என்பவற்ற	-9592
▁மக்கள்தொ	-9593
ிகளுக்கும்	-9594
▁ஆகியோரின்	-9595
▁இடைப்பட்ட	-9596
▁பாக்கித்தான்	-9597
▁உருவாக்கினார்	-9598
96"	-9599
ich	-9600
யிர	-9601
▁லை	-9602
0302	-9603
0478	-9604
0528	-9605
0572	-9606
1443	-9607
2442	-9608
5292	-9609
9485	-9610
9648	-9611
ரைத்	-9612
▁தால	-9613
லுடன்	-9614
▁0029	-9615
▁0245	-9616
▁0342	-9617
▁0951	-9618
▁0999	-9619
▁1131	-9620
▁1497	-9621
▁1526	-9622
▁1830	-9623
▁2246	-9624
▁2584	-9625
▁மாறி	-9626
ேஸ்வரர்	-9627
▁புள்ளி	-9628
▁காட்சிய	-9629
ாட்சியில்	-9630
▁பேருந்து	-9631
▁நூல்களில்	-9632
▁எழுத்துக்க	-9633
▁கல்வியறிவான	-9634
ுவி	-9635
1458	-9636
1879	-9637
9436	-9638
9445	-9639
9502	-9640
ாவர்	-9641
▁0145	-9642
▁0328	-9643
▁0332	-9644
▁0421	-9645
▁0539	-9646
▁1031	-9647
▁1117	-9648
▁1198	-9649
▁2346	-9650
▁2377	-9651
▁2386	-9652
▁3055	-9653
▁3256	-9654
▁அலகு	-9655
டித்து	-9656
▁நிதிய	-9657
▁வினைய	-9658
▁உலகளாவிய	-9659
▁கடுமையான	-9660
▁நடக்கும்	-9661
டீ	-9662
26"	-9663
ிதா	-9664
ிரம	-9665
▁",	-9666
0841	-9667
2339	-9668
9446	-9669
9593	-9670
9658	-9671
9688	-9672
▁0082	-9673
▁0443	-9674
▁0525	-9675
▁0997	-9676
▁1430	-9677
▁1582	-9678
▁1875	-9679
ரேட்டு	-9680
ிற்குப்	-9681
▁விளையாட	-9682
▁அறிமுகமானார்	-9683
லிச	-9684
2303	-9685
5865	-9686
9433	-9687
9447	-9688
9683	-9689
▁545	-9690
▁0129	-9691
▁1017	-9692
▁2376	-9693
▁3477	-9694
▁மல்ல	-9695
▁பாலின	-9696
▁பித்த	-9697
▁குமார்	-9698
▁என்றார்	-9699
▁வெற்றிய	-9700
▁குழுவின்	-9701
▁சாலையில்	-9702
▁இப்பகுதியில்	-9703
னன்	-9704
லோக	-9705
0443	-9706
0562	-9707
0622	-9708
0871	-9709
1008	-9710
1651	-9711
2056	-9712
2753	-9713
5228	-9714
5714	-9715
5734	-9716
5876	-9717
9675	-9718
▁598	-9719
▁0849	-9720
▁0985	-9721
▁1383	-9722
▁1481	-9723
▁1485	-9724
▁1489	-9725
▁2166	-9726
▁2176	-9727
மையால்	-9728
லாகும்	-9729
விக்கு	-9730
ியானது	-9731
▁விற்க	-9732
ரிகிறது	-9733
▁மைக்ரோ	-9734
▁விமர்சன	-9735
ுக்கிடையே	-9736
▁விளங்கிய	-9737
960	-9738
யில	-9739
0683	-9740
3793	-9741
3831	-9742
3879	-9743
5735	-9744
9562	-9745
▁0015	-9746
▁0231	-9747
▁0870	-9748
▁3356	-9749
டையும்	-9750
ியாகக்	-9751
பார்க்க	-9752
▁காவல்த	-9753
▁நிலக்க	-9754
▁வகுப்ப	-9755
▁ஒவ்வொன்ற	-9756
▁உண்மையில்	-9757
0463	-9758
0593	-9759
1093	-9760
1598	-9761
5351	-9762
9642	-9763
9918	-9764
நாம்	-9765
▁553	-9766
▁சூட	-9767
▁மாய	-9768
ம்பெய	-9769
▁0750	-9770
▁0829	-9771
▁1217	-9772
▁1431	-9773
▁1789	-9774
▁2422	-9775
லிலும்	-9776
▁இவர்கள	-9777
▁வழங்கி	-9778
▁நகராட்சி	-9779
▁தமிழகத்தில்	-9780
▁பகுதியாகும்	-9781
0552	-9782
0828	-9783
1617	-9784
2331	-9785
2359	-9786
3693	-9787
இந்த	-9788
▁380	-9789
▁0099	-9790
▁1037	-9791
▁1626	-9792
▁2667	-9793
▁குளோ	-9794
▁சிவா	-9795
▁தாழ்	-9796
▁நீரி	-9797
▁ராக்	-9798
ப்பிள்	-9799
ாங்கம்	-9800
▁அரசர்	-9801
▁இக்கோ	-9802
▁தோற்க	-9803
▁மனிதன்	-9804
ருக்குப்	-9805
▁அமைப்பில்	-9806
▁குறிப்புகள்	-9807
Cl	-9808
ep	-9809
▁லே	-9810
0831	-9811
1321	-9812
1912	-9813
2468	-9814
3869	-9815
5787	-9816
மித்	-9817
▁சார	-9818
▁வயி	-9819
ன்களை	-9820
ியான்	-9821
▁0059	-9822
▁0072	-9823
▁1097	-9824
▁1151	-9825
▁1439	-9826
▁1797	-9827
▁1826	-9828
▁1949	-9829
▁2022	-9830
▁2556	-9831
▁இனம்	-9832
க்குச்	-9833
ற்றுப்	-9834
▁துன்ப	-9835
▁போற்ற	-9836
▁நடிக்க	-9837
▁வரதராஜ	-9838
▁இந்தோனே	-9839
▁இவ்வூர்	-9840
▁இருப்பதாக	-9841
▁வாய்ப்பாடு	-9842
AP	-9843
்ச்	-9844
▁மௌ	-9845
0518	-9846
0892	-9847
0893	-9848
2434	-9849
2723	-9850
5885	-9851
9555	-9852
நீதி	-9853
ழில்	-9854
்ட்ட	-9855
▁552	-9856
▁அகல	-9857
▁எச்	-9858
ியக்க	-9859
▁0222	-9860
▁0325	-9861
▁0428	-9862
▁0465	-9863
▁0563	-9864
▁0729	-9865
▁0932	-9866
▁0959	-9867
▁1139	-9868
▁1207	-9869
▁1283	-9870
▁1841	-9871
▁1869	-9872
▁2286	-9873
▁2964	-9874
▁ஆலோச	-9875
▁அண்ணா	-9876
▁இயேசு	-9877
▁மண்டப	-9878
▁அறிஞர்	-9879
▁ஊக்குவ	-9880
▁சிறுநீ	-9881
▁டேவிட்	-9882
▁நிறைவு	-9883
▁படைப்ப	-9884
வெளியில்	-9885
▁முயற்சி	-9886
▁காங்கிரசு	-9887
▁கட்டப்பட்டது	-9888
வேக	-9889
0626	-9890
1023	-9891
1102	-9892
2465	-9893
3415	-9894
9442	-9895
டின்	-9896
▁0343	-9897
▁1029	-9898
▁1835	-9899
▁2266	-9900
▁2446	-9901
▁2678	-9902
▁கொடிய	-9903
லிங்கம்	-9904
▁சித்திர	-9905
▁உயிர்ச்ச	-9906
▁விலங்குகள்	-9907
▁நடித்திருந்தனர்	-9908
புத	-9909
▁""	-9910
1028	-9911
2448	-9912
2707	-9913
3432	-9914
5221	-9915
9503	-9916
9563	-9917
9713	-9918
தோடு	-9919
▁இதய	-9920
செய்த	-9921
▁0035	-9922
▁0118	-9923
▁0850	-9924
▁0911	-9925
▁0936	-9926
▁1011	-9927
▁1598	-9928
▁1707	-9929
▁1725	-9930
▁1870	-9931
▁1930	-9932
▁2548	-9933
▁எரிம	-9934
ுவதால்	-9935
▁துப்ப	-9936
▁பரிசோ	-9937
▁பழக்க	-9938
▁தலைநகர	-9939
▁நாட்டை	-9940
▁பிறப்ப	-9941
▁ஒன்றில்	-9942
▁நிகழும்	-9943
▁மேற்கில்	-9944
▁நாட்களில்	-9945
▁வடிவமைப்ப	-9946
▁பொருளாதாரம்	-9947
▁மாவட்டங்களில்	-9948
மத	-9949
ind	-9950
0605	-9951
0821	-9952
2443	-9953
2482	-9954
5758	-9955
9027	-9956
9606	-9957
ச்சா	-9958
▁50%	-9959
▁563	-9960
▁573	-9961
▁தரை	-9962
▁மூட	-9963
▁வறு	-9964
▁0435	-9965
▁1262	-9966
▁1316	-9967
▁1471	-9968
▁1836	-9969
▁காலை	-9970
▁சமீப	-9971
மையின்	-9972
ங்களைச்	-9973
ளத்தில்	-9974
▁இந்திர	-9975
▁உயர்த்த	-9976
▁விஞ்ஞான	-9977
▁செய்யப்பட்டார்	-9978
ae	-9979
yl	-9980
igh	-9981
0889	-9982
1473	-9983
2404	-9984
3718	-9985
5212	-9986
5776	-9987
5794	-9988
▁0235	-9989
▁0420	-9990
▁2668	-9991
▁2884	-9992
▁கரூர்	-9993
▁நோயாள	-9994
டைந்தது	-9995
▁படிக்க	-9996
▁நிகழ்வு	-9997
▁நகரத்தின்	-9998
1913	-9999
2405	-10000
2881	-10001
5303	-10002
சூர்	-10003
▁677	-10004
▁0521	-10005
▁0535	-10006
▁0731	-10007
▁0931	-10008
▁1185	-10009
▁1239	-10010
▁1459	-10011
▁1650	-10012
▁1825	-10013
▁1829	-10014
▁2587	-10015
▁2648	-10016
▁2944	-10017
மாற்றம்	-10018
வதற்கான	-10019
▁தொடர்வ	-10020
▁பாரசீக	-10021
▁மகளிர்	-10022
▁வண்ணம்	-10023
▁பிரதிநித	-10024
▁வளர்ந்து	-10025
▁கருதப்படும்	-10026
▁வாய்ப்பாட்ட	-10027
our	-10028
0627	-10029
1545	-10030
1603	-10031
2329	-10032
2422	-10033
2607	-10034
2698	-10035
3603	-10036
3769	-10037
3871	-10038
5259	-10039
5656	-10040
5875	-10041
9443	-10042
9634	-10043
▁அட்	-10044
▁அறு	-10045
▁மகள	-10046
ஞ்சல்	-10047
▁0283	-10048
▁0745	-10049
▁1015	-10050
▁1462	-10051
▁2063	-10052
▁3466	-10053
தற்கான	-10054
னையில்	-10055
▁இயற்ற	-10056
▁கோபுர	-10057
▁சூட்ட	-10058
▁அதிர்வ	-10059
ையாகவும்	-10060
▁நியூசில	-10061
▁முக்கோண	-10062
CH	-10063
▁ஹை	-10064
0672	-10065
1483	-10066
3613	-10067
3702	-10068
5238	-10069
5444	-10070
5555	-10071
5825	-10072
5887	-10073
9415	-10074
9478	-10075
ப்ட்	-10076
ுண்ட	-10077
▁0119	-10078
▁0165	-10079
▁0265	-10080
▁0562	-10081
▁1065	-10082
▁2366	-10083
▁2974	-10084
▁அகாத	-10085
▁மான்	-10086
▁வண்ட	-10087
▁திரைய	-10088
▁ராணுவ	-10089
▁விஜய்	-10090
முறைகள்	-10091
▁க்கும்	-10092
▁தென்னா	-10093
▁நிகழ்வுகள்	-10094
▁மருத்துவமன	-10095
▁வெளிவந்தது	-10096
▁முன்னேற்றக்	-10097
▁கோயம்புத்தூர்	-10098
24"	-10099
ாலோ	-10100
▁CH	-10101
0838	-10102
1003	-10103
2615	-10104
2623	-10105
3617	-10106
9404	-10107
9432	-10108
9615	-10109
9723	-10110
வடிவ	-10111
▁582	-10112
▁நம்	-10113
▁0573	-10114
▁0620	-10115
▁1607	-10116
▁1698	-10117
▁1749	-10118
▁2588	-10119
▁2778	-10120
▁ஏராள	-10121
▁மகிழ	-10122
▁உயிரி	-10123
▁புதின	-10124
▁இடத்தை	-10125
▁அவ்வாறு	-10126
▁உருவாக்கி	-10127
▁முதலமைச்ச	-10128
▁அக்காலத்தில்	-10129
சலே	-10130
ேஸ்	-10131
்து	-10132
0662	-10133
0812	-10134
2458	-10135
2821	-10136
2869	-10137
3761	-10138
5833	-10139
9513	-10140
க்தி	-10141
▁உழை	-10142
மாகத்	-10143
▁0125	-10144
▁1019	-10145
▁1479	-10146
▁1629	-10147
▁2243	-10148
▁2473	-10149
▁2848	-10150
▁தகுத	-10151
▁நிலம்	-10152
▁சிறுகத	-10153
▁சுரங்க	-10154
▁அமைப்பை	-10155
▁ஈடுபட்டு	-10156
▁தகவல்கள்	-10157
▁செயல்படும்	-10158
▁பயன்படுத்திய	-10159
0407	-10160
0513	-10161
1442	-10162
1555	-10163
2653	-10164
2841	-10165
5574	-10166
9592	-10167
9737	-10168
ுமின	-10169
▁0583	-10170
▁1450	-10171
▁1498	-10172
▁1539	-10173
▁1616	-10174
▁2276	-10175
▁நிலந	-10176
அல்லது	-10177
வுக்கு	-10178
▁அமைதி	-10179
▁கவிதை	-10180
ுறிச்சி	-10181
▁சர்ச்ச	-10182
▁இதுவும்	-10183
▁பணியில்	-10184
ீன	-10185
ூல	-10186
ூறு	-10187
0818	-10188
1405	-10189
2617	-10190
3436	-10191
5313	-10192
9482	-10193
ாகத்	-10194
▁உறை	-10195
▁சும	-10196
▁1121	-10197
▁1317	-10198
▁1781	-10199
▁2886	-10200
▁காஷ்	-10201
▁கூறி	-10202
▁மென்	-10203
ட்ரிக்	-10204
▁நிறைய	-10205
▁ஒதுக்க	-10206
▁செங்கு	-10207
▁நிர்ணய	-10208
▁முன்வை	-10209
▁வடக்கே	-10210
ிருப்பது	-10211
த்துக்கும்	-10212
▁உதவியுடன்	-10213
▁கட்டமைப்பு	-10214
▁பகுதிகளிலும்	-10215
The	-10216
0416	-10217
0861	-10218
2831	-10219
3483	-10220
5218	-10221
9023	-10222
9098	-10223
9495	-10224
ிவாச	-10225
▁சரண	-10226
▁0043	-10227
▁0073	-10228
▁0272	-10229
▁0965	-10230
▁1025	-10231
▁1119	-10232
▁1325	-10233
▁1416	-10234
▁1516	-10235
▁1621	-10236
▁1849	-10237
▁2042	-10238
▁இளவரச	-10239
▁காமிக	-10240
▁ஆண்டுத	-10241
▁இயலும்	-10242
▁அளவுக்கு	-10243
▁உதவுகிறது	-10244
ிக்கப்படும்	-10245
▁ஏற்படுகிறது	-10246
▁கொண்டிருக்க	-10247
▁செயல்படுகிறது	-10248
po	-10249
ber	-10250
1462	-10251
1485	-10252
2436	-10253
2627	-10254
3792	-10255
னிக்	-10256
ல்ட்	-10257
▁0218	-10258
▁0543	-10259
▁1045	-10260
▁1460	-10261
▁1716	-10262
▁1817	-10263
▁1827	-10264
▁2577	-10265
▁நன்ற	-10266
▁கல்யா	-10267
▁போக்க	-10268
▁சுல்தான	-10269
▁சொற்கள்	-10270
▁பறவைகள்	-10271
▁வெளியேற	-10272
ப்படுத்தி	-10273
▁தலைநகராக	-10274
ுகளுக்கும்	-10275
▁உற்பத்திய	-10276
▁தொழிலாளர்	-10277
▁அமைந்திருக்கும்	-10278
040	-10279
சித	-10280
மால	-10281
ம்க	-10282
0462	-10283
0713	-10284
2487	-10285
3602	-10286
5251	-10287
ாம்ப	-10288
▁572	-10289
▁597	-10290
▁கோட	-10291
ியைக்	-10292
▁0939	-10293
▁1165	-10294
▁1297	-10295
▁1420	-10296
▁2172	-10297
▁2674	-10298
▁தீர்	-10299
பெரும்	-10300
▁இத்தீ	-10301
▁பெருமை	-10302
▁உள்ளடக்க	-10303
▁காமிகாகம	-10304
▁குழுக்கள	-10305
இர	-10306
தாவ	-10307
1092	-10308
1415	-10309
9703	-10310
▁ஆக்	-10311
▁1427	-10312
▁1465	-10313
▁2777	-10314
▁நிபு	-10315
▁பாம்ப	-10316
▁மேலாக	-10317
ப்பதில்	-10318
▁கட்டமை	-10319
▁மாதிரி	-10320
▁ஒருவராக	-10321
▁கர்நாடக	-10322
▁நடந்தது	-10323
▁பெயரால்	-10324
▁பிரிட்டி	-10325
ங்களுக்கான	-10326
த்துக்குடி	-10327
▁கூறுகிறார்	-10328
▁அரசியல்வாதியும்	-10329
ug	-10330
140	-10331
மரு	-10332
3779	-10333
5748	-10334
5767	-10335
5773	-10336
5847	-10337
9483	-10338
வுத்	-10339
▁இலை	-10340
▁தூய	-10341
ாலேயே	-10342
▁0183	-10343
▁2073	-10344
▁2083	-10345
▁2578	-10346
▁உப்ப	-10347
▁வாயு	-10348
▁கதிர்	-10349
▁கொட்ட	-10350
▁நிமிட	-10351
▁கிராம்	-10352
▁குதிரை	-10353
▁மார்கழி	-10354
▁விளம்பர	-10355
34"	-10356
மனை	-10357
0703	-10358
0942	-10359
1416	-10360
1426	-10361
1472	-10362
2432	-10363
3416	-10364
5321	-10365
5466	-10366
9636	-10367
மயம்	-10368
▁622	-10369
▁0025	-10370
▁0042	-10371
▁0065	-10372
▁0273	-10373
▁0303	-10374
▁1075	-10375
▁1345	-10376
▁1398	-10377
▁1425	-10378
▁1730	-10379
▁1760	-10380
▁2888	-10381
▁கனடா	-10382
▁கருவி	-10383
▁குளம்	-10384
▁டாக்டர்	-10385
▁பாதிப்ப	-10386
▁அழுத்தம்	-10387
▁குறியீடு	-10388
▁வழிகாட்ட	-10389
▁வேலைவாய்	-10390
▁கட்டமைப்ப	-10391
▁குடியரசுத்	-10392
▁வருகின்றது	-10393
▁ஆண்டுதோறும்	-10394
▁தொடங்கப்பட்டது	-10395
CO	-10396
1002	-10397
1527	-10398
1553	-10399
2473	-10400
2495	-10401
2859	-10402
3495	-10403
5329	-10404
5556	-10405
9422	-10406
வுன்	-10407
▁562	-10408
▁இத்	-10409
▁0333	-10410
▁0621	-10411
▁0683	-10412
▁0820	-10413
▁1099	-10414
▁1429	-10415
▁1475	-10416
▁1769	-10417
▁1785	-10418
▁திரவ	-10419
▁அனுபவ	-10420
▁கொல்க	-10421
▁சுந்த	-10422
ழ்கிறது	-10423
▁என்பதும்	-10424
▁பணியாற்ற	-10425
▁இயக்குநர்	-10426
▁முடிகிறது	-10427
▁சுற்றுச்சூ	-10428
▁மாற்றங்கள்	-10429
▁காஞ்சிபுரம்	-10430
▁r	-10431
att	-10432
ானை	-10433
0432	-10434
1112	-10435
3759	-10436
3821	-10437
5788	-10438
5877	-10439
9518	-10440
மூலம்	-10441
▁0552	-10442
▁1231	-10443
▁1307	-10444
▁1375	-10445
▁1521	-10446
▁1625	-10447
▁1659	-10448
▁1821	-10449
▁1865	-10450
▁2676	-10451
▁2967	-10452
▁அனுப	-10453
▁புனை	-10454
டிப்பு	-10455
▁ஒத்து	-10456
▁வீதம்	-10457
▁என்பதே	-10458
▁பாக்டீ	-10459
படுகிறது	-10460
ரிக்கும்	-10461
▁வென்றார்	-10462
▁நான்காவது	-10463
▁வட்டத்தில்	-10464
240	-10465
ill	-10466
tal	-10467
ூன்	-10468
1152	-10469
5323	-10470
5747	-10471
5894	-10472
9673	-10473
ரைச்	-10474
ுவதை	-10475
▁0159	-10476
▁0383	-10477
▁0542	-10478
▁0935	-10479
▁1159	-10480
▁1265	-10481
▁2126	-10482
▁2173	-10483
▁2546	-10484
▁தேர்	-10485
▁அப்து	-10486
▁இறக்க	-10487
ப்புத்த	-10488
▁கொண்டே	-10489
▁பஞ்சாப்	-10490
▁எப்போதும்	-10491
▁கொள்ளலாம்	-10492
▁நிறத்தில்	-10493
▁மூலக்கூறு	-10494
▁வழங்குகிறது	-10495
▁தொடர்ச்சியாக	-10496
சரி	-10497
நான	-10498
0636	-10499
0723	-10500
1482	-10501
1741	-10502
3472	-10503
3473	-10504
5359	-10505
5835	-10506
9632	-10507
9895	-10508
olog	-10509
▁ஃப்	-10510
▁சாம	-10511
▁0582	-10512
▁1021	-10513
▁1125	-10514
▁2633	-10515
▁தள்ள	-10516
▁அண்ட்	-10517
▁அவனது	-10518
▁எளிதில்	-10519
▁சதவீதம்	-10520
▁நிறுவிய	-10521
▁என்பதைக்	-10522
▁நான்காம்	-10523
த்துள்ளனர்	-10524
▁பிரதிநிதி	-10525
05"	-10526
07"	-10527
ூல்	-10528
▁தச	-10529
0803	-10530
2695	-10531
5745	-10532
5785	-10533
9329	-10534
9643	-10535
9663	-10536
9682	-10537
ளைக்	-10538
்கால	-10539
▁0831	-10540
▁1298	-10541
▁1469	-10542
▁1620	-10543
▁1780	-10544
▁2033	-10545
▁2072	-10546
▁2163	-10547
▁2647	-10548
▁3464	-10549
▁உற்ச	-10550
▁வெண்	-10551
த்திரை	-10552
விட்டு	-10553
▁பரந்த	-10554
▁விண்மீ	-10555
▁நகராட்ச	-10556
▁புவியியல்	-10557
,4	-10558
53"	-10559
1436	-10560
1738	-10561
1789	-10562
2697	-10563
5223	-10564
9622	-10565
▁523	-10566
▁லிய	-10567
▁1035	-10568
▁1175	-10569
▁1435	-10570
▁1721	-10571
▁1727	-10572
▁2847	-10573
▁அறிக்கை	-10574
▁உறுப்பு	-10575
▁ஏற்கனவே	-10576
▁தங்களது	-10577
▁இந்நிறுவ	-10578
▁நாயக்கர்	-10579
▁வடிவமைப்பு	-10580
▁புதுக்கோட்டை	-10581
ாற	-10582
ோத	-10583
ank	-10584
0436	-10585
1422	-10586
2828	-10587
3712	-10588
9616	-10589
ன்சு	-10590
▁சாள	-10591
▁பாச	-10592
▁0135	-10593
▁1436	-10594
▁1531	-10595
▁1736	-10596
▁2947	-10597
▁கியூ	-10598
▁கைலா	-10599
ங்கூர்	-10600
த்தோடு	-10601
ர்களான	-10602
▁என்றே	-10603
ational	-10604
▁சத்திய	-10605
▁கணக்கிட	-10606
▁திட்டமிட	-10607
▁பிரான்சி	-10608
▁பிரான்சு	-10609
▁மக்களால்	-10610
▁குழுக்கள்	-10611
▁அரசியல்வாதி	-10612
0415	-10613
0472	-10614
0502	-10615
0829	-10616
1463	-10617
2839	-10618
3738	-10619
5654	-10620
5795	-10621
▁501	-10622
▁உடல	-10623
ச்சல்	-10624
▁1285	-10625
▁1407	-10626
▁1517	-10627
▁1697	-10628
▁1731	-10629
▁2666	-10630
▁3455	-10631
▁கல்க	-10632
▁மீனா	-10633
றுப்பு	-10634
▁செல்வா	-10635
▁முறையை	-10636
▁இனங்கள்	-10637
▁கருவிகள்	-10638
ைகளுக்கும்	-10639
▁பயின்றார்	-10640
▁வரிசையில்	-10641
ாவிலிருந்து	-10642
▁முக்கியமாக	-10643
0483	-10644
0839	-10645
2603	-10646
2703	-10647
3749	-10648
9101	-10649
சாரி	-10650
ரிஸ்	-10651
விக்	-10652
▁இரக	-10653
▁பறவ	-10654
▁0182	-10655
▁0318	-10656
▁0338	-10657
▁2576	-10658
▁2862	-10659
▁இளைஞ	-10660
க்குள்	-10661
▁ஆர்வம்	-10662
▁இலக்கண	-10663
▁எனலாம்	-10664
▁முகமது	-10665
▁குற்றம்	-10666
▁செய்தல்	-10667
ப்பாளையம்	-10668
▁தகவல்களை	-10669
▁பங்கேற்ற	-10670
▁விளக்கம்	-10671
▁இராச்சியம்	-10672
▁தலைமையிலான	-10673
iy	-10674
ீஸ்	-10675
1703	-10676
2671	-10677
3427	-10678
5446	-10679
5705	-10680
5716	-10681
5762	-10682
9472	-10683
9473	-10684
9553	-10685
9695	-10686
னைல்	-10687
▁இனி	-10688
▁இரச	-10689
போன்ற	-10690
ினைக்	-10691
▁0720	-10692
▁1083	-10693
▁1845	-10694
▁2472	-10695
▁2622	-10696
▁ஒற்ற	-10697
▁பொன்	-10698
▁மதம்	-10699
ிருப்பு	-10700
▁பெங்கள	-10701
▁கண்ணாடி	-10702
▁புதிதாக	-10703
▁வழக்கில்	-10704
▁தமிழகத்தின்	-10705
2415	-10706
2689	-10707
3841	-10708
5331	-10709
5477	-10710
9448	-10711
9803	-10712
9898	-10713
செல்	-10714
மேல்	-10715
▁505	-10716
▁600	-10717
▁பசி	-10718
▁போன	-10719
னிடம்	-10720
▁0769	-10721
▁0773	-10722
▁3068	-10723
▁3078	-10724
▁3248	-10725
ுகளைத்	-10726
்களைக்	-10727
▁தாங்க	-10728
▁கட்டிய	-10729
▁கப்பல்	-10730
▁புரட்சி	-10731
▁இருந்தும்	-10732
▁நகரங்களில்	-10733
ie	-10734
மின	-10735
0695	-10736
0802	-10737
1713	-10738
2621	-10739
3789	-10740
5156	-10741
5674	-10742
5725	-10743
5796	-10744
5845	-10745
▁கும	-10746
▁1129	-10747
▁1735	-10748
▁2062	-10749
▁2233	-10750
▁2887	-10751
▁2968	-10752
▁3184	-10753
▁மாசு	-10754
▁ராஜ்	-10755
▁காஷ்மீ	-10756
▁நின்று	-10757
த்துக்கான	-10758
▁அவர்களால்	-10759
▁இவர்களின்	-10760
▁என்பதற்கு	-10761
▁ஜெர்மானிய	-10762
▁நிகழ்ச்சி	-10763
▁பணியாற்றி	-10764
▁விளையாட்டுப்	-10765
▁அதிகாரப்பூர்வ	-10766
▁v	-10767
0849	-10768
1693	-10769
2618	-10770
3771	-10771
5868	-10772
5878	-10773
9092	-10774
9405	-10775
9781	-10776
டிக்	-10777
னைத்	-10778
ிகார	-10779
▁புழ	-10780
மாகவே	-10781
வனின்	-10782
▁1507	-10783
▁1720	-10784
▁2183	-10785
▁2687	-10786
▁3164	-10787
▁3244	-10788
▁தனிந	-10789
▁பிளா	-10790
க்கின்	-10791
▁குட்ட	-10792
▁தகுதி	-10793
டுகளும்	-10794
▁என்பவை	-10795
▁கலிபோர்	-10796
▁நினைவாக	-10797
▁உடன்படிக்க	-10798
▁கைப்பற்றிய	-10799
▁முற்றிலும்	-10800
▁ஐரோப்பாவில்	-10801
▁காணப்படுகின்றது	-10802
oh	-10803
சொ	-10804
les	-10805
ஃபோ	-10806
றிஞ	-10807
ொழி	-10808
0793	-10809
1542	-10810
3405	-10811
3892	-10812
5666	-10813
5815	-10814
9013	-10815
9463	-10816
9626	-10817
9749	-10818
தூர்	-10819
ுகிற	-10820
▁633	-10821
ரியம்	-10822
▁0518	-10823
▁0925	-10824
▁1745	-10825
▁2322	-10826
▁2733	-10827
▁2833	-10828
▁3644	-10829
▁பாதை	-10830
▁கார்ட	-10831
ல்களும்	-10832
மூர்த்தி	-10833
▁என்பதன்	-10834
▁இத்தாலிய	-10835
▁இந்தியக்	-10836
▁இருந்தவர்	-10837
▁கிடைக்கிறது	-10838
oun	-10839
மென	-10840
யல்	-10841
ழைய	-10842
1718	-10843
2407	-10844
2812	-10845
3442	-10846
3729	-10847
3752	-10848
5464	-10849
5664	-10850
5832	-10851
5848	-10852
9109	-10853
9111	-10854
9199	-10855
9892	-10856
▁உணர	-10857
▁ஏர்	-10858
▁சேத	-10859
▁பிக	-10860
▁0643	-10861
▁1245	-10862
▁1275	-10863
▁3084	-10864
▁3655	-10865
▁சாதி	-10866
▁புவி	-10867
▁உள்ளே	-10868
▁பிடிக்க	-10869
▁லட்சுமி	-10870
▁இறுதியாக	-10871
▁காணப்பட்ட	-10872
▁கூட்டமைப்பு	-10873
▁தூத்துக்குடி	-10874
▁குறிப்பிடுகிறது	-10875
,6	-10876
58"	-10877
ுறி	-10878
▁ஹே	-10879
1623	-10880
1697	-10881
5732	-10882
9633	-10883
=279	-10884
சட்ட	-10885
ட்பு	-10886
பில்	-10887
ாசிய	-10888
="279	-10889
முதல்	-10890
▁0293	-10891
▁1535	-10892
▁2748	-10893
▁ஸ்டீ	-10894
▁வில்ல	-10895
▁எகிப்த	-10896
▁நடந்து	-10897
▁இவ்விரு	-10898
▁ஐரோப்பா	-10899
▁கோரிக்க	-10900
▁மில்லிய	-10901
▁முடிந்த	-10902
▁இத்திட்ட	-10903
▁பெற்றோர்	-10904
▁விரிவாக்க	-10905
ோர	-10906
▁சல	-10907
5763	-10908
5806	-10909
5826	-10910
9003	-10911
9038	-10912
▁அரே	-10913
▁உறி	-10914
▁0285	-10915
▁1421	-10916
▁2029	-10917
▁2373	-10918
▁2567	-10919
▁2568	-10920
▁2984	-10921
▁அளவை	-10922
▁நீலக	-10923
▁வெகு	-10924
▁சமச்ச	-10925
▁பராமரி	-10926
▁பாரதிய	-10927
▁பேரரசர்	-10928
▁வானியல்	-10929
க்கூடியது	-10930
▁அறிமுகம்	-10931
▁தவிர்க்க	-10932
▁விண்மீன்	-10933
▁வேறுபாடு	-10934
▁படிப்பறிவு	-10935
▁அறியப்படும்	-10936
0718	-10937
1018	-10938
1661	-10939
5704	-10940
5843	-10941
9406	-10942
ன்பு	-10943
▁632	-10944
▁647	-10945
▁பேண	-10946
ேட்டை	-10947
▁0018	-10948
▁0663	-10949
▁1470	-10950
▁1918	-10951
▁2283	-10952
▁2566	-10953
▁2634	-10954
▁அழகு	-10955
▁சொன்ன	-10956
▁தாமிர	-10957
▁பூங்க	-10958
ப்பெயர்	-10959
▁மொழிகள்	-10960
▁அறக்கட்ட	-10961
▁அறிவிக்க	-10962
▁பதினெட்ட	-10963
ிருந்தாலும்	-10964
▁கண்டுபிடித்த	-10965
16"	-10966
1498	-10967
1639	-10968
1769	-10969
2792	-10970
5393	-10971
5454	-10972
5644	-10973
9728	-10974
பென்	-10975
ஸ்கி	-10976
▁ராக	-10977
சாரம்	-10978
▁0943	-10979
▁1222	-10980
▁1636	-10981
▁1765	-10982
▁1900	-10983
▁1923	-10984
▁2483	-10985
▁3468	-10986
▁பாக்	-10987
▁பாடக	-10988
▁செலவு	-10989
▁காப்பு	-10990
▁தனியாக	-10991
▁தொழிற்	-10992
▁கட்டுரை	-10993
▁சேவைகள்	-10994
▁நாயனார்	-10995
▁விருதுக	-10996
▁இடையிலான	-10997
▁பிலிப்பை	-10998
▁வெளிப்பட	-10999
▁நிறுவினார்	-11000
▁இயங்குகிறது	-11001
▁இருக்கிறார்	-11002
▁நிறுவனத்தில்	-11003
ஜெ	-11004
த்ர	-11005
ாபி	-11006
ாவன	-11007
1406	-11008
1681	-11009
1752	-11010
2712	-11011
2769	-11012
3637	-11013
5706	-11014
9093	-11015
9662	-11016
9828	-11017
ச்சை	-11018
விளை	-11019
▁555	-11020
▁0045	-11021
▁0553	-11022
▁1831	-11023
▁2232	-11024
▁3488	-11025
▁3677	-11026
▁அணிய	-11027
▁நந்த	-11028
▁புல்	-11029
▁விளி	-11030
▁சுவாம	-11031
ித்துக்	-11032
▁மாற்றி	-11033
▁வீடியோ	-11034
▁எல்லாம்	-11035
▁நெறிமுற	-11036
▁எதிர்த்த	-11037
▁சமயங்களில்	-11038
▁குடும்பத்தைச்	-11039
▁சய	-11040
0482	-11041
1508	-11042
2427	-11043
2637	-11044
3407	-11045
3437	-11046
5742	-11047
9893	-11048
ையன்	-11049
▁585	-11050
தாகத்	-11051
ுக்கி	-11052
▁0618	-11053
▁1529	-11054
▁2306	-11055
▁2876	-11056
▁3064	-11057
▁3474	-11058
▁தற்ப	-11059
▁அகற்ற	-11060
▁இதழ்க	-11061
ன்பட்டி	-11062
▁நியூயா	-11063
▁நோக்கம்	-11064
▁கல்லூரிய	-11065
▁பயிற்சிய	-11066
▁கழகத்தில்	-11067
▁மட்டுமல்ல	-11068
▁;	-11069
993	-11070
1562	-11071
3462	-11072
5733	-11073
5824	-11074
9542	-11075
9712	-11076
ண்முக	-11077
▁0153	-11078
▁1751	-11079
▁2606	-11080
▁2646	-11081
▁3088	-11082
▁நச்ச	-11083
▁செம்ம	-11084
வேண்டிய	-11085
▁ஆக்கிர	-11086
▁பட்டது	-11087
▁கூடியதே	-11088
▁மண்டபம்	-11089
▁தனித்துவ	-11090
▁பொருளின்	-11091
ப்பட்டினம்	-11092
▁ராமநாதபுரம்	-11093
0001	-11094
0417	-11095
0753	-11096
1513	-11097
5783	-11098
5863	-11099
9852	-11100
வராய	-11101
▁கோள	-11102
▁தாள	-11103
▁பகவ	-11104
▁பூஜ	-11105
▁மிள	-11106
▁ரிச	-11107
▁வால	-11108
▁0637	-11109
▁மனம்	-11110
▁யார்	-11111
▁கம்யூ	-11112
▁கண்காண	-11113
▁தொல்கா	-11114
▁பாலைவன	-11115
▁வேகமாக	-11116
▁இயக்குன	-11117
▁மரங்கள்	-11118
▁பிற்காலத்தில்	-11119
no	-11120
57"	-11121
ith	-11122
ium	-11123
per	-11124
ணாம	-11125
ஸ்ஸ	-11126
1495	-11127
1629	-11128
1793	-11129
3731	-11130
5544	-11131
5554	-11132
5684	-11133
5743	-11134
5873	-11135
9012	-11136
9053	-11137
9462	-11138
மைடு	-11139
ாகிய	-11140
▁நாத	-11141
▁0282	-11142
▁1759	-11143
▁1820	-11144
▁2027	-11145
▁2132	-11146
▁2133	-11147
▁2263	-11148
▁2804	-11149
▁2978	-11150
▁2988	-11151
▁தேடி	-11152
ையியல்	-11153
▁ஒலிபர	-11154
▁சண்டை	-11155
▁நுரைய	-11156
த்திட்ட	-11157
வதற்காக	-11158
▁கூறும்	-11159
▁ஏற்றுமதி	-11160
▁ஆண்டுகளாக	-11161
▁விருதுகள்	-11162
▁சட்டத்தின்	-11163
103	-11164
36"	-11165
580	-11166
வீர	-11167
ாமை	-11168
▁5,	-11169
0512	-11170
1702	-11171
1721	-11172
2652	-11173
5686	-11174
9512	-11175
9793	-11176
9837	-11177
9861	-11178
வந்த	-11179
ஸ்டு	-11180
▁தீய	-11181
மொத்த	-11182
▁0052	-11183
▁0442	-11184
▁0628	-11185
▁0672	-11186
▁1500	-11187
▁1912	-11188
▁2082	-11189
▁3278	-11190
▁ஊழிய	-11191
த்துத்	-11192
ோனியம்	-11193
▁சிறித	-11194
▁தண்ணீ	-11195
▁பிரகா	-11196
▁இப்படி	-11197
▁நடுவண்	-11198
▁சதுரங்க	-11199
▁பொருள்க	-11200
▁முடித்த	-11201
ைகளுக்கான	-11202
▁ஏற்பட்டு	-11203
▁படத்தின்	-11204
▁கழகத்தின்	-11205
▁கால்பந்து	-11206
▁கிரிக்கட்	-11207
▁பங்களிப்ப	-11208
▁உறுப்பினரும்	-11209
▁முதன்முதலில்	-11210
06"	-11211
இன்	-11212
0751	-11213
1792	-11214
9543	-11215
▁510	-11216
▁519	-11217
▁அமீ	-11218
▁கரி	-11219
ணர்வு	-11220
▁0152	-11221
▁0335	-11222
▁1008	-11223
▁1882	-11224
▁2032	-11225
▁2222	-11226
▁2272	-11227
▁2342	-11228
▁2686	-11229
▁2948	-11230
வியலில்	-11231
▁கலைஞர்	-11232
▁கவிஞர்	-11233
▁பரப்பு	-11234
▁இந்நூல்	-11235
▁ஏராளமான	-11236
▁பீட்டர்	-11237
▁வரையில்	-11238
▁முதலீட்ட	-11239
▁தலைவராகவும்	-11240
▁தொழில்நுட்பம்	-11241
ly	-11242
ாவ்	-11243
்தா	-11244
1729	-11245
2681	-11246
3638	-11247
3956	-11248
5872	-11249
9018	-11250
9812	-11251
9879	-11252
▁ஆழ்	-11253
ட்டன்	-11254
▁2143	-11255
▁2162	-11256
▁2282	-11257
▁2706	-11258
▁2732	-11259
▁3454	-11260
▁எனத்	-11261
▁சமைய	-11262
லையில்	-11263
ையாளர்	-11264
▁குழாய	-11265
▁பங்கே	-11266
முறையாக	-11267
▁நாயக்க	-11268
▁கதிர்வீ	-11269
▁பயணிகள்	-11270
▁பெருக்க	-11271
▁அதிகாரம்	-11272
▁அரசாங்கம்	-11273
▁ஓட்டங்கள்	-11274
▁சேர்ந்தவர்	-11275
▁பெருமளவில்	-11276
▁இம்மாவட்டத்தின்	-11277
சய	-11278
பன	-11279
ிவை	-11280
▁ஹா	-11281
1708	-11282
3818	-11283
5584	-11284
5677	-11285
5807	-11286
▁வளர	-11287
▁0172	-11288
▁0253	-11289
▁0345	-11290
▁1138	-11291
▁2432	-11292
▁3044	-11293
ுக்கிட	-11294
▁மெட்ட	-11295
▁பின்னா	-11296
▁பாதுகாப்ப	-11297
▁அங்கத்தினர்	-11298
பிள	-11299
0101	-11300
0769	-11301
2679	-11302
2713	-11303
2759	-11304
3812	-11305
5722	-11306
9097	-11307
9427	-11308
9769	-11309
சான்	-11310
ரிசு	-11311
▁0382	-11312
▁0403	-11313
▁0565	-11314
▁1536	-11315
▁2142	-11316
▁2433	-11317
▁2506	-11318
▁2787	-11319
▁3467	-11320
▁சிலை	-11321
தில்லை	-11322
▁தீர்வ	-11323
▁அர்த்த	-11324
▁பன்னிர	-11325
▁நரசிம்ம	-11326
ப்படுவதால்	-11327
▁வழங்கியது	-11328
1543	-11329
2693	-11330
2729	-11331
5055	-11332
5667	-11333
9552	-11334
9838	-11335
தியை	-11336
▁10,	-11337
ற்றம்	-11338
்ச்சி	-11339
▁0592	-11340
▁0882	-11341
▁1443	-11342
▁1662	-11343
▁2363	-11344
▁3174	-11345
▁ஆகவே	-11346
▁மங்க	-11347
ச்சுவை	-11348
▁திண்ம	-11349
▁தோராய	-11350
▁விவரம்	-11351
▁இடங்கள்	-11352
க்கணக்கான	-11353
▁ஆட்சியில்	-11354
▁பழங்குடிய	-11355
▁விளையாடிய	-11356
▁தெரிவித்தார்	-11357
570	-11358
0497	-11359
1641	-11360
1779	-11361
3422	-11362
3751	-11363
5676	-11364
5883	-11365
9607	-11366
9637	-11367
=124	-11368
=336	-11369
பேசி	-11370
▁காச	-11371
ராஜன்	-11372
▁0075	-11373
▁1729	-11374
▁2179	-11375
▁2242	-11376
▁2406	-11377
▁2462	-11378
▁2463	-11379
▁3754	-11380
▁தருக	-11381
▁வைணவ	-11382
டைந்து	-11383
▁இதன்ப	-11384
▁காத்த	-11385
▁வேளாண்	-11386
▁மணிக்கு	-11387
▁மாநிலமான	-11388
▁வடிவமைக்க	-11389
▁பரப்பளவில்	-11390
▁வலியுறுத்த	-11391
▁ஒன்றியங்களில்	-11392
உலக	-11393
0901	-11394
1417	-11395
1512	-11396
2006	-11397
3652	-11398
5564	-11399
5726	-11400
5822	-11401
9605	-11402
9818	-11403
="124	-11404
="336	-11405
பெயர்	-11406
▁0662	-11407
▁0929	-11408
▁1145	-11409
▁2987	-11410
▁3087	-11411
▁3187	-11412
▁3688	-11413
▁3766	-11414
▁கரைச	-11415
▁திபெ	-11416
▁குழும	-11417
▁கொன்ற	-11418
▁சொற்ப	-11419
டுவதற்கு	-11420
▁ஆண்டும்	-11421
ாளராகவும்	-11422
▁பிரதேசச்	-11423
▁முன்னதாக	-11424
▁உட்பட்டது	-11425
▁இருக்கின்றது	-11426
▁அமைக்கப்பட்டது	-11427
▁காலப்பகுதியில்	-11428
அக	-11429
▁6,	-11430
▁89	-11431
▁கய	-11432
1602	-11433
1649	-11434
2462	-11435
2737	-11436
2781	-11437
3497	-11438
9426	-11439
9617	-11440
ளால்	-11441
▁509	-11442
▁ஊடு	-11443
▁கோவ	-11444
ங்டன்	-11445
னைகள்	-11446
▁2806	-11447
▁3074	-11448
▁3867	-11449
▁சாகு	-11450
▁பெறு	-11451
▁ஆராய்	-11452
▁கம்போ	-11453
▁சாதனை	-11454
▁துணைய	-11455
▁முரண்	-11456
ென்றால்	-11457
னுக்கும்	-11458
▁மாறியது	-11459
▁அளவிற்கு	-11460
▁இலங்கைத்	-11461
▁பாண்டியன்	-11462
ீச	-11463
சிக	-11464
மாட	-11465
விள	-11466
ுமே	-11467
0299	-11468
0702	-11469
1437	-11470
1503	-11471
5445	-11472
5753	-11473
5862	-11474
9831	-11475
9839	-11476
▁உறவ	-11477
ாவதாக	-11478
▁0385	-11479
▁0883	-11480
▁1525	-11481
▁1585	-11482
▁2065	-11483
▁2122	-11484
▁2722	-11485
▁3144	-11486
▁எண்க	-11487
▁கங்க	-11488
▁மரபுவ	-11489
▁உணர்வு	-11490
▁சார்பு	-11491
▁விளைவு	-11492
▁வசித்து	-11493
ிக்கொண்டு	-11494
▁பதினெட்டாம்	-11495
ism	-11496
ொளி	-11497
▁எய	-11498
0869	-11499
1669	-11500
1751	-11501
1753	-11502
2472	-11503
2718	-11504
2752	-11505
2793	-11506
3438	-11507
3623	-11508
5713	-11509
9741	-11510
9808	-11511
ஸ்டன்	-11512
▁1332	-11513
▁2107	-11514
▁2776	-11515
▁3344	-11516
▁செவ்	-11517
ற்றின்	-11518
▁இவ்வு	-11519
ர்கோயில்	-11520
▁திரைக்க	-11521
▁குழுவில்	-11522
ிக்கப்பட்டு	-11523
▁உறுதிப்படுத்த	-11524
▁நம்பப்படுகிறது	-11525
94"	-11526
amp	-11527
குற	-11528
▁%)	-11529
1563	-11530
2437	-11531
5476	-11532
9821	-11533
9871	-11534
ழிவு	-11535
▁607	-11536
▁அயோ	-11537
க்கிர	-11538
ளிப்ப	-11539
▁0445	-11540
▁0572	-11541
▁0772	-11542
▁1235	-11543
▁1631	-11544
▁2036	-11545
▁2165	-11546
▁3274	-11547
▁கொடை	-11548
▁தளம்	-11549
▁யானை	-11550
ித்திய	-11551
▁தொண்ட	-11552
▁மெக்ச	-11553
க்குளம்	-11554
வருக்கு	-11555
▁பொதுத்	-11556
▁என்பவரை	-11557
▁எதிர்ப்ப	-11558
▁மங்கோலிய	-11559
▁மென்பொரு	-11560
▁வியட்நாம	-11561
▁தலைப்பில்	-11562
▁உயிர்ச்சத்து	-11563
hy	-11564
தூ	-11565
ஹி	-11566
www	-11567
நாவ	-11568
5566	-11569
5685	-11570
5842	-11571
5888	-11572
9707	-11573
9771	-11574
ானம்	-11575
▁ஜென	-11576
▁மீள	-11577
க்கூட	-11578
ருமான	-11579
விகள்	-11580
ினுள்	-11581
▁0185	-11582
▁0223	-11583
▁0675	-11584
▁2372	-11585
▁2383	-11586
▁2534	-11587
ங்காய்	-11588
னேட்டு	-11589
மில்லை	-11590
ரிக்கு	-11591
▁செட்ட	-11592
▁மைக்க	-11593
ன்களின்	-11594
▁ஊட்டச்ச	-11595
▁திரும்பி	-11596
▁போதிலும்	-11597
▁வழக்கமான	-11598
▁குறைந்தது	-11599
▁மனிதர்கள்	-11600
▁மின்னழுத்த	-11601
04"	-11602
1453	-11603
1637	-11604
3653	-11605
5715	-11606
5836	-11607
9028	-11608
9052	-11609
9829	-11610
▁நதி	-11611
▁0113	-11612
▁0175	-11613
▁0837	-11614
▁0942	-11615
▁1837	-11616
▁2021	-11617
▁2225	-11618
▁2343	-11619
▁2461	-11620
▁2986	-11621
▁3148	-11622
▁இயலா	-11623
ாவுடன்	-11624
ித்திர	-11625
▁தென்ப	-11626
▁ஹொங்கொ	-11627
▁புதுப்ப	-11628
▁புத்தர்	-11629
▁வெப்பம்	-11630
▁குறைபாடு	-11631
▁மிகச்சிற	-11632
▁தெரிகிறது	-11633
ங்களிலிருந்து	-11634
▁எடுக்கப்பட்ட	-11635
லூ	-11636
III	-11637
ear	-11638
எல்	-11639
கப்	-11640
மூல	-11641
ர்ப	-11642
1518	-11643
2771	-11644
3955	-11645
5546	-11646
5782	-11647
9841	-11648
ென்று	-11649
▁0092	-11650
▁1365	-11651
▁1901	-11652
▁2151	-11653
▁2334	-11654
▁2482	-11655
▁2573	-11656
▁2720	-11657
▁3764	-11658
▁3767	-11659
▁பான்	-11660
▁ஆசியா	-11661
▁இளங்க	-11662
▁உமிழ்	-11663
▁ஒப்பி	-11664
▁காண்ட	-11665
▁விருத	-11666
▁கட்சிய	-11667
▁வேற்று	-11668
▁விரைவாக	-11669
▁காட்டும்	-11670
▁காப்பாற்ற	-11671
▁அனைத்தையும்	-11672
ஜீ	-11673
123	-11674
0602	-11675
2659	-11676
5646	-11677
9681	-11678
9708	-11679
9731	-11680
9761	-11681
9823	-11682
▁575	-11683
▁630	-11684
▁திண	-11685
ழும்ப	-11686
▁0085	-11687
▁0511	-11688
▁0682	-11689
▁1085	-11690
▁1153	-11691
▁1573	-11692
▁2043	-11693
▁2480	-11694
▁2553	-11695
▁2586	-11696
▁2734	-11697
▁2822	-11698
▁2832	-11699
▁3178	-11700
▁3478	-11701
▁ஏவுக	-11702
▁தொன்	-11703
ளையும்	-11704
▁அதிகள	-11705
▁கணபதி	-11706
▁முனிவ	-11707
▁இப்பிர	-11708
▁நுகர்வ	-11709
▁பக்கம்	-11710
▁முயன்ற	-11711
▁வழித்த	-11712
ிக்கொள்ள	-11713
▁பிரதமர்	-11714
▁மார்க்க	-11715
ல்களையும்	-11716
▁பார்த்து	-11717
▁பிரித்து	-11718
ந்துள்ளனர்	-11719
▁செல்கிறது	-11720
▁திருச்சபை	-11721
▁மேற்கத்திய	-11722
▁அடிப்படையாக	-11723
▁வசிக்கின்றனர்	-11724
905	-11725
சப்	-11726
0603	-11727
1201	-11728
1621	-11729
1781	-11730
2428	-11731
2702	-11732
3618	-11733
3649	-11734
3671	-11735
3692	-11736
5772	-11737
5804	-11738
5814	-11739
5853	-11740
9613	-11741
9738	-11742
9869	-11743
னவாக	-11744
புரா	-11745
மிகு	-11746
வட்ட	-11747
▁The	-11748
▁0362	-11749
▁0638	-11750
▁0728	-11751
▁2182	-11752
▁2786	-11753
▁2906	-11754
▁3287	-11755
▁3387	-11756
▁3844	-11757
▁கிளி	-11758
▁மந்த	-11759
▁	-11760
0	-11761
்	-11762
1	-11763
2	-11764
3	-11765
4	-11766
5	-11767
6	-11768
7	-11769
8	-11770
9	-11771
க	-11772
ி	-11773
ு	-11774
த	-11775
-	-11776
ப	-11777
ம	-11778
ர	-11779
ட	-11780
ா	-11781
ல	-11782
ன	-11783
வ	-11784
ய	-11785
ற	-11786
ள	-11787
ை	-11788
ச	-11789
ந	-11790
இ	-11791
ண	-11792
அ	-11793
ெ	-11794
i	-11795
ே	-11796
"	-11797
,	-11798
ோ	-11799
ொ	-11800
ழ	-11801
ஆ	-11802
ங	-11803
t	-11804
எ	-11805
d	-11806
ூ	-11807
உ	-11808
r	-11809
/	-11810
=	-11811
a	-11812
o	-11813
ீ	-11814
c	-11815
e	-11816
l	-11817
ஒ	-11818
u	-11819
p	-11820
k	-11821
w	-11822
>	-11823
<	-11824
(	-11825
)	-11826
ஸ	-11827
s	-11828
h	-11829
:	-11830
ஜ	-11831
g	-11832
ஊ	-11833
n	-11834
?	-11835
ஏ	-11836
ஞ	-11837
m	-11838
ஷ	-11839
ஹ	-11840
ஐ	-11841
ஓ	-11842
y	-11843
ஈ	-11844
A	-11845
C	-11846
P	-11847
%	-11848
ஃ	-11849
S	-11850
f	-11851
'	-11852
I	-11853
b	-11854
;	-11855
]	-11856
[	-11857
T	-11858
M	-11859
G	-11860
E	-11861
v	-11862
B	-11863
R	-11864
N	-11865
H	-11866
ௌ	-11867
D	-11868
O	-11869
L	-11870
F	-11871
K	-11872
–	-11873
V	-11874
