<unk>	0
<s>	0
</s>	0
్ర	-0
▁ప	-1
▁క	-2
▁స	-3
లో	-4
▁వ	-5
ార	-6
న్	-7
▁మ	-8
ని	-9
్య	-10
ంద	-11
ాల	-12
▁అ	-13
ను	-14
స్	-15
ర్	-16
▁ఉ	-17
▁గ	-18
డి	-19
్రా	-20
ంది	-21
క్	-22
న్న	-23
ాయ	-24
▁ద	-25
లు	-26
ంలో	-27
రి	-28
▁చ	-29
▁ర	-30
ంచ	-31
రు	-32
కు	-33
▁ఆ	-34
▁ప్ర	-35
▁త	-36
ల్	-37
్రామ	-38
▁గ్రామ	-39
గా	-40
డు	-41
త్	-42
ాయి	-43
▁జ	-44
▁బ	-45
టి	-46
▁న	-47
ారు	-48
ట్	-49
తు	-50
▁1	-51
కి	-52
▁వి	-53
▁కి	-54
▁ను	-55
ండి	-56
▁ఉన్న	-57
తి	-58
లి	-59
▁ఇ	-60
▁నుండి	-61
▁సం	-62
▁ల	-63
ండ	-64
ించ	-65
గు	-66
▁మీ	-67
▁ఉన్నాయి	-68
ూర	-69
ాని	-70
టు	-71
ము	-72
ిక	-73
్వ	-74
ాలు	-75
ంత	-76
▁ఉంది	-77
▁దూర	-78
▁శ	-79
పు	-80
ిన	-81
▁గ్రామం	-82
▁దూరంలో	-83
ంగ	-84
ద్	-85
సు	-86
ది	-87
ార్	-88
యు	-89
▁చే	-90
▁భ	-91
్యా	-92
డ్	-93
ంట	-94
ంగా	-95
వు	-96
▁ఈ	-97
త్ర	-98
శాల	-99
మా	-100
ైన	-101
▁ఎ	-102
▁10	-103
ానికి	-104
ారి	-105
వా	-106
దు	-107
ేంద	-108
లా	-109
▁లో	-110
▁ఒ	-111
▁ని	-112
▁పా	-113
తో	-114
▁సమ	-115
రా	-116
క్ష	-117
ప్	-118
▁5	-119
వి	-120
▁వ్య	-121
ేంద్ర	-122
▁గ్రామంలో	-123
ాన	-124
▁రా	-125
డా	-126
▁కేంద్ర	-127
▁ఒక	-128
నే	-129
న్ని	-130
క్క	-131
స్త	-132
ష్	-133
స్తు	-134
▁మరి	-135
ద్య	-136
▁స్	-137
▁సా	-138
ాడు	-139
▁హ	-140
▁మరియు	-141
కర	-142
▁2	-143
బడి	-144
ీప	-145
▁వ్యవ	-146
ోగ	-147
ారా	-148
▁కొ	-149
▁ప్రా	-150
చ్	-151
▁లే	-152
బ్	-153
▁ము	-154
▁పో	-155
వే	-156
స్థ	-157
సి	-158
మ్	-159
▁చె	-160
▁య	-161
▁సమీప	-162
రుగు	-163
▁కేంద్రం	-164
్యం	-165
▁వా	-166
ిల్	-167
నా	-168
చ్చ	-169
▁ఏ	-170
మైన	-171
ుత్	-172
▁కు	-173
▁కూ	-174
▁కా	-175
ందు	-176
త్త	-177
మి	-178
▁మొ	-179
ారం	-180
ెం	-181
▁సౌ	-182
ంగ్	-183
▁కో	-184
ంచి	-185
గి	-186
యం	-187
▁ఫ	-188
ద్ధ	-189
ఖ్య	-190
▁ద్వ	-191
కా	-192
▁సౌకర	-193
ేశ	-194
▁సి	-195
▁కూడా	-196
▁వై	-197
▁ట	-198
▁పై	-199
నీ	-200
బడిన	-201
▁మా	-202
ళ్	-203
▁ద్వారా	-204
యా	-205
్రీ	-206
▁తె	-207
ంప	-208
మిక	-209
▁గు	-210
ట్ట	-211
▁పాఠ	-212
సర	-213
▁ప్రభ	-214
ూర్	-215
తా	-216
ప్ప	-217
▁పాఠశాల	-218
ంటి	-219
ధ్య	-220
▁కళ	-221
▁20	-222
▁సౌకర్యం	-223
లను	-224
▁రో	-225
ీసు	-226
▁చి	-227
జు	-228
▁సర	-229
▁19	-230
ేష	-231
టీ	-232
▁కళా	-233
ద్ద	-234
సాయ	-235
▁పైబడిన	-236
▁ప్రభుత్	-237
▁జిల్	-238
పా	-239
▁పె	-240
▁సంఖ్య	-241
్రి	-242
▁ప్రభుత్వ	-243
హి	-244
ష్ట	-245
త్య	-246
▁నీ	-247
నూ	-248
▁వైద్య	-249
▁కళాశాల	-250
క్కు	-251
▁పు	-252
లలో	-253
▁వ్యవసాయ	-254
▁జిల్లా	-255
దా	-256
క్ట	-257
▁సరఫ	-258
▁నిర్	-259
▁"	-260
తుంది	-261
ంధ	-262
▁కార	-263
తీ	-264
ొక్క	-265
▁పరి	-266
మె	-267
▁పొ	-268
థమిక	-269
యోగ	-270
ాలను	-271
▁స్వ	-272
▁ప్రాథమిక	-273
ాల్	-274
ణా	-275
▁వే	-276
▁భా	-277
యి	-278
▁సామా	-279
▁వీ	-280
హద	-281
భా	-282
▁డి	-283
న్నారు	-284
రణ	-285
▁భార	-286
▁వ్యవస్థ	-287
▁యొక్క	-288
▁మార్	-289
ంటే	-290
ల్ల	-291
▁వె	-292
▁అనే	-293
▁తి	-294
గ్	-295
బా	-296
చి	-297
▁జన	-298
▁రహద	-299
ండ్	-300
▁గ్రామానికి	-301
▁నా	-302
రించ	-303
▁లేదు	-304
న్నాయి	-305
▁రహదారి	-306
▁మొద	-307
లకు	-308
ేక	-309
క్కువ	-310
▁ఇది	-311
స్తుంది	-312
▁ఆర	-313
త్తి	-314
▁శి	-315
ఫీసు	-316
ెట్	-317
ేషన్	-318
ంబ	-319
్యూ	-320
▁సరఫరా	-321
ించి	-322
ణి	-323
ేవ	-324
కీ	-325
డం	-326
▁ఉప	-327
స్ట	-328
భి	-329
▁అని	-330
సం	-331
కొ	-332
తోంది	-333
కో	-334
శు	-335
ధాన	-336
కం	-337
▁స్థ	-338
ళ్ళ	-339
▁మండ	-340
▁సహ	-341
▁t	-342
ోన్	-343
్యాం	-344
▁ష	-345
▁పే	-346
▁స్ట	-347
రకు	-348
పత్ర	-349
▁కలి	-350
▁-	-351
పో	-352
ోగ్య	-353
ద్ధి	-354
▁విద్య	-355
▁3	-356
జిక	-357
▁మండల	-358
కాల	-359
▁జా	-360
ైవే	-361
▁ప్రాంత	-362
▁రాజ	-363
▁కార్య	-364
ంతో	-365
▁ఆరోగ్య	-366
ల్లి	-367
▁అందు	-368
▁ఎక్కువ	-369
క్షణ	-370
▁శా	-371
▁బా	-372
మ్మ	-373
▁ప్రక	-374
▁పి	-375
▁ఇత	-376
ష్ట్ర	-377
ూరు	-378
▁సామాజిక	-379
యన	-380
▁అవ	-381
వాత	-382
▁a	-383
ుకు	-384
స్తారు	-385
రం	-386
న్య	-387
ుల	-388
ాలలో	-389
ప్పు	-390
దేశ	-391
శా	-392
చే	-393
in	-394
ైవేటు	-395
ఫ్	-396
ించిన	-397
▁తన	-398
▁జరుగు	-399
య్య	-400
సిన	-401
▁లోపు	-402
▁ఉత్	-403
నం	-404
హా	-405
▁రాష్ట్ర	-406
తం	-407
జ్	-408
జి	-409
ైల్	-410
▁డ	-411
లీ	-412
▁పర	-413
▁చేయ	-414
▁దీ	-415
రించి	-416
▁ప్రైవేటు	-417
వారి	-418
▁భారత	-419
▁ఆర్	-420
▁కింది	-421
లే	-422
he	-423
ైన్	-424
ందిన	-425
పి	-426
స్సు	-427
మీ	-428
▁రోజు	-429
తీయ	-430
▁అను	-431
కృ	-432
సా	-433
▁సు	-434
వల	-435
▁201	-436
ంటు	-437
▁టె	-438
ల్లో	-439
ప్ర	-440
▁భూ	-441
▁ది	-442
ట్టి	-443
00	-444
▁విద	-445
▁పాటు	-446
జా	-447
▁కాల	-448
▁రూ	-449
పతి	-450
▁మూ	-451
ాలయం	-452
ధిక	-453
ర్శ	-454
▁ఉండ	-455
▁వచ్చ	-456
ండా	-457
లతో	-458
▁యు	-459
▁ధ	-460
్రమ	-461
▁అభి	-462
▁ప్రధాన	-463
▁నే	-464
సరాల	-465
ర్లు	-466
▁బాల	-467
రిగి	-468
జ్య	-469
▁మురుగు	-470
▁గ్ర	-471
రీ	-472
యర్	-473
▁4	-474
▁.	-475
ించారు	-476
మే	-477
▁విద్యా	-478
▁మురుగునీ	-479
▁అత	-480
▁నీరు	-481
▁సిని	-482
లైన	-483
▁కంటే	-484
▁ఆట	-485
ెడ	-486
▁/	-487
▁7	-488
లిక్	-489
▁మి	-490
ధి	-491
▁వారి	-492
▁బి	-493
▁తరు	-494
▁సంస్థ	-495
వులు	-496
యన్	-497
ులు	-498
ల్డ్	-499
గణ	-500
▁పాల	-501
ెన్	-502
రో	-503
▁లా	-504
చు	-505
డానికి	-506
▁ఇతర	-507
వం	-508
▁శ్రీ	-509
▁బ్యాం	-510
▁మే	-511
▁చెందిన	-512
వత్	-513
బ్బ	-514
▁గా	-515
లోను	-516
▁విద్యుత్	-517
బ్లిక్	-518
మో	-519
ట్టు	-520
వృ	-521
on	-522
er	-523
▁వాడ	-524
యిన	-525
వర్	-526
▁తెలు	-527
▁కోడ్	-528
కర్	-529
దే	-530
▁ప్రత్య	-531
▁200	-532
▁బ్యాంకు	-533
డ్డి	-534
ర్థ	-535
ణం	-536
గిన	-537
తున్నాయి	-538
▁ఉన్నారు	-539
పత్రి	-540
▁బస్సు	-541
▁తరువాత	-542
▁రోడ్	-543
▁దీని	-544
గణన	-545
▁టెలి	-546
▁సంవత్	-547
▁పథ	-548
▁జనా	-549
క్షి	-550
▁ఆసు	-551
▁వ్యా	-552
▁జనగణన	-553
▁వాణి	-554
పూర్	-555
ంపు	-556
స్తున్నారు	-557
▁డా	-558
▁ఒకటి	-559
▁అంత	-560
▁ఖ	-561
▁ఆసుపత్రి	-562
▁మార్క	-563
▁పబ్లిక్	-564
ాలి	-565
▁గంట	-566
యో	-567
▁షెడ	-568
▁జనాభా	-569
▁షెడ్యూ	-570
స్టా	-571
▁పథకం	-572
ెండు	-573
ధార	-574
▁ఫోన్	-575
▁లేదా	-576
▁ఆయన	-577
కార	-578
▁సినిమా	-579
▁వాణిజ్య	-580
▁విధ	-581
▁ప్రకారం	-582
▁షెడ్యూల్డ్	-583
జీ	-584
▁వైద్యశాల	-585
▁ప్రతి	-586
క్తి	-587
▁వారం	-588
లోని	-589
▁నగ	-590
ంటుంది	-591
నరు	-592
వృద్ధి	-593
ానం	-594
ుడు	-595
▁ఆఫీసు	-596
▁కోసం	-597
▁కె	-598
▁రెండు	-599
▁స్టేషన్	-600
తే	-601
స్టాఫీసు	-602
▁విస్త	-603
శ్వ	-604
ైద	-605
▁పోస్టాఫీసు	-606
డుగు	-607
పే	-608
▁6	-609
ాలా	-610
చ్చు	-611
▁చూ	-612
టర్	-613
రంగ	-614
▁ఐ	-615
▁గంటల	-616
▁వృ	-617
▁o	-618
▁జీ	-619
ించాడు	-620
▁పట్ట	-621
▁అభివృద్ధి	-622
▁తీ	-623
ంలోని	-624
▁ఇం	-625
▁అమ	-626
ష్ణ	-627
స్త్ర	-628
పై	-629
▁మొదలైన	-630
టిని	-631
▁తా	-632
▁·	-633
ెక్	-634
ంపి	-635
త్తం	-636
స్ట్	-637
▁రె	-638
ంటారు	-639
▁లు	-640
గ్రీ	-641
▁ప్రత్యేక	-642
▁మధ్య	-643
▁దేశ	-644
at	-645
▁అధిక	-646
ద్ర	-647
▁మరణ	-648
ర్మ	-649
▁పేరు	-650
క్టర్లు	-651
▁హె	-652
▁చిత్ర	-653
▁వ్యవసాయానికి	-654
వుల	-655
ప్పటి	-656
డే	-657
▁రోడ్లు	-658
ంథ	-659
లం	-660
ొక	-661
▁పూర్	-662
▁డిగ్రీ	-663
▁గో	-664
▁జూ	-665
గల	-666
డ్డ	-667
ప్పుడు	-668
▁the	-669
షి	-670
▁దా	-671
ర్తి	-672
ారీ	-673
▁పని	-674
హ్	-675
తులు	-676
an	-677
▁ఏర్	-678
కల్	-679
is	-680
▁జాతీయ	-681
re	-682
టుంబ	-683
▁వల	-684
పత్తి	-685
వరి	-686
పాద	-687
▁నుంచి	-688
▁తిరిగి	-689
హార	-690
▁సంఘ	-691
▁చాలా	-692
▁రైల్	-693
బంధ	-694
▁విని	-695
గం	-696
శ్	-697
బడింది	-698
▁s	-699
▁కుటుంబ	-700
▁18	-701
▁గ్రంథ	-702
▁పద	-703
▁ఉపయోగ	-704
▁8	-705
▁అన	-706
▁రైల్వే	-707
▁నె	-708
▁నిర్వ	-709
ట్లు	-710
▁టి	-711
▁కొన్ని	-712
ర్వ	-713
వచ్చు	-714
ౌర	-715
▁వంటి	-716
సే	-717
ar	-718
ట్స్	-719
▁విజ	-720
▁కలిగి	-721
▁కాలు	-722
లోనూ	-723
▁మె	-724
:.	-725
▁సమా	-726
▁విధంగా	-727
▁బో	-728
బో	-729
▁ఓ	-730
కే	-731
▁ఉంటుంది	-732
ాన్ని	-733
ంచిన	-734
రాల	-735
పల్లి	-736
▁సంవత్సర	-737
▁సంత	-738
en	-739
▁సే	-740
ములు	-741
▁వర్	-742
▁క్	-743
▁వస్తు	-744
▁జరుగుతోంది	-745
▁ప్రవ	-746
ించింది	-747
▁సహాయ	-748
▁దు	-749
▁లోని	-750
▁పెద్ద	-751
▁తెలుగు	-752
▁అవు	-753
▁పంపి	-754
గ్ర	-755
▁వు	-756
▁	-757
్	-758
ి	-759
ా	-760
ర	-761
ు	-762
న	-763
ం	-764
ల	-765
క	-766
మ	-767
ప	-768
వ	-769
త	-770
ద	-771
స	-772
య	-773
ో	-774
గ	-775
.	-776
డ	-777
ట	-778
ే	-779
చ	-780
ీ	-781
,	-782
ె	-783
బ	-784
ూ	-785
జ	-786
అ	-787
ఉ	-788
శ	-789
ై	-790
ష	-791
ధ	-792
హ	-793
ొ	-794
ణ	-795
1	-796
ఆ	-797
భ	-798
0	-799
థ	-800
ఇ	-801
ఫ	-802
ళ	-803
5	-804
e	-805
2	-806
a	-807
ఎ	-808
ఈ	-809
ృ	-810
t	-811
ఖ	-812
ఒ	-813
i	-814
ౌ	-815
9	-816
n	-817
o	-818
r	-819
s	-820
-	-821
3	-822
4	-823
7	-824
8	-825
6	-826
ఏ	-827
"	-828
ఠ	-829
l	-830
h	-831
d	-832
:	-833
c	-834
u	-835
m	-836
p	-837
/	-838
ఘ	-839
f	-840
g	-841
y	-842
;	-843
b	-844
'	-845
w	-846
ఐ	-847
v	-848
·	-849
A	-850
ఓ	-851
S	-852
k	-853
C	-854
ఔ	-855
I	-856
M	-857
ఞ	-858
T	-859
%	-860
ఛ	-861
P	-862
|	-863
D	-864
B	-865
ఊ	-866
!	-867
=	-868
N	-869
)	-870
E	-871
ఢ	-872
R	-873
H	-874
U	-875
L	-876
x	-877
F	-878
O	-879
?	-880
W	-881
G	-882
’	-883
•	-884
ః	-885
V	-886
j	-887
‘	-888
ఋ	-889
K	-890
}	-891
{	-892
ఁ	-893
°	-894
_	-895
”	-896
