<unk>	0
<s>	0
</s>	0
్ర	-0
▁ప	-1
▁క	-2
▁స	-3
లో	-4
▁వ	-5
ార	-6
న్	-7
▁మ	-8
ని	-9
్య	-10
ంద	-11
ాల	-12
▁అ	-13
ను	-14
స్	-15
ర్	-16
▁ఉ	-17
▁గ	-18
డి	-19
్రా	-20
ంది	-21
క్	-22
న్న	-23
ాయ	-24
▁ద	-25
లు	-26
ంలో	-27
రి	-28
▁చ	-29
▁ర	-30
ంచ	-31
రు	-32
కు	-33
▁ఆ	-34
▁ప్ర	-35
▁త	-36
ల్	-37
్రామ	-38
▁గ్రామ	-39
గా	-40
డు	-41
త్	-42
ాయి	-43
▁జ	-44
▁బ	-45
టి	-46
▁న	-47
ారు	-48
ట్	-49
తు	-50
▁1	-51
కి	-52
▁వి	-53
▁కి	-54
▁ను	-55
ండి	-56
▁ఉన్న	-57
తి	-58
లి	-59
▁ఇ	-60
▁నుండి	-61
▁సం	-62
▁ల	-63
ండ	-64
ించ	-65
గు	-66
▁మీ	-67
▁ఉన్నాయి	-68
ూర	-69
ాని	-70
టు	-71
ము	-72
ిక	-73
్వ	-74
ాలు	-75
ంత	-76
▁ఉంది	-77
▁దూర	-78
▁శ	-79
పు	-80
ిన	-81
▁గ్రామం	-82
▁దూరంలో	-83
ంగ	-84
ద్	-85
సు	-86
ది	-87
ార్	-88
యు	-89
▁చే	-90
▁భ	-91
్యా	-92
డ్	-93
ంట	-94
ంగా	-95
వు	-96
▁ఈ	-97
త్ర	-98
శాల	-99
మా	-100
ైన	-101
▁ఎ	-102
▁10	-103
ానికి	-104
ారి	-105
వా	-106
దు	-107
ేంద	-108
లా	-109
▁లో	-110
▁ఒ	-111
▁ని	-112
▁పా	-113
తో	-114
▁సమ	-115
రా	-116
క్ష	-117
ప్	-118
▁5	-119
వి	-120
▁వ్య	-121
ేంద్ర	-122
▁గ్రామంలో	-123
ాన	-124
▁రా	-125
డా	-126
▁కేంద్ర	-127
▁ఒక	-128
నే	-129
న్ని	-130
క్క	-131
స్త	-132
ష్	-133
స్తు	-134
▁మరి	-135
ద్య	-136
▁స్	-137
▁సా	-138
ాడు	-139
▁హ	-140
▁మరియు	-141
కర	-142
▁2	-143
బడి	-144
ీప	-145
▁వ్యవ	-146
ోగ	-147
ారా	-148
▁కొ	-149
▁ప్రా	-150
చ్	-151
▁లే	-152
బ్	-153
▁ము	-154
▁పో	-155
వే	-156
స్థ	-157
సి	-158
మ్	-159
▁చె	-160
▁య	-161
▁సమీప	-162
రుగు	-163
▁కేంద్రం	-164
్యం	-165
▁వా	-166
ిల్	-167
నా	-168
చ్చ	-169
▁ఏ	-170
మైన	-171
ుత్	-172
▁కు	-173
▁కూ	-174
▁కా	-175
ందు	-176
త్త	-177
మి	-178
▁మొ	-179
ారం	-180
ెం	-181
▁సౌ	-182
ంగ్	-183
▁కో	-184
ంచి	-185
గి	-186
యం	-187
▁ఫ	-188
ద్ధ	-189
ఖ్య	-190
▁ద్వ	-191
కా	-192
▁సౌకర	-193
ేశ	-194
▁సి	-195
▁కూడా	-196
▁వై	-197
▁ట	-198
▁పై	-199
నీ	-200
బడిన	-201
▁మా	-202
ళ్	-203
▁ద్వారా	-204
యా	-205
్రీ	-206
▁తె	-207
ంప	-208
మిక	-209
▁గు	-210
ట్ట	-211
▁పాఠ	-212
సర	-213
▁ప్రభ	-214
ూర్	-215
తా	-216
ప్ప	-217
▁పాఠశాల	-218
ంటి	-219
ధ్య	-220
▁కళ	-221
▁20	-222
▁సౌకర్యం	-223
లను	-224
▁రో	-225
ీసు	-226
▁చి	-227
జు	-228
▁సర	-229
▁19	-230
ేష	-231
టీ	-232
▁కళా	-233
ద్ద	-234
సాయ	-235
▁పైబడిన	-236
▁ప్రభుత్	-237
▁జిల్	-238
పా	-239
▁పె	-240
▁సంఖ్య	-241
్రి	-242
▁ప్రభుత్వ	-243
హి	-244
ష్ట	-245
త్య	-246
▁నీ	-247
నూ	-248
▁వైద్య	-249
▁కళాశాల	-250
క్కు	-251
▁పు	-252
లలో	-253
▁వ్యవసాయ	-254
▁జిల్లా	-255
దా	-256
క్ట	-257
▁సరఫ	-258
▁నిర్	-259
▁"	-260
తుంది	-261
ంధ	-262
▁కార	-263
తీ	-264
ొక్క	-265
▁పరి	-266
మె	-267
▁పొ	-268
థమిక	-269
యోగ	-270
ాలను	-271
▁స్వ	-272
▁ప్రాథమిక	-273
ాల్	-274
ణా	-275
▁వే	-276
▁భా	-277
యి	-278
▁సామా	-279
▁వీ	-280
హద	-281
భా	-282
▁డి	-283
న్నారు	-284
రణ	-285
▁భార	-286
▁వ్యవస్థ	-287
▁యొక్క	-288
▁మార్	-289
ంటే	-290
ల్ల	-291
▁వె	-292
▁అనే	-293
▁తి	-294
గ్	-295
బా	-296
చి	-297
▁జన	-298
▁రహద	-299
ండ్	-300
▁గ్రామానికి	-301
▁నా	-302
రించ	-303
▁లేదు	-304
న్నాయి	-305
▁రహదారి	-306
▁మొద	-307
లకు	-308
ేక	-309
క్కువ	-310
▁ఇది	-311
స్తుంది	-312
▁ఆర	-313
త్తి	-314
▁శి	-315
ఫీసు	-316
ెట్	-317
ేషన్	-318
ంబ	-319
్యూ	-320
▁సరఫరా	-321
ించి	-322
ణి	-323
ేవ	-324
కీ	-325
డం	-326
▁ఉప	-327
స్ట	-328
భి	-329
▁అని	-330
సం	-331
కొ	-332
తోంది	-333
కో	-334
శు	-335
ధాన	-336
కం	-337
▁స్థ	-338
ళ్ళ	-339
▁మండ	-340
▁సహ	-341
▁t	-342
ోన్	-343
్యాం	-344
▁ష	-345
▁పే	-346
▁స్ట	-347
రకు	-348
పత్ర	-349
▁కలి	-350
▁-	-351
పో	-352
ోగ్య	-353
ద్ధి	-354
▁విద్య	-355
▁3	-356
జిక	-357
▁మండల	-358
కాల	-359
▁జా	-360
ైవే	-361
▁ప్రాంత	-362
▁రాజ	-363
▁కార్య	-364
ంతో	-365
▁ఆరోగ్య	-366
ల్లి	-367
▁అందు	-368
▁ఎక్కువ	-369
క్షణ	-370
▁శా	-371
▁బా	-372
మ్మ	-373
▁ప్రక	-374
▁పి	-375
▁ఇత	-376
ష్ట్ర	-377
ూరు	-378
▁సామాజిక	-379
యన	-380
▁అవ	-381
వాత	-382
▁a	-383
ుకు	-384
స్తారు	-385
రం	-386
న్య	-387
ుల	-388
ాలలో	-389
ప్పు	-390
దేశ	-391
శా	-392
చే	-393
in	-394
ైవేటు	-395
ఫ్	-396
ించిన	-397
▁తన	-398
▁జరుగు	-399
య్య	-400
సిన	-401
▁లోపు	-402
▁ఉత్	-403
నం	-404
హా	-405
▁రాష్ట్ర	-406
తం	-407
జ్	-408
జి	-409
ైల్	-410
▁డ	-411
లీ	-412
▁పర	-413
▁చేయ	-414
▁దీ	-415
రించి	-416
▁ప్రైవేటు	-417
వారి	-418
▁భారత	-419
▁ఆర్	-420
▁కింది	-421
లే	-422
he	-423
ైన్	-424
ందిన	-425
పి	-426
స్సు	-427
మీ	-428
▁రోజు	-429
తీయ	-430
▁అను	-431
కృ	-432
సా	-433
▁సు	-434
వల	-435
▁201	-436
ంటు	-437
▁టె	-438
ల్లో	-439
ప్ర	-440
▁భూ	-441
▁ది	-442
ట్టి	-443
00	-444
▁విద	-445
▁పాటు	-446
జా	-447
▁కాల	-448
▁రూ	-449
పతి	-450
▁మూ	-451
ాలయం	-452
ధిక	-453
ర్శ	-454
▁ఉండ	-455
▁వచ్చ	-456
ండా	-457
లతో	-458
▁యు	-459
▁ధ	-460
్రమ	-461
▁అభి	-462
▁ప్రధాన	-463
▁నే	-464
సరాల	-465
ర్లు	-466
▁బాల	-467
రిగి	-468
జ్య	-469
▁మురుగు	-470
▁గ్ర	-471
రీ	-472
యర్	-473
▁4	-474
ించారు	-475
మే	-476
▁విద్యా	-477
▁మురుగునీ	-478
▁అత	-479
▁నీరు	-480
▁సిని	-481
లైన	-482
▁కంటే	-483
▁ఆట	-484
ెడ	-485
▁/	-486
▁7	-487
లిక్	-488
▁మి	-489
ధి	-490
▁వారి	-491
▁బి	-492
▁తరు	-493
▁సంస్థ	-494
వులు	-495
యన్	-496
ులు	-497
ల్డ్	-498
గణ	-499
▁పాల	-500
ెన్	-501
రో	-502
▁లా	-503
చు	-504
డానికి	-505
▁ఇతర	-506
వం	-507
▁శ్రీ	-508
▁బ్యాం	-509
▁మే	-510
▁చెందిన	-511
వత్	-512
బ్బ	-513
▁గా	-514
లోను	-515
▁విద్యుత్	-516
బ్లిక్	-517
మో	-518
ట్టు	-519
వృ	-520
on	-521
er	-522
▁వాడ	-523
యిన	-524
వర్	-525
▁తెలు	-526
▁కోడ్	-527
కర్	-528
దే	-529
▁ప్రత్య	-530
▁200	-531
▁బ్యాంకు	-532
డ్డి	-533
ర్థ	-534
ణం	-535
గిన	-536
తున్నాయి	-537
▁ఉన్నారు	-538
పత్రి	-539
▁బస్సు	-540
▁తరువాత	-541
▁రోడ్	-542
▁దీని	-543
గణన	-544
▁టెలి	-545
▁సంవత్	-546
▁పథ	-547
▁జనా	-548
క్షి	-549
▁ఆసు	-550
▁వ్యా	-551
▁జనగణన	-552
▁వాణి	-553
పూర్	-554
ంపు	-555
స్తున్నారు	-556
▁డా	-557
▁ఒకటి	-558
▁అంత	-559
▁ఖ	-560
▁ఆసుపత్రి	-561
▁మార్క	-562
▁పబ్లిక్	-563
ాలి	-564
▁గంట	-565
యో	-566
▁షెడ	-567
▁జనాభా	-568
▁షెడ్యూ	-569
స్టా	-570
▁పథకం	-571
ెండు	-572
ధార	-573
▁ఫోన్	-574
▁లేదా	-575
▁ఆయన	-576
కార	-577
▁సినిమా	-578
▁వాణిజ్య	-579
▁విధ	-580
▁ప్రకారం	-581
▁షెడ్యూల్డ్	-582
జీ	-583
▁వైద్యశాల	-584
▁ప్రతి	-585
క్తి	-586
▁వారం	-587
లోని	-588
▁నగ	-589
ంటుంది	-590
నరు	-591
వృద్ధి	-592
ానం	-593
ుడు	-594
▁ఆఫీసు	-595
▁కోసం	-596
▁కె	-597
▁రెండు	-598
▁స్టేషన్	-599
తే	-600
స్టాఫీసు	-601
▁విస్త	-602
శ్వ	-603
ైద	-604
▁పోస్టాఫీసు	-605
డుగు	-606
పే	-607
▁6	-608
ాలా	-609
చ్చు	-610
▁చూ	-611
టర్	-612
రంగ	-613
▁ఐ	-614
▁గంటల	-615
▁వృ	-616
▁o	-617
▁జీ	-618
ించాడు	-619
▁పట్ట	-620
▁అభివృద్ధి	-621
▁తీ	-622
ంలోని	-623
▁ఇం	-624
▁అమ	-625
ష్ణ	-626
స్త్ర	-627
పై	-628
▁మొదలైన	-629
టిని	-630
▁తా	-631
▁·	-632
ెక్	-633
ంపి	-634
త్తం	-635
స్ట్	-636
▁రె	-637
ంటారు	-638
▁లు	-639
గ్రీ	-640
▁ప్రత్యేక	-641
▁మధ్య	-642
▁దేశ	-643
at	-644
▁అధిక	-645
ద్ర	-646
▁మరణ	-647
ర్మ	-648
▁పేరు	-649
క్టర్లు	-650
▁హె	-651
▁చిత్ర	-652
▁వ్యవసాయానికి	-653
వుల	-654
ప్పటి	-655
డే	-656
▁రోడ్లు	-657
ంథ	-658
లం	-659
ొక	-660
▁పూర్	-661
▁డిగ్రీ	-662
▁గో	-663
▁జూ	-664
గల	-665
డ్డ	-666
ప్పుడు	-667
▁the	-668
షి	-669
▁దా	-670
ర్తి	-671
ారీ	-672
▁పని	-673
హ్	-674
తులు	-675
an	-676
▁ఏర్	-677
కల్	-678
is	-679
▁జాతీయ	-680
re	-681
టుంబ	-682
▁వల	-683
పత్తి	-684
వరి	-685
పాద	-686
▁నుంచి	-687
▁తిరిగి	-688
హార	-689
▁సంఘ	-690
▁చాలా	-691
▁రైల్	-692
బంధ	-693
▁విని	-694
గం	-695
శ్	-696
బడింది	-697
▁s	-698
▁కుటుంబ	-699
▁18	-700
▁గ్రంథ	-701
▁పద	-702
▁ఉపయోగ	-703
▁8	-704
▁అన	-705
▁రైల్వే	-706
▁నె	-707
▁నిర్వ	-708
ట్లు	-709
▁టి	-710
▁కొన్ని	-711
ర్వ	-712
వచ్చు	-713
ౌర	-714
▁వంటి	-715
సే	-716
ar	-717
ట్స్	-718
▁విజ	-719
▁కలిగి	-720
▁కాలు	-721
లోనూ	-722
▁మె	-723
▁సమా	-724
▁విధంగా	-725
▁బో	-726
బో	-727
▁ఓ	-728
కే	-729
▁ఉంటుంది	-730
ాన్ని	-731
ంచిన	-732
రాల	-733
పల్లి	-734
▁సంవత్సర	-735
▁సంత	-736
en	-737
▁సే	-738
ములు	-739
▁వర్	-740
▁క్	-741
▁వస్తు	-742
▁జరుగుతోంది	-743
▁ప్రవ	-744
ించింది	-745
▁సహాయ	-746
▁దు	-747
▁లోని	-748
▁పెద్ద	-749
▁తెలుగు	-750
▁అవు	-751
▁పంపి	-752
గ్ర	-753
▁వు	-754
▁సె	-755
▁వార్	-756
▁చెప్ప	-757
ంత్ర	-758
ేమ	-759
యంలో	-760
ించే	-761
▁గృ	-762
ంటర్	-763
▁అస	-764
▁c	-765
ేందుకు	-766
ెస్	-767
టం	-768
▁ఆమె	-769
మెం	-770
త్యా	-771
▁నీటి	-772
డాది	-773
▁హి	-774
▁వినియోగ	-775
▁ఉత్పత్తి	-776
▁ఏడాది	-777
లవ	-778
కూ	-779
రే	-780
▁అంగ	-781
పంచ	-782
▁సొ	-783
క్కడ	-784
▁తో	-785
▁ఉత్త	-786
సై	-787
it	-788
న్నా	-789
స్తూ	-790
ణీ	-791
▁కృ	-792
▁ప్రజ	-793
కృత	-794
▁అనేక	-795
ములో	-796
ాలకు	-797
▁ప్రారం	-798
▁పట్టణ	-799
▁జరి	-800
వ్వ	-801
కుండా	-802
ణంగా	-803
▁సూ	-804
▁రీ	-805
్యాలు	-806
ంధ్ర	-807
నాయ	-808
ంటాయి	-809
▁అందుతుంది	-810
al	-811
▁రచ	-812
▁బృ	-813
▁పొడుగు	-814
స్ప	-815
తిప	-816
త్తు	-817
▁సైన్	-818
▁పారి	-819
▁ఇంటి	-820
కులు	-821
ందం	-822
▁వరకు	-823
▁అయి	-824
▁బహి	-825
▁పొడుగునా	-826
▁ప్రారంభ	-827
గొ	-828
టింగ్	-829
ాల్లో	-830
▁ఔ	-831
▁చేసి	-832
▁పోష	-833
▁రి	-834
గుల	-835
▁భాష	-836
▁9	-837
▁కుల	-838
▁ముఖ్య	-839
▁ఆడ	-840
▁పోలి	-841
బడు	-842
▁వారు	-843
బి	-844
హిస్తుంది	-845
or	-846
వర	-847
ండు	-848
ాన్	-849
ుని	-850
▁అయిన	-851
న్నాడు	-852
▁ట్రా	-853
గే	-854
▁మంది	-855
న్నత	-856
కర్త	-857
▁p	-858
▁దాని	-859
▁ప్రపంచ	-860
▁భాగ	-861
▁ఇంటర్	-862
▁మహ	-863
▁తీసు	-864
▁తొ	-865
లంగా	-866
▁of	-867
▁నమో	-868
▁రూప	-869
దులు	-870
▁2011	-871
▁మాధ్య	-872
▁వృత్తి	-873
ed	-874
రక్షణ	-875
ీత	-876
▁w	-877
▁పార	-878
es	-879
వాణా	-880
▁'	-881
ార్థ	-882
నిక్	-883
ానీ	-884
▁దే	-885
భ్య	-886
▁బహిరంగ	-887
▁విశ్వ	-888
▁మొదటి	-889
ఫె	-890
్రో	-891
సుకు	-892
▁అండ్	-893
రించే	-894
పాల	-895
▁పార్	-896
ణాం	-897
▁మాత్ర	-898
▁సంబంధ	-899
▁b	-900
▁దేవ	-901
▁జరుగుతుంది	-902
▁శిక్షణ	-903
▁విస్తరించి	-904
ic	-905
▁మగ	-906
నికి	-907
▁సంచ	-908
▁కొరకు	-909
తంగా	-910
▁గణాం	-911
శం	-912
ర్య	-913
▁కం	-914
▁నిర్వహ	-915
బు	-916
▁ప్రవహిస్తుంది	-917
పత్రిక	-918
▁నమోదు	-919
▁రవాణా	-920
▁పరిశ	-921
▁పశు	-922
▁మాధ్యమిక	-923
▁హెక్ట	-924
▁సంగ	-925
క్రమ	-926
తన	-927
పూర్ణ	-928
▁కాలువల	-929
▁పక్క	-930
▁డాక్టర్లు	-931
▁నిమి	-932
▁గుర్తి	-933
▁శు	-934
షధ	-935
దర్శ	-936
ధుల	-937
▁సేక	-938
▁మురుగునీరు	-939
మెంటు	-940
▁స్వయం	-941
రుగుద	-942
▁సంఘం	-943
▁సహకార	-944
▁స్వా	-945
▁పౌర	-946
▁సామాన్య	-947
▁కాగా	-948
నియర్	-949
లవు	-950
డింగ్	-951
▁అత్య	-952
▁in	-953
వాడు	-954
▁దివ	-955
▁కొరి	-956
▁కేంద్రాలు	-957
▁మైద	-958
▁ఔషధ	-959
▁చేసిన	-960
▁మీద	-961
▁చేశ	-962
▁f	-963
ీట	-964
▁వనరు	-965
▁పూ	-966
▁ఉండే	-967
▁సౌకర్యాలు	-968
▁సంక్ష	-969
గ్గ	-970
▁మన	-971
డికల్	-972
వీ	-973
▁సమీ	-974
▁విష	-975
గ్రా	-976
▁నిర్మ	-977
▁సిబ్బ	-978
దీ	-979
▁వార్తా	-980
▁లోను	-981
నెట్	-982
▁బె	-983
మ్నాయ	-984
పడి	-985
▁సొసై	-986
బ్ద	-987
▁సొసైటీ	-988
త్వ	-989
▁శిశు	-990
▁కథ	-991
▁లైన్	-992
త్యామ్నాయ	-993
▁బృందం	-994
ోన్నత	-995
▁వినియోగం	-996
nd	-997
▁కార్యాలయం	-998
▁సేవా	-999
ాప	-1000
▁ప్రత్యామ్నాయ	-1001
▁పారా	-1002
▁గణాంకాల	-1003
▁సంపూర్ణ	-1004
▁సై	-1005
▁హెక్టార్	-1006
యత	-1007
▁సైన్స్	-1008
▁ఆటో	-1009
ఫోన్	-1010
▁ప్రాథమికోన్నత	-1011
సీ	-1012
▁కులాల	-1013
బైల్	-1014
▁తర్	-1015
▁,	-1016
▁తిరుగు	-1017
▁m	-1018
ట్ల	-1019
▁కార్	-1020
▁జనన	-1021
కోవ	-1022
▁సంరక్షణ	-1023
▁కార్యకర్త	-1024
మారు	-1025
▁సబ్	-1026
▁ఇంటర్నెట్	-1027
▁కల	-1028
▁తెగల	-1029
▁నిమిత్తం	-1030
ళ్లతో	-1031
▁వార్తాపత్రిక	-1032
పర	-1033
▁సంక్షేమ	-1034
▁సహాయక	-1035
పాదక	-1036
▁బాలల	-1037
▁మేనే	-1038
▁మార్కె	-1039
▁మొబైల్	-1040
▁15	-1041
▁గ్రంథాలయం	-1042
▁అర్	-1043
కరించ	-1044
▁తయ	-1045
▁ఆర్ట్స్	-1046
▁లొక	-1047
టీఎ	-1048
వాహ	-1049
▁పంపిణీ	-1050
టర్ల	-1051
▁సాధ	-1052
▁మార్కెటింగ్	-1053
▁మైదానం	-1054
▁లొకేషన్	-1055
▁ఇంజ	-1056
▁రామ	-1057
▁జనాభాతో	-1058
▁ఆశా	-1059
క్ర	-1060
▁పిన్	-1061
మెడికల్	-1062
▁మగవారి	-1063
▁ఆల	-1064
▁సంచార	-1065
▁యుద్ధ	-1066
▁పారామెడికల్	-1067
▁ఆడవారి	-1068
▁తర	-1069
▁ఆటల	-1070
▁రీడింగ్	-1071
వసరాల	-1072
▁హెక్టార్లలో	-1073
▁సో	-1074
▁మార్కెట్	-1075
▁పోలింగ్	-1076
▁పారిశు	-1077
▁12	-1078
ంద్ర	-1079
▁సరఫరాల	-1080
▁లాండ్	-1081
▁జూనియర్	-1082
▁కిలో	-1083
▁ఇళ్లతో	-1084
్యాస్	-1085
▁చిన్న	-1086
రుగుదొ	-1087
ింది	-1088
▁మాతా	-1089
▁మరుగుదొ	-1090
దల	-1091
▁మరణాల	-1092
▁టెలిఫోన్	-1093
▁అంగన్	-1094
▁వాడీ	-1095
▁పారిశుధ్య	-1096
▁అలో	-1097
▁తెలి	-1098
కరణ	-1099
▁తమ	-1100
స్య	-1101
▁వ్యర్థ	-1102
▁రూం	-1103
▁పోస్ట్	-1104
▁మో	-1105
ion	-1106
రంలో	-1107
ాయిల	-1108
▁ఉత్పాదక	-1109
ంటికీ	-1110
రుగా	-1111
▁గృహా	-1112
▁వద్ద	-1113
కాహార	-1114
మై	-1115
ెక్నిక్	-1116
▁హాలు	-1117
▁కొరియర్	-1118
▁కెఫె	-1119
▁శాస్త్ర	-1120
మాణ	-1121
▁చేస్తున్నారు	-1122
▁ఆంధ్ర	-1123
వన	-1124
సన	-1125
▁గృహావసరాల	-1126
▁పోషకాహార	-1127
▁ముందు	-1128
▁పక్కనే	-1129
▁లి	-1130
సరీ	-1131
మని	-1132
శి	-1133
దాయ	-1134
్యాంగుల	-1135
▁చెత్త	-1136
▁వస్తువులు	-1137
ీటెక్నిక్	-1138
▁కంకర	-1139
▁సేకరించే	-1140
పాటు	-1141
▁బ్ర	-1142
▁పరపతి	-1143
▁అనియత	-1144
▁వ్యర్థాలను	-1145
▁సమీకృత	-1146
▁ఇంటింటికీ	-1147
స్పెన్	-1148
▁బయోగ	-1149
▁బయోగ్యాస్	-1150
▁మరుగుదొడ్డి	-1151
▁అతని	-1152
▁ఏటీఎ	-1153
▁వీధుల	-1154
తూ	-1155
▁దూరం	-1156
రూ	-1157
▁దివ్యాంగుల	-1158
స్పెన్సరీ	-1159
▁ఏటీఎమ్	-1160
▁డిస్పెన్సరీ	-1161
▁అలోపతి	-1162
స్తున్న	-1163
▁పాలీటెక్నిక్	-1164
▁చెత్తను	-1165
గ్రాఫ్	-1166
▁టెలిగ్రాఫ్	-1167
▁పారబో	-1168
తిపంపు	-1169
▁పట్టణమైన	-1170
▁భారతదేశ	-1171
▁పారబోస్తారు	-1172
▁మురుగునీటిని	-1173
▁మేనేజి	-1174
హ్మ	-1175
▁చేతిపంపు	-1176
రువు	-1177
▁ఆఫ్	-1178
ముఖ	-1179
▁కేంద్రమైన	-1180
▁మూడు	-1181
▁దక్షి	-1182
▁మేనేజిమెంటు	-1183
ించు	-1184
ైనా	-1185
▁బాలబడి	-1186
ాలని	-1187
ర్భ	-1188
▁రోజుకు	-1189
le	-1190
▁తర్వాత	-1191
గో	-1192
▁అమలవు	-1193
▁అవసరాల	-1194
రింగ్	-1195
▁వలన	-1196
▁అమలవుతోంది	-1197
▁కిలోమీ	-1198
▁కుళ	-1199
▁అన్న	-1200
తున్న	-1201
త్మ	-1202
చార	-1203
▁సాధార	-1204
బాటు	-1205
▁పాఠశాలలు	-1206
▁శతా	-1207
ర్చ	-1208
▁రే	-1209
ప్పటికీ	-1210
▁ఉంటాయి	-1211
▁అలా	-1212
▁A	-1213
▁రెండ	-1214
బ్లీ	-1215
జ్ఞ	-1216
▁లక్ష	-1217
టా	-1218
తారు	-1219
▁బ్రి	-1220
▁కుళాయిల	-1221
గ్గు	-1222
▁ఇంజనీ	-1223
వారీ	-1224
▁గొ	-1225
▁న్య	-1226
▁199	-1227
▁వనరుల	-1228
ెంబ్లీ	-1229
▁వరి	-1230
▁యా	-1231
▁బస్సులు	-1232
తాయి	-1233
▁కని	-1234
▁--	-1235
▁అసెంబ్లీ	-1236
స్తాయి	-1237
తుల	-1238
కుడు	-1239
▁వాటి	-1240
్లా	-1241
విధ	-1242
▁దర్శ	-1243
▁అయితే	-1244
▁సంద	-1245
పె	-1246
▁క్రి	-1247
క్టరు	-1248
▁రోజువారీ	-1249
▁కర్	-1250
▁చేతిపంపుల	-1251
▁సామ	-1252
ందని	-1253
▁క్రీ	-1254
▁మహా	-1255
మెరి	-1256
▁కానీ	-1257
▁0	-1258
క్స్	-1259
▁దూరంలోనూ	-1260
▁పాత్ర	-1261
▁అవుతున్నాయి	-1262
తున్నారు	-1263
as	-1264
ప్రా	-1265
నె	-1266
▁గుండా	-1267
తిక	-1268
ంట్	-1269
వేశ	-1270
▁ఎన్ని	-1271
▁పూర్తి	-1272
▁బు	-1273
▁S	-1274
▁వెళ్ళ	-1275
ou	-1276
బాద్	-1277
▁ఇంజనీరింగ్	-1278
▁విజయ	-1279
▁కొత్త	-1280
టించ	-1281
▁ఘ	-1282
క్త	-1283
▁తే	-1284
▁ప్రదేశ	-1285
▁జన్	-1286
ing	-1287
▁తెలంగా	-1288
▁11	-1289
▁కిలోమీటర్ల	-1290
▁d	-1291
మున	-1292
కాలు	-1293
▁సంస్	-1294
▁కే	-1295
ంగు	-1296
లేదు	-1297
▁ఆధ	-1298
▁ప్రాంతాల	-1299
▁అంది	-1300
ద్దు	-1301
లువ	-1302
ాలయ	-1303
నగ	-1304
▁అమెరి	-1305
▁అది	-1306
బడ్డ	-1307
లై	-1308
మూ	-1309
▁అంటారు	-1310
▁వ్యవసాయం	-1311
▁రై	-1312
▁16	-1313
▁సమయంలో	-1314
▁14	-1315
▁సిబ్బంది	-1316
▁కాని	-1317
త్స	-1318
▁మాన	-1319
▁17	-1320
రిత్ర	-1321
▁ఉద్య	-1322
▁:	-1323
▁చేస	-1324
▁పనిచే	-1325
▁ఇందు	-1326
▁లేని	-1327
▁ఇద్ద	-1328
▁అన్ని	-1329
ంక	-1330
▁ఎన్నిక	-1331
కొని	-1332
▁తారు	-1333
▁ఇక్కడ	-1334
▁గ్రామాల	-1335
ంజ	-1336
▁ఊ	-1337
▁సము	-1338
ేవారు	-1339
ేశ్వ	-1340
▁క్ర	-1341
ంతి	-1342
▁నియ	-1343
▁గురించి	-1344
లూ	-1345
▁మొదలైనవి	-1346
▁మర	-1347
▁శతాబ్ద	-1348
▁పలు	-1349
▁జీవి	-1350
▁జరిగిన	-1351
గ్రహ	-1352
▁సరి	-1353
▁ఫి	-1354
▁హైద	-1355
ోధ	-1356
▁లేరు	-1357
న్ను	-1358
▁నాయ	-1359
▁దక్షిణ	-1360
్రే	-1361
నలు	-1362
ముల	-1363
▁తీసుకు	-1364
▁కను	-1365
▁నేరుగా	-1366
▁ఇచ్చ	-1367
ల్లె	-1368
ెడ్డి	-1369
ంచు	-1370
రావు	-1371
ీయ	-1372
పురం	-1373
▁మాత్రమే	-1374
మును	-1375
▁పార్టీ	-1376
▁ఆధార	-1377
హు	-1378
▁అధ్య	-1379
బాదు	-1380
▁తెలంగాణ	-1381
▁T	-1382
రుష	-1383
▁ప్రస్తు	-1384
▁నాట	-1385
▁రంగ	-1386
▁ప్రముఖ	-1387
ళ్ళు	-1388
డిగా	-1389
ెల్	-1390
టానికి	-1391
▁to	-1392
▁మొత్తం	-1393
కుల	-1394
వ్	-1395
భాగ	-1396
▁and	-1397
▁13	-1398
▁మండలం	-1399
ారులు	-1400
▁నూ	-1401
క్షిత	-1402
▁వచ్చిన	-1403
▁అతను	-1404
ృష్	-1405
పాడు	-1406
▁అంద	-1407
బరు	-1408
▁నాలు	-1409
▁రాజు	-1410
▁హైదరా	-1411
డంతో	-1412
తలు	-1413
om	-1414
▁అతి	-1415
▁క్ష	-1416
న్స్	-1417
త్రీ	-1418
▁చు	-1419
ండ్రి	-1420
▁కావ	-1421
▁శాల	-1422
▁పొంద	-1423
▁కాలంలో	-1424
▁సీ	-1425
▁I	-1426
▁ఉత్తర	-1427
మార్	-1428
ాలతో	-1429
▁శుద్ధి	-1430
స్వా	-1431
ీటి	-1432
ల్లోకి	-1433
▁ఎస్	-1434
వారు	-1435
ూర్పు	-1436
▁మంచి	-1437
▁రాష్ట్రం	-1438
త్వం	-1439
▁చరిత్ర	-1440
000	-1441
▁మంచిన	-1442
▁తిరుగుతున్నాయి	-1443
రాజు	-1444
▁కొంత	-1445
▁చేసుకు	-1446
▁ఇద్దరు	-1447
▁జన్మ	-1448
వాడ	-1449
▁నగర	-1450
▁నాటి	-1451
ిల్ల	-1452
▁C	-1453
తిని	-1454
▁హా	-1455
▁ప్రభుత్వం	-1456
▁మంచినీటి	-1457
▁తక్కువ	-1458
▁50	-1459
▁పురా	-1460
▁ప్రదర్శ	-1461
▁h	-1462
ంతు	-1463
ర్ర	-1464
▁యూ	-1465
▁ప్రభా	-1466
శాఖ	-1467
▁రక్షిత	-1468
యే	-1469
ూడ	-1470
▁తూర్పు	-1471
▁వీరి	-1472
ించడం	-1473
విద్య	-1474
నో	-1475
▁వార	-1476
▁198	-1477
▁స్థాప	-1478
ాయణ	-1479
▁సాం	-1480
▁లోనూ	-1481
▁విధాన	-1482
▁సాహి	-1483
▁హింద	-1484
▁మండలానికి	-1485
▁కంప	-1486
▁వదులు	-1487
▁భావ	-1488
▁దీనిని	-1489
లక	-1490
▁సర్	-1491
▁బొ	-1492
▁n	-1493
వరణ	-1494
▁పురుష	-1495
▁వల్ల	-1496
మాన	-1497
▁స్థి	-1498
▁ఇలా	-1499
నాడు	-1500
am	-1501
▁స్త్రీ	-1502
▁జి	-1503
▁తయారు	-1504
బాటులో	-1505
తిలో	-1506
▁స్థాన	-1507
▁శక్తి	-1508
ణు	-1509
ముగా	-1510
▁శాసన	-1511
జన	-1512
▁అంతర్	-1513
us	-1514
ర్కొ	-1515
▁లె	-1516
▁వివిధ	-1517
▁అందుబాటులో	-1518
▁వర	-1519
జన్	-1520
మతి	-1521
▁ఒకరు	-1522
స్తే	-1523
పేట	-1524
▁ట్రాక్టర్లు	-1525
▁వాడేందుకు	-1526
భవ	-1527
తంత్ర	-1528
▁చేశారు	-1529
త్రి	-1530
వంత	-1531
▁ఆర్థ	-1532
రుకు	-1533
▁గల	-1534
▁ఇవి	-1535
రిగింది	-1536
▁విడు	-1537
▁197	-1538
వాద	-1539
▁సభ్య	-1540
▁కొన	-1541
il	-1542
▁పాట	-1543
▁వదులుతున్నారు	-1544
▁ఇందులో	-1545
గ్రామ	-1546
▁సేవ	-1547
ాయు	-1548
కీయ	-1549
ంత్రి	-1550
ళ్ల	-1551
▁జలవ	-1552
▁వ్యాప	-1553
▁వ్రా	-1554
దని	-1555
▁జలవనరు	-1556
ాలుగా	-1557
▁సంగీత	-1558
బ్ర	-1559
స్థి	-1560
ంచే	-1561
▁జలవనరుల్లోకి	-1562
▁కలిగిన	-1563
▁వెం	-1564
యత్	-1565
ీన	-1566
టకు	-1567
ోర్	-1568
▁ముగ్గు	-1569
▁కచ్చ	-1570
▁చేసే	-1571
▁ప్రవేశ	-1572
లుగా	-1573
▁అం	-1574
▁బోరు	-1575
▁ధర్మ	-1576
▁పరిశోధ	-1577
▁రు	-1578
▁రెండవ	-1579
ెర్	-1580
్యు	-1581
బడ	-1582
▁తిరు	-1583
▁కల్	-1584
సారి	-1585
లుగు	-1586
▁అనేది	-1587
▁తు	-1588
తమైన	-1589
▁దేశాల	-1590
▁నాగ	-1591
▁M	-1592
▁అవసర	-1593
▁వాడు	-1594
శ్చి	-1595
త్మక	-1596
▁ఆర్థిక	-1597
బర్	-1598
వ్య	-1599
▁వ్యక్తి	-1600
▁ప్లా	-1601
▁పర్వ	-1602
టో	-1603
▁195	-1604
▁వీటి	-1605
▁నార	-1606
బడుతుంది	-1607
ent	-1608
ద్వ	-1609
రస్	-1610
▁196	-1611
పట్	-1612
పరి	-1613
టన	-1614
▁నాలుగు	-1615
▁కారణంగా	-1616
▁మొక్క	-1617
వాస	-1618
డవ	-1619
సింది	-1620
▁రాజకీయ	-1621
ంచారు	-1622
బడ్డాయి	-1623
▁హో	-1624
▁ప్రసి	-1625
▁పత్ర	-1626
రిక	-1627
▁ఒక్క	-1628
▁ఏర్పాటు	-1629
▁ఛ	-1630
▁ప్రజలు	-1631
▁సంవత్సరాల	-1632
బీ	-1633
▁అనుస	-1634
వై	-1635
▁మై	-1636
▁194	-1637
▁స్ప	-1638
ంచింది	-1639
▁కొనసా	-1640
▁ముగ్గురు	-1641
▁కృష్ణ	-1642
▁సంవత్సరం	-1643
▁బోరుబా	-1644
సభ	-1645
▁కవి	-1646
▁అదే	-1647
డిన	-1648
▁పద్ధ	-1649
▁కార్యక్రమ	-1650
లె	-1651
,000	-1652
న్నది	-1653
▁మత	-1654
ధు	-1655
▁సముద్ర	-1656
▁గ్రామము	-1657
▁భూమి	-1658
▁పీ	-1659
▁వీరు	-1660
▁అవి	-1661
స్తాడు	-1662
పద	-1663
▁చా	-1664
▁అమెరికా	-1665
▁విశ్వవిద్య	-1666
▁పాల్	-1667
క్కి	-1668
ికా	-1669
లోకి	-1670
యింది	-1671
ించబడింది	-1672
టె	-1673
▁ఎక్కువగా	-1674
▁వెంక	-1675
▁కీ	-1676
మంది	-1677
▁పుస్త	-1678
▁చేసింది	-1679
▁సూర	-1680
లియన్	-1681
స్టు	-1682
-1	-1683
▁కాంగ	-1684
▁సాధారణంగా	-1685
▁అంటే	-1686
▁పంచ	-1687
▁తల్లి	-1688
లాండ్	-1689
▁పశ్చి	-1690
ad	-1691
▁బయ	-1692
▁గి	-1693
▁విశాఖ	-1694
▁ప్రయత్	-1695
▁సిద్ధ	-1696
▁లేక	-1697
▁అమ్మ	-1698
▁బీ	-1699
▁జరిగింది	-1700
▁25	-1701
స్తా	-1702
▁హైదరాబాదు	-1703
▁దగ్గ	-1704
▁అత్యంత	-1705
పడ	-1706
▁l	-1707
▁తండ్రి	-1708
షన్	-1709
▁బహు	-1710
్రియ	-1711
▁స్థాయి	-1712
్రె	-1713
▁కేంద్రంలో	-1714
ro	-1715
▁తొలి	-1716
▁సర్వ	-1717
త్రా	-1718
▁మహి	-1719
యాన్ని	-1720
▁ఎదు	-1721
▁57	-1722
▁రాయ	-1723
▁తప్ప	-1724
ించడానికి	-1725
▁నిర్మాణ	-1726
నల్	-1727
▁బావుల	-1728
గిలి	-1729
▁భారతీయ	-1730
డికి	-1731
▁మార్గ	-1732
శాస్త్ర	-1733
కాశం	-1734
ద్రా	-1735
ర్చు	-1736
el	-1737
▁పిల్ల	-1738
తల	-1739
మయ్య	-1740
▁ఉదా	-1741
▁నివ	-1742
▁బహిరంగంగా	-1743
▁అనంత	-1744
▁మండలంలోని	-1745
దన	-1746
పూ	-1747
థి	-1748
జే	-1749
వె	-1750
తను	-1751
ీకరించ	-1752
డైన	-1753
మొ	-1754
▁B	-1755
మం	-1756
ృష్టి	-1757
్యాన్ని	-1758
▁హై	-1759
కార్	-1760
ంటూ	-1761
రియా	-1762
పడు	-1763
గిరి	-1764
▁నగర్	-1765
ధా	-1766
లన	-1767
▁సంప్ర	-1768
ac	-1769
▁లభి	-1770
▁పరిధి	-1771
ంలోను	-1772
▁దుకా	-1773
▁e	-1774
పొ	-1775
▁అప్పటి	-1776
▁g	-1777
▁ప్రయా	-1778
య్యా	-1779
▁ప్రాంతంలో	-1780
▁వచ్చింది	-1781
▁సుమారు	-1782
చ్చి	-1783
▁అలాగే	-1784
▁ప్రస్తుతం	-1785
▁చట్ట	-1786
కుని	-1787
తె	-1788
▁30	-1789
▁గె	-1790
▁డాక్టరు	-1791
▁బోరుబావుల	-1792
▁విశాఖపట్	-1793
▁P	-1794
▁విషయ	-1795
వంటి	-1796
ళి	-1797
ల్లు	-1798
▁కచ్చా	-1799
▁క్రమ	-1800
▁బ్రా	-1801
్మ	-1802
▁లోకి	-1803
నిక	-1804
▁వ్యతి	-1805
నాలు	-1806
డిని	-1807
▁మూల	-1808
ur	-1809
▁సందర్భ	-1810
నై	-1811
▁స్వామి	-1812
ట్లా	-1813
▁నవ	-1814
ద్ది	-1815
▁తెలియ	-1816
▁లభ	-1817
st	-1818
▁చివరి	-1819
దాపు	-1820
20	-1821
వ్ర	-1822
▁కుమారు	-1823
సర్	-1824
▁కాక	-1825
ండే	-1826
ష్ఠ	-1827
▁కన్నా	-1828
షణ	-1829
మన్	-1830
ెట్టి	-1831
ల్లా	-1832
ేశ్వర	-1833
ంభ	-1834
పోయ	-1835
▁అర	-1836
▁అక్కడ	-1837
టక	-1838
ానిక	-1839
▁ప్రాంతం	-1840
▁అనగా	-1841
▁పెట్ట	-1842
హరణ	-1843
▁కాకుండా	-1844
▁పేర్కొ	-1845
లిం	-1846
▁భీ	-1847
▁కలిసి	-1848
▁చో	-1849
కారు	-1850
▁అల	-1851
▁నై	-1852
డియో	-1853
▁పోతోంది	-1854
▁నెల	-1855
▁ద్ర	-1856
▁వున్న	-1857
ెంట్	-1858
పుడు	-1859
▁న్యూ	-1860
▁వివాహ	-1861
▁రచయి	-1862
ించుకు	-1863
▁దశ	-1864
▁th	-1865
▁మహిళ	-1866
▁అర్థ	-1867
శీ	-1868
▁శివ	-1869
ందింది	-1870
▁అయ్య	-1871
▁ఇండి	-1872
▁ఇవ్వ	-1873
▁పోటీ	-1874
▁దొ	-1875
▁ఆది	-1876
et	-1877
జాతీయ	-1878
▁విభ	-1879
తర	-1880
▁ఇంకా	-1881
▁బల	-1882
▁వేరు	-1883
నులు	-1884
▁గృహ	-1885
▁నర	-1886
పురంలో	-1887
▁దాదాపు	-1888
▁కొండ	-1889
ri	-1890
్లో	-1891
▁నిర్ణ	-1892
▁చేసు	-1893
▁ముస్	-1894
గునీ	-1895
▁193	-1896
▁బాగా	-1897
▁హిందూ	-1898
చె	-1899
▁మట్టి	-1900
▁యూని	-1901
▁పశ్చిమ	-1902
డీ	-1903
చన	-1904
తాడు	-1905
▁ఫలి	-1906
▁U	-1907
▁ఉపయోగి	-1908
ల్లూరు	-1909
మ్ము	-1910
▁సామ్రా	-1911
న్నీ	-1912
ation	-1913
▁అధికార	-1914
వుడు	-1915
▁చిత్రం	-1916
▁చూడ	-1917
ార్లు	-1918
▁కాదు	-1919
▁నిర్మా	-1920
పోవ	-1921
ol	-1922
హం	-1923
ారెడ్డి	-1924
▁ప్రచు	-1925
▁వారికి	-1926
చేశ	-1927
ణ్య	-1928
ష్య	-1929
త్యం	-1930
ాంత	-1931
టువంటి	-1932
▁వ్యాస	-1933
▁ప్రజా	-1934
ంగి	-1935
ాం	-1936
ెను	-1937
తికి	-1938
▁ప్రదేశ్	-1939
▁చేప	-1940
▁నది	-1941
క్కల	-1942
వాన్ని	-1943
▁ఈయన	-1944
▁దీనికి	-1945
చ్ఛ	-1946
▁చైనా	-1947
▁ఉద	-1948
టన్	-1949
▁వచ్చి	-1950
ారావు	-1951
త్రం	-1952
▁న్యాయ	-1953
ంలోనూ	-1954
▁పాల్గొ	-1955
దారు	-1956
▁58	-1957
నర్	-1958
కొండ	-1959
ఫి	-1960
▁చంద్ర	-1961
చిన	-1962
ెంబరు	-1963
▁ముఖ్యమైన	-1964
▁53	-1965
▁పేరుతో	-1966
కాశ	-1967
▁సంప్రదాయ	-1968
▁శాఖ	-1969
▁ఉదాహరణ	-1970
ారాన్ని	-1971
▁జీవిత	-1972
ot	-1973
10	-1974
ల్స్	-1975
ధాని	-1976
కృష్ణ	-1977
రించిన	-1978
▁మిగిలి	-1979
▁గుంట	-1980
ణాలు	-1981
▁జీవ	-1982
▁•	-1983
▁2001	-1984
▁బ్రిటి	-1985
▁మరో	-1986
▁కనిప	-1987
ేట్	-1988
▁వయ	-1989
▁నిలి	-1990
పం	-1991
▁ఎన్	-1992
▁కాలం	-1993
▁ఏర్పడి	-1994
▁రూపొ	-1995
ొన్న	-1996
పెట్ట	-1997
షా	-1998
▁వెంకట	-1999
షు	-2000
▁సినిమ	-2001
కారం	-2002
గూడ	-2003
▁రావ	-2004
▁తీవ్ర	-2005
▁బౌ	-2006
స్వామి	-2007
ంపై	-2008
▁సంబంధించిన	-2009
పల్లిలో	-2010
▁విడుదల	-2011
▁గుర్తించ	-2012
▁చెరువు	-2013
నియా	-2014
▁వచ్చే	-2015
▁అంతర్జాతీయ	-2016
▁24	-2017
▁పరిస్థి	-2018
పల్లె	-2019
▁అధ్యక్ష	-2020
మిళ	-2021
▁రాజ్య	-2022
కల	-2023
్రెస్	-2024
ారని	-2025
▁ఎత్తు	-2026
▁మారి	-2027
యోజ	-2028
ay	-2029
ర్ల	-2030
▁పాకి	-2031
▁బ్రహ్మ	-2032
▁ఇంగ్	-2033
▁H	-2034
▁ప్రస	-2035
▁సాహిత్య	-2036
ట్టిన	-2037
▁సంస్కృ	-2038
▁తాగునీ	-2039
బూ	-2040
రేక	-2041
దం	-2042
▁శరీ	-2043
▁ఆలయ	-2044
▁విశ	-2045
▁చేశాడు	-2046
▁ప్లాంట్	-2047
▁మురుగునీటి	-2048
▁శాసనసభ	-2049
వేత్త	-2050
ారుదల	-2051
దేశ్	-2052
▁లభిస్తుంది	-2053
జం	-2054
▁దగ్గర	-2055
▁విద్యార్థ	-2056
రికి	-2057
లుపు	-2058
డో	-2059
సియా	-2060
▁అక్ష	-2061
▁సమస్య	-2062
▁కేవ	-2063
▁is	-2064
▁రైలు	-2065
▁=	-2066
కన్	-2067
డని	-2068
పోయిన	-2069
దిక	-2070
▁తమిళ	-2071
టెడ్	-2072
రగ	-2073
▁21	-2074
సన్	-2075
▁మార్పు	-2076
▁పత్రిక	-2077
▁తల	-2078
▁జో	-2079
▁మరొక	-2080
▁వహ	-2081
▁కమ	-2082
▁గుంటూరు	-2083
ంతా	-2084
ందీ	-2085
రులు	-2086
సె	-2087
▁గణ	-2088
క్య	-2089
▁కనిపి	-2090
▁59	-2091
▁ఒకే	-2092
▁పరీ	-2093
▁కాంగ్రెస్	-2094
చుకు	-2095
▁ఉష్ణ	-2096
▁భక్	-2097
▁మాత్రం	-2098
▁భాగంగా	-2099
▁నటి	-2100
ఖ్యా	-2101
▁ఐదు	-2102
న్నో	-2103
▁ఆంగ్	-2104
పీ	-2105
▁చక్ర	-2106
గానే	-2107
▁మార	-2108
ినీ	-2109
▁జిల్లాలో	-2110
im	-2111
▁be	-2112
▁గొప్ప	-2113
▁అభ్య	-2114
ష్ణా	-2115
నగర్	-2116
▁పదార్థ	-2117
▁చదు	-2118
ul	-2119
▁మాట	-2120
▁or	-2121
24	-2122
నది	-2123
ోత్స	-2124
▁సాధారణ	-2125
క్టో	-2126
▁కౌ	-2127
▁చర్య	-2128
▁నివాస	-2129
ళం	-2130
▁భావి	-2131
శ్చ	-2132
వరకు	-2133
స్తాన్	-2134
▁అడ	-2135
▁చెయ్య	-2136
▁ప్రే	-2137
▁పండి	-2138
స్టి	-2139
▁నో	-2140
▁23	-2141
▁గాంధ	-2142
▁N	-2143
▁re	-2144
▁1,	-2145
దావరి	-2146
ut	-2147
▁అందుకు	-2148
మైంది	-2149
▁పారుదల	-2150
లోనే	-2151
▁ట్రాక్టరు	-2152
id	-2153
మూర్	-2154
స్తున్నాయి	-2155
▁వ్యతిరేక	-2156
ించాయి	-2157
వ్యా	-2158
21	-2159
నకు	-2160
▁పంపిస్తున్నారు	-2161
▁అక్క	-2162
▁యుద్ధం	-2163
▁రూపొంది	-2164
▁నిజా	-2165
భూ	-2166
▁D	-2167
మునకు	-2168
దో	-2169
వరం	-2170
▁వాయు	-2171
▁రంగు	-2172
od	-2173
ag	-2174
▁పొందిన	-2175
గ్రామంలో	-2176
▁థ	-2177
5,	-2178
ువు	-2179
▁ఉండేది	-2180
రాలు	-2181
ర్ణ	-2182
ాయని	-2183
▁భార్య	-2184
ళ్లు	-2185
▁‘	-2186
▁పురుషుల	-2187
▁W	-2188
▁నారాయణ	-2189
ct	-2190
▁చది	-2191
ునిక	-2192
ist	-2193
▁జె	-2194
టే	-2195
జర్	-2196
▁స్థిర	-2197
▁అత్యధిక	-2198
▁పోరా	-2199
7,	-2200
లిక	-2201
బడే	-2202
▁కనుక	-2203
ండ్ర	-2204
▁వాటిని	-2205
ధం	-2206
▁లోపే	-2207
▁!	-2208
▁R	-2209
ఫ్ర	-2210
▁కాలే	-2211
ర్చి	-2212
స్లా	-2213
నుండి	-2214
▁నగరం	-2215
్యాల	-2216
ములను	-2217
▁వైపు	-2218
▁సూచ	-2219
మైనది	-2220
తులను	-2221
▁ప్రత్తి	-2222
▁ప్రజల	-2223
▁సార	-2224
నాన్ని	-2225
▁పర్యా	-2226
▁ఇక్క	-2227
▁షా	-2228
తులకు	-2229
▁ఈమె	-2230
▁అడుగు	-2231
▁మందు	-2232
▁సరిహ	-2233
తాన్ని	-2234
▁ఆన	-2235
▁ఎలా	-2236
ంటాడు	-2237
▁చేయడం	-2238
▁సూర్య	-2239
▁నెల్లూరు	-2240
▁కంపె	-2241
▁పరిశ్రమ	-2242
ప్ట	-2243
లగ	-2244
▁ఆల్	-2245
4,	-2246
శ్ర	-2247
వతి	-2248
సిక	-2249
▁కేవలం	-2250
▁మరింత	-2251
▁ఒప్ప	-2252
▁దో	-2253
▁బే	-2254
▁నాటికి	-2255
▁చీ	-2256
▁దృ	-2257
▁పురస్	-2258
▁ఆగ	-2259
▁కారణ	-2260
రుడు	-2261
▁for	-2262
▁శాలలో	-2263
ోగ్ర	-2264
గ్ని	-2265
కాలం	-2266
▁లను	-2267
▁26	-2268
23	-2269
50	-2270
▁The	-2271
▁మిగిలిన	-2272
ేషను	-2273
▁తాను	-2274
భాగం	-2275
▁ఎం	-2276
ందే	-2277
సో	-2278
▁కంపెనీ	-2279
▁ముస్లిం	-2280
▁జల	-2281
▁మార్చి	-2282
▁లీ	-2283
ఫీ	-2284
▁పడ	-2285
▁k	-2286
రోడ్	-2287
▁గోదావరి	-2288
▁రాజధాని	-2289
▁లై	-2290
ళిక	-2291
▁విజయవాడ	-2292
పోయింది	-2293
▁నక్ష	-2294
▁v	-2295
▁వర్ణ	-2296
▁ఏక	-2297
▁పరీక్ష	-2298
11	-2299
రుపు	-2300
▁కృష్ణా	-2301
▁ప్రొ	-2302
నాథ	-2303
▁వం	-2304
్ఞ	-2305
▁పంప	-2306
▁దారి	-2307
రె	-2308
▁కోట	-2309
▁వాతా	-2310
ండును	-2311
iv	-2312
▁ఫ్రా	-2313
య్యాడు	-2314
▁ప్రమా	-2315
▁ఉన్నత	-2316
▁లలో	-2317
▁ముఖ్యంగా	-2318
▁40	-2319
▁వర్గ	-2320
▁భాగం	-2321
ia	-2322
▁కాలువ	-2323
▁అంచ	-2324
ట్లో	-2325
రై	-2326
▁ఉండి	-2327
▁ఈనాడు	-2328
నాటి	-2329
ర్స్	-2330
▁ఆధునిక	-2331
ముడు	-2332
ra	-2333
▁టా	-2334
▁ఎన్నో	-2335
ంచాడు	-2336
రూప	-2337
▁సభ	-2338
▁బ్రిటిష్	-2339
▁మొట్ట	-2340
▁ఆధారంగా	-2341
▁నియమ	-2342
▁రచయిత	-2343
ప్రదేశ్	-2344
▁గ్రా	-2345
▁రసాయ	-2346
▁గుర్తింపు	-2347
▁సౌకర్యాలున్నాయి	-2348
▁కన	-2349
డుకు	-2350
మొద	-2351
▁ఆలయం	-2352
నుడు	-2353
▁దేశం	-2354
▁దర్శక	-2355
▁జ్ఞ	-2356
▁G	-2357
▁నేను	-2358
ానా	-2359
ch	-2360
▁22	-2361
▁పౌ	-2362
▁డె	-2363
చార్య	-2364
గాన్ని	-2365
▁స్థానిక	-2366
▁ఋ	-2367
▁మట్టిరోడ్	-2368
▁ఆరు	-2369
▁రచన	-2370
బన్	-2371
▁మట్టిరోడ్లూ	-2372
▁చేయని	-2373
▁28	-2374
▁దుకాణం	-2375
▁మాట్లా	-2376
▁విశాఖపట్నం	-2377
em	-2378
వర్తి	-2379
▁అధికంగా	-2380
ow	-2381
రియ	-2382
కంటే	-2383
▁జూలై	-2384
▁పెట్టు	-2385
▁వ్యాపార	-2386
ాయ్	-2387
ంగం	-2388
▁దేశంలో	-2389
▁వెంట	-2390
ళ్ళి	-2391
డాడు	-2392
▁చదువు	-2393
▁విమ	-2394
▁స్థానంలో	-2395
▁తాగునీరు	-2396
6,	-2397
▁లక్షణ	-2398
▁శ్రీకా	-2399
ంహ	-2400
తుడు	-2401
యోజక	-2402
▁పూజ	-2403
▁పోతున్నాయి	-2404
వలసిన	-2405
▁వివ	-2406
▁పంట	-2407
▁దానిని	-2408
▁కొంద	-2409
ేట	-2410
కాలంలో	-2411
గర్	-2412
▁ఇన్	-2413
▁భారతదేశంలో	-2414
▁స్వాతంత్ర	-2415
▁సత్య	-2416
▁27	-2417
▁చూప	-2418
పర్	-2419
▁విడి	-2420
▁ద్వీప	-2421
▁ప్రయోగ	-2422
▁మహబూ	-2423
▁నిర్ణయ	-2424
▁జంతు	-2425
▁టై	-2426
వలన	-2427
చారం	-2428
▁ఎందు	-2429
▁సరిహద్దు	-2430
▁సంపాద	-2431
▁విభాగ	-2432
▁చేరి	-2433
▁ప్రసిద్ధి	-2434
▁నియోజక	-2435
▁మంత్రి	-2436
ించబడిన	-2437
▁E	-2438
3,	-2439
సము	-2440
ig	-2441
▁L	-2442
▁పురాతన	-2443
▁జిల్ల	-2444
దేవి	-2445
▁పాలన	-2446
▁చేస్తారు	-2447
గత	-2448
▁రకాల	-2449
కరి	-2450
▁వలస	-2451
um	-2452
ందో	-2453
▁సిద్ధాంత	-2454
▁పర్య	-2455
స్తవ	-2456
్వే	-2457
▁చేర	-2458
▁బాధ్య	-2459
యంగా	-2460
▁వీర	-2461
▁జాబి	-2462
▁జై	-2463
▁మొట్టమొద	-2464
▁ఎంతో	-2465
▁బ్యా	-2466
▁as	-2467
▁సిబ్బందీ	-2468
▁ప్రక్రియ	-2469
వంతమైన	-2470
ంతర	-2471
▁వాహ	-2472
▁వాతావరణ	-2473
▁విశేష	-2474
రాజ	-2475
▁2009	-2476
▁ఆమ్	-2477
▁మిలియన్	-2478
బె	-2479
▁గాంధీ	-2480
కె	-2481
గారు	-2482
▁కోర్	-2483
▁అల్	-2484
▁అంతే	-2485
రుస	-2486
19	-2487
మల	-2488
▁యునై	-2489
సులు	-2490
▁విగ్రహ	-2491
▁తగ్గ	-2492
ూరులో	-2493
▁విమర్శ	-2494
▁పరిశోధన	-2495
▁భౌ	-2496
▁అవుతోంది	-2497
28	-2498
సమ	-2499
▁చిత్త	-2500
ce	-2501
చూ	-2502
▁విక	-2503
▁మహారా	-2504
▁లాంటి	-2505
▁కుమార్	-2506
▁చేత	-2507
▁ఇప్పుడు	-2508
డంలో	-2509
▁గురు	-2510
▁పూర్వ	-2511
ly	-2512
▁ఆవి	-2513
▁ముఖ	-2514
ter	-2515
గింది	-2516
▁గ్రహ	-2517
ir	-2518
▁బ్రాహ్మ	-2519
▁శై	-2520
▁పట్టు	-2521
సరి	-2522
న్సి	-2523
▁నడు	-2524
▁వస	-2525
▁ఉద్యోగ	-2526
▁ఆహార	-2527
▁బ్రిటీ	-2528
▁పనిచేశ	-2529
దేవ	-2530
మాన్	-2531
ప్తంగా	-2532
▁చేరుకు	-2533
▁రోడ్డు	-2534
ాయలు	-2535
▁పూర్తిగా	-2536
▁వారిని	-2537
లేని	-2538
▁లేకుండా	-2539
▁బౌద్ధ	-2540
్వా	-2541
▁గ్రీ	-2542
స్తోంది	-2543
▁అప్ప	-2544
▁సంగీ	-2545
▁యునైటెడ్	-2546
▁నిజ	-2547
ిల్లీ	-2548
▁డై	-2549
క్టర్	-2550
లేక	-2551
▁ఇస్లా	-2552
▁పర్వత	-2553
▁నూనె	-2554
తిపె	-2555
వులను	-2556
▁మానవ	-2557
వచ్చును	-2558
నుక	-2559
ిత	-2560
▁గౌర	-2561
▁ఉపయోగిస్తారు	-2562
30	-2563
▁వ్యక్	-2564
18	-2565
ప్త	-2566
▁టీ	-2567
▁జర్మ	-2568
▁విజయం	-2569
▁పిలు	-2570
▁అవార్	-2571
▁శాతం	-2572
▁చేయడానికి	-2573
▁ఆకర్	-2574
వో	-2575
మెంట్	-2576
రోపా	-2577
▁పెరుగు	-2578
▁ప్	-2579
▁కోల్	-2580
▁|	-2581
▁జాబితా	-2582
కరించి	-2583
▁వీటిలో	-2584
గొండ	-2585
ోప	-2586
▁అగ్ని	-2587
శ్రమ	-2588
కంగా	-2589
ంప్ర	-2590
కిత్స	-2591
ith	-2592
స్థాన్	-2593
▁సాంకే	-2594
త్వంలో	-2595
▁స్టేషను	-2596
తిపెద్ద	-2597
▁నటు	-2598
నాల	-2599
మ్మి	-2600
▁వ్యవహ	-2601
22	-2602
▁లెక్కల	-2603
▁చేయు	-2604
▁పుష్	-2605
చారు	-2606
చేయ	-2607
▁an	-2608
రాన్ని	-2609
▁నటించ	-2610
▁పం	-2611
యనగ	-2612
వుని	-2613
చో	-2614
▁ప్రి	-2615
▁జయ	-2616
▁బంగ	-2617
▁రెడ్డి	-2618
ణ్	-2619
▁కొద్ది	-2620
పాలు	-2621
▁వలె	-2622
▁అవకాశం	-2623
▁మద్రా	-2624
▁నియోజకవర్	-2625
▁కన్న	-2626
▁అతిపెద్ద	-2627
▁బోధ	-2628
▁ఢ	-2629
▁తేదీ	-2630
▁చేసారు	-2631
కము	-2632
▁గత	-2633
▁విజయనగ	-2634
దర	-2635
వ్వు	-2636
▁యువ	-2637
▁విలువ	-2638
▁పరిపాల	-2639
▁డే	-2640
▁ఐరోపా	-2641
▁కర్నూ	-2642
▁on	-2643
un	-2644
▁ఫ్రె	-2645
▁2008	-2646
సులో	-2647
▁అప్పుడు	-2648
▁మల	-2649
క్షన్	-2650
▁2007	-2651
▁పండు	-2652
▁జనవరి	-2653
▁అధ్యయన	-2654
▁నడి	-2655
శ్య	-2656
దేశాల	-2657
▁ప్రదర్శన	-2658
కోవడం	-2659
▁ఉత్తమ	-2660
▁29	-2661
యిన్	-2662
▁దిగు	-2663
▁కారణం	-2664
▁గాయ	-2665
రల్	-2666
మ్స్	-2667
▁ఇదే	-2668
న్యా	-2669
▁వెళ్ళి	-2670
కున్న	-2671
▁మహబూబ్	-2672
▁నియంత్ర	-2673
▁లక్ష్	-2674
▁విష్ణ	-2675
▁ఆలో	-2676
నంగా	-2677
▁బెంగ	-2678
▁F	-2679
▁మంగ	-2680
▁నూతన	-2681
▁సాంకేతిక	-2682
ార్ధ	-2683
▁కల్ప	-2684
▁అనుమతి	-2685
▁వీటిని	-2686
▁అభిప్రా	-2687
▁మొదలు	-2688
▁మద్ద	-2689
▁ఎంత	-2690
▁త్రి	-2691
▁కట్ట	-2692
▁చారి	-2693
లియా	-2694
యిల్	-2695
▁అక్టో	-2696
స్టర్	-2697
ూహ	-2698
▁ఆఫ్ర	-2699
మవు	-2700
మంత్రి	-2701
సవ	-2702
కలు	-2703
▁సీత	-2704
▁చక్క	-2705
▁ఎమ్	-2706
▁ఇండియా	-2707
▁మారు	-2708
ఎస్	-2709
▁సమయ	-2710
▁st	-2711
▁వెళ్	-2712
▁చలన	-2713
▁ప్రేమ	-2714
▁రికార్	-2715
▁స్వతంత్ర	-2716
భు	-2717
ంలోకి	-2718
▁మొట్టమొదటి	-2719
▁డిస	-2720
ర్ఘ	-2721
▁నాటక	-2722
▁అర్థం	-2723
▁చెబు	-2724
డవు	-2725
▁అందులో	-2726
జ్ఞాన	-2727
▁లోప	-2728
రెడ్డి	-2729
▁కనుగొ	-2730
▁అధి	-2731
▁అమలు	-2732
▁ప్రాంతాలలో	-2733
ర్మా	-2734
▁నిర	-2735
▁మొదల	-2736
ృతి	-2737
▁ఎల్	-2738
▁సెప్ట	-2739
▁చేస్తుంది	-2740
her	-2741
▁శతాబ్దం	-2742
▁నిర్వహణ	-2743
వచ్చ	-2744
▁కమి	-2745
▁ప్రపంచంలో	-2746
▁కాల్	-2747
▁కృషి	-2748
▁నృ	-2749
▁వేగ	-2750
▁చుట్ట	-2751
ణాన్ని	-2752
40	-2753
▁జూన్	-2754
▁ఆహ	-2755
▁ప్రస్తుత	-2756
▁ప్రాచ	-2757
▁హక్కు	-2758
ంబు	-2759
ాను	-2760
ూరో	-2761
▁ఎడ	-2762
▁భర్	-2763
పడ్డ	-2764
th	-2765
ండర్	-2766
▁ఉద్ద	-2767
▁ఉద్యమ	-2768
op	-2769
ికంగా	-2770
▁శ్రీకాకు	-2771
▁భు	-2772
▁గ్రామాలు	-2773
▁ఎన్నికలలో	-2774
▁నిర్వహించ	-2775
దర్	-2776
▁దానికి	-2777
▁ఉష్ణోగ్ర	-2778
▁అధ	-2779
మన	-2780
▁నిల	-2781
▁వ్యాధి	-2782
▁సంవత్సరంలో	-2783
లపై	-2784
▁బంధ	-2785
రించారు	-2786
av	-2787
2,	-2788
డూ	-2789
▁ప్రామ	-2790
పూడి	-2791
కాన్ని	-2792
కలో	-2793
▁ఆంగ్ల	-2794
నని	-2795
▁సూచి	-2796
▁wh	-2797
ములలో	-2798
▁నమ్మ	-2799
వల్ల	-2800
స్థాన	-2801
▁కష్ట	-2802
▁తొలగ	-2803
్రు	-2804
▁వేయ	-2805
▁పైగా	-2806
ప్రిల్	-2807
▁వరంగ	-2808
బ్రవరి	-2809
▁పది	-2810
వారం	-2811
▁అప	-2812
▁నామ	-2813
▁అమెరికన్	-2814
▁ప్రకటించ	-2815
తృ	-2816
▁నవంబ	-2817
పెట్టి	-2818
యులు	-2819
▁గాని	-2820
▁చింత	-2821
▁బై	-2822
▁కుమారుడు	-2823
▁పరిచ	-2824
▁శతాబ్దంలో	-2825
ంస	-2826
os	-2827
▁హరి	-2828
▁కామ	-2829
▁ఇతడు	-2830
▁కంప్యూ	-2831
గలి	-2832
దిగా	-2833
15	-2834
▁ఉపా	-2835
▁వివాహం	-2836
▁ఉపయోగించ	-2837
ers	-2838
▁పడి	-2839
▁సాంప్ర	-2840
ak	-2841
ేత్ర	-2842
▁వరకూ	-2843
పేజీ	-2844
▁భగ	-2845
ర్షి	-2846
▁నగరంలో	-2847
ర్ధ	-2848
డ్డు	-2849
భార	-2850
ఆర్	-2851
▁ఆస్ట	-2852
▁పక్ష	-2853
చింది	-2854
▁నౌ	-2855
▁మను	-2856
▁చెన్న	-2857
▁పరిమి	-2858
టిక్	-2859
పాలెం	-2860
▁ప్రసిద్ధ	-2861
దరు	-2862
▁అవార్డు	-2863
▁వేద	-2864
▁ఎక్స్	-2865
16	-2866
రామ	-2867
▁ఆంధ్రప్రదేశ్	-2868
▁సహజ	-2869
▁అనుసంధ	-2870
▁దిన	-2871
జ్యం	-2872
దవ	-2873
ల్ని	-2874
▁అయినప్పటికీ	-2875
వపేజీ	-2876
ీర్	-2877
▁కలిపి	-2878
▁పొందింది	-2879
ల్ప	-2880
దేశీ	-2881
▁పదం	-2882
▁ఆయు	-2883
బట్టి	-2884
▁భారతదేశం	-2885
ానే	-2886
▁గాలి	-2887
గ్గి	-2888
మాని	-2889
▁కింద	-2890
▁మొదట	-2891
విజన్	-2892
▁చేసాడు	-2893
ప్తి	-2894
▁మూడవ	-2895
ూరి	-2896
▁కలు	-2897
▁ఓడి	-2898
29	-2899
ంతరం	-2900
డ్డాడు	-2901
▁మొత్త	-2902
నుల	-2903
▁శం	-2904
▁ఫో	-2905
▁35	-2906
▁వరుస	-2907
▁వస్తుంది	-2908
▁అంచనా	-2909
▁ఆసియా	-2910
▁పద్య	-2911
▁with	-2912
▁100	-2913
▁K	-2914
▁రక్షణ	-2915
చిత్ర	-2916
▁విశ్వా	-2917
▁ఖమ్మ	-2918
▁క్రై	-2919
▁ప్రయత్ని	-2920
తకు	-2921
▁ఆస	-2922
▁గుడి	-2923
▁ఇండ	-2924
▁అణు	-2925
▁దృష్టి	-2926
▁తయారీ	-2927
13	-2928
▁ఆరంభ	-2929
▁కొందరు	-2930
ియా	-2931
వార	-2932
ెర	-2933
and	-2934
▁సంస్కృత	-2935
▁60	-2936
▁నిర్మాణం	-2937
▁చెప్పు	-2938
ేషనల్	-2939
▁2010	-2940
▁విశ్వవిద్యాలయం	-2941
గతి	-2942
జెక్	-2943
ంచుకు	-2944
17	-2945
▁ఏప్రిల్	-2946
ప్పి	-2947
ఒక	-2948
▁ప్రో	-2949
▁పైన	-2950
ండె	-2951
▁రాజా	-2952
మిడి	-2953
ీణ	-2954
▁పెళ్ళి	-2955
డై	-2956
▁అవసరం	-2957
25	-2958
డప	-2959
▁గే	-2960
దిలి	-2961
క్ష్మ	-2962
▁డీ	-2963
డియా	-2964
▁మ్యా	-2965
▁సంస్థలు	-2966
▁యె	-2967
పియన్	-2968
నార	-2969
▁ప్రతిపాద	-2970
▁విశ్వవిద్యాలయ	-2971
▁బాధ	-2972
▁సృష్టి	-2973
▁గుర్	-2974
మూర్తి	-2975
▁స్థానం	-2976
▁మారింది	-2977
ాయా	-2978
▁చేరు	-2979
టల్	-2980
▁గెలు	-2981
ప్రాంత	-2982
వైపు	-2983
▁నల్ల	-2984
▁చూసి	-2985
▁రక్త	-2986
ab	-2987
జె	-2988
▁తెలుసు	-2989
ik	-2990
ద్రి	-2991
కులను	-2992
▁2006	-2993
ందా	-2994
ళా	-2995
సారు	-2996
▁సోమ	-2997
▁మౌ	-2998
▁హు	-2999
▁బ్రిటీష్	-3000
ind	-3001
స్కృ	-3002
▁ప్రాచీన	-3003
్రై	-3004
▁సామ్రాజ్య	-3005
ర్ప	-3006
రక	-3007
దిరి	-3008
ర్డ్	-3009
▁పద్	-3010
రుగ	-3011
▁చిత్తూరు	-3012
రువులు	-3013
▁మద్దతు	-3014
రోజు	-3015
▁బట్టి	-3016
ీకరణ	-3017
▁శిల్	-3018
▁ప్రభావం	-3019
ులకు	-3020
▁ఎల	-3021
▁గడి	-3022
▁ఉద్దేశ	-3023
▁సైనిక	-3024
▁ఎగు	-3025
గానికి	-3026
కారులు	-3027
జొన్న	-3028
▁ఫలితంగా	-3029
▁ఇతని	-3030
టర్లు	-3031
డమే	-3032
▁కమ్యూ	-3033
▁by	-3034
సింహ	-3035
గులు	-3036
పథ	-3037
▁ముగి	-3038
▁ఇంత	-3039
▁ఖా	-3040
▁భారీ	-3041
షిక	-3042
▁స్టే	-3043
రమ	-3044
శనగ	-3045
ెన్స్	-3046
▁ఆక్	-3047
▁ముద్ర	-3048
▁అతడు	-3049
్రూ	-3050
▁జగ	-3051
▁అయింది	-3052
▁అర్జు	-3053
జాల	-3054
▁జరిగే	-3055
ాయం	-3056
▁ఎంప	-3057
దురు	-3058
ండ్ల	-3059
14	-3060
▁స్త్రీల	-3061
పల్లిలోను	-3062
య్	-3063
--	-3064
▁సంగీతం	-3065
ంటీ	-3066
▁ప్రసా	-3067
▁బ్రాహ్మణ	-3068
త్తులు	-3069
▁దేశాలలో	-3070
నంలో	-3071
ాలూ	-3072
వాతి	-3073
టంతో	-3074
▁సహా	-3075
▁గారు	-3076
▁వ్యతిరేకంగా	-3077
ధులు	-3078
▁భద్ర	-3079
▁చికిత్స	-3080
▁విషయం	-3081
▁లేవు	-3082
ప్రైవేటు	-3083
26	-3084
▁సగ	-3085
▁కర్నూలు	-3086
▁ఫిబ్రవరి	-3087
▁పరిశీ	-3088
▁పొడవు	-3089
▁ప్రయాణ	-3090
▁చర్చ	-3091
▁ఢిల్లీ	-3092
ధ్	-3093
ళు	-3094
▁నక్షత్ర	-3095
▁కలిగ	-3096
ub	-3097
యిర్	-3098
షత్తు	-3099
మీద	-3100
▁పిలుస్తారు	-3101
▁కరీ	-3102
ముని	-3103
▁కాంతి	-3104
▁జే	-3105
కోవడానికి	-3106
▁పెద	-3107
▁వేరుశనగ	-3108
ర్థి	-3109
▁పాత	-3110
▁నిర్వహించారు	-3111
ౌన్	-3112
ర్గ	-3113
▁గారి	-3114
విన	-3115
ందర	-3116
పాన్	-3117
తమ	-3118
▁ఆత్మ	-3119
ric	-3120
▁నిర్వహి	-3121
1,	-3122
మర	-3123
గాయి	-3124
▁భి	-3125
▁చంప	-3126
టరీ	-3127
▁క్రింద	-3128
ాలీ	-3129
▁మొక్కజొన్న	-3130
స్తి	-3131
▁వర్ష	-3132
▁గౌ	-3133
▁రేడియో	-3134
▁పట్టి	-3135
కాలను	-3136
▁పిలి	-3137
▁హార్	-3138
▁అర్ధ	-3139
60	-3140
▁సమాజ	-3141
▁స్కూ	-3142
▁చేస్తూ	-3143
▁నేషనల్	-3144
▁జరుపు	-3145
▁హిందీ	-3146
▁ఫా	-3147
▁రాజ్యా	-3148
చేసి	-3149
▁కూడిన	-3150
▁ఆచ	-3151
దరణ	-3152
▁హను	-3153
▁ప్రాజెక్	-3154
▁శరీర	-3155
▁మార్చ	-3156
ళీ	-3157
▁తరచు	-3158
పూర్లో	-3159
ంచ్	-3160
య్యారు	-3161
▁వేర్	-3162
గాడు	-3163
▁ఆక్రమ	-3164
▁అవత	-3165
▁చెంద	-3166
లికి	-3167
▁ఏమి	-3168
▁చుట్టూ	-3169
▁ప్రకాశం	-3170
ములోని	-3171
▁తనకు	-3172
దాన్ని	-3173
త్తా	-3174
▁జట్టు	-3175
▁మందుల	-3176
▁సమ్	-3177
▁పరికర	-3178
ate	-3179
▁పురాణ	-3180
ీస్	-3181
రాన్	-3182
మార	-3183
కంలో	-3184
▁దేవాలయ	-3185
▁స్నే	-3186
▁పొందు	-3187
",	-3188
27	-3189
▁con	-3190
యస్	-3191
▁ఇంగ్లీ	-3192
మిని	-3193
గారి	-3194
వేయ	-3195
▁ఘన	-3196
రప	-3197
▁యూరో	-3198
▁వంద	-3199
▁చాల	-3200
▁మద్య	-3201
▁చెప్పిన	-3202
▁ప్రణా	-3203
▁ప్రధానంగా	-3204
ంపల్లి	-3205
హీ	-3206
▁నాయక	-3207
▁విడుద	-3208
▁జన్మించాడు	-3209
▁సమీపంలో	-3210
ృత	-3211
▁సింగ్	-3212
▁ఆయనకు	-3213
▁2,	-3214
▁చేయబడింది	-3215
pl	-3216
▁V	-3217
▁అరు	-3218
డ్స్	-3219
▁క్యా	-3220
ెట్టు	-3221
▁శాంతి	-3222
▁వాటిలో	-3223
స్కృతిక	-3224
ండగా	-3225
▁చెట్టు	-3226
▁తిరుపతి	-3227
▁నిర్మించిన	-3228
మ్య	-3229
▁O	-3230
▁శిక్ష	-3231
▁తిరుగుబాటు	-3232
▁సందర్శ	-3233
▁అన్నాడు	-3234
కల్ప	-3235
▁ఇక్కడి	-3236
▁ఎంపిక	-3237
▁నలుగు	-3238
ap	-3239
▁ప్రతీ	-3240
పరమైన	-3241
▁హీ	-3242
▁గూడ	-3243
ంచడం	-3244
▁అక్టోబరు	-3245
▁విదేశీ	-3246
▁కొల	-3247
▁అభ	-3248
▁దె	-3249
ందుకు	-3250
▁రసాయన	-3251
▁37	-3252
▁అనకా	-3253
నిమి	-3254
▁షి	-3255
▁సంవత్సరాలు	-3256
యుక్త	-3257
▁రాత్రి	-3258
ంనగర్	-3259
8,	-3260
షే	-3261
▁రూపంలో	-3262
▁లక్ష్మీ	-3263
▁ఆగస్టు	-3264
▁పెం	-3265
▁వెనుక	-3266
మానా	-3267
▁190	-3268
▁ఉదాహరణకు	-3269
▁చారిత్ర	-3270
▁2004	-3271
యాలు	-3272
▁జాతి	-3273
▁వేల	-3274
▁వేంక	-3275
▁క్రీడ	-3276
▁ఏర్పడిన	-3277
▁పాటలు	-3278
▁సాంప్రదాయ	-3279
▁గృహాలు	-3280
▁చెల్లి	-3281
▁ఉంటే	-3282
ver	-3283
▁పట్ల	-3284
▁తెల్ల	-3285
▁గమని	-3286
▁పల్లి	-3287
యుల	-3288
పోయి	-3289
ధాన్య	-3290
ెన	-3291
▁నార్	-3292
▁వెలువ	-3293
▁నిరా	-3294
▁ఉత్సవ	-3295
న్నె	-3296
▁కుమార్తె	-3297
aM	-3298
▁పర్వము	-3299
పుర	-3300
ారము	-3301
▁శ్రే	-3302
▁ఏడు	-3303
▁వేస	-3304
▁స్వీ	-3305
స్వ	-3306
వర్తన	-3307
▁సింగ	-3308
▁హైదరాబాద్	-3309
▁పున	-3310
ర్చుకు	-3311
▁సాంస్కృతిక	-3312
▁పుర	-3313
సార్లు	-3314
▁సందర్భంగా	-3315
▁33	-3316
▁ప్రకటి	-3317
▁45	-3318
ందున	-3319
▁పోల	-3320
▁పెట్టి	-3321
నము	-3322
▁ఎందుకంటే	-3323
rom	-3324
పరచ	-3325
ష్టం	-3326
▁పరమ	-3327
▁దాడి	-3328
ెంలో	-3329
▁క్ల	-3330
▁ఎలక్ట	-3331
ధారణ	-3332
▁దిశ	-3333
▁పరిధిలో	-3334
▁విధానం	-3335
వాలు	-3336
▁గంగ	-3337
శారు	-3338
తులలో	-3339
▁జొన్న	-3340
▁కమ్యూని	-3341
▁అతనికి	-3342
▁నివే	-3343
▁బొమ్మ	-3344
▁భాషా	-3345
pe	-3346
▁గ్రామములో	-3347
ణిక	-3348
▁వంశ	-3349
▁ఇప్పటికీ	-3350
▁శాస్త్రవేత్త	-3351
▁ఆసక్తి	-3352
▁al	-3353
జిల్	-3354
▁శ్రీరా	-3355
యల్	-3356
రులో	-3357
▁టెక్	-3358
▁36	-3359
ులను	-3360
స్తుంటారు	-3361
▁ఆదిలా	-3362
▁డిసెంబరు	-3363
▁కాబట్టి	-3364
▁దళ	-3365
ఖా	-3366
▁నవల	-3367
ఫా	-3368
▁పునరు	-3369
▁నివస	-3370
పడుతుంది	-3371
డె	-3372
స్థాయి	-3373
▁ఆఫ్రికా	-3374
తము	-3375
భాష	-3376
ందరి	-3377
▁రాసిన	-3378
▁సాగ	-3379
ోలు	-3380
కినా	-3381
సూ	-3382
▁తగిన	-3383
▁ఉన్నది	-3384
క్ష్	-3385
▁ఉంటారు	-3386
▁క్వ	-3387
▁స్టీ	-3388
▁రెండో	-3389
86	-3390
▁చెప్పాడు	-3391
ెంబర్	-3392
దుగా	-3393
▁బాల్	-3394
▁నివసి	-3395
▁ఖాన్	-3396
▁ఉష్ణోగ్రత	-3397
కమైన	-3398
▁అనుకూ	-3399
రోధ	-3400
9,	-3401
ాలే	-3402
▁నంది	-3403
if	-3404
▁సృష్	-3405
▁పడు	-3406
▁సైన్య	-3407
▁వెంటనే	-3408
▁పెరి	-3409
▁ప్రశ్	-3410
▁that	-3411
వాదం	-3412
పుణ	-3413
▁ఆదాయ	-3414
▁కరీంనగర్	-3415
▁2013	-3416
టికి	-3417
▁తరలి	-3418
▁ఉత్ప	-3419
▁పాకిస్థాన్	-3420
▁జ్ఞాన	-3421
రుల	-3422
▁పసు	-3423
▁మద్రాసు	-3424
తక	-3425
▁ఇప్పటి	-3426
▁సంబంధం	-3427
▁వంట	-3428
▁రిప	-3429
▁భౌతిక	-3430
▁కణ	-3431
▁ప్రతిష్ఠ	-3432
ill	-3433
▁సెప్టెంబరు	-3434
ట్రో	-3435
▁it	-3436
▁ఉండటం	-3437
తనం	-3438
లేష	-3439
హాన్ని	-3440
▁జు	-3441
▁సమూహ	-3442
▁భవన	-3443
▁గౌరవ	-3444
▁లింగ	-3445
▁విభజ	-3446
▁వృక్ష	-3447
▁మంత్ర	-3448
▁ఇక	-3449
▁స్థాయిలో	-3450
▁2005	-3451
▁com	-3452
▁హైడ	-3453
12	-3454
80	-3455
▁పాకిస్తాన్	-3456
యట్	-3457
▁జిల్లాకు	-3458
గ్రామానికి	-3459
▁నంద	-3460
▁గర్భ	-3461
▁2014	-3462
▁మహిళల	-3463
▁రోగ	-3464
సారిగా	-3465
▁రంధ్ర	-3466
ష్టమైన	-3467
▁అశ్వ	-3468
▁పార్ల	-3469
▁హిందు	-3470
▁సూక్ష్మ	-3471
▁జాన	-3472
వలసి	-3473
▁మెద	-3474
▁నాడు	-3475
ించవచ్చు	-3476
ంపేట	-3477
హో	-3478
ఫు	-3479
ేద	-3480
▁విమాన	-3481
ఫల	-3482
▁నలుగురు	-3483
▁80	-3484
రవ	-3485
▁సంభవ	-3486
వ్యాప్తంగా	-3487
▁విప్	-3488
కులకు	-3489
పిన	-3490
బ్బు	-3491
▁రక్ష	-3492
ంతం	-3493
▁కాలనీ	-3494
▁అదన	-3495
▁ఆధారపడి	-3496
▁దై	-3497
బడతాయి	-3498
ంటా	-3499
▁నొ	-3500
ాలయంలో	-3501
ాలపై	-3502
▁అనుభవ	-3503
▁ఉన్నాడు	-3504
ధీ	-3505
▁పిలువ	-3506
▁ప్రజలకు	-3507
్యంలో	-3508
▁సభ్యులు	-3509
▁మని	-3510
ష్టు	-3511
ద్దీ	-3512
కలా	-3513
▁పద్ధతి	-3514
▁పండుగ	-3515
వారికి	-3516
▁కర్ణా	-3517
దేశం	-3518
▁సినీ	-3519
వంతంగా	-3520
▁ఆస్ట్రే	-3521
▁రాజమ	-3522
▁సాగు	-3523
పరు	-3524
కూరు	-3525
కుడిగా	-3526
తగా	-3527
పడే	-3528
ారిత	-3529
▁దీన్ని	-3530
▁భూభాగ	-3531
▁ప్రణాళిక	-3532
▁యూనియన్	-3533
all	-3534
యము	-3535
్యో	-3536
▁నల్	-3537
▁తీర	-3538
▁వెల్	-3539
90	-3540
est	-3541
▁తప	-3542
విగా	-3543
చ్చిన	-3544
▁మ్యూ	-3545
▁విడుదలైన	-3546
టివ్	-3547
దుల	-3548
▁అంతేకా	-3549
▁చెందు	-3550
▁రాష్ట్రంలో	-3551
▁ఎదుర్కొ	-3552
▁నమూ	-3553
▁దశా	-3554
▁త్వ	-3555
నారాయణ	-3556
▁రచించిన	-3557
▁నర్	-3558
ష్యా	-3559
పులు	-3560
▁సృష్టించ	-3561
▁పాడే	-3562
శ్మీ	-3563
▁గూ	-3564
▁నిర్మించారు	-3565
కోట	-3566
▁తరచుగా	-3567
▁కింగ్	-3568
▁పంజా	-3569
సాహ	-3570
▁కొనసాగ	-3571
పోయారు	-3572
పోవడం	-3573
రించాడు	-3574
▁అంశాల	-3575
▁త్ర	-3576
విత్ర	-3577
బే	-3578
రాజ్య	-3579
▁వైద్యశాలలో	-3580
▁జాన్	-3581
▁గుర్తు	-3582
▁ప్రారంభించారు	-3583
ర్ట్	-3584
వులకు	-3585
బొ	-3586
▁వంటివి	-3587
ారో	-3588
పాటి	-3589
▁లకు	-3590
▁వన	-3591
వేశం	-3592
రియన్	-3593
▁2000	-3594
శ్రీ	-3595
▁సంయుక్త	-3596
▁క్రింది	-3597
▁ప్రెస్	-3598
శ్లేష	-3599
res	-3600
▁భాషలో	-3601
వాన్	-3602
▁ముని	-3603
▁బయట	-3604
▁కూర	-3605
బ్రహ్మ	-3606
▁ఎయిర్	-3607
ార్క్	-3608
ారణ	-3609
▁ధ్వ	-3610
▁క్రీడా	-3611
▁రికార్డు	-3612
▁వదిలి	-3613
▁కంప్యూటర్	-3614
▁సినిమాలో	-3615
▁చై	-3616
ేఖ	-3617
▁సమయం	-3618
దైన	-3619
▁వెలు	-3620
ట్లుగా	-3621
▁ఇంద్ర	-3622
్రాన్ని	-3623
ద్భు	-3624
▁అయినా	-3625
▁నియంత్రణ	-3626
మాను	-3627
▁మార్గం	-3628
▁జపాన్	-3629
▁భావిస్తున్నారు	-3630
▁చట్టం	-3631
▁స్క	-3632
కారుడు	-3633
▁వేంకట	-3634
▁తక్కువగా	-3635
▁కెన	-3636
▁ప్రమాణ	-3637
▁నిజామా	-3638
▁భో	-3639
▁ఉపగ్రహ	-3640
ht	-3641
▁ద్వి	-3642
▁పాండ	-3643
▁అలం	-3644
▁ప్రభావి	-3645
▁ఇటీ	-3646
▁బ్లా	-3647
▁r	-3648
▁నల్గొండ	-3649
▁కాయ	-3650
▁అందరి	-3651
ఫ్ట్	-3652
ల్వ	-3653
▁రావు	-3654
▁హౌ	-3655
ట్యూ	-3656
ముతో	-3657
▁మృ	-3658
▁యే	-3659
లిన్	-3660
▁వాస్తవ	-3661
▁he	-3662
▁సంస్కృతి	-3663
మండ	-3664
▁సన్ని	-3665
▁వివర	-3666
▁నిర్మించ	-3667
లియ	-3668
బియా	-3669
లూరు	-3670
▁అంశ	-3671
▁{	-3672
శక్తి	-3673
▁శైలి	-3674
▁భక్తులు	-3675
▁at	-3676
▁యి	-3677
▁అనుసరించి	-3678
▁ఆనంద	-3679
▁సామ్రాజ్యం	-3680
్రామిక	-3681
▁వున్నవి	-3682
▁చుట్టు	-3683
▁కనిపిస్తుంది	-3684
గర్భ	-3685
▁అప్పు	-3686
▁చిత్రా	-3687
రిత	-3688
వంతు	-3689
▁de	-3690
దిన	-3691
యుడు	-3692
▁అందించ	-3693
▁పంచాయ	-3694
▁పసుపు	-3695
యమైన	-3696
▁చని	-3697
▁అనంతరం	-3698
▁యుద్ధంలో	-3699
▁యో	-3700
▁నెహ	-3701
▁కర్ణాటక	-3702
▁పోలీసు	-3703
లింగ	-3704
▁ద్రా	-3705
▁రోజులు	-3706
▁చెందింది	-3707
▁జర్మనీ	-3708
▁దీనిలో	-3709
మాన్ని	-3710
రాడు	-3711
కింగ్	-3712
▁శాస్త్రీయ	-3713
▁చక్రవర్తి	-3714
▁ప్రస్తా	-3715
▁దూ	-3716
▁దంప	-3717
ద్వారా	-3718
▁70	-3719
▁చేస్తున్న	-3720
▁కై	-3721
▁34	-3722
▁పేజీ	-3723
దారులు	-3724
▁సగటు	-3725
▁మళ్ళ	-3726
చంద్ర	-3727
జూ	-3728
ant	-3729
▁ఆమో	-3730
▁ఉంటు	-3731
▁రష్యా	-3732
▁ప్రభావ	-3733
▁తెలుగులో	-3734
బుల్	-3735
▁కేంద్రంగా	-3736
▁పద్మ	-3737
▁విక్ర	-3738
▁ఎవర	-3739
▁శ్రీకృష్ణ	-3740
ేశ్వరరావు	-3741
▁was	-3742
మ్మద్	-3743
లింగ్	-3744
మస్	-3745
యుట	-3746
▁మనం	-3747
▁హనుమ	-3748
▁ప్రమాద	-3749
▁స్వీకరించ	-3750
▁అసలు	-3751
▁are	-3752
▁ఖండ	-3753
▁తరువాతి	-3754
▁వ్యాసాలు	-3755
70	-3756
తాలు	-3757
ీయెస్	-3758
స్కో	-3759
▁మధు	-3760
▁from	-3761
▁బుద్ధ	-3762
▁బంగారు	-3763
▁వారిలో	-3764
టమి	-3765
33	-3766
న్నే	-3767
▁భక్తి	-3768
▁స్పె	-3769
బీబ	-3770
▁గిరి	-3771
గంలో	-3772
హాలు	-3773
▁చిత్రంలో	-3774
▁సార్లు	-3775
▁వ్రాసిన	-3776
▁సంఖ్యలో	-3777
బీబీయెస్	-3778
గడ	-3779
▁గవర్	-3780
▁పవిత్ర	-3781
ానని	-3782
▁గురువు	-3783
▁క్షేత్ర	-3784
▁సాయ	-3785
▁కలసి	-3786
మర్	-3787
ల్లం	-3788
లలోను	-3789
▁ఎమ్బీబీయెస్	-3790
దర్శి	-3791
నియన్	-3792
▁చేర్చ	-3793
శాస్త్రి	-3794
ండ్లు	-3795
▁వాయి	-3796
▁ఉత్తరా	-3797
▁దర్శకత్వం	-3798
ణుడు	-3799
ాలనే	-3800
▁చదివిన	-3801
▁ప్రఖ్యా	-3802
యాత్ర	-3803
▁ద్వార	-3804
ాల్సి	-3805
జో	-3806
చర్	-3807
▁యంత్ర	-3808
కవి	-3809
చ్చే	-3810
భద్ర	-3811
శాడు	-3812
▁పరిచయం	-3813
▁కథలు	-3814
▁మొదలగు	-3815
మ్మా	-3816
▁ఉద్	-3817
ఠా	-3818
ain	-3819
▁గుర	-3820
▁క్రిక	-3821
రించింది	-3822
▁అన్	-3823
▁సైని	-3824
ich	-3825
▁నెహ్రూ	-3826
▁ఆకు	-3827
కరమైన	-3828
▁ప్రత్యక్ష	-3829
▁దీర్ఘ	-3830
▁నవంబరు	-3831
▁చిహ్	-3832
▁ప్రాణ	-3833
భావ	-3834
బద్ధ	-3835
▁ఫు	-3836
ud	-3837
కినాడ	-3838
▁శ్రీకాకుళం	-3839
▁ప్రదేశాల	-3840
సాడు	-3841
▁ఎనిమి	-3842
▁స్థల	-3843
ించేందుకు	-3844
▁ఒప్పందం	-3845
▁పొర	-3846
▁సుబ్బ	-3847
▁తగ్గి	-3848
▁ప్రయో	-3849
▁దుర్	-3850
జ్రా	-3851
▁చేయబడిన	-3852
▁మధ్యలో	-3853
▁ex	-3854
సైడ్	-3855
▁ముంబ	-3856
tp	-3857
తలను	-3858
న్యూ	-3859
▁కాకినాడ	-3860
34	-3861
▁కాన	-3862
▁పారిశ	-3863
▁చిత్రాలు	-3864
▁వయస్సు	-3865
తుందని	-3866
▁వేసవి	-3867
▁రాక	-3868
▁జారీ	-3869
సాల	-3870
వని	-3871
▁అర్బన్	-3872
▁ఇచ్చిన	-3873
టిన్	-3874
▁పరా	-3875
▁భారత్	-3876
▁భాగంలో	-3877
oc	-3878
హిత	-3879
▁జిల్లాలోని	-3880
▁పొందారు	-3881
▁బస్సులుప్రైవేటు	-3882
ఫిక్	-3883
▁చర్చి	-3884
దూ	-3885
▁1990	-3886
▁కర్మ	-3887
వస్థ	-3888
▁చెప్పవచ్చు	-3889
కోవచ్చు	-3890
దాని	-3891
▁జీవన	-3892
▁నేపథ	-3893
ర్యంలో	-3894
సముద్ర	-3895
se	-3896
▁సామర్థ	-3897
ధన	-3898
69	-3899
దరి	-3900
▁ఆప	-3901
ity	-3902
▁అవసరమైన	-3903
ary	-3904
▁హే	-3905
▁నీవు	-3906
హన	-3907
▁శీ	-3908
▁చివర	-3909
▁రోజుల	-3910
డర్	-3911
▁వో	-3912
ానిస	-3913
▁అద్భు	-3914
▁కాశ్మీ	-3915
▁జీవితం	-3916
క్షే	-3917
▁విష్ణు	-3918
డాన్ని	-3919
▁లభించింది	-3920
ాయల	-3921
▁జన్మించారు	-3922
్రిక్	-3923
▁లక్ష్మ	-3924
▁అవుతుంది	-3925
భం	-3926
▁పదవి	-3927
▁నేల	-3928
▁స్టా	-3929
జ్జ	-3930
▁38	-3931
లాన్ని	-3932
▁ప్రాము	-3933
▁ప్రాంతాలు	-3934
ునిగా	-3935
▁దేవాలయం	-3936
ంక్	-3937
డెన్	-3938
▁జరగ	-3939
▁ఇట	-3940
▁ఉండాలి	-3941
▁31	-3942
▁ప్రకృతి	-3943
▁కొను	-3944
▁బ్	-3945
కునే	-3946
▁చల్ల	-3947
▁పట్టణం	-3948
▁నాకు	-3949
▁నీటిని	-3950
▁లక్షల	-3951
▁సర్వీసు	-3952
ండన్	-3953
tion	-3954
▁గీత	-3955
▁వయసు	-3956
▁దక్షిణా	-3957
లర్	-3958
▁క్రో	-3959
చాడు	-3960
▁పిల్లలు	-3961
▁189	-3962
▁సుల్	-3963
▁బానిస	-3964
▁అంగీకరించ	-3965
ర్యం	-3966
▁సమాన	-3967
త్రు	-3968
సెస్	-3969
▁కమిటీ	-3970
▁ఆమెను	-3971
▁వ్రాయ	-3972
▁ధర	-3973
▁చరిత్రలో	-3974
గార	-3975
గురు	-3976
▁కోరిక	-3977
▁నృత్య	-3978
▁విషయంలో	-3979
▁se	-3980
వాగు	-3981
▁ఎర్ర	-3982
▁నెట్	-3983
▁మనిషి	-3984
▁ముందుగా	-3985
ars	-3986
▁పల్లె	-3987
పోయాడు	-3988
▁పరిగణ	-3989
▁ఉపాధ్య	-3990
పడిన	-3991
▁అన్నది	-3992
కోసం	-3993
త్వాన్ని	-3994
రేషన్	-3995
▁పరిష్	-3996
నిర్	-3997
▁పచ్చ	-3998
▁సాంఘ	-3999
పరంగా	-4000
▁రచనలు	-4001
పర్తి	-4002
▁కనీ	-4003
▁pro	-4004
▁విజయనగరం	-4005
▁స్త్రీలు	-4006
▁సాధించింది	-4007
ట్ర	-4008
▁సల	-4009
▁నియోజకవర్గం	-4010
▁చౌ	-4011
▁ప్లే	-4012
▁సైన్యం	-4013
▁ఆదిలాబాద్	-4014
వుగా	-4015
్యము	-4016
▁అకా	-4017
▁రాక్ష	-4018
▁లాల్	-4019
▁గణి	-4020
▁కొంతమంది	-4021
▁ఆస్ట్రేలియా	-4022
▁అమరా	-4023
▁నిషే	-4024
55	-4025
▁సోవి	-4026
▁ప్రాంతాల్లో	-4027
▁వరంగల్	-4028
ప్పుడూ	-4029
▁ప్రత్యేకంగా	-4030
▁కార్యకలా	-4031
▁రొ	-4032
▁పోరాట	-4033
▁అగ్ర	-4034
▁విమానా	-4035
▁దర్శకుడు	-4036
▁వచ్చు	-4037
▁నిజాం	-4038
▁ప్రార్థ	-4039
▁ఉపయోగించి	-4040
ించబడుతుంది	-4041
▁శ్ర	-4042
▁పనిచేశాడు	-4043
▁మిన	-4044
▁వ్యాసం	-4045
▁ప్రాజెక్టు	-4046
దయ	-4047
ళన	-4048
▁పాడేరు	-4049
▁బృంద	-4050
▁ఛా	-4051
▁కలుపు	-4052
గూడెం	-4053
▁విమానాశ్ర	-4054
బడ్డాడు	-4055
▁ప్రాధాన్య	-4056
ాలంటే	-4057
▁చేపట్ట	-4058
వనం	-4059
▁గ్రూ	-4060
▁విజ్ఞాన	-4061
end	-4062
▁తది	-4063
▁పొందాడు	-4064
▁మ్యూజి	-4065
ess	-4066
▁వెళ్లి	-4067
▁తై	-4068
▁ఫోర్	-4069
▁ఆక	-4070
▁39	-4071
టిల్	-4072
పాల్	-4073
▁రిపబ్లిక్	-4074
ధిప	-4075
▁పునర్	-4076
వును	-4077
▁భర్త	-4078
▁ద్రవ్య	-4079
ంబి	-4080
▁అబ్	-4081
▁పన్ను	-4082
▁గాను	-4083
▁ఏర్పడింది	-4084
▁దెబ్బ	-4085
▁పూర్వం	-4086
▁ముఖ్యమంత్రి	-4087
▁విప	-4088
మిక్	-4089
▁అక్	-4090
▁ట్ర	-4091
ాయిక	-4092
▁ఉండేవి	-4093
▁దూరములో	-4094
▁అంతా	-4095
▁బదులు	-4096
▁సిం	-4097
▁చెరకు	-4098
▁స్టేట్స్	-4099
ట్రా	-4100
సమీప	-4101
▁తిన	-4102
▁సాధించిన	-4103
వైన	-4104
కూర్	-4105
రుని	-4106
▁ఆరా	-4107
▁అక్కడి	-4108
▁కర	-4109
▁చొ	-4110
▁90	-4111
▁భూగర్భ	-4112
▁ఆశ	-4113
డల్	-4114
▁స్వే	-4115
▁ప్రాంతాన్ని	-4116
▁భావన	-4117
▁గతంలో	-4118
▁విత్త	-4119
డము	-4120
▁సుల	-4121
న్లు	-4122
▁తెలుసుకు	-4123
▁గుండె	-4124
▁నెలకొ	-4125
▁ఇలాంటి	-4126
▁చార్	-4127
▁నిర్వహించిన	-4128
ీలు	-4129
ంటె	-4130
▁which	-4131
▁అందువలన	-4132
▁ప్రాంతీయ	-4133
▁ar	-4134
▁అఫ్	-4135
▁చెన్నై	-4136
▁1980	-4137
▁అతడి	-4138
▁బోర్	-4139
▁సాంఘిక	-4140
▁నటుడు	-4141
షనల్	-4142
▁ప్రసార	-4143
▁పుట్టిన	-4144
▁ఫీ	-4145
▁su	-4146
▁నవా	-4147
▁తయార	-4148
ov	-4149
▁పాలు	-4150
▁ఉందని	-4151
▁ఒప్పంద	-4152
చేసిన	-4153
పడింది	-4154
▁ఆలయంలో	-4155
▁మూర్	-4156
▁ఖమ్మం	-4157
▁వస్త్ర	-4158
దృ	-4159
▁వేడి	-4160
లంక	-4161
ర్చుగ	-4162
▁ప్రోత్స	-4163
వులలో	-4164
▁గార్	-4165
సార	-4166
▁ఇతను	-4167
బల	-4168
▁ఆమెకు	-4169
▁దాన్ని	-4170
ెట్లు	-4171
▁ఉండగా	-4172
▁ఏరియా	-4173
▁ఫర్	-4174
రించు	-4175
చ్చుకు	-4176
లని	-4177
▁కొడుకు	-4178
▁క్రికెట్	-4179
▁అద్ద	-4180
▁ప్రకటన	-4181
ies	-4182
85	-4183
కూడ	-4184
▁అధ్యక్షుడు	-4185
పారు	-4186
▁గ్రామంలోఒక	-4187
ip	-4188
▁పనిచేశారు	-4189
▁లండన్	-4190
రక్ష	-4191
▁మాన్	-4192
▁రకాలు	-4193
▁కాన్	-4194
ించేవారు	-4195
▁లోహ	-4196
▁పేర్లు	-4197
ంద్రా	-4198
▁మీటర్ల	-4199
నిషత్తు	-4200
▁పాలి	-4201
▁పురస్కార	-4202
నను	-4203
▁అధ్యయనం	-4204
▁సూత్ర	-4205
▁విశాఖపట్న	-4206
▁స్కా	-4207
▁పోర్చుగ	-4208
స్తులు	-4209
▁ఆమ్ల	-4210
▁పుట్టి	-4211
ములకు	-4212
పాలి	-4213
మయిన	-4214
▁స్వంత	-4215
▁ఉన్నా	-4216
▁ఇస్లాం	-4217
్యాన	-4218
థా	-4219
▁శుభ	-4220
▁ఎవరి	-4221
▁నివేదిక	-4222
▁తెలియజే	-4223
వేరు	-4224
rict	-4225
45	-4226
ment	-4227
▁శబ్ద	-4228
▁చివరకు	-4229
age	-4230
▁కాలి	-4231
▁కలిగివు	-4232
ల్లోనూ	-4233
పిస్తుంది	-4234
జీవి	-4235
▁కడప	-4236
▁దండ	-4237
▁రూపొందించ	-4238
▁టర్	-4239
▁పుట్ట	-4240
▁దారితీ	-4241
▁పారిశ్రామిక	-4242
▁భయ	-4243
▁సల్	-4244
▁పాప	-4245
▁జైలు	-4246
og	-4247
▁ధా	-4248
▁వాతావరణం	-4249
▁రాజీ	-4250
▁విస్తృ	-4251
▁జం	-4252
▁అమరావతి	-4253
▁అభ్యర్థి	-4254
▁ఇండియన్	-4255
▁ఫ్రెంచ్	-4256
▁నివా	-4257
దశ	-4258
▁పరిశీలి	-4259
▁బర్	-4260
▁y	-4261
యింట్	-4262
ాల్సిన	-4263
▁ఇంగ్లీషు	-4264
వార్	-4265
ష్టంగా	-4266
ెదరు	-4267
▁ఉండవచ్చు	-4268
▁సారి	-4269
▁సమాచార	-4270
▁2012	-4271
వత	-4272
ూరులోను	-4273
▁ఒకటిగా	-4274
▁మతం	-4275
▁కీలక	-4276
▁శాస్త్రం	-4277
్యాత్	-4278
▁చేతి	-4279
▁బరువు	-4280
కొనే	-4281
▁ఇజ్రా	-4282
సంఖ్య	-4283
▁అర్ధం	-4284
ine	-4285
▁భీమ	-4286
డుతూ	-4287
▁చేతిలో	-4288
▁సంబంధిత	-4289
▁ఆలోచన	-4290
▁మిత్ర	-4291
▁నరసింహ	-4292
▁క్లో	-4293
▁°	-4294
మాల	-4295
పోయే	-4296
istrict	-4297
▁పులి	-4298
▁మార్పులు	-4299
▁మ్యాచ్	-4300
▁క్రొ	-4301
ైక	-4302
ంగ్రామ	-4303
▁ప్రథ	-4304
▁వీలు	-4305
▁కనిపించే	-4306
గవ	-4307
▁భిన్న	-4308
పోతుంది	-4309
మానం	-4310
▁గంగా	-4311
▁కార్యక్రమాలు	-4312
47	-4313
ళ్ళలో	-4314
▁సెంట	-4315
▁ఫె	-4316
▁హెచ్	-4317
▁పరిమాణ	-4318
our	-4319
సుడు	-4320
▁లూ	-4321
▁ఇంధ	-4322
▁జార్	-4323
48	-4324
క్ష్య	-4325
▁దేవి	-4326
▁మామిడి	-4327
వరంలో	-4328
దైనా	-4329
▁వినియోగదారు	-4330
ెక్కి	-4331
▁అంగీ	-4332
▁తప్పు	-4333
▁సేవలు	-4334
బడుతున్న	-4335
హరి	-4336
వలస	-4337
▁ఫై	-4338
▁రంగంలో	-4339
▁ఎఫ్	-4340
▁యజ్ఞ	-4341
▁వరల్డ్	-4342
67	-4343
క్రో	-4344
▁దీప	-4345
ారిటీ	-4346
▁పురస్కారం	-4347
సిద్ధ	-4348
▁ఆధ్వ	-4349
ప్రాథమిక	-4350
43	-4351
▁గీ	-4352
▁కోర్టు	-4353
▁మంద	-4354
▁మనకు	-4355
సుల	-4356
▁సర్ప	-4357
▁లోక	-4358
▁డిస్	-4359
▁గ్రామీణ	-4360
▁మళ్ళీ	-4361
▁అందుకే	-4362
▁మూస	-4363
art	-4364
▁సామె	-4365
▁వుండ	-4366
▁నిజామాబాద్	-4367
చీ	-4368
ంకు	-4369
ంబా	-4370
బడ్డారు	-4371
57	-4372
▁కన్	-4373
▁ప్రైవే	-4374
▁అడవి	-4375
▁సోవియట్	-4376
మహ	-4377
యేషన్	-4378
▁లోక్	-4379
▁అవకాశ	-4380
▁చూసిన	-4381
పల్లెలో	-4382
▁మాస	-4383
▁సమి	-4384
▁ప్రాముఖ్య	-4385
▁జరిగాయి	-4386
▁జనరల్	-4387
▁రథ	-4388
▁గోడ	-4389
▁పంచాయతీ	-4390
▁మాజీ	-4391
▁రౌ	-4392
▁కుటుంబం	-4393
▁గుర్ర	-4394
మవుతుంది	-4395
▁పలక	-4396
▁సంఘటన	-4397
వరు	-4398
▁పాద	-4399
▁సీతారా	-4400
▁నిరోధ	-4401
▁మరికొ	-4402
దండ్ర	-4403
▁వచ్చాయి	-4404
్రానికి	-4405
▁దేశాలు	-4406
మణి	-4407
▁షే	-4408
స్థల	-4409
▁స్థితి	-4410
▁తీసుకుని	-4411
▁దర్శకత్వంలో	-4412
్యాండ్	-4413
▁లతో	-4414
▁స్న	-4415
కొన	-4416
నేయ	-4417
ణము	-4418
▁మెక్	-4419
▁నిర్మి	-4420
▁చంద	-4421
▁తోట	-4422
▁ప్రశం	-4423
▁ప్రవక్త	-4424
ంపియన్	-4425
▁వీరికి	-4426
▁అలీ	-4427
▁ఉపయోగించే	-4428
ణంలో	-4429
▁బయలు	-4430
▁థి	-4431
▁అధికారిక	-4432
▁ప్రచార	-4433
వల్	-4434
▁శత	-4435
▁నిష్	-4436
▁వేసి	-4437
▁స్నేహి	-4438
ిల్లు	-4439
▁స్వాతంత్ర్య	-4440
మైనవి	-4441
▁తాలూ	-4442
గతా	-4443
▁3,	-4444
యాన్	-4445
▁ఆకర్ష	-4446
▁విరా	-4447
▁అంబ	-4448
▁యోగ	-4449
▁సమావేశ	-4450
ినా	-4451
▁రాజ్యం	-4452
▁దశాబ్ద	-4453
49	-4454
ధ్యం	-4455
▁శతాబ్	-4456
▁విశ్లేష	-4457
▁మంగళ	-4458
త్న	-4459
▁కూడ	-4460
▁ప్రోగ	-4461
్యాత్మిక	-4462
టరు	-4463
▁ప్రవాహ	-4464
▁వృద్ధి	-4465
దాన	-4466
ఖ్	-4467
▁వుండును	-4468
▁1970	-4469
ట్నం	-4470
▁కంది	-4471
▁హృ	-4472
▁this	-4473
▁ప్రవేశపెట్ట	-4474
ound	-4475
▁సొంత	-4476
▁పుణ్య	-4477
▁ఆయా	-4478
▁సిటీ	-4479
▁ప్రతిని	-4480
యితే	-4481
▁విన	-4482
▁కొనసాగు	-4483
రంగా	-4484
▁ఎత్త	-4485
▁టో	-4486
▁పిలవ	-4487
నుగు	-4488
▁వాద	-4489
▁సంకే	-4490
కరణం	-4491
ort	-4492
▁పరిస్థితి	-4493
▁వ్యక్తిగత	-4494
▁తల్లిదండ్ర	-4495
▁నిల్వ	-4496
▁పొట్టి	-4497
46	-4498
వన్	-4499
▁శిఖ	-4500
సింగ్	-4501
▁ఆయుధ	-4502
▁పరుగు	-4503
▁ఆకాశ	-4504
▁స్కూల్	-4505
▁కీర్తి	-4506
▁గోల్	-4507
▁పనులు	-4508
▁sh	-4509
▁అనంతపురం	-4510
ద్యమ	-4511
▁సంస్కరణ	-4512
మత	-4513
▁అనుబంధ	-4514
▁విద్యుత్తు	-4515
▁ప్రారంభంలో	-4516
▁సాధించ	-4517
ంటో	-4518
▁తమిళనాడు	-4519
▁పాడ	-4520
ర్పు	-4521
▁చోటు	-4522
▁పరిణా	-4523
గోళ	-4524
ల్య	-4525
▁బూ	-4526
ంబంధ	-4527
▁వంత	-4528
▁దశలో	-4529
▁తెలిసిన	-4530
▁ఎటువంటి	-4531
ఫో	-4532
కోవాలి	-4533
▁శృ	-4534
▁రహ	-4535
▁2003	-4536
భారత	-4537
▁నటించిన	-4538
పక్ష	-4539
▁ఎల్ల	-4540
-2	-4541
▁తార	-4542
▁సుల్తా	-4543
రిస్తారు	-4544
సిటీ	-4545
▁లక్ష్య	-4546
ుడిగా	-4547
▁తరగతి	-4548
▁మానసిక	-4549
శేఖ	-4550
పాడులో	-4551
▁us	-4552
ాయితీ	-4553
▁వేదిక	-4554
▁నాయకుడు	-4555
▁అడి	-4556
▁వాల్	-4557
ట్యూట్	-4558
▁వహి	-4559
▁సత్	-4560
▁ప్రేక్ష	-4561
▁ప్రక్క	-4562
గోలు	-4563
▁ఇచ్చారు	-4564
▁వెబ్	-4565
▁స్వేచ్ఛ	-4566
▁In	-4567
||	-4568
▁గానీ	-4569
▁పార్వ	-4570
▁పొడి	-4571
▁ఉద్యో	-4572
పేరు	-4573
్రల్	-4574
▁కట్టు	-4575
డుపు	-4576
▁పరిధిలోకి	-4577
ైంది	-4578
▁సరైన	-4579
▁విద్యార్థులు	-4580
▁ప్రదేశం	-4581
▁పుస్తకం	-4582
▁తత్వ	-4583
▁మైస	-4584
▁ఇచ్చి	-4585
▁వైశాల	-4586
గృ	-4587
కాలలో	-4588
▁జానపద	-4589
▁సెంటర్	-4590
▁ఏకా	-4591
▁వెలి	-4592
▁చెప్పి	-4593
▁బ్రిటన్	-4594
పాత్ర	-4595
▁మిరప	-4596
▁కన్నడ	-4597
▁కళాశాలలో	-4598
▁ఫార్	-4599
స్థానం	-4600
▁శ్రీని	-4601
▁ఉన్నప్పటికీ	-4602
ish	-4603
జరా	-4604
▁వచ్చారు	-4605
▁పర్యావరణ	-4606
▁55	-4607
▁భారతీ	-4608
స్తున్నది	-4609
▁75	-4610
▁పరిసర	-4611
▁సమ్మే	-4612
కుంటారు	-4613
▁సన్	-4614
రళ	-4615
స్స	-4616
ాలున్నాయి	-4617
▁కార్యదర్శి	-4618
ిల్లి	-4619
థ్	-4620
▁ఏర్పడ	-4621
▁అడుగుల	-4622
▁గర్	-4623
▁ఖర్చు	-4624
▁రోజున	-4625
▁విల	-4626
▁పాఠశాలలో	-4627
▁వికారా	-4628
▁బార్	-4629
▁తొమ్మి	-4630
గమ	-4631
▁బెంగాల్	-4632
63	-4633
హన్	-4634
▁కూతు	-4635
▁నాశ	-4636
▁గణనీ	-4637
రాష్ట్ర	-4638
▁ఖు	-4639
▁పరిమా	-4640
▁డివిజన్	-4641
▁క్రైస్తవ	-4642
పాతం	-4643
దగిన	-4644
▁పులు	-4645
▁ముక్క	-4646
▁గట్టి	-4647
▁శక్తిని	-4648
65	-4649
▁క్రమంగా	-4650
▁రాష్ట్రంలోని	-4651
▁రాజ్	-4652
▁రాజ్యాంగ	-4653
లియం	-4654
▁ఒకరి	-4655
▁వ్యవహార	-4656
▁తిరుమల	-4657
▁ఇటువంటి	-4658
▁డాల	-4659
▁వీడియో	-4660
▁హీరో	-4661
▁పదార్థం	-4662
▁పాత్రలు	-4663
ండీ	-4664
ఘు	-4665
విధంగా	-4666
కరించింది	-4667
▁ధర్మరాజు	-4668
ించబడ్డాయి	-4669
▁సమర్ప	-4670
▁వద్దకు	-4671
▁మును	-4672
▁చెక్క	-4673
▁ప్రాచు	-4674
▁మిశ్రమ	-4675
▁ద్రవ	-4676
▁వీరిలో	-4677
▁ప్రైవేట్	-4678
మ్మడి	-4679
99	-4680
▁US	-4681
▁ఆమోద	-4682
▁కెనడా	-4683
▁తను	-4684
కున్నారు	-4685
77	-4686
▁లీగ్	-4687
▁సంపద	-4688
▁ఆమ్లం	-4689
▁స్వయంగా	-4690
▁విడిచి	-4691
▁ఫ్	-4692
▁శాస్త్రి	-4693
▁ప్రాంతానికి	-4694
ట్టే	-4695
▁వర్గం	-4696
ang	-4697
▁మాదిరి	-4698
▁ఓడ	-4699
▁బిరు	-4700
▁2014,	-4701
▁కళ్యా	-4702
▁బయటకు	-4703
▁విశి	-4704
ంకి	-4705
▁మల్ల	-4706
▁43	-4707
ంటున్న	-4708
▁భావిస్తారు	-4709
▁కోరు	-4710
▁గజ	-4711
▁గ్	-4712
▁గెలి	-4713
ించటం	-4714
▁వార్షిక	-4715
▁కళాశాలలు	-4716
▁రాజమండ్రి	-4717
▁కారు	-4718
▁స్థా	-4719
ండం	-4720
▁ఎనిమిది	-4721
మయ్యాయి	-4722
▁సంగారెడ్డి	-4723
▁శో	-4724
భిన్న	-4725
ord	-4726
▁ప్రీ	-4727
కళ	-4728
ాలలోనూ	-4729
సాలు	-4730
▁ఊహ	-4731
పోతే	-4732
ర్యా	-4733
జిప్	-4734
ans	-4735
నిగా	-4736
ులుగా	-4737
▁భాగస్వా	-4738
▁యూరోపియన్	-4739
▁ఆధ్వర్యంలో	-4740
ూప	-4741
▁||	-4742
▁తెలుపు	-4743
▁చారిత్రక	-4744
ంచె	-4745
ంసా	-4746
▁శంక	-4747
▁హత్య	-4748
▁ముందుకు	-4749
▁సమాచారం	-4750
▁మరణించాడు	-4751
up	-4752
రాస్య	-4753
బడుతున్నాయి	-4754
▁సుఖ	-4755
▁ఆవిష్	-4756
▁రోజుల్లో	-4757
▁కాం	-4758
▁పురుషులు	-4759
▁సాహిత్యం	-4760
▁ప్రపంచంలోని	-4761
▁ఎన్ను	-4762
▁బాధ్యత	-4763
▁అసా	-4764
▁సంబంధించి	-4765
ుడి	-4766
▁48	-4767
▁ఇబ్బ	-4768
▁డాక్టర్	-4769
▁ప్రాధాన్యత	-4770
నామా	-4771
▁సింధ	-4772
▁ఏదైనా	-4773
▁మిగతా	-4774
▁వెలుప	-4775
హమ్మద్	-4776
▁పద్ధతిలో	-4777
▁ఆధ్యాత్మిక	-4778
▁చేస్తు	-4779
ళ్ళను	-4780
▁32	-4781
ించాలని	-4782
▁ఒకసారి	-4783
ులతో	-4784
పడ్డారు	-4785
▁ఒక్కొక్క	-4786
శై	-4787
▁65	-4788
▁చెరువులు	-4789
నేందుకు	-4790
లక్ష్	-4791
▁కార్యాలయ	-4792
▁సులభ	-4793
ast	-4794
▁అందరూ	-4795
▁ప్రె	-4796
▁పట్టా	-4797
▁నార్వే	-4798
▁చర్మ	-4799
▁విచార	-4800
కుండ	-4801
▁కలుగు	-4802
▁దాన	-4803
▁కావు	-4804
▁2015,	-4805
▁దిగువ	-4806
ఫర్	-4807
ld	-4808
▁తెర	-4809
▁గింజ	-4810
▁విలీ	-4811
▁ఈజిప్	-4812
కునిగా	-4813
▁మిలియన్ల	-4814
డియం	-4815
▁వివరణ	-4816
▁ఉనికి	-4817
▁అష్ట	-4818
హే	-4819
▁Ind	-4820
▁పెంచ	-4821
▁లోనే	-4822
▁ఉద్యమం	-4823
శాస్త్రం	-4824
స్సా	-4825
▁గణిత	-4826
▁మహారాష్ట్ర	-4827
▁నదీ	-4828
ore	-4829
ాడని	-4830
▁కొత్తగా	-4831
▁దుకాణాలు	-4832
లమ	-4833
స్మ	-4834
ష్టి	-4835
▁స్తం	-4836
▁రోమన్	-4837
▁1960	-4838
▁ప్రోత్సహ	-4839
▁ఉన్నప్పుడు	-4840
▁విద్యార్థి	-4841
తుకు	-4842
▁చేసుకుని	-4843
▁ఉంచ	-4844
▁సస్య	-4845
కున్నాడు	-4846
లము	-4847
▁క్షి	-4848
▁కోట్ల	-4849
త్తిడి	-4850
ూర్లో	-4851
▁ఫ్రాన్స్	-4852
▁విస్తార	-4853
గాన	-4854
హ్య	-4855
▁టెలివిజన్	-4856
పాయ	-4857
రీస్	-4858
▁దేవత	-4859
▁పాడేరులోనూ	-4860
శో	-4861
▁47	-4862
రస	-4863
▁శాశ్వ	-4864
▁లక్షణాలు	-4865
44	-4866
▁ఎక్కడ	-4867
▁కార్యక్రమం	-4868
నలో	-4869
ర్టు	-4870
▁బ్రహ్	-4871
▁చైన	-4872
▁ఉప్పు	-4873
▁రామారావు	-4874
▁కొనుగోలు	-4875
ard	-4876
▁చతు	-4877
ated	-4878
▁క్యూ	-4879
▁ప్రచారం	-4880
గింపు	-4881
▁చెప్పారు	-4882
▁తీసుకొని	-4883
నాలి	-4884
▁ఆగ్	-4885
నుము	-4886
▁తుల	-4887
▁పొంది	-4888
▁అలాంటి	-4889
సిస్	-4890
▁భవి	-4891
cl	-4892
▁రద్దు	-4893
▁కావలసిన	-4894
▁తూర్పున	-4895
కాని	-4896
▁వాల	-4897
▁అనకాపల్లి	-4898
ure	-4899
▁not	-4900
▁2002	-4901
▁కట్టి	-4902
రగా	-4903
▁1999	-4904
▁స్వి	-4905
ోత్సవం	-4906
శ్చా	-4907
▁1950	-4908
▁జ్యో	-4909
▁రాతి	-4910
▁దివ్య	-4911
▁సహాయం	-4912
చ్చింది	-4913
పురా	-4914
ఫోర్	-4915
స్ట్ర	-4916
▁వేడు	-4917
గాకు	-4918
ీర్ణ	-4919
▁వెల్ల	-4920
▁వ్యతిరే	-4921
▁pl	-4922
య్యి	-4923
టై	-4924
మైనా	-4925
==	-4926
▁మన్	-4927
▁పాలనలో	-4928
▁సరస్సు	-4929
షియం	-4930
రిక్ష	-4931
▁పిల్లల	-4932
ode	-4933
▁వస్తువు	-4934
య్యే	-4935
▁ఇరు	-4936
▁నటన	-4937
నున్న	-4938
▁జవాహ	-4939
▁క్లి	-4940
ens	-4941
్వి	-4942
▁తాము	-4943
కై	-4944
▁నాగరిక	-4945
▁ఆహారం	-4946
▁ఇజ్రాయిల్	-4947
yle	-4948
▁49	-4949
రము	-4950
68	-4951
▁గుహ	-4952
▁2016	-4953
▁జీవితంలో	-4954
▁కచ్చి	-4955
▁ఉన్నట్లు	-4956
వసర	-4957
▁భీష్	-4958
▁వరుసగా	-4959
▁విధమైన	-4960
▁దేశంలోని	-4961
▁పదార్ధ	-4962
▁వుంటుంది	-4963
▁మంచు	-4964
వడం	-4965
▁అభిప్రాయ	-4966
▁రెండి	-4967
దాసు	-4968
▁ఒడి	-4969
▁పోయ	-4970
చున్న	-4971
మయ్యే	-4972
▁మండలాలు	-4973
▁నాయుడు	-4974
▁పేరును	-4975
▁వెలుగు	-4976
▁యూనివర్	-4977
▁పేర	-4978
▁ఆలోచ	-4979
▁విభిన్న	-4980
▁క్రీస్తు	-4981
▁ఊరి	-4982
▁నిండి	-4983
▁ఆస్	-4984
▁నాటు	-4985
▁ఫిల్	-4986
▁రాణి	-4987
▁తేదీన	-4988
▁సూచిస్తుంది	-4989
పేటలోను	-4990
▁హాజ	-4991
▁అకాడ	-4992
▁నిపుణ	-4993
నేని	-4994
▁సంభ	-4995
▁గెలుచుకు	-4996
▁కవ	-4997
▁పైకి	-4998
▁స్టేట్	-4999
▁తగ్గు	-5000
▁నటించారు	-5001
▁పర్	-5002
హీన	-5003
▁రాష్ట	-5004
▁వెళ్ల	-5005
▁ముడి	-5006
శాన్ని	-5007
రిక్	-5008
ేశారు	-5009
▁అందిస్తుంది	-5010
}}	-5011
▁మళ్	-5012
క్కా	-5013
▁తీయ	-5014
▁ఆవ	-5015
ive	-5016
టూరు	-5017
▁గ్రీకు	-5018
తులతో	-5019
▁నేటి	-5020
లాది	-5021
▁ప్రయోజన	-5022
▁చాలామంది	-5023
▁శ్రీరాములు	-5024
▁మాట్లాడ	-5025
▁ఎన్నికైన	-5026
▁కాశీ	-5027
▁సీజన్	-5028
▁తీవ్రమైన	-5029
క్సీ	-5030
▁సెయింట్	-5031
▁కొనసాగింది	-5032
▁పదవీ	-5033
▁మరణం	-5034
▁శిలా	-5035
▁భవిష్య	-5036
▁విగ్రహం	-5037
▁భద్రా	-5038
▁చివరికి	-5039
▁ప్రభావితం	-5040
రమణ	-5041
బ్బి	-5042
▁కనీసం	-5043
▁సాధ్య	-5044
▁ప్రారంభించాడు	-5045
దె	-5046
▁ప్రథమ	-5047
పాలెంలో	-5048
▁వేగంగా	-5049
▁చేస్తాయి	-5050
రాయ	-5051
▁అడ్	-5052
▁హౌస్	-5053
▁ఇచ్చే	-5054
▁పుష్ప	-5055
ంచిగా	-5056
▁తరచూ	-5057
▁నమూనా	-5058
▁వాడుకలో	-5059
▁అట	-5060
▁చలి	-5061
▁చూపు	-5062
▁గుజరా	-5063
83	-5064
యోధ	-5065
సంబంధ	-5066
▁ఉత్తర్	-5067
ళూరు	-5068
▁నీకు	-5069
▁శృంగ	-5070
కానికి	-5071
▁సంతో	-5072
▁హైడ్రో	-5073
▁పేద	-5074
పూర్వ	-5075
గలు	-5076
▁మెరుగు	-5077
▁సినిమాలు	-5078
▁నష్ట	-5079
కన	-5080
▁డ్ర	-5081
▁ఆర్మే	-5082
▁విద్యు	-5083
సుక	-5084
ధికార	-5085
▁కథా	-5086
▁సాధించాడు	-5087
▁చెప్	-5088
▁ప్రొఫె	-5089
నూరు	-5090
ార్డ్	-5091
▁సలహా	-5092
▁ప్రత్యేకమైన	-5093
మను	-5094
స్క	-5095
▁గుణ	-5096
▁ఫ్లో	-5097
ద్రమ	-5098
వెల్	-5099
▁సెంట్రల్	-5100
ఫై	-5101
▁రేఖ	-5102
▁సోద	-5103
▁రాజులు	-5104
▁వాటికి	-5105
పురంలోను	-5106
87	-5107
▁కేరళ	-5108
ంద్	-5109
▁ఎలక్ట్రా	-5110
▁బహుమతి	-5111
▁కాలువలు	-5112
▁కఠ	-5113
▁ఆదేశ	-5114
▁శిష్య	-5115
▁పెట్టారు	-5116
▁కత	-5117
▁పీఠ	-5118
▁వెన	-5119
చేత	-5120
రత	-5121
జను	-5122
▁క్రా	-5123
పర్వ	-5124
ధానం	-5125
▁2015	-5126
▁నిలిచింది	-5127
▁అగ	-5128
త్మా	-5129
▁ఉండదు	-5130
ండో	-5131
ధీనం	-5132
▁సస్యరక్షణ	-5133
సనం	-5134
▁మొదలై	-5135
▁కొవ్వు	-5136
పింది	-5137
▁అంతరిక్ష	-5138
▁శిల్ప	-5139
ేశాల	-5140
▁తరగ	-5141
▁కాలేదు	-5142
▁జనాభాలో	-5143
pp	-5144
▁క్లా	-5145
▁నిబంధ	-5146
▁సిద్ద	-5147
▁జవాహర్	-5148
పైన	-5149
ence	-5150
ార్జు	-5151
▁ఇండో	-5152
నాథ్	-5153
▁ఆన్	-5154
▁ఎకర	-5155
▁దేశానికి	-5156
rit	-5157
▁స్మ	-5158
▁ఏకైక	-5159
▁పార్లమెంటు	-5160
▁ఆల్బ	-5161
పాన్ని	-5162
▁రకమైన	-5163
▁మొక్కలు	-5164
గె	-5165
▁బహుళ	-5166
క్లి	-5167
▁అల్ల	-5168
▁రాఘ	-5169
▁పరమాణ	-5170
▁ఇష్ట	-5171
▁అంతకు	-5172
▁బ్రె	-5173
▁సుప్ర	-5174
▁పర్యాటక	-5175
▁సుర	-5176
ాల్ని	-5177
▁అంటూ	-5178
▁ప్రశంస	-5179
▁నగరానికి	-5180
▁లెక్క	-5181
ినే	-5182
▁బెల్	-5183
▁చెంది	-5184
▁వివరి	-5185
▁ప్రజాదరణ	-5186
▁బలమైన	-5187
▁గాన	-5188
ha	-5189
లకి	-5190
▁తిరస్	-5191
▁స్వాధీనం	-5192
కాలిక	-5193
చారాన్ని	-5194
▁ఉత్తరాన	-5195
ell	-5196
▁వారస	-5197
▁జరిగి	-5198
▁నేర్చుకు	-5199
ian	-5200
మలు	-5201
ీపీ	-5202
▁నిర్వచ	-5203
▁సరిహద్దులో	-5204
చేసింది	-5205
▁ప్రాతిని	-5206
▁వేట	-5207
▁పేర్కొన్నారు	-5208
▁పల్ల	-5209
▁పసి	-5210
▁ఆహ్వ	-5211
▁ఫిలిం	-5212
▁విశాల	-5213
▁తరఫు	-5214
గణి	-5215
▁కూరగ	-5216
▁స్వాతంత్ర్యం	-5217
రైడ్	-5218
వద	-5219
వీడు	-5220
▁లేదని	-5221
▁బిలియన్	-5222
▁కిరణ	-5223
▁భూభాగం	-5224
▁రామకృష్ణ	-5225
మంతా	-5226
▁ఆర్ధిక	-5227
▁నీటిలో	-5228
▁వచ్చాడు	-5229
▁ప్రకటించింది	-5230
▁ఒక్కో	-5231
ారంలో	-5232
▁విష్ణువు	-5233
35	-5234
ఘా	-5235
▁ఆచార	-5236
▁ప్రారంభమైంది	-5237
యైన	-5238
▁ఫల	-5239
▁మరా	-5240
కొక	-5241
▁భాషలలో	-5242
▁బెం	-5243
లెస్	-5244
▁సూపర్	-5245
▁అధికారం	-5246
హర్	-5247
▁శాత	-5248
▁నిర్ది	-5249
▁ప్రామా	-5250
▁హాల్	-5251
రిన	-5252
పోయాయి	-5253
▁అనీ	-5254
▁ఉచి	-5255
▁వుండే	-5256
▁ఐక్య	-5257
న్నాను	-5258
▁దైవ	-5259
▁పోల్	-5260
కులుగా	-5261
▁విభాగం	-5262
▁దేవు	-5263
▁శుద్ధ	-5264
▁ఫ్రెంచి	-5265
▁శ్రీలంక	-5266
▁జన్మించిన	-5267
64	-5268
▁కద	-5269
▁నరస	-5270
▁గ్రే	-5271
▁పునరుద్ధ	-5272
▁రైల్వేస్ట	-5273
గోళిక	-5274
▁అధికారులు	-5275
▁కనిపిస్తాయి	-5276
వర్ణ	-5277
▁జనతా	-5278
▁అతనిని	-5279
▁సదు	-5280
కాంత	-5281
్యుల	-5282
▁ప్రచురణ	-5283
▁వ్యతిరేకి	-5284
క్రా	-5285
వాది	-5286
▁వేసిన	-5287
▁దంపతులకు	-5288
మారి	-5289
ంపబడిన	-5290
▁చేసేందుకు	-5291
▁j	-5292
కొన్న	-5293
నేషనల్	-5294
ాల్లోని	-5295
ప్స్	-5296
37	-5297
▁ht	-5298
▁తరంగ	-5299
▁సార్వ	-5300
ఖరి	-5301
▁స్వల్ప	-5302
▁జంట	-5303
నాలజీ	-5304
▁ఫ్యా	-5305
ించాలి	-5306
▁మెదక్	-5307
యొక్క	-5308
రించడం	-5309
▁తరఫున	-5310
▁ముందే	-5311
▁బదులుగా	-5312
▁చలనచిత్ర	-5313
▁ఉదయం	-5314
▁లోపల	-5315
ించటానికి	-5316
▁విప్లవ	-5317
▁శ్రీకాకుళ	-5318
▁సందర్భంలో	-5319
య్యాయి	-5320
▁బ్లాక్	-5321
టాయి	-5322
ట్టం	-5323
ous	-5324
▁మనో	-5325
▁సూర్యా	-5326
కాయ	-5327
▁అసో	-5328
సంప	-5329
▁ch	-5330
▁దాటి	-5331
▁అధికారి	-5332
▁చేయాలని	-5333
▁బయలుదే	-5334
గర	-5335
జ్ర	-5336
▁విషయాలు	-5337
▁చేసుకున్న	-5338
▁ప్రాంతాలకు	-5339
▁తాత్	-5340
▁దూరంగా	-5341
▁సర్పంచిగా	-5342
//	-5343
%,	-5344
▁ప్రతిబి	-5345
▁int	-5346
లాండు	-5347
▁వ్యాసాల	-5348
▁అమెరికాలో	-5349
▁లోయ	-5350
▁మల్	-5351
▁తెనాలి	-5352
టంలో	-5353
▁పెడ	-5354
▁సెక	-5355
▁ముస్లి	-5356
్యత	-5357
నాలను	-5358
▁మీరు	-5359
▁వసతి	-5360
▁పుస్తకాలు	-5361
గము	-5362
▁మైన	-5363
▁ఆశ్రమ	-5364
▁భౌగోళిక	-5365
ర్మన్	-5366
▁ఎక్క	-5367
▁గురి	-5368
పాలక	-5369
▁అంటు	-5370
▁నిషేధ	-5371
సేవ	-5372
▁ఒలి	-5373
▁స్వర	-5374
▁పెంచు	-5375
39	-5376
▁సంతాన	-5377
▁తప్పని	-5378
▁వివరాలు	-5379
ంస్	-5380
▁సమాధి	-5381
మౌ	-5382
▁కౌన్సి	-5383
▁ప్రజలను	-5384
▁పెట్టుబడి	-5385
ందన	-5386
ంసం	-5387
శేష	-5388
గాను	-5389
▁శ్రేణి	-5390
ఖండ	-5391
▁జర్మన్	-5392
▁తపస్సు	-5393
స్తుందని	-5394
కరించారు	-5395
▁విజయనగర	-5396
▁అంతర	-5397
▁ఈశా	-5398
▁పెరిగింది	-5399
▁విధానాన్ని	-5400
▁సంస్థాన	-5401
ట్లను	-5402
▁కొట్ట	-5403
▁పలువు	-5404
▁చేరాడు	-5405
▁స్థాపించారు	-5406
▁150	-5407
▁మనసు	-5408
▁టే	-5409
ప్రతి	-5410
▁కురు	-5411
ాలలోను	-5412
▁రాయి	-5413
▁అటు	-5414
▁మీదుగా	-5415
వలె	-5416
▁అప్పటికే	-5417
89	-5418
▁సాహ	-5419
▁రూపకల్ప	-5420
▁1947	-5421
▁ప్రసాద్	-5422
ace	-5423
స్రా	-5424
▁ఏదో	-5425
▁సన్న	-5426
ug	-5427
▁మొఘ	-5428
▁లభ్య	-5429
▁మహర్షి	-5430
▁మంచిర్య	-5431
▁తెలంగాణా	-5432
యె	-5433
తుంటారు	-5434
▁చేయబడ్డాయి	-5435
▁పార్క్	-5436
▁ప్రారంభించింది	-5437
జాన్	-5438
▁త్రా	-5439
▁విభజన	-5440
▁ధన	-5441
▁బలి	-5442
త్యాన్ని	-5443
గాని	-5444
▁సిరి	-5445
://	-5446
లాస	-5447
▁జైన	-5448
▁జాగ్ర	-5449
▁కాలేజీ	-5450
▁ఉండడం	-5451
▁అదనంగా	-5452
ical	-5453
విక	-5454
▁విషయాన్ని	-5455
▁ఫే	-5456
పార్	-5457
▁స్టార్	-5458
▁తీసిన	-5459
▁అకాడమీ	-5460
▁ప్రకారము	-5461
▁ఒకప్రాథమిక	-5462
సీమ	-5463
▁తేడా	-5464
▁విద్వ	-5465
కలి	-5466
మంత	-5467
▁ప్రయత్నం	-5468
లోయ	-5469
రాశి	-5470
▁పర్యవే	-5471
▁అరే	-5472
▁కావడం	-5473
▁ఉపాధ్యాయ	-5474
భ్యా	-5475
▁సాల	-5476
పిల్ల	-5477
▁పూర్త	-5478
▁తెలుస్తుంది	-5479
సిన్	-5480
ెక్స్	-5481
గుణంగా	-5482
▁హాస్య	-5483
▁నిలు	-5484
షేక	-5485
▁ఫైన	-5486
శ్చాత్య	-5487
గామ	-5488
▁యజ	-5489
▁అరణ	-5490
▁ఏర్పర	-5491
nt	-5492
రేట్	-5493
▁500	-5494
ేషియా	-5495
▁ఆధిప	-5496
▁సత్యనారాయణ	-5497
రును	-5498
▁అచ్చ	-5499
▁తీసి	-5500
చా	-5501
▁గరి	-5502
డింది	-5503
▁అభిప్రాయం	-5504
తుల్లో	-5505
ఁడు	-5506
▁తమ్ము	-5507
▁అన్నీ	-5508
▁సమాఖ్య	-5509
▁కనిపించ	-5510
▁మరణించారు	-5511
▁తీవ్రంగా	-5512
భవన	-5513
మూరు	-5514
▁ఐర్	-5515
▁దాడు	-5516
▁సంభా	-5517
▁జ్యోతి	-5518
▁విద్యను	-5519
▁కుడి	-5520
66	-5521
▁కంట	-5522
▁పంపు	-5523
దొ	-5524
▁ఇంట	-5525
▁అనుసంధాన	-5526
▁కెమె	-5527
ందరూ	-5528
గుంట	-5529
ట్టానికి	-5530
▁1991	-5531
▁కార్మి	-5532
▁శ్లో	-5533
▁తాలూకా	-5534
▁గెలుపొ	-5535
నుంచి	-5536
▁నిలిచి	-5537
▁దొంగ	-5538
▁వందల	-5539
▁పెరుగుద	-5540
▁అత్యధికంగా	-5541
చ్చారు	-5542
▁క్రైస్త	-5543
▁వ్యవసాయా	-5544
డ్ల	-5545
▁దోహద	-5546
▁దీంతో	-5547
▁వాడుక	-5548
▁పొగాకు	-5549
గల్	-5550
▁రకం	-5551
రుద్ధ	-5552
▁ఆరోప	-5553
స్తాను	-5554
dis	-5555
▁అల్లా	-5556
▁జన్యు	-5557
▁తెలుగుదేశం	-5558
▁కొన్నిసార్లు	-5559
▁పత	-5560
▁సుందర	-5561
▁బాబా	-5562
▁డిగ్రీలు	-5563
ial	-5564
ong	-5565
▁తనను	-5566
▁మహిళా	-5567
▁డో	-5568
▁కాంగ్రె	-5569
గాలు	-5570
▁చేసుకున్నారు	-5571
so	-5572
పట్ట	-5573
హార్	-5574
▁నెలల	-5575
▁సర్వే	-5576
▁ఎరువులు	-5577
▁ప్రాముఖ్యత	-5578
▁ఉర్	-5579
క్సైడ్	-5580
భివృద్ధి	-5581
play	-5582
లుడు	-5583
▁మళ్లీ	-5584
code	-5585
కూడా	-5586
నియం	-5587
▁గురించిన	-5588
▁సౌకర్యాల	-5589
▁పేట	-5590
▁ప్రోగ్రామ	-5591
▁క్రితం	-5592
యూ	-5593
వెన్	-5594
కొను	-5595
ie	-5596
▁వాళ్ళ	-5597
▁ప్రత్యే	-5598
▁అక్షరాస్య	-5599
ంలోనే	-5600
▁వేయుట	-5601
▁బాధ్యతలు	-5602
ార్థం	-5603
▁కొబ్బ	-5604
▁కనుగొన	-5605
▁హనుమంతు	-5606
ారుల	-5607
యాల	-5608
▁వేష	-5609
▁భారతదేశంలోని	-5610
▁పేర్	-5611
▁సంబంధాలు	-5612
▁సమర్థ	-5613
▁పాశ్చాత్య	-5614
▁టు	-5615
▁అడ్డ	-5616
▁విశాఖపట్నంలోను	-5617
▁దాంతో	-5618
▁వహించిన	-5619
ther	-5620
యాలో	-5621
ాలలోని	-5622
▁కార్బన్	-5623
▁తద్వారా	-5624
సాన్ని	-5625
ానిష్	-5626
▁కార్పొ	-5627
▁వనరులు	-5628
▁రూపు	-5629
▁అణ	-5630
తోపాటు	-5631
▁కాపా	-5632
▁ఫిలి	-5633
▁నాణ్య	-5634
▁ఎత్తైన	-5635
▁బ్యాంక్	-5636
రించుకు	-5637
▁మరణించిన	-5638
▁డొ	-5639
▁రాజవం	-5640
▁సంస్థల	-5641
31	-5642
గన్	-5643
▁సాక్ష	-5644
▁వాయువు	-5645
▁రహస్య	-5646
ేష్	-5647
జార్	-5648
కించి	-5649
ంద్రత	-5650
చల	-5651
▁చర్యలు	-5652
▁;	-5653
▁మేరకు	-5654
▁హిమ	-5655
లలోని	-5656
▁సేవల	-5657
▁వ్యాఖ్య	-5658
▁నక్షత్రం	-5659
▁స్థాపించబడింది	-5660
చున్నది	-5661
త్మకంగా	-5662
▁షో	-5663
ర్వే	-5664
▁సంరక్ష	-5665
▁ఇటీవల	-5666
▁ఇంటర్నేషనల్	-5667
▁మాల	-5668
▁ఆకార	-5669
▁డబ్బు	-5670
▁ప్రయాణి	-5671
▁చిరు	-5672
▁తదితర	-5673
▁నేర	-5674
▁సిస్ట	-5675
షత్	-5676
ర్షణ	-5677
▁సైతం	-5678
▁రమ	-5679
టనలు	-5680
యేటర్	-5681
▁ఫుట్	-5682
▁క్లబ్	-5683
▁వికారాబాద్	-5684
▁పాత్రను	-5685
▁కదా	-5686
న్సర్	-5687
▁సాహితీ	-5688
▁ద్రో	-5689
▁రూపం	-5690
మిన	-5691
▁ఇర	-5692
▁సముద్రం	-5693
త్తర	-5694
రియల్	-5695
ించగా	-5696
కారి	-5697
▁బాబు	-5698
▁తయారుచే	-5699
▁చెందినది	-5700
▁44	-5701
రాయి	-5702
▁క్షిప	-5703
▁స్వచ్ఛ	-5704
▁ముంబై	-5705
▁స్థానాన్ని	-5706
ass	-5707
ంగ్లా	-5708
▁అటువంటి	-5709
▁పనిచేసే	-5710
▁సమస్యలు	-5711
ధారిత	-5712
పేటలో	-5713
లొ	-5714
▁అట్లా	-5715
ంపజే	-5716
గడ్డ	-5717
పోవడంతో	-5718
షీ	-5719
▁గది	-5720
▁క్షీణ	-5721
▁వనపర్తి	-5722
ంఛ	-5723
స్తీ	-5724
▁అనుభ	-5725
▁పాలనా	-5726
కారాన్ని	-5727
▁నిర్మాత	-5728
▁ప్రతిభ	-5729
▁సముదాయ	-5730
▁చదర	-5731
ించబడి	-5732
▁పుత్ర	-5733
▁తొమ్మిది	-5734
▁సన్యా	-5735
విధ్య	-5736
▁సాధన	-5737
▁ఆయనను	-5738
తున్నది	-5739
ంచీ	-5740
రాత్రి	-5741
▁పనిచేయ	-5742
క్కులు	-5743
భావం	-5744
▁బాక్	-5745
▁యాత్ర	-5746
▁శస్త్ర	-5747
▁ఇచ్చింది	-5748
▁యూనివర్సిటీ	-5749
దానం	-5750
▁ఇటు	-5751
▁సంవత్సరానికి	-5752
ect	-5753
నాధ	-5754
▁పెరగ	-5755
▁శివుడు	-5756
▁సంప	-5757
▁సిద్ధాంతం	-5758
▁చేసుకున్నాడు	-5759
ack	-5760
స్టిక్	-5761
▁శేష	-5762
▁వహించాడు	-5763
భూమి	-5764
యన్లు	-5765
ame	-5766
▁కుండ	-5767
▁tr	-5768
▁అర్జునుడు	-5769
▁తొల	-5770
▁మంట	-5771
▁http	-5772
▁సంయోగ	-5773
▁అసోసి	-5774
చేశారు	-5775
▁ప్రకాశ	-5776
పెన్	-5777
ులైన	-5778
▁అంతర్గత	-5779
▁తాగునీటి	-5780
ల్లోను	-5781
▁జాగ్రత్త	-5782
▁పెను	-5783
▁స్థూ	-5784
▁స్పెయిన్	-5785
▁భువన	-5786
▁వ్యవస్థను	-5787
36	-5788
▁వినో	-5789
75	-5790
విన్	-5791
style	-5792
▁వస్తున్న	-5793
కట్ట	-5794
▁కథాన	-5795
▁సెల్	-5796
▁మార్గంలో	-5797
▁శరీరం	-5798
▁సమితి	-5799
పడ్డాయి	-5800
▁వైఎస్	-5801
▁ఏర్పడు	-5802
▁తీసుకో	-5803
త్పత్తి	-5804
▁ఎలాంటి	-5805
▁ఫలిత	-5806
▁టెక్నాలజీ	-5807
▁నటించాడు	-5808
నరీ	-5809
రణం	-5810
పురంలోనూ	-5811
',	-5812
▁మాటలు	-5813
▁దేవుడు	-5814
▁180	-5815
న్నుల	-5816
▁నేతృ	-5817
▁ఏలూరు	-5818
▁నిరూప	-5819
▁గుర్తించారు	-5820
▁వేరే	-5821
▁పరంగా	-5822
▁భాషలు	-5823
▁le	-5824
▁ప్రత్యేకత	-5825
జల	-5826
▁ఆశ్చ	-5827
గొట్ట	-5828
వయ	-5829
ధర్మ	-5830
నుని	-5831
బాల్	-5832
▁సందేశ	-5833
▁పరిమాణం	-5834
రత్	-5835
బెల్	-5836
▁ప్యా	-5837
▁ఆదాయం	-5838
▁1998	-5839
చరిత్ర	-5840
▁నన్ను	-5841
▁రష్య	-5842
▁పోర్ట్	-5843
▁పేర్కొన	-5844
▁కుటుంబానికి	-5845
▁అమృ	-5846
▁అర్హ	-5847
న్నింటి	-5848
▁అయ్యింది	-5849
▁చైత	-5850
▁మైక్రో	-5851
▁కొంతకాలం	-5852
డ్లు	-5853
ర్తన	-5854
▁ఆందో	-5855
జని	-5856
▁ప్రయాణం	-5857
▁బట్ట	-5858
కేంద్ర	-5859
▁ఇంటికి	-5860
▁ముగింపు	-5861
▁విస్తీర్	-5862
▁మించి	-5863
వస్తు	-5864
display	-5865
వారిని	-5866
tic	-5867
▁న్యూయ	-5868
▁పూజలు	-5869
ేయ	-5870
▁ఖని	-5871
▁పర్షి	-5872
▁వైద్యుడు	-5873
▁క్రమంలో	-5874
▁కోర	-5875
బడులు	-5876
▁రాష్ట్రాల	-5877
▁బది	-5878
▁వెండి	-5879
▁బాలు	-5880
▁ఆచార్య	-5881
▁గ్రామాలను	-5882
చారి	-5883
రాజ్	-5884
▁బెర్	-5885
▁వివాద	-5886
▁సంతోష	-5887
88	-5888
ించుట	-5889
▁1930	-5890
32	-5891
పున	-5892
▁ధ్రు	-5893
▁అరకు	-5894
▁జాతులు	-5895
డన్	-5896
▁ట్రి	-5897
ానికీ	-5898
▁నిశ్చ	-5899
▁బిడ్డ	-5900
సిం	-5901
▁వీధి	-5902
▁పుట్టు	-5903
▁ఇచ్చాడు	-5904
▁ప్రచురించ	-5905
62	-5906
▁లాభ	-5907
మరి	-5908
▁ఉంచు	-5909
విడ	-5910
▁2017,	-5911
▁సమాజం	-5912
▁వాళ్ళు	-5913
▁కలక	-5914
▁రంగా	-5915
▁క్రొత్త	-5916
61	-5917
▁జర్	-5918
నామ	-5919
▁పొల	-5920
▁చేయుట	-5921
▁విరి	-5922
▁విశిష్ట	-5923
జీవ	-5924
టిలో	-5925
ోత్సవ	-5926
▁సిద్ధి	-5927
▁సింహ	-5928
▁అనువద	-5929
▁కప్	-5930
▁రెండూ	-5931
▁కార్డు	-5932
య్యం	-5933
సాయి	-5934
▁గవర్నర్	-5935
పిడి	-5936
▁సమాచారాన్ని	-5937
వణ	-5938
▁పుస్తక	-5939
▁ఉందిసమీప	-5940
▁విస్తృతంగా	-5941
▁రం	-5942
ట్లయితే	-5943
పాక	-5944
సరా	-5945
స్ర	-5946
ేమీ	-5947
▁185	-5948
రులకు	-5949
▁కేసు	-5950
▁మలయా	-5951
▁ఐస్	-5952
▁వెను	-5953
▁గోవి	-5954
క్రియ	-5955
క్రి	-5956
▁బలహీన	-5957
▁ఉద్యోగం	-5958
▁పనిచేసిన	-5959
▁బ్రిటిషు	-5960
▁కలప	-5961
▁సాయి	-5962
▁బంగ్లా	-5963
▁కండ	-5964
పోయినా	-5965
▁పురపాలక	-5966
ార్మిక	-5967
▁అయ్యాడు	-5968
▁రామచంద్ర	-5969
▁విఫల	-5970
▁పరిధిలోని	-5971
ire	-5972
▁దేశీయ	-5973
నప్పుడు	-5974
38	-5975
శ్వా	-5976
▁మెంట్	-5977
▁బిందు	-5978
ించడంతో	-5979
per	-5980
▁లిపి	-5981
ంశ	-5982
ave	-5983
▁అంతేకాక	-5984
▁రాజధానిగా	-5985
▁కావ్య	-5986
▁ప్రయత్నాలు	-5987
▁పరిపాలన	-5988
ణులు	-5989
▁కొంచ	-5990
▁ఏర్పా	-5991
వ్యవస్థ	-5992
▁im	-5993
▁డైరె	-5994
లిలో	-5995
▁అక్కడే	-5996
▁Ch	-5997
▁1996	-5998
▁టౌన్	-5999
▁బదిలీ	-6000
డయ్యాడు	-6001
టాన్ని	-6002
▁ప్రవహ	-6003
▁అయ్యాయి	-6004
▁దగ్గరగా	-6005
గ్రహాన్ని	-6006
▁విడ	-6007
▁రంగం	-6008
▁కేటాయి	-6009
▁సినిమాల్లో	-6010
ందారు	-6011
▁వెల	-6012
జాతి	-6013
మధ్య	-6014
▁అనకాపల్లిలోను	-6015
▁ప్రాతినిధ్యం	-6016
▁అసి	-6017
శిక్ష	-6018
▁మాట్లాడే	-6019
ight	-6020
▁అవగా	-6021
▁క్షే	-6022
▁సమూ	-6023
▁గోపాల	-6024
▁పెరిగి	-6025
▁జంక్షన్	-6026
▁వ్యక్తులు	-6027
గ్గా	-6028
రియం	-6029
▁దర్	-6030
▁కత్తి	-6031
▁దాకా	-6032
▁దేశంగా	-6033
▁sp	-6034
స్టన్	-6035
▁కేశ	-6036
▁అధికారికంగా	-6037
▁ఫెడ	-6038
▁అంకి	-6039
▁వైద్యులు	-6040
▁నటించింది	-6041
మిత్ర	-6042
▁గొల్ల	-6043
తుంటాయి	-6044
▁బోర్డు	-6045
క్ల	-6046
41	-6047
▁ప్రస్తావ	-6048
▁కొబ్బరి	-6049
▁బోరుబావులు	-6050
one	-6051
క్లో	-6052
▁బృహ	-6053
▁చేతిపంపులు	-6054
ple	-6055
యిక	-6056
▁ఎడి	-6057
▁ఇంది	-6058
టిట్యూట్	-6059
▁న్యూయార్క్	-6060
▁అడ్డు	-6061
▁అన్నారు	-6062
బాబు	-6063
శ్వర	-6064
▁అభ్యస	-6065
▁ఉద్భవ	-6066
▁కాలానికి	-6067
ర్శి	-6068
వళి	-6069
▁జోన్	-6070
▁ఉత్పత్తు	-6071
ల్లే	-6072
త్సాహ	-6073
▁మందికి	-6074
ందులు	-6075
ునికి	-6076
▁సౌకర్యాలేమీ	-6077
▁ఇవ	-6078
▁వాడతారు	-6079
42	-6080
ర్రు	-6081
▁గద్వ	-6082
▁చాళు	-6083
▁నిజానికి	-6084
ge	-6085
కుంది	-6086
1-	-6087
ఉంది	-6088
▁2013,	-6089
▁పరిశోధనలు	-6090
▁విస్తీర్ణం	-6091
ళ్వ	-6092
▁అంతటా	-6093
▁నియమి	-6094
▁భూమిని	-6095
▁వెళ్ళాడు	-6096
కథ	-6097
గీ	-6098
ళ్లలో	-6099
▁సమీపంలోని	-6100
▁వేర్వేరు	-6101
▁భారతదేశానికి	-6102
▁నిరు	-6103
▁రాగి	-6104
▁సేవలను	-6105
▁ప్రసాద	-6106
▁అమ్మాయి	-6107
▁ప్రాంతాలను	-6108
▁85	-6109
▁తదు	-6110
▁ప్రామాణిక	-6111
ath	-6112
యాన	-6113
▁గోధు	-6114
ిల్స్	-6115
▁కుటుంబంలో	-6116
ted	-6117
▁ad	-6118
▁300	-6119
▁అరకులోయ	-6120
▁ఎన్నికల	-6121
▁విస్తరించ	-6122
▁చదరపు	-6123
▁ప్రెసి	-6124
▁me	-6125
సెర్	-6126
▁నిమిష	-6127
▁చిత్రానికి	-6128
▁ఎదురు	-6129
▁ప్రారంభం	-6130
త్యాల	-6131
తువు	-6132
మితి	-6133
▁అబ్దు	-6134
displaystyle	-6135
చ్చాడు	-6136
▁ఆసి	-6137
▁కూర్చు	-6138
▁నమ్మకం	-6139
▁ధో	-6140
▁ఆఫ్ఘ	-6141
95	-6142
▁అయో	-6143
▁స్తంభ	-6144
▁వయసులో	-6145
ఘ్	-6146
మూస	-6147
ప్రభ	-6148
కరంగా	-6149
▁రసాయనిక	-6150
యలు	-6151
ధ్యా	-6152
▁ఆశ్ర	-6153
▁రేటు	-6154
పెట్టిన	-6155
క్స	-6156
▁ఉపరి	-6157
▁మోక్ష	-6158
▁ఉంటాడు	-6159
▁పాటించ	-6160
వేళ	-6161
▁వాదన	-6162
▁సమకాల	-6163
▁మూలంగా	-6164
▁పరిశోధనా	-6165
▁జీవితాన్ని	-6166
పుల	-6167
బర్ట్	-6168
▁వేదా	-6169
క్షేత్ర	-6170
▁పలువురు	-6171
▁ప్రఖ్యాత	-6172
▁రక్	-6173
▁వాని	-6174
▁అల్యూ	-6175
▁పరమాణు	-6176
▁చెబుతారు	-6177
▁ఛాంపియన్	-6178
యని	-6179
▁స్ఫ	-6180
▁నాయకులు	-6181
▁ప్రకటించారు	-6182
▁ట్యూ	-6183
▁తదుపరి	-6184
▁యస్	-6185
▁అనుగుణంగా	-6186
దుడు	-6187
▁డచ్	-6188
▁డ్రై	-6189
▁ప్రధానమంత్రి	-6190
▁ne	-6191
▁హోదా	-6192
టూ	-6193
మనే	-6194
▁ఆకర్షణ	-6195
▁చూస్తే	-6196
▁వివరించ	-6197
▁ఇంగ్లాండ్	-6198
▁నిర్మాణానికి	-6199
▁చెప్పే	-6200
▁ఎప్పుడూ	-6201
రన్	-6202
▁అక్షర	-6203
▁అందువల్ల	-6204
▁వ్యాపారం	-6205
▁చిత్రాలలో	-6206
▁వివా	-6207
▁అందజే	-6208
భై	-6209
▁వైభవ	-6210
▁గ్రంథం	-6211
▁అదనపు	-6212
▁ప్రవేశం	-6213
తాను	-6214
▁వెళ్ళిన	-6215
▁67	-6216
▁తెగ	-6217
▁ఖాళీ	-6218
▁బుక్	-6219
▁దర్శన	-6220
▁విక్రయ	-6221
▁ప్రాచుర్యం	-6222
ఖి	-6223
దార్	-6224
ించుటకు	-6225
▁రుద్ర	-6226
▁వంతెన	-6227
కృతి	-6228
▁వాడి	-6229
▁అమర్చ	-6230
▁శుక్ర	-6231
▁సింహా	-6232
▁సుబ్రహ్మ	-6233
▁మైదాన	-6234
ించలేదు	-6235
▁విలీనం	-6236
▁ఒకప్పుడు	-6237
బడుతోంది	-6238
▁పాయి	-6239
▁చూడండి	-6240
వుడ్	-6241
ళ్ళకు	-6242
కాం	-6243
రాలకు	-6244
▁చేస్తే	-6245
▁42	-6246
▁వైష్ణ	-6247
▁ఆఫ్రిక	-6248
బ్రా	-6249
▁వన్	-6250
▁జాబితాలో	-6251
▁నిర్దిష్ట	-6252
▁ప్రభుత్వానికి	-6253
▁ఉండేవారు	-6254
▁దాదాపుగా	-6255
▁ఉంటుందని	-6256
కారుల	-6257
▁కంటి	-6258
ీర	-6259
కంప	-6260
రణి	-6261
▁కుమార	-6262
▁ప్రదర్శి	-6263
▁సాఫ్ట్	-6264
▁వైవిధ్య	-6265
▁బిరుదు	-6266
▁సాధించి	-6267
మెంట	-6268
నులను	-6269
▁స్కో	-6270
▁అందించారు	-6271
▁పేర్కొన్నాడు	-6272
▁స్పానిష్	-6273
98	-6274
▁స్టూ	-6275
▁పోయిన	-6276
▁సేకరణ	-6277
▁నీరుగ్రామంలో	-6278
▁పదాలు	-6279
▁అనుకూల	-6280
▁వ్యవస్థలో	-6281
ib	-6282
ైతే	-6283
▁పర్యాట	-6284
▁భాగాలు	-6285
▁పదాన్ని	-6286
▁సీనియర్	-6287
▁his	-6288
▁జ్వ	-6289
▁చేసుకొని	-6290
కను	-6291
వృత్తి	-6292
▁ఫౌ	-6293
▁షె	-6294
▁ఒలింపి	-6295
▁భువనగిరి	-6296
▁పనిచేస్తుంది	-6297
మద	-6298
క్సి	-6299
▁తిరి	-6300
▁విశేషం	-6301
▁one	-6302
▁ఏకీ	-6303
▁హైదరాబాదులోను	-6304
వద్ద	-6305
▁తీర్థ	-6306
▁ఉంట	-6307
▁మాతృ	-6308
▁ఈశాన్య	-6309
▁సముద్రమ	-6310
▁అంట	-6311
▁సదా	-6312
క్తులు	-6313
▁క్రియా	-6314
చేసుకు	-6315
▁బొగ్గు	-6316
లిజ	-6317
▁నాట్య	-6318
▁187	-6319
▁వరద	-6320
థు	-6321
ించబడ	-6322
ంగ్రామంలో	-6323
రాలి	-6324
ంగ్స్	-6325
ముందు	-6326
▁గృహాల	-6327
▁జిల్లాలలో	-6328
ah	-6329
ry	-6330
▁చేయవచ్చు	-6331
▁భాగాన్ని	-6332
▁4,	-6333
▁ఇతి	-6334
▁సభ్యుల	-6335
▁భావించారు	-6336
పుత్ర	-6337
▁గ్రేట్	-6338
▁వెళ్ళే	-6339
ధులను	-6340
▁కాగి	-6341
▁ఫ్రీ	-6342
▁దేవతలు	-6343
▁పంజాబ్	-6344
▁త్యా	-6345
▁అన్వే	-6346
▁ఇందుకు	-6347
▁త్రవ్వ	-6348
▁has	-6349
▁యూనివ	-6350
▁ప్రజలలో	-6351
▁సమకూర్	-6352
ెంటు	-6353
▁వ్ర	-6354
జ్ఞానం	-6355
▁రాయ్	-6356
▁1994	-6357
orm	-6358
జైన్	-6359
▁వాడే	-6360
▁విధానంలో	-6361
▁విశ్వాసం	-6362
వాణి	-6363
ేశాడు	-6364
▁ఉర్దూ	-6365
▁వస్తాయి	-6366
హాయి	-6367
▁ఈస్ట్	-6368
▁పంటలు	-6369
ొని	-6370
▁చోళ	-6371
▁స్థాపించిన	-6372
ue	-6373
▁కక్ష్య	-6374
▁బావులు	-6375
ంటున్నారు	-6376
▁చిత్రీకరించ	-6377
ost	-6378
▁మాధ	-6379
▁ప్రాంగ	-6380
ాయుధ	-6381
▁రఘు	-6382
▁వాన	-6383
▁తోడ్	-6384
▁మూడో	-6385
▁తేలిక	-6386
▁దృశ్య	-6387
▁మహారాజు	-6388
▁చేస్తాడు	-6389
తలో	-6390
▁వసూ	-6391
ములతో	-6392
▁అల్యూమిని	-6393
ాడ	-6394
▁?	-6395
▁కమ్యూనిస్టు	-6396
రిట	-6397
▁నాగార్జు	-6398
▁శతాబ్ది	-6399
▁ఉపయోగించారు	-6400
శివ	-6401
▁77	-6402
▁విద్యాభ్యా	-6403
గుణ	-6404
▁95	-6405
రిన్	-6406
▁ఎడమ	-6407
▁చదవ	-6408
▁నాశనం	-6409
▁స్వర్ణ	-6410
▁స్పష్టంగా	-6411
▁విస్తరణ	-6412
▁దౌ	-6413
▁ఆనాటి	-6414
▁గూడూరు	-6415
▁మరిన్ని	-6416
టిక	-6417
▁ఉండును	-6418
▁పెట్టిన	-6419
కళా	-6420
మూల	-6421
▁ఇటీవ	-6422
▁విధి	-6423
▁కుమారులు	-6424
▁సాహిత్యంలో	-6425
ాలైన	-6426
▁మరాఠ	-6427
▁పాల్వ	-6428
▁విప్ల	-6429
▁కౌన్సిల్	-6430
▁సుబ్బారావు	-6431
▁సకల	-6432
కోవాలని	-6433
▁పరిగణి	-6434
▁సెప్టెంబర్	-6435
▁మొదటిసారిగా	-6436
ెలు	-6437
▁ఘో	-6438
▁కిందకు	-6439
▁1997	-6440
▁రాజుల	-6441
▁రైల్వేస్టేషన్	-6442
▁ఇటలీ	-6443
నవి	-6444
▁తూ	-6445
▁ఎందుకు	-6446
▁సహాయంతో	-6447
లేదని	-6448
▁మెక్సిక	-6449
▁దృశ	-6450
▁పోయి	-6451
▁సికి	-6452
▁విచారణ	-6453
చార్యులు	-6454
▁1995	-6455
సల	-6456
out	-6457
షియా	-6458
▁అప్పట్లో	-6459
▁తప్పనిసరి	-6460
▁గ్రీన్	-6461
ందర్	-6462
ృప్తి	-6463
తని	-6464
లీస్	-6465
▁ఇంట్లో	-6466
షింగ్	-6467
▁జాతుల	-6468
▁విభాగంలో	-6469
▁గుర్తించిన	-6470
ition	-6471
▁సంతానం	-6472
▁రాష్ట్రపతి	-6473
▁దారితీసింది	-6474
▁నాటకం	-6475
▁పరిణామ	-6476
▁గుజరాత్	-6477
▁మోట	-6478
▁గూర్	-6479
▁నిత్య	-6480
▁ఉపరితల	-6481
▁మధ్యకాలంలో	-6482
▁సందర్భాలలో	-6483
ff	-6484
▁కఠిన	-6485
▁సప్త	-6486
▁ఒకదాని	-6487
▁రాముడు	-6488
▁సామర్థ్యం	-6489
▁పెరుగుతుంది	-6490
లలోనూ	-6491
ర్శిటీ	-6492
▁భక్తుల	-6493
▁ఉత్తర్వులు	-6494
▁1948	-6495
▁విపరీ	-6496
▁నిర్వాహ	-6497
sh	-6498
▁1989	-6499
▁కాదని	-6500
▁శీతా	-6501
▁చేరిన	-6502
▁ముహమ్మద్	-6503
స్కా	-6504
ేవారి	-6505
▁బిల్	-6506
97	-6507
▁అందించే	-6508
టంటే	-6509
స్తున్నాడు	-6510
డిలో	-6511
▁నేడు	-6512
ానికే	-6513
▁నిర్దేశ	-6514
్రం	-6515
ంత్రం	-6516
▁రాయల	-6517
▁వారీ	-6518
▁బెల్ల	-6519
స్థానంలో	-6520
▁మహాసముద్ర	-6521
▁కొలు	-6522
▁1992	-6523
▁అడిగా	-6524
వరంలోను	-6525
▁పోరాటం	-6526
దేవుడు	-6527
▁అనువాద	-6528
▁కలకత్తా	-6529
▁వారితో	-6530
▁సుమారుగా	-6531
▁అభివృద్ధికి	-6532
ారే	-6533
▁52	-6534
ాలన్న	-6535
ణాత్మక	-6536
జ్ఞా	-6537
పురి	-6538
▁స్నాన	-6539
▁విస్తీర్ణ	-6540
టైన	-6541
భాగంలో	-6542
▁ఆంజ	-6543
▁అలవా	-6544
▁స్టూడియో	-6545
▁చిన	-6546
డుతుంది	-6547
నల	-6548
లేరు	-6549
▁కాథ	-6550
▁ఇక్కడికి	-6551
▁ప్రారంభించిన	-6552
ction	-6553
▁వెస్ట్	-6554
▁ఆధారాలు	-6555
▁చేరింది	-6556
▁ఆగష్టు	-6557
▁రామాయణ	-6558
▁ప్రత్యేకించి	-6559
ree	-6560
షల్	-6561
సంస్థ	-6562
▁అంశాలు	-6563
▁రెండింటి	-6564
తాళ	-6565
ూరా	-6566
▁బ్లూ	-6567
ణుని	-6568
▁గ్రె	-6569
▁బోస్	-6570
త్సా	-6571
ికో	-6572
ూర్తి	-6573
▁మామూ	-6574
పేటలోనూ	-6575
ఫే	-6576
▁II	-6577
▁మణి	-6578
స్తుల	-6579
▁రైతు	-6580
▁సమ్మేళ	-6581
డవైన	-6582
▁అసోసియేషన్	-6583
▁విము	-6584
▁కూతురు	-6585
▁ఎది	-6586
▁ఋణ	-6587
▁కప్ప	-6588
▁వ్యాప్తంగా	-6589
పల్	-6590
▁స్థాపించాడు	-6591
ాంశ	-6592
▁తానే	-6593
▁ఆకులు	-6594
▁ఆధారిత	-6595
▁ఎగుమతి	-6596
భాగాన్ని	-6597
▁un	-6598
▁మస్	-6599
ానంతరం	-6600
▁పార్టీకి	-6601
▁తాత	-6602
▁అభ్యర్థ	-6603
▁incl	-6604
▁ఆధీన	-6605
క్కిలి	-6606
▁పోయింది	-6607
కోగ	-6608
తుక	-6609
మ్యం	-6610
▁1940	-6611
▁అమ్ము	-6612
▁నాయకు	-6613
పించి	-6614
▁రచించారు	-6615
ara	-6616
opul	-6617
నింగ్	-6618
▁5310	-6619
▁ఉంటూ	-6620
పెట్టింది	-6621
▁ప్రదేశంలో	-6622
▁శని	-6623
▁సినిమాకు	-6624
నలను	-6625
నాల్	-6626
▁ఉస్	-6627
▁రష్యన్	-6628
▁పాల్వంచ	-6629
▁పశ్చిమాన	-6630
▁భవనం	-6631
▁అల్యూమినియం	-6632
గ్రి	-6633
హారం	-6634
▁మనస్సు	-6635
▁నిర్ధార	-6636
▁ఐర్లాండ్	-6637
▁రాజీనామా	-6638
▁నృత్యం	-6639
▁మొదట్లో	-6640
▁ఏది	-6641
▁పీడ	-6642
ంజ్	-6643
ణ్యం	-6644
▁రవి	-6645
▁షిప్	-6646
చిత్రం	-6647
▁ఇరాన్	-6648
▁కొరియా	-6649
▁పర్యటన	-6650
▁ప్రసారం	-6651
▁నున్న	-6652
▁చేయాలి	-6653
▁అనుకూలంగా	-6654
లులో	-6655
ళ్లను	-6656
▁అప్	-6657
▁ఉద్యాన	-6658
▁120	-6659
▁can	-6660
▁బహుమ	-6661
▁చేరారు	-6662
▁లోపలి	-6663
▁వృత్తులు	-6664
▁కూర్చ	-6665
ely	-6666
▁మహిళలు	-6667
లీప	-6668
లికా	-6669
ప్పటికి	-6670
బల్	-6671
▁అవగాహన	-6672
▁ఆకర్షి	-6673
▁సినిమాలలో	-6674
▁తల్లిదండ్రులు	-6675
టమే	-6676
▁46	-6677
గును	-6678
▁నిరంతర	-6679
▁వీటికి	-6680
▁కూరగాయలు	-6681
షులు	-6682
▁యుగ	-6683
▁లోతు	-6684
▁లాటిన్	-6685
▁ట్రాన్స్	-6686
▁అత్యు	-6687
ంచడానికి	-6688
క్యు	-6689
▁ఎము	-6690
▁నెదర్	-6691
▁విన్న	-6692
▁చేసేవారు	-6693
▁హైదరాబాదులో	-6694
▁భయం	-6695
▁అనుసంధానం	-6696
▁నిర్మించాడు	-6697
▁పాల్గొన్నారు	-6698
శీల	-6699
▁ఆక్సి	-6700
▁చక్కగా	-6701
పూరు	-6702
▁కలవ	-6703
▁మండలి	-6704
▁దానితో	-6705
▁విద్వాం	-6706
తతో	-6707
ణ్ణి	-6708
డుగా	-6709
▁నిద్ర	-6710
▁దీనితో	-6711
దీర్ఘ	-6712
▁కలుగ	-6713
▁గ్రూప్	-6714
▁చేసుకుంది	-6715
ందరో	-6716
పిరి	-6717
▁ఎదుర్	-6718
త్రాన్ని	-6719
స్థులు	-6720
▁శ్రద్ధ	-6721
▁విజయవంతంగా	-6722
▁హెక్టారులు	-6723
▁బుద్ధి	-6724
ెల	-6725
పటి	-6726
దుపు	-6727
కుంట	-6728
▁మరికొన్ని	-6729
▁కామారెడ్డి	-6730
గ్న	-6731
బాయి	-6732
వరకూ	-6733
▁మీటర్లు	-6734
▁యూనివర్శిటీ	-6735
cc	-6736
▁ఆధిక	-6737
▁రుచి	-6738
▁రూపకల్పన	-6739
▁నియోజకవర్గ	-6740
▁ఏమీ	-6741
▁ఆర్య	-6742
▁హాని	-6743
▁ఆత్మక	-6744
▁సమానంగా	-6745
బోయే	-6746
▁సగం	-6747
ex	-6748
ంగే	-6749
డ్జ్	-6750
▁పరస్ప	-6751
▁కావడంతో	-6752
▁విదేశాల	-6753
▁ఇసుక	-6754
▁ఫోటో	-6755
84	-6756
డక	-6757
▁అలె	-6758
▁దేశాల్లో	-6759
▁విమానాశ్రయం	-6760
▁ఎత్తులో	-6761
సహ	-6762
నంద	-6763
▁గంధ	-6764
▁ప్రదర్శనలు	-6765
చర్ల	-6766
హ్లా	-6767
▁నాటకాలు	-6768
▁వ్యాప్తి	-6769
ood	-6770
rig	-6771
▁మాయ	-6772
వెన్యూ	-6773
▁గులా	-6774
నాత్మక	-6775
▁సరిగా	-6776
▁Th	-6777
▁ఖై	-6778
▁వస్తువుల	-6779
▁St	-6780
▁కరి	-6781
మ్మని	-6782
టీన్	-6783
▁ఎక్	-6784
ంతంగా	-6785
▁నిర్వహిస్తారు	-6786
▁శాన్	-6787
▁శత్రు	-6788
▁చాళుక్య	-6789
▁లభించిన	-6790
▁బంగ్లాదేశ్	-6791
81	-6792
▁వైరస్	-6793
▁పండ్లు	-6794
▁ఘా	-6795
▁శర్మ	-6796
▁నారాయణ్	-6797
చివే	-6798
▁పెంప	-6799
▁చిన్నత	-6800
▁ముస్లింలు	-6801
స్వామ్య	-6802
▁ప్రపంచం	-6803
▁వస్తువులను	-6804
▁తెచ్చి	-6805
నొ	-6806
ష్యు	-6807
్యాప	-6808
ంబియా	-6809
▁వెడల్	-6810
▁సంవత్సరాలలో	-6811
▁దత్త	-6812
oug	-6813
▁భై	-6814
ల్లీ	-6815
ుడైన	-6816
▁రాయల్	-6817
▁అత్యుత్	-6818
విడ్	-6819
ోగ్యం	-6820
▁యందు	-6821
▁ఒత్తిడి	-6822
▁యుద్ధానికి	-6823
▁పాటుగా	-6824
▁ఎవరు	-6825
జిద్	-6826
▁తమకు	-6827
▁అరేబియా	-6828
▁సరఫరాగ్రామంలో	-6829
లాగా	-6830
ust	-6831
▁ప్రవర్తన	-6832
మహా	-6833
▁దక్షిణాన	-6834
బెర్	-6835
ult	-6836
▁సింధు	-6837
పనిషత్తు	-6838
▁అడిగాడు	-6839
▁చేస్తోంది	-6840
మీయ	-6841
రైన	-6842
▁చము	-6843
జింగ్	-6844
బెట్టి	-6845
▁నాగర్	-6846
ep	-6847
▁డివి	-6848
వచ్చని	-6849
▁చేసుకో	-6850
▁వ్యాఖ్యా	-6851
▁థా	-6852
సేన్	-6853
▁వంతు	-6854
▁నొప్పి	-6855
▁చేరుకుంది	-6856
హె	-6857
▁బలవ	-6858
▁తీసుకొ	-6859
▁పిలువబడే	-6860
▁అక్షరాస్యత	-6861
▁అమి	-6862
తొ	-6863
▁ధై	-6864
ర్రా	-6865
▁చోట	-6866
▁వెర్	-6867
▁రచయితలు	-6868
▁సీతా	-6869
▁అయ్యే	-6870
▁జరుగుతున్న	-6871
వేల	-6872
ొచ్చు	-6873
-19	-6874
దూర	-6875
▁మాల్	-6876
▁ఆహ్వాని	-6877
▁కొద్దిగా	-6878
▁రాఘవ	-6879
▁మహాత్మా	-6880
▁మినహాయి	-6881
▁రంగస్థల	-6882
▁any	-6883
▁అనునది	-6884
▁స్థితిలో	-6885
▁గుర్తిస్తూ	-6886
ru	-6887
▁సమయానికి	-6888
▁పునః	-6889
▁తీసుకున్న	-6890
▁524	-6891
▁also	-6892
▁ఆటగా	-6893
▁సాధించారు	-6894
▁ఉపయోగించిన	-6895
▁మేక	-6896
▁సుయోధ	-6897
నీయ	-6898
▁మొదలైంది	-6899
▁మరీ	-6900
▁కల్పి	-6901
▁ప్రొఫెసర్	-6902
ual	-6903
und	-6904
టప్పుడు	-6905
ిని	-6906
▁వ్యవస్థాప	-6907
ద్దులు	-6908
▁వినాయ	-6909
య్యింది	-6910
▁పుస్తకాల	-6911
▁కట	-6912
▁పాటి	-6913
దార	-6914
ట్లే	-6915
aster	-6916
▁మూసి	-6917
▁పుల్ల	-6918
▁విజయవంతమైన	-6919
▁స్ట్రా	-6920
డ్డున	-6921
▁వర్క్	-6922
▁రూపాయల	-6923
▁69	-6924
▁వెంకటా	-6925
▁జనసంఖ్య	-6926
▁పార్వతీ	-6927
▁కళాకారులు	-6928
ft	-6929
▁విధానాలు	-6930
జెన్	-6931
▁ఖగోళ	-6932
▁నల	-6933
కూడదు	-6934
▁నవంబర్	-6935
▁అత్యున్నత	-6936
త్వము	-6937
▁సుదీర్ఘ	-6938
తరం	-6939
ందరు	-6940
నుడి	-6941
▁అశో	-6942
▁చూపి	-6943
▁నాల్	-6944
▁సమర్ధ	-6945
నిస్తాన్	-6946
ail	-6947
▁ఆరో	-6948
▁పొడవైన	-6949
▁లభించాయి	-6950
దళ	-6951
▁థియేటర్	-6952
▁విజయవంత	-6953
▁నాయకత్వం	-6954
కోవటం	-6955
యస్కాంత	-6956
▁దండయాత్ర	-6957
▁ab	-6958
▁శూ	-6959
▁జగ్గ	-6960
▁గ్రంధ	-6961
▁బహిష్	-6962
చున్నారు	-6963
▁పద్ధతులు	-6964
▁నాయకత్వంలో	-6965
▁నం	-6966
వేర్	-6967
స్పద	-6968
▁ఘంట	-6969
▁2016,	-6970
▁అతన్ని	-6971
▁డిసెంబర్	-6972
▁శక్తివంతమైన	-6973
చెర్	-6974
▁రంప	-6975
▁పిల్లలకు	-6976
▁రూపొందించిన	-6977
▁ఆడి	-6978
త్తిన	-6979
ణే	-6980
వాసం	-6981
దగ్గ	-6982
పాది	-6983
▁మసీ	-6984
▁నందు	-6985
▁పంచా	-6986
▁సముద్రతీ	-6987
ide	-6988
▁కొమ్మ	-6989
▁పరిశ్రమలు	-6990
▁ఎన్నికల్లో	-6991
వియా	-6992
▁లలి	-6993
▁ఆర్కి	-6994
▁ప్రతా	-6995
▁ఆశ్చర్య	-6996
ber	-6997
డీలు	-6998
▁నేపథ్యంలో	-6999
యుగ	-7000
▁man	-7001
▁అప్పగ	-7002
▁రచించాడు	-7003
డాన్	-7004
▁వజ్ర	-7005
▁నగరాన్ని	-7006
ఃఖ	-7007
▁బహ	-7008
▁అక్బరు	-7009
▁పూర్వీ	-7010
▁జంతువుల	-7011
▁అనుసంధాని	-7012
▁ఆయ	-7013
▁చక్కెర	-7014
▁నిర్మూ	-7015
▁నిర్మించబడింది	-7016
▁లొ	-7017
▁నివసిస్తున్నారు	-7018
▁సంభాషణ	-7019
▁సదుపాయ	-7020
▁కలా	-7021
▁టెస్ట్	-7022
▁ప్రాంతంలోని	-7023
▁పిండి	-7024
▁వర్తి	-7025
▁వర్త	-7026
▁సమాజంలో	-7027
గాక	-7028
తమై	-7029
▁మంజ	-7030
రులను	-7031
▁వెళు	-7032
గృహాలు	-7033
ేజీ	-7034
▁కర్ర	-7035
▁అనేవి	-7036
ome	-7037
▁జమీ	-7038
▁టాప్	-7039
▁ప్రమాదం	-7040
▁రోడ్డుతో	-7041
▁మాడు	-7042
▁కార్బ	-7043
▁అక్టోబర్	-7044
▁కరు	-7045
▁ఫిన్	-7046
▁పాల్గొన	-7047
నేట్	-7048
▁మెడ	-7049
▁1952	-7050
▁హ్యూ	-7051
ించుకుని	-7052
▁ఇంగ్లీష్	-7053
▁రెవెన్యూ	-7054
▁పరిషత్తు	-7055
▁రంగారెడ్డి	-7056
▁సంకీ	-7057
▁గణపతి	-7058
▁హెచ్చ	-7059
మాట	-7060
able	-7061
చేవారు	-7062
రుగురు	-7063
▁5,	-7064
▁ఒంట	-7065
▁స్వరూ	-7066
▁శాశ్వత	-7067
▁ఐదుగురు	-7068
▁శ్రమ	-7069
▁వుండి	-7070
▁చెట్లు	-7071
ph	-7072
టాన్	-7073
▁కన్ను	-7074
▁వుంటాయి	-7075
▁అత్యుత్తమ	-7076
▁సుప్రసిద్ధ	-7077
▁41	-7078
▁డయా	-7079
▁పునా	-7080
▁పోలిస్తే	-7081
▁ముఖ్యమైనవి	-7082
కూల	-7083
ట్న	-7084
▁నెలలో	-7085
▁అచ	-7086
ఫ్రికా	-7087
▁పద్ధతిని	-7088
▁సంవత్సరములో	-7089
▁జలా	-7090
పెట్టారు	-7091
▁ఆఫ్రికన్	-7092
▁జిల్లాలు	-7093
▁ఫ్ర	-7094
్రీట్	-7095
▁గాజు	-7096
▁సంతకం	-7097
▁1000	-7098
▁వైశాల్యం	-7099
▁నివార	-7100
▁బాయిల	-7101
చికిత్స	-7102
▁కార్పొరేషన్	-7103
ికే	-7104
సిల్	-7105
్వాస	-7106
▁శంఖ	-7107
▁నవాబు	-7108
▁per	-7109
డియన్	-7110
మున్న	-7111
▁వికీ	-7112
▁రంగులో	-7113
▁ఓపెన్	-7114
▁కాంగ్రెసు	-7115
ణలు	-7116
టికల్	-7117
▁ఆదరణ	-7118
▁పడిన	-7119
▁అందరు	-7120
▁శ్రీమతి	-7121
విని	-7122
▁ఏదే	-7123
▁పోవ	-7124
ప్రసా	-7125
▁గుత్	-7126
▁ఊరు	-7127
▁ప్రధానమైన	-7128
-3	-7129
are	-7130
▁ro	-7131
▁హింస	-7132
▁పాక్ష	-7133
కరించిన	-7134
▁వివే	-7135
00,000	-7136
▁నడుపు	-7137
▁నిలిపి	-7138
గూ	-7139
▁కొంచెం	-7140
▁i	-7141
▁డేటా	-7142
▁మాండ	-7143
ించును	-7144
▁భవిష్యత్తు	-7145
▁ఇను	-7146
వల్లి	-7147
బ్లి	-7148
▁రాశారు	-7149
▁మండలంతో	-7150
కోవటానికి	-7151
▁మెజ	-7152
▁ఎక్కి	-7153
▁కావచ్చు	-7154
▁జంతువులు	-7155
-20	-7156
▁కోడ	-7157
▁చెపు	-7158
▁సాగి	-7159
▁చదివి	-7160
మనీ	-7161
ర్వేద	-7162
▁పనికి	-7163
పడ్డాడు	-7164
▁ఊరే	-7165
▁కాళ	-7166
▁భుజ	-7167
▁లేఖ	-7168
▁ఒప్పు	-7169
▁బాహ్య	-7170
tionary	-7171
▁సెం	-7172
▁సభలో	-7173
▁జ్ఞాప	-7174
▁వికీపీ	-7175
ంపబడింది	-7176
▁నిర్ణయం	-7177
▁చేయటం	-7178
కత	-7179
▁సూచన	-7180
▁పరుగులు	-7181
▁సులభంగా	-7182
-5	-7183
▁రస	-7184
▁వాసు	-7185
▁సుల్తాన్	-7186
ంకో	-7187
▁Wik	-7188
జిల్లా	-7189
▁ప్రశా	-7190
కరించాడు	-7191
▁స్థాపించి	-7192
▁అందుకున్నారు	-7193
కొత్త	-7194
▁కమిషన్	-7195
▁కార్యక్రమంలో	-7196
గ్జా	-7197
▁ఇరవై	-7198
▁సభ్యుడు	-7199
డులు	-7200
▁చేతులు	-7201
జిన్	-7202
ఫార్	-7203
▁రూపా	-7204
▁ఎన్నికైనారు	-7205
ere	-7206
▁An	-7207
లాడు	-7208
▁బాణ	-7209
▁సరా	-7210
▁స్వర్గ	-7211
▁పడుతుంది	-7212
ఠం	-7213
టికీ	-7214
▁వెడల్పు	-7215
▁ఇన్స్	-7216
▁మీడియా	-7217
▁హిందువులు	-7218
▁తత్	-7219
▁మారిన	-7220
కొన్నాడు	-7221
▁అందించిన	-7222
▁శాస్త్రవేత్తలు	-7223
కటి	-7224
▁జగి	-7225
▁అనార	-7226
▁వృత్త	-7227
▁ఈజిప్టు	-7228
▁5%	-7229
▁డిజి	-7230
▁ప్రవహి	-7231
▁గ్రంథాలయ	-7232
▁రాష్ట్రాలు	-7233
▁అరకులోయలోను	-7234
ఎం	-7235
▁మొఘల్	-7236
ంకా	-7237
రమైన	-7238
▁నేర్చు	-7239
కాన	-7240
▁ఏట	-7241
▁భే	-7242
▁అరటి	-7243
▁ధ్యా	-7244
▁మతపరమైన	-7245
▁సృ	-7246
▁రావడం	-7247
లక్ష్మి	-7248
▁గ్రంథాలు	-7249
▁శాస్త్రజ్ఞ	-7250
▁have	-7251
▁వాహన	-7252
ater	-7253
లుకు	-7254
ంపులు	-7255
▁పొరుగు	-7256
▁నివసిస్తున్న	-7257
▁భోజన	-7258
▁సందే	-7259
▁బెంగు	-7260
▁ధరించి	-7261
▁పాత్రలో	-7262
-0	-7263
సేన	-7264
▁శరణ	-7265
▁వీరిని	-7266
ంబో	-7267
లేఖ	-7268
ంగోలు	-7269
▁ఇబ్ర	-7270
భిప్రా	-7271
▁అనుసంధానమై	-7272
ంగో	-7273
ముగ	-7274
▁తిమ్మ	-7275
భీ	-7276
200	-7277
క్షేప	-7278
పురుష	-7279
▁1920	-7280
▁కోరుకు	-7281
▁త్వరగా	-7282
▁శివుని	-7283
స్టో	-7284
▁ప్రేరణ	-7285
▁రాష్ట్రములోని	-7286
నాటికి	-7287
▁కాపాడు	-7288
▁పరిషత్	-7289
▁మైసూరు	-7290
▁అవకాశాలు	-7291
టిస్	-7292
▁అరి	-7293
▁cont	-7294
▁కలె	-7295
▁దేవుని	-7296
▁రైతులు	-7297
▁ఆర్మేనియా	-7298
▁నట	-7299
విల్	-7300
జేషన్	-7301
▁లాస్	-7302
▁సత్యా	-7303
▁గణనీయమైన	-7304
▁మాదిరిగా	-7305
▁పనిచేస్తున్న	-7306
ok	-7307
▁స్పి	-7308
▁గమనించ	-7309
ములుగా	-7310
▁వెల్లడి	-7311
▁మిల్	-7312
పుట్టు	-7313
▁అందమైన	-7314
▁సికింద్రా	-7315
ప్పా	-7316
▁రిజి	-7317
▁శారీ	-7318
▁నిర్మల్	-7319
▁పరిస్థితులు	-7320
▁నైపుణ	-7321
▁నివారణ	-7322
▁మరల	-7323
▁కాలేజ్	-7324
▁కొనసాగి	-7325
ates	-7326
▁రాజ్యాన్ని	-7327
లెట్	-7328
▁అభిన	-7329
▁బెంగాలీ	-7330
▁అమ్మవారి	-7331
▁రాక్	-7332
స్తూనే	-7333
టీఎం	-7334
▁లేన	-7335
▁వీజీ	-7336
▁పోలీస్	-7337
▁జరుగుతాయి	-7338
గీత	-7339
కాండ	-7340
కిల్	-7341
యంతో	-7342
రాని	-7343
▁హృదయ	-7344
ిస్తారు	-7345
▁గూర్చి	-7346
▁అద్భుతమైన	-7347
బియన్	-7348
▁ఆంగ్లంలో	-7349
▁79	-7350
పట్ల	-7351
▁wor	-7352
▁పెసర	-7353
▁విస్	-7354
▁ఏనుగు	-7355
▁తట్టు	-7356
▁ఆందోళన	-7357
▁అట్లాంటి	-7358
▁ఆద	-7359
స్తుంటాయి	-7360
▁వీజీటీఎం	-7361
▁కృత	-7362
వేశాల	-7363
▁నిర్మాణంలో	-7364
▁సముద్రమట్టానికి	-7365
amu	-7366
▁తాడి	-7367
▁శీర్	-7368
▁వారసత్వ	-7369
82	-7370
డాలు	-7371
రాదు	-7372
▁ఎండ	-7373
▁తెలిసి	-7374
▁విరుద్ధ	-7375
హై	-7376
▁56	-7377
▁ధృ	-7378
▁ఉత్సవాలు	-7379
▁వహించారు	-7380
లిథి	-7381
్రియా	-7382
▁దిశగా	-7383
▁కేంద్రీ	-7384
▁స్థాయికి	-7385
జిన	-7386
▁మరు	-7387
చెరువు	-7388
▁అంక	-7389
కుంటే	-7390
స్థాప	-7391
▁ఎడారి	-7392
▁కుక్క	-7393
▁నోబెల్	-7394
▁నెదర్లాండ్	-7395
ించుకున్నారు	-7396
▁ఉదయ	-7397
స్వతి	-7398
▁కమ్మ	-7399
▁బాగు	-7400
▁విటమి	-7401
▁ప్రయోజ	-7402
టము	-7403
▁యాజ	-7404
▁అల్లు	-7405
▁కర్మా	-7406
▁నిలువ	-7407
▁సామెత	-7408
▁పట్టణంలో	-7409
▁వడ	-7410
రిలో	-7411
▁మేఘ	-7412
▁అందరికీ	-7413
▁గుడివాడ	-7414
ంగిక	-7415
▁స్తో	-7416
వాదులు	-7417
▁కవులు	-7418
▁ధర్మా	-7419
▁నిమ్మ	-7420
బాల	-7421
లిన	-7422
▁శిథి	-7423
▁షేక్	-7424
▁సెర్	-7425
▁చమురు	-7426
▁భగవంతు	-7427
▁భూభాగంలో	-7428
▁దంత	-7429
▁టర్కీ	-7430
▁ఫిల్మ్	-7431
▁గాథ	-7432
▁ఖనిజ	-7433
ేషన్స్	-7434
▁ఆస్తి	-7435
▁కవితా	-7436
▁భాషను	-7437
▁ఉమ్మడి	-7438
▁బియ్యం	-7439
స్థాయిలో	-7440
▁శివరావు	-7441
▁గుండ	-7442
▁దేవర	-7443
ద్దీన్	-7444
▁కావున	-7445
▁నష్టం	-7446
▁సమస్త	-7447
ించుకొని	-7448
▁మంత్రిగా	-7449
▁మేన	-7450
ించెను	-7451
▁దిశలో	-7452
తుడైన	-7453
▁చిలక	-7454
తులుగా	-7455
▁స్మార	-7456
▁చేయటానికి	-7457
▁చెల్లించ	-7458
పాలె	-7459
గ్రహం	-7460
▁అధ్యాప	-7461
▁జరిపిన	-7462
▁పొద్దు	-7463
▁పొందాయి	-7464
▁సీతారామ	-7465
▁కృష్ణుడు	-7466
గలదు	-7467
▁1983	-7468
▁పవర్	-7469
▁పనిచేసి	-7470
▁మార్గము	-7471
భరణ	-7472
టెక్	-7473
▁ఎర్	-7474
▁అటవీ	-7475
opulation	-7476
▁ఉపయోగించడం	-7477
ెడి	-7478
ళ్లకు	-7479
▁వెలుపల	-7480
▁పేర్కొంది	-7481
▁ప్రారంభమైన	-7482
▁అపర	-7483
▁రాచ	-7484
ట్టుగా	-7485
▁నిర్బంధ	-7486
▁ఇస్తుంది	-7487
▁భక్తులకు	-7488
▁పరిశోధకులు	-7489
▁హక్కుల	-7490
▁వైభవంగా	-7491
▁విద్యార్థులకు	-7492
ులలో	-7493
▁పండ	-7494
▁స్క్	-7495
▁కలయిక	-7496
▁ప్రయాణీ	-7497
▁దిగ	-7498
ంబాయి	-7499
డింగు	-7500
వున్న	-7501
▁నమ్ము	-7502
uc	-7503
▁అనా	-7504
▁ఆదర్శ	-7505
▁చూడవచ్చు	-7506
▁ఎలె	-7507
▁దోష	-7508
▁అంతేకాకుండా	-7509
పూజ	-7510
నైనా	-7511
▁శనగ	-7512
స్యం	-7513
గలిగే	-7514
▁తాండ	-7515
▁ఎంచుకు	-7516
▁సంస్థను	-7517
▁చేసుకునే	-7518
▁400	-7519
▁form	-7520
▁దక్క	-7521
ప్రోలు	-7522
▁కారణాల	-7523
▁విస్తృత	-7524
low	-7525
దిద్ద	-7526
▁క్షత్రి	-7527
▁ఉన్నాయని	-7528
చర్య	-7529
▁తరహా	-7530
▁అగ్నిపర్వ	-7531
కుడి	-7532
▁శివా	-7533
నిని	-7534
పాలకు	-7535
▁అద్వ	-7536
▁మొత్తంలో	-7537
చక్ర	-7538
▁బండ	-7539
మానియా	-7540
▁పేరిట	-7541
ేవ్	-7542
▁బర్మా	-7543
▁cl	-7544
ప్రీ	-7545
▁హర్	-7546
▁51	-7547
గుప్	-7548
▁విరమణ	-7549
▁ప్రత్యర్థి	-7550
▁ప్రవేశించి	-7551
▁ఏను	-7552
▁ఎగువ	-7553
▁అరణ్య	-7554
▁నుండే	-7555
▁కెమెరా	-7556
▁ఆలయానికి	-7557
▁విజయాన్ని	-7558
▁ప్రచురించారు	-7559
▁వాటా	-7560
▁గొట్ట	-7561
▁కలిగిఉ	-7562
▁ఆరుగురు	-7563
▁బెల్లంపల్లి	-7564
డిద	-7565
యందు	-7566
▁అప్పుడ	-7567
▁ఒడిషా	-7568
▁నివసించే	-7569
▁చిత్రాన్ని	-7570
▁రాష్ట్రాలలో	-7571
▁who	-7572
▁1985	-7573
▁దిక్కు	-7574
▁భావించి	-7575
కగా	-7576
ance	-7577
ంబర్	-7578
▁తలె	-7579
▁ఆరాధ	-7580
కైన	-7581
సమా	-7582
▁కాపాడ	-7583
▁ఇబ్రహీ	-7584
▁రీసెర్	-7585
▁నగరాలలో	-7586
▁విస్తరించింది	-7587
చల్	-7588
ాయో	-7589
మాన్య	-7590
విధాన	-7591
▁క్వి	-7592
▁శ్వాస	-7593
▁హోటల్	-7594
▁ఇందిరా	-7595
ించుకున్నాడు	-7596
▁ట్	-7597
ూరలు	-7598
▁చేపట్టిన	-7599
ధిపతి	-7600
▁చేపలు	-7601
▁బెల్లం	-7602
▁మెడికల్	-7603
▁ప్రాజెక్ట్	-7604
క్కో	-7605
్యూర్	-7606
▁శ్రీనివా	-7607
▁తగ్	-7608
▁1962	-7609
▁1993	-7610
▁వాటర్	-7611
▁కాలక్రమ	-7612
▁అన్నమయ్య	-7613
పచ్చ	-7614
▁కలగ	-7615
కన్నా	-7616
స్తానని	-7617
▁చక్కని	-7618
▁ప్రస్తావన	-7619
ెస్టు	-7620
▁India	-7621
జియా	-7622
భిషేక	-7623
▁ఫ్లా	-7624
▁దేవతల	-7625
▁ఇటీవలి	-7626
▁చైతన్య	-7627
▁వర్షపాతం	-7628
▁నాగార్జున	-7629
యింగ్	-7630
▁గ్లో	-7631
▁పఠ	-7632
మెన్	-7633
▁శోభ	-7634
మాండ్	-7635
▁స్థలం	-7636
▁సంపు	-7637
▁పల్లిలో	-7638
▁అనేకమంది	-7639
▁ఏళ్ల	-7640
ంత్రిక	-7641
▁ద్వీపం	-7642
▁లెక్కి	-7643
ళాలు	-7644
ికాల	-7645
▁శంకర	-7646
▁నౌక	-7647
▁artic	-7648
▁అల్లాహ్	-7649
▁అసాధారణ	-7650
▁లక్ష్యం	-7651
▁సాంద్రత	-7652
▁సంతరించుకు	-7653
▁పల్	-7654
▁బస్	-7655
▁part	-7656
▁వృద్ధ	-7657
▁మెజారిటీ	-7658
▁సూర్యుని	-7659
▁దక్షిణాఫ్రికా	-7660
ేత	-7661
hed	-7662
ోగి	-7663
వ్యవ	-7664
శేఖర	-7665
▁1971	-7666
▁ఛాన	-7667
ట్లకు	-7668
▁ఐక్యరాజ్య	-7669
ach	-7670
▁1984	-7671
▁నగర్లో	-7672
71	-7673
▁భోజ	-7674
▁భాషగా	-7675
▁విద్యార్థుల	-7676
రీలు	-7677
పాత	-7678
ద్ధం	-7679
▁భేద	-7680
▁తీసుకురా	-7681
▁విశ్వనాథ	-7682
ాద	-7683
ాయణం	-7684
▁బల్	-7685
యున్న	-7686
▁ఆగ్నేయ	-7687
▁ఇక్కడే	-7688
▁ఎవరైనా	-7689
▁వాయిద్య	-7690
93	-7691
ధికారి	-7692
▁కలిగే	-7693
▁సిరీస్	-7694
▁సాయంత్రం	-7695
▁జప	-7696
▁నెమ్మ	-7697
▁ప్రసంగ	-7698
▁విషయాలను	-7699
▁సహకారంతో	-7700
▁నర్స	-7701
▁విలువైన	-7702
▁బార	-7703
దారుల	-7704
▁వేగం	-7705
▁పెరిగిన	-7706
▁తొలిసారిగా	-7707
▁యంత	-7708
▁రాగ	-7709
షియన్	-7710
▁ధరించిన	-7711
▁చిత్రాలను	-7712
▁64	-7713
డ్యు	-7714
రవాణా	-7715
▁1967	-7716
▁2017	-7717
▁కోరి	-7718
▁ధూ	-7719
▁సంబ	-7720
▁అహ్మ	-7721
▁మల్లి	-7722
▁నిర్మించి	-7723
▁వద	-7724
మందు	-7725
▁ఖరీ	-7726
▁కీర్తన	-7727
▁పసిఫిక్	-7728
▁పోర్చుగీసు	-7729
▁అజ	-7730
▁పతా	-7731
ట్లలో	-7732
వెళ్ళ	-7733
▁ఏళ్ళ	-7734
▁అధిగమ	-7735
▁రంపచో	-7736
▁ముద్రణ	-7737
▁పాల్గొని	-7738
▁కిలోమీటర్లు	-7739
యిస్	-7740
▁దళి	-7741
పరిచి	-7742
▁ఏమిటంటే	-7743
▁జత	-7744
▁మచి	-7745
ంపూర్	-7746
తెలంగా	-7747
పోతాయి	-7748
▁విశ్వస	-7749
▁క్షిపణి	-7750
▁బ్రిటీషు	-7751
56	-7752
రిని	-7753
▁1956	-7754
▁వోల్	-7755
▁చేర్చి	-7756
వాహిక	-7757
▁జోడి	-7758
▁other	-7759
▁నిర్వహించే	-7760
▁పడ్డ	-7761
▁జూలైలో	-7762
▁నిజమైన	-7763
పల్లిలోనూ	-7764
యను	-7765
▁మద	-7766
▁మహాన	-7767
▁విక్టో	-7768
▁గుర్తించి	-7769
▁వధ	-7770
▁క్యాల	-7771
▁సమూహం	-7772
▁సమీక్ష	-7773
▁మస్జిద్	-7774
కృషి	-7775
వేసి	-7776
వలెను	-7777
ఫిక	-7778
▁మూలం	-7779
▁వ్యూ	-7780
▁నదులు	-7781
▁ప్రశ్ని	-7782
▁తెలిపారు	-7783
▁మిక్కిలి	-7784
ఖు	-7785
న్నం	-7786
సార్	-7787
లాంటి	-7788
▁సిల్	-7789
తున్నా	-7790
▁తులసి	-7791
▁నుంచే	-7792
▁అధికారాన్ని	-7793
క్యం	-7794
ign	-7795
▁into	-7796
▁శిష్యు	-7797
▁సరాసరి	-7798
త్వానికి	-7799
▁పదానికి	-7800
▁మ్యూజియం	-7801
ark	-7802
▁అమ్మో	-7803
▁లోనికి	-7804
▁చెప్పబడింది	-7805
▁కడ	-7806
▁అవకా	-7807
▁హెల్	-7808
▁78	-7809
▁నగరంలోని	-7810
ob	-7811
పేక్ష	-7812
▁1972	-7813
▁గోవింద	-7814
▁జగన్నా	-7815
▁మూర్తి	-7816
▁కొమ	-7817
▁పెద్దా	-7818
▁మెక్సికో	-7819
▁mw	-7820
form	-7821
రంగం	-7822
▁ఉంచి	-7823
▁అధికం	-7824
▁మౌలిక	-7825
▁శతాబ్దపు	-7826
▁నాగేశ్వరరావు	-7827
▁కుప్ప	-7828
తెలంగాణ	-7829
ాలకి	-7830
జియన్	-7831
▁పత్రికలో	-7832
▁పెరుగుదల	-7833
91	-7834
వాయి	-7835
కార్య	-7836
▁బంధు	-7837
కుమారి	-7838
▁ప్రశ్న	-7839
ేశ్వరస్వామి	-7840
outp	-7841
▁టోర్	-7842
output	-7843
▁పెద్దగా	-7844
రేఖ	-7845
యును	-7846
▁సౌత్	-7847
మండల	-7848
▁1977	-7849
▁పక్కన	-7850
▁దెబ్బతి	-7851
▁ఉండేవాడు	-7852
▁దారు	-7853
▁దుఃఖ	-7854
▁తరపున	-7855
శయ	-7856
టినీ	-7857
టుకు	-7858
ర్రీ	-7859
pars	-7860
▁డ్రా	-7861
▁బ్రెజిల్	-7862
ేవీ	-7863
parser	-7864
▁క్షేత్రం	-7865
ari	-7866
▁రవీ	-7867
వ్వులు	-7868
:-	-7869
cri	-7870
▁ఆంధ	-7871
దక్షి	-7872
్రిప్	-7873
▁ఇవ్వడం	-7874
▁పురుగు	-7875
▁వేలాది	-7876
▁అరుదుగా	-7877
▁బ్యాటరీ	-7878
▁స్టె	-7879
పరేషన్	-7880
▁శాతవాహ	-7881
▁విశ్లేషణ	-7882
పెట్టాడు	-7883
▁ప్రదేశాలలో	-7884
▁ప్రారంభించి	-7885
మ్మీ	-7886
▁గోధుమ	-7887
▁కథానాయ	-7888
డ్డీ	-7889
▁లాగా	-7890
▁అప్పటికి	-7891
ండుట	-7892
గుడి	-7893
డులో	-7894
▁ఖండి	-7895
ప్పుడే	-7896
▁చేశాయి	-7897
▁సౌకర్య	-7898
▁బొంబాయి	-7899
▁నిర్వహిస్తుంది	-7900
▁కోప	-7901
▁comm	-7902
ించమని	-7903
▁తీసుకువచ్చ	-7904
▁gr	-7905
▁పగ	-7906
ఢ్	-7907
▁504	-7908
కరించే	-7909
▁తిరుమ	-7910
స్తున్నా	-7911
▁మొదటిసారి	-7912
భౌ	-7913
యంతి	-7914
▁ముర	-7915
▁1975	-7916
▁ఆజ్ఞ	-7917
▁ఛాయా	-7918
▁చేపట్టి	-7919
▁అదృ	-7920
▁శ్రీనివాస	-7921
▁ఏర్పడుతుంది	-7922
▁సుబ్రహ్మణ్య	-7923
▁అంశం	-7924
▁ఆఖరి	-7925
కుం	-7926
▁గాఢ	-7927
▁will	-7928
▁ఎందరో	-7929
▁నిరసన	-7930
▁వ్యత్యా	-7931
92	-7932
▁సరళ	-7933
▁టన్నుల	-7934
▁ఐరోపాలో	-7935
టలు	-7936
ించినట్లు	-7937
,,	-7938
▁రోగి	-7939
▁సాయం	-7940
▁మినుము	-7941
▁నిష్పత్తి	-7942
▁ప్రతినిధి	-7943
బార్	-7944
▁ఆధారం	-7945
▁ఓట్లు	-7946
▁జరుపుకుంటారు	-7947
now	-7948
▁లోత	-7949
▁వ్వ	-7950
▁ద్రావ	-7951
▁మొక్కల	-7952
94	-7953
▁కాఫీ	-7954
▁ల్లో	-7955
▁250	-7956
్రాంతి	-7957
▁ఎరుపు	-7958
▁స్టేషన్లు	-7959
▁110	-7960
గ్రంథ	-7961
రితమైన	-7962
ఇతర	-7963
నాగ	-7964
▁బంగా	-7965
▁వ్యవహరిస్తారు	-7966
లోక	-7967
▁చోట్ల	-7968
▁నాయిక	-7969
▁స్వీయ	-7970
▁అలెగ్జా	-7971
దేవర	-7972
లింగం	-7973
▁హెర్	-7974
▁ఆదివారం	-7975
స్థలం	-7976
▁అన్నా	-7977
▁ఇద్దరూ	-7978
▁పురస్కారాన్ని	-7979
▁518	-7980
▁అన్య	-7981
కుమారు	-7982
▁ఆల్బమ్	-7983
▁గ్రాండ్	-7984
▁క్యాన్సర్	-7985
▁పోషించారు	-7986
▁హొ	-7987
▁కచ్చితంగా	-7988
▁ప్రభావాన్ని	-7989
▁ఎన్నికయ్యాడు	-7990
▁వంగ	-7991
సమితి	-7992
లోనికి	-7993
▁ఉపన్యా	-7994
▁ఓడించి	-7995
▁వ్యవసాయాధారిత	-7996
రాక్	-7997
కల్లు	-7998
▁మంగో	-7999
▁8,	-8000
▁లక్	-8001
ఫోర్నియా	-8002
దిలే	-8003
▁కౌర	-8004
▁ఖ్యా	-8005
▁విను	-8006
▁ఇతనికి	-8007
▁we	-8008
▁మెట్	-8009
▁రెడ్	-8010
▁సైనికులు	-8011
▁పడే	-8012
erson	-8013
▁పాస్	-8014
▁పేరొ	-8015
▁విసి	-8016
▁ద్వితీయ	-8017
▁పురావస్తు	-8018
▁శాస్త్రంలో	-8019
▁87	-8020
పించే	-8021
▁ఆర్ట్	-8022
▁వాడుతారు	-8023
ww	-8024
▁whe	-8025
▁ఉపాధి	-8026
▁సరో	-8027
▁పాడు	-8028
▁తొలగి	-8029
▁మచిలీప	-8030
▁రంధ్రం	-8031
▁డిజిటల్	-8032
▁వ్యవహరి	-8033
▁మార్గదర్శ	-8034
▁ele	-8035
▁మేలు	-8036
▁వసంత	-8037
రుగుడు	-8038
▁మెట్రో	-8039
▁ద్రాక్ష	-8040
ేరు	-8041
లాలు	-8042
▁పిలిచే	-8043
▁రూపాయలు	-8044
▁ఉద్యమంలో	-8045
▁చేయబడుతుంది	-8046
గాన్	-8047
▁పూర	-8048
▁భూకంప	-8049
నాట	-8050
క్కిన	-8051
రియస్	-8052
▁మలేషియా	-8053
చర	-8054
మరియు	-8055
పడతాయి	-8056
▁సంగ్రహ	-8057
▁చారిత్రా	-8058
fer	-8059
▁నాగరికత	-8060
▁ఇంద్రుడు	-8061
▁వెళ్ళారు	-8062
▁54	-8063
▁గ్లా	-8064
గూడెంలో	-8065
▁కళాకారు	-8066
▁ప్రవర్తి	-8067
స్వర	-8068
▁సూర్యుడు	-8069
▁తాత్కాలిక	-8070
▁స్వామివారి	-8071
▁ఒంగోలు	-8072
▁ఘంటసాల	-8073
▁తీరంలో	-8074
▁దేశాలకు	-8075
▁సోదరుడు	-8076
ాక	-8077
▁పాము	-8078
▁ఎత్తున	-8079
▁దీక్ష	-8080
▁విద్యాభ్యాసం	-8081
మయ	-8082
చరణ	-8083
▁కథను	-8084
▁తీరు	-8085
▁గలవాడు	-8086
▁దానిలో	-8087
▁బ్రాడ్	-8088
der	-8089
▁అవల	-8090
బెట్ట	-8091
విష్ణ	-8092
▁such	-8093
▁చిక్కు	-8094
▁గడ్డి	-8095
▁పౌరులు	-8096
▁శస్త్రచికిత్స	-8097
హణ	-8098
టాలు	-8099
▁గోప	-8100
▁జీర్ణ	-8101
▁పరిపాలనా	-8102
బెట్	-8103
▁వేర	-8104
▁1974	-8105
▁మహమ్మ	-8106
▁ఆనకట్ట	-8107
▁కలిగించే	-8108
పోటు	-8109
రాజా	-8110
▁దృఢ	-8111
▁మత్	-8112
స్ట్రీ	-8113
డేపల్లి	-8114
▁ప్రపంచంలోనే	-8115
aj	-8116
ించినా	-8117
ోద	-8118
ఘంటు	-8119
▁పోగ	-8120
▁ఉచిత	-8121
▁ఉప్ప	-8122
బడినవి	-8123
▁ఒంటరి	-8124
▁సంకేత	-8125
▁రచయితగా	-8126
▁సంగీతాన్ని	-8127
వాళ్ళు	-8128
▁ప్రతిబింబ	-8129
▁రక	-8130
లాస్	-8131
▁దొర	-8132
▁యాద	-8133
▁వేళ	-8134
▁సమర	-8135
▁కవిత్వం	-8136
▁చెప్పింది	-8137
ధ్ధ	-8138
▁086	-8139
తాయని	-8140
▁ట్రై	-8141
నియ	-8142
చ్ఛి	-8143
▁మాయా	-8144
▁ఎకరాల	-8145
▁సుప్రీ	-8146
▁వాషింగ్	-8147
పుల్	-8148
▁ఇంద	-8149
త్తుల	-8150
▁ఆచరణ	-8151
▁కడుపు	-8152
గంధ	-8153
లాన్	-8154
▁కాయగ	-8155
▁కుదు	-8156
▁థాయ్	-8157
▁తీర్పు	-8158
▁లభించే	-8159
▁రాష్ట్రానికి	-8160
BC	-8161
▁తరి	-8162
▁రిజ	-8163
మింగ్	-8164
▁బహుశా	-8165
మూరి	-8166
▁శివు	-8167
▁బ్యాండ్	-8168
▁భిన్నంగా	-8169
▁వ్యవస్థలు	-8170
erm	-8171
ime	-8172
▁సౌదీ	-8173
▁పెళ్ళ	-8174
▁అనుసరి	-8175
▁జార్జ్	-8176
ite	-8177
వర్క్	-8178
▁ప్రఖ్యాతి	-8179
▁భూత	-8180
▁వంశీ	-8181
దేశంలో	-8182
aw	-8183
▁ట్రె	-8184
సంఖ్యా	-8185
▁ఇటాలి	-8186
▁శంకర్	-8187
▁సాగింది	-8188
▁నెలకొల్ప	-8189
ount	-8190
▁ప్రోగ్రామ్	-8191
▁97	-8192
▁బలం	-8193
మామ	-8194
పోవటం	-8195
▁అక్కి	-8196
▁వేడుక	-8197
▁శాస్త్రము	-8198
▁dis	-8199
▁గుడ్	-8200
మునందు	-8201
▁మర్రి	-8202
▁చైనాలో	-8203
▁లంక	-8204
▁కౌంటీ	-8205
సేందుకు	-8206
▁బ్యాక్	-8207
▁నగర్లోనూ	-8208
500	-8209
ళ్ళతో	-8210
▁అపరాలు	-8211
▁నేపథ్య	-8212
ించువాడు	-8213
▁పండితులు	-8214
▁చిత్రాలకు	-8215
▁డు	-8216
ద్వే	-8217
▁160	-8218
▁521	-8219
▁ముగ	-8220
▁1988	-8221
▁తిరగ	-8222
▁మోహన్	-8223
▁సంప్రదాయం	-8224
▁కలదు	-8225
బడలేదు	-8226
▁సంభవి	-8227
▁తీసుకె	-8228
యోగం	-8229
తులైన	-8230
▁1946	-8231
నిర్మాణ	-8232
పేస్	-8233
▁శిల	-8234
▁నన్న	-8235
▁ఉండాలని	-8236
▁ఎదురుగా	-8237
▁కాశ్మీరు	-8238
▁ఉత్పత్తులు	-8239
సల్	-8240
▁ఆగి	-8241
▁రకర	-8242
▁ఎవరూ	-8243
బ్బులు	-8244
▁ఇస్లామీయ	-8245
▁రంగారావు	-8246
▁ఖలీ	-8247
▁రామ్	-8248
▁ఒడ్డున	-8249
ory	-8250
▁హార	-8251
▁జేమ్స్	-8252
▁భీష్ముడు	-8253
▁తీసుకున్నారు	-8254
54	-8255
పేట్	-8256
▁కర్త	-8257
▁ధారా	-8258
▁రత్న	-8259
▁బాలిక	-8260
▁నివాసగృహాలు	-8261
గానూ	-8262
▁అంశాలను	-8263
▁విముక్తి	-8264
-4	-8265
సిక్	-8266
▁సతీ	-8267
కర్షణ	-8268
▁మూత్ర	-8269
▁హెన	-8270
▁నాల్గవ	-8271
▁రాయలసీమ	-8272
▁మార్గాలు	-8273
▁రాజ్యాంగం	-8274
▁తెచ్చుకు	-8275
▁పరికరాలు	-8276
▁గన్న	-8277
▁గంగరాజు	-8278
▁ఎన్నికలు	-8279
▁అండ	-8280
▁ఫోట	-8281
ండియా	-8282
పొంది	-8283
▁వికీపీడియా	-8284
▁యాత్రి	-8285
▁సంక్షో	-8286
▁సమకాలీన	-8287
బండ	-8288
రవే	-8289
▁బోధన్	-8290
▁Al	-8291
మంటే	-8292
మియా	-8293
▁ఆవిర్భ	-8294
▁భావించ	-8295
దై	-8296
▁షూ	-8297
బ్రో	-8298
మియం	-8299
య్యూ	-8300
▁కరువు	-8301
▁వైష్ణవ	-8302
▁ఆధిపత్యం	-8303
▁జన్మించింది	-8304
తరు	-8305
▁ఇద	-8306
▁అరబ్	-8307
▁కొలి	-8308
ంగాన్ని	-8309
▁స్కాట్	-8310
▁ప్రధాని	-8311
▁దృష్టిలో	-8312
▁కొట్టి	-8313
వంశ	-8314
యేట్	-8315
కుడైన	-8316
▁తాజా	-8317
వుతుంది	-8318
▁సేవలంది	-8319
▁తుపా	-8320
▁క్యాలె	-8321
▁తృ	-8322
కులలో	-8323
▁కందు	-8324
▁సల్ఫ	-8325
▁ఆలయాన్ని	-8326
▁కాశ్మీర్	-8327
▁పంచాయతీకి	-8328
ough	-8329
పించ	-8330
▁515	-8331
▁ఆము	-8332
▁ఆయిల్	-8333
▁మర్	-8334
▁1964	-8335
▁గద్వాల	-8336
▁పెట్రో	-8337
▁ప్రకటించాడు	-8338
కాక	-8339
ానియా	-8340
▁తిప్ప	-8341
▁తగినంత	-8342
ాలయాన్ని	-8343
▁అధ్యక్షుడిగా	-8344
వర్గ	-8345
▁1978	-8346
▁ఉత్స	-8347
▁వాసన	-8348
▁ఇల్లు	-8349
▁కాకతీ	-8350
▁ధర్మం	-8351
▁రోజులలో	-8352
దండ	-8353
టెన్	-8354
▁ఇష్టం	-8355
▁త్యాగ	-8356
▁పిలుపు	-8357
ose	-8358
కరం	-8359
▁అవతార	-8360
▁ముట్ట	-8361
▁ధార్మిక	-8362
▁”	-8363
డనే	-8364
ాయన	-8365
▁73	-8366
▁1979	-8367
▁దుకాణ	-8368
▁అత్యవసర	-8369
▁మండలంలో	-8370
▁లక్ష్మి	-8371
శాస్త్రంలో	-8372
▁పదార్థాలు	-8373
pt	-8374
ధర	-8375
▁---	-8376
▁సోదరు	-8377
▁లక్ష్మణ	-8378
ress	-8379
వైద్య	-8380
▁అల్ప	-8381
▁యురే	-8382
మెంటరీ	-8383
▁ప్రవే	-8384
▁ఆంగ్లే	-8385
▁యజమాని	-8386
▁మార్పిడి	-8387
96	-8388
▁రజ	-8389
▁చేయబడి	-8390
▁తీర్చి	-8391
▁సరస్వతి	-8392
కులతో	-8393
టట్లు	-8394
పోతున్న	-8395
▁స్థావర	-8396
▁వ్యక్తుల	-8397
px	-8398
▁దుర	-8399
▁సుమ	-8400
▁cent	-8401
స్థితి	-8402
ాలన్నీ	-8403
▁అయ్యారు	-8404
సొ	-8405
▁నలు	-8406
▁పోటీలలో	-8407
▁cs	-8408
క్యూ	-8409
▁1955	-8410
▁అంగు	-8411
రాలిగా	-8412
▁శైలిలో	-8413
ంపల్లిలో	-8414
▁article	-8415
▁పిలిచేవారు	-8416
ణులను	-8417
▁కురి	-8418
▁అవసరాలకు	-8419
▁కార్యక్రమాలను	-8420
పది	-8421
▁6,	-8422
▁అప్పుడే	-8423
▁రవీంద్ర	-8424
▁సమస్యలను	-8425
▁en	-8426
▁చీర	-8427
వారిలో	-8428
వేత్తలు	-8429
జ్యాన్ని	-8430
▁పునర్ని	-8431
కని	-8432
▁It	-8433
▁సవ	-8434
▁పరు	-8435
▁used	-8436
▁సారా	-8437
యోలిథి	-8438
▁డేవిడ్	-8439
▁శరీరంలో	-8440
▁చెప్పుకో	-8441
▁రీసెర్చ్	-8442
లస్	-8443
ౌర్య	-8444
సమయంలో	-8445
▁విభజి	-8446
▁గంటలకు	-8447
▁రాకెట్	-8448
▁రాశాడు	-8449
▁వివాదా	-8450
▁మహాభారత	-8451
▁మహారాజా	-8452
డ్జ	-8453
▁పడమర	-8454
▁మలయాళ	-8455
▁ముద్ద	-8456
▁స్వరూప	-8457
▁ఆవిష్కరణ	-8458
▁సంస్కృతం	-8459
▁ఇవ్వబడింది	-8460
వంతుడు	-8461
▁ప్రకా	-8462
▁సాగర్	-8463
▁అధిపతి	-8464
▁డిగ్రీల	-8465
▁చిత్రీకరణ	-8466
ంగ్రామానికి	-8467
aus	-8468
వాని	-8469
▁అబ్బ	-8470
▁జమ్మ	-8471
▁కాయగూరలు	-8472
▁శాసనం	-8473
▁ఎలక్ట్రానిక్	-8474
▁తొలు	-8475
ట్లేదు	-8476
లనుండి	-8477
▁నగరాల	-8478
▁కార్తీ	-8479
కూరి	-8480
త్వా	-8481
▁తేమ	-8482
▁పొటా	-8483
▁భక్త	-8484
▁పూర్ణ	-8485
▁లైంగిక	-8486
▁పరిమాణంలో	-8487
▁గాక	-8488
▁ట్రే	-8489
▁నిఘంటు	-8490
ied	-8491
న్నర	-8492
▁కోటి	-8493
▁చేయి	-8494
కుండానే	-8495
▁ప్రవాహం	-8496
ేడ్	-8497
చేసే	-8498
▁పురోగ	-8499
▁ప్రభు	-8500
▁తమ్ముడు	-8501
▁శ్రీకృష్ణుడు	-8502
ందనే	-8503
తుని	-8504
▁అక్రమ	-8505
▁ఆరోగ్యం	-8506
▁సినిమాలకు	-8507
▁నడ	-8508
▁ఆతి	-8509
ensus	-8510
▁ఆక్రమణ	-8511
నుకు	-8512
యార్	-8513
▁పడవ	-8514
వరీ	-8515
▁నిన్ను	-8516
నాటక	-8517
▁ప్రేమి	-8518
▁గట్టిగా	-8519
▁)	-8520
కెట్	-8521
వూరు	-8522
శేఖర్	-8523
▁1987	-8524
▁దక్కి	-8525
▁నగరాలు	-8526
▁నిధులు	-8527
▁పార్టీలో	-8528
▁విక్టోరియా	-8529
తర్	-8530
దాలు	-8531
▁యుగం	-8532
▁ఒకవేళ	-8533
▁గ్రూపు	-8534
▁భీముడు	-8535
తూనే	-8536
▁తవ్వ	-8537
▁అయిదు	-8538
▁ఎన్టీ	-8539
▁ఎలెక్ట	-8540
▁ఒలింపిక్	-8541
తంత	-8542
ited	-8543
సభ్య	-8544
▁తీగ	-8545
▁ఇన్ని	-8546
▁దొరికి	-8547
▁రంపచోడ	-8548
▁విడిగా	-8549
▁శీర్షిక	-8550
▁130	-8551
▁డీఏ	-8552
▁డెల్	-8553
▁గణాంకాలను	-8554
ంజి	-8555
▁కావలి	-8556
▁ఏర్పరు	-8557
▁విశ్వాస	-8558
▁were	-8559
▁నిర్వహించెదరు	-8560
▁1982	-8561
▁పూజి	-8562
▁పోర్	-8563
▁మూలకం	-8564
▁వ్యక్తం	-8565
▁శ్రీరామ	-8566
▁కలుగుతుంది	-8567
▁ద్రవ్యరాశి	-8568
▁వర్గీకరించ	-8569
▁ఆప్	-8570
▁వరంగల్లో	-8571
▁క్రైస్తవులు	-8572
డును	-8573
మ్మె	-8574
ోద్యమ	-8575
▁పన్న	-8576
త్తూరు	-8577
▁దళాలు	-8578
▁ఇవన్నీ	-8579
▁రాక్షస	-8580
యినా	-8581
▁కమీ	-8582
వచ్చి	-8583
▁ఇతరులు	-8584
▁విలియం	-8585
▁పెట్టింది	-8586
▁వెంకటగిరి	-8587
▁సైన్యాన్ని	-8588
నటు	-8589
వర్మ	-8590
▁గిరిజన	-8591
▁కారణాలు	-8592
రలో	-8593
▁జవ	-8594
▁1965	-8595
▁వచ్చును	-8596
▁దుస్తులు	-8597
ron	-8598
▁కిర్	-8599
▁చేయగల	-8600
▁తెలియదు	-8601
▁తెలియని	-8602
▁కనుగొన్నారు	-8603
pec	-8604
డను	-8605
ధారి	-8606
▁జీవులు	-8607
జయ	-8608
▁అంజ	-8609
▁జిల్లాల	-8610
▁వాషింగ్టన్	-8611
ేణా	-8612
▁ఐదవ	-8613
శాలలో	-8614
జివీడు	-8615
వరంలోనూ	-8616
▁మార్చారు	-8617
▁పేర్కొన్న	-8618
▁లిమి	-8619
▁ఘనంగా	-8620
▁మరాఠీ	-8621
▁మసీదు	-8622
▁వాద్య	-8623
▁ఖురాన్	-8624
▁సమాంతర	-8625
▁ఏర్పడును	-8626
కౌ	-8627
పుణ్య	-8628
▁గుట్ట	-8629
▁సీఆర్	-8630
▁పురాణం	-8631
క్రమాన్ని	-8632
న్యం	-8633
▁కంద	-8634
▁కాట	-8635
▁తీరం	-8636
▁శిబి	-8637
చుకొని	-8638
▁మధ్యా	-8639
▁టిబెట్	-8640
▁ద్వారం	-8641
▁సంస్థకు	-8642
▁విగ్రహాలు	-8643
▁అందించింది	-8644
▁72	-8645
▁1945	-8646
▁కమలా	-8647
▁బంతి	-8648
▁భాషల	-8649
▁స్మారక	-8650
▁వ్యాధులు	-8651
▁కచ్చితమైన	-8652
▁వెల్డింగు	-8653
లక్	-8654
మాలు	-8655
▁ఆవరణ	-8656
▁కష్టం	-8657
▁ఘర్షణ	-8658
▁పక్షి	-8659
▁దర్శనం	-8660
▁పడింది	-8661
▁కాలములో	-8662
షియల్	-8663
▁బ్రూ	-8664
▁తరలించ	-8665
▁కార్యకలాపాలు	-8666
▁నిర్మించబడిన	-8667
బోధ	-8668
▁అహ	-8669
▁గై	-8670
▁its	-8671
మాత్ర	-8672
▁క్లోరైడ్	-8673
erv	-8674
షుల	-8675
▁ఆవు	-8676
▁1969	-8677
▁కాలిఫోర్నియా	-8678
▁పదే	-8679
ించగల	-8680
▁ఇంధన	-8681
▁నమస్	-8682
▁రామా	-8683
▁సాయుధ	-8684
▁ఆవిర్భవ	-8685
▁డాలర్లు	-8686
▁మ్యూజిక్	-8687
సాగర్	-8688
▁వేణు	-8689
ించేవాడు	-8690
▁ఆఫ్ఘనిస్తాన్	-8691
▁ఇన్స్టిట్యూట్	-8692
▁UK	-8693
న్యు	-8694
▁సంధి	-8695
▁అతడిని	-8696
▁సున్ని	-8697
▁ఇస్తారు	-8698
▁తర్వాతి	-8699
గుల్	-8700
▁డబ్	-8701
▁సంక	-8702
▁పూజా	-8703
▁రాలే	-8704
టిక్స్	-8705
▁అంతగా	-8706
▁శుభ్ర	-8707
▁సాంప్రద	-8708
▁విభాగాలు	-8709
కాశ్ర	-8710
▁ఫ్రాన్	-8711
▁రెట్లు	-8712
▁వున్నది	-8713
▁పర్షియన్	-8714
▁సంగీతంలో	-8715
▁నెదర్లాండ్స్	-8716
వరపు	-8717
▁కేంద	-8718
▁చేపల	-8719
▁శ్రా	-8720
▁హస్త	-8721
▁దిగుమతి	-8722
---	-8723
▁ఛార్	-8724
చేశాడు	-8725
▁చెల్లె	-8726
▁మేనేజ్	-8727
▁పరిమితం	-8728
ణుల	-8729
శయం	-8730
▁ap	-8731
▁అన్నింటి	-8732
▁ప్రతిష్ఠా	-8733
లైట్	-8734
ంగానే	-8735
▁విభేద	-8736
▁కాలేజి	-8737
▁బ్రహ్మా	-8738
▁గణనీయంగా	-8739
క్వ	-8740
▁ల్యా	-8741
▁ఊపిరి	-8742
▁అట్లాంటిక్	-8743
ంపా	-8744
▁అనుచ	-8745
▁కిమీ	-8746
▁వసూలు	-8747
▁స్థిరమైన	-8748
టియ	-8749
ంతర్	-8750
▁టార్	-8751
▁నైరు	-8752
▁బాధి	-8753
▁స్తు	-8754
▁సహకారం	-8755
istricts	-8756
శ్రే	-8757
▁ఆవిరి	-8758
▁పార్కు	-8759
▁గ్రామపంచ	-8760
▁నిపుణులు	-8761
▁సంగారెడ్డిలోను	-8762
సౌ	-8763
ప్పున	-8764
▁అసంత	-8765
▁అర్హత	-8766
▁వర్గాల	-8767
ice	-8768
మతం	-8769
వాటి	-8770
usion	-8771
▁కుంభ	-8772
కొన్నారు	-8773
స్త్రాన్ని	-8774
▁రావట్లేదు	-8775
▁పట్టణానికి	-8776
▁సద	-8777
▁చర్	-8778
▁శార	-8779
▁హాజర	-8780
▁అభ్యా	-8781
▁ప్రాధ	-8782
▁రాముని	-8783
right	-8784
క్కలు	-8785
▁డౌన్	-8786
పెట్టు	-8787
▁పోలాండ్	-8788
▁పోలీసులు	-8789
-10	-8790
డలో	-8791
వాహక	-8792
▁person	-8793
▁వ్యక్త	-8794
▁చరిత్రను	-8795
▁నెమ్మదిగా	-8796
76	-8797
త్రిమ	-8798
▁చంపి	-8799
▁వారణా	-8800
ంగళ	-8801
డలు	-8802
▁app	-8803
▁ఐసో	-8804
▁మారుతుంది	-8805
రాం	-8806
నులకు	-8807
ెస్టి	-8808
▁కొడు	-8809
▁విల్	-8810
జాన్ని	-8811
ించుకో	-8812
▁మక్కా	-8813
▁జాతికి	-8814
▁నివాసం	-8815
▁చెందుతున్న	-8816
▁ఫార	-8817
▁తేనె	-8818
▁మేరీ	-8819
▁కప్పు	-8820
▁లవ	-8821
తోనే	-8822
▁కళార	-8823
సేవారు	-8824
▁మునిగి	-8825
▁ఆఫీ	-8826
▁దేహ	-8827
▁నౌకాశ్ర	-8828
▁ఉదాహరణలు	-8829
▁విస్తారమైన	-8830
క్కన	-8831
▁నౌకా	-8832
▁రాసి	-8833
▁పంచుకు	-8834
▁ఏంజ	-8835
▁కాలము	-8836
▁పరీక్షలు	-8837
కరిస్తుంది	-8838
▁పనిచేసారు	-8839
▁విస్తారంగా	-8840
తంలో	-8841
లవరం	-8842
▁అత్త	-8843
▁తెరి	-8844
▁వారే	-8845
▁ఇంకొక	-8846
▁ప్రేరే	-8847
▁అరెస్టు	-8848
▁బెంగుళూరు	-8849
ోపా	-8850
బ్రి	-8851
▁పూల	-8852
▁రక్తం	-8853
▁ప్రయోజనం	-8854
ఫలి	-8855
▁To	-8856
ade	-8857
▁కూచి	-8858
▁గానూ	-8859
న్నిస్	-8860
్యూర్టో	-8861
మయ్యింది	-8862
దర్శన	-8863
▁పాడి	-8864
▁వాల్వ	-8865
▁పరిమిత	-8866
▁కార్మిక	-8867
▁చెందాయి	-8868
▁శతాబ్దాల	-8869
▁తెలుస్తోంది	-8870
ae	-8871
గ్వే	-8872
నాయుడు	-8873
▁గొంతు	-8874
▁సంభవించిన	-8875
▁రూపొందించారు	-8876
లూరి	-8877
▁యూర	-8878
▁మారే	-8879
▁సెట్	-8880
▁జగ్గయ్య	-8881
▁ల్యాండ్	-8882
▁కూలి	-8883
ప్రభుత్	-8884
▁వాస్తవానికి	-8885
▁ప్రొడ	-8886
▁హాంగ్	-8887
▁విటమిన్	-8888
▁వ్యాఖ్యాని	-8889
▁కాస్	-8890
▁సెన్	-8891
ట్టుకు	-8892
ించడంలో	-8893
▁నరసరావు	-8894
▁దయ	-8895
▁తేలి	-8896
▁కాంగ్	-8897
▁రకాలుగా	-8898
▁చనిపోయిన	-8899
▁ప్రభుత్వాన్ని	-8900
59	-8901
మనం	-8902
బోర్	-8903
ార్ధం	-8904
▁రోజూ	-8905
▁ఉండవు	-8906
▁నిశ్చయ	-8907
▁సంక్షి	-8908
▁కావాలని	-8909
▁రంగాలలో	-8910
▁పద్ధతులను	-8911
▁క్యాలెండర్	-8912
▁వసు	-8913
ందర్య	-8914
▁1986	-8915
▁పెరిగే	-8916
▁వ్రాశాడు	-8917
▁ప్రముఖులు	-8918
▁అందుకున్నాడు	-8919
ధీన	-8920
ధ్వ	-8921
▁కచే	-8922
▁దాల్	-8923
క్షుడు	-8924
▁అధ్యాయ	-8925
▁మత్స్య	-8926
▁సంఖ్యా	-8927
▁సమాధాన	-8928
▁ఉదాహరణకి	-8929
▁క్రిస్టి	-8930
▁62	-8931
నిలో	-8932
లార్	-8933
లాల్	-8934
▁1957	-8935
▁పంజాబీ	-8936
▁వహిస్తుంది	-8937
సారం	-8938
టర్స్	-8939
▁అభిమా	-8940
▁డ్రైన	-8941
▁పలికి	-8942
▁పురస్కారాలు	-8943
నాం	-8944
సలు	-8945
▁పతనం	-8946
▁శత్ర	-8947
▁సంస్థలో	-8948
▁లక్షణాలను	-8949
53	-8950
కట్	-8951
▁63	-8952
జాలం	-8953
▁టైటిల్	-8954
మగు	-8955
▁68	-8956
క్రీ	-8957
▁కథనం	-8958
▁బాంబ	-8959
▁హిట్ల	-8960
ానో	-8961
▁లౌ	-8962
▁533	-8963
కాలకు	-8964
▁అలవాటు	-8965
▁స్వాతి	-8966
▁ఉస్మానియా	-8967
int	-8968
▁ఓటు	-8969
▁ఆభరణ	-8970
▁విప్లవం	-8971
▁నిర్మాణాలు	-8972
▁నిజామాబాద్లోనూ	-8973
rop	-8974
▁ఓటమి	-8975
▁ఫౌండ	-8976
తుండగా	-8977
▁సరస్వ	-8978
▁స్థాని	-8979
▁పెద్దలు	-8980
▁సంవత్సరము	-8981
బై	-8982
లన్	-8983
▁ఆయుర్వేద	-8984
▁రాజస్థాన్	-8985
జులు	-8986
▁నచ్చ	-8987
▁సంవత్సరాలకు	-8988
పోర్	-8989
బిల్	-8990
▁నీల	-8991
▁పదాల	-8992
ల్లోని	-8993
▁దీనినే	-8994
సాస్	-8995
▁రత్	-8996
సులను	-8997
▁చైనీ	-8998
▁ఎత్తి	-8999
▁ఆలయాలు	-9000
▁కాకతీయ	-9001
▁కెఫెలు	-9002
▁పోటీలో	-9003
▁వాస్తు	-9004
58	-9005
▁ఫలితం	-9006
ల్యాండ్	-9007
▁గ్రాడ్యు	-9008
▁సముద్రపు	-9009
షిప్	-9010
▁ఆరవ	-9011
▁గరిష్ఠ	-9012
▁బంగారం	-9013
▁బొమ్మలు	-9014
▁ప్రతిపాదన	-9015
దశి	-9016
చాయి	-9017
స్పి	-9018
india	-9019
▁1954	-9020
▁2018	-9021
▁వైట్	-9022
▁ఏర్పడే	-9023
▁పరిశీలన	-9024
యానా	-9025
గలిగిన	-9026
▁నడిచే	-9027
▁వేరొక	-9028
▁స్థాపించబడిన	-9029
over	-9030
ళ్లి	-9031
▁ఐతే	-9032
▁ఫెర	-9033
▁విర	-9034
్వర్డ్	-9035
▁బాధపడు	-9036
▁ఇబ్బంది	-9037
▁హక్కులు	-9038
▁స్ట్రీట్	-9039
▁ప్రదేశాలు	-9040
భ్ర	-9041
▁ఏకీకృత	-9042
▁రిజర్వ	-9043
▁మానవులు	-9044
▁వ్రాశారు	-9045
▁మంత్రిత్వ	-9046
మిత	-9047
ద్దరూ	-9048
▁పెర్	-9049
▁పత్తి	-9050
▁కృత్రిమ	-9051
▁తాడేపల్లి	-9052
ఎల్	-9053
జోన్	-9054
ంపబడి	-9055
▁ద్రవీ	-9056
▁పరస్పర	-9057
రని	-9058
స్తంభ	-9059
▁పితా	-9060
▁పిలవబడే	-9061
▁అనుమతించ	-9062
▁గడ్డ	-9063
▁కదలిక	-9064
▁బలంగా	-9065
▁అబ్దుల్	-9066
▁ఆక్సైడ్	-9067
విద	-9068
▁వ్యాపించి	-9069
ond	-9070
▁హుస్	-9071
▁వేసుకు	-9072
▁కమ్యూనిటీ	-9073
▁పెరుగుతున్న	-9074
▁బయో	-9075
ల్లంఘ	-9076
నమెంట్	-9077
▁పొన్న	-9078
▁చేరాయి	-9079
▁పాల్గొన్న	-9080
▁మద్రాసులో	-9081
మల్	-9082
భాషా	-9083
స్తో	-9084
▁ఈశ్వ	-9085
▁ఉగ్ర	-9086
▁మిషన్	-9087
▁నివాసి	-9088
సంగ	-9089
ట్టా	-9090
పండు	-9091
ర్సు	-9092
వోలు	-9093
▁trans	-9094
▁క్యూబా	-9095
▁ప్రోత్సాహ	-9096
ext	-9097
▁gov	-9098
▁జవా	-9099
గించి	-9100
▁పనితీ	-9101
▁ఊరేగింపు	-9102
▁లిమిటెడ్	-9103
▁ఎవ	-9104
శర్మ	-9105
▁మేళ	-9106
నట్లు	-9107
▁ట్యా	-9108
▁డిజైన్	-9109
▁ప్రతిస్ప	-9110
▁ఆర్థికంగా	-9111
▁ఓట్ల	-9112
▁జాతర	-9113
ందరికీ	-9114
▁స్నానం	-9115
▁మరణశిక్ష	-9116
74	-9117
▁aspx	-9118
▁సభ్యునిగా	-9119
▁tem	-9120
▁గరు	-9121
ేశ్వరుడు	-9122
▁ఆపరేషన్	-9123
▁రాబర్ట్	-9124
▁కొలంబియా	-9125
▁ఇంగ్లాండు	-9126
ould	-9127
▁may	-9128
▁అమర	-9129
▁చవి	-9130
▁సెల	-9131
▁జీడి	-9132
▁తగిలి	-9133
యీ	-9134
కస్	-9135
▁up	-9136
సంవత్	-9137
▁గిల్	-9138
▁లక్నో	-9139
ాలనుండి	-9140
▁పిల్లలను	-9141
▁లేకపోవడం	-9142
ఎన్	-9143
▁కరా	-9144
▁జాతీ	-9145
▁పరమా	-9146
▁ప్రై	-9147
త్వంలోని	-9148
▁భాగాలుగా	-9149
78	-9150
▁నకు	-9151
▁సేన	-9152
inder	-9153
▁చిత్రాల	-9154
gr	-9155
తేదీ	-9156
శాలను	-9157
▁1953	-9158
▁సైట్	-9159
▁అదుపు	-9160
▁శారీరక	-9161
▁కాలంలోనే	-9162
▁విశ్వవిద్యాలయము	-9163
▁do	-9164
నీస్	-9165
ంచుకో	-9166
▁కెరీ	-9167
కుర్తి	-9168
▁అస్థి	-9169
▁చెట్ల	-9170
▁సమయములో	-9171
ించుకున్న	-9172
▁విరివిగా	-9173
▁Un	-9174
లండ్	-9175
స్కూ	-9176
▁అర్చ	-9177
▁విభా	-9178
▁కామన్	-9179
▁చరిత్రకారులు	-9180
act	-9181
నైన	-9182
tern	-9183
పయోగ	-9184
▁మతా	-9185
▁1973	-9186
▁ఉపయోగపడుతుంది	-9187
▁fe	-9188
టెల్	-9189
▁కుతు	-9190
▁రాము	-9191
▁రకరకాల	-9192
▁వెళ్ళు	-9193
▁సామ్రాజ్యంలో	-9194
ase	-9195
▁all	-9196
్రేట్	-9197
▁యేసు	-9198
రుకుగా	-9199
▁భోజనం	-9200
స్తులను	-9201
▁మందిరం	-9202
▁మొదటగా	-9203
▁భద్రాచల	-9204
▁పెట్టాడు	-9205
Sub	-9206
ారణ్య	-9207
▁పేరుగా	-9208
▁మూలాలు	-9209
▁దేశాన్ని	-9210
▁నాలుగవ	-9211
▁నేపాల్	-9212
▁న్యూస్	-9213
తున్నాడు	-9214
oth	-9215
▁అగు	-9216
▁బేరియం	-9217
▁మామూలు	-9218
▁మునుపటి	-9219
▁రాజ్యంలో	-9220
ండరు	-9221
▁వర్ధ	-9222
▁అవినీ	-9223
▁నుంచీ	-9224
▁పప్పు	-9225
▁పరికరం	-9226
▁రామాను	-9227
▁చెందినవారు	-9228
▁పర్యవేక్షణ	-9229
ake	-9230
మటి	-9231
state	-9232
▁1949	-9233
▁మాని	-9234
▁వెచ్చ	-9235
▁నామకరణం	-9236
▁కార్యదర్శిగా	-9237
గంటి	-9238
ికల్	-9239
▁అభయ	-9240
▁తోడు	-9241
▁పద్యాలు	-9242
జిత్	-9243
▁పాడిన	-9244
▁ఆకారంలో	-9245
▁ఫలితాలు	-9246
▁మార్గాన్ని	-9247
వాల	-9248
▁నమ	-9249
బులు	-9250
సిని	-9251
▁570	-9252
▁ఐరి	-9253
▁వాడకం	-9254
▁సంచిక	-9255
▁శ్రీశై	-9256
▁ఇటాలియన్	-9257
72	-9258
ంజు	-9259
ట్టో	-9260
మర్రు	-9261
▁ఎప్పుడు	-9262
సెన్	-9263
హరించ	-9264
▁మోతా	-9265
▁సున్న	-9266
▁ఉన్నందున	-9267
▁లక్ష్యంగా	-9268
అని	-9269
▁ra	-9270
▁సౌర	-9271
▁నామం	-9272
దిద్దు	-9273
▁కార్టూ	-9274
▁అధికారు	-9275
దనీ	-9276
▁కంచ	-9277
▁1942	-9278
▁అద్భుత	-9279
▁మైసూర్	-9280
▁లక్షణం	-9281
▁సంక్లి	-9282
▁నూజివీడు	-9283
▁సంస్థలకు	-9284
▁హనుమంతుడు	-9285
ne	-9286
▁తేజ	-9287
▁తాళ్ళ	-9288
▁ఉక్కు	-9289
▁ముద్దు	-9290
▁స్వచ్ఛంద	-9291
▁అక్కినేని	-9292
▁భాగస్వామ్యం	-9293
▁అవ్వ	-9294
▁భాగము	-9295
▁కలవాడు	-9296
▁నవీ	-9297
▁తుది	-9298
▁పాటల	-9299
య్యూరు	-9300
▁సమగ్ర	-9301
▁అనుసరించ	-9302
▁నిర్వహించి	-9303
▁As	-9304
క్ట్	-9305
▁పొగ	-9306
▁టీవీ	-9307
▁జనగామ	-9308
▁విలక్షణ	-9309
▁తయారుచేయ	-9310
adj	-9311
▁ఛై	-9312
▁భర	-9313
▁523	-9314
▁రమణ	-9315
ంపాడు	-9316
▁1981	-9317
▁చిరం	-9318
▁అవశేష	-9319
▁వుంది	-9320
ించాడని	-9321
▁గుండ్ర	-9322
▁సాధ్యం	-9323
▁స్వీడన్	-9324
▁విగ్రహాన్ని	-9325
▁పాల్గొన్నాడు	-9326
▁మాడ	-9327
▁అంతి	-9328
▁బండి	-9329
▁మోడల్	-9330
ధిని	-9331
▁1966	-9332
▁శ్వే	-9333
▁సమావేశం	-9334
▁సమ్మేళన	-9335
ix	-9336
బిక్	-9337
త్రిక	-9338
▁అలహా	-9339
▁మరియ	-9340
▁టాక్సీ	-9341
▁వేగంతో	-9342
▁సిక్కు	-9343
▁చొప్పున	-9344
పల	-9345
▁’	-9346
▁74	-9347
గూడె	-9348
▁know	-9349
▁హార్డ్	-9350
వాసన	-9351
▁గలి	-9352
▁కారా	-9353
▁పరాజ	-9354
▁కాపర్	-9355
▁ధ్వని	-9356
▁వస్తే	-9357
ational	-9358
▁ఆధిక్యత	-9359
▁చెయ్యడం	-9360
▁ప్రార్థన	-9361
51	-9362
ప్ల	-9363
ేషి	-9364
కారము	-9365
సరికి	-9366
▁మంగళగిరి	-9367
▁x	-9368
▁వశ	-9369
లిస్	-9370
▁ext	-9371
▁మున్న	-9372
▁వర్ణి	-9373
▁సహస్ర	-9374
▁యాంత్రిక	-9375
▁టొ	-9376
సియం	-9377
▁బీజ	-9378
▁ఖైదు	-9379
▁సంకల	-9380
▁మహమ్మద్	-9381
▁కేంద్రము	-9382
▁పన్నెండు	-9383
▁సముద్రంలో	-9384
▁శర	-9385
▁గల్	-9386
సుకొని	-9387
▁ప్రభువు	-9388
రొ	-9389
రాగ	-9390
▁దర	-9391
▁పోగొ	-9392
▁వికి	-9393
▁సభకు	-9394
▁భద్రత	-9395
▁మంచిది	-9396
▁మునిసి	-9397
కరిస్తారు	-9398
ంజా	-9399
▁66	-9400
▁140	-9401
▁516	-9402
▁ఆకలి	-9403
▁కళ్యాణ	-9404
▁మాట్లాడు	-9405
▁భారతదేశపు	-9406
▁76	-9407
వులో	-9408
▁off	-9409
▁కపి	-9410
ట్జర్	-9411
ద్యోగ	-9412
▁మెత్త	-9413
▁ఆసియాలో	-9414
▁చారిత్రిక	-9415
▁విస్తరించిన	-9416
బయలు	-9417
▁res	-9418
▁ఆక్సిజన్	-9419
▁డైరెక్టర్	-9420
▁రూపొందించబడింది	-9421
దిశ	-9422
మాప	-9423
▁508	-9424
హస్తి	-9425
దేవుని	-9426
▁అనారోగ్య	-9427
చలం	-9428
మాస	-9429
▁అరుదైన	-9430
▁కార్యకలాప	-9431
నర	-9432
హత్య	-9433
▁తుఫ	-9434
▁భ్రమ	-9435
▁ధాన్య	-9436
▁పంతులు	-9437
▁పులులు	-9438
తిరుగుడు	-9439
▁సిరియస్	-9440
ana	-9441
▁imp	-9442
▁ప్యాల	-9443
▁మాంసం	-9444
district	-9445
Districts	-9446
▁ఫిన్లాండ్	-9447
ఫలం	-9448
ులై	-9449
▁హర	-9450
రింప	-9451
ations	-9452
▁డాక్ట	-9453
▁జ్ఞానం	-9454
▁డ్రైనేజీ	-9455
▁వివాదాస్పద	-9456
▁గుర్తించబడింది	-9457
ధర్	-9458
రకాల	-9459
▁టవర్	-9460
▁హిట్	-9461
▁హిల్	-9462
▁వైపున	-9463
▁ఉత్సాహ	-9464
▁తైవాన్	-9465
▁అంతరకృషి	-9466
▁మిగిలినవి	-9467
▁గ్రామపంచాయ	-9468
▁but	-9469
▁తరం	-9470
▁హైకో	-9471
▁నూనెను	-9472
Population	-9473
▁నియా	-9474
Master	-9475
▁గొర్ర	-9476
▁మెరుగ	-9477
▁మరొకటి	-9478
▁సారిగా	-9479
▁శ్రీరంగ	-9480
te	-9481
▁des	-9482
▁పిక్	-9483
▁మాలి	-9484
ప్రధాన	-9485
▁బోర్డ్	-9486
▁నియమించ	-9487
▁పక్షులు	-9488
▁సౌందర్య	-9489
▁సూర్యాపేట	-9490
▁దేశవ్యాప్తంగా	-9491
=28	-9492
దము	-9493
పాలన	-9494
మ్మట	-9495
పట్నం	-9496
▁దేవా	-9497
ేంద్రి	-9498
▁కెరీర్	-9499
▁మాధ్యమ	-9500
▁పత్రికలు	-9501
▁సంవత్సరా	-9502
ensusindia	-9503
▁జారీచేసింది	-9504
▁ఫైల్	-9505
Finder	-9506
▁గర్భా	-9507
▁విత్తు	-9508
▁ఆకుపచ్చ	-9509
▁చదివాడు	-9510
▁సమయంలోనే	-9511
▁పరిశ్రమలో	-9512
PopulationFinder	-9513
న్స	-9514
ష్టా	-9515
▁ద్రౌ	-9516
▁సమన్	-9517
ట్రిక్	-9518
▁అయస్కాంత	-9519
▁ఫౌండేషన్	-9520
▁బాలబడులు	-9521
▁రాజ్యాలు	-9522
▁అంతర్జాతీయంగా	-9523
బ్స్	-9524
▁పంద	-9525
▁నార్త్	-9526
▁దగ్గరలో	-9527
▁విశ్వసి	-9528
▁వివరించారు	-9529
▁71	-9530
జికల్	-9531
▁మీకు	-9532
చార్యుడు	-9533
▁దర్శనమి	-9534
▁ప్రయత్న	-9535
▁చాంపియన్	-9536
▁యోధ	-9537
▁ఉపసం	-9538
▁రాధా	-9539
▁భూములు	-9540
▁వీలుగా	-9541
▁తయారీలో	-9542
censusindia	-9543
▁వాతావరణంలో	-9544
52	-9545
▁పౌరా	-9546
▁సమావేశంలో	-9547
▁పరిష్కరించ	-9548
▁వినియోగదారుల	-9549
నాశ	-9550
▁గమన	-9551
డెంట్	-9552
▁గలదు	-9553
గానో	-9554
ధిలో	-9555
▁సవరణ	-9556
▁జీవుల	-9557
▁సంపర్	-9558
▁ఫీల్డ్	-9559
▁ముక్కు	-9560
▁గ్రాములు	-9561
iki	-9562
▁గురై	-9563
▁మహల్	-9564
▁మూలక	-9565
▁స్పీ	-9566
రాబాద్	-9567
▁కల్గి	-9568
▁భద్రతా	-9569
▁చార్లెస్	-9570
▁సంవత్సరాల్లో	-9571
ండరీ	-9572
▁బుధ	-9573
▁తొలుత	-9574
▁పలుకు	-9575
▁ఆంజనేయ	-9576
ala	-9577
▁బతుక	-9578
▁ఉపరిత	-9579
▁కుట్ర	-9580
▁పోరాడ	-9581
▁బంగాళా	-9582
▁రెండవది	-9583
▁సంరక్షణా	-9584
▁హైడ్రోజన్	-9585
కుంటూ	-9586
▁నడిప	-9587
▁సంఖ్యను	-9588
▁కనుగొన్న	-9589
▁నిర్ధారణ	-9590
▁రాజేంద్ర	-9591
▁విశ్రాంతి	-9592
ci	-9593
▁pe	-9594
▁పూలు	-9595
▁వెన్న	-9596
లక్ష్మీ	-9597
▁అనువాదం	-9598
▁ప్రజాస్వామ్య	-9599
కణ	-9600
యిట్	-9601
సాన్	-9602
▁భగవ	-9603
▁నావి	-9604
▁మంజూరు	-9605
▁ఏదేమైనా	-9606
▁జొ	-9607
ట్టె	-9608
వాడి	-9609
▁తడి	-9610
▁సంవత్సరాలుగా	-9611
నవ	-9612
బద్ద	-9613
▁ఇంక	-9614
▁ఏడవ	-9615
మర్రి	-9616
▁కళలు	-9617
▁పొందే	-9618
▁కార్తె	-9619
▁చర్చలు	-9620
▁సంఘటనలు	-9621
పతీ	-9622
▁కజ	-9623
▁వూ	-9624
దేవత	-9625
ుక్క	-9626
▁pre	-9627
▁కీట	-9628
కారంలో	-9629
▁పదిహే	-9630
ాల్లోనూ	-9631
▁పర్వతం	-9632
▁శృంగార	-9633
▁విద్యాలయ	-9634
నిన్	-9635
▁భోగ	-9636
▁ఫాల్	-9637
పుల్స్	-9638
▁బాంబు	-9639
▁నర్సీప	-9640
▁ఎన్టీఆర్	-9641
ాంశం	-9642
▁1961	-9643
▁జాక్	-9644
▁గుంపు	-9645
▁నీతి	-9646
ేశ్వరం	-9647
▁చింతల	-9648
▁జంతువు	-9649
▁వేశారు	-9650
▁అడుగులు	-9651
▁1951	-9652
▁ఫెర్	-9653
▁మార్చుకు	-9654
▁పల్లిలోను	-9655
▁7,	-9656
▁తాన	-9657
భక్తి	-9658
ాలవలస	-9659
▁దశకంలో	-9660
▁డివిజను	-9661
క్షా	-9662
నాతన	-9663
▁జంగ	-9664
ఆంధ్ర	-9665
▁ఇంకో	-9666
▁ఒకడు	-9667
▁బ్రో	-9668
▁ఆరంభం	-9669
▁రీతిలో	-9670
సాహి	-9671
▁పంది	-9672
▁రంగుల	-9673
▁హెన్రీ	-9674
యోలిథికు	-9675
▁tw	-9676
చుకో	-9677
డ్డా	-9678
ముకు	-9679
▁పీల్	-9680
▁అంతరించి	-9681
దను	-9682
▁కావాలి	-9683
▁వ్రాసి	-9684
▁స్ఫూర్తి	-9685
▁గుర్తించింది	-9686
▁600	-9687
▁ind	-9688
▁ఆకృ	-9689
▁పరిణ	-9690
▁శక్	-9691
▁స్ర	-9692
▁తోలు	-9693
▁అమరిక	-9694
▁దగ్గరి	-9695
▁సివిల్	-9696
▁సింగపూర్	-9697
▁inclusion	-9698
▁మార్చబడింది	-9699
79	-9700
నూర్	-9701
▁590	-9702
ption	-9703
▁గ్లూ	-9704
▁చివరలో	-9705
73	-9706
కాలనీ	-9707
▁రావి	-9708
త్మకమైన	-9709
▁కలిగింది	-9710
▁సందర్భాల్లో	-9711
▁pr	-9712
జూన్	-9713
▁గవర్నరు	-9714
▁రాజవంశం	-9715
▁ఉద్యానవన	-9716
▁పరిమితమైన	-9717
▁గ్రామంలోని	-9718
చోట	-9719
తత్వ	-9720
▁కాండ	-9721
▁ఉపకరణ	-9722
▁వాడిన	-9723
▁పెంపకం	-9724
▁వేదాంత	-9725
▁ఉపగ్రహం	-9726
▁చివరిలో	-9727
▁వనరుల్లోకి	-9728
దీయ	-9729
టులు	-9730
గతంగా	-9731
▁ఏర్పడతాయి	-9732
old	-9733
▁1976	-9734
▁కాస్త	-9735
▁ఉండటంతో	-9736
▁బుద్ధుని	-9737
▁స్థిరంగా	-9738
▁విస్తృతమైన	-9739
ించక	-9740
▁మేధా	-9741
▁పనిని	-9742
▁ఉన్నవి	-9743
▁సుగ్రీ	-9744
▁వర్గీకరణ	-9745
▁ప్రాంతంగా	-9746
▁ముఖ్యమంత్రిగా	-9747
▁ye	-9748
గావ్	-9749
▁కన్య	-9750
▁నాన్	-9751
▁హెడ్	-9752
▁పరిశు	-9753
▁రద్దీ	-9754
▁పంచాంగం	-9755
చర్స్	-9756
▁వర్షా	-9757
▁గ్రహీత	-9758
▁పెంపొంది	-9759
▁కార్యక్రమాన్ని	-9760
▁భరత	-9761
▁ఉత్తరం	-9762
▁చేసాయి	-9763
▁శ్రీకాళ	-9764
బుల	-9765
▁పట	-9766
నెస్	-9767
▁507	-9768
ాన్యం	-9769
రంగంలో	-9770
▁కన్యా	-9771
▁కాయలు	-9772
▁మానవుల	-9773
▁వెన్నె	-9774
▁సరిగ్గా	-9775
▁మంచిర్యాలలోనూ	-9776
కిక	-9777
మిన్	-9778
మంతటా	-9779
▁1959	-9780
▁జనసా	-9781
▁ప్రకృ	-9782
▁స్క్రీ	-9783
▁స్పంది	-9784
▁పరిజ్ఞాన	-9785
▁ఎన్నికయ్యారు	-9786
▁అహి	-9787
▁ఎగ్	-9788
▁లాగ	-9789
ర్యాల	-9790
▁ఆపరే	-9791
▁కర్బ	-9792
▁బోధి	-9793
పోతాడు	-9794
▁కార్యా	-9795
▁Wiktionary	-9796
ంతల	-9797
బరి	-9798
డార్	-9799
ద్దరి	-9800
▁ఎన్న	-9801
▁their	-9802
▁ధరించ	-9803
▁పండితుడు	-9804
▁పాండవులు	-9805
▁ప్రతిపక్ష	-9806
▁యీ	-9807
▁వదలి	-9808
▁ఉత్సవం	-9809
▁గాయకుడు	-9810
సంత	-9811
దీనా	-9812
▁ఏటా	-9813
▁గౌత	-9814
▁ఆర్గ	-9815
▁నెలలు	-9816
▁భవనాలు	-9817
▁మరోవైపు	-9818
ప్రాంతంలో	-9819
▁కొత్తగూడెం	-9820
▁నిమ	-9821
▁నాణ్యత	-9822
▁హిమాలయ	-9823
▁క్రీడలలో	-9824
▁అందించాడు	-9825
▁ఆదిలాబాద్లోను	-9826
row	-9827
▁తదన	-9828
▁మేము	-9829
▁దేశపు	-9830
▁భర్తీ	-9831
▁అందంగా	-9832
▁మార్క్	-9833
▁నిరంతరం	-9834
▁ఫిలిప్ప	-9835
దిలో	-9836
▁సమర్	-9837
▁దుర్గా	-9838
▁పొటాషియం	-9839
బ్ధ	-9840
▁చల	-9841
గితే	-9842
▁రబ్బ	-9843
▁వర్మ	-9844
▁పరిచయ	-9845
▁బ్రౌన్	-9846
▁భాషల్లో	-9847
▁పాలించిన	-9848
▁రావడానికి	-9849
ev	-9850
ారట	-9851
▁ఆడు	-9852
వేనియా	-9853
▁రిజర్	-9854
▁కొన్నా	-9855
▁మున్సి	-9856
▁హృద	-9857
▁అధీన	-9858
▁నోటి	-9859
చెట్టు	-9860
ోగ్రఫీ	-9861
▁చక్రం	-9862
మవుతాయి	-9863
ంత్	-9864
విలో	-9865
▁అడు	-9866
▁వెళ	-9867
ర్యోధ	-9868
▁పద్యం	-9869
▁వేముల	-9870
▁ఒకరోజు	-9871
విష్ణువు	-9872
▁విధానాలను	-9873
▁నిర్వహించాడు	-9874
▁పల	-9875
▁పాదర	-9876
కారాలు	-9877
చెందిన	-9878
▁నువ్వు	-9879
▁పంచాయితీ	-9880
ng	-9881
కావ	-9882
డ్జి	-9883
▁ఎలి	-9884
▁కనక	-9885
▁ఎగుమ	-9886
▁పిఠా	-9887
▁అసమాన	-9888
▁పెంచుకు	-9889
▁హిట్లర్	-9890
▁తొలగించి	-9891
▁వచ్చినప్పుడు	-9892
▁సభా	-9893
▁పర్వతాలు	-9894
▁ఉరి	-9895
శాంతి	-9896
▁చికా	-9897
▁మూలా	-9898
పోర్ట్	-9899
▁అవలంబ	-9900
▁మోతాదు	-9901
▁ఇస్లామిక్	-9902
▁ఏర్పడ్డాయి	-9903
బర	-9904
న్నవి	-9905
▁అంచు	-9906
▁బురు	-9907
▁రాశి	-9908
▁సత్యం	-9909
▁యూరోప్	-9910
▁వాయువ్య	-9911
▁వయస్సులో	-9912
▁వెలువడిన	-9913
▁విజయవాడలో	-9914
▁భవ	-9915
▁మెదడు	-9916
▁చైనీస్	-9917
▁చెందినవి	-9918
▁గ్రామాలలో	-9919
hy	-9920
గంట	-9921
ందనీ	-9922
▁569	-9923
▁వదల	-9924
శంకర్	-9925
▁పోషి	-9926
▁గులాబీ	-9927
▁బతుకమ్మ	-9928
▁నైపుణ్యం	-9929
▁ప్రశంసలు	-9930
చక	-9931
లక్ష	-9932
సుని	-9933
తరులు	-9934
▁కవరే	-9935
▁కోతలు	-9936
▁క్రమం	-9937
▁థామస్	-9938
▁ఇంగ్లండ్	-9939
▁కంపెనీలు	-9940
▁యుద్ధాలు	-9941
▁పుస్తకంలో	-9942
TT	-9943
▁96	-9944
నార్	-9945
ముఖి	-9946
▁సహచ	-9947
▁చౌదరి	-9948
జ్వ	-9949
▁Am	-9950
▁ఇస	-9951
నూనె	-9952
▁హోల్	-9953
▁శుక్ల	-9954
▁అనుభవం	-9955
▁స్టాక్	-9956
▁కూచిపూడి	-9957
▁ఆదిలాబాదు	-9958
▁ఖమ్మంలోను	-9959
▁మచిలీపట్నం	-9960
▁మాట్లాడుతూ	-9961
కారిణి	-9962
▁దుర్గ	-9963
▁పాటను	-9964
▁పోలిష్	-9965
▁మార్కా	-9966
▁పాలకులు	-9967
▁పూర్వపు	-9968
లాట	-9969
▁చెల	-9970
ోగ్రా	-9971
▁సియా	-9972
క్షణాన	-9973
▁సరిపో	-9974
▁నటుడిగా	-9975
▁పెద్దది	-9976
▁జగిత్యాల	-9977
▁తిరుగుతూ	-9978
ందుల	-9979
▁2019	-9980
▁ఎద్దు	-9981
▁చేతుల	-9982
▁వెయ్యి	-9983
▁సంక్రమ	-9984
కొండలోను	-9985
▁పోషించాడు	-9986
టిగా	-9987
యులకు	-9988
నేవారు	-9989
▁మేయర్	-9990
▁రెండే	-9991
▁అవార్డులు	-9992
▁నెట్వర్క్	-9993
▁చిత్రాల్లో	-9994
కమ	-9995
ెబ్	-9996
విక్	-9997
శిల్	-9998
▁ఋతు	-9999
▁శీత	-10000
▁ఉందో	-10001
▁జరిప	-10002
▁అభిమాన	-10003
▁ఉపయోగం	-10004
▁మందులు	-10005
▁పేర్లతో	-10006
uk	-10007
▁గౌతమ	-10008
పదార్థ	-10009
▁అష్టా	-10010
▁ఫైనల్	-10011
▁దృశ్యం	-10012
▁వేసింది	-10013
▁వాణిజ్యం	-10014
▁తప్పనిసరిగా	-10015
▁ఐఐ	-10016
డితే	-10017
▁బ్య	-10018
▁సూచిక	-10019
▁సోమాలి	-10020
ism	-10021
వికా	-10022
▁170	-10023
చిన్న	-10024
▁1958	-10025
▁కులం	-10026
▁సజ్జ	-10027
త్తుగా	-10028
▁సంకలన	-10029
▁సూత్రం	-10030
▁చక్రవర్	-10031
చడం	-10032
ర్రి	-10033
చర్డ్	-10034
▁దట్ట	-10035
▁మీర్	-10036
▁ఇండోనే	-10037
▁ఫ్రాన్సి	-10038
▁చేపట్టారు	-10039
తికే	-10040
▁అమె	-10041
▁నేత	-10042
▁లియో	-10043
▁చర్మం	-10044
▁చీకటి	-10045
▁గింజలు	-10046
-6	-10047
ఖిల	-10048
నెల్	-10049
▁580	-10050
▁కొడ	-10051
బర్గ్	-10052
వాడలో	-10053
▁వాన్	-10054
▁మనుగడ	-10055
▁బ్రాండ్	-10056
▁మానవుడు	-10057
▁పాలించారు	-10058
▁ప్రచారంలో	-10059
▁శతాబ్దానికి	-10060
▁98	-10061
▁పధ	-10062
▁శతాబ్ధ	-10063
▁ప్రయోగం	-10064
▁నేతృత్వంలో	-10065
ుడిని	-10066
▁దృక్	-10067
▁బాటు	-10068
కున్నా	-10069
▁సాత్య	-10070
▁వెనక్కి	-10071
▁ముస్లింల	-10072
▁ప్రతిపాది	-10073
ubl	-10074
రంగు	-10075
▁ఆశీ	-10076
▁నికో	-10077
▁తీర్చ	-10078
▁అశ్వత్	-10079
▁తెల్లని	-10080
▁పత్రికా	-10081
▁పరిరక్షణ	-10082
▁చూపిస్తుంది	-10083
ows	-10084
▁అంతిమ	-10085
▁నేర్ప	-10086
స్తాయని	-10087
▁శివాజీ	-10088
▁పోతుంది	-10089
hi	-10090
డియ	-10091
షణ్	-10092
హాన్	-10093
▁ఇబ్	-10094
▁కోణ	-10095
▁గిరిజ	-10096
▁కేవలము	-10097
▁పౌరాణిక	-10098
▁భాగాలను	-10099
▁ప్రక్రియలో	-10100
రోగ	-10101
సిసి	-10102
▁మోస	-10103
▁అనబడే	-10104
▁భీముని	-10105
▁సామర్ధ	-10106
▁వస్తారు	-10107
▁ప్రభుత్వము	-10108
ర్మిన	-10109
▁తాటి	-10110
▁ఆవశ్య	-10111
▁నంద్యాల	-10112
▁మాస్టర్	-10113
▁వివాహమా	-10114
▁10,	-10115
నైజేషన్	-10116
▁నగరంగా	-10117
▁డిమాండ్	-10118
▁శత్రువు	-10119
▁పొద్దుతిరుగుడు	-10120
ంపట్నం	-10121
▁కార్బో	-10122
▁ఇక్కడకు	-10123
▁చలనచిత్రం	-10124
▁రాజ్యానికి	-10125
ata	-10126
యుని	-10127
ోత్త	-10128
▁517	-10129
ంటికి	-10130
ంట్లు	-10131
▁1936	-10132
▁గానం	-10133
▁టైమ్స్	-10134
▁దొరుకు	-10135
▁నైపుణ్య	-10136
▁గ్రహించి	-10137
▁గుంటూరులోను	-10138
పార	-10139
ండిన	-10140
కుటుంబ	-10141
ించారని	-10142
స్ట్రేషన్	-10143
▁పోర్చుగల్	-10144
▁84	-10145
▁ఆమద	-10146
▁కోడి	-10147
▁తుంగ	-10148
▁ముగు	-10149
▁సామ్రాజ్యాన్ని	-10150
క్రె	-10151
సును	-10152
ృప్త	-10153
బొమ్మ	-10154
▁నవ్వ	-10155
▁ఇనుము	-10156
▁డిస్ట	-10157
▁పాండి	-10158
▁కిర్గి	-10159
▁స్పేస్	-10160
▁స్వీకరించారు	-10161
way	-10162
▁ఇనుప	-10163
▁నాగయ్య	-10164
▁సదస్సు	-10165
లవుతుంది	-10166
▁రామాయణం	-10167
▁విడుదలైంది	-10168
▁ప్రవేశించిన	-10169
we	-10170
ణీయ	-10171
సస్	-10172
ంబరు	-10173
నులో	-10174
▁అంధ	-10175
▁మొహ	-10176
చెయ్య	-10177
▁లైట్	-10178
▁సాగిన	-10179
▁ఆంధ్రా	-10180
▁పునర్వ	-10181
▁హైస్కూ	-10182
▁ఉద్దేశంతో	-10183
▁స్వీకరించి	-10184
▁వేసే	-10185
ేశ్వరి	-10186
▁కొండా	-10187
▁వియత్	-10188
▁మొదటిది	-10189
▁స్వాధీన	-10190
▁ఆమదాలవలస	-10191
▁విశాలమైన	-10192
▁అభ్యర్థిగా	-10193
▁ప్లాస్టిక్	-10194
▁ఆలీ	-10195
▁మిష	-10196
▁చూసే	-10197
▁మన్న	-10198
▁అభివర్ణ	-10199
▁బెంగళూరు	-10200
▁ఆల్క	-10201
▁తీర్	-10202
▁దొరక	-10203
▁దేశము	-10204
సంఖ్యలో	-10205
▁డిపార్	-10206
▁పంపాడు	-10207
▁రాలేదు	-10208
▁పర్యాటకు	-10209
జ్జు	-10210
వాయు	-10211
▁వాయ	-10212
▁శైవ	-10213
▁గొలు	-10214
▁ఉపయోగించు	-10215
▁పార్లమెంట్	-10216
▁సార్వత్రిక	-10217
దక	-10218
జన్మ	-10219
ర్జీ	-10220
▁మలి	-10221
పెద్ద	-10222
ెస్ట్	-10223
▁గూడా	-10224
▁అస్సా	-10225
▁భాగవత	-10226
మైనదిగా	-10227
▁యెుక్క	-10228
▁మాంస	-10229
▁కర్ణుడు	-10230
▁చంద్రుడు	-10231
బడుతూ	-10232
▁దరఖా	-10233
▁బడ్జ	-10234
▁గుమ్మ	-10235
▁వీక్ష	-10236
▁కొందరి	-10237
▁ఖ్యాతి	-10238
▁ధ్రువీ	-10239
▁నిండిన	-10240
▁రోడ్దు	-10241
▁సంప్రద	-10242
▁హైడ్రా	-10243
▁కాథలిక్	-10244
▁నరేంద్ర	-10245
▁నెలకొల్	-10246
▁సమ్మేళనం	-10247
▁పునరుద్ధరణ	-10248
▁లేత	-10249
▁సమై	-10250
ప్రస్	-10251
▁క్వా	-10252
▁బయటి	-10253
▁మనస్త	-10254
▁చిహ్నం	-10255
▁బయటికి	-10256
▁కనిపించింది	-10257
▁సికింద్రాబాద్	-10258
ాలో	-10259
▁ఉగా	-10260
వతేదీ	-10261
▁కనుమ	-10262
▁డెన్	-10263
▁మహాయ	-10264
▁వక్ర	-10265
▁స్లా	-10266
▁పునరా	-10267
▁కొద్దీ	-10268
▁భూమిపై	-10269
▁చిరంజీవి	-10270
▁వాటిలోని	-10271
▁అగ్నిపర్వత	-10272
మంచి	-10273
▁108	-10274
▁పటే	-10275
▁సంజ	-10276
వర్గం	-10277
▁దానం	-10278
▁బుర్	-10279
▁ట్యాం	-10280
▁నిలుపు	-10281
▁పార్టీలు	-10282
▁ఇంగ్లీషులో	-10283
ook	-10284
నలి	-10285
▁కోవ	-10286
▁దళం	-10287
▁నడప	-10288
లన్నీ	-10289
టీరియా	-10290
ర్మాణం	-10291
▁ఈస్టర్	-10292
▁కుతుబ్	-10293
▁స్థాపన	-10294
▁వ్యక్తిగా	-10295
▁పుస్తకాన్ని	-10296
గై	-10297
ికొ	-10298
ించని	-10299
▁కాపీ	-10300
▁నిజం	-10301
▁పద్ద	-10302
క్తంగా	-10303
▁క్వార్	-10304
▁దాడులు	-10305
▁కలుసుకు	-10306
▁సరిహద్దులు	-10307
▁83	-10308
▁కవిత	-10309
▁జరిపి	-10310
▁నూతనంగా	-10311
▁వినియోగి	-10312
▁భావించబడుతుంది	-10313
తుడై	-10314
▁1968	-10315
▁గుంత	-10316
▁నడుమ	-10317
▁ముంద	-10318
▁వాగ్	-10319
irst	-10320
▁1939	-10321
▁నైట్	-10322
▁రుక్	-10323
▁గ్లూకో	-10324
▁దగ్గరకు	-10325
▁బుద్ధుడు	-10326
ైత	-10327
▁82	-10328
చెర్ల	-10329
దులను	-10330
▁మండి	-10331
సాగాడు	-10332
▁జీవనం	-10333
▁బీడీలు	-10334
▁సభ్యత్వం	-10335
▁సాంప్రదాయిక	-10336
▁He	-10337
కాలపు	-10338
▁1963	-10339
▁ట్రో	-10340
డెన్సీ	-10341
▁క్రియ	-10342
▁కర్నాటక	-10343
▁ఆళ్వ	-10344
▁ఎస్ట	-10345
▁బిలియన్ల	-10346
▁సమయాన్ని	-10347
మీకి	-10348
విధ్యం	-10349
▁మరియూ	-10350
▁లోతైన	-10351
▁నిత్యం	-10352
దుర్	-10353
బాబా	-10354
వాలో	-10355
▁అవార్డును	-10356
స్తున్నట్లు	-10357
కూర	-10358
దేవు	-10359
మియర్	-10360
దానికి	-10361
స్థాపన	-10362
▁మహబూబా	-10363
▁ప్రవేశి	-10364
▁కాలాన్ని	-10365
les	-10366
▁99	-10367
గాంధ	-10368
▁కామె	-10369
▁కాళి	-10370
పాలిటీ	-10371
▁బీహార్	-10372
▁చెప్పడం	-10373
ets	-10374
గుండ	-10375
▁మరే	-10376
▁మైళ్ళ	-10377
▁చేయడంలో	-10378
▁ప్రక్కన	-10379
▁స్విట్జర్	-10380
ks	-10381
దిత్య	-10382
▁comp	-10383
▁అవుట్	-10384
▁చేయుటకు	-10385
▁ఆకాశవాణి	-10386
▁పరిగణించ	-10387
▁చింతపల్లిలోను	-10388
▁అంత్య	-10389
▁పంపిన	-10390
▁చేసుకోవ	-10391
▁సినిమాతో	-10392
▁బెల్లంపల్లిలోను	-10393
▁క్లై	-10394
▁విరో	-10395
▁ధైర్య	-10396
▁వ్యూహ	-10397
మయ్యారు	-10398
▁సంకలనం	-10399
▁దేవాలయాలు	-10400
▁ప్రవేశపెట్టారు	-10401
BS	-10402
చిత	-10403
reat	-10404
▁భారం	-10405
▁ఉపదేశ	-10406
▁వార్త	-10407
▁జాబితాను	-10408
▁ఆర్మేనియన్	-10409
▁ముఖ్యమైనది	-10410
▁మఠ	-10411
ఫెన్	-10412
బిన్	-10413
▁మంచ	-10414
▁అనుకో	-10415
▁క్షీర	-10416
▁సెంటీ	-10417
▁ప్రమాణం	-10418
▁ఈత	-10419
మానాలు	-10420
▁తేదీలు	-10421
▁పాయింట్	-10422
▁సరస్వతీ	-10423
▁శిల్పాలు	-10424
▁బ్రాహ్మణు	-10425
▁నిర్మాణాన్ని	-10426
దనం	-10427
▁కాగ	-10428
▁ఘనత	-10429
▁మదన	-10430
▁శోధ	-10431
ished	-10432
▁కాంక	-10433
▁డెవల	-10434
కొండలో	-10435
▁పెట్టె	-10436
▁మధ్యాహ్	-10437
▁తెలిసింది	-10438
▁విభజించబడింది	-10439
ోల్	-10440
ధులకు	-10441
▁హైవే	-10442
▁చుట్టుప	-10443
ేశ్	-10444
▁61	-10445
▁అలి	-10446
▁మృదు	-10447
▁కణాలు	-10448
▁తెప్ప	-10449
▁తెచ్చిన	-10450
▁శంకరులు	-10451
▁సాత్యకి	-10452
▁విరుద్ధంగా	-10453
ములా	-10454
▁rel	-10455
▁ధను	-10456
▁పదు	-10457
ంట్లో	-10458
గూడలో	-10459
సిల్ల	-10460
▁నమోద	-10461
▁క్రీడలు	-10462
▁వెర్షన్	-10463
▁సమానమైన	-10464
▁నియంత్రి	-10465
▁రూపాంతరం	-10466
కెల్	-10467
టును	-10468
▁ఎయి	-10469
▁చెడు	-10470
▁హామ్	-10471
▁యుక్త	-10472
▁పశువుల	-10473
▁కామర్సు	-10474
హిణి	-10475
▁వాక	-10476
▁జోర్	-10477
▁రెవి	-10478
▁మహాసభ	-10479
▁నార్కట్	-10480
▁యాజమాన్య	-10481
▁ఐన	-10482
భూతి	-10483
▁జరప	-10484
▁ధ్వజ	-10485
▁భాగవ	-10486
▁చదివే	-10487
▁మాసంలో	-10488
▁కేంద్రాల	-10489
▁హైకోర్టు	-10490
▁గ్రామాన్ని	-10491
▁విశ్వామిత్ర	-10492
ోపస్	-10493
▁ఆపై	-10494
పింగ్	-10495
▁ఆస్థాన	-10496
▁సమాధానం	-10497
▁చురుకుగా	-10498
▁స్పష్టమైన	-10499
▁4%	-10500
క్షు	-10501
మాంబ	-10502
▁met	-10503
▁శిర	-10504
▁కూడి	-10505
ంటోంది	-10506
▁ముప్ప	-10507
▁వ్రాత	-10508
పరిచారు	-10509
▁గ్యాస్	-10510
▁పర్యాయ	-10511
▁స్ప్రి	-10512
▁విచిత్ర	-10513
▁కేంద్రీకృత	-10514
▁ప్రభుత్వంలో	-10515
▁2%	-10516
▁లిథు	-10517
స్థానీ	-10518
▁ఏమిటి	-10519
▁నింది	-10520
▁సభ్యు	-10521
పూర్లోను	-10522
▁పనిచేసాడు	-10523
పట	-10524
ోద్య	-10525
▁కొని	-10526
▁రచనా	-10527
▁గౌరవం	-10528
▁కట్టిన	-10529
▁బ్రహ్మో	-10530
▁అక్కడికి	-10531
▁అనుకున్న	-10532
▁కార్యాచరణ	-10533
తన్	-10534
▁9,	-10535
▁గడ	-10536
▁1931	-10537
▁విలు	-10538
▁నైతిక	-10539
▁తిమ్మా	-10540
▁సమావేశాల	-10541
▁పురాతనమైన	-10542
గృహ	-10543
▁పృ	-10544
ంట్ల	-10545
టియం	-10546
పర్చ	-10547
ధ్యాయ	-10548
▁చాటు	-10549
▁ఫేస్	-10550
▁చేయడంతో	-10551
▁81	-10552
గుడు	-10553
సెఫ్	-10554
▁పిన	-10555
▁వచన	-10556
▁విఠ	-10557
ారాధన	-10558
▁సత్త	-10559
▁ధోరణి	-10560
▁నటనకు	-10561
▁భారతి	-10562
▁ఏర్పరచ	-10563
▁పేరుపొ	-10564
▁సాయంతో	-10565
▁ఆధీనంలో	-10566
▁గుమ్మడి	-10567
▁గ్రామపంచాయతి	-10568
▁సామర్థ్యాన్ని	-10569
pic	-10570
కుశ	-10571
సరణ	-10572
కియా	-10573
లిని	-10574
ష్యం	-10575
▁వామ	-10576
ేవరకు	-10577
▁తోటి	-10578
▁మనము	-10579
▁మేడి	-10580
▁నిలబడి	-10581
▁శ్రీకాకుళంలో	-10582
ూన్	-10583
రుచి	-10584
▁534	-10585
▁పెరు	-10586
▁వీరా	-10587
▁సుగంధ	-10588
▁హింసా	-10589
▁చట్టాలు	-10590
▁బలవంతంగా	-10591
▁సృష్టించిన	-10592
▁మరె	-10593
▁1941	-10594
▁గోల్కొండ	-10595
యెల్	-10596
▁బావ	-10597
కొరకు	-10598
స్త్య	-10599
▁ఆకుల	-10600
▁బాలా	-10601
▁రికో	-10602
▁జవహర్	-10603
▁స్వర్	-10604
▁స్తుతి	-10605
▁నందిగామ	-10606
▁వత్తిడి	-10607
▁అనువర్తన	-10608
la	-10609
▁1%	-10610
జెర్	-10611
ంటైన్	-10612
▁స్నేహ	-10613
▁మిర్యాల	-10614
▁నర్సీపట్న	-10615
దప	-10616
వస	-10617
▁88	-10618
జ్యో	-10619
రిస్	-10620
ందన్న	-10621
కుమార్	-10622
▁అద్దె	-10623
▁శివారు	-10624
▁మంచిర్యాల	-10625
కాన్	-10626
▁కళి	-10627
▁ఇతిహా	-10628
▁కల్యా	-10629
▁కొండలు	-10630
▁కీలకమైన	-10631
▁పుట్టుక	-10632
▁విత్తుట	-10633
▁రెవిన్యూ	-10634
▁ముగిసింది	-10635
▁హైదరాబాదులోనూ	-10636
భయ	-10637
ంటల్	-10638
నాన్	-10639
▁మక్	-10640
ారాయణ	-10641
పూడిలో	-10642
ప్టెన్	-10643
▁ఫెస్టి	-10644
▁శాసనాలు	-10645
▁హిందువుల	-10646
▁నారాయణరావు	-10647
▁విద్యాసంస్థ	-10648
ట్రి	-10649
▁బాగ్	-10650
డ్డాయి	-10651
బడినది	-10652
మార్క్	-10653
▁నవలలు	-10654
▁రాజమహ	-10655
▁సామూహ	-10656
▁సిద్ధం	-10657
▁ఛైర్మన్	-10658
▁ట్రాఫిక్	-10659
▁ప్రారంభి	-10660
▁పరిగణిస్తారు	-10661
టలో	-10662
▁been	-10663
▁బర్గ్	-10664
▁నిజామాబాదు	-10665
లేము	-10666
▁col	-10667
వులతో	-10668
▁ఫ్రే	-10669
▁తుఫాను	-10670
▁నిబంధన	-10671
త్రానికి	-10672
▁నియమాలు	-10673
▁రిచర్డ్	-10674
ంగిపుట్టు	-10675
▁పోరాటంలో	-10676
▁నిర్వర్తి	-10677
దనే	-10678
▁పతన	-10679
యానికి	-10680
▁ఇంజన్	-10681
▁కానోపస్	-10682
▁ముగిసిన	-10683
▁ప్రాంతము	-10684
▁వ్యవస్థకు	-10685
రాన	-10686
▁ag	-10687
కలను	-10688
మన్న	-10689
విస్	-10690
ందాడు	-10691
▁ఘట్ట	-10692
▁దిగి	-10693
▁ఫ్రాంక్	-10694
▁సమూహాలు	-10695
▁కుటుంబాలు	-10696
▁తెలిపింది	-10697
▁వివరించాడు	-10698
▁తాళ	-10699
▁చురు	-10700
▁పదము	-10701
▁పోయే	-10702
▁లోకో	-10703
క్షనరీ	-10704
ేశ్వర్	-10705
▁ఒకటైన	-10706
▁బాల్య	-10707
▁ర్యాం	-10708
▁ఫెడరల్	-10709
▁పెదబయలు	-10710
▁కృష్ణమూర్తి	-10711
▁సంప్రదాయాలు	-10712
దాకా	-10713
మానిక	-10714
▁నాణే	-10715
బ్బిలి	-10716
వుల్లో	-10717
▁సుదూర	-10718
▁ఉల్లంఘ	-10719
▁క్రిస్	-10720
▁సర్వీస్	-10721
▁స్థిరపడ్డారు	-10722
II	-10723
హర	-10724
తోష్ణ	-10725
▁గలవు	-10726
పేట్లో	-10727
▁బుట్ట	-10728
▁రాజీవ్	-10729
▁ఉద్దేశం	-10730
▁రావణుడు	-10731
దలు	-10732
▁పతి	-10733
వేషన్	-10734
▁గుల్	-10735
▁రాయబ	-10736
▁చూపిన	-10737
▁దక్షణాన	-10738
▁ఐక్యరాజ్యసమితి	-10739
▁మడ	-10740
గంగా	-10741
ణుకు	-10742
▁కథల	-10743
▁దాస్	-10744
▁సుభా	-10745
కొల్లు	-10746
▁ముంచి	-10747
▁వ్యవహరించారు	-10748
పాన	-10749
▁IS	-10750
▁Sh	-10751
జ్జి	-10752
మిత్	-10753
రారు	-10754
మిల్లి	-10755
▁తలసరి	-10756
▁దశాబ్దాల	-10757
ai	-10758
కపోతే	-10759
▁1921	-10760
▁స్క్రిప్	-10761
తుండ	-10762
▁ఫ్ల	-10763
ద్కర్	-10764
▁శ్వేత	-10765
స్తామని	-10766
▁ఫోర్స్	-10767
▁గాంధీజీ	-10768
ంప్	-10769
శిర	-10770
▁త్	-10771
మీర్	-10772
▁తండ	-10773
▁వినోద	-10774
▁చెయ్యు	-10775
▁దానిపై	-10776
▁పారిస్	-10777
▁వెదురు	-10778
▁మొట్టమొదట	-10779
▁విశాఖపట్నంలోనూ	-10780
మరణ	-10781
మొక	-10782
హారు	-10783
▁అమలా	-10784
▁గర్వ	-10785
▁కొద్ద	-10786
▁గంటలు	-10787
ూరులోనూ	-10788
▁నాయకుల	-10789
▁ఇబ్బందులు	-10790
amp	-10791
ద్యు	-10792
▁కవా	-10793
▁గతి	-10794
▁1928	-10795
▁మిస్	-10796
▁అతిథి	-10797
▁హీరోగా	-10798
▁ప్యాలెస్	-10799
▁స్క్రీన్	-10800
▁చేసుకోవడం	-10801
ings	-10802
ంతగా	-10803
రీలో	-10804
▁టెం	-10805
హితంగా	-10806
▁పటేల్	-10807
▁దారిలో	-10808
ోపనిషత్తు	-10809
▁చాలావరకు	-10810
▁టెన్నిస్	-10811
▁సంవత్సరాంత	-10812
▁సిద్ధాంతాన్ని	-10813
కైనా	-10814
▁కాప	-10815
▁బోధన	-10816
▁సాను	-10817
విద్యా	-10818
▁మాస్ట	-10819
▁త్రిభు	-10820
▁పదవిని	-10821
▁స్పందన	-10822
▁నిర్వచన	-10823
▁భగవంతుని	-10824
▁పనిచేస్తున్నారు	-10825
చిక	-10826
▁దరి	-10827
▁ఓవర్	-10828
▁శ్యా	-10829
ిక్యుల	-10830
▁హైదర్	-10831
▁పువ్వు	-10832
▁స్వభావం	-10833
▁జాగ్రత్తగా	-10834
సెం	-10835
▁86	-10836
▁you	-10837
▁సృజ	-10838
▁కూటమి	-10839
▁పాఠ్య	-10840
▁మౌర్య	-10841
క్షేత్రం	-10842
▁సార్వభౌ	-10843
▁ధారావాహిక	-10844
▁సంస్కరణలు	-10845
▁ప్రతిబింబి	-10846
ily	-10847
భవం	-10848
వెం	-10849
▁జ్య	-10850
▁మూడి	-10851
▁వన్య	-10852
▁అమృత్	-10853
▁ఇంతలో	-10854
▁కోరాడు	-10855
▁రంగులు	-10856
▁సంఘాలు	-10857
▁బడ్జెట్	-10858
▁ప్రాణాలు	-10859
▁చిన్నతనంలో	-10860
▁రుణ	-10861
▁1933	-10862
▁వారసు	-10863
▁పిమ్మట	-10864
▁ఎలక్ట్రో	-10865
▁నియోజకవర్గంలో	-10866
_{	-10867
రర్	-10868
గారం	-10869
దశలో	-10870
▁sub	-10871
మాధ్య	-10872
▁1929	-10873
▁1938	-10874
▁సిక్	-10875
▁బూడిద	-10876
▁వాక్య	-10877
▁సోదరి	-10878
▁మండలము	-10879
▁రాకుండా	-10880
▁చెల్లింపు	-10881
▁ప్రభుత్వాలు	-10882
▁నిర్వహించింది	-10883
;---	-10884
గానీ	-10885
▁und	-10886
▁వృష	-10887
ిల్లా	-10888
▁హేతు	-10889
కారంగా	-10890
▁ధ్యాన	-10891
▁సమస్యల	-10892
▁సూచించారు	-10893
lu	-10894
బెత్	-10895
సాని	-10896
▁they	-10897
▁గోల్డ్	-10898
▁ఆడపిల్ల	-10899
దీప	-10900
▁so	-10901
▁షీ	-10902
గాలి	-10903
▁అపో	-10904
▁క్య	-10905
▁గావ	-10906
కట్టు	-10907
స్టల్	-10908
ానగర్	-10909
▁విలియ	-10910
▁వ్యయం	-10911
▁ప్రహ్లా	-10912
▁చేపట్టాడు	-10913
ec	-10914
fter	-10915
జులా	-10916
దన్న	-10917
ధీశు	-10918
▁గనుక	-10919
▁తలుపు	-10920
శ్చంద్ర	-10921
▁ట్రేడ్	-10922
▁ఇంద్రియ	-10923
▁పీపుల్స్	-10924
▁రాష్ట్రాల్లో	-10925
▁వశి	-10926
▁కాంతిని	-10927
▁కేంద్రాల్లో	-10928
నస్	-10929
సియన్	-10930
రాముడు	-10931
▁బీదర్	-10932
▁ఇంజినీ	-10933
▁వీరభద్ర	-10934
▁ఉష్ణోగ్రతలు	-10935
సంధ	-10936
▁భాను	-10937
▁నదికి	-10938
▁భీమవరం	-10939
▁విమానం	-10940
▁పొందడానికి	-10941
enc	-10942
చేయు	-10943
▁కొల్	-10944
▁బీమా	-10945
▁మరలా	-10946
▁పూర్వా	-10947
▁విత్తనం	-10948
▁ప్రతికూల	-10949
▁ఫలితాలను	-10950
▁స్వేచ్ఛా	-10951
-200	-10952
▁ముది	-10953
▁మాత్రము	-10954
▁హనుమాన్	-10955
▁అశ్వత్థా	-10956
ild	-10957
లును	-10958
దక్షిణ	-10959
▁అలంకరణ	-10960
▁అసిస్ట	-10961
▁టెస్టు	-10962
▁న్యాయమూర్తి	-10963
▁అందుబాటులోకి	-10964
-7	-10965
నక	-10966
లచే	-10967
రత్న	-10968
ౌండ్	-10969
▁ధార	-10970
కప్పు	-10971
▁సగటున	-10972
▁నేటికీ	-10973
▁ఎన్నుకో	-10974
▁పాక్షిక	-10975
▁ముస్లిములు	-10976
మృ	-10977
పెడ	-10978
లాల	-10979
▁అవయ	-10980
▁అపార	-10981
▁కుడా	-10982
▁స్కే	-10983
▁దృష్ట	-10984
▁మినహా	-10985
▁విధ్వ	-10986
▁బిల్లు	-10987
▁మండలాల	-10988
▁కర్నూల్	-10989
▁కరీంనగర్లోను	-10990
ML	-10991
▁1944	-10992
▁నీలం	-10993
▁ఉత్తే	-10994
▁గురైన	-10995
▁చర్చ్	-10996
▁పదార్థాల	-10997
ైదీ	-10998
మ్రా	-10999
లేదా	-11000
య్యాక	-11001
▁కూలీ	-11002
▁మతము	-11003
▁కోటను	-11004
▁పంజాబు	-11005
▁సంకల్ప	-11006
▁పాత్రకు	-11007
▁సంస్కృతంలో	-11008
▁bl	-11009
స్సీ	-11010
▁ఆక్ర	-11011
▁ఖర్చ	-11012
▁డ్యూ	-11013
▁ఆశ్రయ	-11014
▁వెలికి	-11015
▁చిత్రంగా	-11016
▁ఊర	-11017
▁ఎలు	-11018
▁బడి	-11019
▁తుని	-11020
మ్ములు	-11021
▁స్పియర్	-11022
టకై	-11023
▁Ar	-11024
ions	-11025
▁bec	-11026
శ్వాస	-11027
స్టార	-11028
▁లెస్	-11029
▁చేసుకొ	-11030
▁పాటలను	-11031
▁ప్రాబల	-11032
▁తెలుసుకున్న	-11033
▁గడు	-11034
▁పయని	-11035
▁ధ్యానం	-11036
▁సోదరులు	-11037
▁దర్శకుడిగా	-11038
ages	-11039
ారంభ	-11040
గాంధీ	-11041
వియన్	-11042
▁1900	-11043
▁1919	-11044
▁కౌరవ	-11045
▁విషయాల	-11046
▁చెబుతుంది	-11047
▁ఆదిలాబాద్లో	-11048
పీఠ	-11049
ండేది	-11050
▁ఇతడి	-11051
▁there	-11052
▁కొలను	-11053
▁నదిలో	-11054
▁వైదిక	-11055
▁ధ్వంసం	-11056
▁మారుతూ	-11057
▁విచ్ఛి	-11058
▁అగ్రహార	-11059
▁వ్యవహరించ	-11060
రథ	-11061
att	-11062
గతం	-11063
▁నిడ	-11064
▁క్వీ	-11065
▁పరంప	-11066
▁వట్టి	-11067
సిందిగా	-11068
▁నీటితో	-11069
▁సేకరించి	-11070
కాదు	-11071
నేను	-11072
▁దార	-11073
▁This	-11074
▁కేప్	-11075
▁పేట్	-11076
▁అందుకున్న	-11077
▁ప్రధానమైనవి	-11078
▁కార్యక్రమాలలో	-11079
▁ఎన	-11080
ement	-11081
వృక్ష	-11082
▁1932	-11083
రామయ్య	-11084
▁నాటకంలో	-11085
▁సంస్థలలో	-11086
▁సంబంధాలను	-11087
ించినప్పుడు	-11088
▁కలిగిస్తుంది	-11089
▁1937	-11090
▁టాటా	-11091
▁శంకరా	-11092
▁వెంబడి	-11093
▁సంపన్న	-11094
▁శనివారం	-11095
▁ఆహారాన్ని	-11096
▁విమర్శకులు	-11097
▁సంవత్సరముల	-11098
▁ప్రదేశాన్ని	-11099
రంగి	-11100
▁క్రూ	-11101
▁గోత్ర	-11102
▁బిజిన	-11103
▁దినపత్రిక	-11104
▁శరీరాన్ని	-11105
▁సభ్యుడిగా	-11106
ox	-11107
లేవు	-11108
▁బహద	-11109
▁అఖిల	-11110
▁డాన్	-11111
▁వన్డే	-11112
▁డిస్నీ	-11113
▁వాటితో	-11114
▁ప్రశాంత	-11115
▁రికార్డ్	-11116
▁అదేవిధంగా	-11117
▁అంబే	-11118
▁అమృత	-11119
స్ట్రో	-11120
▁గదులు	-11121
▁తప్పి	-11122
▁యుగంలో	-11123
ించుకుంది	-11124
▁సౌకర్యము	-11125
▁గెలుచుకుంది	-11126
▁చేసుకోవడానికి	-11127
విష	-11128
సెల్	-11129
▁1934	-11130
▁మేడ్	-11131
▁యక్ష	-11132
▁దేవతా	-11133
▁సమీపప	-11134
▁ప్రొటె	-11135
▁లార్డ్	-11136
▁మెరుగైన	-11137
స్టిట్యూట్	-11138
▁పనిచేసింది	-11139
▁పుస్తకాలను	-11140
షాఢ	-11141
▁am	-11142
▁ధృత	-11143
పట్టు	-11144
▁ఋగ్వే	-11145
▁చిక్క	-11146
▁జవాబు	-11147
▁నివేద	-11148
▁విక్రమ	-11149
▁ఉపరితలం	-11150
▁ద్రవీభవన	-11151
▁నెల్లూరులో	-11152
▁బ్రాహ్మణులు	-11153
▁చేరుకున్నారు	-11154
ve	-11155
దళం	-11156
ever	-11157
▁bel	-11158
▁రాం	-11159
▁కెన్	-11160
▁నింప	-11161
▁బ్రే	-11162
▁ఆర్మీ	-11163
▁నన్నయ	-11164
చున్నవి	-11165
▁డాక్యు	-11166
▁స్టీము	-11167
ించకుండా	-11168
▁విధముగా	-11169
▁పట్టభద్ర	-11170
▁వేస్తారు	-11171
▁సినిమాను	-11172
ya	-11173
కాల్	-11174
మైతే	-11175
కోలేక	-11176
వేసిన	-11177
స్థుల	-11178
చేసారు	-11179
▁సాపేక్ష	-11180
▁సిద్దాంత	-11181
▁గెలుపొందిన	-11182
AT	-11183
▁బస	-11184
▁జోస్	-11185
కాలుగా	-11186
▁ఇతరుల	-11187
▁వేల్స్	-11188
ంపేటలోను	-11189
▁ప్రీమియర్	-11190
▁చుట్టుపక్కల	-11191
▁నరసింహారావు	-11192
బలి	-11193
▁ఫొ	-11194
బుల్స్	-11195
▁అంతటి	-11196
▁చిట్ట	-11197
▁వివాదం	-11198
▁సినిమాల	-11199
▁ప్రిన్సి	-11200
▁ముందుగానే	-11201
ris	-11202
ించడ	-11203
▁కళ్ళ	-11204
▁మృత్య	-11205
▁అడవులు	-11206
▁పరాజయం	-11207
▁విలువలు	-11208
▁స్వతంత్రం	-11209
▁స్విట్జర్లాండ్	-11210
▁నిర్మించబడ్డాయి	-11211
షలి	-11212
▁హూ	-11213
▁ఖడ్	-11214
▁పటి	-11215
ంబ్రి	-11216
మ్ముల	-11217
▁అణువు	-11218
▁పునాది	-11219
▁పుష్కర	-11220
▁రకాలైన	-11221
▁పరిస్థితుల	-11222
ike	-11223
▁అవే	-11224
టింగు	-11225
▁రేణు	-11226
కుడుగా	-11227
▁అండర్	-11228
▁ఉల్లి	-11229
▁కళ్ళు	-11230
▁స్థూల	-11231
▁అంకితం	-11232
▁పెక్కు	-11233
▁పెట్టే	-11234
▁సామాన్యంగా	-11235
▁em	-11236
ల్చి	-11237
▁నటీ	-11238
మామిడి	-11239
▁వర్షం	-11240
▁కవరేజి	-11241
▁వ్యాయా	-11242
▁కిందికి	-11243
▁సేకరించ	-11244
▁చేసేవాడు	-11245
▁తప్పకుండా	-11246
▁CP	-11247
▁800	-11248
మండలి	-11249
▁యూదు	-11250
▁నరసిం	-11251
▁సమానం	-11252
▁చెరుకు	-11253
▁సన్నని	-11254
▁స్వాతంత	-11255
▁పరిస్థితిని	-11256
వూ	-11257
▁అణి	-11258
ంచాయి	-11259
మార్గ	-11260
▁నెరవే	-11261
▁విదేశ	-11262
▁రాజవంశ	-11263
▁రిపబ్లి	-11264
▁సంస్థగా	-11265
▁విమర్శలు	-11266
▁అధ్యయనాలు	-11267
▁మొత్తాన్ని	-11268
▁కమిష	-11269
▁నానా	-11270
▁భాస్	-11271
▁కోస్తా	-11272
▁ముక్తి	-11273
ంచబడింది	-11274
తోపాటుగా	-11275
▁హక్కులను	-11276
▁కమ్యూనిస్ట్	-11277
▁పరిస్థితులలో	-11278
గామి	-11279
థ్యం	-11280
▁503	-11281
▁పేదరి	-11282
▁హుస్సేన్	-11283
▁అందుకుంది	-11284
యొ	-11285
పర్య	-11286
▁బెజ	-11287
కేషన్	-11288
ముద్ర	-11289
▁అంతస్తు	-11290
ank	-11291
శాతం	-11292
▁దక్ష	-11293
▁మెగా	-11294
▁ప్రవా	-11295
▁కోట్లు	-11296
▁యంత్రం	-11297
▁ఉచితంగా	-11298
▁ఉనికిలో	-11299
▁బాయిలరు	-11300
▁ముంబాయి	-11301
▁తెలుస్తున్నది	-11302
▁లిం	-11303
▁తాకి	-11304
▁దండె	-11305
భాన్ని	-11306
మాత్రం	-11307
▁జలపాతం	-11308
▁మిల్లు	-11309
▁లూయిస్	-11310
▁కార్మికులు	-11311
▁విభజించారు	-11312
▁appe	-11313
▁time	-11314
▁భావం	-11315
వేసింది	-11316
▁హాస్పి	-11317
▁పదార్థాలను	-11318
▁po	-11319
▁అథ	-11320
▁మృగ	-11321
▁లోన	-11322
▁జంగ్	-11323
రిస్తూ	-11324
▁అడ్డం	-11325
▁రచనలలో	-11326
▁సరికొత్త	-11327
▁రాష్ట్రంగా	-11328
eng	-11329
ock	-11330
సలి	-11331
దాస్	-11332
ఫైడ్	-11333
యాను	-11334
▁వేశ	-11335
▁ఇప్ప	-11336
▁చూచి	-11337
▁తారా	-11338
▁బాష్	-11339
▁చేయగా	-11340
▁పీటర్	-11341
▁మతాన్ని	-11342
▁నిలిచారు	-11343
▁సూచిస్తారు	-11344
▁టూ	-11345
రాల్	-11346
▁హయా	-11347
▁1935	-11348
▁5311	-11349
▁రుసు	-11350
▁రేవు	-11351
▁వేటా	-11352
▁సాంబ	-11353
తెలుగు	-11354
రితంగా	-11355
▁పండిత	-11356
ప్రసాద్	-11357
▁బొబ్బిలి	-11358
▁చోటుచేసుకు	-11359
▁నిర్ణయించారు	-11360
ంతులు	-11361
▁నగదు	-11362
▁ఒత్తి	-11363
▁పాండు	-11364
వ్యవసాయ	-11365
▁అహ్మద్	-11366
▁కుమారుడైన	-11367
▁తీరప్రాంత	-11368
▁ప్రయోగాలు	-11369
▁విత్తనాలు	-11370
▁నక్షత్రాలు	-11371
AP	-11372
పాఠ	-11373
▁ఆగ్నే	-11374
▁అక్బర్	-11375
▁అనువైన	-11376
▁మార్చు	-11377
▁ఆహారంగా	-11378
▁పట్టికలో	-11379
▁వృత్తిని	-11380
▁ఆసుపత్రిలో	-11381
▁BBC	-11382
▁నాద	-11383
▁యేట	-11384
▁spec	-11385
▁దుష్	-11386
▁పంటకు	-11387
▁వినిప	-11388
▁ఆరంభంలో	-11389
▁దుర్యోధ	-11390
▁నిలిచాడు	-11391
ery	-11392
▁బాలీ	-11393
▁హంగే	-11394
టర్లకు	-11395
▁ట్రాక్	-11396
▁ఉదాహరణగా	-11397
▁ఢిల్లీలో	-11398
▁ద్వీపంలో	-11399
▁కుమార్తెలు	-11400
▁వినియోగదారులు	-11401
ile	-11402
ానొక	-11403
▁బీచ్	-11404
▁ఈయనకు	-11405
▁నిధుల	-11406
క్రమంగా	-11407
▁జైపూర్	-11408
▁సహజంగా	-11409
▁గుర్తుగా	-11410
▁రూపాన్ని	-11411
▁ప్రక్రియను	-11412
▁3%	-11413
▁తార్	-11414
▁పోరు	-11415
▁సావి	-11416
చుకుని	-11417
▁ఇంజిన్	-11418
▁మహాభార	-11419
▁అంబేద్కర్	-11420
▁ఏర్పాటుకు	-11421
▁భావించాడు	-11422
▁అమెరికాలోని	-11423
పదం	-11424
▁co	-11425
▁తట	-11426
ణిలో	-11427
▁gen	-11428
▁దేవ్	-11429
▁సాహస	-11430
బెట్టు	-11431
మయింది	-11432
▁ఇంధనం	-11433
▁బాండ్	-11434
▁భగవద్	-11435
▁డాలర్ల	-11436
▁మందిని	-11437
▁మరణానికి	-11438
ెడల	-11439
▁two	-11440
▁చంపు	-11441
▁దురా	-11442
▁వైన్	-11443
జెన్సీ	-11444
▁యూదులు	-11445
▁పార్వతి	-11446
▁ప్రతిభా	-11447
▁విధాలుగా	-11448
▁చేరుకున్న	-11449
▁దేవస్థానం	-11450
▁505	-11451
▁కొర	-11452
▁మామ	-11453
గలుగు	-11454
ట్లతో	-11455
▁1857	-11456
▁సమ్మ	-11457
▁ఎప్పు	-11458
▁అవినీతి	-11459
▁సంఘర్షణ	-11460
▁కక్ష్యలో	-11461
▁ప్రాప్తి	-11462
▁టోర్నమెంట్	-11463
▁ఇవే	-11464
▁అప్ర	-11465
▁నైవే	-11466
భిషేకం	-11467
▁ఇబ్న్	-11468
ించుకునే	-11469
▁రావడంతో	-11470
▁అవతరించింది	-11471
▁తీసుకున్నాడు	-11472
షం	-11473
▁89	-11474
====	-11475
▁ఎమి	-11476
▁Wind	-11477
▁రచయితల	-11478
▁మద్రాస్	-11479
▁వర్గాలు	-11480
▁సంబంధమైన	-11481
▁ఎల్లప్పుడూ	-11482
▁రాజమహేంద్ర	-11483
▁అందిస్తున్నాయి	-11484
పాయి	-11485
వారే	-11486
▁ఎముక	-11487
▁దళిత	-11488
▁రోమ్	-11489
▁ప్రియ	-11490
▁సొంతం	-11491
▁సోడియం	-11492
▁క్లిష్టమైన	-11493
▁ప్రయత్నంలో	-11494
ఘో	-11495
ళాల	-11496
ward	-11497
కాలతో	-11498
▁ఎదుర	-11499
▁మెడి	-11500
▁లోపం	-11501
ళ్ళూరు	-11502
▁గూడెం	-11503
▁కోర్ట్	-11504
▁గ్రెగొ	-11505
▁అనంతగిరి	-11506
▁చేస్తుంటారు	-11507
▁రోడ్దురవాణా	-11508
▁సృష్టించింది	-11509
-8	-11510
రోస్	-11511
▁కోస	-11512
ండెను	-11513
వృత్త	-11514
▁నీలి	-11515
▁హామీ	-11516
ించడమే	-11517
మునుండి	-11518
▁అతడికి	-11519
▁దీర్ఘకాల	-11520
▁చంద్రగుప్	-11521
▁క్రిస్టియన్	-11522
చనం	-11523
చెప్ప	-11524
▁వాస్త	-11525
చార్యుల	-11526
▁చర్యలను	-11527
▁అమ్మోనియం	-11528
▁వెంకటేశ్వర	-11529
పని	-11530
▁7%	-11531
డ్నీ	-11532
▁తోక	-11533
గుట్ట	-11534
తుంటే	-11535
రాలలో	-11536
▁అడ్వ	-11537
▁ఇంతకు	-11538
▁ఊరికి	-11539
▁కుమ్మ	-11540
▁తుమ్మ	-11541
▁దుర్మ	-11542
▁జోసెఫ్	-11543
▁ప్రదానం	-11544
▁బిందువు	-11545
▁స్కాట్లాండ్	-11546
▁పెన	-11547
▁సరే	-11548
ధులలో	-11549
▁బళ్ళ	-11550
▁వ్యంగ	-11551
క్రాంతి	-11552
▁భావాలు	-11553
▁పర్యవేక్ష	-11554
▁ప్రమాణాలు	-11555
▁భౌగోళికంగా	-11556
▁మేనేజ్మెంట్	-11557
టీస్	-11558
▁త్రో	-11559
▁నిరో	-11560
క్ష్మి	-11561
▁తప్పక	-11562
ోత్పత్తి	-11563
▁స్థితిని	-11564
▁భూభాగాన్ని	-11565
ann	-11566
ంద్వ	-11567
కును	-11568
▁ఇమా	-11569
▁రేవ	-11570
▁యోని	-11571
▁వారా	-11572
▁బహదూర్	-11573
▁విచ్చే	-11574
▁సువాసన	-11575
▁నిర్ణయి	-11576
▁ఆత్మహత్య	-11577
▁ప్రత్యక్షంగా	-11578
▁శ్రీకాకుళంలోనూ	-11579
▁దాఖ	-11580
▁సిన	-11581
కులైన	-11582
రుసటి	-11583
▁దుంప	-11584
▁దృష్	-11585
▁మనకి	-11586
▁కాగజ్	-11587
▁సామర్	-11588
▁అభిషేక	-11589
▁స్పష్ట	-11590
▁వాల్మీకి	-11591
▁ఉద్యోగులు	-11592
▁ప్రారంభమై	-11593
▁శ్రీనివాస్	-11594
▁అప్పుడప్పుడు	-11595
పరీ	-11596
హైడ	-11597
ద్దా	-11598
ర్యు	-11599
▁క్షయ	-11600
తరువాత	-11601
▁నాటకర	-11602
పోవచ్చు	-11603
మయ్యాడు	-11604
▁డిస్క్	-11605
▁భూమికి	-11606
▁అమలులోకి	-11607
▁తీసుకునే	-11608
▁వైఎస్ఆర్	-11609
▁భద్రాద్రి	-11610
ఇది	-11611
డ్లో	-11612
థియో	-11613
బట్ట	-11614
▁గాల	-11615
నపుడు	-11616
కపోవడం	-11617
తిపదిక	-11618
▁ఊరిలో	-11619
▁ఐరిష్	-11620
▁మధ్యన	-11621
▁మరుగు	-11622
▁స్వభావ	-11623
▁కర్మాగార	-11624
▁బయలుదేరి	-11625
▁రూపుదిద్దు	-11626
-12	-11627
ific	-11628
▁ఉపశ	-11629
▁వాది	-11630
▁శల్య	-11631
▁సయ్య	-11632
▁లోకసభ	-11633
▁ఆంగ్లో	-11634
▁కాగితం	-11635
▁ప్రబంధ	-11636
▁విషయము	-11637
▁పద్ధతుల	-11638
▁చిహ్నంగా	-11639
▁స్థాయిని	-11640
▁ఫెస్టివల్	-11641
ఆమ్	-11642
కొల	-11643
రణ్	-11644
కర్మ	-11645
▁గడప	-11646
▁వరు	-11647
వలసలో	-11648
ిస్తూ	-11649
▁పాప్	-11650
▁పిదప	-11651
▁పోవు	-11652
సాగారు	-11653
▁అరబ్బ	-11654
▁ఆల్బం	-11655
▁క్రూర	-11656
▁చక్కటి	-11657
▁తెచ్చు	-11658
▁ముట్టడి	-11659
▁వేసవిలో	-11660
▁సూచించే	-11661
▁ఇప్పటికి	-11662
▁పాత్రలను	-11663
▁విశేషంగా	-11664
▁మరణానంతరం	-11665
▁పెద్దాపురం	-11666
ాయక	-11667
land	-11668
▁మనుమ	-11669
▁ఎక్కు	-11670
▁సంగతి	-11671
▁పట్టిక	-11672
▁వైద్యం	-11673
▁చట్టబద్ధ	-11674
▁నడుస్తుంది	-11675
▁sc	-11676
ద్వి	-11677
నీటి	-11678
▁రథం	-11679
▁cons	-11680
▁పగటి	-11681
▁అర్జె	-11682
▁కపూర్	-11683
▁కావ్యం	-11684
▁క్రెడి	-11685
▁యూనిట్	-11686
▁పొరపాటు	-11687
ati	-11688
ors	-11689
▁6%	-11690
▁ఓం	-11691
▁ఫూ	-11692
▁రణ	-11693
త్సవ	-11694
▁అజ్	-11695
▁నడవ	-11696
▁ధాతు	-11697
▁సెమీ	-11698
ండ్లలో	-11699
గొట్టి	-11700
జ్యోతి	-11701
▁ఖచ్చి	-11702
▁దోహదం	-11703
▁కవితలు	-11704
స్తుండగా	-11705
▁కొనసాగిన	-11706
▁ప్రెసిడెన్సీ	-11707
బిన	-11708
ంటింగ్	-11709
▁వాహనం	-11710
▁గాలిలో	-11711
▁ధృతరాష్ట్ర	-11712
ఖండ్	-11713
▁గూఢ	-11714
▁కాంట	-11715
▁నదుల	-11716
▁వాలి	-11717
నానికి	-11718
మార్చి	-11719
▁ఒకానొక	-11720
▁గ్రేడ్	-11721
▁నాలుగో	-11722
▁సర్వసా	-11723
▁రైల్వేలు	-11724
▁తీర్చిదిద్ద	-11725
▁BC	-11726
జాలు	-11727
▁తోడే	-11728
▁లుగా	-11729
▁లైబ్ర	-11730
▁ఇంటర్వ	-11731
▁నిప్పు	-11732
▁యంత్రా	-11733
▁సమైక్య	-11734
ంచెస్టర్	-11735
▁వ్యక్తీ	-11736
▁ఇప్పటికే	-11737
▁పర్యాటకులు	-11738
▁ప్రాంగణంలో	-11739
▁సంవత్సరాంతమునకు	-11740
▁sy	-11741
edia	-11742
▁నూరు	-11743
▁పాలక	-11744
▁తక్షణ	-11745
▁తమిళం	-11746
▁నామిన	-11747
▁చికాగో	-11748
▁దరఖాస్తు	-11749
▁గ్రెగొరియన్	-11750
▁%	-11751
ont	-11752
▁ac	-11753
▁Com	-11754
▁రసం	-11755
▁అస్ప	-11756
▁ఒకటే	-11757
▁సెలవు	-11758
▁కొట్టు	-11759
▁పరాక్రమ	-11760
▁వైమానిక	-11761
▁ఉన్నారని	-11762
▁చెబుతాడు	-11763
▁ప్రేక్షకుల	-11764
▁వరంగల్లోనూ	-11765
గని	-11766
గులకు	-11767
్యుడి	-11768
్యూరి	-11769
▁లైఫ్	-11770
సముద్రం	-11771
▁Indian	-11772
▁సాక్షి	-11773
▁కాంగ్రే	-11774
స్తుంటాడు	-11775
▁హరిశ్చంద్ర	-11776
ళయ	-11777
పియా	-11778
లాంబ	-11779
▁గార	-11780
▁పరచ	-11781
▁దోపి	-11782
▁వారాల	-11783
▁దుగ్గి	-11784
▁మరుసటి	-11785
ఫిబ్రవరి	-11786
▁వాహనాలు	-11787
▁మొదలగునవి	-11788
▁మిర్యాలగూడ	-11789
▁స్థానానికి	-11790
▁బ్రాహ్మణుడు	-11791
▁జిల్లాల్లోని	-11792
▁పోత	-11793
ించేలా	-11794
▁నిరోధక	-11795
రిస్తుంది	-11796
▁సైన్యంలో	-11797
▁చెప్పాలంటే	-11798
▁హెక్టార్లు	-11799
ert	-11800
▁94	-11801
ఖాన్	-11802
▁చార	-11803
▁ప్రణ	-11804
▁డబ్బి	-11805
▁నలుపు	-11806
▁అనుభవి	-11807
▁మనుషులు	-11808
▁ఉండటానికి	-11809
▁విమర్శకుల	-11810
▁నెల్లూరులోనూ	-11811
ful	-11812
▁11,	-11813
క్టరీ	-11814
▁లక్క	-11815
▁కుంకు	-11816
▁కొండల	-11817
▁సాల్వ	-11818
▁హార్ట్	-11819
▁Windows	-11820
▁అడ్డుకు	-11821
▁ఎంతగానో	-11822
▁ఆర్గనైజేషన్	-11823
డమ్	-11824
▁OS	-11825
భాను	-11826
శాసన	-11827
▁ఆనంద్	-11828
▁పీడనం	-11829
▁క్రాస్	-11830
▁లాంటివి	-11831
▁కెప్టెన్	-11832
▁ప్రాధికార	-11833
▁భాగస్వామ్య	-11834
జిత	-11835
ష్ణం	-11836
▁గ్యా	-11837
▁చెక్	-11838
▁నేర్	-11839
▁విసు	-11840
జీరియా	-11841
గొట్టపు	-11842
▁తిక్కన	-11843
▁ద్రౌపది	-11844
సంఘ	-11845
రూపంలో	-11846
సికొని	-11847
▁జమీంద	-11848
▁పౌర్ణ	-11849
▁భాషకు	-11850
▁ఆచరించ	-11851
▁నిదర్శ	-11852
▁మారాయి	-11853
▁అన్వేషణ	-11854
▁ఆఫ్రికాలో	-11855
▁న్యాయవాది	-11856
▁విస్తీర్ణము	-11857
▁సంహ	-11858
▁డెస్	-11859
▁మెర్	-11860
వేశారు	-11861
▁నాటిన	-11862
▁ఇష్టపడ	-11863
▁కొండపై	-11864
వారిపాలెం	-11865
▁సిద్ధిపేట	-11866
▁వెలుగులోకి	-11867
ern	-11868
ury	-11869
నైట్	-11870
రూపం	-11871
గులను	-11872
త్విక	-11873
▁ఖాతా	-11874
▁first	-11875
▁దౌత్య	-11876
▁వెలసిన	-11877
▁విజయాలు	-11878
▁మార్టిన్	-11879
▁పదార్ధాలు	-11880
▁పిక్చర్స్	-11881
▁కుదుర్చుకు	-11882
▁సృష్టించాడు	-11883
als	-11884
టను	-11885
olog	-11886
▁ఆపి	-11887
▁తిరిగే	-11888
▁నైరుతి	-11889
▁టెర్మిన	-11890
▁వెంకటేశ్వరరావు	-11891
కేశ	-11892
వాను	-11893
సూత్ర	-11894
▁కోనే	-11895
▁బేస్	-11896
▁మూడే	-11897
న్నులు	-11898
వర్తనం	-11899
▁కొవ్వ	-11900
▁ఇద్దరి	-11901
▁మించిన	-11902
▁సంఖ్యలు	-11903
▁కాల్షియం	-11904
▁93	-11905
లిపి	-11906
నర్జీ	-11907
▁అజర్	-11908
▁కవుల	-11909
▁గేమ్	-11910
▁ఆచారం	-11911
▁విండో	-11912
మౌతుంది	-11913
▁స్టాన్	-11914
▁గ్రంథంలో	-11915
▁విజయవంతం	-11916
ani	-11917
▁ధి	-11918
గ్స్	-11919
▁నిధి	-11920
▁ముసు	-11921
▁సోయా	-11922
మిక్స్	-11923
శిక్షణ	-11924
▁అత్యా	-11925
▁గడుపు	-11926
▁మన్ని	-11927
▁స్తోత్ర	-11928
▁పత్రికలలో	-11929
▁వివరిస్తుంది	-11930
ma	-11931
రేష్	-11932
హోర్	-11933
ంటీనా	-11934
రోజుల	-11935
▁ఉండు	-11936
▁ఘాట్	-11937
▁భంగి	-11938
▁ఆగ్రహ	-11939
▁పద్మా	-11940
▁చేసినా	-11941
▁మాడుగు	-11942
చేస్తుంది	-11943
▁కాలేజీలో	-11944
మైనప్పటికీ	-11945
▁వెనుకబడిన	-11946
▁మధ్యప్రదేశ్	-11947
ీపి	-11948
----	-11949
▁లిఖ	-11950
ాయిల్	-11951
▁గుప్	-11952
▁రామలింగ	-11953
▁నిర్వహణా	-11954
▁తాలూకాలోని	-11955
100	-11956
ject	-11957
▁డైర	-11958
యన్స్	-11959
▁షార్	-11960
▁సిర్	-11961
▁అభ్యు	-11962
▁చల్లని	-11963
▁వివక్ష	-11964
▁రహదారులు	-11965
▁కావడానికి	-11966
ఖీ	-11967
▁ఆదో	-11968
▁గణన	-11969
▁చిలు	-11970
స్కెట్	-11971
▁ఈశ్వర	-11972
▁పోవడం	-11973
▁అభిమన్	-11974
▁దీవులు	-11975
▁నటించి	-11976
▁పరిస్థితులను	-11977
▁ప్రదర్శించారు	-11978
రద	-11979
వర్ధ	-11980
స్తారని	-11981
▁ఇంటిలో	-11982
▁భూమిలో	-11983
▁తెలిపాడు	-11984
▁భావించిన	-11985
▁సుయోధనుడు	-11986
▁ఉత్పత్తిలో	-11987
▁ప్రస్తుతము	-11988
▁నల్గొండలోనూ	-11989
▁ప్రచురించిన	-11990
▁ఇబ్రహీంపట్నం	-11991
-9	-11992
ule	-11993
గిల్	-11994
టూరి	-11995
▁హోం	-11996
▁పావు	-11997
ములోనే	-11998
▁అచ్చు	-11999
▁అయోధ్య	-12000
▁విపరీతమైన	-12001
-15	-12002
చును	-12003
▁1,0	-12004
▁ఎరు	-12005
▁హ్య	-12006
▁నిరం	-12007
▁సాధి	-12008
వచ్చిన	-12009
స్టులు	-12010
ించలేక	-12011
▁కొలువ	-12012
▁సోషలి	-12013
▁ఉనికిని	-12014
▁విశాఖపట్నంలో	-12015
బాన్	-12016
శాలి	-12017
ంటిని	-12018
▁సమక్ష	-12019
▁చేయమని	-12020
▁మోటార్	-12021
▁అప్పారావు	-12022
▁గ్రంథాన్ని	-12023
hes	-12024
ంగర్	-12025
ానది	-12026
ాయిడ్	-12027
▁1922	-12028
▁మాస్	-12029
ందరినీ	-12030
▁ఎమ్మె	-12031
▁ప్రావీ	-12032
▁ఉద్యోగి	-12033
▁జనవరిలో	-12034
▁వుండేది	-12035
▁బాలీవుడ్	-12036
red	-12037
ugu	-12038
గూరు	-12039
▁కవచ	-12040
▁తమను	-12041
▁వీసా	-12042
విధానం	-12043
▁ఇరువు	-12044
▁ఐసోటో	-12045
▁పోటీలు	-12046
▁సాక్షా	-12047
▁కాకతీయుల	-12048
▁తదితరులు	-12049
▁స్వామిని	-12050
▁లభిస్తాయి	-12051
▁out	-12052
గోపాల	-12053
▁జర్నలి	-12054
▁తీర్మా	-12055
▁శ్రీకాళహస్తి	-12056
0%	-12057
vel	-12058
ేరి	-12059
ైర్	-12060
ంగళి	-12061
జీలు	-12062
▁వయో	-12063
తరగతి	-12064
▁వడ్డీ	-12065
▁చలికాలం	-12066
▁విషయాలలో	-12067
▁కొద్దికాల	-12068
డల	-12069
ale	-12070
బాయ్	-12071
▁act	-12072
నేశ్వ	-12073
▁ఎవ్వ	-12074
▁మిలి	-12075
▁యోగి	-12076
ేపల్లి	-12077
▁జయంతి	-12078
▁ఆకట్టు	-12079
▁వహించి	-12080
▁ఉపన్యాస	-12081
▁మహాసముద్రం	-12082
▁అధ్యక్షునిగా	-12083
du	-12084
జీప	-12085
ికీ	-12086
▁00	-12087
గలవు	-12088
▁చేశా	-12089
కురాలు	-12090
మార్లు	-12091
▁గూగుల్	-12092
▁కళ్యాణం	-12093
▁నిర్మూలన	-12094
▁చారిత్రాత్మక	-12095
ఠి	-12096
▁దసరా	-12097
▁ఇస్రో	-12098
▁పాండవ	-12099
▁తయారైన	-12100
▁పదాలను	-12101
▁కార్తీక	-12102
▁ముక్కలు	-12103
▁వస్త్రాలు	-12104
Ch	-12105
iss	-12106
▁IB	-12107
▁వంక	-12108
క్కుల	-12109
▁జగన్	-12110
▁బాహు	-12111
▁వైఫల	-12112
▁హసన్	-12113
పారుదల	-12114
▁ఆక్స్	-12115
▁మలుపు	-12116
▁మహావీ	-12117
▁శబ్దం	-12118
▁సిరియా	-12119
▁స్టోన్	-12120
▁పెట్టడం	-12121
▁ఎడ్వర్డ్	-12122
▁వ్యక్తిని	-12123
నేత	-12124
ఢిల్లీ	-12125
▁ఆరోపణ	-12126
▁నర్సా	-12127
▁చూసుకు	-12128
▁మురికి	-12129
▁పరిజ్ఞానం	-12130
▁శుక్రవారం	-12131
తాల	-12132
▁దాట	-12133
▁ఐఐటీ	-12134
ల్లిలో	-12135
▁అనుకు	-12136
▁కవిత్వ	-12137
▁పాలకుడు	-12138
▁మధ్యయుగ	-12139
▁వ్యాధుల	-12140
▁తండ్రికి	-12141
▁పోర్చుగీస్	-12142
ౌక	-12143
ైడ్	-12144
▁ఎక	-12145
uman	-12146
▁చాప	-12147
▁హోట	-12148
▁ఈమెకు	-12149
▁చూస్తూ	-12150
▁మాడుగుల	-12151
▁యంత్రాలు	-12152
▁ప్రకటించిన	-12153
జాత	-12154
కుంఠ	-12155
ారాత్మక	-12156
▁చేతితో	-12157
పాడులోను	-12158
▁గణతంత్ర	-12159
▁దినోత్సవం	-12160
▁న్యాయస్థాన	-12161
▁అలెగ్జాండర్	-12162
▁వాటితోపాటుగా	-12163
స్లే	-12164
హెచ్	-12165
తండ్ర	-12166
పట్టి	-12167
▁ఉచ్చ	-12168
▁సరసన	-12169
▁అన్వేష	-12170
▁పాత్రల	-12171
▁ముదురు	-12172
▁బిజినెస్	-12173
▁చంద్రబాబు	-12174
పన	-12175
దారి	-12176
యాని	-12177
్యంతో	-12178
▁మోనో	-12179
▁రాహు	-12180
లూరులో	-12181
▁మదీనా	-12182
▁ఎప్పటి	-12183
▁తేడాతో	-12184
▁పదవికి	-12185
▁పైకప్పు	-12186
▁స్టిట్యూట్	-12187
తల్	-12188
తిరు	-12189
▁700	-12190
▁rec	-12191
▁కనీస	-12192
బ్రోలు	-12193
క్షన్స్	-12194
▁అందరినీ	-12195
ద్యం	-12196
▁ధనం	-12197
▁చూసు	-12198
▁దీవి	-12199
▁లంబా	-12200
▁ఏకాదశి	-12201
▁చిత్రలేఖ	-12202
▁చుట్టుప్ర	-12203
▁ఇవ్వడానికి	-12204
▁సంబంధాన్ని	-12205
▁సంవత్సరములు	-12206
విజ	-12207
కన్న	-12208
తాబ్	-12209
మేష్	-12210
వెంట	-12211
▁సౌల	-12212
▁హేమ	-12213
ాయుడు	-12214
▁కిరీ	-12215
▁తిని	-12216
▁నారు	-12217
▁శాఖా	-12218
▁సాన్	-12219
▁అచ్యు	-12220
▁సోమవారం	-12221
▁పాల్గొనే	-12222
▁సంతృప్తి	-12223
▁స్థానాలు	-12224
▁కార్యక్రమాల	-12225
ons	-12226
▁522	-12227
▁att	-12228
▁తగు	-12229
▁వెద	-12230
ంచాలి	-12231
▁term	-12232
▁ఎలిజ	-12233
▁మాధవ	-12234
▁అనేకం	-12235
▁వదిలే	-12236
గోదావరి	-12237
▁గాంచిన	-12238
▁దట్టమైన	-12239
▁తగ్గింది	-12240
▁గ్రంథాలను	-12241
▁ధరిస్తారు	-12242
వెల	-12243
▁ev	-12244
రికం	-12245
వీధి	-12246
▁శకం	-12247
రాలను	-12248
▁సూఫీ	-12249
▁సేన్	-12250
▁అధిరో	-12251
▁కొయ్య	-12252
కిస్తాన్	-12253
ప్రతిష్ఠ	-12254
▁నిర్మూలి	-12255
▁సాంప్రదాయం	-12256
-18	-12257
▁వొ	-12258
ness	-12259
oman	-12260
టార్	-12261
▁ఎపి	-12262
▁నాన	-12263
▁ఆడిన	-12264
▁పురో	-12265
▁పౌరస	-12266
ించేది	-12267
▁కథలను	-12268
▁కదిలి	-12269
▁కరుగు	-12270
▁పడమటి	-12271
▁సామ్య	-12272
▁గీతాలు	-12273
▁ప్రతీతి	-12274
▁బహుమతులు	-12275
▁కోల్పోయిన	-12276
▁బాధ్యతలను	-12277
▁సంక్రాంతి	-12278
▁యమ	-12279
వర్త	-12280
కిత్సా	-12281
▁అలానే	-12282
▁డెవలప్	-12283
▁అర్జును	-12284
▁గణాంకాలు	-12285
▁సేకరించిన	-12286
▁మినహాయింపు	-12287
AM	-12288
-14	-12289
కల్పం	-12290
▁పరశు	-12291
▁మచ్చ	-12292
▁మిని	-12293
ఫోర్డ్	-12294
▁ఆక్సీ	-12295
వ్యాప్త	-12296
▁ఇండోర్	-12297
▁అందులోని	-12298
▁తయారుచేసిన	-12299
ll	-12300
ble	-12301
▁వాజ	-12302
సులకు	-12303
▁నినా	-12304
▁మునగ	-12305
దాద్రి	-12306
వాసులు	-12307
▁కలుగజే	-12308
▁గోపాల్	-12309
▁నూనెలో	-12310
▁బైబిల్	-12311
▁ఉన్నదని	-12312
▁దంపతులు	-12313
▁సన్యాసి	-12314
▁సింగిల్	-12315
▁ఫార్ములా	-12316
▁మొక్కలను	-12317
▁తెలుసుకుని	-12318
▁గ్రామస్థులు	-12319
▁కొనసాగుతుంది	-12320
ధో	-12321
ife	-12322
▁అహో	-12323
ద్దరు	-12324
వాదుల	-12325
స్పతి	-12326
▁బళ్ళారి	-12327
ఆగ	-12328
▁చద	-12329
ause	-12330
eral	-12331
జన్య	-12332
పాయం	-12333
▁గేయ	-12334
▁బాపు	-12335
చ్చాయి	-12336
▁దిగువన	-12337
▁సయ్యద్	-12338
▁దేశాలతో	-12339
▁మహమ్మదు	-12340
▁ముఖర్జీ	-12341
▁అధికారుల	-12342
▁పరిష్కార	-12343
▁ఉపనిషత్తు	-12344
▁తగ్గుతుంది	-12345
2)	-12346
ED	-12347
ty	-12348
igh	-12349
మేధ	-12350
యడం	-12351
▁91	-12352
డితో	-12353
ప్రే	-12354
▁ఆటలో	-12355
▁సేనా	-12356
▁అన్నం	-12357
▁ఉంచిన	-12358
▁కొల్లి	-12359
▁సంపాదక	-12360
▁గన్నవరం	-12361
▁వుంటారు	-12362
▁వైవిధ్యం	-12363
▁నమ్ముతారు	-12364
ంతీ	-12365
ానగ	-12366
ేతర	-12367
ంటన్	-12368
▁కళింగ	-12369
▁మానవు	-12370
▁కంట్రో	-12371
▁తీసుకోవడం	-12372
తున్నప్పుడు	-12373
▁చరిత్రకారుడు	-12374
▁పునరుద్ధరించ	-12375
▁స్వాతంత్ర్యో	-12376
టులో	-12377
▁జాగ	-12378
▁పొడ	-12379
▁సమృ	-12380
▁ఆదేశాల	-12381
▁పోల్చి	-12382
▁యాత్రా	-12383
▁చేయలేదు	-12384
▁నిర్వహణలో	-12385
▁స్వాతంత్య	-12386
▁ఎలక్ట్రాన్	-12387
ick	-12388
▁bet	-12389
▁రాధ	-12390
▁గీతా	-12391
▁హరిక	-12392
దారుగా	-12393
▁అల్లి	-12394
▁నేత్ర	-12395
▁అనుగ్రహ	-12396
▁నిధులను	-12397
▁రాజ్యసభ	-12398
▁అక్షరాలు	-12399
▁ఆత్మకూరు	-12400
▁పట్టణాలు	-12401
▁వంశానికి	-12402
▁తీసుకుంటే	-12403
▁పనిచేస్తూ	-12404
oss	-12405
ouse	-12406
భారం	-12407
▁జాల	-12408
▁నైట	-12409
ately	-12410
స్తానీ	-12411
▁ఈస్టి	-12412
▁హాజరు	-12413
▁గుర్రం	-12414
▁ఫిర్యా	-12415
న్నింటినీ	-12416
▁జోర్డాన్	-12417
▁ప్రాతిపదిక	-12418
దుంప	-12419
దేవ్	-12420
పోతూ	-12421
▁ఆడే	-12422
వింగ్	-12423
▁పెడన	-12424
రెన్స్	-12425
▁రూపాయ	-12426
▁పరమాత్మ	-12427
▁గోల్డెన్	-12428
▁ముగుస్తుంది	-12429
▁ప్రవేశపెట్టిన	-12430
="	-12431
యై	-12432
శూ	-12433
▁వెలుపలి	-12434
▁district	-12435
బడుతున్నది	-12436
▁కార్యాలయాలు	-12437
▁నిర్మల్లోనూ	-12438
బౌ	-12439
▁er	-12440
▁అతీ	-12441
▁ఆలి	-12442
▁కరుణ	-12443
▁దేశా	-12444
▁బల్ల	-12445
▁ఏడుగు	-12446
▁తెలియక	-12447
▁పంచాయతి	-12448
▁తొలిసారి	-12449
▁దృష్టిని	-12450
▁విద్యార్	-12451
▁కంఠ	-12452
▁మోడ	-12453
▁5324	-12454
▁విజే	-12455
కర్తలు	-12456
త్యాలు	-12457
నిక్స్	-12458
▁సౌందర	-12459
▁రచించి	-12460
▁స్విస్	-12461
cription	-12462
పూర్లోనూ	-12463
▁ఏర్పాట్లు	-12464
▁పట్టుకుని	-12465
ష్క	-12466
▁ధని	-12467
మోహన్	-12468
▁నారి	-12469
▁బూర్	-12470
▁ప్రగతి	-12471
▁పరివర్తన	-12472
▁పుట్టింది	-12473
▁దక్షిణాసియా	-12474
మాత	-12475
వంతులు	-12476
▁తీర్ధ	-12477
▁పండ్ల	-12478
▁ప్రమే	-12479
▁బజార్	-12480
▁వాల్వు	-12481
▁హెల్త్	-12482
▁తీసింది	-12483
టాల	-12484
▁ఆఖ	-12485
పులి	-12486
▁వరా	-12487
మించు	-12488
▁డబ్ల	-12489
▁వికా	-12490
▁ఛానల్	-12491
▁ఒంటరిగా	-12492
▁ప్రావిన్	-12493
▁భారతీయులు	-12494
AD	-12495
తార్	-12496
దుని	-12497
uring	-12498
▁ఫెలో	-12499
▁లలిత	-12500
▁వెనక	-12501
ంపల్లె	-12502
వాదిగా	-12503
▁భూపాల	-12504
చుకున్న	-12505
ాలీవుడ్	-12506
▁సదాశివ	-12507
▁వ్యయంతో	-12508
▁నిఘంటువు	-12509
▁పరిశ్రమల	-12510
▁నారాయణపేట	-12511
ఖే	-12512
ంబర	-12513
వాచ	-12514
రత్నం	-12515
ెత్తి	-12516
▁అభివృ	-12517
▁ఆదోని	-12518
▁ద్రవం	-12519
▁వాసులు	-12520
▁కొల్లూరు	-12521
▁పురుషుడు	-12522
▁సంక్షోభం	-12523
?"	-12524
__	-12525
ral	-12526
పూర	-12527
▁మస	-12528
బిసి	-12529
మోన్	-12530
మంత్ర	-12531
▁సాగే	-12532
కరించు	-12533
▁ఆవిర్	-12534
▁రాజుకు	-12535
▁విన్యా	-12536
▁అంతకంటే	-12537
▁జీవించి	-12538
▁వ్యక్తికి	-12539
▁ఉపయోగించవచ్చు	-12540
టీప	-12541
నగా	-12542
▁లంబ	-12543
ుడికి	-12544
▁over	-12545
▁ఓడరే	-12546
▁విరు	-12547
▁కట్టడ	-12548
▁పెంచి	-12549
▁సున్నీ	-12550
▁సుపరిచి	-12551
▁పవిత్రమైన	-12552
▁రాధాకృష్ణ	-12553
▁మాదిరిగానే	-12554
▁చేసినప్పుడు	-12555
▁నెల్లూరులోను	-12556
▁8%	-12557
పండి	-12558
▁లఘు	-12559
▁శతక	-12560
▁సుబ	-12561
▁more	-12562
▁అడవులలో	-12563
▁తేలికగా	-12564
▁సల్ఫేట్	-12565
▁సామూహిక	-12566
▁పరిపూర్ణ	-12567
▁యాదాద్రి	-12568
▁వృత్తాంత	-12569
▁ప్రముఖంగా	-12570
▁చంద్రశేఖర్	-12571
ెడ్	-12572
లమైన	-12573
వాహన	-12574
ోక్ష	-12575
▁509	-12576
ంగారు	-12577
▁అనుమ	-12578
▁చాలు	-12579
▁మధుర	-12580
▁మరణి	-12581
▁శ్రు	-12582
▁కానుక	-12583
కొనుటకు	-12584
▁ప్రీతి	-12585
▁గెలిచిన	-12586
▁పరిణామం	-12587
▁స్వదేశీ	-12588
▁క్షత్రియ	-12589
▁పిఠాపురం	-12590
▁మెజారిటీతో	-12591
▁చేసుకోవచ్చు	-12592
▁ప్రపంచానికి	-12593
మవ	-12594
▁కమల	-12595
▁వరం	-12596
క్షలు	-12597
▁మునుపు	-12598
formation	-12599
▁మిలియన్లు	-12600
ారాలు	-12601
▁పతకం	-12602
▁మెన్	-12603
▁వేయి	-12604
రానికి	-12605
▁పిట్ట	-12606
▁రుక్మి	-12607
మాధ్యమిక	-12608
▁అవుతాయి	-12609
▁చెప్తారు	-12610
▁నగర్లోను	-12611
▁తీసుకుంది	-12612
డొ	-12613
’,	-12614
ంగీ	-12615
లులు	-12616
▁రాణ	-12617
other	-12618
డలోను	-12619
▁బావి	-12620
మార్గం	-12621
స్టిన్	-12622
▁వర్ణన	-12623
▁వెళ్లే	-12624
▁అగస్త్య	-12625
▁సిద్ధంగా	-12626
▁గ్రంథాలలో	-12627
▁చేపట్టింది	-12628
▁సంస్కృతిలో	-12629
ర్లో	-12630
▁cop	-12631
ధార్మిక	-12632
▁కట్టడం	-12633
▁అందుకని	-12634
▁బాస్కెట్	-12635
▁కాకినాడలో	-12636
▁విస్తీర్ణంలో	-12637
▁ప్రవేశించింది	-12638
ium	-12639
ంపబడ	-12640
టేజ్	-12641
▁ఒరి	-12642
▁నకి	-12643
ంచేసి	-12644
▁స్పృ	-12645
▁కొమరం	-12646
▁శిఖరం	-12647
▁ఉంచారు	-12648
▁పోషించిన	-12649
▁స్థితికి	-12650
▁ఈస్టిండియా	-12651
▁గూడూరులోనూ	-12652
arg	-12653
లాడ	-12654
సుర	-12655
▁==	-12656
గూర్	-12657
▁reg	-12658
▁ఉభయ	-12659
్యూటీ	-12660
▁క్రు	-12661
▁రాదు	-12662
▁జెండా	-12663
▁10,000	-12664
▁చేర్చు	-12665
▁పద్మనా	-12666
▁తయారీకి	-12667
▁నిరుద్యోగ	-12668
పము	-12669
మయం	-12670
▁km	-12671
టిష్	-12672
▁జని	-12673
ద్యుమ్	-12674
▁found	-12675
ంగుటూరు	-12676
▁ఆయుధాలు	-12677
▁పరీక్షలో	-12678
▁శీతాకాలంలో	-12679
▁కనుగొన్నాడు	-12680
▁స్వతంత్రంగా	-12681
ణె	-12682
మత్	-12683
ోదయ	-12684
ఉన్న	-12685
▁ఆనంది	-12686
▁పండించ	-12687
▁ప్రాణం	-12688
▁ఫోర్డ్	-12689
▁ఇతరులకు	-12690
▁సమస్యను	-12691
orn	-12692
▁హత	-12693
ఉత్త	-12694
కిన్	-12695
జీవన	-12696
▁ఉరు	-12697
▁నొక	-12698
▁ఇల్ల	-12699
లక్ష్మ	-12700
▁ఆకృతి	-12701
▁అరబిక్	-12702
▁పిల్లి	-12703
▁అనుబంధం	-12704
▁పునర్నిర్మ	-12705
▁IBM	-12706
భాషలో	-12707
▁గుణం	-12708
▁రచనల	-12709
▁లాట్	-12710
▁జమ్మూ	-12711
▁రైతుల	-12712
▁ప్రతిఘ	-12713
▁ఊపిరితి	-12714
▁ఉపయోగపడే	-12715
▁నియమించారు	-12716
▁ప్రాథమికంగా	-12717
▁కార్యక్రమానికి	-12718
రచన	-12719
లోన్	-12720
▁అస్	-12721
▁జరుగ	-12722
▁నగరము	-12723
▁అందుచేత	-12724
▁కొంతకాల	-12725
▁పనితీరు	-12726
▁ఇంటిపేరు	-12727
▁ఉత్తీర్ణ	-12728
▁ద్వీపాలు	-12729
▁వెనుజులా	-12730
▁శరీరానికి	-12731
▁అర్జెంటీనా	-12732
ధిగా	-12733
▁అవా	-12734
▁పదవ	-12735
▁విడా	-12736
ధికారం	-12737
▁కలిసిన	-12738
▁మరియొక	-12739
▁ఉండడంతో	-12740
▁కాల్సియం	-12741
▁రాజకీయాలలో	-12742
శాన	-12743
▁ధ్య	-12744
▁కర్ణ	-12745
▁ఇరాక్	-12746
▁ప్రబల	-12747
▁టెట్రా	-12748
▁ప్రయోగా	-12749
▁రిజర్వ్	-12750
▁సుప్రీం	-12751
▁భాగస్వామి	-12752
▁చెందుతుంది	-12753
డిస్	-12754
నును	-12755
▁వీట	-12756
▁పాన్	-12757
▁మాకు	-12758
▁షియా	-12759
▁అకాడె	-12760
▁ఫాస్ట్	-12761
▁స్మృతి	-12762
▁శిక్షణా	-12763
▁ఉద్దేశించి	-12764
పడటం	-12765
సేపు	-12766
▁had	-12767
▁చాన	-12768
▁మాం	-12769
తుందో	-12770
▁call	-12771
▁గ్రి	-12772
▁పంచు	-12773
▁పలాస	-12774
రంలోను	-12775
▁మహేష్	-12776
ంబాన్ని	-12777
▁వాస్కో	-12778
▁క్రెడిట్	-12779
▁పోగొట్టు	-12780
▁పాక్షికంగా	-12781
ారామ	-12782
▁ఎవరో	-12783
▁కుర్	-12784
▁బద్ద	-12785
▁శాంత	-12786
▁తిన్న	-12787
▁జైలులో	-12788
▁బాధ్యతను	-12789
▁మొత్తంతో	-12790
▁వహించింది	-12791
తార	-12792
లలు	-12793
▁షు	-12794
ప్రజ	-12795
▁ప్య	-12796
ంగంలో	-12797
▁అంటి	-12798
▁కల్వ	-12799
ండ్లను	-12800
▁తిలక్	-12801
▁మల్లా	-12802
▁యాంటీ	-12803
▁ఏనుగుల	-12804
▁నీళ్ళు	-12805
▁ఆమ్లాలు	-12806
▁కూర్చుని	-12807
▁తల్లితండ్ర	-12808
▁పెద్దపల్లి	-12809
కృతం	-12810
▁మంత	-12811
▁మెం	-12812
▁గ్రు	-12813
▁తీసే	-12814
▁స్పా	-12815
కరించడం	-12816
▁నిషేధం	-12817
▁పెంపుడు	-12818
▁రేపల్లె	-12819
మిస్తుంది	-12820
▁దుగ్గిరాల	-12821
▁పూర్వీకులు	-12822
▁భవిష్యత్తులో	-12823
సింగ	-12824
▁ఇంప	-12825
▁లార	-12826
▁కేశవ	-12827
▁మాగ్	-12828
▁హిరణ	-12829
▁టెక్క	-12830
▁ఆటగాడు	-12831
▁ఎలిజబెత్	-12832
▁క్రియాశీ	-12833
itt	-12834
కంఠ	-12835
కరు	-12836
▁భృ	-12837
▁కటక	-12838
▁గమ్య	-12839
▁స్టో	-12840
▁under	-12841
▁అవధాన	-12842
▁పత్రం	-12843
పదార్థం	-12844
▁జోక్యం	-12845
▁ఉంటాయని	-12846
▁పత్రాలు	-12847
▁భారతీయు	-12848
▁వ్యాకరణ	-12849
▁కొంతవరకు	-12850
▁వాస్తవిక	-12851
▁విపరీతంగా	-12852
▁సత్యాగ్రహ	-12853
▁నీటిపారుదల	-12854
PA	-12855
▁ph	-12856
▁350	-12857
▁నరసా	-12858
▁సజీవ	-12859
▁స్తూ	-12860
▁గోపురం	-12861
▁పువ్వులు	-12862
▁సంస్థలను	-12863
1/	-12864
rim	-12865
▁ఖి	-12866
▁షర	-12867
▁బసవ	-12868
ంబుల్	-12869
▁most	-12870
▁జ్యూ	-12871
▁మోర్	-12872
దర్శన్	-12873
▁కరిగి	-12874
▁నవాబ్	-12875
▁రాత్ర	-12876
సనాన్ని	-12877
▁రాళ్ళు	-12878
పాలెంలోను	-12879
▁అబ్దుల్లా	-12880
▁అనుమతిస్తుంది	-12881
ents	-12882
పైగా	-12883
రాతి	-12884
▁ముహ	-12885
ముంది	-12886
▁ఎలాగ	-12887
▁after	-12888
▁బంగార	-12889
▁సిఫార్	-12890
▁హనుమంత	-12891
▁భారతీయుల	-12892
▁అశ్వత్థామ	-12893
▁డెన్మార్క్	-12894
▁స్నేహితుడు	-12895
అనే	-12896
▁దహ	-12897
డిన్	-12898
▁ఆదు	-12899
నికల్	-12900
లపాడు	-12901
▁కంచి	-12902
▁కెర్	-12903
ాలయాలు	-12904
్రియల్	-12905
▁గారికి	-12906
▁జ్ఞాపక	-12907
తులయ్యారు	-12908
▁సంపాదించి	-12909
ోగ్	-12910
▁Co	-12911
ట్జ్	-12912
▁మాత	-12913
▁మోహ	-12914
పుస్త	-12915
▁వ్రే	-12916
▁చింతా	-12917
▁జర్నల్	-12918
▁పోయారు	-12919
▁మక్కువ	-12920
▁వెంకయ్య	-12921
▁శాసనసభ్య	-12922
▁కార్యకలాపాల	-12923
హదే	-12924
▁ఆం	-12925
ండ్రు	-12926
త్తిక	-12927
▁కొరత	-12928
▁గేట్	-12929
▁వైస్	-12930
▁స్టి	-12931
▁అసలైన	-12932
▁నటులు	-12933
▁పులుల	-12934
▁వర్తక	-12935
▁శాఖలో	-12936
▁ఒక్కటే	-12937
▁కలిపిన	-12938
▁సందేశం	-12939
▁భగవద్గీత	-12940
▁ఠా	-12941
స్లో	-12942
▁125	-12943
▁ఋషి	-12944
▁మేర	-12945
▁some	-12946
▁ధ్రువ	-12947
ప్రాంతం	-12948
▁అందుచే	-12949
▁అలంకార	-12950
▁ఉండేలా	-12951
▁నిజంగా	-12952
ేశ్వరుని	-12953
▁ఆకాశంలో	-12954
▁వనరులను	-12955
▁సంస్కృతిని	-12956
ew	-12957
గౌ	-12958
భీం	-12959
inal	-12960
▁ఇని	-12961
▁బిగ	-12962
▁అనిప	-12963
▁సంగమ	-12964
▁ఆరోపణలు	-12965
▁నందమూరి	-12966
▁విభాగానికి	-12967
▁ప్రయత్నించారు	-12968
టల	-12969
ేన్	-12970
▁ఏం	-12971
డెల్	-12972
▁ఘటన	-12973
▁పతాక	-12974
▁క్రొయ	-12975
▁నెల్లి	-12976
▁మిసిసి	-12977
▁వర్షాలు	-12978
▁సంస్కృతికి	-12979
▁ప్రెసిడెంట్	-12980
గార్	-12981
శాయి	-12982
▁అబూ	-12983
▁జింక	-12984
▁shall	-12985
▁ఆకారం	-12986
▁తీయుట	-12987
▁తొందర	-12988
▁అధికరణ	-12989
బాద్లోను	-12990
▁సావిత్రి	-12991
▁సిరిసిల్ల	-12992
BA	-12993
hem	-12994
ram	-12995
బీన్	-12996
▁బోయ	-12997
▁వంశం	-12998
▁మేజర్	-12999
▁వైఖరి	-13000
▁జార్జి	-13001
▁పరోక్ష	-13002
▁అవసరాలను	-13003
▁పాత్రికే	-13004
▁విమానాలు	-13005
oy	-13006
కోశ	-13007
గలరు	-13008
▁పూత	-13009
▁తినే	-13010
▁పాక్	-13011
▁పానీ	-13012
▁తీర్చు	-13013
▁హెచ్చు	-13014
▁ట్రెంచ్	-13015
▁తేలింది	-13016
▁పాండవుల	-13017
▁వికారాబాదు	-13018
▁ఉద్భవించింది	-13019
భక్	-13020
సరు	-13021
▁sm	-13022
▁పను	-13023
ities	-13024
వాడని	-13025
▁కంబో	-13026
▁టిబె	-13027
▁రుజు	-13028
పార్టీ	-13029
రాజ్యం	-13030
▁ఎడ్యు	-13031
▁కదులు	-13032
▁గాత్ర	-13033
▁శాఖలు	-13034
▁కోస్ట్	-13035
▁బట్టలు	-13036
▁వ్యూహా	-13037
▁స్మిత్	-13038
▁నెలకొని	-13039
▁నాటకాలలో	-13040
▁పొందవచ్చు	-13041
▁ముఖ్యముగా	-13042
▁సాంకేతికత	-13043
ious	-13044
డియట్	-13045
▁తాడు	-13046
▁నవలా	-13047
▁బారి	-13048
ేవారని	-13049
▁యోగ్య	-13050
▁మేనమామ	-13051
▁జొన్నలు	-13052
▁యుద్ధము	-13053
▁ఇండోనేషియా	-13054
ల్క	-13055
ాలె	-13056
జాతీ	-13057
ద్రో	-13058
▁భజన	-13059
▁1923	-13060
▁ఖైదీ	-13061
▁గడియ	-13062
▁తాలి	-13063
▁ఫండ్	-13064
▁గదిలో	-13065
న్నాడని	-13066
▁నాటకాల	-13067
▁గ్రామాలకు	-13068
ద్రీ	-13069
్రాం	-13070
▁CPU	-13071
▁మృత	-13072
▁రేడి	-13073
▁రక్షి	-13074
డుతున్న	-13075
సంవత్సర	-13076
▁includ	-13077
▁భాగమైన	-13078
కుమారుడు	-13079
▁కష్టాలు	-13080
▁చేరుకుని	-13081
▁వైవిధ్యమైన	-13082
▁101	-13083
▁ఆను	-13084
▁సులు	-13085
▁సెంచ	-13086
▁పేరుకు	-13087
▁సర్పంచ	-13088
▁కింగ్డం	-13089
▁చెందారు	-13090
▁తొలగించ	-13091
▁పేదరికం	-13092
▁కొమరంభీం	-13093
▁పురాణాలు	-13094
▁ప్రిన్స్	-13095
▁వియత్నాం	-13096
▁వ్యవస్థల	-13097
▁సంక్షిప్త	-13098
▁చేస్తున్నాయి	-13099
▁ప్రచురించాడు	-13100
▁చుట్టుప్రక్కల	-13101
MS	-13102
మూడి	-13103
త్రేయ	-13104
ములైన	-13105
లవారు	-13106
▁అంతః	-13107
▁కొలవ	-13108
▁తుర్	-13109
▁వేలు	-13110
▁అడవిలో	-13111
▁బైజాన్	-13112
▁కఠినమైన	-13113
▁రెస్టార	-13114
▁శ్రీహరి	-13115
▁స్నేహితు	-13116
వంగా	-13117
పరిచే	-13118
▁కుటు	-13119
▁కోచ్	-13120
ground	-13121
▁years	-13122
▁కలిపే	-13123
▁వైపులా	-13124
▁సిడ్నీ	-13125
గూడెంలోను	-13126
▁సభ్యులుగా	-13127
బృ	-13128
-17	-13129
▁9%	-13130
ానంద	-13131
▁రేఖా	-13132
న్నపేట	-13133
▁కూడలి	-13134
▁ద్వేష	-13135
▁నిరాశ	-13136
ంచుకుని	-13137
▁దుమ్ము	-13138
▁నొక్కి	-13139
▁లాహోర్	-13140
▁వెన్ను	-13141
▁ఒకేసారి	-13142
▁పండుగలు	-13143
▁ముత్యాల	-13144
▁చేర్చారు	-13145
▁సంస్థానా	-13146
▁పెట్టుబడు	-13147
▁నశ	-13148
త్తున	-13149
▁గట్టు	-13150
▁పుష్క	-13151
ఉన్నాయి	-13152
▁జీవితా	-13153
▁పూర్వము	-13154
▁డబ్బింగ్	-13155
▁దీనివల్ల	-13156
▁సామర్ధ్య	-13157
▁సూత్రాలు	-13158
▁వచ్చిందని	-13159
▁ఉత్తరప్రదేశ్	-13160
▁కొనసాగించారు	-13161
ica	-13162
ఘర్	-13163
ఫియా	-13164
లాక్	-13165
ండ్రో	-13166
▁రోబో	-13167
ప్రపంచ	-13168
▁అంకిత	-13169
▁కోటలో	-13170
▁రాజకీ	-13171
▁విసర్	-13172
చేందుకు	-13173
▁పోయాడు	-13174
ధాన్యాలు	-13175
▁అలాస్కా	-13176
▁జయశంకర్	-13177
▁తల్లికి	-13178
▁త్రిపుర	-13179
▁డిపార్ట్	-13180
▁పేరొందిన	-13181
▁ప్రతిభను	-13182
▁వేగవంతమైన	-13183
▁వ్యవసాయావసరాల	-13184
థర్	-13185
▁no	-13186
back	-13187
▁10%	-13188
▁12,	-13189
వాస్య	-13190
▁ఇంచు	-13191
ర్యానా	-13192
▁తటస్థ	-13193
▁దాసరి	-13194
▁వికెట్	-13195
▁సైన్సు	-13196
▁పౌర్ణమి	-13197
▁గ్లూకోజ్	-13198
▁92	-13199
▁mod	-13200
▁ఊహా	-13201
ండూరు	-13202
▁నిర్భ	-13203
▁ఫర్డ్	-13204
▁వస్తూ	-13205
▁వాజపే	-13206
▁మెయిల్	-13207
▁యార్క్	-13208
▁గ్లోబల్	-13209
▁సెకండరీ	-13210
▁సెర్బియా	-13211
▁అన్నపూర్ణ	-13212
▁హనుమంతుని	-13213
▁జిల్లాల్లో	-13214
▁తెలియకుండా	-13215
na	-13216
శాస	-13217
వధాన	-13218
▁చర్యల	-13219
▁పనిలో	-13220
▁మౌంట్	-13221
▁వాడటం	-13222
▁విందు	-13223
▁లక్షలు	-13224
▁స్కూలు	-13225
▁యురేపియన్	-13226
▁ఉద్యమాన్ని	-13227
▁మొదలవుతుంది	-13228
▁స్వామివారికి	-13229
▁ఉపయోగించేవారు	-13230
ular	-13231
▁fam	-13232
ములందు	-13233
▁ముత్త	-13234
▁దోపిడీ	-13235
▁సేవలకు	-13236
చిత్తూరు	-13237
▁వందలాది	-13238
▁విధానము	-13239
▁పార్టీని	-13240
▁చేరుతుంది	-13241
▁స్థలాన్ని	-13242
కోగలి	-13243
▁1918	-13244
▁కథలో	-13245
▁కారి	-13246
▁అట్టి	-13247
▁పచ్చి	-13248
▁రాయలు	-13249
▁సుమతీ	-13250
▁నాట్యం	-13251
▁గ్రంథాల	-13252
▁జరిమానా	-13253
▁అమ్మవారు	-13254
▁ప్రవహించే	-13255
గుండం	-13256
▁వాహక	-13257
▁యుద్ద	-13258
▁బేసిన్	-13259
▁సైప్రస్	-13260
▁మైనారిటీ	-13261
▁ఇంటర్వ్యూ	-13262
▁ఇప్పటివరకు	-13263
▁పెరుగుతాయి	-13264
its	-13265
▁UN	-13266
▁num	-13267
▁1910	-13268
▁ఇంకనూ	-13269
▁రౌండ్	-13270
▁అణచివే	-13271
పిస్తారు	-13272
▁చట్టాన్ని	-13273
▁విదేశాలలో	-13274
▁ఎలక్ట్రిక్	-13275
▁information	-13276
నంత	-13277
జిక్	-13278
వంతం	-13279
▁కలం	-13280
కాంతి	-13281
▁1943	-13282
▁publ	-13283
▁ఉజ్జ	-13284
▁జ్యే	-13285
రాజులు	-13286
వాటిని	-13287
▁కంచిక	-13288
▁రాజైన	-13289
▁విరాళ	-13290
ూర్లోను	-13291
▁ఇంతవరకు	-13292
▁మున్నగు	-13293
▁రైతులకు	-13294
పద్	-13295
▁ఉచ్ఛ	-13296
కాల్లో	-13297
య్యాలో	-13298
▁ఆలస్య	-13299
▁ఎంటర్	-13300
ట్రోజన్	-13301
▁కోరారు	-13302
▁గుత్తి	-13303
▁వ్యంగ్య	-13304
▁షూటింగ్	-13305
▁హైదరాబాదులోని	-13306
ధరా	-13307
నామం	-13308
పోరా	-13309
దేశంగా	-13310
▁ఆంజనే	-13311
ధారణంగా	-13312
▁పర్యటి	-13313
▁ట్రస్ట్	-13314
▁వ్యాసుడు	-13315
▁ఎక్కువమంది	-13316
▁అనుసంధానించ	-13317
▁నేతృత్వంలోని	-13318
han	-13319
పోగా	-13320
▁జహీ	-13321
ంపేట్	-13322
▁అంకు	-13323
▁ఫ్యూ	-13324
▁మదర్	-13325
▁వాసి	-13326
▁being	-13327
కోవడంతో	-13328
▁టిప్పు	-13329
▁అధికమైన	-13330
▁చిలకలూరి	-13331
▁ద్వారానే	-13332
▁ప్రొద్దు	-13333
▁రహస్యంగా	-13334
▁వాడుతున్నారు	-13335
▁మొదలుపెట్టారు	-13336
wn	-13337
రచ	-13338
వొ	-13339
ise	-13340
సమూ	-13341
▁ర్	-13342
ople	-13343
డ్ని	-13344
ప్రి	-13345
బ్యూ	-13346
▁అరా	-13347
▁ఎడ్	-13348
▁నెమ	-13349
▁ఆముదం	-13350
▁ఆర్టి	-13351
▁చుక్క	-13352
▁రైళ్ళు	-13353
వరణాన్ని	-13354
▁అత్యల్ప	-13355
▁వస్తాడు	-13356
▁వర్ణించాడు	-13357
▁ఉద్దేశించిన	-13358
▁శ్రీకృష్ణుని	-13359
NS	-13360
▁లయ	-13361
దుర్గ	-13362
రాలతో	-13363
▁క్లు	-13364
▁పొలి	-13365
▁సిగ్	-13366
ించబడే	-13367
▁సందేశాల	-13368
పోవడానికి	-13369
▁సంభవించాయి	-13370
▁కల్పిస్తుంది	-13371
▁స్థాపించింది	-13372
NA	-13373
విభ	-13374
▁te	-13375
జుడు	-13376
రోజూ	-13377
▁పొద	-13378
సెంట్	-13379
▁1917	-13380
వైపులా	-13381
▁అజ్ఞా	-13382
▁చేయబడ	-13383
▁భైంసా	-13384
గలిగాడు	-13385
▁సత్తెన	-13386
▁పుష్పాలు	-13387
▁వేయబడింది	-13388
నః	-13389
iod	-13390
మాయ	-13391
సంస్	-13392
▁ఎంజ	-13393
▁ఘనా	-13394
▁సియ	-13395
బడును	-13396
▁చందా	-13397
▁ఏటియం	-13398
▁డాలర్	-13399
▁ద్వారక	-13400
▁నావికా	-13401
▁నమూనాలు	-13402
▁సామెతలు	-13403
▁తీసుకుంటారు	-13404
▁ప్రతినిధులు	-13405
▁ప్రతిస్పందన	-13406
▁ప్రదేశాల్లో	-13407
▁సాహిత్యాన్ని	-13408
▁స్వీకరించాడు	-13409
ందట	-13410
▁fl	-13411
కృత్	-13412
యుగం	-13413
వంతి	-13414
▁డిప	-13415
▁దయా	-13416
▁ప్ల	-13417
▁నాడీ	-13418
▁మెమో	-13419
▁యోగా	-13420
కూడదని	-13421
కోలేదు	-13422
స్త్రీ	-13423
▁నియామ	-13424
దారులకు	-13425
▁పట్టణము	-13426
▁పరిధితో	-13427
▁మానవుని	-13428
▁విండోస్	-13429
▁సురక్షిత	-13430
▁చింతపల్లి	-13431
▁స్థిరపడిన	-13432
▁అందిస్తాయి	-13433
హౌ	-13434
’’	-13435
rid	-13436
షర్	-13437
▁మయ	-13438
▁డమ్	-13439
విశ్వ	-13440
▁than	-13441
▁ఈవిడ	-13442
▁కాగిత	-13443
ంలోనికి	-13444
▁ఆకులను	-13445
▁దీనిపై	-13446
▁పచ్చని	-13447
▁కాంక్రీ	-13448
▁న్యూక్లి	-13449
▁రాజ్యంగా	-13450
చుకున్నారు	-13451
▁కళాకారుడు	-13452
▁సృజనాత్మక	-13453
▁స్వచ్ఛమైన	-13454
▁పెట్రోలియం	-13455
▁సిద్ధాంతాలు	-13456
ులే	-13457
▁506	-13458
▁pol	-13459
▁రబీ	-13460
ంతుడు	-13461
▁1927	-13462
▁క్షీ	-13463
▁ఖండా	-13464
▁యెడల	-13465
▁ఇథియో	-13466
▁క్లాస్	-13467
▁డెల్టా	-13468
▁రాబోయే	-13469
▁సిస్టమ్	-13470
తుడయ్యాడు	-13471
▁చేబ్రోలు	-13472
▁గ్రహించిన	-13473
▁పరిశీలించ	-13474
▁మాంచెస్టర్	-13475
జై	-13476
థో	-13477
సంచ	-13478
ముఖం	-13479
▁105	-13480
▁40%	-13481
▁రజా	-13482
లంకలో	-13483
ెక్ట్	-13484
▁ధరలు	-13485
▁ముగ్	-13486
▁వేతన	-13487
పోతారు	-13488
▁అధినే	-13489
▁ఆమోదం	-13490
▁విలసి	-13491
▁భారీగా	-13492
▁శ్రీనాథ	-13493
▁సముదాయం	-13494
▁చేయకుండా	-13495
▁రంగాల్లో	-13496
▁గూడూరులోను	-13497
▁ప్రయత్నించాడు	-13498
▁సామ్రాజ్యానికి	-13499
ho	-13500
hen	-13501
▁ob	-13502
▁name	-13503
▁తాజ్	-13504
▁స్కీ	-13505
▁కళారూ	-13506
▁మర్యా	-13507
▁న్యాయం	-13508
▁వృక్షం	-13509
▁అంతర్యు	-13510
▁అంతేకాదు	-13511
▁కాలక్రమేణా	-13512
▁నార్వేజియన్	-13513
▁పుణ్యక్షేత్ర	-13514
▁పరిస్థితుల్లో	-13515
▁రిజిస్ట్రేషన్	-13516
eg	-13517
▁డైన	-13518
ాన్స్	-13519
▁మృతి	-13520
పిస్తూ	-13521
▁ఉపఖండ	-13522
▁చెలరే	-13523
▁ఫస్ట్	-13524
▁మూసిన	-13525
▁మెల్ల	-13526
▁యూరప్	-13527
▁శ్రీప	-13528
▁గ్రీక్	-13529
▁పరిగణన	-13530
▁పాడుతూ	-13531
▁ఆకర్షణీ	-13532
▁శివాలయం	-13533
▁ఉత్పత్తుల	-13534
▁సమాంతరంగా	-13535
▁నరసరావుపేట	-13536
▁పాల్వంచలోను	-13537
▁ఉపన	-13538
▁కోన	-13539
▁చిహ్న	-13540
▁భార్యా	-13541
▁విల్లు	-13542
▁పండితుల	-13543
▁రాజపుత్ర	-13544
▁వయసులోనే	-13545
▁చేసినట్లు	-13546
▁ప్రాంతములో	-13547
▁కల్పించింది	-13548
మాల్	-13549
ాలజీ	-13550
▁575	-13551
అమెరి	-13552
వెల్త్	-13553
సాఫ్ట్	-13554
▁గ్రహం	-13555
▁డెమొక	-13556
▁పాతాళ	-13557
ేంద్రియ	-13558
▁వాళ్లు	-13559
▁సమీకరణ	-13560
▁బ్రతికి	-13561
ాభివృద్ధి	-13562
▁స్థానాలలో	-13563
▁ఎగ	-13564
దికి	-13565
పరచి	-13566
యంట్	-13567
▁మనీ	-13568
▁crit	-13569
▁రామచ	-13570
▁శంకు	-13571
కీర్తి	-13572
▁చిల్ల	-13573
▁తిరువ	-13574
▁వేత్త	-13575
▁సెక్ర	-13576
▁ఆవశ్యక	-13577
▁పాడారు	-13578
▁స్కోరు	-13579
▁ఆర్మూర్	-13580
త్వాకర్షణ	-13581
▁ఉపగ్రహాన్ని	-13582
▁ప్రవేశపెట్టింది	-13583
లప	-13584
డ్య	-13585
యామి	-13586
కొంది	-13587
▁శ్రో	-13588
▁వినాయక	-13589
▁సూచనలు	-13590
▁డ్రైవర్	-13591
▁ప్రేరేప	-13592
▁మనస్తత్వ	-13593
▁మొత్తంగా	-13594
▁రచయిత్రి	-13595
టిన	-13596
ద్వా	-13597
పూరిత	-13598
్రాన్	-13599
▁ఆరాధన	-13600
▁గుప్త	-13601
▁జమ్ము	-13602
▁గమనార్	-13603
▁పిచ్చి	-13604
▁అద్దంకి	-13605
▁పద్మశ్రీ	-13606
▁దేవాలయంలో	-13607
▁హాస్పిటల్	-13608
▁సంపాదించాడు	-13609
్ర్	-13610
ంపస్	-13611
తురు	-13612
▁లిన	-13613
▁దశకం	-13614
▁మెల్	-13615
▁ఎలుగు	-13616
▁విజ్ఞ	-13617
▁సవాలు	-13618
▁స్నేహం	-13619
▁స్పష్టం	-13620
▁కిర్గిజి	-13621
▁నిర్మాతగా	-13622
▁నివసించిన	-13623
,"	-13624
▁కమా	-13625
▁జరు	-13626
▁మూత	-13627
మొక్క	-13628
▁ముఖం	-13629
▁లార్	-13630
▁లేచి	-13631
▁topic	-13632
త్సవాలు	-13633
▁కార్పో	-13634
▁ప్రయత్నించిన	-13635
డట	-13636
జున	-13637
▁థె	-13638
ూరల్	-13639
ముఖ్య	-13640
▁1911	-13641
▁text	-13642
▁గొడవ	-13643
▁డొమి	-13644
▁లోహం	-13645
▁గాయని	-13646
▁జబ్బు	-13647
▁నియమం	-13648
▁ఇంటర్మీ	-13649
▁లోపలికి	-13650
కేంద్రంగా	-13651
▁సియాటెల్	-13652
▁చట్టపరమైన	-13653
▁రంపచోడవరంలోను	-13654
చేయడం	-13655
పూజలు	-13656
వుంది	-13657
ారిస్	-13658
▁కోలా	-13659
▁గాలు	-13660
▁మానే	-13661
▁సమ్మె	-13662
▁తదనంతరం	-13663
▁పరిమితి	-13664
▁చెల్లెలు	-13665
▁పరిశోధనల	-13666
▁వెళ్లారు	-13667
▁గుంటూరులో	-13668
▁ప్రొటెస్ట	-13669
▁అసిస్టెంట్	-13670
▁గ్రామాల్లో	-13671
స్తున్నప్పుడు	-13672
క్రమణ	-13673
దులకు	-13674
▁బచ్చ	-13675
▁వేల్	-13676
▁చతుర్	-13677
▁ఆరుద్ర	-13678
యుక్తంగా	-13679
▁ఐస్లాండ్	-13680
▁కార్యనిర్	-13681
▁వ్యవహరించాడు	-13682
1)	-13683
ఖో	-13684
-13	-13685
సాం	-13686
క్కడా	-13687
▁1914	-13688
▁అమర్	-13689
▁తారక	-13690
▁మహాల	-13691
▁హుకు	-13692
బినెట్	-13693
▁భాగాల	-13694
▁రాయడం	-13695
▁సాంగ్	-13696
▁ఏడుగురు	-13697
▁సమక్షంలో	-13698
▁సదుపాయాలు	-13699
▁ముఖ్యపాత్ర	-13700
▁రెండుసార్లు	-13701
urn	-13702
గడం	-13703
మూడు	-13704
శ్రా	-13705
సిరి	-13706
▁పలి	-13707
వేయడం	-13708
▁పురి	-13709
▁ఫైర్	-13710
▁కొల్ల	-13711
▁అమలులో	-13712
▁పనులను	-13713
▁బెజవాడ	-13714
▁తరంగాలు	-13715
▁సంతతికి	-13716
పూర్వకంగా	-13717
▁కథానాయిక	-13718
▁తీసుకురావ	-13719
▁మరణించింది	-13720
anc	-13721
టికా	-13722
▁చెవి	-13723
▁చేరే	-13724
సేనుడు	-13725
▁ఎక్కడా	-13726
▁కారణము	-13727
మిరెడ్డి	-13728
▁పునరుజ్	-13729
▁రావణుని	-13730
▁వివేకాన	-13731
▁అందించడం	-13732
▁సెక్యూరి	-13733
▁సోయాబీన్	-13734
ించుకుంటారు	-13735
▁ప్రేక్షకులు	-13736
కట	-13737
wiki	-13738
చింత	-13739
జాద్	-13740
స్యా	-13741
▁మదు	-13742
ద్దేశ	-13743
మలూరు	-13744
▁త్వర	-13745
▁దేవీ	-13746
పట్టణం	-13747
▁గల్ఫ్	-13748
▁పనిము	-13749
▁విహార	-13750
▁వేయడం	-13751
▁కొలువు	-13752
▁మనుషుల	-13753
▁ఆలోచనలు	-13754
▁జట్టుకు	-13755
▁దిగుబడి	-13756
▁యువరాజు	-13757
▁వాజపేయి	-13758
▁సదుపాయం	-13759
▁తెలుసుకొని	-13760
▁వ్యాపారులు	-13761
-11	-13762
arm	-13763
pos	-13764
మరీ	-13765
లియో	-13766
▁రిఫ	-13767
▁పోతన	-13768
▁మొనా	-13769
▁సంజీ	-13770
సెన్స్	-13771
▁అగ్రహ	-13772
▁వాళ్ల	-13773
▁తెలియు	-13774
▁దిద్దు	-13775
▁అశ్వమేధ	-13776
▁దర్శకులు	-13777
▁ప్రమాదంలో	-13778
కనే	-13779
వము	-13780
స్ఫ	-13781
రాయ్	-13782
▁her	-13783
▁పెరూ	-13784
▁పోసి	-13785
▁భరించ	-13786
▁ధర్మము	-13787
▁రాజశేఖర	-13788
▁సామర్ధ్యం	-13789
▁ఉత్పత్తులను	-13790
▁నేర్చుకున్నాడు	-13791
ali	-13792
rib	-13793
పాణి	-13794
మోర్	-13795
▁జనం	-13796
▁బంజ	-13797
▁మిల	-13798
ropri	-13799
యర్స్	-13800
▁1926	-13801
▁షెల్	-13802
జిక్యూ	-13803
▁తణుకు	-13804
▁నాన్న	-13805
▁ఆంగ్లం	-13806
▁ఫ్లోరి	-13807
▁ఏమాత్రం	-13808
▁తమిళంలో	-13809
▁నిమిషాల	-13810
▁కనిపెట్ట	-13811
▁క్రీడాకారులు	-13812
▁నిర్మించింది	-13813
▁తగ్గించడానికి	-13814
3)	-13815
బలం	-13816
ప్రథ	-13817
ైన్స్	-13818
▁ఖుర్	-13819
▁తనతో	-13820
▁వీటితో	-13821
▁జరుగుతూ	-13822
▁పాలుపంచ	-13823
▁ఆగస్టులో	-13824
ముక	-13825
వలు	-13826
కంతో	-13827
రహిత	-13828
▁inc	-13829
▁ఆరి	-13830
▁మెహ	-13831
▁బిర్	-13832
గారికి	-13833
▁పరమైన	-13834
▁లలితా	-13835
▁సందేహ	-13836
▁బంధువు	-13837
▁బాక్స్	-13838
▁విషయమై	-13839
▁సర్వర్	-13840
▁ఆసక్తిని	-13841
▁జహీరాబాద్	-13842
▁సంక్లిష్ట	-13843
▁స్థానికంగా	-13844
▁కిర్గిజిస్తాన్	-13845
రవి	-13846
వలో	-13847
శోధ	-13848
▁తగ	-13849
టుగా	-13850
ాలనూ	-13851
▁వేప	-13852
▁serv	-13853
▁కనబడ	-13854
▁కులీ	-13855
కరిస్తూ	-13856
▁అబ్బాయి	-13857
▁సంకీర్ణ	-13858
▁ఉష్ణమండల	-13859
▁వున్నాయి	-13860
▁శ్రీశైలం	-13861
▁సుల్తాను	-13862
▁సూచించిన	-13863
▁ఉండవచ్చును	-13864
▁పరిశీలించి	-13865
రాలైన	-13866
▁పండగ	-13867
▁విరమ	-13868
▁1,000	-13869
▁న్యూజి	-13870
▁వారీగా	-13871
▁విత్తన	-13872
▁వచ్చినా	-13873
▁వార్తలు	-13874
▁వెనుకకు	-13875
▁అమ్మవారికి	-13876
▁మాడుగులలోను	-13877
మ్ర	-13878
వేష	-13879
▁ed	-13880
చ్చని	-13881
▁చండీ	-13882
▁పిల్	-13883
▁వుడ్	-13884
▁వేసు	-13885
▁క్రమే	-13886
ేవారికి	-13887
▁పెద్దల	-13888
▁రబ్బరు	-13889
▁ఆచారాలు	-13890
▁కోరింది	-13891
పాలెంలోనూ	-13892
▁ప్రముఖమైన	-13893
▁ఇవ్వబడ్డాయి	-13894
డీస్	-13895
శైలి	-13896
రాయలు	-13897
▁కొలె	-13898
▁గీతం	-13899
▁బడిన	-13900
▁మాసం	-13901
▁రాను	-13902
విధమైన	-13903
వ్యాధి	-13904
్యవస్థ	-13905
ంటుందని	-13906
▁మనసులో	-13907
▁అక్కడకు	-13908
▁సూర్యనారాయణ	-13909
ird	-13910
ంగల	-13911
port	-13912
ప్లా	-13913
ంట్స్	-13914
రులతో	-13915
▁గద్ద	-13916
▁జాయి	-13917
▁ట్రీ	-13918
▁నాజీ	-13919
▁బోల్	-13920
ంపేటలో	-13921
మీటర్ల	-13922
▁కచేరీ	-13923
▁వలసలు	-13924
▁సోషల్	-13925
▁కొండూరు	-13926
▁ప్రచురిత	-13927
▁సాయిబాబా	-13928
▁కుమారస్వామి	-13929
ూరీ	-13930
డిక్	-13931
ఫేర్	-13932
కల్లో	-13933
్విన్	-13934
▁కోపం	-13935
▁తారీ	-13936
▁తియ్య	-13937
▁వాహకన	-13938
▁వీరేశ	-13939
▁సెకన్	-13940
▁తిరునా	-13941
▁నెయ్యి	-13942
▁కమ్యూనిక	-13943
▁ప్రభావాలు	-13944
ten	-13945
నొక	-13946
▁శ్మ	-13947
▁సద్	-13948
ution	-13949
ంగానూ	-13950
గిరిలో	-13951
▁బుర్ర	-13952
▁సరుకు	-13953
▁జయించి	-13954
▁నాట్లు	-13955
▁గ్రంథము	-13956
▁నిలిచిన	-13957
▁పరికరాల	-13958
▁పీఠభూమి	-13959
▁శ్రామిక	-13960
▁ఉద్యమాలు	-13961
▁పట్టింది	-13962
▁బాలకృష్ణ	-13963
▁పరిష్కారం	-13964
▁జరుగుతున్నాయి	-13965
రపు	-13966
నమ్మ	-13967
నాధ్	-13968
వ్యం	-13969
▁Mus	-13970
▁org	-13971
▁made	-13972
▁కోట్	-13973
▁పెన్	-13974
▁మధుమే	-13975
▁ఉద్గార	-13976
▁మారారు	-13977
▁అనువుగా	-13978
▁ఆహారంలో	-13979
▁ఉత్పన్న	-13980
▁ఉద్యోగుల	-13981
▁ఉన్నట్టు	-13982
▁వినుకొండ	-13983
▁శివరాత్రి	-13984
▁కొనసాగించాడు	-13985
▁శాస్త్రజ్ఞులు	-13986
4)	-13987
జాడ	-13988
కిలో	-13989
హాల్	-13990
▁అయన	-13991
▁లెబ	-13992
ెన్సీ	-13993
▁కలుప	-13994
▁కోలు	-13995
▁సుంద	-13996
▁తీవ్రత	-13997
▁రచనలను	-13998
▁శైలిని	-13999
▁శక్తిగా	-14000
▁పత్రికను	-14001
▁శాశ్వతంగా	-14002
▁సాగుతుంది	-14003
టుల	-14004
▁ass	-14005
▁ఐరన్	-14006
▁పదకొ	-14007
▁బ్రౌ	-14008
వాళ్లు	-14009
▁ఇదిలా	-14010
▁గర్భం	-14011
గలిగారు	-14012
▁మ్యాన్	-14013
▁పర్షియా	-14014
▁సముద్రా	-14015
▁అభివృద్ధిని	-14016
▁న్యాయస్థానం	-14017
▁పార్లమెంటరీ	-14018
వ్స్	-14019
▁యాని	-14020
▁వేమన	-14021
▁కాలపు	-14022
▁కుందే	-14023
వరపుకోట	-14024
▁ప్రోటో	-14025
▁భాషలను	-14026
▁ముంబయి	-14027
▁వారిచే	-14028
▁డబుల్స్	-14029
▁కాళిదాసు	-14030
▁ప్రక్కనే	-14031
▁రంగానికి	-14032
▁రికార్డింగ్	-14033
www	-14034
▁మమ	-14035
▁యం	-14036
దినం	-14037
రికే	-14038
▁use	-14039
ments	-14040
▁గెలా	-14041
▁మిడి	-14042
▁పట్టే	-14043
▁దాడికి	-14044
▁మోటారు	-14045
▁జట్టులో	-14046
▁పట్టాభి	-14047
▁పార్టీల	-14048
▁గురువారం	-14049
▁చికిత్సా	-14050
▁చిహ్నాలు	-14051
▁దీర్ఘకాలిక	-14052
▁పాలియోలిథికు	-14053
ta	-14054
outh	-14055
ంతలు	-14056
ప్రో	-14057
ందంటే	-14058
▁దిబ్బ	-14059
▁అధిరోహ	-14060
▁భద్రపరచ	-14061
▁సన్నివేశ	-14062
▁సినిమాకి	-14063
▁అమెరికాకు	-14064
▁ఉద్యోగాలు	-14065
▁ఖమ్మంలోనూ	-14066
▁చూడడానికి	-14067
ంగల్	-14068
టారు	-14069
సెట్	-14070
▁ear	-14071
▁అనూ	-14072
▁శాప	-14073
తలుగా	-14074
▁జీవా	-14075
▁నాథ్	-14076
▁బందీ	-14077
▁బయల్	-14078
▁మూవీ	-14079
▁తయారి	-14080
▁రకంగా	-14081
టించాడు	-14082
సంఖ్యాక	-14083
▁ముప్పు	-14084
▁అణువులు	-14085
▁కృష్ణుని	-14086
▁నాటకాల్లో	-14087
▁మార్పులను	-14088
▁వర్గానికి	-14089
rac	-14090
జరు	-14091
▁అద	-14092
దీసు	-14093
▁కంబ	-14094
▁సీమ	-14095
దులతో	-14096
▁them	-14097
▁భగవా	-14098
▁హిమా	-14099
త్తీస్	-14100
ించండి	-14101
▁inter	-14102
▁మీదకు	-14103
▁యున్న	-14104
▁సైకిల్	-14105
▁దక్షిణం	-14106
▁ధర్మనంద	-14107
▁లైబ్రరీ	-14108
▁వచ్చేది	-14109
▁జనసాంద్రత	-14110
▁రాష్ట్రము	-14111
▁ఉద్యమానికి	-14112
▁ప్రదర్శనలో	-14113
▁సంభవించింది	-14114
▁క్రీడాకారుడు	-14115
6)	-14116
రాను	-14117
వాల్	-14118
▁50%	-14119
▁నెం	-14120
▁అలోపతీ	-14121
▁వైకుంఠ	-14122
భావాన్ని	-14123
▁ఈజిప్ట్	-14124
▁శక్తులు	-14125
▁హిందీలో	-14126
▁అవశేషాలు	-14127
▁లక్ష్మణ్	-14128
-16	-14129
జాం	-14130
హుతి	-14131
▁కజక	-14132
గజైన్	-14133
▁తేల్	-14134
తమైనది	-14135
శెట్టి	-14136
▁అవమాన	-14137
▁పొట్ట	-14138
▁బాంబే	-14139
▁ముచ్చ	-14140
▁లౌకిక	-14141
బ్రాహ్మ	-14142
▁అడిగిన	-14143
▁మహాయాన	-14144
▁కారణమైన	-14145
▁వారణాసి	-14146
▁రామస్వామి	-14147
▁తీసుకోవాలి	-14148
▁ప్రొడక్షన్స్	-14149
Ar	-14150
oup	-14151
జల్	-14152
నాకు	-14153
శాట్	-14154
ారనీ	-14155
▁13,	-14156
▁నను	-14157
▁1916	-14158
▁1924	-14159
▁భగత్	-14160
▁లాభం	-14161
▁ఆహ్లా	-14162
▁temple	-14163
▁వ్యాప్	-14164
▁ఉన్నవారు	-14165
▁పట్టుకొని	-14166
▁వెళ్ళింది	-14167
▁స్త్రీలకు	-14168
▁కలిగివుంది	-14169
▁నిర్వహించడానికి	-14170
రలు	-14171
సను	-14172
తగిన	-14173
పైకి	-14174
భ్రమ	-14175
లంలో	-14176
ేకర్	-14177
▁pun	-14178
▁జోగు	-14179
▁రియా	-14180
▁కాంగో	-14181
▁పిఎస్	-14182
▁తొలినా	-14183
▁సంకేతం	-14184
▁మరోసారి	-14185
▁సంగీతము	-14186
▁గాంచింది	-14187
▁తీసుకువె	-14188
▁నిబంధనలు	-14189
▁పేర్కొంటారు	-14190
▁కిలోమీటర్లకు	-14191
గాస్	-14192
ష్ఠి	-14193
▁acc	-14194
▁అసమ	-14195
పీభవన	-14196
▁మతాల	-14197
▁వేషం	-14198
▁మల్లె	-14199
▁మెట్ట	-14200
▁విలాస	-14201
▁శతకము	-14202
స్టింగ్	-14203
కాలికంగా	-14204
▁గమనించి	-14205
▁మొదలయిన	-14206
▁ప్రాంతపు	-14207
▁రోజులపాటు	-14208
▁గుర్తించడం	-14209
▁పెట్టుకుని	-14210
▁విగ్రహాలను	-14211
▁నిర్వహించడం	-14212
▁పరిస్థితిలో	-14213
ించుకోవడానికి	-14214
▁ప్రతిపాదించిన	-14215
ంతట	-14216
వీర	-14217
కోగల	-14218
నాయక	-14219
▁గంభ	-14220
ంగులు	-14221
▁అపరా	-14222
▁పూరీ	-14223
ండెంట్	-14224
పురాణం	-14225
యోధుడు	-14226
ప్రతిని	-14227
▁కళాఖండ	-14228
▁కోర్సు	-14229
▁తెలిపే	-14230
▁పొందడం	-14231
▁ప్రాణా	-14232
▁మిల్లీ	-14233
▁వుండటం	-14234
▁ప్రతిపత్తి	-14235
▁కలిగించింది	-14236
eria	-14237
ween	-14238
పరచు	-14239
▁వేచి	-14240
▁సేవి	-14241
విశ్వా	-14242
▁వెలిగ	-14243
▁సందర్	-14244
్యానికి	-14245
▁కాంట్రా	-14246
▁దొరికిన	-14247
▁చేయవలసిన	-14248
▁టెక్సాస్	-14249
▁కోల్పోయింది	-14250
▁par	-14251
తల్లి	-14252
దులలో	-14253
ప్రియ	-14254
▁కాపు	-14255
▁హాకీ	-14256
దాబాద్	-14257
రీత్యా	-14258
▁క్షార	-14259
▁పిడుగు	-14260
▁రూపాలు	-14261
▁ఆధిపత్య	-14262
▁శాతవాహన	-14263
▁అభిమానులు	-14264
▁బ్రహ్మాండ	-14265
▁అంతకుముందు	-14266
▁పోషించింది	-14267
నన్	-14268
రావ	-14269
దిని	-14270
▁అమా	-14271
▁1830	-14272
▁పెయి	-14273
▁space	-14274
▁ఎదుగు	-14275
▁రూరల్	-14276
▁ముఖద్వ	-14277
▁రాయితీ	-14278
▁కాలనీలు	-14279
▁పన్నులు	-14280
▁గమనార్హం	-14281
▁ప్యూర్టో	-14282
▁శ్రీనివాసరావు	-14283
ics	-14284
డివి	-14285
రాణి	-14286
▁inst	-14287
▁pres	-14288
▁చిలీ	-14289
▁చీఫ్	-14290
▁నడుప	-14291
▁యాదవ	-14292
సరించి	-14293
▁ఉపసంహ	-14294
▁వడ్డి	-14295
▁సర్టి	-14296
▁అరబ్బీ	-14297
▁తెలివి	-14298
▁విస్ఫో	-14299
▁దేశంలోనే	-14300
▁పొందుతారు	-14301
▁వేంకటేశ్వర	-14302
వాసి	-14303
▁పెర	-14304
▁లేద	-14305
ating	-14306
రాదని	-14307
▁కావే	-14308
▁చూపే	-14309
యుద్ధం	-14310
▁కలుషి	-14311
▁భట్టి	-14312
▁వినాశ	-14313
ంగానికి	-14314
▁ఖరీదైన	-14315
క్రెయిన్	-14316
▁మతానికి	-14317
▁లేకపోతే	-14318
▁నగరాల్లో	-14319
▁జంతువులను	-14320
▁ప్రతిరోజూ	-14321
▁వ్యతిరేకత	-14322
▁ప్రచురించింది	-14323
వగా	-14324
▁న్	-14325
▁pur	-14326
▁రచి	-14327
▁వధు	-14328
▁కణాల	-14329
▁రాగా	-14330
▁గజపతి	-14331
▁పరమపద	-14332
యున్నది	-14333
▁బొమ్మల	-14334
▁విధులు	-14335
▁సాగునీ	-14336
▁విధానాల	-14337
▁సమృద్ధి	-14338
▁ద్రోణుడు	-14339
▁భవిష్యత్	-14340
▁మహాభారతం	-14341
▁అద్భుతంగా	-14342
▁ద్వీపకల్ప	-14343
▁అధికారంలోకి	-14344
భూత	-14345
పిండ	-14346
పోవు	-14347
▁బీట	-14348
నిరోధ	-14349
బజార్	-14350
▁పనుల	-14351
▁మిడ్	-14352
▁ముల్	-14353
▁చేనేత	-14354
▁లావాద	-14355
పించారు	-14356
▁ఆచరణలో	-14357
▁చదివారు	-14358
▁నాయకత్వ	-14359
▁వివాదాలు	-14360
▁అనుకూలమైన	-14361
▁తగ్గిస్తుంది	-14362
su	-14363
aid	-14364
ror	-14365
▁Se	-14366
స్టరీ	-14367
▁ఖలీఫ	-14368
▁మొలక	-14369
కర్తగా	-14370
దేశాలు	-14371
ద్రవ్య	-14372
▁about	-14373
▁పుష్య	-14374
▁గాయకులు	-14375
▁జరుగును	-14376
▁దేవతలకు	-14377
▁మట్టానికి	-14378
IA	-14379
తాం	-14380
పూట	-14381
ెడు	-14382
రినా	-14383
▁115	-14384
▁end	-14385
▁ఆనవ	-14386
ivers	-14387
మానంద	-14388
▁గోవా	-14389
▁యేర్	-14390
పూర్వం	-14391
▁పాలెం	-14392
▁పోటీప	-14393
▁అయినది	-14394
▁కూర్పు	-14395
▁పదవిలో	-14396
▁బాల్యం	-14397
▁మెరుపు	-14398
▁అంశాలపై	-14399
▁కిరణాలు	-14400
▁గెలాక్సీ	-14401
▁ధర్మనందనా	-14402
▁ధర్మాన్ని	-14403
▁ప్రదేశానికి	-14404
▁బాధపడుతున్న	-14405
▁నిజామాబాద్లోను	-14406
:0	-14407
తులై	-14408
ారనే	-14409
▁him	-14410
▁వలే	-14411
▁Hind	-14412
దేవిని	-14413
▁కాల్చి	-14414
▁చుట్టి	-14415
▁ధరించే	-14416
తుంటుంది	-14417
▁స్వీకరించిన	-14418
▁WW	-14419
ించా	-14420
▁లవ్	-14421
▁వీణ	-14422
ండ్స్	-14423
ద్వీప	-14424
▁వాట్	-14425
ల్లోనే	-14426
▁క్షేమ	-14427
▁పొడిగ	-14428
▁లింగం	-14429
కొంటారు	-14430
సరాన్ని	-14431
▁ఆసుపత్ర	-14432
▁పొందినది	-14433
▁వదిలివేయ	-14434
▁ఇంచుమించు	-14435
▁విభాగాలుగా	-14436
▁గుర్తింపును	-14437
▁గ్రాడ్యుయేట్	-14438
8)	-14439
the	-14440
త్క	-14441
త్తే	-14442
ెంజ్	-14443
▁యము	-14444
▁వాస	-14445
ollow	-14446
ంగిలో	-14447
ండేవి	-14448
వర్లో	-14449
▁తిథి	-14450
సిద్ధి	-14451
▁కలిసే	-14452
▁నరికి	-14453
సాగింది	-14454
▁పోస్టు	-14455
▁కాలుష్య	-14456
▁ప్రకృతిలో	-14457
▁మునిసిపల్	-14458
▁ప్రయోజనాలు	-14459
▁ఆస్ట్రేలియన్	-14460
▁మైక్రోసాఫ్ట్	-14461
తమే	-14462
▁ఏజ	-14463
రార్	-14464
ర్థం	-14465
▁పోక	-14466
కోటలో	-14467
యన్ను	-14468
▁when	-14469
▁కటకం	-14470
▁మెరి	-14471
▁రాగం	-14472
▁సాల్	-14473
శ్రేణి	-14474
ెంట్లు	-14475
▁మిశ్ర	-14476
కొండూరు	-14477
▁అర్థము	-14478
▁కథనాలు	-14479
▁కుదిరి	-14480
▁లైన్స్	-14481
▁నిరంకుశ	-14482
▁బాల్యంలో	-14483
▁శాసనసభకు	-14484
స్తుంటుంది	-14485
స్తున్నాను	-14486
▁రాజకీయంగా	-14487
▁సున్నితమైన	-14488
▁కేంద్రాన్ని	-14489
▁ఎదుర్కొన్నాడు	-14490
్రామి	-14491
▁ఒంటి	-14492
▁బాలి	-14493
▁మహర్	-14494
ఆధారిత	-14495
డాక్స్	-14496
▁కుమారి	-14497
▁గెలిచి	-14498
▁కట్టుబడి	-14499
▁శ్రీశ్రీ	-14500
▁సంభవించే	-14501
▁మార్గాలను	-14502
▁డిసెంబరులో	-14503
▁లక్ష్యాన్ని	-14504
-25	-14505
ove	-14506
మరు	-14507
▁if	-14508
నీతి	-14509
మిది	-14510
▁20,	-14511
▁దహన	-14512
నివ్వ	-14513
▁కాళ్ళ	-14514
▁గుడ్డ	-14515
▁దుష్ట	-14516
▁వెయ్య	-14517
ండేవాడు	-14518
▁సిస్టం	-14519
▁appears	-14520
చేయడానికి	-14521
▁appropri	-14522
▁గురువులు	-14523
▁ప్రవేశించారు	-14524
▁నియోజకవర్గాలలో	-14525
ంఖ	-14526
ubs	-14527
▁బడ	-14528
ళికా	-14529
సర్వ	-14530
▁577	-14531
▁హంస	-14532
ither	-14533
▁1912	-14534
▁చెరు	-14535
▁వూరి	-14536
జేశారు	-14537
బీరియా	-14538
▁జట్లు	-14539
▁మతాలు	-14540
▁కంటికి	-14541
▁కోరుతూ	-14542
▁జనాదరణ	-14543
▁ల్యాప్	-14544
▁టెక్కలి	-14545
▁మొత్తము	-14546
▁స్థిరపడి	-14547
▁డయాక్సైడ్	-14548
▁సంగీతానికి	-14549
sp	-14550
ower	-14551
ట్టూ	-14552
ేటర్	-14553
▁adj	-14554
▁thr	-14555
▁బాట	-14556
కావ్య	-14557
పర్రు	-14558
▁తంత్ర	-14559
▁రీత్యా	-14560
▁అభిరుచి	-14561
కరించబడిన	-14562
▁కట్టడాలు	-14563
▁ప్రకటనలు	-14564
▁ఫోటోగ్రఫీ	-14565
▁విలియమ్స్	-14566
కరించబడింది	-14567
▁పూజిస్తారు	-14568
▁ఫ్రాన్సిస్కో	-14569
టస్	-14570
ముపై	-14571
లైన్	-14572
వతార	-14573
▁work	-14574
▁చేసా	-14575
ర్తిలో	-14576
ేశ్వరు	-14577
▁అనురా	-14578
రోపియన్	-14579
ారంలోను	-14580
▁సమయాలలో	-14581
▁ప్రతిజ్ఞ	-14582
▁బృహస్పతి	-14583
▁వాయువులు	-14584
▁కరీంనగర్లో	-14585
▁చెప్పడానికి	-14586
▁సంతరించుకుంది	-14587
డ్ర	-14588
▁Ex	-14589
టాని	-14590
▁బలగ	-14591
▁1925	-14592
▁మాంద	-14593
▁స్వయ	-14594
onment	-14595
▁కదిరి	-14596
▁పెంచే	-14597
న్నట్లు	-14598
▁period	-14599
▁ఆలోచనా	-14600
▁పెరగడం	-14601
▁మెకాని	-14602
▁రాజన్న	-14603
▁పెడతారు	-14604
▁చేయబడతాయి	-14605
amm	-14606
▁పన	-14607
omet	-14608
మాలి	-14609
మిల్	-14610
▁అమ్	-14611
▁విఫ	-14612
▁హవే	-14613
▁జీన్	-14614
▁న్యు	-14615
▁మీనా	-14616
▁అన్నద	-14617
▁ఉన్ని	-14618
▁ద్రావిడ	-14619
▁బృహత్తర	-14620
▁స్థితిగ	-14621
▁మంగోలియా	-14622
▁స్టీఫెన్	-14623
▁వైద్యశాలలు	-14624
▁హనుమంతరావు	-14625
అను	-14626
ative	-14627
ature	-14628
▁ఆవాస	-14629
▁కారం	-14630
▁నోరు	-14631
స్కోప్	-14632
▁water	-14633
▁రింగ్	-14634
▁సారూప	-14635
భిప్రాయ	-14636
▁between	-14637
▁గ్రాముల	-14638
▁వేడుకలు	-14639
ించబడతాయి	-14640
▁కలెక్టర్	-14641
▁వేగాన్ని	-14642
▁సారవంతమైన	-14643
▁ప్రదర్శించే	-14644
▁తెలియజేస్తుంది	-14645
ull	-14646
ఎమ్	-14647
సాగ	-14648
▁ఎంచు	-14649
▁పాశు	-14650
▁లొంగి	-14651
▁ఎవరికి	-14652
మానాన్ని	-14653
▁చేయుదురు	-14654
▁జమీందారు	-14655
▁నైజీరియా	-14656
background	-14657
▁రికార్డులు	-14658
▁వస్తుంటారు	-14659
▁అంగీకరించారు	-14660
▁పర్యవేక్షణలో	-14661
▁నియమించబడ్డాడు	-14662
వుకు	-14663
▁15,	-14664
▁sec	-14665
▁అపు	-14666
▁మనవ	-14667
వాళ్ళ	-14668
ెల్స్	-14669
▁1500	-14670
కాకాని	-14671
▁జస్టి	-14672
▁రాళ్ళ	-14673
▁శిథిల	-14674
▁కొల్లా	-14675
▁క్వీన్	-14676
▁మెయిన్	-14677
▁సైన్యా	-14678
▁చూపింది	-14679
▁ప్రకాష్	-14680
▁విస్తరి	-14681
▁మదనపల్లె	-14682
▁ఇండస్ట్రీ	-14683
▁చూడటానికి	-14684
▁తెలుగులోకి	-14685
▁లిథువేనియా	-14686
▁స్నేహితులు	-14687
▁అంగీకరించాడు	-14688
ణ్ణ	-14689
ట్రీ	-14690
పోయా	-14691
సంపద	-14692
▁ఉమా	-14693
ించదు	-14694
▁జెట్	-14695
▁నిలవ	-14696
▁ఫిజి	-14697
▁ఎవరికీ	-14698
▁కనిష్ఠ	-14699
▁మొగ్గు	-14700
▁వాయవ్య	-14701
ించిందని	-14702
▁ఇందులోని	-14703
▁క్లోరిన్	-14704
జరీ	-14705
లాం	-14706
కర్ర	-14707
elugu	-14708
వ్వుల	-14709
మేనియా	-14710
▁ఆలోచి	-14711
▁కోరిన	-14712
▁చివరగా	-14713
▁సమ్మతి	-14714
▁ద్విబంధ	-14715
▁నిల్వలు	-14716
▁మార్పుల	-14717
▁శీతోష్ణ	-14718
▁ప్రయత్నించ	-14719
ంజర్	-14720
లీన్	-14721
▁కుం	-14722
▁నమా	-14723
▁నయం	-14724
▁ఖానా	-14725
▁భీమా	-14726
ప్పులు	-14727
▁బద్వే	-14728
▁స్వప్	-14729
▁రామయ్య	-14730
▁సువార్	-14731
▁సంస్థానం	-14732
▁ఇన్నింగ్స్	-14733
▁పరిపాలించిన	-14734
▁తయారుచేస్తారు	-14735
ంబూ	-14736
ఫార	-14737
▁డ్	-14738
▁ఢీ	-14739
అవని	-14740
టుడు	-14741
▁బోగ	-14742
▁భాజ	-14743
▁యాగ	-14744
కాయలు	-14745
▁ఇత్త	-14746
▁మైఖే	-14747
▁భంగిమ	-14748
▁సారథి	-14749
▁రాజును	-14750
▁ప్రోత్సా	-14751
▁పెట్టుకొని	-14752
▁కార్యకలాపాలను	-14753
9)	-14754
lim	-14755
లీల	-14756
జారు	-14757
మియో	-14758
లాగే	-14759
ాలనీ	-14760
▁అథ్	-14761
▁పదో	-14762
▁శేఖ	-14763
▁కోయి	-14764
▁మల్కా	-14765
శక్తిని	-14766
▁అడ్డతీ	-14767
▁దృక్పథ	-14768
▁వైస్రా	-14769
▁హ్యారీ	-14770
ధికారులు	-14771
▁పొడవునా	-14772
▁మిశ్రమం	-14773
▁మద్దతుగా	-14774
▁వ్యవస్థాపక	-14775
▁సాంప్రదాయక	-14776
▁కార్యక్రమాలకు	-14777
ID	-14778
ada	-14779
పోత	-14780
మము	-14781
తిగా	-14782
్రీయ	-14783
▁14,	-14784
్యూల్	-14785
▁కంచు	-14786
▁పాట్	-14787
▁స్కోర్	-14788
▁గంగానది	-14789
▁ఇతివృత్త	-14790
▁విక్షనరీ	-14791
▁గుండ్రంగా	-14792
▁క్రియాశీలక	-14793
▁నియమించాడు	-14794
▁ప్రవేశించాడు	-14795
▁లంచ	-14796
మ్మను	-14797
స్తాన	-14798
▁prov	-14799
▁అతిశ	-14800
▁గుహలు	-14801
▁బారిన	-14802
▁హిప్ప	-14803
▁ఫెడరేషన్	-14804
▁మిసిసిపీ	-14805
▁కంప్యూటరు	-14806
▁ప్రభావంతో	-14807
▁అవకాశాన్ని	-14808
▁ఉత్పత్తిని	-14809
▁ప్రక్రియలు	-14810
▁వ్యక్తిగతంగా	-14811
▁ప్రసిద్ధిచెందిన	-14812
గాం	-14813
జియం	-14814
నితో	-14815
మాంస	-14816
▁cre	-14817
ాయంగా	-14818
▁గామా	-14819
పదార్ధ	-14820
▁కార్ల్	-14821
పిస్తాయి	-14822
▁అభిమాని	-14823
▁తల్లిని	-14824
▁భార్యలు	-14825
▁క్రమబద్ధ	-14826
▁సన్నిహిత	-14827
▁ఉత్సవాలలో	-14828
▁విద్వాంసులు	-14829
ఛ్	-14830
ధ్ర	-14831
స్క్	-14832
▁రిల	-14833
▁షియ	-14834
క్యుల	-14835
▁నాగి	-14836
▁నిము	-14837
▁సార్	-14838
▁భీష్మ	-14839
▁మండపం	-14840
▁విస్మ	-14841
▁లిబియా	-14842
▁వాహనాల	-14843
▁సాహెబ్	-14844
వచ్చింది	-14845
▁అలహాబాద్	-14846
▁తాత్కాలికంగా	-14847
▁గురుత్వాకర్షణ	-14848
CA	-14849
చని	-14850
యనం	-14851
ural	-14852
జులై	-14853
మ్మే	-14854
▁ఉజ్	-14855
ఉత్తర	-14856
▁long	-14857
▁అరవి	-14858
▁పోషణ	-14859
▁మైలు	-14860
▁రాసే	-14861
▁విమో	-14862
▁షేర్	-14863
పరిచిన	-14864
ించుచు	-14865
▁ఆడియో	-14866
▁అస్త్ర	-14867
▁పిలిచి	-14868
▁మిషనరీ	-14869
▁సీరీస్	-14870
అవనిగడ్డ	-14871
▁తీసుకోవ	-14872
▁కార్టూన్	-14873
▁డివిజన్లు	-14874
▁తెచ్చింది	-14875
▁చెందినవాడు	-14876
▁బ్యాంకింగ్	-14877
▁సెక్యూరిటీ	-14878
uv	-14879
శర	-14880
▁ఖర	-14881
శాలు	-14882
న్నర్	-14883
▁నిండు	-14884
▁కుంకుమ	-14885
▁అవసరాలు	-14886
▁బృందాలు	-14887
▁కొల్లిపర	-14888
▁సైన్యాలు	-14889
▁ఆమ్లాన్ని	-14890
▁చంద్రశేఖర	-14891
▁దూరదర్శన్	-14892
▁పరిపాలనలో	-14893
▁ముగింపుకు	-14894
▁నియంత్రణలో	-14895
ua	-14896
నెను	-14897
లానా	-14898
▁ఆపద	-14899
▁ఇమే	-14900
▁మకర	-14901
▁యాన	-14902
▁గండి	-14903
▁గువే	-14904
▁హోలీ	-14905
▁ఇంజను	-14906
▁సుల్త	-14907
చడానికి	-14908
▁సరియైన	-14909
▁ప్రేమలో	-14910
▁సమావేశాలు	-14911
▁ప్రయాణీకుల	-14912
▁నర్సీపట్నంలోనూ	-14913
ధే	-14914
▁గం	-14915
చ్ఛా	-14916
▁20%	-14917
▁576	-14918
▁day	-14919
▁అమో	-14920
▁సమే	-14921
తలూరు	-14922
లియను	-14923
శాలలు	-14924
ానికై	-14925
▁many	-14926
▁విలీన	-14927
▁జిన్నా	-14928
▁సిద్ది	-14929
▁సహకరించ	-14930
న్నప్పుడు	-14931
▁వివరాలను	-14932
▁వ్యాసంలో	-14933
▁హెచ్చరిక	-14934
▁పుష్పించే	-14935
▁రాజకీయాల్లో	-14936
''	-14937
గఢ్	-14938
డిస	-14939
పాట	-14940
▁గోళ	-14941
పాక్ష	-14942
▁క్షు	-14943
▁డ్యా	-14944
▁శాలి	-14945
▁కొప్ప	-14946
▁రౌండు	-14947
▁శూద్ర	-14948
▁కాళ్ళు	-14949
▁ఫార్మా	-14950
▁సుభాష్	-14951
▁స్టీల్	-14952
▁కలుపుతూ	-14953
▁జ్ఞానము	-14954
▁మార్గాల	-14955
జిక్యూటివ్	-14956
▁కార్మికుల	-14957
▁సూచించింది	-14958
▁మహావిష్ణువు	-14959
▁హైదరాబాదుకు	-14960
▁పిలువబడుతుంది	-14961
నౌ	-14962
లనే	-14963
శిల	-14964
▁106	-14965
▁220	-14966
▁త్రై	-14967
▁సునా	-14968
కపోయినా	-14969
▁called	-14970
▁అవమాని	-14971
▁పొడిగా	-14972
▁ములుగు	-14973
వాదాన్ని	-14974
▁సాధారణం	-14975
▁అభిప్రాయాలు	-14976
▁ఒప్పందాన్ని	-14977
కోచ	-14978
సైట్	-14979
▁చేయడ	-14980
▁ఉండుట	-14981
పోకుండా	-14982
▁కార్డ్	-14983
▁మూలకాల	-14984
▁మధ్యధరా	-14985
▁మిలిటరీ	-14986
▁ఉంగుటూరు	-14987
▁డాక్టరేట్	-14988
▁తాడిపత్రి	-14989
▁తెల్లవారు	-14990
▁నిర్వచనము	-14991
▁మార్చింది	-14992
▁పరిమాణాన్ని	-14993
▁తల్లిదండ్రుల	-14994
▁సాధించడానికి	-14995
CC	-14996
కాలి	-14997
విటీ	-14998
స్మా	-14999
పరచిన	-15000
వెంట్	-15001
▁కాడ్	-15002
▁తంజా	-15003
▁తనని	-15004
▁స్లో	-15005
▁హ్యా	-15006
▁విజేత	-15007
itation	-15008
▁పాలనను	-15009
▁ఖమ్మంలో	-15010
▁పూర్తయిన	-15011
▁స్టేడియం	-15012
తః	-15013
ుడ	-15014
నిస్	-15015
▁కూన	-15016
▁పాయ	-15017
కర్స్	-15018
ణులకు	-15019
నిర్వ	-15020
▁ఆయనే	-15021
శుద్ధి	-15022
▁ఒట్టో	-15023
▁రమేష్	-15024
క్టరుగా	-15025
▁గొట్టపు	-15026
▁మహిళలకు	-15027
▁కజకస్తాన్	-15028
▁ప్రదేశంగా	-15029
▁అగ్రహారంలో	-15030
▁క్రమశిక్షణ	-15031
భో	-15032
వంద	-15033
లాకి	-15034
▁ధరి	-15035
▁జననం	-15036
▁నర్మ	-15037
దేశాలలో	-15038
▁తగ్గిన	-15039
▁శిల్పం	-15040
▁పారదర్శ	-15041
▁బద్వేలు	-15042
▁రామదాసు	-15043
▁సర్పంచ్	-15044
▁జోగులాంబ	-15045
▁నవంబరులో	-15046
▁పద్ధతులలో	-15047
▁జగ్గయ్యపేట	-15048
▁చెప్పుకోవచ్చు	-15049
OS	-15050
▁‘‘	-15051
భ్యస	-15052
మిలి	-15053
వేలు	-15054
స్తం	-15055
▁గఢ్	-15056
▁మకు	-15057
▁డ్రె	-15058
▁పోతే	-15059
ండింగ్	-15060
స్తుండ	-15061
▁దురదృ	-15062
▁ఏర్పాట	-15063
▁వార్తల	-15064
▁ఏజెన్సీ	-15065
▁ప్రచురి	-15066
▁సన్నిధి	-15067
▁జరిగిందని	-15068
▁ప్రదేశాలకు	-15069
▁చేసుకున్నాయి	-15070
▁ముంచింగిపుట్టు	-15071
పద్ధ	-15072
▁ఆటం	-15073
▁తని	-15074
▁కపిల	-15075
▁కశ్య	-15076
▁కృపా	-15077
▁హౌరా	-15078
▁రామన్	-15079
▁సీతను	-15080
▁people	-15081
▁పాలకుల	-15082
▁మరింతగా	-15083
▁మేనేజర్	-15084
▁పుస్తకము	-15085
▁రహదారితో	-15086
▁ధ్వజస్తంభ	-15087
▁పరిశోధనలో	-15088
▁ప్రతిరోజు	-15089
▁సృష్టించారు	-15090
▁గుర్తించవచ్చు	-15091
్రొ	-15092
గ్రే	-15093
దారీ	-15094
ారాం	-15095
▁579	-15096
▁80%	-15097
▁ఏదీ	-15098
▁బుడ	-15099
▁అనాథ	-15100
▁కొలత	-15101
స్తాము	-15102
ేషియన్	-15103
▁తోటలు	-15104
▁శారదా	-15105
▁సంసార	-15106
▁అర్ధము	-15107
▁నిలువు	-15108
▁ఫిన్ని	-15109
▁అనేవారు	-15110
▁హక్కును	-15111
▁ఆయుధాలను	-15112
▁భూపాలపల్లి	-15113
▁సంపాదించిన	-15114
-30	-15115
నెల	-15116
మంద	-15117
ణుడి	-15118
నూతల	-15119
సంగా	-15120
▁def	-15121
▁ఐదే	-15122
▁లిబ	-15123
్రాయి	-15124
▁1800	-15125
▁మేల్	-15126
▁ఇస్తూ	-15127
▁జింకు	-15128
▁తత్వం	-15129
▁మల్టీ	-15130
▁విరామ	-15131
▁సంతతి	-15132
▁అతనితో	-15133
▁కెన్యా	-15134
▁పితామహ	-15135
▁మల్లికార్	-15136
▁లక్ష్మీనర	-15137
▁కల్పించారు	-15138
▁అప్పటినుండి	-15139
▁చేసుకుంటారు	-15140
▁అందించడానికి	-15141
▁వ్యాపించింది	-15142
air	-15143
ెంటి	-15144
▁ఛేద	-15145
▁ముఖా	-15146
▁రాని	-15147
కుల్లో	-15148
▁అయ్యి	-15149
▁చతురస	-15150
▁నాంది	-15151
▁మెటల్	-15152
కేంద్రం	-15153
లేకుండా	-15154
స్తుంటే	-15155
▁అదృశ్య	-15156
▁పక్షుల	-15157
▁పూర్లో	-15158
▁మారేడు	-15159
▁రాజుగా	-15160
న్నిటినీ	-15161
తున్నట్లు	-15162
▁ఆస్పత్రి	-15163
▁తొలగింపు	-15164
▁శిష్యుడు	-15165
▁అర్జునుడి	-15166
▁సికింద్రాబాదు	-15167
LA	-15168
థీ	-15169
oci	-15170
కులో	-15171
ికలో	-15172
▁19,	-15173
▁పూస	-15174
▁మలే	-15175
▁వెడ	-15176
ుల్లో	-15177
▁line	-15178
▁వక్ష	-15179
గ్రామం	-15180
▁భాగ్య	-15181
▁మురళీ	-15182
▁విజయా	-15183
▁ఆశ్రయం	-15184
▁ఆసియన్	-15185
కపోవడంతో	-15186
▁ఖర్చుతో	-15187
▁ఇండియాలో	-15188
▁గుంతకల్లు	-15189
▁రూపొందించాడు	-15190
సంద	-15191
ible	-15192
ందాం	-15193
తాత్	-15194
పానం	-15195
ుత్త	-15196
▁ఎంట	-15197
▁నేరం	-15198
▁యాభై	-15199
ration	-15200
తక్కువ	-15201
▁ఈనాటి	-15202
▁వర్గీ	-15203
▁మాన్యు	-15204
▁రాజరాజ	-15205
▁గోధుమలు	-15206
▁తాండూరు	-15207
▁రాజ్యాల	-15208
▁సామగ్రి	-15209
▁గుర్రాలు	-15210
▁ప్రతాపరు	-15211
▁ఫ్యూర్టో	-15212
▁అనుబంధంగా	-15213
▁కలిగివున్న	-15214
▁పట్టించుకో	-15215
FS	-15216
ఇన్	-15217
▁ఉధ	-15218
ంచాల	-15219
ణిని	-15220
నంది	-15221
▁117	-15222
హద్దు	-15223
▁ఔరంగ	-15224
▁పాపం	-15225
▁అమ్మా	-15226
▁నవ్వు	-15227
▁మెప్ప	-15228
ంచేవాడు	-15229
తనాన్ని	-15230
▁తేడాలు	-15231
▁పింగళి	-15232
▁వేరుగా	-15233
ించుకోవడం	-15234
▁ఉంచుతారు	-15235
▁ఫ్లోరైడ్	-15236
▁ఒలింపిక్స్	-15237
▁సంస్థానాధీశు	-15238
ందూ	-15239
మూత	-15240
సూర	-15241
కెన్	-15242
నందు	-15243
షుడు	-15244
▁new	-15245
▁పూట	-15246
▁టైమ్	-15247
▁తనకి	-15248
దిన్నె	-15249
నాల్డ్	-15250
▁మొఘలు	-15251
▁బడింది	-15252
▁మంత్రం	-15253
▁రూపాయి	-15254
▁ఉయ్యాలో	-15255
▁ప్రేమను	-15256
▁హర్యానా	-15257
▁అంతర్భాగ	-15258
▁గమనించిన	-15259
▁చుట్టుము	-15260
▁పెదకాకాని	-15261
▁మధ్యాహ్నం	-15262
▁న్యూఢిల్లీ	-15263
▁స్థానికులు	-15264
▁900	-15265
▁కళల	-15266
▁1905	-15267
▁అరిక	-15268
▁ఆద్య	-15269
▁మిగి	-15270
▁వింత	-15271
▁స్రా	-15272
▁known	-15273
▁అయ్యా	-15274
▁దర్శి	-15275
పించాడు	-15276
▁కేసులో	-15277
▁సమన్వయ	-15278
▁దేవతలను	-15279
▁పాలకొల్లు	-15280
▁ప్రకటించి	-15281
▁అంత్యక్రియ	-15282
▁తరలించాలని	-15283
▁బ్యాంకుగ్రామంలో	-15284
డిపి	-15285
పాను	-15286
హిని	-15287
▁587	-15288
▁word	-15289
▁మాను	-15290
▁యాక్	-15291
సంబంధిత	-15292
▁హిరణ్య	-15293
▁మార్షల్	-15294
▁కెనడియన్	-15295
▁పురాణాలలో	-15296
▁పెంచడానికి	-15297
▁చేరుకున్నాడు	-15298
▁వాతావరణాన్ని	-15299
▁చిత్రీకరించారు	-15300
ర్ణం	-15301
కొలను	-15302
▁గానే	-15303
▁జెర్	-15304
▁పోప్	-15305
గురువు	-15306
▁మరమ్మ	-15307
[...]
