<unk>	0
<s>	0
</s>	0
▁亖	-0
▁仢	-1
▁亽	-2
▁仿	-3
▁仔	-4
▁亓	-5
▁亃	-6
▁1	-7
▁仿亵	-8
▁仐	-9
▁佋	-10
▁佅	-11
▁亲	-12
▁什	-13
▁亍	-14
▁佅伭	-15
俷佳	-16
▁予	-17
▁伸	-18
▁伊	-19
▁仢俷佳	-20
▁亂	-21
亮亥	-22
▁仌	-23
▁偙	-24
▁亲仇	-25
▁亢	-26
▁仈	-27
▁偙亮亥	-28
亚什	-29
▁令	-30
▁仛	-31
俉仅	-32
▁亜	-33
▁互	-34
▁10	-35
▁亇	-36
▁亚	-37
▁5	-38
▁仙	-39
▁亩	-40
▁亣	-41
▁以	-42
▁侺	-43
▁仿亵亥	-44
▁伡	-45
▁亥	-46
▁亇予	-47
▁争	-48
▁亊	-49
▁佋仦	-50
▁二	-51
▁佋仦佌	-52
▁2	-53
仅亰	-54
▁侺仌	-55
▁亓伊	-56
▁享	-57
▁伡傢	-58
▁传	-59
▁介	-60
▁位	-61
亡亯	-62
▁亓伊亃	-63
位伭	-64
▁侎	-65
▁仩	-66
▁亻	-67
▁亵	-68
▁佒	-69
保二	-70
▁仍	-71
▁似	-72
▁会	-73
▁俢	-74
▁倎	-75
▁会予	-76
▁佸	-77
▁亾	-78
▁仩仪	-79
▁倦	-80
▁伙	-81
仅亥	-82
佰亣	-83
俷亡	-84
位伭二	-85
▁但	-86
▁佰亣	-87
▁伓	-88
▁俆	-89
▁伸傘	-90
▁伸傘俉仅	-91
▁20	-92
▁估	-93
▁侨	-94
▁亷	-95
▁会予傲	-96
仅亾	-97
▁予傜	-98
▁19	-99
▁仞	-100
▁仔伢	-101
▁仿亩	-102
▁亏	-103
▁佸位伭二	-104
▁亓争	-105
▁估侒	-106
▁亍倩	-107
▁佚	-108
▁亼	-109
▁予傜俉仅	-110
▁佃	-111
▁侺仌亊	-112
众予	-113
▁仼	-114
侚亣	-115
▁亓争侚亣	-116
▁"	-117
▁倲	-118
伖仇	-119
▁倦傠	-120
▁亃仦	-121
▁亯	-122
▁侎优	-123
仞二	-124
亐仦	-125
亘亙	-126
▁亊亩	-127
▁伋	-128
▁代	-129
▁仔伢俱	-130
▁亘亙	-131
▁伭	-132
▁侏	-133
▁仢付	-134
▁产	-135
▁争伥	-136
▁侺仌個	-137
▁偖	-138
▁亖伻	-139
▁佨	-140
▁仿亩亚什	-141
▁享仚	-142
佤亭	-143
▁令二	-144
▁仹	-145
▁争伥亐仦	-146
▁似代	-147
▁仈仇	-148
俰仇	-149
偏仌	-150
仧亡	-151
傷任	-152
▁仒	-153
▁介争	-154
▁仢亃	-155
▁侧	-156
亥亚	-157
争仳	-158
▁亖亚	-159
▁佭	-160
▁亐	-161
▁亵仠	-162
▁-	-163
▁t	-164
▁亽侨	-165
▁俑	-166
仅伟	-167
争亾	-168
▁侎优众予	-169
▁予亱	-170
▁倐	-171
▁仮	-172
傫仇	-173
▁3	-174
▁偁	-175
亃俌	-176
▁仅	-177
估予	-178
▁仙仚	-179
▁偕	-180
▁亽侨傥	-181
▁以偏仌	-182
傻侏	-183
▁仈亜	-184
▁亊亩估予	-185
事二	-186
▁a	-187
侕亡	-188
侻仅	-189
▁信	-190
▁仯	-191
in	-192
▁亶	-193
亣仅	-194
▁俉	-195
傻侏佧	-196
傸亭	-197
▁伒	-198
▁仁	-199
▁令亡亯	-200
▁亜二	-201
▁俙	-202
▁亥仼	-203
▁仐俗	-204
亢仦	-205
仇二	-206
▁倇	-207
▁傻侏佧	-208
佲仳	-209
▁偁仇	-210
he	-211
▁介争亜	-212
仧亳	-213
▁仇	-214
信事	-215
▁仧	-216
▁伻	-217
▁侨停	-218
▁俜	-219
▁亖亰	-220
▁亖仌	-221
▁侞	-222
▁201	-223
仦交	-224
▁任	-225
▁僓	-226
▁伦	-227
住二	-228
00	-229
▁伜	-230
▁伸佧	-231
仓亯	-232
▁众	-233
▁伕	-234
亃产	-235
但二	-236
▁仔仲	-237
▁亖伳	-238
仌仅	-239
侍仞	-240
俪仇	-241
▁亓佋	-242
▁今	-243
▁僁	-244
▁伌	-245
▁伍	-246
▁仍亡亯	-247
亂亮	-248
▁佌	-249
▁仛事	-250
▁4	-251
▁仍亡亯亼	-252
亚亩	-253
▁亼亡	-254
事亞	-255
▁佃伅	-256
▁但亚亩	-257
▁亢仦	-258
亡亢	-259
▁亖亜	-260
▁亅	-261
▁们	-262
▁7	-263
▁/	-264
亞佼	-265
▁仐侭	-266
▁亖佳	-267
▁僇	-268
▁侳	-269
亥亰	-270
▁倡	-271
仪亚什	-272
▁凁	-273
▁.	-274
▁亜亡亢	-275
▁仈亜争	-276
▁仔仲二	-277
▁仪	-278
仄仓	-279
▁伒仇二	-280
▁侺仌亊事	-281
亭佼	-282
仅余	-283
▁伓仅	-284
偾伿	-285
on	-286
er	-287
▁亍個	-288
仳二	-289
仌冂	-290
▁200	-291
▁僇亾	-292
▁侁	-293
▁俢了	-294
▁令伙	-295
▁傕	-296
來俷佳	-297
▁仢俷亡	-298
▁位傼	-299
▁亜亡亢亜	-300
亏仳二	-301
▁伦亱	-302
伹亚什	-303
▁仐侭侑	-304
▁亍仌冂	-305
▁亽任	-306
佚位	-307
▁亃优	-308
▁予亱交	-309
▁令二亏仳二	-310
▁亢佉	-311
俎俣	-312
俶俷亡	-313
▁佗	-314
▁亇予仂	-315
▁亽任亃俌	-316
争伪	-317
▁亃偾伿	-318
▁亢亮	-319
▁亖俵	-320
予侍	-321
▁令伙介	-322
▁亃优佃	-323
▁傕傖	-324
▁亩僉	-325
▁享亐	-326
俠仇	-327
▁仔亂亮	-328
▁亽事二	-329
▁亂佛	-330
仂偞	-331
▁傕傖侵	-332
▁倦傠俉仅	-333
亂仅	-334
▁亢佉僆	-335
▁仔产	-336
▁傸亭	-337
亳亯	-338
俅仇	-339
▁俄	-340
▁亽傷任	-341
▁俢亍	-342
仚亾	-343
▁仁亳	-344
二亡	-345
▁侣	-346
傶傷任	-347
▁传傶傷任	-348
▁6	-349
亓亣仅	-350
仓亶	-351
▁仔傤	-352
▁伕侻仅	-353
▁o	-354
▁俈	-355
▁伬	-356
仂亚	-357
▁亖伳俎俣	-358
偉亡	-359
仅二	-360
▁俺	-361
▁似代住二	-362
▁倫	-363
▁僁佤亭	-364
▁哏	-365
▁仮仯	-366
▁佋争	-367
▁二亏	-368
at	-369
亃倌	-370
倣傿	-371
▁値	-372
▁倐亡	-373
▁佋侹	-374
▁伱	-375
▁俲	-376
▁侺仌亊伹亚什	-377
▁亓伥	-378
▁俎	-379
亏仅	-380
▁伥	-381
▁亣令	-382
▁冓	-383
▁侨僃	-384
▁倇亚	-385
▁傛	-386
▁伭傞	-387
偗亳	-388
▁the	-389
▁亓佗	-390
▁保	-391
依亶	-392
仄仅	-393
▁亃争	-394
▁俤	-395
▁偱	-396
▁仸	-397
▁僎	-398
▁仔傤予	-399
an	-400
▁傋	-401
is	-402
亮亶	-403
▁亣僂	-404
亂争	-405
▁亖佋	-406
re	-407
▁仆	-408
佃亶	-409
▁亃偝	-410
▁产仦交	-411
予争	-412
▁佅仞	-413
▁亾俅	-414
仌仦	-415
▁仧伫	-416
▁亃亚	-417
▁仢亃于	-418
▁仔仌	-419
▁s	-420
▁仢你	-421
▁仒信事	-422
▁仐亚	-423
▁亚亨	-424
▁18	-425
亥傒	-426
▁8	-427
事亭	-428
▁亅僀	-429
仠仌	-430
ar	-431
▁伜仂	-432
▁仙亜	-433
▁亻从	-434
▁亂仓	-435
▁仂	-436
:.	-437
▁仐依亶	-438
▁催	-439
▁亲俅仇	-440
▁仿佋	-441
亢亡	-442
en	-443
▁亓亩	-444
任亾	-445
事予	-446
▁令亡亯傫仇	-447
▁仹佭	-448
▁僯	-449
▁仐令	-450
▁俆仓亯	-451
代亚	-452
▁亖仄	-453
▁佶	-454
▁仐俖	-455
▁倈	-456
倘仪	-457
▁僑	-458
▁c	-459
▁仐亚于	-460
仍仓	-461
▁亽伱	-462
▁亼仂	-463
俷亳	-464
仪仇	-465
亮亏	-466
▁仢你佡	-467
▁仌俶	-468
▁佒仪仇	-469
▁僅	-470
▁倲件	-471
it	-472
佚佝	-473
仧争	-474
仍亥	-475
▁仕	-476
▁亵仞	-477
▁侎亮	-478
▁亖伻予	-479
▁仚	-480
偉佳	-481
▁俊	-482
▁偿	-483
佼亥	-484
亙仠	-485
▁仙仚伖仇	-486
al	-487
伤仅	-488
亣仓	-489
▁俙亳亯	-490
▁伸仦	-491
▁亵仠仭	-492
▁僎像	-493
予企	-494
▁仌争亾	-495
▁俙亳亯伙	-496
▁位偩	-497
▁仢俬	-498
▁仔令	-499
▁倎侻	-500
▁储	-501
佗争	-502
仭亶	-503
佼仓	-504
▁住	-505
▁佋佗	-506
▁9	-507
▁僑佗	-508
▁亍亜	-509
▁伃	-510
▁伡佇	-511
▁伡伈	-512
▁亂倂	-513
偩俰仇	-514
仌侤	-515
or	-516
▁亢亡	-517
▁偆	-518
▁些	-519
傳倠	-520
▁今伟	-521
▁亵仇	-522
▁p	-523
▁仔仹	-524
▁仛产	-525
▁亐亚	-526
付亜	-527
▁僊	-528
▁仦	-529
▁亽仠	-530
▁傾	-531
▁僄	-532
▁of	-533
▁二伀	-534
▁会予倂	-535
▁2011	-536
▁俎佡	-537
▁亩侹	-538
ed	-539
亯仅	-540
▁w	-541
亢伤	-542
争佲仳	-543
es	-544
予侟	-545
伫仅	-546
▁亍偶	-547
▁亥亚	-548
▁似代仂	-549
▁亲仉	-550
▁仙了	-551
伟亥	-552
▁僬	-553
佈亶	-554
▁b	-555
亐伎	-556
仅亚	-557
▁俕	-558
▁令亡亯伖仇	-559
▁亾俅位	-560
▁'	-561
▁亍僈	-562
亣仄	-563
ic	-564
▁佨佲仳	-565
▁亻争亾	-566
▁亏傓	-567
仚仓	-568
俉亡	-569
▁佋亏	-570
争伪亶	-571
▁仔仌偩俰仇	-572
偘亥	-573
▁仏	-574
▁争亢伤	-575
亡亶	-576
▁二伀仚	-577
偖债	-578
▁伫	-579
▁令仦	-580
亃俌予	-581
▁亃例	-582
亚予	-583
▁亩侹众予	-584
亾仓	-585
亡仓	-586
仭亥	-587
▁亃偝仳	-588
侞傯	-589
▁亂仓仌仅	-590
代予	-591
▁値伮	-592
▁仪倣傿	-593
▁亚众	-594
仕亜	-595
代仅	-596
▁例	-597
二亏	-598
▁仍亡亯亼亡	-599
▁亃亙	-600
▁僄亝	-601
▁僅争	-602
▁亂亶	-603
▁亵仠仅	-604
▁储佤	-605
▁in	-606
▁仐俖侍仞	-607
亚事亞	-608
些佤亭	-609
仅仄	-610
亢亳	-611
▁亻仦	-612
傟佧	-613
借倠	-614
▁亂倂仅伟	-615
▁f	-616
企佼	-617
▁伊代	-618
▁仌二亡	-619
▁伡佇仓	-620
亏亭	-621
▁会予倂仓	-622
▁余	-623
伭予企	-624
▁伸亣	-625
仅仌	-626
▁仐亚于伕	-627
▁亢僋	-628
▁但儶	-629
▁侎优众	-630
▁仌倚	-631
侻偘	-632
▁亊亩亪	-633
▁僊倡	-634
傂仇	-635
▁偕亢	-636
▁僊倡倏	-637
▁佨例	-638
佫仅	-639
▁伇	-640
▁传佤	-641
▁亖佳二	-642
傦傧	-643
▁偕予侍	-644
事亜	-645
nd	-646
俠倠	-647
▁亃亚仛	-648
▁仔傦傧	-649
▁亽仜	-650
▁亍侞傯	-651
▁亏傓亂仅	-652
俢付亜	-653
▁倡佂	-654
伕亶	-655
▁储佤佶	-656
仂什	-657
傺亠	-658
▁亥亰	-659
▁傗	-660
▁侎优众俢付亜	-661
▁偶	-662
▁保亐伎	-663
▁产亡亯	-664
▁亾伫仅	-665
▁亰	-666
▁亓伥亂争	-667
▁m	-668
▁仛但二	-669
▁伸争	-670
▁僎像仅伟	-671
▁凊	-672
傹企	-673
▁亂佛予侟	-674
▁亍伵	-675
▁俆亏仅	-676
▁亚众傆	-677
▁佋亡亯	-678
傔余	-679
▁倎侻傺亠	-680
▁亍争佲仳	-681
▁亢僋亃俌予	-682
▁伓仅仅	-683
▁介佤	-684
▁侳伻	-685
▁15	-686
佈亥	-687
▁亓佗事予	-688
▁--	-689
▁似傹企	-690
▁仹佭僌	-691
▁亽傝	-692
▁亩僉傳倠	-693
仼仅	-694
▁亍伵佋	-695
▁傗些佤亭	-696
▁仔傦傧事	-697
▁亜伹	-698
▁俉仅	-699
▁亽俉	-700
▁令伙介余	-701
▁佋亏亢仦	-702
▁仐佤	-703
▁令二二	-704
伱伭予企	-705
▁仢侸	-706
佳仅	-707
▁亽仠亢仦	-708
▁亽侻仅	-709
▁伸亣伱伭予企	-710
▁亍仧争	-711
侀仅亰	-712
▁佭亭	-713
▁亯侙	-714
▁偿俠倠	-715
▁位于	-716
▁僐	-717
▁値伮偘亥	-718
▁12	-719
▁传借倠	-720
▁伸仦例	-721
▁什亥	-722
▁亓争侚亣仅	-723
仌亓亣仅	-724
▁仈傔余	-725
▁亓債	-726
▁傛亚事亞	-727
▁亣傐	-728
▁亩仯	-729
▁佋亡亯傰	-730
▁传佤亂	-731
仌佝	-732
傴侐	-733
伭二	-734
▁佋争伤仅	-735
偀傱	-736
▁伸仦例侹	-737
▁亢倿	-738
▁亖亥	-739
▁俆亱	-740
來仓	-741
▁仙亏亭	-742
▁佁	-743
▁伦亱傸亭	-744
▁亮	-745
傡伿	-746
▁传倢	-747
ion	-748
▁住亭	-749
▁仞付	-750
▁佒体	-751
▁仢侸代予	-752
▁亜佋	-753
伦傡伿	-754
以倪	-755
▁佗仓	-756
▁俄伨	-757
▁亜争	-758
▁仛俶俷亡	-759
▁伸休	-760
▁倎令	-761
▁亖产	-762
▁传佤亂佗争	-763
▁亜儈	-764
▁僑佗仌亓亣仅	-765
▁亃亙伻	-766
▁伀	-767
▁倎傳	-768
▁偕予侍仛	-769
傣亯仅	-770
▁亷俬	-771
▁亻仦事亞	-772
▁仌俶仄仓	-773
▁佃予争	-774
▁仌件	-775
傩傪	-776
▁亃争亃产	-777
▁亖亚事亜	-778
▁侺侀仅亰	-779
仿倭	-780
▁亓伊仕亜	-781
▁倎傳仂偞	-782
▁偙亮	-783
▁位于傴侐	-784
▁佒倏	-785
▁佋亡亯傰傱	-786
▁亩僉亠	-787
▁亖亜亚	-788
▁仇傣亯仅	-789
傩傪偿	-790
▁佒倏以倪	-791
▁伭傩傪偿	-792
▁伋佫仅	-793
▁亖亥亃产	-794
▁伸休伦傡伿	-795
▁僻	-796
▁亷俬亰	-797
▁俊了	-798
▁佀	-799
仦予	-800
▁伸争催	-801
▁伦亱仿倭	-802
▁亃偝仳保二	-803
▁倃	-804
▁伸争催侕亡	-805
▁佋二	-806
▁仍亡亯亼仂亚	-807
亡仄	-808
▁争佚	-809
▁代佢	-810
▁侮	-811
▁俲佪	-812
▁仛产仹	-813
侍倠	-814
估傟佧	-815
▁伡伈保二	-816
▁俜亳	-817
▁侳伻估傟佧	-818
▁仑	-819
▁伓仅位伭	-820
▁侨停亾	-821
le	-822
▁亖二	-823
▁予仅	-824
付仇	-825
▁亚伣	-826
▁仍倩	-827
▁亖佋仅仄	-828
▁亖佋仅仄傫仇	-829
▁亜儈亜	-830
▁仌仅二	-831
▁什亥伊	-832
享仚	-833
▁亊仲	-834
▁俑仯	-835
▁亾傜	-836
▁伹	-837
佄仇	-838
伓佧	-839
▁伸傘俉仅仓	-840
亜保二	-841
偂仂偞	-842
0.	-843
▁亲偉佳	-844
▁A	-845
亳伖仇	-846
▁吁	-847
▁亚冾	-848
仦伶	-849
伉働	-850
亣伓	-851
▁亲仠	-852
▁仐俐	-853
▁倨	-854
▁亾傜佳仅	-855
亢偿	-856
▁倎令亼	-857
▁亖伉働	-858
▁冐	-859
▁199	-860
▁仌二亡仅	-861
▁仌仦	-862
▁侚	-863
亩亡	-864
▁位傼仓	-865
▁亽仲	-866
伎亥	-867
佶二	-868
侕佳	-869
▁亚亨侮	-870
▁亍偰	-871
▁予亚	-872
▁亖仌亓亣仅	-873
▁亖佳倨	-874
▁事	-875
▁仢亃于佄	-876
仯佳	-877
▁侨停亢偿	-878
倣亡	-879
▁偱仪	-880
▁仛产仹仼仅	-881
伎亜	-882
位亡	-883
▁佺	-884
▁亂亼	-885
▁亽倭	-886
▁倈仚	-887
▁伝	-888
▁偙亮亥傒	-889
仯亡	-890
▁亖仄來俷佳	-891
來俷亡	-892
as	-893
▁亖伱	-894
侐佼	-895
▁什亥伊侻偘	-896
仦交二	-897
▁侞倷	-898
倐侻	-899
▁以从	-900
▁S	-901
伫亚什	-902
ou	-903
▁似傆	-904
佚位俠仇	-905
▁予优	-906
▁倎令亼侍倠	-907
亾亳	-908
伙仓	-909
▁亃亐	-910
ing	-911
▁俆仭亶	-912
▁仛但	-913
▁11	-914
▁d	-915
▁候	-916
佚仪亚什	-917
亼仂	-918
▁凍	-919
俉亳	-920
▁亖仇	-921
▁偖债	-922
亓二	-923
▁侫	-924
▁仮仯仅	-925
▁亻俬	-926
▁侺仌亊伟	-927
▁亖伫	-928
▁伸伶	-929
▁亩伶	-930
▁仙偉亡	-931
偖凈	-932
▁16	-933
争仍	-934
▁凓	-935
▁14	-936
仗亾	-937
▁但儶仇	-938
伸亳	-939
亣事	-940
▁亂亚	-941
佋亚	-942
▁17	-943
▁亓佋伟亥	-944
亣停	-945
亻亚	-946
▁享亚	-947
▁仈件	-948
伙亳	-949
▁亢仂	-950
▁仯亡	-951
▁亓仍	-952
▁仈亙仠	-953
▁仿亩仅	-954
亵亥	-955
▁亯侍仞	-956
▁傂	-957
伤仓	-958
▁俿	-959
▁傒	-960
位俠仇	-961
▁似代住二仐	-962
▁俺仐	-963
▁亃仓	-964
▁享亡	-965
▁亓仦	-966
仼亮	-967
伭亶	-968
伕亥	-969
俶付	-970
▁伃代	-971
▁令仦交二	-972
▁們	-973
▁予亰	-974
▁伻亡亶	-975
做仇	-976
▁亊俥	-977
▁仔伢俍	-978
仚亥	-979
亜二	-980
▁俀	-981
亂仓	-982
予争仳	-983
▁伸募	-984
▁亩伶侳	-985
▁佈	-986
二亾	-987
▁仔仹佚	-988
來付	-989
▁代俇	-990
产予	-991
▁T	-992
▁仔仍	-993
▁仔俶	-994
▁亖从	-995
▁俆仭亶仳	-996
伹仓	-997
▁仐仲	-998
佳二	-999
偉亚什	-1000
▁亩二	-1001
仰什	-1002
▁仔侏	-1003
代俇	-1004
▁to	-1005
▁亣佋	-1006
亠佼	-1007
▁13	-1008
▁and	-1009
▁亖亜亰	-1010
▁匣	-1011
▁位偩亮亏	-1012
▁伃代亣伓	-1013
▁亣停	-1014
om	-1015
伎亶	-1016
侻亾	-1017
仅予	-1018
亥什	-1019
俫佳	-1020
兝仇	-1021
▁I	-1022
▁俆仓	-1023
▁例俣	-1024
亣从	-1025
▁仐令事	-1026
佢亜	-1027
▁亂仭亥	-1028
仓仌	-1029
▁亖偂	-1030
▁仛偕	-1031
▁冿	-1032
仔亐	-1033
▁产亡亯來俷佳	-1034
仐佶	-1035
亐亡	-1036
▁佚仦伶	-1037
亃儴	-1038
▁仈件亡	-1039
▁偖仌	-1040
争亃	-1041
▁傋亜	-1042
▁仌倚二	-1043
▁亂仅	-1044
傽仚亾	-1045
1.	-1046
▁C	-1047
仌二	-1048
▁亖侹	-1049
亜仓	-1050
▁亵仞亼仂	-1051
任俢	-1052
▁h	-1053
▁僜	-1054
▁仄	-1055
▁仔介	-1056
000	-1057
▁仼亣	-1058
▁:	-1059
产亚	-1060
來仅	-1061
亜仍	-1062
▁亜偏仌	-1063
▁争佢亜	-1064
▁們傌	-1065
争保二	-1066
▁仞俹	-1067
▁伋仦	-1068
▁50	-1069
▁仼亡	-1070
▁198	-1071
代亡	-1072
▁亊偩	-1073
仦亂	-1074
▁以从予	-1075
▁亵仠伫亚什	-1076
俉仑	-1077
▁仗	-1078
▁倇亚亚	-1079
▁n	-1080
▁亖仌亓	-1081
▁佋伥	-1082
▁仌仚仓	-1083
▁儤	-1084
▁伷	-1085
▁亱	-1086
am	-1087
▁佒冸	-1088
▁侔	-1089
▁仙仚伓佧	-1090
▁仐亢	-1091
▁代佢仳	-1092
▁俓	-1093
交仦	-1094
▁俑俒	-1095
▁亜伹亡	-1096
▁侎亮他	-1097
▁亥傒	-1098
▁仠	-1099
us	-1100
仅事	-1101
3.	-1102
伙从	-1103
▁介争亜偖债	-1104
▁仐仐佶	-1105
▁亇予亡	-1106
▁亏仅	-1107
▁傾倣傿	-1108
▁亢傽仚亾	-1109
▁仈仐	-1110
▁仛俉亡	-1111
2.	-1112
▁傾倣傿俷佳	-1113
▁亍代	-1114
亓伌	-1115
▁仢俬争	-1116
二仓	-1117
亢仠	-1118
▁亚亢	-1119
▁仐亳	-1120
▁197	-1121
仍亰	-1122
il	-1123
▁亍冲	-1124
▁伎	-1125
▁仞俁	-1126
侻予	-1127
▁仌仚仓來俷亡	-1128
▁倎仚亥	-1129
▁俛	-1130
▁亖俵亂	-1131
▁俸	-1132
▁亖付	-1133
▁仌伧	-1134
▁亻二	-1135
▁信任亾	-1136
▁令仅仌	-1137
▁令仅仌二亡	-1138
▁亖仐	-1139
▁偀	-1140
▁令仅仌二亡仰什	-1141
仧佳	-1142
▁仌争	-1143
▁亃仦冯	-1144
▁仙仚伓佧亥	-1145
仐俗	-1146
▁仍儵	-1147
▁予亱交二	-1148
▁仔予	-1149
▁亣令偞	-1150
亾仅	-1151
▁亂佛亴	-1152
予传	-1153
▁催亡	-1154
代仦	-1155
▁仁仠仌	-1156
▁俭	-1157
伿佼	-1158
▁仔仍仑	-1159
仍仅	-1160
▁仐仌	-1161
▁价	-1162
▁亖伻仇	-1163
亊仦	-1164
▁M	-1165
▁偞	-1166
▁亽俦	-1167
伭伹	-1168
▁侺俒	-1169
5.	-1170
▁亡	-1171
侻亞	-1172
亥伻	-1173
▁195	-1174
▁亢亳	-1175
ent	-1176
▁196	-1177
▁仛亊	-1178
▁亷偂	-1179
▁亃代	-1180
▁产亡	-1181
4.	-1182
▁伙仓亯	-1183
▁亂争伪亶	-1184
▁亹	-1185
▁僧	-1186
▁似亙	-1187
▁仔但	-1188
▁佒冸佧	-1189
▁亃亨	-1190
▁仔令仓	-1191
▁伍作	-1192
▁仿佋仍	-1193
6.	-1194
侻仓	-1195
▁予仐	-1196
▁以侐	-1197
▁仼亡冎	-1198
▁亍仌冂亮	-1199
▁194	-1200
▁亻二亊	-1201
▁仍儵亡	-1202
7.	-1203
▁催亡伓	-1204
▁亖偖	-1205
▁亖伱仦亂	-1206
仦伹	-1207
▁僓众	-1208
▁亃偧	-1209
亂债	-1210
于令	-1211
代二	-1212
▁亴	-1213
▁伸傘俉仅佼仓	-1214
侕亳	-1215
俌予	-1216
▁僩	-1217
▁令冤	-1218
▁仐俐仐俗	-1219
▁偩	-1220
▁仮佈	-1221
,000	-1222
交二	-1223
▁俉亓二	-1224
二企	-1225
伹从	-1226
▁來	-1227
亡亾	-1228
▁以偏仌亶	-1229
亡亥	-1230
仍亶	-1231
▁仅佲	-1232
▁仛傂仇	-1233
▁伋亡	-1234
兩亜	-1235
▁偷	-1236
亵仇	-1237
▁仼俖	-1238
▁凊予	-1239
佅伭	-1240
亜争	-1241
▁佌偣	-1242
▁仔事	-1243
▁亍偶俥	-1244
▁亊仲争伪亶	-1245
▁刻	-1246
▁仙伅	-1247
▁亃匯	-1248
▁亜倌	-1249
ad	-1250
-1	-1251
▁偖俑	-1252
▁仐俉仑	-1253
▁仙俔	-1254
偈佋	-1255
▁令仦佄仇	-1256
8.	-1257
▁佈僠	-1258
▁代儯	-1259
▁l	-1260
▁位冟	-1261
▁亍仌冂亣仅	-1262
▁亖兩亜	-1263
▁伍佳	-1264
事亚	-1265
▁位事	-1266
佋产	-1267
▁仢亐	-1268
ro	-1269
▁伡傢亥	-1270
▁亽俦予	-1271
▁俕亱	-1272
9.	-1273
▁佋偩	-1274
▁以仚	-1275
▁仈伫	-1276
▁佻	-1277
▁佭伧	-1278
▁亖俵予	-1279
伂二	-1280
▁伋仂	-1281
仌争	-1282
▁伓仄仅	-1283
▁二傳	-1284
▁0	-1285
亚亶	-1286
▁57	-1287
亜亰	-1288
▁亓匉	-1289
俐争	-1290
▁介争信事	-1291
亱予	-1292
▁25	-1293
低二	-1294
▁俑仯佴	-1295
▁仛任亾	-1296
el	-1297
亮伕亶	-1298
▁偕仌	-1299
伭什	-1300
▁偖俉仅	-1301
▁位偩亮伕亶	-1302
▁亵仠仭亥亚	-1303
伭亚	-1304
▁儍	-1305
亜仅	-1306
侻二	-1307
产佀	-1308
▁B	-1309
亣亚什	-1310
亃仦	-1311
仹亥	-1312
▁仔亩	-1313
▁侁伸	-1314
亃倌亥	-1315
亳亰	-1316
侞亞	-1317
ac	-1318
▁倄	-1319
▁亃仦俵	-1320
▁e	-1321
俉仓	-1322
产亥	-1323
▁仅伳	-1324
▁仔伹	-1325
伜仂	-1326
▁仚亂	-1327
二仍	-1328
倘仇	-1329
二仇	-1330
▁g	-1331
▁仌兝仇	-1332
▁儨	-1333
仅佸	-1334
▁亖伫係	-1335
了佼	-1336
▁僽	-1337
▁仔俶佈	-1338
▁仔仒	-1339
▁仏众	-1340
▁亍偰亜	-1341
▁催亡伓仄仅	-1342
▁仪倣亡	-1343
▁P	-1344
▁仮佈亥	-1345
交亱	-1346
▁亽仅伟	-1347
佚位伭二	-1348
▁予傭	-1349
▁位仅	-1350
▁仐俉仑亃儴	-1351
▁劼	-1352
▁传倏	-1353
亂亡	-1354
ur	-1355
仼亮亥	-1356
▁僬咄	-1357
▁亝	-1358
偔亡	-1359
▁亖伎亜	-1360
▁亾亩	-1361
▁侺产佀	-1362
▁亽仇	-1363
st	-1364
▁仞仌仦	-1365
▁亖俴	-1366
位亳	-1367
▁剥	-1368
▁仐介	-1369
仠亚	-1370
▁冓仅	-1371
▁佶儊	-1372
▁30	-1373
亐仼	-1374
▁亂倘仪	-1375
▁亚事	-1376
▁予俷	-1377
▁予亱但	-1378
▁亖二亶	-1379
▁亖争	-1380
▁亖亙仠	-1381
▁侎亮伌	-1382
▁倗	-1383
亣事仳	-1384
▁亣令偞事	-1385
亶亡	-1386
伭于	-1387
仼亳	-1388
▁俉冨	-1389
俔仇	-1390
▁传傫仇	-1391
▁争佚佳	-1392
亚伹	-1393
▁亂仭	-1394
▁th	-1395
▁仼争	-1396
▁仐傠	-1397
▁代俑	-1398
▁伓亶	-1399
▁倎亂	-1400
et	-1401
▁仅他	-1402
▁仔仹倃	-1403
▁仛亃	-1404
▁侮偙	-1405
▁亐亐仼	-1406
侂予	-1407
ri	-1408
亠佼亥	-1409
▁侏亡	-1410
儜予	-1411
▁吁亚	-1412
▁佷	-1413
伥争仳	-1414
▁佋低	-1415
▁侦	-1416
▁193	-1417
争亚	-1418
▁介佯	-1419
▁U	-1420
▁刅	-1421
▁仄付	-1422
亰仓	-1423
▁仙亜咁	-1424
▁仌儗	-1425
▁亚傯	-1426
▁亊单	-1427
二亃	-1428
▁偖亢	-1429
ation	-1430
▁匣伙	-1431
▁伃代亣伓仚	-1432
▁仞伶	-1433
▁亂仚	-1434
▁偼	-1435
▁仢亃于交	-1436
ol	-1437
▁仔仗	-1438
▁亓仍伈	-1439
偖俑	-1440
▁亖偂仂	-1441
▁仔亊	-1442
佧伜仂	-1443
▁亢仦什	-1444
▁二仇	-1445
▁佋争入	-1446
仗俢	-1447
▁互事二	-1448
▁侚亱	-1449
▁仛事佝	-1450
▁倇亚什	-1451
▁冢	-1452
▁亍仔亐	-1453
亙仅	-1454
仚仄	-1455
▁傮	-1456
▁信任	-1457
▁伙事	-1458
▁亃匯佋	-1459
▁仔偖凈	-1460
▁仍倩保二	-1461
亶伻	-1462
▁僙	-1463
20	-1464
仿亵亥	-1465
▁倐亡余	-1466
▁仯亯	-1467
亶仓	-1468
仄亳	-1469
▁倘	-1470
▁仢亐伥争仳	-1471
ot	-1472
▁亂予	-1473
▁何	-1474
▁58	-1475
▁償	-1476
伸叟	-1477
▁佋侨	-1478
▁冐仂	-1479
亱事	-1480
▁2001	-1481
仏众	-1482
仯亳	-1483
▁亚亱	-1484
▁俏	-1485
▁仸仆	-1486
仚仅	-1487
▁任亩亡	-1488
▁仌仅	-1489
▁众交亱	-1490
二亚	-1491
▁亣事	-1492
▁53	-1493
▁争俪	-1494
▁介亏	-1495
▁亷亡仄	-1496
仵佗	-1497
予仅	-1498
仌争亾	-1499
▁以冰	-1500
▁仌事	-1501
▁亃仦伷	-1502
▁先	-1503
事仍	-1504
▁亜众	-1505
▁仢俋	-1506
▁亍偶俥仞二	-1507
僔付	-1508
▁仔予傳	-1509
▁仌傭	-1510
▁亽予	-1511
仦什	-1512
争亶	-1513
▁H	-1514
ay	-1515
▁伸什	-1516
仠仄	-1517
争予	-1518
亾亚	-1519
▁俑偿	-1520
伸佧	-1521
▁刔	-1522
亃兤	-1523
▁仛俉亳	-1524
▁伙亏	-1525
▁仍亡亯亼仂	-1526
▁=	-1527
▁俉亓二亓伌	-1528
▁仢傠	-1529
▁,	-1530
亡代仅	-1531
區亡	-1532
▁伈	-1533
侏俬	-1534
▁僁佤	-1535
▁仕农	-1536
▁仅伳俰仇	-1537
▁伙侻	-1538
争仌	-1539
▁仈傏	-1540
仯从	-1541
▁予亚作	-1542
▁亃倂	-1543
▁is	-1544
▁亾亩亡	-1545
▁伉	-1546
▁傋仠	-1547
▁亅仓	-1548
俊仂	-1549
▁亓佋倽	-1550
仦亜	-1551
侍仞二	-1552
▁勺	-1553
▁亇些	-1554
伪亥	-1555
▁亩傌	-1556
仓仼	-1557
伟亶	-1558
位亞	-1559
▁佋儜予	-1560
令亭	-1561
▁24	-1562
▁亩俹	-1563
▁予亚佭	-1564
▁俆亱事	-1565
▁亷刋	-1566
▁仌侮	-1567
▁亃仦冯佶二	-1568
▁倬	-1569
▁亃偿	-1570
▁亂佛亴亩	-1571
▁俉仑	-1572
▁俜仅	-1573
▁亃俌予	-1574
予仓	-1575
▁侢	-1576
▁介伕亶	-1577
▁仔代俇	-1578
▁亣傇	-1579
▁21	-1580
产什	-1581
▁伬仚	-1582
▁侰	-1583
亂仭	-1584
▁债	-1585
▁亚仌	-1586
▁仓	-1587
▁二争	-1588
im	-1589
伭传	-1590
▁仛任	-1591
▁be	-1592
代争	-1593
▁伌剢	-1594
▁仕僾	-1595
ul	-1596
▁or	-1597
▁侻	-1598
但伹	-1599
▁倲亡亯	-1600
▁59	-1601
▁佨仌	-1602
▁享予	-1603
▁侫偂	-1604
伦了	-1605
仌仭	-1606
侔事	-1607
▁佚佛	-1608
▁仐亩	-1609
佚二	-1610
▁偒	-1611
▁亊仲争仳	-1612
佚仌侤	-1613
侍仇	-1614
▁亣亩	-1615
▁佷事	-1616
偅仇	-1617
▁亖俴俵	-1618
伥儮	-1619
▁0.	-1620
▁伸仅	-1621
▁re	-1622
▁1,	-1623
▁N	-1624
▁傸	-1625
▁估侒亥	-1626
亐仌仦	-1627
ut	-1628
亃争	-1629
▁冿净	-1630
▁仙亜咁信事	-1631
▁伸亡代仅	-1632
仌仪亚什	-1633
id	-1634
俶俷佳	-1635
▁傾倣亡	-1636
亙伭	-1637
亠佼亥什	-1638
▁亢仠	-1639
4,	-1640
▁仹佭俶俷亡	-1641
▁佋偩井	-1642
偉亳	-1643
▁傮亠佼亥什	-1644
▁亢佌	-1645
▁伸侉	-1646
▁D	-1647
▁佋亜	-1648
▁亜仅	-1649
▁亲仉仇	-1650
伸仅	-1651
仦亶	-1652
▁介仐	-1653
▁争亊	-1654
亣佋	-1655
▁亍伸	-1656
ag	-1657
▁亮亯	-1658
▁二亏亮	-1659
5,	-1660
佌亳	-1661
▁偱偔亡	-1662
od	-1663
▁仐亳代仅	-1664
▁仔于	-1665
▁仭	-1666
▁!	-1667
▁介伕	-1668
▁儂	-1669
▁W	-1670
▁介佛	-1671
▁仐伌	-1672
予仌	-1673
傋仠	-1674
▁亖亸	-1675
ct	-1676
▁佚仇	-1677
▁倐值	-1678
▁亽佫	-1679
令二	-1680
倪佼	-1681
▁亖亓	-1682
亼亡	-1683
ist	-1684
亓仍	-1685
7,	-1686
佃伅	-1687
▁仛亡	-1688
▁传亣	-1689
▁予亰予	-1690
▁亢仂亚	-1691
▁休	-1692
▁亥倐	-1693
▁伟	-1694
▁R	-1695
▁仙代	-1696
伫仓	-1697
▁亇亙	-1698
▁亣令仲	-1699
▁侧克	-1700
▁兟	-1701
▁于	-1702
▁仔代	-1703
▁仔佡	-1704
▁刌	-1705
佤二企	-1706
▁党	-1707
仅伹	-1708
▁俪	-1709
亡仼	-1710
▁僬咄侐	-1711
▁伙仂	-1712
▁互伱	-1713
▁亖亳亯	-1714
▁22	-1715
▁仍卫	-1716
▁23	-1717
▁亓仦伥儮	-1718
倠佼	-1719
▁佃倲	-1720
侍亜	-1721
▁偉	-1722
▁仏佈	-1723
▁仼亡冎仅	-1724
仯仓	-1725
▁亃仦偈佋	-1726
仇亶	-1727
▁些仌仭	-1728
▁仲	-1729
伥仳	-1730
▁佋侍亜	-1731
▁伨	-1732
伙仅	-1733
▁伙仂什	-1734
▁for	-1735
▁借	-1736
▁俉仅亥	-1737
▁The	-1738
▁仸仆俔	-1739
▁仍咯	-1740
▁亜偂	-1741
▁仯亰	-1742
▁佃倲亼	-1743
亾付	-1744
▁众交亱二	-1745
▁仐俐仐俗仅伟	-1746
予亥	-1747
▁倦仼	-1748
▁俕仅	-1749
10	-1750
▁兾	-1751
▁侁亊	-1752
▁俤亐仌仦	-1753
争亏	-1754
▁亐仦	-1755
▁仚亂伪	-1756
▁亽亏	-1757
▁亢争	-1758
▁k	-1759
▁仐令事亢仠	-1760
仌亮	-1761
亱伹	-1762
▁v	-1763
倚二	-1764
▁亖亰亓	-1765
▁二佲	-1766
6,	-1767
▁仆仇二	-1768
▁侶	-1769
▁仵	-1770
▁亢仯	-1771
仧亮	-1772
任仓	-1773
儆亳	-1774
▁倃伈	-1775
iv	-1776
▁仢付亜	-1777
▁仍卫亶	-1778
▁亮亶	-1779
ia	-1780
▁亂仓仌	-1781
▁亚伟	-1782
▁儖	-1783
3,	-1784
事仓	-1785
仠仯佳	-1786
▁亩兂	-1787
予俍	-1788
俉亚什	-1789
▁互伙亳	-1790
▁信刾	-1791
▁伸侻	-1792
▁争佚佳亜	-1793
亂仭亥	-1794
▁仼争劇	-1795
佚位亳伖仇	-1796
▁亍价	-1797
▁伸仅二	-1798
ra	-1799
▁以儰	-1800
▁傰	-1801
▁亖冦	-1802
▁冐仂僟	-1803
▁似偝	-1804
▁亽仲亮亶	-1805
▁亽佫亚予	-1806
▁僓介	-1807
▁倝	-1808
▁会予倂仓俷佳	-1809
▁亖佲	-1810
▁亚于令	-1811
▁亯侙仼	-1812
仔偖凈	-1813
▁G	-1814
似代	-1815
來亳	-1816
ch	-1817
勮仚亾	-1818
▁伻亰	-1819
▁争佚二	-1820
侨内	-1821
▁冺	-1822
▁亷儿	-1823
仛亢亡	-1824
兙亡	-1825
▁佋低侨内	-1826
▁仛事亚	-1827
倲件	-1828
▁亖侹刣	-1829
▁亩偑	-1830
亩亚什	-1831
伜亜保二	-1832
▁傛住	-1833
▁亓亨	-1834
▁亚仒	-1835
em	-1836
▁亽亡	-1837
ow	-1838
▁仸伸	-1839
▁亖俵佃亶	-1840
▁兕	-1841
▁仔但俣	-1842
▁1.	-1843
▁倲侬	-1844
▁仔令仅	-1845
▁佚仚仄	-1846
▁仐佋	-1847
▁兼	-1848
▁亜众井	-1849
亣仅亥	-1850
▁仯亯亼亡	-1851
佚伙	-1852
▁伍伎亥	-1853
▁40	-1854
▁|	-1855
侍仧亡	-1856
▁传來俷佳	-1857
偖仐	-1858
▁亐亚亚	-1859
▁儫	-1860
仠仌侤	-1861
▁冕	-1862
▁亻侌	-1863
亣仅亰	-1864
▁俌	-1865
▁亽仐	-1866
▁亊佋	-1867
▁佋伥冄	-1868
▁僜來	-1869
▁享倘仪	-1870
▁俺仌	-1871
▁冓區亡	-1872
▁代儯争	-1873
▁仔侏俑	-1874
▁亖仅	-1875
二亏亞佼	-1876
▁但冁	-1877
偖俉仅	-1878
亱事亭	-1879
亓争	-1880
▁亖亢	-1881
▁介亶	-1882
▁伸休伦傡伿佼仓	-1883
▁亵俌	-1884
▁E	-1885
侞傚	-1886
▁亽亞	-1887
▁仙仇	-1888
ig	-1889
▁L	-1890
22	-1891
仦事	-1892
▁偰	-1893
仌仅但二	-1894
▁仛侕亡	-1895
位俫佳	-1896
▁仼亣亜二	-1897
50	-1898
▁仒们	-1899
仌仅二	-1900
▁亽侻	-1901
um	-1902
▁亍代僤	-1903
凷亡	-1904
▁亚亢亓	-1905
▁仌仅亓	-1906
▁交	-1907
亢伥	-1908
▁二亏亮亥	-1909
亰亳	-1910
仍二	-1911
▁倫余	-1912
▁似偝似代	-1913
亢仓	-1914
伓僺	-1915
▁仙倨	-1916
▁仐儲	-1917
▁凁亂	-1918
▁as	-1919
▁但儶倇	-1920
仇予	-1921
仌产	-1922
▁亃仠	-1923
▁26	-1924
儆佳	-1925
儆亡	-1926
▁28	-1927
亡亳	-1928
▁亩二仌	-1929
▁仐令伟	-1930
▁2009	-1931
▁仛亜	-1932
侕亭	-1933
▁儨偍	-1934
▁佌佻	-1935
▁亇凹	-1936
▁伂	-1937
▁函	-1938
▁亖仄傫仇	-1939
ce	-1940
▁俢侻	-1941
亡亓	-1942
▁仈偗亳	-1943
▁仒们仯	-1944
▁介争亜偖债亥	-1945
▁伍亚予	-1946
伌佯	-1947
佋亭	-1948
ly	-1949
▁仔侔事	-1950
ter	-1951
▁俊仂	-1952
▁佌偧	-1953
享亚	-1954
ir	-1955
▁仌俀	-1956
▁偄	-1957
▁亖仫	-1958
▁刔净	-1959
亏亱	-1960
▁佚亴	-1961
▁啓	-1962
侨伸	-1963
▁亃侬	-1964
▁冐倏	-1965
凭亡	-1966
▁侨凼	-1967
▁亚于令予仌	-1968
▁侞倷亶	-1969
▁代俇予俍	-1970
▁勼	-1971
事二亏	-1972
価亶	-1973
▁27	-1974
▁俉佈	-1975
▁亢仦亚	-1976
倘偉亡	-1977
▁仢俷	-1978
兡仇	-1979
▁俈仞	-1980
▁亓俴	-1981
▁俼	-1982
▁侞亨	-1983
仌争仳	-1984
▁偖债亥	-1985
伙亚什	-1986
11	-1987
▁傞	-1988
仳仍	-1989
位仉	-1990
▁亩剜	-1991
▁仹伭	-1992
▁亖仌亂债	-1993
▁亂争伪	-1994
▁仢亃于交侕亡	-1995
保二仇	-1996
▁伓侹	-1997
▁佭仓	-1998
▁傒冓	-1999
▁仛事仪亚什	-2000
僝佼	-2001
▁亖云	-2002
▁伋仂亥	-2003
佚儢	-2004
▁仐俗俘	-2005
佚位俫佳	-2006
▁僫	-2007
亩二	-2008
仠亶	-2009
▁仢代	-2010
ith	-2011
亏产	-2012
▁仔侏前	-2013
▁佌仌	-2014
▁伇些	-2015
▁侧亰	-2016
佌仓	-2017
▁二亳	-2018
▁仙偰	-2019
▁令儊	-2020
亅二	-2021
亵亶	-2022
▁二佧	-2023
仦二	-2024
予仍	-2025
什冂	-2026
▁俀亙仅	-2027
▁an	-2028
▁凊侻	-2029
▁僁佤亰	-2030
▁俕仅佄	-2031
▁仛佌	-2032
▁伬侨伸	-2033
▁佌佻伦了	-2034
佝余	-2035
▁仉	-2036
▁亊偩俴	-2037
24	-2038
▁佋佇	-2039
争企	-2040
▁亖产倲件	-2041
▁亢伥	-2042
▁今佈	-2043
▁倨倇	-2044
亐仓	-2045
▁仛亊亡	-2046
冪亡	-2047
▁仐令事二亏	-2048
事亃	-2049
佋仅	-2050
倦二	-2051
▁亽仅	-2052
▁個	-2053
▁以亭	-2054
▁51	-2055
亭佼亥	-2056
▁倎伭伹	-2057
▁以仌	-2058
侞伭	-2059
▁on	-2060
偂仂	-2061
▁仛伹	-2062
un	-2063
亜亾	-2064
來仅亰	-2065
仌亞	-2066
仼仓	-2067
俫亡	-2068
▁亖偗亳	-2069
▁令二仌仦	-2070
▁俈俪	-2071
传伹	-2072
▁仔产伸	-2073
仄亚	-2074
21	-2075
▁剥剦	-2076
▁2008	-2077
▁仇亯	-2078
仕僾	-2079
伸仓	-2080
仠亥	-2081
▁F	-2082
仄仅亰	-2083
亃代	-2084
▁2.	-2085
位亳伖仇	-2086
▁佋伥冄債	-2087
▁亽亥	-2088
▁仹亳	-2089
▁似代仓	-2090
▁亖伳侎	-2091
▁伋仂亚	-2092
佋仄	-2093
▁仈偖	-2094
▁仅亥	-2095
佃亥	-2096
▁仦亂	-2097
▁凊予侻	-2098
▁伵	-2099
侻偿	-2100
佼亰	-2101
▁仙仚亾	-2102
亵俌	-2103
▁亖僥	-2104
▁二亏争	-2105
亗亭	-2106
▁亷佥	-2107
▁亽匐	-2108
▁仛任俢	-2109
亃予	-2110
仴仵	-2111
▁亓俜	-2112
▁仼二	-2113
▁二伭	-2114
▁亜厹	-2115
▁予亱佭	-2116
▁仔代俇二	-2117
▁st	-2118
仌佝余	-2119
伤亚什	-2120
▁侺仌伥	-2121
▁似偝似代仂	-2122
▁伙亣事仳	-2123
▁俭修	-2124
▁亂争	-2125
▁令仅	-2126
▁亷候	-2127
▁亲仪	-2128
▁亽侂	-2129
▁僣	-2130
▁亖佋仓	-2131
▁亲伭	-2132
伙亡	-2133
▁亩亡	-2134
▁以伫	-2135
▁亃仦伸	-2136
▁仮仯仅亥	-2137
▁仕倮	-2138
▁仢俬佋	-2139
亾儠	-2140
▁冠	-2141
侻亭	-2142
her	-2143
▁仛俰仇	-2144
來仅亾	-2145
亃倌亥亰	-2146
▁仔俴	-2147
▁仙仚亥	-2148
▁仢伸	-2149
▁亚亨伥仳	-2150
伙仅亰	-2151
俜倷	-2152
▁侁俵	-2153
▁偀傱	-2154
▁刐	-2155
▁仐切	-2156
▁偭	-2157
▁亍仌冂亮亥	-2158
▁予众	-2159
▁偆勴	-2160
19	-2161
▁倎仂	-2162
▁亃亝	-2163
▁亏仳	-2164
▁亂享	-2165
▁伥偏	-2166
亜亶	-2167
▁亽佗	-2168
仌儢	-2169
▁刭	-2170
仵亦	-2171
▁伭伉	-2172
▁仐亳代	-2173
th	-2174
op	-2175
▁亖伱仦予	-2176
▁佚仅二	-2177
侍俪仇	-2178
▁伢	-2179
▁以从予仅亥	-2180
佋仳	-2181
仛事	-2182
▁亖俴俵予	-2183
▁仔介伜	-2184
▁仿亩仓	-2185
▁凋	-2186
▁争亂仅	-2187
▁仢仴仵	-2188
▁倏	-2189
▁仐亢亦	-2190
▁亐亚什	-2191
▁亃偿佲	-2192
▁似代仅	-2193
伎代	-2194
av	-2195
仧仅亚	-2196
2,	-2197
▁兽	-2198
▁亣令仲亚	-2199
▁伇些产予	-2200
偖刭	-2201
▁亽亮	-2202
佫仓	-2203
▁wh	-2204
▁予亰侫	-2205
▁亃仦亩	-2206
30	-2207
▁亩倔	-2208
佗仓	-2209
▁亚伣伪	-2210
▁亖亢僰	-2211
▁佸亶	-2212
▁仌亮亏	-2213
冿仌仦	-2214
亳亾	-2215
▁仢冂	-2216
▁亃仇	-2217
▁偙争	-2218
▁亃佛	-2219
▁伌仌	-2220
▁倲克	-2221
亏仍	-2222
▁仙佚伙	-2223
▁二伜	-2224
冢冣	-2225
▁29	-2226
▁凁亂亾儠	-2227
▁2007	-2228
伤从	-2229
▁仆亐	-2230
▁亶亚	-2231
佤仳	-2232
倒仇	-2233
▁亾亩亡亳	-2234
亡仄仓	-2235
亯仓	-2236
倐俺	-2237
▁亖亰亍	-2238
os	-2239
圫兆	-2240
▁亚傯做	-2241
亂仅亰	-2242
▁仈亜亳	-2243
▁亣仒	-2244
▁佃俞	-2245
▁傶	-2246
俉从	-2247
ers	-2248
▁仌争仩	-2249
ak	-2250
▁伇仔亐	-2251
▁亽亓	-2252
仛但	-2253
侻企	-2254
▁伍伎	-2255
亢代	-2256
▁亓伌	-2257
仌争伪	-2258
傭亡	-2259
▁佋亰	-2260
▁僢	-2261
▁仐偊	-2262
▁厄	-2263
▁係	-2264
佳企	-2265
▁予仓	-2266
▁侣但	-2267
亢亮	-2268
▁亩侻	-2269
▁亃仦众	-2270
▁俑仯佴亥	-2271
側佼	-2272
亓仦	-2273
▁併	-2274
仠儢	-2275
億亚	-2276
28	-2277
▁亾俅偶	-2278
仍仅亰	-2279
▁仔代卂	-2280
▁亮亏	-2281
▁亽但伹	-2282
▁予二	-2283
任亥	-2284
仍亳	-2285
▁俲佪仔偖凈	-2286
▁亖佳二偂仂偞	-2287
▁亃仦佚	-2288
僢企	-2289
仌倐俺	-2290
亂从	-2291
▁仆俔仇	-2292
▁儥	-2293
▁代佢伤	-2294
▁亽仲争亃	-2295
仚亡	-2296
23	-2297
▁亶亱	-2298
▁亖仃	-2299
▁似代侻	-2300
▁俜仠仌	-2301
▁仛亊亳	-2302
亣仅亾	-2303
▁亍偰佈	-2304
▁亏佋	-2305
▁佋件	-2306
▁仌亡亓	-2307
仂伿	-2308
俫亳	-2309
▁亖仠	-2310
▁偁代	-2311
▁伌亏	-2312
▁冟	-2313
▁仌俰仇	-2314
▁亖侹事	-2315
亂亡仓	-2316
▁傛亭	-2317
▁亽亴	-2318
▁with	-2319
予亞	-2320
亡仅	-2321
▁K	-2322
位低	-2323
仌伧	-2324
伎仚	-2325
▁亖亰亍仲	-2326
▁仆代	-2327
▁亣剤	-2328
▁仑关	-2329
▁仛亣	-2330
▁傋代亡	-2331
▁传休	-2332
仠亃	-2333
▁亯伭	-2334
▁介争亜偖俑	-2335
▁侎兟	-2336
▁亜伹偿	-2337
予仦	-2338
and	-2339
▁倫仚	-2340
▁亚伣仳	-2341
▁亷偗	-2342
伤仅亰	-2343
▁亥亃	-2344
▁佯	-2345
兙亳	-2346
▁亖仌亓亮	-2347
侻傿	-2348
▁亊单劊	-2349
侍佚	-2350
伙仂	-2351
▁咰	-2352
伓冇	-2353
仌倷	-2354
亇予	-2355
▁仐伭	-2356
伟余	-2357
二亏亞	-2358
仧亱	-2359
伹仅	-2360
▁亍個仓	-2361
▁円	-2362
▁2010	-2363
▁争佲仳	-2364
仧凂	-2365
▁亽佌	-2366
▁偯	-2367
▁100	-2368
亢从	-2369
▁亩侍仇	-2370
▁亲仠儢	-2371
偢予	-2372
▁传养	-2373
仕产	-2374
▁儍仓	-2375
亣令	-2376
佚位亳	-2377
佤冰	-2378
▁傒亜二	-2379
▁伥仦	-2380
倦仼	-2381
ab	-2382
▁仢哙	-2383
▁倦侭	-2384
▁予付	-2385
ik	-2386
众伭	-2387
▁仔偖债	-2388
▁亃仦亏	-2389
侨停	-2390
▁传亱	-2391
亰仅	-2392
▁冐倏僟	-2393
▁佤	-2394
ind	-2395
▁予井	-2396
亂俑	-2397
▁佲	-2398
▁2006	-2399
仠侳	-2400
▁勸	-2401
▁仐佤伟	-2402
▁侎兟二	-2403
▁倲代	-2404
倮伹	-2405
▁亃仦予	-2406
▁佋件來	-2407
▁儡	-2408
▁35	-2409
--	-2410
▁位低	-2411
▁侁伸争	-2412
▁60	-2413
▁以亯	-2414
▁仈亜亚	-2415
▁侚亱佈亶	-2416
俑二亏	-2417
仿亩亚什	-2418
▁介偿	-2419
▁仐佋俇	-2420
俁仓	-2421
▁by	-2422
▁以仅	-2423
▁信任俢	-2424
剑仳	-2425
▁倡亚予	-2426
▁仞凷亡	-2427
▁31	-2428
▁二伧	-2429
亶从	-2430
仍二亾	-2431
▁佒僢企	-2432
▁令仦係	-2433
▁亯亡	-2434
▁傃	-2435
▁仌仇	-2436
▁亓亩侏	-2437
▁亖亜亳	-2438
伙事	-2439
仲仓	-2440
亢亱	-2441
▁亖做仇	-2442
亊亡	-2443
▁亖叧	-2444
▁予傑	-2445
▁亣劊	-2446
▁予像	-2447
▁偖俉仅亥	-2448
偖仌	-2449
▁侴	-2450
▁仐仓仌	-2451
▁傹	-2452
▁亣僆	-2453
▁侺产佀佃亶	-2454
▁圫兆	-2455
▁亚事促	-2456
介争	-2457
伍亭	-2458
▁享仄	-2459
▁佺冿仌仦	-2460
▁亾俅伓	-2461
▁僼	-2462
▁佌则	-2463
▁予億亚	-2464
伊代	-2465
▁亃仦刭	-2466
▁亂争仳	-2467
▁亶亡	-2468
▁佚仇仐	-2469
8,	-2470
▁仞什冂	-2471
亜予	-2472
仵伥	-2473
▁卅	-2474
▁予傑仓	-2475
ub	-2476
▁侎亮傍	-2477
▁仔伢儼	-2478
佼亾	-2479
▁儤仅	-2480
▁佭仓侕亡	-2481
伜佈亶	-2482
▁倫亜	-2483
▁二仌	-2484
▁亽仅事	-2485
仧事	-2486
▁伳	-2487
▁僻仯	-2488
▁侏亡俑二亏	-2489
▁咰俖	-2490
▁俺仐亜	-2491
▁亩俩	-2492
▁亚亨侮仧亡	-2493
▁佀伭于	-2494
佭事亭	-2495
▁伋争	-2496
▁亖亃	-2497
俰偉亡	-2498
ric	-2499
▁佒体伭二	-2500
▁以佳	-2501
们伹	-2502
▁俙仠仄	-2503
40	-2504
▁仅匛	-2505
▁侣仠	-2506
▁仗剰	-2507
▁似亙僔付	-2508
仠亞	-2509
▁亖亙	-2510
▁伸休伦傡伿佼	-2511
亏亜	-2512
▁佋佗亣	-2513
▁仔俶亜	-2514
▁产亡亯伓佧	-2515
▁予亱佄	-2516
佲亭	-2517
▁侢代	-2518
▁令亏	-2519
▁侮倇	-2520
▁佭亱	-2521
▁伙侻予	-2522
▁仔侏俑倲	-2523
代仌	-2524
▁仔亂债	-2525
▁亊偩兩	-2526
▁停	-2527
▁呮	-2528
▁令亡仼	-2529
▁仩伭二	-2530
▁侎倬	-2531
▁伥亰	-2532
▁仐偖刭	-2533
亾仅亰	-2534
倣亞	-2535
亢仦什	-2536
▁伸亜	-2537
▁佸二	-2538
▁亜争仗	-2539
▁伙事予	-2540
予亜	-2541
▁倡匑	-2542
▁佒众	-2543
侍仧亳	-2544
仚亶	-2545
▁仔伤	-2546
▁侞令	-2547
▁仔仹倃亥	-2548
▁仐伌兊	-2549
9,	-2550
▁介偒	-2551
传做仇	-2552
▁亜二亾	-2553
▁俉勦	-2554
佳予	-2555
▁令侬	-2556
代争仳	-2557
▁倫佭	-2558
ate	-2559
▁倎匦	-2560
仠仍	-2561
佳亭	-2562
",	-2563
▁先亶	-2564
僦仇	-2565
▁亵仚仅	-2566
▁亓冘	-2567
亃争保二	-2568
▁偋	-2569
▁con	-2570
▁伌侟	-2571
▁仆仚	-2572
侟二	-2573
▁亚于令予仌剜	-2574
仃亳	-2575
▁仐仲伎	-2576
▁仔仲伎亶	-2577
▁亽亐	-2578
▁二亸	-2579
▁伓佶	-2580
▁令冤仧亳	-2581
▁亍伸俔	-2582
冰仓	-2583
伪亶	-2584
▁亣仌	-2585
▁亃仦冯佶	-2586
▁吁侨	-2587
▁仒产	-2588
▁勺偧	-2589
▁亚亣	-2590
▁2,	-2591
▁仐冼	-2592
伹仅亰	-2593
▁仛事位俠仇	-2594
pl	-2595
▁亽事二亾	-2596
▁V	-2597
▁作	-2598
▁仔信	-2599
▁亷侬	-2600
▁产亡亃产	-2601
▁亢俖	-2602
▁亢仂亥	-2603
▁兵	-2604
▁伻佤二企	-2605
▁亊亯	-2606
▁O	-2607
▁予凄	-2608
▁伌伈	-2609
▁众亱事	-2610
▁亖俷亳	-2611
▁仈亙伭	-2612
▁二仓亯	-2613
亚众	-2614
仠仅	-2615
▁亓亏	-2616
佌儱	-2617
▁亚仅	-2618
▁亖二亂	-2619
▁仢亃于亏	-2620
亚亓	-2621
pe	-2622
▁侺剢	-2623
亱什	-2624
▁予偝	-2625
▁亢仯仌争伪	-2626
▁亖僥位亡	-2627
亜亮	-2628
俄亠	-2629
▁亖伱仦予亭	-2630
亶佳	-2631
▁亍仌冂亣仓	-2632
▁俸佋	-2633
▁仛俯	-2634
▁亓伥令	-2635
佌仅	-2636
亏亞	-2637
▁令伸	-2638
▁亽亏冷	-2639
俤仓	-2640
▁仢亐伥争仳亾	-2641
仩亡	-2642
仅亥亰	-2643
▁凋予	-2644
▁伇冲	-2645
▁佚亙	-2646
▁侧亰予	-2647
▁僑佗仓	-2648
▁亃偎	-2649
▁亲伅	-2650
▁俈佛	-2651
▁優	-2652
▁侧仓仌	-2653
充亞	-2654
ver	-2655
▁伸侻仓	-2656
▁亚亨偩	-2657
▁亚冾仞二	-2658
▁佰	-2659
▁仸仹亥	-2660
▁亣俌	-2661
▁亓伊仹亥	-2662
争仓	-2663
▁亃亨仍	-2664
▁190	-2665
▁佒亳	-2666
▁亾亩刊	-2667
▁2004	-2668
aM	-2669
▁办	-2670
1,	-2671
▁剻	-2672
侑佼	-2673
▁36	-2674
伛保二	-2675
▁亇凹亝	-2676
亓仐	-2677
▁价二	-2678
传佳二	-2679
▁亃仦俵亥	-2680
侍仛	-2681
仅亥亚	-2682
▁俆伧	-2683
▁亍偶依	-2684
▁仙代仦	-2685
▁佚凿	-2686
伸亡	-2687
事保二	-2688
事企	-2689
亐亡仓	-2690
▁倫仚佃伅	-2691
rom	-2692
▁亽匐亂	-2693
▁亐伭	-2694
▁仐佶	-2695
▁亍代僤亶	-2696
▁亖亡	-2697
▁191	-2698
仃仓	-2699
▁予卤	-2700
佭二	-2701
▁兑	-2702
亳們	-2703
25	-2704
▁佒予	-2705
▁争儱	-2706
▁亚侏	-2707
佀佤亭	-2708
▁僔付	-2709
伫从	-2710
▁亖亜亚什	-2711
▁亚仌傂	-2712
▁仿佋仍亥	-2713
亊傿	-2714
▁但亼	-2715
ap	-2716
予保二	-2717
仅伻	-2718
刢亳	-2719
▁伭仐	-2720
▁僽争	-2721
▁仈偂仂偞	-2722
▁al	-2723
▁亽亓俒	-2724
▁争亊事二	-2725
▁亯偛	-2726
仯亚什	-2727
▁俉冨侏俬	-2728
▁今佈伶	-2729
▁亽仇伫	-2730
▁伭伉位亡	-2731
▁亂位低	-2732
▁侁亍	-2733
▁仐亚于亏	-2734
▁亣匮	-2735
▁仼二亡	-2736
伍佳	-2737
亩仓	-2738
仰傒	-2739
▁勨	-2740
▁仢付仇	-2741
▁亷刋亳	-2742
▁仁几	-2743
▁亲偉亡	-2744
佚偉亚什	-2745
▁仜	-2746
▁俏予侍	-2747
▁仅亰	-2748
▁偖亢仅伟	-2749
▁亖亰仩	-2750
▁凘	-2751
▁二争傂	-2752
侍仗	-2753
僵佼	-2754
俵亜	-2755
if	-2756
▁亽佗争	-2757
▁亃任	-2758
▁仢仴仵亜	-2759
▁伇冲产予	-2760
亚伟	-2761
▁亖仭	-2762
▁凊侻伻	-2763
俢侻	-2764
▁that	-2765
▁倎伭	-2766
▁亍仯	-2767
▁亽俵	-2768
▁侧划	-2769
▁僧亸	-2770
▁吁亚仌	-2771
▁二仌仅	-2772
▁亚仌但	-2773
▁佋佇任	-2774
▁仐亴	-2775
▁仇俑	-2776
▁倲仦	-2777
▁亽佚	-2778
ill	-2779
▁偆勴位亡	-2780
伙亣事仳	-2781
▁it	-2782
傭亳	-2783
▁亚伟伶	-2784
▁45	-2785
▁仦亃	-2786
▁仔但偧	-2787
侏事	-2788
二予	-2789
仌亮亥	-2790
▁俲俳	-2791
▁亩仦	-2792
▁侏仅	-2793
▁仮亜	-2794
▁佋傠	-2795
亾俷亳	-2796
▁伍佳亥	-2797
▁仹侻	-2798
▁37	-2799
▁com	-2800
仸亃	-2801
▁二伜位亡	-2802
▁亶仦	-2803
▁亃偧产	-2804
▁估侒亾	-2805
▁亣但二	-2806
▁亖伙	-2807
佚亶	-2808
亊仦亶	-2809
▁伸仉	-2810
▁倿	-2811
▁伙佋	-2812
▁伸偘	-2813
侁価亶	-2814
▁仈予	-2815
▁2005	-2816
▁亓佋伟	-2817
▁噃	-2818
傟亠	-2819
▁伱代	-2820
▁佚亴仌倷	-2821
▁亓亩僜	-2822
▁二仓亯亡	-2823
予伫	-2824
▁予勵	-2825
仠仓	-2826
▁伙亳	-2827
▁令事	-2828
▁仢俷亳	-2829
代亞	-2830
▁佚偝	-2831
亾俷亡	-2832
▁佭仓仌	-2833
▁佋偩井仅	-2834
亶亳	-2835
▁仙倨亂	-2836
▁2014	-2837
▁佋亚	-2838
仌仅但	-2839
▁仔令仅亾	-2840
▁匍	-2841
亐从	-2842
▁33	-2843
▁仹亳亏	-2844
▁伃代亣伓僺	-2845
▁仙偰予侍	-2846
▁亽吊	-2847
▁亍伍	-2848
▁享予传	-2849
伜來	-2850
▁2013	-2851
▁亃亣	-2852
▁介佤亥	-2853
▁仐儐	-2854
▁伒仚	-2855
▁倇从	-2856
all	-2857
仐亶	-2858
亾伻	-2859
▁仹仒	-2860
est	-2861
仌侤亰	-2862
佚位伭	-2863
▁二俜	-2864
▁亂什	-2865
▁俢刽	-2866
▁俺仐佈	-2867
▁匎	-2868
▁呕	-2869
▁3.	-2870
▁亚冾仧亡	-2871
▁侏亓仐	-2872
▁亖亰佋产	-2873
▁函产予	-2874
▁亜争仗亶	-2875
▁亵亏	-2876
俊了	-2877
▁俈南	-2878
▁仐兼	-2879
▁傂倠	-2880
俉勦	-2881
仅亥傒	-2882
▁亖佳伙	-2883
▁仐仵佗	-2884
▁予傜俉仅佼仓	-2885
▁亦	-2886
▁仡	-2887
▁伜仂仐	-2888
侻众	-2889
▁亷儿二	-2890
▁倦傠俉仅亥	-2891
▁亃争亩	-2892
仍亚	-2893
▁仐亳代住二	-2894
▁侎亮他仧亡	-2895
倘佧	-2896
佚享仚	-2897
▁侣作	-2898
▁2000	-2899
亢仅亚	-2900
佳伙	-2901
亊亳	-2902
令亩	-2903
▁侏代	-2904
▁俱	-2905
▁亍佌儱	-2906
▁争俪仞二	-2907
做亠	-2908
▁仦亂僰	-2909
▁兕产	-2910
▁促	-2911
▁位事侻	-2912
仌亚	-2913
res	-2914
▁亖亰伌	-2915
▁侢仇	-2916
▁仔于令	-2917
86	-2918
位仠	-2919
▁僳	-2920
▁令利	-2921
六亶	-2922
伸仂	-2923
众产	-2924
▁啘	-2925
▁亍仌冂争	-2926
亂亡亳	-2927
▁但亚亩亥	-2928
▁亍伌佯	-2929
▁仹佚	-2930
▁伸借	-2931
▁亴佋	-2932
▁代俉	-2933
▁仧仅	-2934
▁亚伟伶仳	-2935
26	-2936
▁亂佋	-2937
▁r	-2938
▁介仐俶俷亡	-2939
亢亝	-2940
▁二亏亞	-2941
▁亃仐	-2942
俶俷	-2943
▁亜偏仌亶	-2944
▁佋伎	-2945
▁亃偝伪	-2946
▁俉儤	-2947
▁亍代剺	-2948
ht	-2949
亃二	-2950
▁侎仲	-2951
▁争冚	-2952
▁189	-2953
亾仅亾	-2954
▁伝仪	-2955
▁俉亓	-2956
▁仈倏	-2957
▁亚仒亩	-2958
▁仔介仐	-2959
▁亍冲产	-2960
▁倫佭予	-2961
▁仌俩	-2962
亚伿	-2963
▁二凴	-2964
29	-2965
仰亚	-2966
▁仔偖	-2967
▁侧仓	-2968
予侍仞	-2969
▁he	-2970
仪从	-2971
▁仢俬亣	-2972
▁伻侜	-2973
▁億	-2974
佄仼	-2975
▁亓从	-2976
".	-2977
▁仐亂	-2978
▁亃任仼	-2979
亃亞	-2980
▁{	-2981
▁J	-2982
▁俆仓亯亥	-2983
▁伷争亃	-2984
▁at	-2985
俐争亣仄	-2986
▁俪亜	-2987
亾伭亶	-2988
27	-2989
▁亃兙	-2990
▁仍亚	-2991
俑俒	-2992
▁仄付仐	-2993
▁亏仌	-2994
▁亾仅	-2995
▁仔侕	-2996
▁予亚佭俰仇	-2997
亓亭	-2998
▁亷俾	-2999
▁仗侬	-3000
▁de	-3001
▁亖亂	-3002
▁亍冲亜	-3003
▁亖偗	-3004
▁偄亱	-3005
佚佝余	-3006
▁令儊亼	-3007
亃亚	-3008
予争保二	-3009
▁冄	-3010
伜亶	-3011
▁亖伎亜亮	-3012
▁伌剢仓	-3013
▁伻亃	-3014
▁佚亚	-3015
▁倇亚亥	-3016
▁予勵侻予	-3017
仭伅	-3018
仍仅亥	-3019
▁佇	-3020
▁佨佲	-3021
▁伒俔仇	-3022
▁凁亣	-3023
▁倎亜	-3024
▁佌偣亥	-3025
▁80	-3026
円侐	-3027
伓佳	-3028
▁侏事	-3029
▁侨停仓	-3030
▁仌傯	-3031
▁倐俺	-3032
伓仚	-3033
偶佶	-3034
▁亓亏佧	-3035
▁仐刃	-3036
仦倏	-3037
ant	-3038
亶仦	-3039
▁亝亃	-3040
▁亽伀	-3041
介佤	-3042
▁僬产	-3043
仄亰	-3044
仗亾俷亡	-3045
亜佋	-3046
▁倲偝	-3047
▁佋佫	-3048
▁was	-3049
優二	-3050
▁亚侨	-3051
▁仌仇亱	-3052
▁仐亩伙	-3053
亽亞	-3054
80	-3055
亐仅	-3056
▁are	-3057
▁予仅但	-3058
▁亣傐亥	-3059
亣佳	-3060
▁亖亓仓	-3061
亣亭	-3062
▁亚啖	-3063
▁伡傢亶	-3064
事亠	-3065
▁亜亡亢产	-3066
▁亂亱	-3067
▁佁佋	-3068
▁仹仧事	-3069
▁侁亊仓	-3070
亐亚	-3071
▁亢仦亥	-3072
佌侻	-3073
▁from	-3074
▁伌俒	-3075
卪仚亾	-3076
▁亯亡仄	-3077
▁刄	-3078
俢亍	-3079
▁亲仠仌侤	-3080
俉允	-3081
▁亊傿	-3082
▁伸亱	-3083
▁仔事倴	-3084
伹伶	-3085
僩円侐	-3086
▁亍倩亥	-3087
凪僩円侐	-3088
▁伸仅亾	-3089
亸僺	-3090
代匰	-3091
▁亃仦佚伟	-3092
享予	-3093
▁仛亡亾	-3094
▁仞俹亥	-3095
▁亜內	-3096
▁亽亾	-3097
▁仛争	-3098
▁以凪僩円侐	-3099
▁便	-3100
60	-3101
▁亖亰亓侍仞	-3102
▁偖俉	-3103
亶亚什	-3104
▁仔儕	-3105
仍亥亚	-3106
▁伜侻	-3107
▁倡亚	-3108
二仌	-3109
▁亂事	-3110
▁亖俵亂仦	-3111
▁俆仓任	-3112
▁佚兂	-3113
▁予优仓	-3114
▁偶亶亡	-3115
▁似代仅亯	-3116
▁俈凂	-3117
ain	-3118
▁亓仍傢	-3119
▁亩倳	-3120
ich	-3121
侻亞佼	-3122
仯仅	-3123
▁亏伭	-3124
▁冓厁	-3125
佋争	-3126
亡亥傒	-3127
▁劌	-3128
ud	-3129
來仅亥	-3130
▁仌勀	-3131
▁亍刜	-3132
▁冃	-3133
▁以亚众	-3134
▁亂什伙	-3135
▁像	-3136
▁亍仔亐事	-3137
佝亥	-3138
▁佋侹亥	-3139
▁勷	-3140
▁唗	-3141
亿亚	-3142
▁傩	-3143
▁仙俉仅	-3144
▁亣仄	-3145
▁冯	-3146
傲亥	-3147
▁ex	-3148
伖代亚	-3149
tp	-3150
▁偶亶	-3151
倘偔	-3152
▁介伕亥	-3153
▁倡佷	-3154
▁伸仦占	-3155
▁仌事傼	-3156
▁勿	-3157
令亞	-3158
▁仒偿	-3159
亊仓	-3160
▁仞俁仓	-3161
亶仅	-3162
▁俄二	-3163
▁亃代仐	-3164
仗亾亚	-3165
▁亃兀	-3166
▁以企	-3167
▁亏仌儺	-3168
▁侨停仅	-3169
oc	-3170
▁估侒亥亚	-3171
▁仆亐亡	-3172
▁位傼仓傻侏佧	-3173
▁70	-3174
予亭	-3175
▁喳	-3176
▁亃亜	-3177
▁亖亗亭	-3178
▁亷偂仌侤	-3179
se	-3180
▁伙事予俍	-3181
侺仌	-3182
候企	-3183
▁1990	-3184
▁劇	-3185
亓亞	-3186
享予传	-3187
ity	-3188
ary	-3189
▁仛仦	-3190
▁二凴仠	-3191
▁仈唸	-3192
▁亽亃	-3193
▁仞仌争	-3194
▁亖光	-3195
▁俑仯匌	-3196
▁佚仇仐二	-3197
▁仵侮	-3198
▁仈亙	-3199
▁侧偨	-3200
▁仅他俪仇	-3201
亳亶	-3202
亩仅	-3203
▁亻二亊佄	-3204
亂争仍	-3205
▁令冤仧亡	-3206
▁仐亣	-3207
▁亲仪亱	-3208
qu	-3209
▁亼仄	-3210
▁仔仕产	-3211
▁亂剈	-3212
▁俆亱事侴	-3213
▁亏佋儖	-3214
▁亖仄伖仇	-3215
俉冨	-3216
▁34	-3217
▁亽亴促	-3218
▁亚儊	-3219
▁亜伹亡仛	-3220
仗侻	-3221
▁侎仍	-3222
▁仮仯仓	-3223
儼从	-3224
▁佋亚倮	-3225
▁仛事位伭二	-3226
▁亻亰	-3227
▁侮仚	-3228
▁亼仂亚	-3229
▁仅佲仅	-3230
▁亖仌亓争保二	-3231
仠亭	-3232
啁二	-3233
▁傄	-3234
▁仢亃于亏亃	-3235
亚亢	-3236
亩亭	-3237
介伕	-3238
▁予儊	-3239
▁仈偂仂	-3240
▁仞凣	-3241
tion	-3242
▁仑侜	-3243
▁伙亾	-3244
亢亚什	-3245
亵亜	-3246
▁仌事任	-3247
佋二	-3248
▁亖亰仌	-3249
亱伿	-3250
▁佚仦伶亥	-3251
▁伻仅	-3252
▁亽伱亰	-3253
▁予众倏	-3254
▁佭伧仓	-3255
▁仌剜	-3256
▁俢仦予	-3257
亝亶	-3258
▁俛但二	-3259
▁se	-3260
▁亃亐侀	-3261
▁亚亮	-3262
▁倈仚亶	-3263
作仞	-3264
ars	-3265
▁伓亚亓	-3266
▁偱侦	-3267
▁亮伕亥	-3268
▁匝	-3269
偩亜	-3270
▁亽吊亱伹	-3271
▁亃仦亏入	-3272
▁交仦	-3273
▁仍仑	-3274
▁亖付仇	-3275
▁仐令事二亏亮	-3276
▁刘	-3277
亏兪	-3278
事仅	-3279
亂亚什	-3280
亢亯	-3281
▁伕亶	-3282
亂仦	-3283
▁亏佉	-3284
▁仔亢	-3285
▁伕亏	-3286
▁倇勎	-3287
仠亱	-3288
▁俉儤事	-3289
▁亖偡	-3290
▁伙仓	-3291
仦亥	-3292
▁仢亃于佄仞	-3293
▁倾	-3294
▁予亼	-3295
13	-3296
予仐	-3297
▁儤仓	-3298
▁pro	-3299
▁亃兤	-3300
儲仑	-3301
▁以予	-3302
亃亮亶	-3303
▁亊俥俪仇	-3304
▁仙仯	-3305
▁亶事	-3306
▁亃仐伶	-3307
▁傋亜亵仇	-3308
▁亣佲	-3309
▁佋佈	-3310
▁佁仐	-3311
仅伹仓	-3312
伥二	-3313
偗冪	-3314
▁亚剹	-3315
▁仔傤佃亶	-3316
▁亂佛予伫	-3317
亃伭	-3318
▁亽亣	-3319
▁以凚	-3320
▁伇儸	-3321
▁亓匉仓	-3322
▁亖佋亣	-3323
佂佼	-3324
亓伊	-3325
▁代俇亾亳	-3326
▁任口	-3327
亜仅亰	-3328
▁仌侤	-3329
▁仿伊	-3330
▁仮仯仰	-3331
▁&	-3332
以侐	-3333
▁亂仅亼	-3334
▁倮	-3335
▁亃亚仛俉亳	-3336
▁亲仉仐	-3337
▁侞凲	-3338
▁俢亡	-3339
▁侎倬冈	-3340
▁卡	-3341
▁争佚二仓	-3342
倘伅	-3343
▁予仓仼	-3344
▁亓仅	-3345
仗亻	-3346
▁佚仅二仞	-3347
▁债予	-3348
亚事亭	-3349
亡亚	-3350
▁佨亢	-3351
伙优	-3352
▁4.	-3353
▁仐亩伙偈	-3354
▁亜仇	-3355
end	-3356
余伸佧	-3357
▁仏偍	-3358
債佼	-3359
▁亂厲	-3360
▁仆亐亳	-3361
倐侻亥亰	-3362
ess	-3363
70	-3364
▁仐亢伥	-3365
▁佳	-3366
▁僴	-3367
▁二亢	-3368
仄亶	-3369
偓亶	-3370
仗亻亚	-3371
▁侎仲亪	-3372
▁仍倩亵俌	-3373
▁偼亭	-3374
▁佒体俠仇	-3375
▁仔事喋	-3376
▁亃侗	-3377
▁仧仦伶	-3378
▁伊侻偘	-3379
▁仐亃	-3380
▁僎优	-3381
▁亖倵	-3382
▁億估	-3383
▁偙争仍亥	-3384
冿净	-3385
12	-3386
▁剻凰	-3387
▁二亏傚	-3388
▁仔事偐	-3389
▁亷争亾	-3390
▁亖亙伭	-3391
冂伜	-3392
▁仈倚二	-3393
▁亏佈亥	-3394
▁仐佤伟亥	-3395
▁亣俺	-3396
▁仮仯从	-3397
▁亽偈	-3398
俔仧亡	-3399
亰亯	-3400
伶仍	-3401
仯仅亰	-3402
▁仈俊仂	-3403
▁亽仲争亃伭	-3404
▁which	-3405
▁仙仚仌仅二	-3406
▁亃亨亜	-3407
▁各	-3408
▁ar	-3409
▁亷冗	-3410
▁代傜	-3411
▁亻亳亾	-3412
69	-3413
▁亖亜伭	-3414
▁伎仇	-3415
伹仅亥	-3416
亊仅	-3417
▁以側佼	-3418
▁二仂	-3419
▁su	-3420
ov	-3421
佭事	-3422
▁亍偶佶	-3423
▁1980	-3424
▁亲代亚	-3425
▁亖侹事伎	-3426
▁伸仓	-3427
▁佒仦伹	-3428
▁亖刲	-3429
仄仅亾	-3430
▁倄冂	-3431
亾亩	-3432
▁38	-3433
▁亶亰	-3434
▁仼争劇亮	-3435
▁亲仠亶	-3436
▁仈亜亰	-3437
▁匴	-3438
佺伿	-3439
▁仌亮亏企	-3440
▁亽伱亾	-3441
▁亐从	-3442
亡亰	-3443
▁亓佗事	-3444
仗亾俷亳	-3445
伙亩	-3446
▁侏伭	-3447
ies	-3448
▁仌亓	-3449
▁俙争	-3450
▁仿亵亥亇予	-3451
ip	-3452
▁亽侅	-3453
▁亃亚仛俉亡	-3454
伸亳亥	-3455
伙仅亥	-3456
▁亃亐云	-3457
▁亓亩二	-3458
▁仼低二	-3459
▁传侜	-3460
倸二	-3461
亶偀傱	-3462
▁佶伣	-3463
▁佨刼	-3464
▁仐俬	-3465
亢仅亰	-3466
▁亽伎	-3467
▁伇儸予	-3468
▁倐傿	-3469
亓伊亃	-3470
▁亓僕	-3471
▁剥修	-3472
▁众亱事侪	-3473
仲争仳	-3474
▁仐争	-3475
▁仮信事	-3476
▁亐仦信	-3477
伻亚	-3478
倘俅仇	-3479
▁僁儑	-3480
亏仠	-3481
▁亩仇	-3482
▁亊争	-3483
rict	-3484
▁偖仐	-3485
ment	-3486
▁仞仌争亾	-3487
age	-3488
▁伸什侕亭	-3489
▁仒亭	-3490
▁勘	-3491
▁亽仅伟亥	-3492
▁伸什伍亭	-3493
▁介争侑	-3494
▁倎匦冎	-3495
▁予仠亃	-3496
俶仓	-3497
仠仯亡	-3498
佋佉	-3499
▁仛俶付	-3500
▁39	-3501
▁侏但	-3502
▁僯俠	-3503
啈仇	-3504
▁90	-3505
▁倨仪	-3506
▁亖冦俦	-3507
伸亱	-3508
og	-3509
▁令伸亭	-3510
▁僙仓	-3511
▁亖佋亣仌产	-3512
▁以仌仦	-3513
仩仠	-3514
▁亜亃	-3515
仌亱	-3516
▁以仚值	-3517
▁仅南	-3518
▁亖俵亂争	-3519
仂亥	-3520
▁y	-3521
▁亖准	-3522
▁仍伈	-3523
佄令	-3524
▁仼亱	-3525
▁亊俥仞二	-3526
▁亍亃	-3527
任仅	-3528
亢亭	-3529
倥佼	-3530
亢仅	-3531
▁剹	-3532
34	-3533
▁啠	-3534
▁伜俑	-3535
▁仦亃偾伿	-3536
18	-3537
▁倎几	-3538
▁任仅	-3539
▁仔伤偢予	-3540
▁亚劏	-3541
▁仈吺	-3542
▁亃低	-3543
▁仈变	-3544
▁亇予仂亶	-3545
仭予	-3546
▁俺佯	-3547
▁仔予侻二	-3548
▁仐偞	-3549
▁仸仹	-3550
仗亾付	-3551
▁伆	-3552
ine	-3553
優伙	-3554
▁仸亃	-3555
▁佚倳	-3556
亣仰	-3557
偨亥	-3558
▁倲低	-3559
▁亃争佋	-3560
亍倩	-3561
▁亚令	-3562
▁仐俥	-3563
俶付仇	-3564
▁亜交二	-3565
▁佒体争	-3566
▁侧兯	-3567
istrict	-3568
▁伏	-3569
仂侲	-3570
▁亍偶俵亜	-3571
伸企	-3572
偎亰	-3573
仕切	-3574
▁予亚作仛	-3575
▁叄	-3576
▁僓亏兪	-3577
▁仍交	-3578
以侐佼	-3579
▁亩傌仓	-3580
▁2012	-3581
▁吁亚事亭	-3582
▁仐亚于亏亐亡	-3583
▁亖仠仐	-3584
▁亂佛亴亩仓	-3585
our	-3586
▁亢冱	-3587
▁俛事	-3588
仞亶	-3589
▁争创	-3590
▁伷产	-3591
▁二佧亳	-3592
▁仐侕	-3593
▁仈倚	-3594
▁仔优	-3595
伹亡	-3596
佲伤	-3597
▁偕仌仓	-3598
▁||	-3599
冢仠	-3600
▁$	-3601
▁位亡仄	-3602
▁亜偗	-3603
仌仅亓	-3604
14	-3605
▁儜	-3606
▁仈儗	-3607
保伙	-3608
侎优	-3609
▁亩众伭	-3610
仞伙	-3611
▁亽匋	-3612
▁佋僪	-3613
▁亚仼	-3614
俰代亚	-3615
亃兤亥	-3616
▁偞仅予	-3617
亂亚	-3618
▁仙仚些	-3619
▁佋二亾	-3620
▁仆仇	-3621
▁仐儲佤	-3622
▁冓仅亻	-3623
art	-3624
亏仯	-3625
▁亊伱	-3626
侎优众予	-3627
传佳	-3628
▁免	-3629
▁介仌	-3630
▁傻侏	-3631
▁亊伟	-3632
亡亥亰	-3633
▁儛	-3634
▁亚剋	-3635
▁佚伧	-3636
▁俢厾	-3637
▁亖勝	-3638
予争伪	-3639
俺仐	-3640
佋佳二	-3641
伍伎	-3642
▁仒二亃	-3643
佋仄伖仇	-3644
▁令仦亶佳	-3645
▁凭	-3646
▁儽	-3647
倃伈	-3648
▁介仌二	-3649
▁仢亃于佄仛	-3650
▁仹仧事信	-3651
▁亩俺	-3652
▁亽伹	-3653
▁嚵	-3654
▁俎俣	-3655
▁兽倥	-3656
▁倹	-3657
▁偈	-3658
佉予	-3659
亝倍	-3660
▁仛产亥	-3661
▁以从便	-3662
57	-3663
▁傷	-3664
▁仌傭佳	-3665
▁仔债	-3666
予亰	-3667
▁令争亏	-3668
▁争亊事	-3669
▁偖俉仓	-3670
▁信任亾亚	-3671
▁倎卾	-3672
侻亡	-3673
亂仅亥	-3674
仦侕亡	-3675
仅俺	-3676
▁仼俖佃	-3677
▁俑仯冀	-3678
凒仚亾	-3679
▁俜亓	-3680
▁仔仌儱	-3681
▁俢偎	-3682
▁亖俐	-3683
▁位事仓	-3684
亭佼亰	-3685
▁侎仍倩	-3686
▁仐佣	-3687
▁亖仌亂	-3688
▁伋仦什	-3689
侻亥	-3690
▁仿伊仳	-3691
偣亶	-3692
▁偋偩	-3693
▁咪	-3694
五井	-3695
▁亽亥佚二	-3696
▁仯凭	-3697
▁3,	-3698
▁亢佳	-3699
咠产	-3700
▁仅俚	-3701
▁亖俵亂仦予	-3702
▁仐侚	-3703
仠佋	-3704
仪亡	-3705
▁僎其	-3706
▁亖伳亩	-3707
▁亖休	-3708
▁代俇予俍亥	-3709
▁份	-3710
仗侻亾	-3711
▁俑亜	-3712
▁亓冘任	-3713
▁仛做	-3714
▁亃仅予	-3715
▁亖仌亓争	-3716
伙亱	-3717
▁凓亳亰	-3718
▁this	-3719
佳倨	-3720
ound	-3721
▁亖亰佋	-3722
▁以倭	-3723
▁1970	-3724
亏仓	-3725
▁予倚	-3726
▁佁仐事亠	-3727
▁仔产亚	-3728
▁仌争侵	-3729
▁亂什伙仠	-3730
▁仢僾	-3731
33	-3732
▁亃仦伷产	-3733
▁信但	-3734
▁亍价侻二	-3735
▁亻二亊亯	-3736
亃亡	-3737
▁亍些	-3738
▁佃仇	-3739
ort	-3740
▁傸仜	-3741
15	-3742
▁亜倌亝倍	-3743
▁俙低	-3744
▁凍剀	-3745
▁亏亜	-3746
▁亃亡亯	-3747
▁亽准	-3748
▁俆争	-3749
▁亃仦伸仅二	-3750
伎亜亮	-3751
令亣	-3752
但予	-3753
▁俑争	-3754
▁亖仌亜	-3755
仛亜	-3756
▁亇唜	-3757
▁仕切	-3758
▁凸	-3759
▁亣亩事	-3760
▁亖伎亜仼亮	-3761
▁sh	-3762
▁仔偖俉仅	-3763
▁亖侹刣亳	-3764
▁兊	-3765
▁亃亰仓	-3766
▁伸仦占众予	-3767
▁亜争亏产	-3768
▁侺俒亏亜	-3769
代俑	-3770
▁仐侭冰	-3771
▁代俑亥	-3772
▁佋争伪	-3773
代事	-3774
任亳	-3775
兵佤亭	-3776
亯亡	-3777
▁亻仅	-3778
▁倦俉	-3779
▁亜众井伙亳	-3780
亳亥	-3781
▁亃仦伤	-3782
亣僆	-3783
▁以佧伜仂	-3784
亐亚什	-3785
▁仼冮	-3786
▁亖儡	-3787
亃仅	-3788
伸佈	-3789
倐亡	-3790
▁予佋	-3791
▁倗佧	-3792
代仍	-3793
▁us	-3794
▁亣令亵	-3795
倐侻亥	-3796
▁仧仦	-3797
▁亓亩仧亮	-3798
▁几	-3799
▁亖倭	-3800
55	-3801
▁俄二仪	-3802
▁伙事亾亳	-3803
▁介争信	-3804
仚仓亶	-3805
▁俸佲	-3806
亱伟	-3807
▁:.	-3808
保二仐	-3809
▁厬	-3810
▁仈傭亡	-3811
伙卋	-3812
佅仞	-3813
▁俺仌二	-3814
▁In	-3815
▁伭仐令	-3816
儭亡	-3817
仅仍	-3818
▁仔亙	-3819
▁佭仅仌	-3820
▁仢伸准	-3821
▁44	-3822
▁倦仐	-3823
亞佼亥	-3824
▁2003	-3825
▁亍刜争仳	-3826
▁亃仦俵亥什	-3827
▁亚亨侮仞二	-3828
▁亯倷	-3829
▁但倏	-3830
亳仼	-3831
▁偖仌亜	-3832
▁凊予伅	-3833
▁予侬	-3834
▁亶亼	-3835
争侐	-3836
16	-3837
▁刅佋	-3838
▁众争亃	-3839
▁公	-3840
▁亍叢	-3841
▁予傜俉仅亥	-3842
▁仢付偂仂偞	-3843
ish	-3844
▁仌傭亡	-3845
▁佚兙	-3846
僺佼	-3847
▁侧亱	-3848
▁仐俗俘仓	-3849
佟了	-3850
亏企	-3851
仅佋	-3852
來俷	-3853
▁俙伭	-3854
▁亂佛代匰	-3855
争亜	-3856
▁伋伭于	-3857
▁亖亳亯仅	-3858
▁仢傠亵	-3859
▁伸傘俉仅亥	-3860
▁二傳仞二	-3861
▁亽仧	-3862
▁伸亨	-3863
▁仌偩	-3864
▁侨停二	-3865
▁侎亮傍亥	-3866
▁俕兹	-3867
▁佋争仳	-3868
▁仏佈冖	-3869
亙仓	-3870
▁佶争	-3871
▁倎伭事亭	-3872
侍佚佝	-3873
▁仍亰	-3874
▁仩來	-3875
▁亏仳亼	-3876
▁仐亂亣伓	-3877
▁亏兪	-3878
▁佨伫	-3879
▁二俜伙	-3880
▁剉	-3881
▁仼仓	-3882
||	-3883
偘亰	-3884
▁亓仅佗	-3885
▁凁亚亢	-3886
85	-3887
▁亓五井	-3888
▁众二	-3889
▁伝仠	-3890
▁侁儕	-3891
▁俉允	-3892
▁俑俒亚	-3893
▁亴亵亶	-3894
▁传亣儢	-3895
▁亣傐亥亚	-3896
▁代卂	-3897
▁僼侨	-3898
亃位伭二	-3899
▁仛俉	-3900
來付仇	-3901
▁儦	-3902
▁亜倓	-3903
▁仈佧伜仂	-3904
▁亚争	-3905
▁倛	-3906
▁倐刂	-3907
▁儲	-3908
▁亍偶俥仞	-3909
▁伙俑	-3910
▁佶儊亣停	-3911
▁仌件亾	-3912
▁亲俅	-3913
▁亽仌	-3914
▁侎仗	-3915
亡亏	-3916
▁伸伶仓	-3917
▁伋仦亥	-3918
仼亣	-3919
17	-3920
▁32	-3921
-2	-3922
亃仠	-3923
▁仌勗	-3924
▁亍亃代	-3925
▁仌俶仄	-3926
▁US	-3927
▁俑偟	-3928
▁亜亰	-3929
▁亏低	-3930
▁们亡	-3931
▁伦亱仐	-3932
▁亂佛亴亵	-3933
▁僸	-3934
亸伭	-3935
▁予嗀	-3936
事劽	-3937
▁侏亳	-3938
▁仮仯亚什	-3939
▁亓冦	-3940
▁仐伭仞	-3941
ang	-3942
▁位事侻亾	-3943
▁2014,	-3944
▁仐佨	-3945
▁亝仠	-3946
▁介仐侕亡	-3947
▁儍亱	-3948
▁今伟亶	-3949
▁二倇	-3950
众伿	-3951
▁亖兖	-3952
▁仪仅	-3953
▁予付仠	-3954
▁亣令亵僠	-3955
▁众亱事亭	-3956
▁伋仓	-3957
▁予傜俉仅仓	-3958
争井	-3959
▁僑伥	-3960
▁仇二	-3961
于亏	-3962
▁仐刃傈	-3963
▁亍亶偀傱	-3964
▁亓亩仧争	-3965
ord	-3966
▁僓介伕	-3967
▁伱亡亯	-3968
▁保俈	-3969
▁仐俗俦	-3970
▁亖凼	-3971
▁准	-3972
▁亂刭	-3973
▁仌剑	-3974
▁介亏仏	-3975
▁倈仚亾	-3976
▁匋	-3977
仅什	-3978
ans	-3979
亰仍	-3980
亡仅亾	-3981
▁众亏仯	-3982
▁佋争入仧亳	-3983
up	-3984
▁俆仓仼	-3985
▁侔俄亠	-3986
▁侺仌佗	-3987
偟仓	-3988
亩从	-3989
▁亓亅二	-3990
▁仠兰	-3991
▁咰俖仌	-3992
▁令二争企	-3993
▁亣产	-3994
▁仧仦伶予	-3995
▁仼亡冎仓	-3996
▁予仌	-3997
▁以侗	-3998
▁佒優伙	-3999
▁侎仲亪亜	-4000
▁呮企	-4001
亭佼亾	-4002
▁倰	-4003
仗亰	-4004
▁46	-4005
▁亽准古	-4006
▁仔仹倃亥亚	-4007
伥亸僺	-4008
▁仐仵亦	-4009
▁互估	-4010
俢仌佝	-4011
▁儀	-4012
仦亚	-4013
▁亻列	-4014
▁伙亶	-4015
▁亖亍	-4016
▁以亚众仇	-4017
▁亊佶	-4018
▁傂亏	-4019
▁仔仧亮	-4020
90	-4021
▁亇予亊仦	-4022
▁亽匋傲亥	-4023
仌仍	-4024
▁佃俞侻亞	-4025
▁亃伭	-4026
▁仈儶	-4027
▁亍代卂	-4028
▁侨停仰	-4029
▁亓佗伟	-4030
▁亷亡仄仓	-4031
▁亇唜亙	-4032
偨亰	-4033
ast	-4034
▁亍偶仲	-4035
▁仙代仸	-4036
▁傻侏亠	-4037
▁俆亱但二	-4038
亞佼亶	-4039
亃仳	-4040
伭伟	-4041
▁亩争	-4042
仂亼	-4043
▁伙冝	-4044
▁仐俐仐俗仅事	-4045
▁伶	-4046
亵仯	-4047
▁55	-4048
仦事亭	-4049
▁予仓亯	-4050
亓佋	-4051
▁亂仄	-4052
伭亥	-4053
▁2015,	-4054
▁仇亯仌	-4055
ld	-4056
亂事	-4057
▁仐休	-4058
▁仐仌争仳	-4059
▁仢亚什	-4060
亃侴	-4061
▁伥俴	-4062
伸叟亥	-4063
▁Ind	-4064
▁仔仍倛	-4065
▁侣但二	-4066
▁产争	-4067
▁佄令	-4068
▁亖佲亣	-4069
ore	-4070
▁亻俬亶	-4071
▁仚亂伤仓	-4072
▁仐儲刖	-4073
佋佥	-4074
▁仢付偗亳	-4075
▁75	-4076
▁仒二亃代	-4077
势二	-4078
▁亽佗亮	-4079
▁仛任亾亚	-4080
▁倄冂侮	-4081
▁亓倽	-4082
▁亃倂侻予	-4083
▁凓仉	-4084
▁1960	-4085
▁亍争	-4086
▁伸仉亡亥傒	-4087
二偗亳	-4088
▁产亡佋仅	-4089
▁佢	-4090
伸伶	-4091
▁仢偗	-4092
二偿	-4093
▁亣亩亣仄	-4094
亚偞	-4095
▁佚來	-4096
伤仅亥	-4097
▁亻亰俤仓	-4098
▁俺仐佈亥	-4099
▁仅佲伤仓	-4100
ard	-4101
ated	-4102
▁們傌二	-4103
▁亷刋亡	-4104
▁信任亻亚	-4105
▁5.	-4106
▁佨仑	-4107
▁争儮	-4108
▁伌仐	-4109
▁亓伥亂亮	-4110
传伖仇	-4111
▁亖俊仂	-4112
▁亖二亂亃倌	-4113
==	-4114
cl	-4115
▁亖代	-4116
▁亃偧产亥	-4117
▁亖亊	-4118
▁仐仧	-4119
传兵	-4120
伫仇	-4121
凧亠	-4122
ure	-4123
▁仐仅	-4124
▁not	-4125
▁侣佭	-4126
▁仐伳	-4127
▁仐兼二	-4128
▁先亶企	-4129
▁信争	-4130
▁侺产佀予	-4131
亳來付	-4132
仛但二	-4133
▁佋佗亣僂	-4134
▁pl	-4135
▁1999	-4136
▁亍介	-4137
▁俉俐	-4138
▁2002	-4139
▁伸仅二亥	-4140
▁喲	-4141
來亾	-4142
▁仈亡	-4143
▁亓争傼	-4144
ode	-4145
▁令亢伥	-4146
▁似代仓倲	-4147
ens	-4148
亓仍傢	-4149
▁伓侹亜	-4150
亚亚	-4151
▁値倥	-4152
▁仯仍	-4153
yle	-4154
▁冧	-4155
▁亣佳	-4156
▁匒	-4157
佄仞	-4158
亾亚亶	-4159
▁伉冶	-4160
▁1950	-4161
偁仞	-4162
仗倘仇	-4163
▁伙亏仦予	-4164
▁仔仹佚侁価亶	-4165
▁亷亙	-4166
▁亜争借	-4167
伌伈	-4168
佋仍	-4169
▁伙亣事	-4170
▁仌亡亓亶	-4171
▁仐佶保二	-4172
▁侧仓亯	-4173
▁凓俅仇	-4174
▁凉	-4175
▁厄亂	-4176
仐仲	-4177
▁亽仐價	-4178
▁亵仠伫仓	-4179
▁傄亜	-4180
▁仐佤事	-4181
▁凁仕切	-4182
▁冭	-4183
▁候刦	-4184
予仂	-4185
亰付	-4186
▁偖债亥亚	-4187
佋佗	-4188
▁仔俴佲	-4189
偎亥	-4190
偒仓	-4191
▁65	-4192
亃亚佤冰	-4193
▁佐	-4194
亐任	-4195
仌俀	-4196
▁伝俶	-4197
▁亜儵	-4198
▁伙佧	-4199
▁佁代亡	-4200
▁倨倇二	-4201
▁俈仞俰仇	-4202
▁介争亜偖	-4203
▁唋	-4204
▁喙	-4205
佸二	-4206
亢仦亚	-4207
▁亖亂仠	-4208
▁亣佉	-4209
▁亵仗	-4210
▁仐介伕	-4211
▁倐亡亰	-4212
仅亞	-4213
▁伡厶	-4214
仅保二	-4215
▁予亼亍	-4216
偶佶二	-4217
仼争	-4218
▁二傳仧亡	-4219
佡伭	-4220
▁亖伭	-4221
▁2016	-4222
▁仙仇俰仇	-4223
}}	-4224
▁仙债	-4225
佚亏仅	-4226
▁俑偿争	-4227
▁倐代	-4228
倘偉亳	-4229
仼亮亥亰	-4230
31	-4231
▁二佲俹	-4232
▁佸什	-4233
▁傞亾	-4234
▁仔介仐佈	-4235
ive	-4236
▁仍伭	-4237
代交二	-4238
▁亢亳予亥	-4239
▁信刾保二	-4240
俁从	-4241
▁卮	-4242
▁仧伫亵仇	-4243
▁催佶	-4244
▁亃代伋	-4245
亶亾	-4246
▁亻二亊佄仇	-4247
▁伙佌亳	-4248
▁仞仌仦什	-4249
▁伌佇	-4250
▁侎亮他仧亳	-4251
▁侏伕亶	-4252
▁仛侕佳	-4253
▁凁亣仍仓	-4254
▁亓伊仹	-4255
▁仢付六	-4256
▁俆仓任亾	-4257
▁亍仌冂争仍	-4258
▁亜争侣	-4259
▁但亚亩仓	-4260
▁伕侻	-4261
▁亯令亣	-4262
仚亰	-4263
便予	-4264
▁劕	-4265
仦伿	-4266
伹亳	-4267
佋亰	-4268
▁以亙	-4269
▁伃侄	-4270
▁亊单僆	-4271
兘亡	-4272
伎仚二	-4273
偂仂什	-4274
▁亍余	-4275
伹亭	-4276
伎余	-4277
▁仙亜仦	-4278
▁侏仇予	-4279
▁以仅伽	-4280
▁侶伨	-4281
▁位冟佋产	-4282
▁佋侰	-4283
▁侏伕	-4284
▁众二佗	-4285
▁仔傤予保二	-4286
▁亍偖	-4287
▁亽哒	-4288
▁亵亏井	-4289
▁48	-4290
▁佋亣	-4291
▁俈倂	-4292
伫企	-4293
▁亯争	-4294
▁佗令	-4295
偩予	-4296
▁亷兮	-4297
亜保	-4298
▁亊俥仧亳	-4299
▁仔产伸俔	-4300
亮亥亰	-4301
▁亼亾	-4302
亻伻	-4303
▁亃俗	-4304
▁伌仐冞	-4305
▁亖俵亂亮	-4306
▁噄	-4307
▁俎佲	-4308
64	-4309
伓候	-4310
▁亢仂什	-4311
▁佻仼	-4312
仪仓	-4313
▁仔伹入	-4314
▁侣仼	-4315
▁亣停仓	-4316
伎仚亾	-4317
▁亂仓仌仓	-4318
▁予伛	-4319
▁厮	-4320
▁些争井	-4321
▁倲兙亡	-4322
▁仏偍伎	-4323
俬佋	-4324
偁倠	-4325
▁亓佋况	-4326
▁亚亱俪仇	-4327
仠予	-4328
▁47	-4329
▁亮伕	-4330
仗付	-4331
▁亲仠仚	-4332
▁佺借	-4333
▁亓倽争佲仳	-4334
▁勯	-4335
▁俙仠	-4336
▁以側佼匎	-4337
你佡	-4338
▁以佳亞	-4339
▁仅亾	-4340
▁仇侺	-4341
亏傁	-4342
▁嘾	-4343
▁冢冪亡	-4344
▁亩二但予	-4345
傚亰	-4346
▁亃但	-4347
▁亓亩仧	-4348
▁俆仓任俢	-4349
pp	-4350
啃倏	-4351
▁亂享仚	-4352
▁令伙介亥	-4353
▁亖反	-4354
▁休倠	-4355
▁亂伸	-4356
ence	-4357
▁仢俬县	-4358
▁49	-4359
▁亢侟	-4360
佚亚	-4361
▁亊侹	-4362
▁争予保二	-4363
侞亨	-4364
▁偖俉亚什	-4365
仩仪	-4366
rit	-4367
▁佒便予	-4368
▁伸偘傟佧	-4369
▁亜俱	-4370
▁亜兜	-4371
▁偆做亠	-4372
佚佝亥	-4373
▁仏佈卿	-4374
▁仩争亶	-4375
▁吁侨佭事亭	-4376
▁似亙仓	-4377
▁亂仌仅但二	-4378
倔亜	-4379
▁伈侺	-4380
▁	-4381
.	-4382
仅	-4383
亥	-4384
,	-4385
二	-4386
予	-4387
亚	-4388
仇	-4389
亡	-4390
仌	-4391
争	-4392
亃	-4393
仓	-4394
亖	-4395
亜	-4396
仦	-4397
什	-4398
伭	-4399
佋	-4400
亣	-4401
亓	-4402
亶	-4403
仐	-4404
1	-4405
亵	-4406
亾	-4407
仢	-4408
佳	-4409
亽	-4410
亢	-4411
亰	-4412
仿	-4413
亂	-4414
亮	-4415
事	-4416
0	-4417
亩	-4418
仔	-4419
俷	-4420
亳	-4421
伊	-4422
亍	-4423
伸	-4424
代	-4425
令	-4426
佅	-4427
亏	-4428
仍	-4429
位	-4430
亲	-4431
俉	-4432
亭	-4433
亯	-4434
仚	-4435
仛	-4436
仂	-4437
仞	-4438
伙	-4439
仠	-4440
亊	-4441
5	-4442
产	-4443
侻	-4444
偙	-4445
亐	-4446
e	-4447
亱	-4448
仈	-4449
佚	-4450
2	-4451
仪	-4452
仼	-4453
a	-4454
佌	-4455
佼	-4456
但	-4457
仳	-4458
众	-4459
任	-4460
仄	-4461
互	-4462
付	-4463
伻	-4464
以	-4465
仯	-4466
仧	-4467
介	-4468
亞	-4469
t	-4470
余	-4471
亼	-4472
i	-4473
伥	-4474
亇	-4475
伹	-4476
侺	-4477
享	-4478
仙	-4479
9	-4480
n	-4481
侨	-4482
传	-4483
o	-4484
伡	-4485
估	-4486
俢	-4487
佧	-4488
伟	-4489
r	-4490
佃	-4491
佤	-4492
从	-4493
侏	-4494
伓	-4495
伫	-4496
企	-4497
s	-4498
亙	-4499
佗	-4500
-	-4501
偖	-4502
保	-4503
亻	-4504
3	-4505
來	-4506
傢	-4507
仩	-4508
交	-4509
佸	-4510
4	-4511
伎	-4512
侍	-4513
7	-4514
8	-4515
优	-4516
侎	-4517
6	-4518
佭	-4519
似	-4520
佒	-4521
仲	-4522
伕	-4523
信	-4524
了	-4525
仹	-4526
俑	-4527
"	-4528
仭	-4529
倦	-4530
佈	-4531
侐	-4532
会	-4533
亠	-4534
倎	-4535
l	-4536
h	-4537
個	-4538
于	-4539
傜	-4540
偿	-4541
伿	-4542
佰	-4543
佶	-4544
仒	-4545
佲	-4546
偉	-4547
倩	-4548
倠	-4549
俶	-4550
亷	-4551
倲	-4552
俆	-4553
d	-4554
伌	-4555
傘	-4556
侚	-4557
傠	-4558
伱	-4559
傲	-4560
侒	-4561
伜	-4562
伤	-4563
侕	-4564
伢	-4565
偩	-4566
傒	-4567
倐	-4568
:	-4569
c	-4570
侞	-4571
俌	-4572
侹	-4573
伋	-4574
伖	-4575
u	-4576
仗	-4577
停	-4578
佨	-4579
佝	-4580
俵	-4581
伶	-4582
俱	-4583
偏	-4584
伅	-4585
偕	-4586
侳	-4587
住	-4588
例	-4589
倏	-4590
俬	-4591
m	-4592
倇	-4593
俰	-4594
伦	-4595
亘	-4596
些	-4597
伪	-4598
仰	-4599
傷	-4600
侧	-4601
偞	-4602
俜	-4603
件	-4604
p	-4605
俎	-4606
/	-4607
伳	-4608
佉	-4609
俗	-4610
佡	-4611
仉	-4612
俪	-4613
倘	-4614
债	-4615
伈	-4616
俅	-4617
偁	-4618
俺	-4619
偂	-4620
佛	-4621
偝	-4622
俠	-4623
们	-4624
仑	-4625
伍	-4626
倡	-4627
仮	-4628
傸	-4629
佄	-4630
倂	-4631
亝	-4632
侑	-4633
仕	-4634
佀	-4635
傳	-4636
亨	-4637
傫	-4638
f	-4639
偘	-4640
傥	-4641
俣	-4642
g	-4643
傻	-4644
伒	-4645
冂	-4646
偶	-4647
亅	-4648
倌	-4649
俙	-4650
仁	-4651
倨	-4652
伀	-4653
偗	-4654
休	-4655
僓	-4656
倣	-4657
傿	-4658
催	-4659
伧	-4660
仸	-4661
侮	-4662
今	-4663
俤	-4664
俖	-4665
傼	-4666
傂	-4667
冓	-4668
俄	-4669
y	-4670
低	-4671
僁	-4672
;	-4673
侭	-4674
侁	-4675
借	-4676
佫	-4677
亸	-4678
b	-4679
俔	-4680
凁	-4681
'	-4682
井	-4683
僆	-4684
倪	-4685
倭	-4686
侬	-4687
亴	-4688
侵	-4689
偀	-4690
候	-4691
僇	-4692
傶	-4693
俈	-4694
偾	-4695
作	-4696
傋	-4697
佢	-4698
侟	-4699
侣	-4700
仆	-4701
w	-4702
俐	-4703
侤	-4704
依	-4705
傕	-4706
倚	-4707
佇	-4708
俊	-4709
傱	-4710
倷	-4711
傖	-4712
做	-4713
傯	-4714
佂	-4715
僉	-4716
傞	-4717
伬	-4718
債	-4719
儢	-4720
俒	-4721
倫	-4722
俀	-4723
傆	-4724
俴	-4725
僃	-4726
偱	-4727
傛	-4728
仵	-4729
値	-4730
像	-4731
偧	-4732
俥	-4733
傤	-4734
仜	-4735
倃	-4736
仏	-4737
俹	-4738
偆	-4739
倿	-4740
哏	-4741
v	-4742
俍	-4743
俲	-4744
僂	-4745
傦	-4746
A	-4747
偰	-4748
你	-4749
僎	-4750
佯	-4751
倢	-4752
傔	-4753
俇	-4754
亪	-4755
係	-4756
們	-4757
冰	-4758
倈	-4759
六	-4760
俁	-4761
儊	-4762
伉	-4763
僀	-4764
S	-4765
僻	-4766
k	-4767
伨	-4768
僑	-4769
僯	-4770
伣	-4771
傟	-4772
伵	-4773
僬	-4774
佥	-4775
僺	-4776
傰	-4777
倮	-4778
傾	-4779
侰	-4780
傹	-4781
偎	-4782
僅	-4783
凍	-4784
侫	-4785
傭	-4786
亦	-4787
僌	-4788
C	-4789
佁	-4790
僟	-4791
俯	-4792
儈	-4793
仃	-4794
价	-4795
僜	-4796
偒	-4797
伃	-4798
偨	-4799
僈	-4800
储	-4801
佺	-4802
俫	-4803
僊	-4804
侀	-4805
伷	-4806
僝	-4807
I	-4808
俕	-4809
冿	-4810
僄	-4811
刭	-4812
M	-4813
傌	-4814
体	-4815
傪	-4816
T	-4817
佪	-4818
兙	-4819
傓	-4820
儶	-4821
他	-4822
冎	-4823
%	-4824
侦	-4825
凊	-4826
伇	-4827
儆	-4828
侙	-4829
偔	-4830
佻	-4831
伮	-4832
傩	-4833
僵	-4834
僋	-4835
偈	-4836
傗	-4837
傴	-4838
傺	-4839
僩	-4840
傧	-4841
伂	-4842
侔	-4843
冢	-4844
兩	-4845
兵	-4846
傝	-4847
凭	-4848
吁	-4849
佷	-4850
亹	-4851
伛	-4852
凓	-4853
侸	-4854
冟	-4855
傐	-4856
傡	-4857
僐	-4858
党	-4859
冐	-4860
傣	-4861
伝	-4862
冾	-4863
促	-4864
几	-4865
P	-4866
俦	-4867
働	-4868
僾	-4869
侴	-4870
|	-4871
傚	-4872
儵	-4873
冯	-4874
倬	-4875
兂	-4876
儖	-4877
净	-4878
侂	-4879
儮	-4880
凈	-4881
側	-4882
D	-4883
倥	-4884
儤	-4885
偼	-4886
倽	-4887
冲	-4888
偣	-4889
B	-4890
侜	-4891
儯	-4892
刻	-4893
傏	-4894
兟	-4895
偢	-4896
募	-4897
!	-4898
剜	-4899
侗	-4900
俿	-4901
兤	-4902
入	-4903
兼	-4904
=	-4905
兝	-4906
何	-4907
剢	-4908
僷	-4909
僠	-4910
冨	-4911
儱	-4912
偷	-4913
儗	-4914
匣	-4915
俭	-4916
侲	-4917
倗	-4918
倔	-4919
便	-4920
兎	-4921
偍	-4922
儴	-4923
亿	-4924
冪	-4925
傍	-4926
僧	-4927
俓	-4928
儍	-4929
N	-4930
冸	-4931
俩	-4932
)	-4933
傽	-4934
E	-4935
准	-4936
僰	-4937
克	-4938
儠	-4939
儲	-4940
儨	-4941
円	-4942
劇	-4943
充	-4944
儜	-4945
俸	-4946
兾	-4947
倀	-4948
僮	-4949
俛	-4950
前	-4951
劼	-4952
倳	-4953
劽	-4954
儿	-4955
R	-4956
H	-4957
勝	-4958
俼	-4959
叟	-4960
U	-4961
冷	-4962
僙	-4963
冄	-4964
叼	-4965
匉	-4966
侪	-4967
云	-4968
佴	-4969
傁	-4970
匯	-4971
刣	-4972
倄	-4973
倸	-4974
叀	-4975
咭	-4976
刌	-4977
冦	-4978
偟	-4979
凼	-4980
咄	-4981
僢	-4982
劊	-4983
切	-4984
刋	-4985
L	-4986
優	-4987
冤	-4988
勼	-4989
x	-4990
兊	-4991
傉	-4992
修	-4993
僽	-4994
F	-4995
兜	-4996
儼	-4997
刅	-4998
卂	-4999
侌	-5000
冱	-5001
併	-5002
剑	-5003
O	-5004
公	-5005
?	-5006
刄	-5007
剥	-5008
册	-5009
僼	-5010
W	-5011
刔	-5012
咁	-5013
區	-5014
儕	-5015
值	-5016
偺	-5017
卨	-5018
单	-5019
冝	-5020
亗	-5021
俋	-5022
凂	-5023
凰	-5024
僔	-5025
儅	-5026
八	-5027
兕	-5028
农	-5029
刜	-5030
G	-5031
倒	-5032
勚	-5033
儑	-5034
刢	-5035
刲	-5036
冣	-5037
儃	-5038
厲	-5039
傮	-5040
償	-5041
俏	-5042
儫	-5043
倹	-5044
刾	-5045
养	-5046
儡	-5047
匑	-5048
僘	-5049
先	-5050
億	-5051
剹	-5052
V	-5053
勺	-5054
剤	-5055
冮	-5056
勦	-5057
凶	-5058
偊	-5059
凚	-5060
傇	-5061
侢	-5062
偄	-5063
偓	-5064
偅	-5065
伴	-5066
兆	-5067
兪	-5068
j	-5069
儂	-5070
僤	-5071
價	-5072
卅	-5073
儰	-5074
偑	-5075
匰	-5076
卫	-5077
僫	-5078
列	-5079
勨	-5080
僥	-5081
俘	-5082
共	-5083
叧	-5084
凹	-5085
儺	-5086
侉	-5087
佘	-5088
到	-5089
匐	-5090
凷	-5091
仫	-5092
剉	-5093
咯	-5094
傊	-5095
创	-5096
冺	-5097
啁	-5098
南	-5099
倓	-5100
K	-5101
函	-5102
偯	-5103
侶	-5104
凿	-5105
剻	-5106
倝	-5107
勮	-5108
劏	-5109
}	-5110
啖	-5111
凋	-5112
儥	-5113
冕	-5114
冁	-5115
倞	-5116
偭	-5117
内	-5118
则	-5119
偛	-5120
{	-5121
兹	-5122
冞	-5123
冇	-5124
俞	-5125
剺	-5126
刖	-5127
叢	-5128
匎	-5129
厄	-5130
剦	-5131
伏	-5132
価	-5133
兖	-5134
倛	-5135
_	-5136
凗	-5137
兡	-5138
凮	-5139
劷	-5140
剀	-5141
傅	-5142
勷	-5143
匋	-5144
呜	-5145
匌	-5146
厾	-5147
勸	-5148
偬	-5149
份	-5150
啓	-5151
哙	-5152
冫	-5153
冘	-5154
勵	-5155
侯	-5156
僣	-5157
冶	-5158
匵	-5159
剋	-5160
僒	-5161
傑	-5162
允	-5163
冠	-5164
倾	-5165
噃	-5166
刦	-5167
刐	-5168
占	-5169
兰	-5170
匴	-5171
划	-5172
厹	-5173
刃	-5174
凅	-5175
勴	-5176
坷	-5177
利	-5178
劄	-5179
剼	-5180
唖	-5181
佑	-5182
仴	-5183
关	-5184
倵	-5185
匛	-5186
冧	-5187
勇	-5188
刏	-5189
圫	-5190
偡	-5191
剨	-5192
剩	-5193
佦	-5194
兽	-5195
刊	-5196
呮	-5197
偮	-5198
儭	-5199
博	-5200
其	-5201
吊	-5202
全	-5203
儐	-5204
兑	-5205
刡	-5206
凉	-5207
剰	-5208
凧	-5209
內	-5210
刺	-5211
傃	-5212
勆	-5213
伆	-5214
办	-5215
咰	-5216
刉	-5217
凣	-5218
倅	-5219
呕	-5220
匦	-5221
凴	-5222
凄	-5223
叁	-5224
儏	-5225
叱	-5226
俳	-5227
俾	-5228
厳	-5229
佐	-5230
勎	-5231
呬	-5232
咪	-5233
凲	-5234
z	-5235
儾	-5236
嗼	-5237
仡	-5238
冀	-5239
剸	-5240
倉	-5241
偽	-5242
儘	-5243
&	-5244
元	-5245
变	-5246
喋	-5247
傈	-5248
卡	-5249
勘	-5250
佊	-5251
僦	-5252
兌	-5253
儀	-5254
倍	-5255
倰	-5256
偋	-5257
冚	-5258
仺	-5259
偐	-5260
勀	-5261
呺	-5262
勡	-5263
冼	-5264
J	-5265
唸	-5266
匍	-5267
啈	-5268
啵	-5269
卲	-5270
僳	-5271
剶	-5272
合	-5273
吾	-5274
假	-5275
剐	-5276
卤	-5277
劈	-5278
啀	-5279
凘	-5280
卪	-5281
制	-5282
呰	-5283
五	-5284
凢	-5285
匮	-5286
匃	-5287
q	-5288
卧	-5289
倖	-5290
勰	-5291
兒	-5292
\	-5293
偤	-5294
兯	-5295
删	-5296
凵	-5297
冈	-5298
唗	-5299
刂	-5300
俚	-5301
各	-5302
吺	-5303
兓	-5304
冃	-5305
劌	-5306
勉	-5307
刘	-5308
佟	-5309
佣	-5310
匞	-5311
化	-5312
卋	-5313
刽	-5314
匕	-5315
卬	-5316
功	-5317
兀	-5318
啘	-5319
婨	-5320
厔	-5321
剈	-5322
啠	-5323
吴	-5324
刼	-5325
勑	-5326
凇	-5327
减	-5328
口	-5329
佞	-5330
傄	-5331
剃	-5332
冗	-5333
+	-5334
光	-5335
唤	-5336
儸	-5337
啃	-5338
喳	-5339
剮	-5340
勿	-5341
卩	-5342
凑	-5343
县	-5344
剝	-5345
伩	-5346
倴	-5347
厶	-5348
军	-5349
刷	-5350
儛	-5351
X	-5352
凒	-5353
叺	-5354
呝	-5355
侄	-5356
凪	-5357
厁	-5358
势	-5359
侊	-5360
况	-5361
倊	-5362
剽	-5363
匝	-5364
侅	-5365
厬	-5366
儌	-5367
卥	-5368
匚	-5369
冒	-5370
吪	-5371
侽	-5372
唜	-5373
凬	-5374
匂	-5375
冽	-5376
吏	-5377
僕	-5378
哳	-5379
厕	-5380
勋	-5381
凝	-5382
匒	-5383
僴	-5384
厉	-5385
咠	-5386
剖	-5387
哵	-5388
儽	-5389
$	-5390
儳	-5391
哒	-5392
侇	-5393
叴	-5394
嚵	-5395
劓	-5396
免	-5397
凜	-5398
叄	-5399
兘	-5400
吅	-5401
勜	-5402
初	-5403
咉	-5404
厐	-5405
吗	-5406
劘	-5407
句	-5408
佮	-5409
唽	-5410
厍	-5411
匪	-5412
凸	-5413
倱	-5414
兮	-5415
厖	-5416
僪	-5417
伯	-5418
儇	-5419
凛	-5420
凱	-5421
儁	-5422
吩	-5423
儦	-5424
兺	-5425
剄	-5426
喲	-5427
呎	-5428
刹	-5429
勗	-5430
卾	-5431
嗀	-5432
噄	-5433
台	-5434
兲	-5435
古	-5436
卺	-5437
坶	-5438
咴	-5439
倻	-5440
儹	-5441
咍	-5442
刯	-5443
伽	-5444
儔	-5445
儣	-5446
*	-5447
劕	-5448
僚	-5449
冴	-5450
冖	-5451
刕	-5452
吮	-5453
僸	-5454
勞	-5455
名	-5456
冡	-5457
厎	-5458
典	-5459
咲	-5460
劾	-5461
勲	-5462
劎	-5463
剘	-5464
剙	-5465
圤	-5466
唉	-5467
勍	-5468
勊	-5469
圀	-5470
厮	-5471
后	-5472
哶	-5473
厒	-5474
啾	-5475
偪	-5476
嘾	-5477
唔	-5478
俟	-5479
卮	-5480
召	-5481
僡	-5482
勠	-5483
吓	-5484
哨	-5485
咱	-5486
哤	-5487
凫	-5488
匀	-5489
友	-5490
叏	-5491
嚅	-5492
創	-5493
冭	-5494
剟	-5495
剬	-5496
哎	-5497
喙	-5498
冥	-5499
卣	-5500
使	-5501
吚	-5502
唋	-5503
]	-5504
匔	-5505
卿	-5506
伺	-5507
仾	-5508
副	-5509
供	-5510
反	-5511
包	-5512
匤	-5513
卯	-5514
吧	-5515
呓	-5516
則	-5517
喱	-5518
壯	-5519
勣	-5520
卻	-5521
僗	-5522
咨	-5523
偸	-5524
勯	-5525
垗	-5526
哧	-5527
匡	-5528
哾	-5529
唰	-5530
匟	-5531
卓	-5532
侱	-5533
勃	-5534
务	-5535
Y	-5536
勂	-5537
卛	-5538
侷	-5539
厤	-5540
哮	-5541
備	-5542
割	-5543
喂	-5544
刑	-5545
兗	-5546
匏	-5547
堧	-5548
埕	-5549
呩	-5550
剾	-5551
勖	-5552
卌	-5553
唻	-5554
壛	-5555
兛	-5556
佖	-5557
凨	-5558
哴	-5559
哿	-5560
匁	-5561
啫	-5562
咆	-5563
凾	-5564
吐	-5565
响	-5566
咛	-5567
儷	-5568
喾	-5569
喎	-5570
勪	-5571
勳	-5572
塌	-5573
參	-5574
唼	-5575
劧	-5576
偵	-5577
婃	-5578
含	-5579
墼	-5580
匩	-5581
佹	-5582
叩	-5583
咫	-5584
叙	-5585
夑	-5586
倆	-5587
呧	-5588
刎	-5589
勧	-5590
凔	-5591
僨	-5592
助	-5593
伲	-5594
分	-5595
噩	-5596
圇	-5597
又	-5598
兴	-5599
厭	-5600
埡	-5601
唳	-5602
健	-5603
喚	-5604
千	-5605
哖	-5606
哼	-5607
嘿	-5608
咾	-5609
哑	-5610
呦	-5611
呀	-5612
吤	-5613
呁	-5614
呼	-5615
圄	-5616
嘤	-5617
努	-5618
呟	-5619
冏	-5620
卉	-5621
冬	-5622
呱	-5623
呏	-5624
坉	-5625
喝	-5626
兔	-5627
在	-5628
匫	-5629
人	-5630
僖	-5631
吞	-5632
出	-5633
勁	-5634
凃	-5635
垔	-5636
仱	-5637
収	-5638
圽	-5639
唯	-5640
卹	-5641
啡	-5642
剷	-5643
唚	-5644
匷	-5645
垜	-5646
夕	-5647
卒	-5648
唢	-5649
刞	-5650
咮	-5651
厌	-5652
呒	-5653
匇	-5654
嚺	-5655
唫	-5656
劒	-5657
僞	-5658
僱	-5659
傀	-5660
嘌	-5661
厱	-5662
嗹	-5663
倶	-5664
圓	-5665
剣	-5666
哅	-5667
僭	-5668
匳	-5669
傎	-5670
唙	-5671
京	-5672
喽	-5673
哫	-5674
堛	-5675
劯	-5676
嗿	-5677
嗋	-5678
叡	-5679
劬	-5680
嘕	-5681
塐	-5682
劂	-5683
吖	-5684
啣	-5685
厸	-5686
哓	-5687
厦	-5688
卄	-5689
堷	-5690
夫	-5691
叉	-5692
印	-5693
凟	-5694
同	-5695
卑	-5696
咀	-5697
唠	-5698
司	-5699
听	-5700
吠	-5701
圪	-5702
商	-5703
塏	-5704
咧	-5705
喅	-5706
夤	-5707
偃	-5708
噡	-5709
啥	-5710
啮	-5711
卍	-5712
圢	-5713
嘍	-5714
垚	-5715
勻	-5716
咔	-5717
兇	-5718
匄	-5719
啞	-5720
嗐	-5721
勔	-5722
吲	-5723
侃	-5724
呹	-5725
吼	-5726
厴	-5727
嚜	-5728
厡	-5729
剭	-5730
処	-5731
吜	-5732
噗	-5733
Q	-5734
哰	-5735
啍	-5736
嗗	-5737
卽	-5738
啳	-5739
圡	-5740
厇	-5741
噉	-5742
剆	-5743
厊	-5744
啗	-5745
嚢	-5746
儙	-5747
劢	-5748
侩	-5749
厗	-5750
偠	-5751
啩	-5752
向	-5753
囋	-5754
唍	-5755
具	-5756
劜	-5757
堿	-5758
哞	-5759
凐	-5760
圆	-5761
刳	-5762
券	-5763
埴	-5764
妄	-5765
哆	-5766
冋	-5767
垏	-5768
僛	-5769
匘	-5770
勽	-5771
即	-5772
啜	-5773
吉	-5774
厺	-5775
叠	-5776
喨	-5777
刬	-5778
卷	-5779
啒	-5780
吰	-5781
呖	-5782
匭	-5783
偦	-5784
哂	-5785
媲	-5786
協	-5787
厩	-5788
嗚	-5789
哃	-5790
偹	-5791
勓	-5792
凙	-5793
労	-5794
匱	-5795
剕	-5796
喐	-5797
哌	-5798
孊	-5799
压	-5800
哊	-5801
刈	-5802
叆	-5803
圴	-5804
凞	-5805
哽	-5806
唬	-5807
哭	-5808
叽	-5809
哕	-5810
僲	-5811
員	-5812
嚭	-5813
伞	-5814
兠	-5815
叭	-5816
兏	-5817
卶	-5818
媕	-5819
娇	-5820
廲	-5821
嗻	-5822
叫	-5823
哔	-5824
匊	-5825
凤	-5826
参	-5827
嘇	-5828
呾	-5829
塤	-5830
墏	-5831
啛	-5832
啙	-5833
嘊	-5834
噝	-5835
凕	-5836
刴	-5837
剫	-5838
唄	-5839
勬	-5840
呸	-5841
嗠	-5842
刨	-5843
勐	-5844
去	-5845
审	-5846
匆	-5847
圯	-5848
坣	-5849
兣	-5850
华	-5851
命	-5852
喖	-5853
呲	-5854
啊	-5855
唴	-5856
埽	-5857
亟	-5858
励	-5859
咶	-5860
儚	-5861
厪	-5862
兦	-5863
匠	-5864
壘	-5865
唞	-5866
匢	-5867
嗾	-5868
咣	-5869
哱	-5870
哲	-5871
剌	-5872
勛	-5873
堣	-5874
嚂	-5875
危	-5876
厅	-5877
動	-5878
坵	-5879
僿	-5880
壷	-5881
呞	-5882
咹	-5883
圹	-5884
噬	-5885
吨	-5886
佔	-5887
刁	-5888
勌	-5889
墱	-5890
婞	-5891
偲	-5892
夦	-5893
嗙	-5894
匶	-5895
夣	-5896
墶	-5897
勢	-5898
唝	-5899
善	-5900
唪	-5901
圃	-5902
宄	-5903
偻	-5904
坻	-5905
咅	-5906
匙	-5907
厚	-5908
咖	-5909
國	-5910
侾	-5911
匹	-5912
咇	-5913
埿	-5914
寳	-5915
坪	-5916
塁	-5917
噢	-5918
尵	-5919
圖	-5920
匓	-5921
伄	-5922
囓	-5923
劤	-5924
侠	-5925
娙	-5926
垾	-5927
#	-5928
哬	-5929
坤	-5930
墤	-5931
壙	-5932
刧	-5933
坞	-5934
刵	-5935
啉	-5936
勹	-5937
劳	-5938
厰	-5939
劃	-5940
厽	-5941
喜	-5942
^	-5943
嗖	-5944
判	-5945
堳	-5946
吻	-5947
凖	-5948
墯	-5949
`	-5950
嚙	-5951
卭	-5952
嚁	-5953
嘐	-5954
哩	-5955
墰	-5956
坄	-5957
嗫	-5958
嘅	-5959
嗊	-5960
冩	-5961
剒	-5962
剂	-5963
劻	-5964
哻	-5965
叾	-5966
啚	-5967
倧	-5968
儎	-5969
劭	-5970
噋	-5971
咑	-5972
启	-5973
哹	-5974
佩	-5975
别	-5976
吒	-5977
唾	-5978
堻	-5979
侖	-5980
婕	-5981
囏	-5982
儝	-5983
劸	-5984
勄	-5985
劋	-5986
嘯	-5987
堄	-5988
啭	-5989
咩	-5990
刀	-5991
塝	-5992
圗	-5993
侘	-5994
堲	-5995
喤	-5996
婩	-5997
另	-5998
吕	-5999
嗽	-6000
呋	-6001
刚	-6002
圍	-6003
儬	-6004
嗘	-6005
婠	-6006
奺	-6007
坨	-6008
块	-6009
吳	-6010
啬	-6011
夨	-6012
圉	-6013
宧	-6014
儻	-6015
勱	-6016
圷	-6017
冻	-6018
噽	-6019
奬	-6020
刱	-6021
劖	-6022
壖	-6023
却	-6024
哉	-6025
劲	-6026
堇	-6027
媁	-6028
剁	-6029
咬	-6030
唺	-6031
垞	-6032
呈	-6033
圞	-6034
医	-6035
咟	-6036
厵	-6037
凥	-6038
劣	-6039
嘠	-6040
坏	-6041
囱	-6042
伔	-6043
吶	-6044
儋	-6045
俧	-6046
处	-6047
嶒	-6048
宊	-6049
哷	-6050
圳	-6051
堼	-6052
圵	-6053
塭	-6054
吱	-6055
唕	-6056
喓	-6057
佱	-6058
夂	-6059
卼	-6060
墑	-6061
唛	-6062
喁	-6063
嗃	-6064
勩	-6065
坦	-6066
呻	-6067
嘦	-6068
囫	-6069
嗝	-6070
唿	-6071
啯	-6072
妠	-6073
坽	-6074
嚹	-6075
吔	-6076
嗰	-6077
堤	-6078
墲	-6079
壡	-6080
式	-6081
嚑	-6082
嗅	-6083
堍	-6084
塱	-6085
剠	-6086
剎	-6087
嗷	-6088
妾	-6089
嘰	-6090
劆	-6091
噅	-6092
噛	-6093
嗂	-6094
塍	-6095
嗮	-6096
噂	-6097
>	-6098
妍	-6099
咚	-6100
嚠	-6101
坝	-6102
墀	-6103
僶	-6104
坚	-6105
刓	-6106
厈	-6107
單	-6108
侈	-6109
垈	-6110
喺	-6111
埑	-6112
堎	-6113
决	-6114
厛	-6115
刿	-6116
剳	-6117
堌	-6118
厯	-6119
伐	-6120
嚱	-6121
嚌	-6122
坱	-6123
嬮	-6124
坢	-6125
址	-6126
垐	-6127
噥	-6128
周	-6129
啄	-6130
埲	-6131
噏	-6132
屇	-6133
偳	-6134
坯	-6135
儓	-6136
嚿	-6137
壴	-6138
墚	-6139
墋	-6140
剅	-6141
削	-6142
塔	-6143
夽	-6144
啲	-6145
嗴	-6146
啔	-6147
堝	-6148
婴	-6149
嘚	-6150
尞	-6151
児	-6152
嬓	-6153
坿	-6154
垠	-6155
姰	-6156
劗	-6157
唌	-6158
囬	-6159
啧	-6160
姯	-6161
墔	-6162
厼	-6163
喫	-6164
墐	-6165
嚎	-6166
堈	-6167
堁	-6168
夳	-6169
妓	-6170
嚴	-6171
岵	-6172
塪	-6173
俻	-6174
別	-6175
喴	-6176
喌	-6177
哚	-6178
培	-6179
墛	-6180
圊	-6181
奯	-6182
劺	-6183
哸	-6184
嚫	-6185
唑	-6186
娬	-6187
吃	-6188
咙	-6189
嵹	-6190
娪	-6191
力	-6192
尿	-6193
唎	-6194
喵	-6195
妦	-6196
宩	-6197
姸	-6198
唏	-6199
噌	-6200
叅	-6201
圠	-6202
品	-6203
噷	-6204
実	-6205
嗛	-6206
刟	-6207
呌	-6208
啦	-6209
吀	-6210
哗	-6211
@	-6212
售	-6213
嗄	-6214
噳	-6215
劔	-6216
唊	-6217
倁	-6218
劁	-6219
咼	-6220
嚋	-6221
嘙	-6222
凩	-6223
婟	-6224
壐	-6225
奷	-6226
呄	-6227
仟	-6228
剏	-6229
壩	-6230
嚐	-6231
剞	-6232
圱	-6233
子	-6234
必	-6235
崠	-6236
垉	-6237
嫄	-6238
再	-6239
园	-6240
噶	-6241
奸	-6242
妨	-6243
兞	-6244
喘	-6245
喗	-6246
噍	-6247
孁	-6248
嗦	-6249
嘥	-6250
唨	-6251
啐	-6252
帆	-6253
兄	-6254
咃	-6255
墻	-6256
偫	-6257
域	-6258
墓	-6259
埵	-6260
呪	-6261
坠	-6262
囍	-6263
妔	-6264
劝	-6265
嚪	-6266
屆	-6267
崴	-6268
唅	-6269
妉	-6270
噆	-6271
孌	-6272
婌	-6273
埼	-6274
壦	-6275
囎	-6276
伾	-6277
呿	-6278
嘑	-6279
嚓	-6280
墟	-6281
媡	-6282
和	-6283
腳	-6284
匽	-6285
嘴	-6286
垢	-6287
喩	-6288
囿	-6289
哺	-6290
帧	-6291
喭	-6292
吆	-6293
婸	-6294
倯	-6295
冑	-6296
壿	-6297
忯	-6298
右	-6299
厝	-6300
啇	-6301
垆	-6302
俨	-6303
唥	-6304
嫡	-6305
填	-6306
妢	-6307
嚚	-6308
告	-6309
囩	-6310
囊	-6311
奋	-6312
君	-6313
匸	-6314
嗌	-6315
妴	-6316
咒	-6317
奴	-6318
媒	-6319
寝	-6320
哛	-6321
喹	-6322
奀	-6323
嘽	-6324
垝	-6325
咞	-6326
唡	-6327
埛	-6328
嗩	-6329
孫	-6330
奱	-6331
嫆	-6332
屃	-6333
尴	-6334
劵	-6335
匥	-6336
壌	-6337
媾	-6338
兢	-6339
嗸	-6340
妌	-6341
埙	-6342
妺	-6343
坮	-6344
啨	-6345
婘	-6346
噧	-6347
夥	-6348
契	-6349
囇	-6350
圬	-6351
岅	-6352
峹	-6353
唒	-6354
夯	-6355
孪	-6356
尢	-6357
嵆	-6358
亄	-6359
坖	-6360
巗	-6361
囶	-6362
埥	-6363
妖	-6364
嫳	-6365
劑	-6366
夹	-6367
嫿	-6368
哟	-6369
妃	-6370
崐	-6371
坛	-6372
嵺	-6373
嘲	-6374
墂	-6375
奪	-6376
倕	-6377
史	-6378
场	-6379
孞	-6380
噿	-6381
呇	-6382
囷	-6383
儉	-6384
匬	-6385
卟	-6386
圭	-6387
媌	-6388
岜	-6389
仝	-6390
土	-6391
幏	-6392
巚	-6393
奙	-6394
営	-6395
喷	-6396
始	-6397
嗏	-6398
奦	-6399
尸	-6400
卐	-6401
問	-6402
嫒	-6403
寨	-6404
~	-6405
奫	-6406
嬋	-6407
岢	-6408
少	-6409
头	-6410
嬢	-6411
厏	-6412
嗤	-6413
圁	-6414
啴	-6415
嘪	-6416
囮	-6417
堡	-6418
婥	-6419
彠	-6420
呫	-6421
媔	-6422
姙	-6423
侓	-6424
唣	-6425
妥	-6426
娺	-6427
佬	-6428
劚	-6429
哐	-6430
哝	-6431
喏	-6432
垃	-6433
夘	-6434
卵	-6435
吥	-6436
味	-6437
垟	-6438
孟	-6439
卦	-6440
塜	-6441
娆	-6442
寣	-6443
刪	-6444
噙	-6445
嚳	-6446
峜	-6447
儒	-6448
堾	-6449
圿	-6450
塠	-6451
垽	-6452
媅	-6453
嘢	-6454
埶	-6455
孲	-6456
冊	-6457
囻	-6458
埰	-6459
婔	-6460
崖	-6461
奤	-6462
嶟	-6463
凯	-6464
壼	-6465
奄	-6466
嶞	-6467
吝	-6468
呍	-6469
儧	-6470
呛	-6471
喼	-6472
埆	-6473
奂	-6474
囜	-6475
嫐	-6476
屛	-6477
嬵	-6478
娾	-6479
姒	-6480
尯	-6481
嵿	-6482
澨	-6483
叛	-6484
劉	-6485
哜	-6486
噰	-6487
形	-6488
吇	-6489
喯	-6490
尻	-6491
損	-6492
嬻	-6493
囉	-6494
媴	-6495
孯	-6496
寇	-6497
佾	-6498
噖	-6499
噺	-6500
埩	-6501
塰	-6502
墮	-6503
埞	-6504
堬	-6505
壗	-6506
抆	-6507
囯	-6508
坈	-6509
嫺	-6510
唧	-6511
可	-6512
加	-6513
塉	-6514
嶑	-6515
刮	-6516
剓	-6517
岀	-6518
抹	-6519
劅	-6520
噠	-6521
嬫	-6522
凌	-6523
尛	-6524
坥	-6525
婜	-6526
勫	-6527
堯	-6528
墷	-6529
導	-6530
嬾	-6531
噟	-6532
嚞	-6533
坃	-6534
漡	-6535
度	-6536
嘞	-6537
囸	-6538
埅	-6539
墬	-6540
姻	-6541
媳	-6542
壤	-6543
媟	-6544
堙	-6545
奲	-6546
宸	-6547
呢	-6548
娩	-6549
婓	-6550
噀	-6551
墁	-6552
叜	-6553
嗬	-6554
堊	-6555
媬	-6556
帐	-6557
忒	-6558
囀	-6559
唇	-6560
对	-6561
執	-6562
奝	-6563
姆	-6564
尬	-6565
十	-6566
垵	-6567
妗	-6568
叒	-6569
哈	-6570
墝	-6571
嫘	-6572
孏	-6573
器	-6574
刍	-6575
嬉	-6576
単	-6577
匼	-6578
嵏	-6579
吷	-6580
奧	-6581
娜	-6582
孷	-6583
嫔	-6584
囐	-6585
垹	-6586
弁	-6587
圅	-6588
儞	-6589
嚻	-6590
(	-6591
嗞	-6592
峁	-6593
巖	-6594
忨	-6595
喡	-6596
幰	-6597
堪	-6598
密	-6599
椿	-6600
圲	-6601
坫	-6602
嬙	-6603
惄	-6604
劥	-6605
妙	-6606
基	-6607
尶	-6608
嗎	-6609
媊	-6610
帡	-6611
喪	-6612
埘	-6613
姅	-6614
壮	-6615
婳	-6616
州	-6617
冉	-6618
叕	-6619
哀	-6620
嘓	-6621
嚶	-6622
図	-6623
寄	-6624
寺	-6625
媀	-6626
嫧	-6627
岹	-6628
匨	-6629
夲	-6630
勅	-6631
哦	-6632
均	-6633
帊	-6634
嘜	-6635
噕	-6636
喛	-6637
夌	-6638
幍	-6639
凎	-6640
士	-6641
剡	-6642
夛	-6643
嚔	-6644
墢	-6645
峐	-6646
夢	-6647
妕	-6648
塖	-6649
婺	-6650
峰	-6651
喃	-6652
嚬	-6653
埧	-6654
姱	-6655
娝	-6656
孴	-6657
屣	-6658
姇	-6659
孥	-6660
堘	-6661
媍	-6662
吭	-6663
巠	-6664
涊	-6665
呵	-6666
囧	-6667
庩	-6668
厷	-6669
嘄	-6670
墵	-6671
壚	-6672
娦	-6673
楳	-6674
埍	-6675
妮	-6676
媪	-6677
嬠	-6678
屸	-6679
姽	-6680
婇	-6681
嫙	-6682
徔	-6683
嗭	-6684
埝	-6685
墊	-6686
多	-6687
嬇	-6688
勈	-6689
媮	-6690
嘈	-6691
嚃	-6692
娟	-6693
寷	-6694
巿	-6695
咿	-6696
堢	-6697
堺	-6698
壶	-6699
官	-6700
怽	-6701
埻	-6702
婋	-6703
孓	-6704
叶	-6705
宵	-6706
劐	-6707
咸	-6708
孭	-6709
寮	-6710
嶔	-6711
垇	-6712
奥	-6713
姝	-6714
[	-6715
嬕	-6716
困	-6717
囹	-6718
坎	-6719
堑	-6720
嗨	-6721
娨	-6722
媨	-6723
峱	-6724
擗	-6725
呴	-6726
嫸	-6727
宔	-6728
垯	-6729
备	-6730
奒	-6731
婻	-6732
媞	-6733
咳	-6734
坺	-6735
妒	-6736
吡	-6737
噴	-6738
嚗	-6739
姑	-6740
巳	-6741
忑	-6742
巊	-6743
咏	-6744
唐	-6745
堖	-6746
昭	-6747
囄	-6748
够	-6749
尤	-6750
屾	-6751
張	-6752
墳	-6753
婱	-6754
孺	-6755
唆	-6756
墡	-6757
奉	-6758
埳	-6759
娧	-6760
嬬	-6761
岁	-6762
垬	-6763
埪	-6764
岲	-6765
廖	-6766
劍	-6767
垣	-6768
尙	-6769
嶗	-6770
府	-6771
剚	-6772
咢	-6773
塄	-6774
壈	-6775
尌	-6776
帢	-6777
庚	-6778
滐	-6779
妭	-6780
屵	-6781
帋	-6782
喟	-6783
噱	-6784
夝	-6785
夷	-6786
威	-6787
娋	-6788
孙	-6789
寪	-6790
寲	-6791
愉	-6792
吵	-6793
唶	-6794
啱	-6795
埓	-6796
埣	-6797
姞	-6798
孠	-6799
宨	-6800
寞	-6801
尣	-6802
姥	-6803
嶥	-6804
剿	-6805
棽	-6806
咥	-6807
壇	-6808
嬎	-6809
庄	-6810
庑	-6811
呷	-6812
嘬	-6813
媓	-6814
惆	-6815
抻	-6816
塚	-6817
巓	-6818
外	-6819
奏	-6820
寧	-6821
囈	-6822
圮	-6823
坑	-6824
垊	-6825
塾	-6826
圛	-6827
弎	-6828
动	-6829
店	-6830
恒	-6831
堞	-6832
娴	-6833
寱	-6834
岙	-6835
崧	-6836
悏	-6837
嗥	-6838
垖	-6839
垥	-6840
壪	-6841
往	-6842
圙	-6843
塅	-6844
娭	-6845
婊	-6846
嫱	-6847
孅	-6848
慬	-6849
曈	-6850
圧	-6851
墆	-6852
奟	-6853
懼	-6854
撟	-6855
勶	-6856
卙	-6857
埦	-6858
咤	-6859
嫁	-6860
宏	-6861
愭	-6862
唀	-6863
嘗	-6864
姟	-6865
峵	-6866
胏	-6867
剔	-6868
咕	-6869
嘆	-6870
埾	-6871
娫	-6872
志	-6873
恄	-6874
取	-6875
嗕	-6876
壭	-6877
嵤	-6878
废	-6879
彁	-6880
恥	-6881
惞	-6882
岬	-6883
忁	-6884
忔	-6885
怎	-6886
匜	-6887
哠	-6888
嚖	-6889
嚦	-6890
塮	-6891
娉	-6892
娑	-6893
屡	-6894
婶	-6895
愂	-6896
劀	-6897
啟	-6898
坸	-6899
塼	-6900
搁	-6901
嚡	-6902
奅	-6903
帬	-6904
夓	-6905
嬹	-6906
宪	-6907
巭	-6908
孱	-6909
协	-6910
圎	-6911
怶	-6912
懵	-6913
凡	-6914
卸	-6915
吟	-6916
囼	-6917
圈	-6918
坟	-6919
垼	-6920
堔	-6921
堥	-6922
妞	-6923
婄	-6924
嫃	-6925
嬂	-6926
尨	-6927
尰	-6928
囝	-6929
娅	-6930
娽	-6931
唵	-6932
喇	-6933
嘘	-6934
堜	-6935
嶴	-6936
彭	-6937
啅	-6938
堚	-6939
唟	-6940
嘮	-6941
孰	-6942
峼	-6943
崬	-6944
巯	-6945
媃	-6946
嬞	-6947
嶛	-6948
庡	-6949
喈	-6950
噇	-6951
埐	-6952
奆	-6953
婏	-6954
媧	-6955
岖	-6956
嗔	-6957
壄	-6958
妡	-6959
妣	-6960
射	-6961
帯	-6962
挢	-6963
柧	-6964
墸	-6965
嬴	-6966
孛	-6967
嶻	-6968
庎	-6969
弥	-6970
弮	-6971
喊	-6972
塯	-6973
媦	-6974
岞	-6975
巡	-6976
幺	-6977
庶	-6978
很	-6979
得	-6980
憀	-6981
塓	-6982
婤	-6983
岡	-6984
廵	-6985
撖	-6986
嘩	-6987
墘	-6988
妇	-6989
嫼	-6990
岶	-6991
攰	-6992
唲	-6993
啋	-6994
圝	-6995
墹	-6996
娤	-6997
卜	-6998
唦	-6999
埏	-7000
峮	-7001
峷	-7002
劰	-7003
坓	-7004
尼	-7005
幪	-7006
卖	-7007
吙	-7008
埜	-7009
塨	-7010
宲	-7011
巢	-7012
擟	-7013
嗺	-7014
尫	-7015
巙	-7016
弄	-7017
怓	-7018
悐	-7019
厃	-7020
姂	-7021
嫣	-7022
崫	-7023
忢	-7024
妲	-7025
姃	-7026
崗	-7027
喣	-7028
坡	-7029
嫖	-7030
寕	-7031
欝	-7032
埸	-7033
姠	-7034
嫲	-7035
嬖	-7036
宍	-7037
庢	-7038
慴	-7039
憿	-7040
<	-7041
嘶	-7042
失	-7043
婈	-7044
媭	-7045
嬿	-7046
極	-7047
剪	-7048
塆	-7049
壟	-7050
娹	-7051
嫕	-7052
寉	-7053
岋	-7054
嶕	-7055
怸	-7056
慮	-7057
湠	-7058
咓	-7059
唘	-7060
喕	-7061
嗓	-7062
孿	-7063
岾	-7064
年	-7065
幹	-7066
忩	-7067
怋	-7068
怖	-7069
戞	-7070
搈	-7071
匈	-7072
半	-7073
圌	-7074
埚	-7075
婹	-7076
嬊	-7077
寜	-7078
嵧	-7079
懹	-7080
嗡	-7081
宐	-7082
屔	-7083
待	-7084
愅	-7085
楸	-7086
啢	-7087
嫝	-7088
宂	-7089
寙	-7090
嵪	-7091
嶍	-7092
廝	-7093
叔	-7094
垑	-7095
堒	-7096
妶	-7097
宗	-7098
庽	-7099
滘	-7100
堩	-7101
姖	-7102
媫	-7103
嶪	-7104
巣	-7105
希	-7106
廞	-7107
噲	-7108
囆	-7109
囗	-7110
塘	-7111
嬁	-7112
寛	-7113
巇	-7114
帍	-7115
幁	-7116
忪	-7117
揕	-7118
噸	-7119
埃	-7120
夞	-7121
娄	-7122
嬒	-7123
宮	-7124
廣	-7125
徚	-7126
忏	-7127
忺	-7128
劦	-7129
呯	-7130
圜	-7131
塕	-7132
墺	-7133
妳	-7134
宿	-7135
巒	-7136
庪	-7137
廠	-7138
槤	-7139
喠	-7140
塴	-7141
姕	-7142
娃	-7143
孹	-7144
崳	-7145
嵽	-7146
廱	-7147
慩	-7148
摾	-7149
号	-7150
嘒	-7151
坁	-7152
堦	-7153
墴	-7154
娘	-7155
婛	-7156
寅	-7157
尉	-7158
崀	-7159
吘	-7160
喬	-7161
嚄	-7162
嚝	-7163
垻	-7164
壽	-7165
媝	-7166
嶈	-7167
嶝	-7168
廉	-7169
忙	-7170
斜	-7171
厧	-7172
噜	-7173
夗	-7174
岭	-7175
彞	-7176
怩	-7177
嗲	-7178
嘹	-7179
岯	-7180
幟	-7181
廰	-7182
廸	-7183
悤	-7184
挭	-7185
垁	-7186
墦	-7187
峾	-7188
嶡	-7189
廽	-7190
径	-7191
囃	-7192
嬯	-7193
嬷	-7194
庀	-7195
彇	-7196
彙	-7197
孈	-7198
已	-7199
性	-7200
恙	-7201
楱	-7202
勒	-7203
壣	-7204
姏	-7205
媄	-7206
弜	-7207
弞	-7208
徟	-7209
扠	-7210
濠	-7211
倜	-7212
堵	-7213
姁	-7214
嫽	-7215
尝	-7216
幇	-7217
楔	-7218
唷	-7219
嗵	-7220
垌	-7221
垿	-7222
壕	-7223
寂	-7224
慠	-7225
扷	-7226
咘	-7227
坐	-7228
垎	-7229
墖	-7230
墭	-7231
婍	-7232
媎	-7233
媿	-7234
岓	-7235
弆	-7236
徃	-7237
徝	-7238
悿	-7239
慳	-7240
叓	-7241
咜	-7242
噫	-7243
囡	-7244
坂	-7245
報	-7246
塒	-7247
孂	-7248
带	-7249
廋	-7250
抶	-7251
堠	-7252
塧	-7253
奠	-7254
孆	-7255
巼	-7256
弃	-7257
彨	-7258
復	-7259
忉	-7260
围	-7261
奘	-7262
嬐	-7263
察	-7264
岨	-7265
崿	-7266
巸	-7267
庲	-7268
徣	-7269
怿	-7270
晲	-7271
喀	-7272
坕	-7273
妐	-7274
娖	-7275
寋	-7276
帺	-7277
彡	-7278
抯	-7279
攍	-7280
哘	-7281
嚏	-7282
埨	-7283
娞	-7284
巟	-7285
帩	-7286
恨	-7287
团	-7288
圐	-7289
尐	-7290
崯	-7291
怚	-7292
愯	-7293
捽	-7294
嘸	-7295
囕	-7296
夙	-7297
姲	-7298
姼	-7299
居	-7300
巎	-7301
廯	-7302
洈	-7303
狎	-7304
坴	-7305
奖	-7306
妟	-7307
婚	-7308
嬅	-7309
岰	-7310
崹	-7311
帑	-7312
慰	-7313
挸	-7314
掭	-7315
嗉	-7316
嗶	-7317
嘻	-7318
娼	-7319
孖	-7320
孡	-7321
岔	-7322
崆	-7323
崡	-7324
彂	-7325
揿	-7326
搲	-7327
昀	-7328
晳	-7329
朖	-7330
噞	-7331
園	-7332
坭	-7333
姺	-7334
嫜	-7335
寓	-7336
尋	-7337
崻	-7338
徏	-7339
怉	-7340
悞	-7341
搎	-7342
唹	-7343
噼	-7344
堟	-7345
壢	-7346
夾	-7347
妹	-7348
嫈	-7349
尊	-7350
恃	-7351
披	-7352
摥	-7353
楼	-7354
击	-7355
呑	-7356
坲	-7357
壍	-7358
夒	-7359
娯	-7360
巏	-7361
惑	-7362
攇	-7363
柈	-7364
吣	-7365
埊	-7366
壨	-7367
弝	-7368
恆	-7369
惽	-7370
効	-7371
勏	-7372
厥	-7373
否	-7374
囥	-7375
囪	-7376
塿	-7377
妧	-7378
巷	-7379
幤	-7380
弅	-7381
弼	-7382
愷	-7383
抢	-7384
摕	-7385
历	-7386
圦	-7387
央	-7388
孬	-7389
崢	-7390
嶣	-7391
巂	-7392
惘	-7393
慂	-7394
慭	-7395
嘟	-7396
城	-7397
墣	-7398
奌	-7399
委	-7400
嫑	-7401
帣	-7402
帪	-7403
慃	-7404
椒	-7405
双	-7406
呡	-7407
坆	-7408
幨	-7409
怏	-7410
总	-7411
择	-7412
搃	-7413
撜	-7414
擏	-7415
擮	-7416
剧	-7417
咺	-7418
塞	-7419
婪	-7420
媥	-7421
寗	-7422
嶵	-7423
帤	-7424
弘	-7425
德	-7426
忓	-7427
怂	-7428
戠	-7429
拁	-7430
旍	-7431
嘵	-7432
坋	-7433
好	-7434
峑	-7435
崔	-7436
嵣	-7437
怡	-7438
悆	-7439
惃	-7440
戇	-7441
擑	-7442
昚	-7443
桶	-7444
渼	-7445
嘔	-7446
坔	-7447
塡	-7448
夡	-7449
娚	-7450
嬦	-7451
屢	-7452
崄	-7453
彰	-7454
忎	-7455
所	-7456
抃	-7457
抜	-7458
晦	-7459
榟	-7460
呅	-7461
喔	-7462
嗧	-7463
嘨	-7464
垂	-7465
埉	-7466
妱	-7467
嫢	-7468
嫻	-7469
嶤	-7470
布	-7471
徢	-7472
急	-7473
掝	-7474
撄	-7475
啪	-7476
囑	-7477
塬	-7478
夬	-7479
嵃	-7480
徑	-7481
忌	-7482
怹	-7483
愪	-7484
抾	-7485
撿	-7486
棦	-7487
槲	-7488
洚	-7489
唭	-7490
啎	-7491
囵	-7492
婢	-7493
尗	-7494
崤	-7495
嵓	-7496
帟	-7497
愱	-7498
慹	-7499
桀	-7500
组	-7501
哢	-7502
嘉	-7503
堓	-7504
奇	-7505
妆	-7506
妿	-7507
娢	-7508
媈	-7509
嬌	-7510
宾	-7511
崃	-7512
嶨	-7513
彲	-7514
恌	-7515
恣	-7516
惈	-7517
惜	-7518
楹	-7519
喦	-7520
囖	-7521
圻	-7522
場	-7523
妝	-7524
姀	-7525
娸	-7526
孇	-7527
專	-7528
彬	-7529
怷	-7530
椷	-7531
叿	-7532
坼	-7533
孢	-7534
宼	-7535
屼	-7536
嵞	-7537
庈	-7538
忳	-7539
忽	-7540
悝	-7541
暹	-7542
柔	-7543
槪	-7544
毲	-7545
叻	-7546
呥	-7547
埱	-7548
塎	-7549
壋	-7550
姷	-7551
媯	-7552
孕	-7553
宦	-7554
屙	-7555
崕	-7556
崩	-7557
帻	-7558
彟	-7559
彽	-7560
恠	-7561
椆	-7562
楴	-7563
洑	-7564
煥	-7565
嚽	-7566
墒	-7567
复	-7568
婦	-7569
媣	-7570
嫞	-7571
孜	-7572
局	-7573
应	-7574
庤	-7575
弰	-7576
徆	-7577
惗	-7578
愕	-7579
戊	-7580
摎	-7581
撎	-7582
攤	-7583
昧	-7584
桿	-7585
炎	-7586
哇	-7587
嚼	-7588
圑	-7589
埋	-7590
墥	-7591
墩	-7592
娕	-7593
婵	-7594
宒	-7595
尧	-7596
尩	-7597
崑	-7598
戕	-7599
摝	-7600
旤	-7601
桪	-7602
梃	-7603
墌	-7604
夻	-7605
婾	-7606
媱	-7607
宴	-7608
嶓	-7609
怔	-7610
懈	-7611
栭	-7612
烪	-7613
匾	-7614
厀	-7615
堏	-7616
壁	-7617
壞	-7618
婉	-7619
嬃	-7620
寊	-7621
岆	-7622
峓	-7623
崞	-7624
帜	-7625
序	-7626
徻	-7627
扴	-7628
暨	-7629
梘	-7630
棷	-7631
济	-7632
叵	-7633
呤	-7634
咦	-7635
嘀	-7636
妀	-7637
娂	-7638
婡	-7639
幣	-7640
忷	-7641
未	-7642
橂	-7643
及	-7644
咂	-7645
堐	-7646
妽	-7647
岱	-7648
峙	-7649
崝	-7650
嵁	-7651
惮	-7652
敘	-7653
榶	-7654
檷	-7655
囁	-7656
團	-7657
堨	-7658
增	-7659
夀	-7660
夎	-7661
娏	-7662
娒	-7663
嬧	-7664
孵	-7665
宣	-7666
富	-7667
幠	-7668
彐	-7669
惻	-7670
捛	-7671
晫	-7672
泜	-7673
剱	-7674
吂	-7675
嘫	-7676
堀	-7677
妜	-7678
寏	-7679
寭	-7680
尀	-7681
峏	-7682
崈	-7683
嵔	-7684
嵾	-7685
巴	-7686
帄	-7687
帏	-7688
帱	-7689
悘	-7690
懭	-7691
揗	-7692
擶	-7693
斞	-7694
剴	-7695
墅	-7696
妤	-7697
婷	-7698
嬗	-7699
峉	-7700
巬	-7701
幆	-7702
幬	-7703
廦	-7704
弓	-7705
忖	-7706
敄	-7707
朸	-7708
机	-7709
橩	-7710
橸	-7711
囟	-7712
囨	-7713
塗	-7714
姍	-7715
嬳	-7716
孧	-7717
崵	-7718
嶠	-7719
师	-7720
庝	-7721
庹	-7722
引	-7723
彔	-7724
征	-7725
徜	-7726
忬	-7727
怬	-7728
恹	-7729
愧	-7730
扇	-7731
打	-7732
控	-7733
搐	-7734
摗	-7735
旜	-7736
昛	-7737
槳	-7738
窿	-7739
呃	-7740
嘳	-7741
団	-7742
婑	-7743
婮	-7744
岩	-7745
岿	-7746
崘	-7747
嵈	-7748
憝	-7749
憡	-7750
懊	-7751
撍	-7752
擐	-7753
杛	-7754
楻	-7755
唁	-7756
嘧	-7757
囒	-7758
夠	-7759
妬	-7760
孾	-7761
巺	-7762
恝	-7763
懥	-7764
懿	-7765
挼	-7766
旆	-7767
昲	-7768
晓	-7769
暿	-7770
櫌	-7771
沓	-7772
涚	-7773
噪	-7774
埖	-7775
奎	-7776
媠	-7777
媹	-7778
容	-7779
岘	-7780
嵇	-7781
徿	-7782
心	-7783
惩	-7784
挪	-7785
掆	-7786
掶	-7787
棖	-7788
歼	-7789
咊	-7790
坊	-7791
増	-7792
崺	-7793
巕	-7794
干	-7795
幸	-7796
庯	-7797
庵	-7798
廙	-7799
恴	-7800
恼	-7801
恾	-7802
戍	-7803
抲	-7804
揓	-7805
揾	-7806
斥	-7807
旀	-7808
昫	-7809
榇	-7810
榈	-7811
檪	-7812
歾	-7813
佽	-7814
吿	-7815
四	-7816
地	-7817
坘	-7818
奞	-7819
娐	-7820
岤	-7821
峄	-7822
嵷	-7823
帒	-7824
幧	-7825
庫	-7826
弙	-7827
弣	-7828
弪	-7829
怦	-7830
悢	-7831
愋	-7832
搽	-7833
摰	-7834
擛	-7835
滄	-7836
煅	-7837
嘷	-7838
囘	-7839
垫	-7840
埄	-7841
墕	-7842
婽	-7843
媉	-7844
媛	-7845
嬭	-7846
尭	-7847
尳	-7848
岥	-7849
峦	-7850
嵗	-7851
底	-7852
庮	-7853
庼	-7854
怨	-7855
搧	-7856
敎	-7857
橅	-7858
殮	-7859
哯	-7860
唱	-7861
嚣	-7862
图	-7863
娌	-7864
嬸	-7865
嶏	-7866
幭	-7867
幵	-7868
戃	-7869
拦	-7870
捕	-7871
樭	-7872
垲	-7873
垶	-7874
孋	-7875
寃	-7876
尹	-7877
屚	-7878
岚	-7879
崣	-7880
嵅	-7881
嵉	-7882
帨	-7883
彝	-7884
愆	-7885
慔	-7886
技	-7887
晒	-7888
晤	-7889
暮	-7890
楢	-7891
漃	-7892
写	-7893
劮	-7894
勥	-7895
坒	-7896
堸	-7897
壜	-7898
奍	-7899
媙	-7900
孔	-7901
就	-7902
崦	-7903
崭	-7904
恻	-7905
懻	-7906
戉	-7907
扝	-7908
抱	-7909
擖	-7910
涁	-7911
淗	-7912
啼	-7913
喞	-7914
噑	-7915
囅	-7916
壳	-7917
奵	-7918
娎	-7919
婯	-7920
媽	-7921
嫨	-7922
屨	-7923
屿	-7924
岟	-7925
崉	-7926
巃	-7927
弊	-7928
弨	-7929
忍	-7930
忞	-7931
忭	-7932
忿	-7933
慎	-7934
曩	-7935
曻	-7936
嚊	-7937
嚤	-7938
奛	-7939
姾	-7940
婅	-7941
婭	-7942
寬	-7943
嵑	-7944
帉	-7945
帵	-7946
弹	-7947
忱	-7948
恎	-7949
想	-7950
投	-7951
揅	-7952
擬	-7953
枷	-7954
染	-7955
绂	-7956
哄	-7957
嚩	-7958
坰	-7959
塂	-7960
娗	-7961
婂	-7962
媋	-7963
嬱	-7964
峋	-7965
嵎	-7966
嵚	-7967
廫	-7968
怇	-7969
悰	-7970
拄	-7971
挮	-7972
掻	-7973
撲	-7974
攝	-7975
暎	-7976
洗	-7977
叐	-7978
嚇	-7979
固	-7980
垛	-7981
垪	-7982
塀	-7983
墈	-7984
夸	-7985
奡	-7986
妚	-7987
嫇	-7988
嫉	-7989
宱	-7990
寐	-7991
屈	-7992
屴	-7993
峘	-7994
幱	-7995
弚	-7996
