<unk>	0
<s>	0
</s>	0
,	-3.15523
▁	-4.51692
▁నుండి	-4.52911
▁కి	-4.5547
లో	-4.71663
▁ఉన్నాయి	-4.73705
▁మీ	-4.81414
▁ఉంది	-4.83492
▁గ్రామం	-4.90599
▁దూరంలో	-4.97139
▁10	-5.08281
▁ఈ	-5.13587
ం	-5.15303
ను	-5.19027
▁గ్రామంలో	-5.23947
లు	-5.34361
▁మరియు	-5.38111
▁5	-5.44287
ని	-5.46441
గా	-5.52146
కు	-5.53246
▁కేంద్రం	-5.56232
▁సమీప	-5.60984
▁ఒక	-5.65906
ల	-5.68661
ు	-5.80055
▁కూడా	-5.81872
న	-5.86002
▁ద్వారా	-5.8809
▁ఆ	-5.95347
స్	-5.9707
▁సౌకర్యం	-5.98129
తో	-5.99332
ి	-6.01004
్	-6.01482
▁లో	-6.03086
▁పైబడిన	-6.05938
▁సంఖ్య	-6.08192
ము	-6.10201
▁పాఠశాల	-6.10306
ా	-6.12704
ారు	-6.13741
▁కళాశాల	-6.14447
:	-6.15534
▁"	-6.16029
కి	-6.18129
-	-6.18735
వ	-6.20042
▁ప్రభుత్వ	-6.21635
▁జిల్లా	-6.22131
▁యొక్క	-6.2645
▁వ్యవస్థ	-6.29198
▁గ్రామానికి	-6.3172
ాన్ని	-6.32144
▁లేదు	-6.32649
▁రహదారి	-6.33034
▁ఇది	-6.34236
▁సరఫరా	-6.37129
క	-6.383
ాలు	-6.41965
ే	-6.44468
ర్	-6.4522
న్	-6.4734
▁ప్రాథమిక	-6.48438
▁ఉన్న	-6.4858
▁ఆరోగ్య	-6.52373
ంగా	-6.55467
▁సామాజిక	-6.56128
▁లోపు	-6.63073
త	-6.64805
▁ప్రైవేటు	-6.67014
ీ	-6.67734
ానికి	-6.67879
▁వైద్య	-6.68039
"	-6.68104
▁కింది	-6.68293
ది	-6.68432
ల్	-6.69253
▁తన	-6.69384
▁ఎక్కువ	-6.73118
లను	-6.73815
▁పాటు	-6.76479
;	-6.7714
▁అని	-6.77461
ుడు	-6.79307
వి	-6.81226
నే	-6.81544
▁నీరు	-6.82617
▁కంటే	-6.83257
▁-	-6.84488
▁/	-6.84817
s	-6.85402
▁విద్యా	-6.86613
▁వ్యవసాయ	-6.87116
▁అ	-6.87157
▁ఇతర	-6.87628
క్	-6.87709
ట్	-6.88101
ాడు	-6.88928
ర	-6.89346
ుల	-6.90854
▁ప్రధాన	-6.93736
మ	-6.94002
మైన	-6.94182
▁కోడ్	-6.94637
▁బ్యాంకు	-6.95184
▁తరువాత	-6.95708
▁ఉన్నారు	-6.96124
▁విద్యుత్	-6.96417
▁చెందిన	-6.97207
▁అనే	-6.97811
▁జనగణన	-6.9813
▁ఆసుపత్రి	-6.98706
▁వాణిజ్య	-6.99037
▁పబ్లిక్	-6.99207
▁వారం	-7.00003
▁పథకం	-7.00433
రి	-7.00911
▁ఫోన్	-7.01
▁లేదా	-7.01023
▁ప్రకారం	-7.01206
▁షెడ్యూల్డ	-7.01513
▁కు	-7.0239
▁గంటల	-7.03341
▁భారత	-7.04465
▁ఒకటి	-7.04763
▁ఆఫీసు	-7.05205
▁కోసం	-7.05446
▁స్టేషన్	-7.05869
▁పోస్టాఫీసు	-7.06604
▁సినిమా	-7.06917
▁రెండు	-7.06967
లోనూ	-7.08846
రా	-7.09005
▁వి	-7.0917
▁బి	-7.0939
▁వైద్యశాల	-7.09505
▁·	-7.11496
గ	-7.12244
▁ఆయన	-7.1279
▁అభివృద్ధి	-7.13327
▁సంస్థ	-7.14454
రు	-7.14571
లోను	-7.14778
డం	-7.15024
▁వ్యవసాయానికి	-7.15306
నా	-7.16483
▁7	-7.17196
▁రోడ్లు	-7.17556
డ్	-7.17889
▁వ	-7.18078
పై	-7.18918
పు	-7.19299
లా	-7.20853
▁లు	-7.21088
▁2	-7.21926
▁ను	-7.22253
▁తిరిగి	-7.22509
స	-7.2301
ద	-7.23038
ిన	-7.23191
▁జాతీయ	-7.23197
▁నుంచి	-7.23297
ాల	-7.24863
ులు	-7.24994
▁న	-7.25383
య	-7.25593
▁రాష్ట్ర	-7.25689
▁డిగ్రీ	-7.2614
లలో	-7.26268
ట	-7.26306
▁the	-7.26937
లి	-7.28021
▁ఉప	-7.28447
ంలో	-7.28545
ాయి	-7.28927
▁విధంగా	-7.29492
▁గా	-7.29839
▁ఉంటుంది	-7.30235
▁వారి	-7.31008
▁1	-7.31463
▁3	-7.32285
▁జరుగుతోంది	-7.32636
▁రైల్వే	-7.3276
లోని	-7.33837
▁కొన్ని	-7.33974
▁మధ్య	-7.34542
▁చాలా	-7.34547
▁ప్రత్యేక	-7.34801
లకు	-7.35902
/	-7.36042
▁18	-7.36154
డ	-7.37079
ప	-7.37213
▁ఏ	-7.37444
▁టి	-7.37456
డి	-7.37473
▁ఉత్పత్తి	-7.37595
▁ఏడాది	-7.37807
ాలను	-7.38982
టి	-7.39377
సి	-7.39386
▁లోని	-7.39853
▁వంటి	-7.4015
మా	-7.41571
▁అనేక	-7.41884
▁మురుగునీటి	-7.42868
ింది	-7.4305
▁అందుతుంది	-7.43092
▁కలిగి	-7.43144
▁భూ	-7.43876
▁ఎ	-7.4411
▁వరకు	-7.44803
▁నీటి	-7.44905
▁పొడుగునా	-7.44966
▁పెద్ద	-7.45351
డానికి	-7.45397
ూ	-7.46161
మ్	-7.46835
డు	-7.47718
'	-7.48153
▁బస్సు	-7.48703
▁కా	-7.49137
▁వారు	-7.49197
▁కుటుంబ	-7.49966
▁4	-7.50581
▁క	-7.51505
▁పేరు	-7.51764
▁2011	-7.52258
మి	-7.52402
▁వృత్తి	-7.52772
▁of	-7.53571
▁శిక్షణ	-7.54102
▁అండ్	-7.54528
▁'	-7.54781
జ్	-7.554
కా	-7.55582
▁జరుగుతుంది	-7.55813
▁సంఘం	-7.56502
▁ఆమె	-7.56571
▁తెలుగు	-7.56575
n	-7.56855
▁కొరకు	-7.57236
▁ని	-7.57499
▁సంత	-7.57627
▁నమోదు	-7.58102
▁ప్రవహిస్తుంది	-7.5816
▁రవాణా	-7.582
నీ	-7.58233
▁పౌర	-7.58531
▁కాలువల	-7.58678
▁మండల	-7.58694
▁మాధ్యమిక	-7.58988
▁గణాంకాల	-7.59047
▁డాక్టర్లు	-7.59731
▁శ్రీ	-7.60223
▁సహకార	-7.60327
▁మురుగునీరు	-7.60544
▁బృందం	-7.60881
▁విస్తరించి	-7.6117
▁స్వయం	-7.61486
▁మంది	-7.61676
▁6	-7.6172
▁సామాన్య	-7.61867
▁కాగా	-7.61885
▁ఔషధ	-7.62125
▁కేంద్రాలు	-7.62205
▁కార్యాలయం	-7.62607
▁మీద	-7.62668
▁కులాల	-7.64201
▁వినియోగం	-7.64285
▁మ	-7.64557
▁సొసైటీ	-7.64815
▁సంపూర్ణ	-7.64895
▁తెగల	-7.64964
▁మొదలైన	-7.65046
▁సేవా	-7.65067
సు	-7.65089
▁లైన్	-7.65284
▁జనన	-7.65423
▁సహాయక	-7.65425
వా	-7.65472
▁ఇ	-7.65938
▁ప్రత్యామ్నాయ	-7.66112
▁ఆటల	-7.66411
▁సబ్	-7.66577
▁పశు	-7.66699
▁సైన్స్	-7.66786
▁ప్రాథమికోన్నత	-7.67143
▁మైదానం	-7.6721
▁బాలల	-7.67639
▁సంరక్షణ	-7.67857
▁సి	-7.67871
▁ఆటో	-7.67944
▁పిన్	-7.67979
▁గ్రంథాలయం	-7.68044
▁కార్యకర్త	-7.68127
▁ఇంటర్నెట్	-7.68319
▁నిమిత్తం	-7.68337
▁సంక్షేమ	-7.68411
రీ	-7.68482
▁వార్తాపత్రిక	-7.68509
ల్లో	-7.68726
త్	-7.68765
▁మొబైల్	-7.69002
మ్మ	-7.6906
▁శిశు	-7.69063
కో	-7.69142
▁మొదటి	-7.69212
▁మరణాల	-7.69215
▁సంచార	-7.69331
▁ఆర్ట్స్	-7.69378
▁పంపిణీ	-7.69437
▁లోను	-7.69446
▁మార్కెటింగ్	-7.69567
▁లొకేషన్	-7.69602
▁చేసిన	-7.69725
▁ఆశా	-7.69852
▁మగవారి	-7.70134
▁జనాభాతో	-7.7018
▁పారామెడికల్	-7.70583
▁ఆడవారి	-7.70586
ప్	-7.70717
▁రీడింగ్	-7.7076
దు	-7.70813
▁హెక్టార్లలో	-7.70929
▁మార్కెట్	-7.70968
▁రూం	-7.70985
▁పోలింగ్	-7.7099
▁జూనియర్	-7.71002
▁స	-7.71017
▁లాండ్	-7.71042
▁ఇళ్లతో	-7.71163
▁8	-7.71388
▁చిన్న	-7.71409
▁పారిశుధ్య	-7.71641
▁మాతా	-7.71648
▁వీధుల	-7.71686
▁టెలిఫోన్	-7.71872
▁అంగన్	-7.71944
▁వాడీ	-7.71955
మే	-7.72212
▁సరఫరాల	-7.72223
▁పోస్ట్	-7.72423
▁ఉత్పాదక	-7.72674
▁కొరియర్	-7.73355
▁నా	-7.73371
న్న	-7.73548
▁హాలు	-7.73607
▁పోషకాహార	-7.73727
▁చేస్తున్నారు	-7.73753
▁గృహావసరాల	-7.74032
▁దూరం	-7.7407
▁పక్కనే	-7.74244
▁సేకరించే	-7.74383
▁కంకర	-7.74847
▁వస్తువులు	-7.74868
▁ఇంటింటిక	-7.74936
▁పరపతి	-7.75073
▁అనియత	-7.75099
▁సమీకృత	-7.75215
▁వ్యర్థాలను	-7.75239
▁మా	-7.75406
▁బయోగ్యాస్	-7.75552
తి	-7.75621
▁మరుగుదొడ్డి	-7.7569
▁దివ్యాంగ	-7.75838
▁ఏటీఎమ్	-7.75862
▁డిస్పెన్సరీ	-7.75871
▁అలోపతి	-7.75909
▁ప్రతి	-7.76064
▁పాలీటెక్నిక్	-7.76099
▁చెత్తను	-7.76285
▁టెలిగ్రాఫ్	-7.76612
▁పట్టణమైన	-7.76724
▁పారబోస్త	-7.76752
▁పై	-7.76886
▁పి	-7.7697
▁కెఫె	-7.77693
▁కేంద్రమైన	-7.77999
▁మూడు	-7.78007
▁జనాభా	-7.78022
▁మేనేజిమెంటు	-7.78162
▁వలన	-7.78408
▁వనరుల	-7.78565
▁బాలబడి	-7.7871
▁తర్వాత	-7.79047
▁అవసరాల	-7.79109
▁రోజుకు	-7.79345
▁తమ	-7.79362
▁అమలవుతోంది	-7.79978
▁ల	-7.80668
▁బ	-7.81367
▁in	-7.81415
▁ఉంటాయి	-7.81432
గ్	-7.82252
▁తో	-7.82811
చ	-7.82827
▁కుళాయిల	-7.82997
▁వద్ద	-7.83518
▁ఆఫ్	-7.83584
న్నాయి	-7.8363
▁వరి	-7.83647
▁పాఠశాలలు	-7.83707
▁ది	-7.838
▁జల	-7.8392
▁15	-7.84251
అ	-7.84511
▁అసెంబ్లీ	-7.84593
జ	-7.84707
ములు	-7.84951
▁బస్సులు	-7.8503
2	-7.85255
▁అయితే	-7.85376
▁అతని	-7.85569
▁a	-7.8593
యా	-7.85994
▁చేతిపంపుల	-7.86055
▁రోజువారీ	-7.86178
▁గుండా	-7.86462
▁అయిన	-7.86673
▁ప్రాంతాల	-7.86691
▁గ్రామాల	-7.87022
య్య	-7.87148
▁ప	-7.87364
ుని	-7.87593
▁12	-7.87737
▁రా	-7.87745
▁కానీ	-7.87779
▁అవుతున్నాయి	-7.88202
▁కిలోమీటర్ల	-7.88442
▁దూరంలోనూ	-7.88656
వు	-7.89132
లే	-7.89477
లతో	-7.90493
▁ఇంజనీరింగ్	-7.90641
టం	-7.9116
▁--	-7.91798
రో	-7.92548
▁అది	-7.93306
▁వ్యవసాయం	-7.94698
▁అంటారు	-7.94748
▁చేసి	-7.94947
▁9	-7.95088
▁సిబ్బంది	-7.95645
▁ఇక్కడ	-7.95649
▁కాని	-7.96424
▁సౌకర్యాలు	-7.96532
▁దాని	-7.96713
▁మొత్తం	-7.96841
యు	-7.97039
▁లేని	-7.97253
లీ	-7.97262
బడింది	-7.97307
▁గురించి	-7.97753
▁తారు	-7.9777
▁ఉత్తర	-7.97868
ో	-7.97957
▁డి	-7.97976
▁మొదలైనవి	-7.98898
▁గ్రామ	-7.98955
చే	-7.99396
▁మండలం	-7.99429
వే	-7.99448
▁జరిగిన	-7.99567
▁లేరు	-7.99833
గు	-8.00505
▁దక్షిణ	-8.00525
▁సమయంలో	-8.00574
▁దీని	-8.01242
▁నేరుగా	-8.01586
ద్	-8.01677
రే	-8.02768
▁మాత్రమే	-8.02769
▁:	-8.0308
▁17	-8.0348
▁తెలంగాణ	-8.03639
హ	-8.04464
ed	-8.04565
▁అన్ని	-8.0499
▁ప్ర	-8.04992
▁16	-8.0536
▁శాల	-8.0539
పి	-8.05487
▁ఆంధ్ర	-8.05503
మని	-8.0564
▁రాష్ట్రం	-8.05873
▁and	-8.06023
▁ఎస్	-8.06052
▁ఆర్	-8.06082
సా	-8.06119
▁అతను	-8.06201
▁బహిరంగ	-8.06347
తా	-8.0646
ష్	-8.06785
▁14	-8.07058
▁ము	-8.0745
▁ముందు	-8.08049
కే	-8.08093
▁0	-8.08135
ంది	-8.08189
▁చేయ	-8.08408
ాలి	-8.08431
▁శుద్ధి	-8.08508
▁ప్రభుత్వం	-8.08877
టు	-8.09003
▁to	-8.09158
▁ఓ	-8.09329
▁తిరుగుతున్నాయి	-8.10223
ణ	-8.1024
▁11	-8.10303
▁ఇద్దరు	-8.10589
▁బా	-8.10615
▁మంచినీటి	-8.11521
వారు	-8.12786
▁రక్షిత	-8.13043
లేదు	-8.13065
▁కాలంలో	-8.13789
జి	-8.13894
▁సా	-8.13903
▁పా	-8.14387
▁20	-8.14699
▁మండలానికి	-8.1498
యి	-8.15366
దా	-8.15446
▁దీనిని	-8.15707
▁ప్రపంచ	-8.15776
▁సం	-8.16059
వనరుల్లోకి	-8.16473
▁వచ్చిన	-8.16518
1	-8.16651
శ	-8.1698
బ్	-8.17083
▁వల్ల	-8.17325
▁ఇందులో	-8.17464
ిక	-8.17644
▁మే	-8.17711
▁లోనూ	-8.17895
నూ	-8.18298
▁వివిధ	-8.18356
▁హ	-8.18463
నో	-8.18723
▁ఒకరు	-8.1874
▁మె	-8.18919
▁ట్రాక్టర్లు	-8.1904
▁ఇవి	-8.19241
▁చేశారు	-8.19291
▁శ	-8.19855
బ	-8.20212
▁చ	-8.20496
3	-8.20502
ఫ్	-8.20517
▁వదులుతున్న	-8.21224
▁త	-8.21663
▁అతి	-8.21853
ంత	-8.21892
▁ఉ	-8.22127
▁సు	-8.2213
▁ఐ	-8.22626
ంతో	-8.22661
y	-8.22788
ాలలో	-8.22881
చి	-8.23114
▁జ	-8.23182
▁13	-8.23319
▁అందుబాటులో	-8.23432
ాలని	-8.23645
▁కొత్త	-8.23696
▁పలు	-8.23946
er	-8.24393
▁కె	-8.24665
ె	-8.24727
▁A	-8.25013
▁కలిగిన	-8.2524
▁స్	-8.25439
▁వాడేందుక	-8.25503
▁ప్రముఖ	-8.25673
▁పార్టీ	-8.25857
▁అనేది	-8.27116
బడిన	-8.27227
బా	-8.27503
వచ్చు	-8.27861
▁చేసే	-8.28241
▁మి	-8.28266
జా	-8.28487
▁మన	-8.2858
▁నాలుగు	-8.28752
▁S	-8.28992
కీ	-8.29231
▁ప్రజలు	-8.29247
▁మంచి	-8.2934
▁కారణంగా	-8.29425
▁సంవత్సరం	-8.29438
టా	-8.2977
ేందుకు	-8.30693
▁వా	-8.31079
▁గల	-8.31358
▁ముగ్గురు	-8.31772
▁య	-8.31831
▁గ్రామము	-8.32046
మో	-8.32196
యో	-8.32629
్లో	-8.32843
▁రెండవ	-8.33121
తు	-8.33288
▁తూర్పు	-8.33398
▁ఏర్పాటు	-8.33735
▁అవి	-8.34035
టానికి	-8.34319
సీ	-8.34417
ట్లు	-8.34904
▁సంగీత	-8.35223
పో	-8.35444
ప్ర	-8.35552
▁చేసింది	-8.35775
టీ	-8.36164
ing	-8.36251
▁చే	-8.36279
al	-8.36361
▁ఉండే	-8.36662
▁వీరు	-8.36791
పా	-8.36803
▁సాధారణంగా	-8.36865
▁అంటే	-8.36892
▁భారతీయ	-8.37084
▁తక్కువ	-8.37106
▁ఎక్కువగా	-8.37592
▁మహా	-8.37613
▁కో	-8.37786
▁జరిగింది	-8.37804
▁కొ	-8.37962
▁తండ్రి	-8.37969
▁అత్యంత	-8.38223
▁పూర్తి	-8.38392
▁అదే	-8.38529
బి	-8.38648
ప్ప	-8.38871
కం	-8.39004
▁అన్న	-8.39012
ష	-8.39032
▁ఆర్థిక	-8.39204
▁బావుల	-8.39309
▁సంవత్సరాల	-8.39937
▁ఇలా	-8.40428
▁చెప్ప	-8.40594
▁రాజకీయ	-8.40947
రాజు	-8.41042
▁పో	-8.41402
▁కథ	-8.41658
మును	-8.41695
▁రాజు	-8.41905
ాలకు	-8.42135
▁భాష	-8.42181
▁అను	-8.42332
▁గో	-8.42462
ిస్తూ	-8.42728
▁తయారు	-8.43072
గల	-8.43329
▁బహిరంగంగా	-8.43543
▁మండలంలోని	-8.43581
▁లా	-8.43732
▁రాజ	-8.43849
జీ	-8.44244
e	-8.44258
▁కలిసి	-8.44343
▁చిత్రం	-8.44526
▁జి	-8.44796
ైన	-8.44918
ౌ	-8.44992
వ్	-8.45095
▁ఒ	-8.45252
ించి	-8.45281
%	-8.45494
ంగ్	-8.45552
d	-8.46024
ండి	-8.4619
▁ప్రాంతం	-8.46194
▁పని	-8.46547
▁ఎం	-8.46566
▁వచ్చింది	-8.47126
డా	-8.47259
▁అలాగే	-8.47319
▁కాల	-8.47416
▁డాక్టరు	-8.47418
▁బోరుబావుల	-8.47445
ములో	-8.47461
ండ	-8.4754
▁ప్రస్తుతం	-8.47693
▁రామ	-8.47725
రం	-8.47758
▁వాటి	-8.47817
రె	-8.47936
▁కచ్చా	-8.48429
▁ప్రాంతంలో	-8.48576
మీ	-8.48651
ించ	-8.48674
▁గ	-8.48741
ిత	-8.49048
▁శక్తి	-8.50022
నుండి	-8.50073
▁కన్నా	-8.50179
▁అధిక	-8.50371
C	-8.50529
ముగా	-8.50755
ిస్తారు	-8.51075
గి	-8.51173
▁అక్కడ	-8.51255
యం	-8.51345
వాడు	-8.5135
▁వాడ	-8.51464
▁కాకుండా	-8.5154
4	-8.51725
▁మో	-8.51729
ై	-8.52159
▁57	-8.52211
▁లోకి	-8.52363
▁అనగా	-8.52378
▁ద	-8.52487
▁రి	-8.52516
టో	-8.52566
▁పోతోంది	-8.5292
▁యు	-8.53087
ాల్లో	-8.53428
▁చిత్ర	-8.5388
▁ఇంకా	-8.54124
▁పశ్చిమ	-8.54166
ంగ	-8.54267
మై	-8.54551
ధ	-8.54553
▁s	-8.54606
▁జా	-8.54665
▁పాత్ర	-8.54886
ప్పుడు	-8.55219
ళ్ళ	-8.55283
▁బాగా	-8.55284
కొ	-8.55394
గో	-8.55436
▁కేంద్రంలో	-8.55468
బడి	-8.55582
▁ఈయన	-8.55755
పల్లి	-8.5585
కుండా	-8.56221
క్ష	-8.56291
గ్రామంలో	-8.56312
ిస్తుంది	-8.56485
▁బ్రహ్మ	-8.56511
▁చె	-8.56763
▁ప్రదేశ్	-8.56816
A	-8.5696
▁లే	-8.57036
▁అమెరికా	-8.5721
!	-8.57249
▁నీ	-8.57346
టర్	-8.57499
▁కాదు	-8.58218
స్ట్	-8.58224
▁కల	-8.58716
ంచ	-8.58828
▁కాలం	-8.59072
భ	-8.59145
▁వారికి	-8.59677
▁దీనికి	-8.59959
▁భూమి	-8.59992
▁శాసనసభ	-8.6019
▁వే	-8.60222
▁తల	-8.60483
ళ్ల	-8.60543
ఆ	-8.60663
▁వచ్చే	-8.60671
▁మత	-8.60714
▁50	-8.60865
నం	-8.61068
▁పూ	-8.61135
▁30	-8.61204
▁తొలి	-8.61213
u	-8.61314
▁శాఖ	-8.61341
▁చెరువు	-8.61483
▁లేక	-8.61642
▁పేరుతో	-8.62017
▁క్రీ	-8.62022
▁హిందూ	-8.62024
▁•	-8.62187
M	-8.62225
▁2001	-8.62234
ుతూ	-8.62701
▁నగర్	-8.62794
▁చరిత్ర	-8.62863
▁దేశ	-8.62932
▁సుమారు	-8.63059
లుగా	-8.63169
a	-8.63746
▁వచ్చి	-8.63893
▁19	-8.639
ుడైన	-8.64169
?	-8.64236
▁సంబంధించిన	-8.64257
▁విద్య	-8.64748
▁ర	-8.65175
▁కొంత	-8.65198
▁ప్లాంట్	-8.65199
▁ధర్మ	-8.65237
సం	-8.65363
▁25	-8.65525
ష్ట	-8.65858
ేవారు	-8.66093
▁సాధారణ	-8.66209
▁పరి	-8.66455
▁కాంగ్రెస్	-8.67027
క్క	-8.67099
▁చేశాడు	-8.67159
t	-8.67171
లోనే	-8.67447
▁బె	-8.67621
▁ముఖ్య	-8.67624
నె	-8.67785
▁లభిస్తుంది	-8.67793
లె	-8.67808
▁ఉండ	-8.67917
▁పురుషుల	-8.67934
▁రైలు	-8.68031
▁చేయడం	-8.68034
▁ప్రజల	-8.68628
ించిన	-8.6871
ుడి	-8.68901
▁చి	-8.68933
▁నది	-8.68959
▁is	-8.69114
రావు	-8.69183
ముల	-8.69489
▁ఎన్	-8.69489
వీ	-8.69571
బడ్డాయి	-8.69723
6	-8.69886
▁స్వామి	-8.6989
▁తల్లి	-8.69933
▁కోట	-8.69979
ంద	-8.70076
చ్	-8.70295
▁డా	-8.70536
▁మాత్రం	-8.70718
▁చైనా	-8.71299
తే	-8.71581
▁పె	-8.71673
వ్వ	-8.71792
▁కార్	-8.71906
▁చా	-8.72264
▁భాగంగా	-8.72285
▁విడుదల	-8.72319
▁గొప్ప	-8.72489
▁రోజు	-8.72558
దీ	-8.72638
▁యుద్ధం	-8.72804
▁P	-8.72808
▁కే	-8.72956
▁చేర	-8.73283
ుకుని	-8.73289
▁అంద	-8.73494
తీ	-8.73555
▁దాదాపు	-8.73756
r	-8.74032
▁భార్య	-8.74097
▁C	-8.7419
▁కాక	-8.74293
ళ	-8.74325
దే	-8.74944
▁అంతర్జాతీయ	-8.75325
▁తా	-8.75595
▁పారుదల	-8.75619
▁వై	-8.75698
▁నగరం	-8.75714
మె	-8.75962
▁ట్రాక్టరు	-8.76049
▁అన	-8.76092
▁58	-8.76167
▁కనుక	-8.76196
▁పంపిస్తున్నారు	-8.76675
▁M	-8.76677
▁ఉన్నత	-8.76786
కర	-8.77261
▁భ	-8.77438
’	-8.7774
▁ఉండేది	-8.77903
▁రో	-8.77987
▁పొందిన	-8.78017
5	-8.78069
▁or	-8.78132
ాలతో	-8.7815
▁వె	-8.78174
▁మూల	-8.7825
▁వీరి	-8.78376
ar	-8.78434
▁పాల	-8.78457
00	-8.78695
▁కృష్ణ	-8.7879
▁హా	-8.78965
▁సాహిత్య	-8.79346
▁విశాఖపట్నం	-8.79366
▁నివాస	-8.79372
▁మరో	-8.79817
▁లోపే	-8.7982
హ్	-8.7996
▁భాగం	-8.8008
▁వాటిని	-8.80222
o	-8.80338
బడుతుంది	-8.80508
▁మరొక	-8.80547
▁=	-8.80648
▁గుంటూరు	-8.80773
p	-8.80838
▁గు	-8.80952
వారి	-8.81539
ట్టు	-8.8225
ులకు	-8.82291
▁కేవలం	-8.82657
▁మరింత	-8.82859
▁ఈమె	-8.82865
ాను	-8.82886
ుకొని	-8.82922
▁కొండ	-8.83032
సె	-8.83145
▁ఆధునిక	-8.83239
▁!	-8.8328
ుతుంది	-8.83341
▁అవ	-8.83382
▁ఒకే	-8.83428
▁నాటికి	-8.83453
డే	-8.83643
▁అంత	-8.83673
▁దుకాణం	-8.83684
▁దేశం	-8.83819
▁The	-8.83856
క్స్	-8.83961
c	-8.84
▁పాట	-8.84086
▁అమ్మ	-8.84136
▁షా	-8.84211
▁వ్యక్తి	-8.84273
ఇ	-8.84276
▁24	-8.84327
▁సె	-8.84404
▁గోదావరి	-8.84565
ుట	-8.84577
▁యా	-8.84604
▁ప్రా	-8.84638
▁తాను	-8.84734
వర్	-8.84812
▁వ్యాపార	-8.84889
▁ఆలయం	-8.84922
▁జీవ	-8.84932
▁దేవ	-8.8494
హా	-8.85041
కర్	-8.85151
ఖ	-8.85163
▁విశ్వవిద్యాలయం	-8.85196
▁21	-8.8532
▁నగర	-8.85334
▁శాలలో	-8.8537
▁జిల్లాలో	-8.85386
an	-8.8541
▁n	-8.85771
▁పంచ	-8.85804
▁c	-8.85844
త్త	-8.86027
పాడు	-8.86037
▁కృష్ణా	-8.86132
▁ప్రత్తి	-8.86198
▁ఇన్	-8.86203
▁ఆడ	-8.86259
▁59	-8.866
▁చివరి	-8.86924
యే	-8.86985
▁సో	-8.8711
▁ముఖ్యంగా	-8.87205
పూర్	-8.8737
థ	-8.87381
▁వున్న	-8.87637
▁రే	-8.87658
బు	-8.87844
▁హైదరాబాదు	-8.88089
లోకి	-8.88129
▁మార్చి	-8.88141
▁ఈనాడు	-8.88333
▁ఎన్నో	-8.88525
▁చేత	-8.8861
▁బ్రిటిష్	-8.88624
▁చూప	-8.88948
▁ఆధారంగా	-8.89063
▁గుర్తింపు	-8.89261
▁సౌకర్యాలున్నాయి	-8.89285
ళ్ళు	-8.89288
▁స్థానిక	-8.89299
పె	-8.89512
సన్	-8.89568
సే	-8.89744
▁పడ	-8.89929
▁సర్వ	-8.90004
▁నేను	-8.90082
▁మట్టిరోడ్ల	-8.9014
re	-8.90162
▁అప్పటి	-8.90199
▁B	-8.9027
▁ముఖ్యమైన	-8.90364
▁ఉండి	-8.90768
డంతో	-8.90804
▁ఐదు	-8.90827
▁ఉపయోగించ	-8.90983
▁స్థానంలో	-8.91044
▁పోటీ	-8.91126
▁అధికంగా	-8.91156
▁చేయని	-8.91203
ాన	-8.9121
▁f	-8.91553
▁ఒక్క	-8.91576
▁22	-8.91583
▁మానవ	-8.91615
కాల	-8.91674
▁తాగునీరు	-8.91709
▁‘	-8.91726
ింప	-8.9182
m	-8.91823
▁లలో	-8.91915
E	-8.92116
▁పోతున్నాయి	-8.92151
P	-8.92155
నది	-8.92483
▁పు	-8.92847
▁దేశంలో	-8.9303
▁వీర	-8.9313
▁యుద్ధ	-8.93173
పల్లిలో	-8.93192
ద్ద	-8.93341
▁దానిని	-8.9343
▁లేకుండా	-8.93438
డో	-8.93451
▁బో	-8.93538
▁భారతదేశంలో	-8.93544
▁జె	-8.93659
▁సీ	-8.94019
▁కేంద్ర	-8.94123
▁జన	-8.94143
ాయ	-8.94159
▁తప్ప	-8.94197
▁లను	-8.94225
పురం	-8.94281
▁సముద్ర	-8.94312
హి	-8.94363
▁పెట్ట	-8.94439
or	-8.94554
▁అందులో	-8.94703
డీ	-8.94829
▁ఖ	-8.95063
▁చేస్తారు	-8.95173
▁విజయం	-8.95191
సో	-8.95234
20	-8.95352
ుటకు	-8.95354
▁చెయ్య	-8.95459
కులు	-8.95463
ట్ల	-8.95585
7	-8.95613
▁శాతం	-8.9564
▁దగ్గర	-8.95801
▁లెక్కల	-8.95833
షన్	-8.95882
▁మిగిలిన	-8.95923
ీకరణ	-8.95924
▁సిబ్బంద	-8.96124
మునకు	-8.9634
▁23	-8.9638
▁కంపెనీ	-8.96479
మున	-8.96523
b	-8.9658
▁ఎంతో	-8.96691
▁పొ	-8.9675
బో	-8.96807
ధి	-8.97034
▁2009	-8.97071
ట్ట	-8.97094
ఎ	-8.97627
▁for	-8.97659
ొ	-8.97672
కూ	-8.9771
య్	-8.97876
▁నె	-8.97877
▁be	-8.97893
ండ్	-8.97903
న్స్	-8.98024
i	-8.98088
▁అవుతోంది	-8.98138
గానే	-8.9829
▁ప్రారంభ	-8.98292
▁శివ	-8.98434
ులను	-8.98548
▁స్టేషను	-8.9864
▁ఇప్పుడు	-8.98695
▁పొంద	-8.9907
S	-8.99089
th	-8.99173
ంచి	-8.99201
▁పంప	-8.99345
ంటి	-8.99623
షి	-8.99723
ండు	-8.99985
▁వీ	-9.00045
▁జీవిత	-9.00185
స్త	-9.00227
▁ఆరు	-9.00417
ri	-9.00608
▁రకాల	-9.00735
l	-9.00756
▁అలా	-9.00856
▁అంచనా	-9.01045
▁యునైటెడ్	-9.0105
▁పూర్తిగా	-9.01093
▁దా	-9.01162
▁నెల్లూరు	-9.01219
▁వీటిలో	-9.01412
▁కారణం	-9.01436
▁వలె	-9.01488
చు	-9.01647
▁కవి	-9.01694
▁అవకాశం	-9.01725
▁ఉపయోగిస్తారు	-9.01756
ారని	-9.01851
▁విజయవాడ	-9.0189
in	-9.02088
▁చేయడానికి	-9.0223
h	-9.02347
▁ఎత్తు	-9.0262
▁అర్థం	-9.02701
జు	-9.02878
▁వారిని	-9.03029
ly	-9.03058
▁డె	-9.03071
▁రె	-9.03369
▁ఏక	-9.03377
వె	-9.03545
▁స్త్రీల	-9.03603
O	-9.0365
▁2007	-9.03782
▁p	-9.03873
▁ప్రసిద్ధి	-9.03909
▁m	-9.03998
es	-9.04143
▁అత్యధిక	-9.04217
I	-9.04432
▁ఎల్	-9.04458
▁వైపు	-9.04498
▁ప్రేమ	-9.04703
▁అతిపెద్ద	-9.04803
▁ఇండియా	-9.05066
▁విజయ	-9.05088
కె	-9.05241
▁చేసారు	-9.0525
ూరు	-9.05301
▁ప్రదర్శన	-9.05378
లేని	-9.05385
మన్	-9.05472
▁26	-9.05559
▁రెడ్డి	-9.0556
▁2008	-9.05993
ంటే	-9.06382
▁జనవరి	-9.06449
ంబ	-9.06453
▁అప్పుడు	-9.06455
▁పరిశోధన	-9.06483
▁కలిపి	-9.06755
▁ఇదే	-9.06837
ాడని	-9.06903
▁తు	-9.07063
▁సేవ	-9.07083
▁బాల	-9.07281
▁H	-9.07309
g	-9.07325
▁నిర్మాణ	-9.07354
▁మహబూబ్	-9.07444
రియా	-9.07527
▁పెంచ	-9.0777
v	-9.07872
▁నాటి	-9.07984
▁వీటిని	-9.08171
▁ఉత్తమ	-9.08273
▁వెళ్ళి	-9.08462
▁నిర్వహణ	-9.08564
▁శతాబ్దం	-9.08577
▁వలస	-9.08903
▁G	-9.09043
▁సైనిక	-9.09127
నగర్	-9.0922
▁27	-9.09261
▁గాంధీ	-9.09484
త్వం	-9.09574
▁జూలై	-9.09645
▁రచయిత	-9.09698
_	-9.09795
▁రాజధాని	-9.09885
▁స్థాయి	-9.10127
▁I	-9.10153
ందుకు	-9.1019
▁వేద	-9.10265
ీయ	-9.10512
▁లాంటి	-9.10544
లూ	-9.10776
▁చేస్తుంది	-9.10838
▁చూడ	-9.10983
▁వ్యాధి	-9.1125
▁ఉంచ	-9.11273
ును	-9.11295
▁పే	-9.11389
9	-9.11434
▁ప్రజా	-9.11465
ిస్తున్న	-9.11494
ెను	-9.11517
▁మొ	-9.11517
▁జూన్	-9.11585
▁పీ	-9.11638
▁పాత	-9.11834
▁మార్చ	-9.11901
మైనది	-9.11952
▁కృషి	-9.12012
ur	-9.12022
D	-9.12193
ుకున్న	-9.12566
▁నే	-9.12646
దని	-9.12647
▁పూర్వ	-9.12667
▁పత్రిక	-9.12789
▁ప్రభావం	-9.12797
▁40	-9.12813
పీ	-9.12876
▁28	-9.13083
▁సమ	-9.13134
ట్టి	-9.13136
▁ఎన్నికలలో	-9.13296
▁బొ	-9.13347
▁దశ	-9.13389
▁అల్	-9.13391
చ్చ	-9.13464
కొండ	-9.13532
షా	-9.13595
▁వివాహం	-9.13693
▁భారతదేశం	-9.13697
▁దానికి	-9.13706
ల్లా	-9.13717
▁పదం	-9.13758
జన	-9.13759
”	-9.13824
10	-9.13893
మీద	-9.13936
▁తి	-9.14032
▁పురాతన	-9.14076
50	-9.14083
ra	-9.14208
్య	-9.14332
▁బీ	-9.14384
▁నాగ	-9.14423
ఫి	-9.14501
▁మై	-9.14512
▁సంవత్సరంలో	-9.14531
ిస్తాడు	-9.14621
▁అమెరికన్	-9.14667
▁చూసి	-9.14703
▁సై	-9.14807
▁ఫ	-9.14914
ic	-9.1492
le	-9.14936
▁గ్రామాలు	-9.15023
▁వెళ్ళ	-9.15137
ల్ల	-9.15211
▁పెళ్ళి	-9.15233
▁మాట	-9.15337
▁శతాబ్దంలో	-9.15508
▁స్థానం	-9.15516
▁స్త్రీ	-9.15607
▁కట్ట	-9.15623
19	-9.15661
▁బౌద్ధ	-9.15711
లం	-9.15782
▁లి	-9.15811
▁పైగా	-9.1583
▁కుమారుడు	-9.15834
మూ	-9.1592
▁నిర్మాణం	-9.15925
▁సంప్రదాయ	-9.16161
ణి	-9.1618
▁ఇతడు	-9.16217
▁విశ్వ	-9.16236
▁D	-9.16332
8	-9.16564
ుకునే	-9.16635
బ్బ	-9.16746
కల్	-9.16747
▁మొట్టమొదటి	-9.16765
స్తా	-9.16903
త్తు	-9.17038
▁వరకూ	-9.17057
▁ఎలా	-9.1714
▁ఆంధ్రప్రదేశ్	-9.17242
కుడు	-9.17296
▁డ	-9.17683
▁బ్ర	-9.17749
▁పద	-9.17757
టన్	-9.17778
▁రక్షణ	-9.17823
▁నూనె	-9.17829
▁చికిత్స	-9.1834
ందు	-9.18356
▁ప్రాంతాలలో	-9.18601
ించారు	-9.18669
▁బు	-9.18685
▁వీటి	-9.18865
ములను	-9.18924
▁గాని	-9.18928
తం	-9.18929
▁as	-9.18958
స్వామి	-9.18975
▁వేరు	-9.19128
ఒక	-9.19138
▁రసాయన	-9.19213
ుతున్న	-9.19231
▁చంప	-9.19393
et	-9.19545
▁భావ	-9.19572
చేయ	-9.19587
వపేజీ	-9.19606
▁అయినప్పటికీ	-9.19609
▁జో	-9.19643
మాన	-9.19755
▁ఫి	-9.19811
▁పొందింది	-9.19849
వో	-9.19912
ించే	-9.20007
రాజ	-9.20013
▁నగరంలో	-9.20033
ుకున్నారు	-9.20074
గిరి	-9.20161
▁కళా	-9.20172
▁మూడవ	-9.20183
పతి	-9.20222
ంట్	-9.2027
నియా	-9.20375
▁చేసాడు	-9.20471
▁హై	-9.20509
▁ఎక్స్	-9.20531
|	-9.20641
▁సర్	-9.20878
▁వస్తుంది	-9.20923
▁నూతన	-9.21064
గ్రామానికి	-9.2108
ంగి	-9.21082
▁నాటక	-9.21165
▁విషయం	-9.21418
▁వెంకట	-9.21511
కార	-9.21557
▁2006	-9.21653
▁ఎంత	-9.21752
▁అవసరం	-9.21846
▁కొందరు	-9.21899
▁న్యూ	-9.21905
▁వేల	-9.21908
▁re	-9.22049
▁దాడి	-9.22252
ద్ధ	-9.22256
పాలెం	-9.22262
▁ప్రస్తుత	-9.22367
▁2010	-9.22412
▁ప్రాచీన	-9.22521
టింగ్	-9.22535
▁కీ	-9.22583
▁ఇవ్వ	-9.22612
▁ఏప్రిల్	-9.22692
బడ	-9.22729
▁L	-9.22912
▁సంగీతం	-9.22971
▁మందుల	-9.22987
▁చంద్ర	-9.23135
▁సహా	-9.23205
ేశ్వర	-9.23327
▁అల	-9.23339
▁ప్రక్రియ	-9.23348
0	-9.23498
▁మార్	-9.23506
ుకోవడం	-9.23613
▁మహిళల	-9.23761
▁అమలు	-9.23846
ంజ	-9.23874
f	-9.23917
ిని	-9.23931
ప్పటికీ	-9.2394
30	-9.23987
జర్	-9.23999
టే	-9.24035
▁సాంకేతిక	-9.24055
▁మారింది	-9.2409
▁దేశాలలో	-9.24207
పొ	-9.24246
▁సంస్కృతి	-9.24246
డె	-9.24261
▁F	-9.24315
▁చిత్తూరు	-9.24513
▁పట్ట	-9.24528
లపై	-9.24591
▁N	-9.24705
మైంది	-9.24875
▁రాయ	-9.24877
40	-9.24898
▁బ్రిటీష్	-9.24984
▁లె	-9.25024
▁R	-9.25031
B	-9.25038
am	-9.25351
us	-9.25388
▁సంస్థలు	-9.25603
పద	-9.25708
▁ఊ	-9.2601
▁వర్ణ	-9.26033
▁రూ	-9.26099
ంప	-9.26279
▁మద్దతు	-9.26313
ులైన	-9.26319
▁తమిళ	-9.26599
▁బట్టి	-9.26627
▁ఇతని	-9.26819
లై	-9.26979
▁జాతి	-9.27002
▁అగ్ని	-9.27008
▁నిర్వహించ	-9.27054
వరం	-9.27088
▁శాస్త్ర	-9.27197
▁పైన	-9.27201
▁ఫలితంగా	-9.27234
▁భారీ	-9.27295
▁by	-9.27412
శి	-9.27569
నని	-9.27631
▁జరిగే	-9.27788
▁సంస్కృత	-9.27861
▁కాలువ	-9.28044
జె	-9.2807
N	-9.28087
ించాడు	-9.2813
▁నారాయణ	-9.28168
రామ	-9.28219
▁అతడు	-9.28251
ః	-9.28271
▁with	-9.28275
▁ఉష్ణోగ్రత	-9.28276
▁పది	-9.28335
▁కుల	-9.28345
11	-9.28517
▁దు	-9.28566
▁అయింది	-9.28663
ప్రైవేటు	-9.28838
▁K	-9.28855
▁ఆంగ్ల	-9.28898
▁వార	-9.29043
▁b	-9.29134
▁స్వ	-9.29467
ల్స్	-9.29476
స్తారు	-9.29496
▁రంగు	-9.29506
▁సభ	-9.29584
▁కర్నూలు	-9.29691
▁వ్యతిరేకంగా	-9.29798
ad	-9.29952
కల	-9.30042
▁క్రింద	-9.3005
స్తూ	-9.30063
k	-9.30105
▁సహజ	-9.30174
▁లేవు	-9.30177
▁ఫిబ్రవరి	-9.30205
▁పాడ	-9.30215
▁పాలన	-9.30489
▁పిలుస్తారు	-9.30625
తాయి	-9.30661
R	-9.30744
సర్	-9.30789
రూ	-9.30883
▁ఏర్పడిన	-9.30899
▁రూపంలో	-9.31044
▁ధర	-9.31065
▁తెలియ	-9.31082
▁వేరుశనగ	-9.31178
▁చర్య	-9.31241
గే	-9.31253
▁భర్త	-9.31314
▁కోర	-9.31393
యూ	-9.31437
త్ర	-9.31555
▁గారు	-9.31582
ఫ	-9.31602
▁నిర్వహించారు	-9.31633
▁రచన	-9.3169
▁రోడ్డు	-9.31803
▁చాల	-9.31825
▁సరిహద్దు	-9.3185
యర్	-9.31879
▁న్యాయ	-9.31911
కుల	-9.32015
ఫా	-9.32041
▁విధానం	-9.32103
వాడ	-9.32121
▁స్వతంత్ర	-9.3213
బె	-9.32147
12	-9.32228
▁నల్ల	-9.32308
▁ఐరోపా	-9.32409
▁చుట్టూ	-9.32508
▁మొక్కజొన్న	-9.32615
ation	-9.32623
▁పంట	-9.32665
▁సత్య	-9.32677
రణ	-9.32776
పెట్ట	-9.32847
▁హిందీ	-9.32897
▁ప్రసిద్ధ	-9.32917
▁తీర	-9.33008
▁కూడిన	-9.33102
న్ని	-9.33138
▁నేషనల్	-9.33262
at	-9.33276
▁చేస్తూ	-9.33303
పడ	-9.33344
▁ప్రకాశం	-9.33393
▁కాం	-9.33436
డమే	-9.33515
▁గుర్తించ	-9.33543
ుడిగా	-9.33562
▁29	-9.33682
▁పరీక్ష	-9.33844
ిస్తాయి	-9.33876
▁ఫా	-9.33979
▁ఇంటి	-9.33996
)	-9.34087
60	-9.34145
ర్స్	-9.34188
▁దేశాల	-9.34396
తాడు	-9.34472
ఁ	-9.34585
మర్	-9.34879
▁జట్టు	-9.349
ుగా	-9.34938
▁31	-9.35095
ాత్మక	-9.351
▁ఆది	-9.35102
స్తాయి	-9.35161
నాడు	-9.35248
▁ప్రపంచంలో	-9.35248
▁వాడు	-9.35399
ునిగా	-9.35406
▁T	-9.35408
▁మహ	-9.3552
▁విలువ	-9.35542
▁ఆలయ	-9.35569
▁ఆహార	-9.35641
▁ఆత్మ	-9.35675
స్తుంది	-9.35675
▁రాజా	-9.35699
ూర్	-9.35705
▁హె	-9.35767
బీ	-9.35909
▁చేస్తున్న	-9.35937
ట్స్	-9.35978
▁సింగ్	-9.35998
▁జన్మించాడు	-9.36069
▁2004	-9.36164
▁లీ	-9.36244
0,000	-9.36493
▁చేయబడింది	-9.36541
▁కనిపించ	-9.36565
▁రంగ	-9.36605
లేక	-9.36643
ుకున్నాడు	-9.36685
▁టా	-9.36697
దో	-9.36753
▁నిర్మించ	-9.36779
▁గి	-9.36786
వర	-9.36799
▁తిరుపతి	-9.36841
▁పర్వత	-9.36859
ధ్య	-9.36977
▁చెట్టు	-9.37118
L	-9.37136
రై	-9.3724
జం	-9.37254
▁అధికార	-9.37315
ఘ	-9.37354
▁పాప	-9.37478
▁గొ	-9.37485
▁ప్రధానంగా	-9.37531
▁జయ	-9.37537
▁ఎంపిక	-9.3758
▁సమీపంలో	-9.37735
▁అన్నాడు	-9.37802
సర	-9.37846
▁వాటిలో	-9.37865
మంది	-9.37903
▁బల	-9.37923
▁అక్టోబరు	-9.38055
▁బే	-9.38078
▁గురువు	-9.38229
ళ్లు	-9.38254
▁కూ	-9.38347
▁ఇక్కడి	-9.38359
▁పట్ల	-9.38376
▁నిర్మించిన	-9.38668
శా	-9.38792
▁పర్వము	-9.38825
▁సంవత్సరాలు	-9.3883
▁W	-9.3886
▁ప్రణాళిక	-9.38897
▁కంప్యూటర్	-9.39015
ుకుంది	-9.39042
▁ఆగస్టు	-9.39095
▁ఆట	-9.39156
▁మార్పు	-9.39161
T	-9.39163
▁ఆయనకు	-9.39168
▁శ్రీకాకుళం	-9.39211
▁మంత్ర	-9.39232
▁శా	-9.39249
▁ఉదాహరణకు	-9.39347
▁గృహాలు	-9.39391
▁మొదట	-9.39438
70	-9.39471
▁ఆనంద	-9.395
▁పూర్	-9.39591
▁ముస్లిం	-9.39626
▁పాటలు	-9.39645
తను	-9.39665
▁ఉంటే	-9.39699
▁అల్ల	-9.39756
14	-9.39767
▁నవల	-9.3978
▁d	-9.39996
▁పరిధిలో	-9.40083
▁తనకు	-9.40091
దర	-9.40093
పల్లె	-9.40118
ించింది	-9.40128
▁ఏడు	-9.40155
▁రేడియో	-9.40288
▁పొడవు	-9.403
▁గాలి	-9.40304
ులుగా	-9.40389
▁U	-9.40405
తారు	-9.40406
▁ష	-9.40446
▁E	-9.40545
్యం	-9.40619
▁సంయుక్త	-9.40626
▁చెంద	-9.40691
▁భాషా	-9.40693
పుడు	-9.40739
▁సంబంధం	-9.40775
▁గ్రామములో	-9.40815
రూప	-9.40878
▁హైదరాబాద్	-9.40956
▁సాంస్కృతిక	-9.40967
▁వరంగల్	-9.40978
ro	-9.41027
33	-9.41159
▁పట్టణ	-9.41338
▁చేర్చ	-9.41457
▁ప్రవేశ	-9.41494
▁గుడి	-9.41504
▁2013	-9.41565
▁మార్గం	-9.41598
▁ఒప్పందం	-9.41657
▁సందర్భంగా	-9.41675
▁ఎందుకంటే	-9.41782
▁నవ	-9.4184
▁జొన్న	-9.42015
పోయిన	-9.4215
స్థ	-9.42321
▁అయి	-9.42486
▁నేల	-9.42535
13	-9.42584
en	-9.42687
25	-9.42759
▁ఖండ	-9.42862
23	-9.42926
▁చట్టం	-9.42929
ించడం	-9.42938
▁వర	-9.42962
on	-9.4304
ుతారు	-9.4305
▁విశేష	-9.43082
21	-9.43231
పోయింది	-9.43256
▁35	-9.4329
▁తీసుకు	-9.43329
H	-9.43375
▁భాషలో	-9.43426
▁ప్రకృతి	-9.43441
▁సినీ	-9.43448
▁ఉండటం	-9.4351
▁ఆసక్తి	-9.43553
▁ఇప్పటికీ	-9.43599
▁2014	-9.43625
పర్	-9.43667
ఉ	-9.437
▁100	-9.43851
▁కాబట్టి	-9.43892
▁అతనికి	-9.43919
=	-9.43924
▁పద్ధతి	-9.43939
తులు	-9.43976
▁డిసెంబరు	-9.43981
వై	-9.44062
▁పూజ	-9.44065
▁విదేశీ	-9.44169
▁మద్రాసు	-9.44274
త్య	-9.44278
▁హో	-9.44307
▁మద్య	-9.4439
▁2005	-9.44534
▁రెండో	-9.44587
▁ఉంటారు	-9.44678
ేవాడు	-9.44708
లర్	-9.44774
▁మూస	-9.44783
▁పర	-9.44973
దం	-9.44983
▁భారతదేశ	-9.44993
▁చెప్పాడు	-9.45016
▁సమస్య	-9.45061
▁ఖాన్	-9.4514
99	-9.45162
▁పండుగ	-9.45184
▁స్థాయిలో	-9.45258
▁కొద్ది	-9.4526
▁రాసిన	-9.45273
▁భౌతిక	-9.45279
ృ	-9.45284
రాయ	-9.45413
▁వెంటనే	-9.45554
▁that	-9.45586
▁ఘన	-9.456
ఏ	-9.45607
▁ఆసియా	-9.45729
ంట	-9.45768
▁రాత్రి	-9.45787
▁బాల్	-9.45805
▁వ్యాసం	-9.45878
కై	-9.45976
▁పాకిస్థాన్	-9.4599
▁దేవాలయం	-9.4613
18	-9.46358
il	-9.4639
▁సెప్టెంబరు	-9.46636
▁ఉన్నది	-9.4664
చేసి	-9.46779
ుడిని	-9.46842
టిక్	-9.46915
కాలంలో	-9.46959
▁బాధ	-9.47017
▁మొక్క	-9.47022
▁ఇక	-9.47048
▁తిరుగుబాటు	-9.47057
ాక	-9.47083
▁దృష్టి	-9.47086
▁జాబితా	-9.47087
భా	-9.47133
▁పుట్ట	-9.47198
▁గారి	-9.47285
ర్ల	-9.47342
▁కాంతి	-9.47405
▁ఖమ్మం	-9.47483
కాలం	-9.47485
కోట	-9.47492
జో	-9.47559
ాడ	-9.4757
▁ప్రయాణ	-9.47587
▁టై	-9.47629
▁పాకిస్తాన్	-9.47715
▁నవంబరు	-9.47729
▁సిద్ధ	-9.47756
కాయ	-9.47781
▁శాంతి	-9.47782
వైపు	-9.47808
▁ఎయిర్	-9.47943
▁సాధించ	-9.47985
▁సామ్రాజ్యం	-9.48118
▁సోమ	-9.48165
24	-9.48173
▁కార్య	-9.48176
్యు	-9.48193
ce	-9.48251
▁g	-9.48272
తుల	-9.48277
▁చక్రవర్తి	-9.48413
పేట	-9.4855
▁నలుగురు	-9.48567
▁దారి	-9.4865
16	-9.48738
F	-9.48745
17	-9.48769
80	-9.48798
టె	-9.48853
▁ప్రాణ	-9.48887
▁సహ	-9.4889
వచ్చును	-9.48983
▁సహాయ	-9.49057
ధా	-9.49102
▁కాలనీ	-9.49128
గొ	-9.49207
ాలుగా	-9.49226
రక	-9.49238
▁టీ	-9.49301
ితే	-9.49636
▁రావు	-9.49836
▁సమయం	-9.49961
▁తె	-9.49973
▁స్వాతంత్ర్య	-9.50013
87	-9.50096
▁వేడి	-9.50147
▁ప్రజలకు	-9.50293
93	-9.50347
▁శిక్ష	-9.50398
ంతా	-9.50492
▁దీన్ని	-9.50557
▁యూనియన్	-9.50576
▁నియంత్రణ	-9.50591
▁సూర్య	-9.5064
▁రక్త	-9.50641
15	-9.50715
▁గురు	-9.50749
la	-9.5077
▁తొలగించ	-9.50898
▁ఢిల్లీ	-9.50974
▁ప్రెస్	-9.51063
▁నాడు	-9.51095
▁విడుదలైన	-9.51105
▁గౌరవ	-9.51107
86	-9.51151
01	-9.51212
▁వెనుక	-9.51212
న్నా	-9.51232
▁రాజ్య	-9.51279
టరు	-9.51346
▁ఉన్నాడు	-9.51467
పరి	-9.51472
▁తెలుగులో	-9.51565
▁మార	-9.51658
▁చెప్పవచ్చు	-9.51691
▁చెప్పిన	-9.51727
▁రచించిన	-9.51733
▁వేసవి	-9.51759
▁నమూనా	-9.518
▁తరచుగా	-9.51801
▁60	-9.51851
▁నిర్మించారు	-9.51895
▁జన్మ	-9.52014
▁వేయ	-9.5205
కరణ	-9.5208
▁అవార్డు	-9.52152
ిస్తే	-9.52248
యాన్	-9.52295
వాద	-9.52369
▁చెక్క	-9.52496
ీకరించ	-9.52512
▁అనుసరించి	-9.52573
వలసిన	-9.52728
▁ప్రారంభించారు	-9.52746
92	-9.52788
08	-9.52826
చె	-9.5292
▁2000	-9.52982
▁విజయనగరం	-9.53047
▁నమ్మ	-9.53137
▁వంటివి	-9.53191
లైన	-9.53252
▁రు	-9.53298
▁త్రి	-9.53391
▁బ్రాహ్మణ	-9.53432
el	-9.5347
▁ఆధారపడి	-9.5347
▁విజ్ఞాన	-9.53487
▁పసుపు	-9.53516
▁సాధన	-9.53575
▁కలసి	-9.53625
▁తగ్గ	-9.53631
▁రికార్డు	-9.5364
▁డీ	-9.53645
▁చదువు	-9.53669
▁on	-9.53724
▁క్రింది	-9.53748
▁జపాన్	-9.53783
రెడ్డి	-9.53809
▁v	-9.53821
ద్ర	-9.53834
శక్తి	-9.53979
▁ఆల్	-9.53988
▁చిత్రంలో	-9.53998
▁తక్కువగా	-9.54127
}	-9.54177
▁వివాహ	-9.54227
▁సైన్యం	-9.54325
ుకుంటారు	-9.54349
ol	-9.54365
▁భావిస్తున్నారు	-9.54461
▁పడి	-9.5462
st	-9.54637
▁బహు	-9.54674
▁రష్యా	-9.5473
88	-9.5488
▁నల్గొండ	-9.5498
▁de	-9.55016
▁మాట్లాడ	-9.55023
తె	-9.55058
వరకు	-9.5508
28	-9.55091
55	-9.55093
▁లింగ	-9.55136
▁మారి	-9.55161
▁లక్షల	-9.55172
ent	-9.55177
▁ఇం	-9.55226
▁ప్రాంతాలు	-9.55248
▁కల్పించ	-9.55292
▁డే	-9.55335
is	-9.5536
▁శాస్త్రీయ	-9.55441
it	-9.55524
▁అయినా	-9.55619
బర్	-9.55686
▁కొడుకు	-9.55692
▁పరిశ్రమ	-9.5571
భవ	-9.55716
▁కర్ణాటక	-9.55726
▁t	-9.55732
ుతాయి	-9.55734
03	-9.55771
▁రోజులు	-9.55786
మాన్	-9.55906
▁నిర్	-9.55989
▁నెల	-9.56044
▁దీనిలో	-9.56099
శ్	-9.5618
▁కనిపిస్తుంది	-9.56271
వాగు	-9.56312
▁భక్తులు	-9.56312
▁ఉపయోగ	-9.56329
▁అర్ధ	-9.56428
▁వున్నవి	-9.5646
w	-9.56478
▁జర్మనీ	-9.56523
దేవి	-9.56597
▁హి	-9.56705
▁అనంతరం	-9.56732
▁చెందింది	-9.56748
▁జీవితం	-9.56825
▁పేజీ	-9.5684
▁మతం	-9.56884
తోపాటు	-9.56956
▁జు	-9.56958
▁పిల్లల	-9.57056
▁పరిచయం	-9.57067
▁కామ	-9.5716
▁యుద్ధంలో	-9.57167
32	-9.57237
▁32	-9.57238
ద్య	-9.57272
మన	-9.57324
గారు	-9.57376
90	-9.57385
▁రాష్ట్రంలో	-9.57492
థి	-9.57507
స్టర్	-9.5751
▁బై	-9.57523
▁రీ	-9.57528
▁కర్మ	-9.57598
▁ఫల	-9.57765
ంగు	-9.57778
ూరి	-9.57817
▁కౌ	-9.57819
▁కొనసాగ	-9.57832
వార	-9.57843
పరచ	-9.57952
29	-9.57957
▁r	-9.5797
మొ	-9.57982
89	-9.58049
▁సృష్టించ	-9.58094
▁పట్టణం	-9.58095
డర్	-9.58123
▁V	-9.58131
45	-9.58136
రంగ	-9.58154
వలసి	-9.58156
ున్న	-9.58164
యిన	-9.58262
▁దర్శకత్వం	-9.58292
గం	-9.58402
▁was	-9.58451
▁కథలు	-9.58518
▁వ్యాసాలు	-9.58554
▁తరగతి	-9.5859
▁క్రైస్తవ	-9.586
48	-9.58614
▁క్యా	-9.5865
▁జిల్లాకు	-9.58677
కోసం	-9.58682
▁బాధ్యత	-9.5872
▁నిజాం	-9.58735
65	-9.58741
▁అసలు	-9.58742
26	-9.58805
▁సూక్ష్మ	-9.58807
డము	-9.5882
▁పరిస్థితి	-9.58858
గారి	-9.58878
07	-9.58981
▁గృహ	-9.59005
ta	-9.59079
▁from	-9.59099
▁సంఘ	-9.59109
85	-9.59139
▁బంగారు	-9.59176
పర	-9.59241
బీయెస్	-9.59273
▁అధ్యయనం	-9.59325
చా	-9.59386
▁కుమార్తె	-9.59555
▁మరి	-9.59724
22	-9.59754
▁కం	-9.59821
▁సార్లు	-9.59835
▁ఎమ్బీ	-9.5989
04	-9.59921
▁కోల్	-9.5994
▁మనం	-9.59955
కవి	-9.60005
▁భాగంలో	-9.60017
▁సినిమాలో	-9.60051
గె	-9.60126
▁మంద	-9.60178
▁ప్రాంతాల్లో	-9.60189
▁గత	-9.6019
స్తు	-9.60529
్ని	-9.60655
▁వ్రాసిన	-9.60658
li	-9.60676
▁కళ	-9.60705
▁|	-9.60776
ల్లి	-9.60847
▁చిత్రాలు	-9.60958
▁వ్యతిరేక	-9.60988
▁చదివిన	-9.61106
▁అందించ	-9.61142
▁జాన్	-9.61151
▁తిరుమల	-9.61167
▁ఎర్ర	-9.61275
పరంగా	-9.61302
▁ఉండవచ్చు	-9.61314
▁నెహ్రూ	-9.61357
▁రోజుల	-9.61702
నప్పుడు	-9.61809
▁51	-9.61818
నర్	-9.61845
▁అనుమతి	-9.61869
▁గ్రా	-9.61908
▁e	-9.61926
▁జ్ఞాన	-9.61981
ిస్తున్నారు	-9.62034
ంలోని	-9.62035
జ్ఞ	-9.62139
హో	-9.6214
43	-9.6223
▁యూ	-9.62255
యె	-9.62261
▁తరువాతి	-9.62265
స్తే	-9.6234
▁ధన	-9.62346
▁అందుకు	-9.62367
పురంలో	-9.62374
75	-9.62381
61	-9.62389
▁చరిత్రలో	-9.62428
ారెడ్డి	-9.62432
▁నిర్ణయించ	-9.62434
te	-9.62436
ter	-9.62464
ళి	-9.62478
05	-9.62512
▁మంత్రి	-9.62519
47	-9.62591
▁పట్టు	-9.62643
ార్థ	-9.62721
త్వ	-9.62739
▁జూ	-9.62781
▁రాజ్యం	-9.62802
▁చర్చి	-9.62809
పాటు	-9.62984
▁అర్బన్	-9.63064
▁an	-9.63072
27	-9.63101
▁ప్రాంత	-9.63139
▁వైద్యశాలలో	-9.63159
▁అవసరమైన	-9.63267
ుడ	-9.63328
▁తగ్గించ	-9.63372
▁1990	-9.63535
▁కొట్ట	-9.63585
▁గుర్తు	-9.63715
ment	-9.63729
▁పొందారు	-9.63747
▁కింద	-9.63919
▁వివరించ	-9.63934
చ్చి	-9.63988
▁అధ్యక్ష	-9.64167
▁చేయబడిన	-9.64183
98	-9.64214
ందని	-9.64275
▁ఆఫ్రికా	-9.64331
బడే	-9.64358
▁నీవు	-9.64403
77	-9.64416
▁ఇస్లాం	-9.64429
కారం	-9.64442
నిక్	-9.64459
▁నియోజకవర్గం	-9.64617
▁భక్తి	-9.64664
▁అనంతపురం	-9.64679
ినట్లు	-9.64717
▁లభించింది	-9.6474
56	-9.64877
▁జన్మించారు	-9.64907
శాస్త్ర	-9.64937
64	-9.65192
▁అర్థ	-9.65222
▁మూ	-9.65244
▁మొదలు	-9.65271
▁ఉండాలి	-9.65279
▁అవుతుంది	-9.65292
▁మల్ల	-9.65301
▁ఉపయోగించి	-9.65316
గడ	-9.65358
▁లకు	-9.65426
se	-9.65491
▁నో	-9.65498
ch	-9.6551
ునికి	-9.65559
31	-9.65593
▁కాపాడ	-9.65596
▁జీవన	-9.65634
▁మనిషి	-9.65661
▁రంగంలో	-9.65728
37	-9.65735
ఎస్	-9.65813
09	-9.65853
▁జీ	-9.65903
35	-9.65945
ెం	-9.65957
▁చేరి	-9.66008
▁st	-9.66017
ముఖ	-9.66057
▁ఉండగా	-9.66107
▁సర్వీసు	-9.66126
▁45	-9.66238
06	-9.66289
▁కల్	-9.66351
ంటు	-9.66351
▁జిల్లాలోని	-9.6637
▁k	-9.6645
లూరు	-9.66463
▁కోరిక	-9.66477
▁సూ	-9.66495
▁భారత్	-9.66569
ాపురం	-9.66582
సేన	-9.66597
ుంది	-9.66627
▁ఖర్చు	-9.66628
▁ప్రదేశం	-9.66712
▁ఆస్ట్రేలియా	-9.66718
వ్య	-9.66756
ండ్ల	-9.66829
▁నృత్య	-9.66838
▁పిల్లలు	-9.66851
▁కమిటీ	-9.66875
మల	-9.66916
ంక	-9.66965
▁అర్	-9.67002
un	-9.67111
▁అభి	-9.67158
ంబు	-9.67177
▁ఇచ్చిన	-9.67222
°	-9.67235
▁దైవ	-9.67256
▁con	-9.67314
▁రిపబ్లిక్	-9.67319
బడతాయి	-9.67375
▁స్కూల్	-9.67378
గుణ	-9.6743
▁మధ్యలో	-9.67454
36	-9.67463
▁బంధ	-9.67472
వారికి	-9.6752
▁వారిలో	-9.67698
పూడి	-9.67762
▁ఆలయంలో	-9.67766
91	-9.6777
రియ	-9.67798
వలన	-9.67855
న్నీ	-9.67944
▁ప్రశ్న	-9.68178
44	-9.68278
ుకు	-9.68424
▁మీటర్ల	-9.68472
▁సభ్యుల	-9.68517
▁వెల్	-9.68525
▁అన్నది	-9.68534
39	-9.68544
▁at	-9.68588
▁ముఖ	-9.68696
భాష	-9.687
▁ప్రాంతీయ	-9.68725
ంపై	-9.68729
▁సాధించింది	-9.68767
▁సభ్యులు	-9.68776
▁పుణ్య	-9.68844
▁గతంలో	-9.68849
▁వాతావరణం	-9.68951
▁అందువలన	-9.68995
▁కొంతమంది	-9.69021
▁స్వంత	-9.69046
▁వర్గం	-9.69117
త్తి	-9.6912
ాం	-9.69174
as	-9.69188
▁నాకు	-9.69201
ఫె	-9.69218
▁సార	-9.69255
▁రచనలు	-9.69305
నాటి	-9.69325
గ్ర	-9.69376
▁వంశ	-9.69393
▁సాంఘిక	-9.69396
▁క్రికెట్	-9.69416
▁చక్ర	-9.69461
దేవ	-9.69469
▁దర్శకుడు	-9.69545
um	-9.69549
▁ముందుగా	-9.69586
▁వాయువు	-9.69687
▁లాల్	-9.69743
67	-9.69773
▁అర్ధం	-9.69781
46	-9.6979
58	-9.69796
తల	-9.69834
▁నేర	-9.69955
42	-9.69971
డాన్ని	-9.69987
▁పనిచేశాడు	-9.70034
▁నీటిని	-9.70044
▁స్త్రీలు	-9.70086
▁ప్రాజెక్టు	-9.70124
95	-9.70162
ాది	-9.70181
▁{	-9.70181
▁చట్ట	-9.70186
▁వేస	-9.70242
49	-9.704
సూ	-9.70467
పోయి	-9.70502
▁దూరములో	-9.70524
▁జే	-9.70537
▁గ్	-9.70539
▁గె	-9.70577
కాలు	-9.70586
▁వదిలి	-9.70656
▁యోగ	-9.70684
▁ప్రత్యేకంగా	-9.70689
38	-9.70691
బే	-9.70752
▁అంతా	-9.70762
మెంట్	-9.70776
▁h	-9.70784
▁అఫ్	-9.70829
ఈ	-9.70863
▁పొందాడు	-9.7095
పే	-9.70983
62	-9.70984
ాలనే	-9.70991
▁are	-9.71072
పాల	-9.71085
శాస్త్రి	-9.71153
▁శాస్త్రం	-9.71161
పాటి	-9.71174
పల్లెలో	-9.71212
▁హెచ్	-9.71227
▁దూర	-9.71276
▁స్టా	-9.71323
▁పూర్వం	-9.71333
▁ఏర్పడింది	-9.71361
▁ఉండేవి	-9.71366
51	-9.71381
చీ	-9.71466
ండే	-9.71523
రిక	-9.71528
▁ఎక్కడ	-9.71547
చిన	-9.71688
మయిన	-9.71706
▁ఔ	-9.71733
▁చెరకు	-9.71751
▁ఆమెను	-9.71772
▁భూగర్భ	-9.71803
▁సే	-9.71803
▁స్టేట్స్	-9.71854
▁హు	-9.71858
▁వాయు	-9.71864
▁అమరావతి	-9.71922
▁అతడి	-9.72051
▁పురస్కారం	-9.7215
ధు	-9.72191
▁which	-9.72218
▁ప్రాంతాన్ని	-9.7225
▁విషయంలో	-9.7227
▁పుట్టిన	-9.72285
ాపూర్లో	-9.72409
▁ఇలాంటి	-9.72422
▁పల్లె	-9.72436
వని	-9.72453
తూ	-9.72486
కార్	-9.72491
▁ధ	-9.72505
పరమైన	-9.72509
▁చెన్నై	-9.72528
చో	-9.72588
▁33	-9.72606
నై	-9.72665
▁సుందర	-9.72682
▁1980	-9.72705
▁నటుడు	-9.72838
▁O	-9.72888
▁భా	-9.72923
▁w	-9.72956
▁2012	-9.72991
▁ఏరియా	-9.73003
▁తిరు	-9.7305
▁కన్నడ	-9.73082
పాడులో	-9.73141
లిన్	-9.73226
▁చారిత్రక	-9.73248
97	-9.73257
▁ఉందని	-9.73318
▁భావన	-9.73328
థా	-9.73368
-1	-9.73428
▁ప్రకటించ	-9.73479
▁యువ	-9.7356
మం	-9.7357
96	-9.73573
▁అక్కడి	-9.73613
▁నిర్వహించిన	-9.73646
▁బరువు	-9.73655
▁కోట్ల	-9.7372
V	-9.73749
▁కారణ	-9.73766
▁ఇతను	-9.73796
72	-9.73849
68	-9.7385
▁ఆమ్లం	-9.73975
క్కు	-9.7398
స్టు	-9.74027
హం	-9.74051
▁చేతిలో	-9.74118
▁చలన	-9.74129
ానంద	-9.74143
బుల్	-9.74149
▁లండన్	-9.74155
▁వంట	-9.74159
▁అధ్యక్షుడు	-9.74177
▁పనిచేశారు	-9.742
▁దాన్ని	-9.74268
▁జరుప	-9.74324
▁కష్ట	-9.7439
చర	-9.74391
▁మగ	-9.74477
▁సాధించిన	-9.74498
▁భావించ	-9.74543
▁ఫర్	-9.7458
▁పారిశ్రామిక	-9.74581
ండా	-9.74624
34	-9.74629
మూర్తి	-9.74689
సిన	-9.74739
▁పేర్లు	-9.74759
▁అప	-9.74775
▁ఉన్నా	-9.7483
ఖా	-9.74838
▁నిర్ణయ	-9.74907
జన్	-9.7496
▁మరణ	-9.74963
పూ	-9.75012
▁ప్రొ	-9.75039
74	-9.75107
02	-9.75122
ాయని	-9.75224
స్తున్న	-9.75264
▁నివేదిక	-9.75307
రియన్	-9.75307
▁వృక్ష	-9.75336
▁ఆలోచన	-9.75344
▁ప్రో	-9.75506
76	-9.75528
▁కడప	-9.7563
▁మనసు	-9.75662
సిస్	-9.75666
▁పదార్థం	-9.75745
ిగా	-9.75751
59	-9.75755
69	-9.75816
ti	-9.75865
▁ఆహారం	-9.75936
జ్జ	-9.75937
▁చివరకు	-9.75971
▁పర్యాటక	-9.75978
▁36	-9.76042
▁ఇంత	-9.761
71	-9.76177
నీయ	-9.76239
▁నంది	-9.76264
▁ఫ్రెంచ్	-9.76266
▁సంబంధిత	-9.76266
ల్ని	-9.76302
66	-9.76409
41	-9.76447
న్నది	-9.76486
▁ఆమెకు	-9.76494
84	-9.76552
▁జరగ	-9.76607
▁ఇండియన్	-9.76702
▁it	-9.76827
▁బయట	-9.7687
ికి	-9.7691
83	-9.76948
ఐ	-9.77086
కము	-9.77131
▁గీత	-9.77143
డుగు	-9.77161
▁దేశాలు	-9.77221
81	-9.77253
▁జై	-9.77269
▁మిలియన్	-9.77269
94	-9.77274
బడ్డ	-9.77295
▁కుటుంబం	-9.77305
▁మిలియన్ల	-9.77311
▁చింత	-9.77321
శాల	-9.77325
53	-9.77401
యన్	-9.77404
▁తెర	-9.77412
దేశ	-9.77419
▁కర	-9.77529
▁డో	-9.77542
▁దశలో	-9.77636
న్నారు	-9.77665
బడ్డారు	-9.77766
ాంగ	-9.7781
id	-9.7783
▁పొడి	-9.78005
▁ప్రకటన	-9.78034
▁తగిన	-9.78065
ల్డ్	-9.78224
▁మామిడి	-9.78313
▁అర	-9.78356
▁నక్షత్ర	-9.78361
▁మ్యాచ్	-9.78397
▁కార్యక్రమాలు	-9.78477
లియా	-9.78504
▁దేవి	-9.78509
డంలో	-9.78556
▁గాను	-9.78601
▁వేసి	-9.78648
రాల	-9.7869
78	-9.78691
రుగు	-9.78714
▁కావ్య	-9.78751
▁సమాచార	-9.78776
కంటే	-9.78776
52	-9.78795
▁తే	-9.78804
▁హత్య	-9.7895
ప్రాథమిక	-9.78965
ir	-9.78986
▁ప్రాధాన్యత	-9.78989
▁మార్పులు	-9.79018
▁ప్రదర్శించ	-9.79021
▁చూస	-9.79023
G	-9.79041
▁పుస్తకం	-9.79116
▁మట్టి	-9.79157
▁°	-9.79187
ములలో	-9.79193
▁పరమ	-9.79202
ినప్పుడు	-9.79219
U	-9.79244
▁గ్రామీణ	-9.79262
▁వీలు	-9.79273
▁భాగ	-9.79307
▁సోవియట్	-9.79308
▁ద్రవ	-9.79308
▁వ్యక్తిగత	-9.7935
▁బాణ	-9.79417
జే	-9.795
▁ఉద్యోగ	-9.79506
▁జాతుల	-9.7955
▁కరీంనగర్	-9.79554
▁జనరల్	-9.79638
▁తయారీ	-9.79746
▁ఎఫ్	-9.79791
▁he	-9.79853
▁ప్రసార	-9.79864
63	-9.79884
▁వరల్డ్	-9.79885
▁మళ్ళీ	-9.80092
▁ప్రథమ	-9.80134
ఫీ	-9.80172
▁స్వర	-9.80174
▁కోర్టు	-9.80213
తర	-9.80265
▁వెళ్లి	-9.80295
ినా	-9.80299
▁సేవలు	-9.80368
▁పిల్ల	-9.80394
▁సరి	-9.80475
▁అందుకే	-9.80515
ాంత	-9.80517
శాస్త్రం	-9.80569
▁నిల్వ	-9.80597
ుడై	-9.80638
▁కనిపించే	-9.80641
▁చూపించ	-9.8067
సారి	-9.80731
ాల్సి	-9.80738
▁పవిత్ర	-9.80751
▁లోక	-9.80812
▁విష్ణు	-9.80859
▁సామెత	-9.81026
▁స్థిర	-9.81086
▁టో	-9.81131
▁గ్రీకు	-9.81211
చర్	-9.81238
▁వరుస	-9.81244
వల్ల	-9.81317
▁జరిగాయి	-9.81327
000	-9.81334
▁ఇచ్చే	-9.81339
టై	-9.81339
నప్పటికీ	-9.81353
▁గ్రహ	-9.81374
పాద	-9.81383
▁అధికారిక	-9.8143
▁తెల్ల	-9.81435
ma	-9.81442
▁2003	-9.81557
సియా	-9.81569
ుకోవడానికి	-9.81614
▁మాజీ	-9.81631
రిక్	-9.81652
54	-9.81654
▁వస్తువు	-9.81659
వార్	-9.81681
▁ప్రవక్త	-9.81714
▁మనకు	-9.81719
▁అడుగుల	-9.81783
సార	-9.81791
▁డై	-9.81792
▁కన్న	-9.81851
ంటారు	-9.81864
▁పోలి	-9.81866
▁జానపద	-9.81896
▁పెట్టి	-9.81916
▁పరిపాలన	-9.81955
▁వచ్చాయి	-9.81975
▁అలీ	-9.82016
▁వృద్ధి	-9.82021
▁సమాన	-9.82023
ంపు	-9.82124
ుకుంటూ	-9.82214
▁శిల్ప	-9.82221
▁ఉపయోగించే	-9.82378
▁దర్శకత్వంలో	-9.82446
▁రస	-9.82469
వంత	-9.82474
and	-9.82503
▁చేతి	-9.82546
న్నె	-9.82639
▁తీసుకుని	-9.82711
▁ఉష్ణ	-9.82711
▁సాగు	-9.82717
▁పాద	-9.82791
ాలయం	-9.82795
na	-9.82811
▁సగటు	-9.82888
పడి	-9.82893
దన	-9.83108
▁రూప	-9.83129
ేషన్	-9.83131
▁వీరికి	-9.83208
▁వ్యాసాల	-9.83408
▁l	-9.83432
▁నై	-9.83494
▁నెట్	-9.83534
▁అంగ	-9.83535
లిక్	-9.8356
▁సెంటర్	-9.83569
▁this	-9.83699
▁ఒకటిగా	-9.83714
▁విష	-9.83775
▁వుండును	-9.83787
▁అనంత	-9.83829
▁1970	-9.83836
▁అయ్య	-9.83839
▁సంబంధించి	-9.83886
▁ఇరు	-9.83904
ow	-9.84007
వాన్	-9.84037
▁మండ	-9.84089
▁ఇచ్చి	-9.8413
ుడికి	-9.84175
▁వయసు	-9.84191
▁మొదలగు	-9.84239
▁సిటీ	-9.84268
▁శరీర	-9.84363
గ్రా	-9.84399
▁గుండె	-9.8441
▁ఫై	-9.8441
▁వాతావరణ	-9.84439
▁పార్	-9.84458
క్త	-9.84478
నల్	-9.84488
▁జైన	-9.84517
▁బహుమతి	-9.84558
ఠ	-9.84561
▁గణిత	-9.84564
▁కంది	-9.8458
రస	-9.84587
▁బర్	-9.84607
ముతో	-9.84633
▁తీవ్ర	-9.84647
▁ఏర్పడ	-9.84702
▁ఆయా	-9.84711
▁సమాచారం	-9.84715
▁వుండ	-9.84736
▁బెంగాల్	-9.8478
▁ఖా	-9.84786
▁సహాయం	-9.84863
▁వివరణ	-9.84911
▁పొట్టి	-9.8497
▁ప్రారంభంలో	-9.85011
చేత	-9.85022
▁నటి	-9.85022
▁హాస్య	-9.85023
▁com	-9.85061
▁పద్మ	-9.85141
▁సంపద	-9.85191
ity	-9.85209
▁బార్	-9.85264
▁పర్యావరణ	-9.85267
▁శైలి	-9.853
▁పనులు	-9.85303
ist	-9.85312
▁భవన	-9.85328
▁చల్ల	-9.85411
▁చెప్పి	-9.85414
▁పాలనలో	-9.85414
▁సామ్రాజ్య	-9.85429
▁రక్షించ	-9.85437
కలు	-9.85478
వల	-9.85543
▁తేదీన	-9.85566
▁80	-9.85626
57	-9.85651
▁లోక్	-9.85677
▁మానసిక	-9.85689
▁తమిళనాడు	-9.85718
▁విద్యుత్తు	-9.85812
▁రోజున	-9.85937
పాలెంలో	-9.85944
▁ఎటువంటి	-9.8596
est	-9.85972
▁37	-9.85975
▁జంతువుల	-9.85986
శ్రీ	-9.85987
ఆర్	-9.86024
▁వేర్	-9.8603
▁వేదిక	-9.8609
▁పాలు	-9.86104
▁సూచించ	-9.86112
షు	-9.86168
▁కేంద్రంగా	-9.86232
రాన్	-9.86262
▁వెబ్	-9.86267
▁రాతి	-9.863
▁ఉద్యమం	-9.86319
▁శ్రీలంక	-9.86504
▁లక్ష్మీ	-9.86505
▁హరి	-9.86519
▁మారు	-9.86534
▁రకం	-9.86588
▁కెనడా	-9.86594
▁వెళ్ల	-9.86677
▁కార్యక్రమం	-9.86724
బడ్డాడు	-9.86747
▁నటించిన	-9.86786
▁మహారాష్ట్ర	-9.86806
▁దివ్య	-9.8683
▁నాయకుడు	-9.86875
hi	-9.86899
స్టా	-9.8691
▁నిర్మల్	-9.86954
▁ట	-9.86994
▁భీమ	-9.8703
వేయ	-9.87044
నుంచి	-9.87046
▁ఇచ్చారు	-9.87054
ైనా	-9.87083
పోయాయి	-9.87092
▁సాహిత్యం	-9.87116
▁విధించ	-9.87147
▁నూ	-9.87167
▁చీ	-9.87169
కొన	-9.8718
▁మరణం	-9.87273
▁వాస్తవ	-9.87285
మార్	-9.87321
▁ఆధ్వర్యంలో	-9.8737
▁అడుగు	-9.87401
▁సృష్టి	-9.87404
▁సరైన	-9.87415
ఖ్	-9.87428
▁బ్రిటన్	-9.87483
▁సెల్	-9.87498
లింగ్	-9.875
ర్య	-9.87555
▁నిర్మాత	-9.87585
▁పరిధిలోకి	-9.87704
▁విద్యార్థులు	-9.87772
▁అడ్డ	-9.87836
ంటుంది	-9.87856
సెస్	-9.87875
▁సుఖ	-9.87934
ేంద్ర	-9.87976
▁సీత	-9.87988
▁వాడుకలో	-9.88064
▁ఫె	-9.8807
▁వచ్చారు	-9.88088
▁ఉన్నప్పటికీ	-9.88117
▁ఉన్నట్లు	-9.88127
మంత	-9.88156
▁గానీ	-9.88165
ers	-9.88215
▁తెలిసిన	-9.88297
ష్ఠ	-9.88302
▁సొ	-9.88315
▁వీడియో	-9.88338
▁పెద	-9.88411
▁కత	-9.88442
73	-9.88457
▁వర్	-9.88457
▁భూభాగం	-9.88517
▁అందు	-9.88585
▁కథా	-9.88626
▁గ్రంథ	-9.88692
నాథ	-9.88839
నున్న	-9.88885
ేలా	-9.88921
▁డివిజన్	-9.8895
మాల	-9.88964
▁నంద	-9.89019
గ్గ	-9.89038
▁అంగీకరించ	-9.89046
▁పులి	-9.89057
▁సొంత	-9.89113
79	-9.89118
పోయారు	-9.89119
దారు	-9.89134
లియ	-9.89143
సై	-9.89251
ాపూర్	-9.89304
▁కూడ	-9.89321
▁ఘ	-9.89422
▁లోపల	-9.89454
ణీ	-9.89483
▁తీసుకో	-9.89483
్యా	-9.89511
▁దిగువ	-9.89542
గ్రహ	-9.89577
op	-9.89606
▁ex	-9.89635
స్తాడు	-9.8965
భావ	-9.89679
▁అధికారం	-9.89734
▁తీయ	-9.89797
గూడ	-9.89855
రేట్	-9.89884
▁ఇటువంటి	-9.89897
▁చేసుకున్న	-9.89898
▁పాత్రలు	-9.89915
▁క్రమంగా	-9.89946
▁డాక్టర్	-9.89979
▁ఛ	-9.89989
గర్	-9.90001
▁వ్రాయ	-9.90034
▁జీవితంలో	-9.90047
పులు	-9.90149
▁ధర్మరాజు	-9.90168
▁మార్గ	-9.90169
పం	-9.902
ారంలో	-9.90257
▁తొ	-9.90262
▁రాజ్యాంగ	-9.9028
▁విడి	-9.90322
▁స్వరూప	-9.90323
▁34	-9.90407
▁ప్రైవేట్	-9.9042
▁||	-9.90548
▁లీగ్	-9.90562
▁వెంట	-9.90569
లని	-9.90654
▁గాయ	-9.90672
▁వస్తున్న	-9.90698
ia	-9.907
▁రాష్ట్రంలోని	-9.90822
▁వేడుక	-9.90854
దె	-9.90883
▁మాన్	-9.90982
▁ప్రాంతానికి	-9.91011
▁నామ	-9.91083
స్వ	-9.91109
నియన్	-9.91114
▁గుణ	-9.9112
చ్ఛ	-9.91131
▁ఏర్పరచ	-9.91152
▁భావిస్తారు	-9.91165
||	-9.91183
▁ఎనిమిది	-9.91244
▁ప్రాముఖ్యత	-9.91288
▁రాజమండ్రి	-9.91323
▁ప్రచారం	-9.91329
▁బయటకు	-9.91421
-2	-9.91426
▁నదీ	-9.91426
స్ట	-9.91438
▁ప్రమాద	-9.91444
▁తగ్గి	-9.91504
▁విస్తీర్ణం	-9.91527
▁పన్ను	-9.91564
▁అభిప్రాయ	-9.91616
▁రాజ్	-9.91626
ుతుందని	-9.91629
▁శాస్త్రి	-9.91632
నకు	-9.91667
ంటూ	-9.91747
▁రోజుల్లో	-9.9175
▁విద్యార్థి	-9.91766
దిగా	-9.91766
భ్య	-9.91824
పైన	-9.91857
డియా	-9.91915
▁చివర	-9.92038
శ్ర	-9.92043
▁మిగతా	-9.92127
▁యూరోపియన్	-9.92144
▁డబ్బు	-9.92168
కర్త	-9.92189
▁మరణించాడు	-9.92209
ంటా	-9.92245
రోజు	-9.9226
▁గుహ	-9.92279
▁నరసింహ	-9.92393
ప్పు	-9.9244
▁శాసన	-9.92473
▁యి	-9.92486
▁శబ్ద	-9.92517
em	-9.92537
పేటలో	-9.92568
లొ	-9.92606
▁లక్షణాలు	-9.92615
▁వ్యక్తుల	-9.92624
▁ఏదైనా	-9.92653
మంతా	-9.92719
▁యె	-9.92837
▁ఆధ్యాత్మిక	-9.92897
▁వీరిలో	-9.92974
▁విన	-9.93013
▁2002	-9.9309
రికి	-9.93097
ూరులో	-9.93097
▁దండ	-9.931
పోతుంది	-9.93102
▁యాత్ర	-9.93149
▁శక్తిని	-9.9321
స్థాన	-9.93245
హార	-9.93254
▁పురుషులు	-9.93274
▁1999	-9.93292
▁వద్దకు	-9.9331
▁ప్రపంచంలోని	-9.93346
▁క్రమ	-9.93369
▁తేదీ	-9.93394
▁ఒక్కొక్క	-9.93395
▁పద్ధతిలో	-9.93506
▁నెలల	-9.93531
ువు	-9.93598
▁ఒకసారి	-9.9362
▁నట	-9.93628
▁సందర్శించ	-9.93714
▁2016	-9.93741
వడం	-9.93746
▁రోమన్	-9.93785
మత	-9.93811
▁అందరూ	-9.93829
▁మర	-9.93852
పుర	-9.9386
▁సమాజ	-9.93953
▁విగ్రహం	-9.9396
▁రై	-9.94
రువు	-9.94066
▁అశ్వ	-9.94148
▁సంఖ్యలో	-9.9418
దర్	-9.94188
వులు	-9.94265
▁దేవతల	-9.94383
రొ	-9.94395
▁సెయింట్	-9.94454
పట్నం	-9.94564
▁రాస	-9.94582
di	-9.94632
▁స్వాధీనం	-9.9464
▁అప్ప	-9.94652
ేది	-9.94656
▁ముందుకు	-9.94737
▁వ్యాస	-9.94748
▁దుకాణాలు	-9.94772
ంటాయి	-9.94793
▁వార్	-9.94813
▁విభాగం	-9.94832
▁38	-9.94903
▁వాళ్ళ	-9.9494
▁చెల్లించ	-9.94967
▁స్వయంగా	-9.94974
▁రేఖ	-9.95078
▁1960	-9.95108
▁ప్రారంభించ	-9.9511
▁ప్రయత్న	-9.95124
▁లోహ	-9.95128
▁రోగ	-9.95177
▁సింహ	-9.95177
▁కావ	-9.95209
▁చేసుకుని	-9.95228
▁చెరువులు	-9.95275
ందా	-9.95329
కరమైన	-9.95335
▁పురుష	-9.9534
▁లతో	-9.95364
▁టెలివిజన్	-9.95367
▁రామారావు	-9.95382
▁ఫ్రాన్స్	-9.95455
ారా	-9.95525
▁పాడేరులోనూ	-9.95559
▁ఉన్నప్పుడు	-9.95703
▁ప్రోత్సహించ	-9.95784
▁70	-9.95805
▁రాక్షస	-9.95807
▁మంచు	-9.95816
కింగ్	-9.95823
ించు	-9.95824
▁సాంప్రదాయ	-9.95843
▁చూసిన	-9.95854
▁ఉప్పు	-9.95867
రన్	-9.95909
▁కొనుగోలు	-9.95994
▁వేంకట	-9.96002
మణి	-9.96107
వేద	-9.9612
▁ప్రి	-9.96266
నికి	-9.96278
▁రద్దు	-9.96305
▁అలాంటి	-9.96429
▁కావలసిన	-9.96449
▁తీసుకొని	-9.96478
▁దిగ	-9.96537
▁నాయక	-9.96568
▁తూర్పున	-9.96572
గత	-9.96588
▁తాము	-9.96605
▁జారీ	-9.9677
▁ఫో	-9.96776
▁1950	-9.96792
▁విమర్శ	-9.96842
▁42	-9.9687
▁అంతే	-9.96884
▁సమితి	-9.96922
ువాడు	-9.96983
▁విభిన్న	-9.97005
▁తీర్చ	-9.9701
▁pro	-9.97014
గానూ	-9.97025
▁ముద్ర	-9.97084
ురాలు	-9.97116
▁కేసు	-9.9712
▁కొత్తగా	-9.97129
▁చెప్పారు	-9.97192
▁గంగ	-9.9722
▁సరస్సు	-9.97221
▁తెచ్చ	-9.97249
ంక్	-9.97255
▁అగ్ర	-9.97276
పూరు	-9.97284
శు	-9.97332
స్టి	-9.97336
▁ప్రత్యేకత	-9.97388
ర్లు	-9.97389
▁కేరళ	-9.97473
W	-9.97492
ate	-9.9756
▁మండలాలు	-9.97585
ాల్సిన	-9.9763
end	-9.97637
▁In	-9.97687
▁నార్	-9.97691
▁ఇజ్రాయిల్	-9.97728
▁విధమైన	-9.9776
▁రాణి	-9.97766
style	-9.97771
▁ట్రా	-9.97817
▁జవాహర్	-9.97856
రాష్ట్ర	-9.97946
▁విని	-9.97966
▁మిరప	-9.97977
▁రూపం	-9.97991
హు	-9.97993
ట్లుగా	-9.98012
▁2014,	-9.98084
▁తీవ్రమైన	-9.98113
లింగ	-9.98127
ప్రపంచవ్యాప్తంగా	-9.98218
lu	-9.98226
▁బొమ్మ	-9.98269
▁not	-9.98301
▁2015,	-9.98304
▁రాష్ట్రాల	-9.984
▁దో	-9.98403
▁2015	-9.98526
▁సీతారామ	-9.98562
▁వుంటుంది	-9.98603
▁మన్	-9.98612
▁వరుసగా	-9.98675
▁కై	-9.98712
ర్డ్	-9.98732
▁ప్రత్యేకమైన	-9.98733
కంగా	-9.98761
-20	-9.9882
▁భక్తుల	-9.98836
శం	-9.98858
ారం	-9.98881
▁వాడి	-9.98914
▁స్టేట్	-9.98985
ాకార	-9.99025
▁అణు	-9.99063
▁సూచిస్తుంది	-9.99063
▁స్వా	-9.99115
శాఖ	-9.99196
ాపురంలో	-9.99205
వెల్	-9.99216
ఢ	-9.99226
ru	-9.99316
▁హౌస్	-9.99332
▁ఇటీవల	-9.99378
మూల	-9.99409
▁దృశ్య	-9.99518
దల	-9.99521
▁నాయుడు	-9.99528
ha	-9.99555
▁పలక	-9.99571
స్థాయి	-9.9959
▁కలిగించ	-9.99621
వెన్	-9.9966
▁ఆశ	-9.99661
నింగ్	-9.99668
▁నటించారు	-9.99668
▁దేశంలోని	-9.99697
▁అనుభవ	-9.99701
▁కనీసం	-9.99705
▁ప్రభావితం	-9.99767
▁అందిస్తుంది	-9.99777
▁వేట	-9.99804
▁రోడ్	-9.9984
▁పుత్ర	-9.99848
▁సీజన్	-9.99859
ైతే	-9.99949
టువంటి	-9.99969
▁పురాణ	-9.99987
▁కణ	-10
▁ఎన్నికైన	-10.0001
ot	-10.0003
ణం	-10.0011
▁దేవత	-10.0014
82	-10.002
▁శ్రీరాములు	-10.0022
భాగం	-10.0025
ve	-10.0026
▁చాలామంది	-10.0027
om	-10.0035
▁విశ్వవిద్యాలయ	-10.0036
▁యజ్ఞ	-10.0038
రాలు	-10.004
పరు	-10.0041
గల్	-10.0042
▁కొనసాగింది	-10.0045
▁బెల్	-10.0046
▁తీ	-10.0051
▁ప్రారంభించాడు	-10.0067
▁జర్మన్	-10.0068
▁తీసి	-10.0071
▁ప్రయత్నం	-10.0071
▁చేస్తాయి	-10.0074
ఫర్	-10.0077
▁తరచూ	-10.0081
▁రామకృష్ణ	-10.0091
యొక్క	-10.0097
▁వేగంగా	-10.0098
▁ఉద్యమ	-10.0099
▁ఆదాయం	-10.01
దూ	-10.0101
▁కన్	-10.0106
డ్డ	-10.0106
x	-10.0109
▁చివరికి	-10.0111
ాత్మ	-10.0115
ాంతర	-10.0119
▁విస్తరించ	-10.0127
▁నేర్చ	-10.0135
▁పైకి	-10.0139
▁200	-10.014
నట్లు	-10.014
▁కర్	-10.014
▁రుద్ర	-10.0141
▁మార్గము	-10.0147
▁ప్రత్యక్ష	-10.0149
▁కాకినాడ	-10.018
▁హృదయ	-10.0192
▁సాధించాడు	-10.0195
కూడా	-10.0195
▁ఎన్నికల	-10.0196
తన	-10.0198
▁సెంట్రల్	-10.02
▁ఋణ	-10.0201
పోయాడు	-10.0204
ింగ్	-10.0206
మయ	-10.0209
▁53	-10.021
▁విజయనగర	-10.0213
▁బలమైన	-10.0219
ర్ధ	-10.0219
▁వాద	-10.0224
పోయే	-10.0225
▁ఉద్యోగం	-10.0228
▁తేడా	-10.0239
▁అంతర్	-10.0239
▁జైలు	-10.0242
▁ప్రయాణం	-10.0249
▁బూ	-10.0249
▁తదితర	-10.0251
▁వయస్సు	-10.0251
▁క్రి	-10.0255
ద్దు	-10.0255
▁పనిచేసే	-10.0256
▁నిలిచి	-10.0263
▁కొల	-10.0263
▁ప్రచురణ	-10.0265
▁పక్క	-10.0266
▁రాజులు	-10.0269
ంచే	-10.0274
▁శ్రీరామ	-10.0281
▁పొంది	-10.0283
▁సంతోష	-10.0284
▁కాయ	-10.0286
▁క్షేత్ర	-10.0287
▁కారు	-10.0287
▁నిలిచింది	-10.0288
▁దిన	-10.0288
▁అంట	-10.0289
రాయి	-10.0296
▁రూపొందించ	-10.0301
▁సిద్ధాంతం	-10.0302
▁సస్యరక్షణ	-10.0303
▁స్థితి	-10.0306
▁బహుళ	-10.0306
▁ఆధార	-10.0311
▁వాటికి	-10.0313
▁ఉండదు	-10.0316
▁పెట్టారు	-10.0318
▁తర	-10.0322
▁మొక్కలు	-10.0323
ంద్ర	-10.0329
▁రకమైన	-10.033
▁ప్ల	-10.0331
ార్ధ	-10.0331
▁పచ్చ	-10.0333
▁పొర	-10.0337
▁నీకు	-10.0343
▁రాం	-10.0348
▁ఏకైక	-10.0353
▁బ్లాక్	-10.0356
▁నక్షత్రం	-10.0358
▁విష్ణువు	-10.0359
త్రి	-10.0362
▁విభజించ	-10.0367
ర్థ	-10.0372
▁కాలేదు	-10.0372
భి	-10.0373
▁లై	-10.0375
ఖండ	-10.0377
దారులు	-10.0378
▁పార్లమెంటు	-10.038
▁ఉదా	-10.0386
చార	-10.0388
▁వ్యా	-10.0398
ులతో	-10.0401
▁నిర	-10.0406
▁కింగ్	-10.041
▁సంఘటన	-10.0418
▁దేశానికి	-10.0422
నము	-10.0424
▁ప్రజాదరణ	-10.0425
▁బుక్	-10.0435
▁అంటూ	-10.0438
▁ఏలూరు	-10.0448
▁అడవి	-10.0449
▁ద్వీప	-10.0449
▁తప్పు	-10.0452
▁ఉత్తరాన	-10.0458
▁భుజ	-10.046
▁లోనే	-10.0461
▁నగరానికి	-10.0462
▁అంతర్గత	-10.0462
పాక	-10.0466
క్షి	-10.047
ర్తి	-10.0471
▁శరీరం	-10.0474
▁అభిప్రాయం	-10.0475
గీ	-10.0477
ుతున్నారు	-10.0477
▁హాల్	-10.0484
▁స్వల్ప	-10.0485
▁సరిహద్దులో	-10.0485
▁ప్రఖ్యాత	-10.0485
ేరు	-10.0488
ధ్	-10.0489
▁పేర్కొన్నారు	-10.0491
▁కనుగొన	-10.0491
▁56	-10.0494
▁ప్రాచుర్యం	-10.0504
టంతో	-10.0509
క్సి	-10.0509
▁స్వాతంత్ర్యం	-10.0511
▁ఆక్రమించ	-10.0512
నాథ్	-10.0514
▁సూపర్	-10.0518
▁కొవ్వు	-10.0526
బూ	-10.0531
▁ప్రతీ	-10.0537
భూత	-10.0545
▁ఆర్ధిక	-10.0546
▁ప్రియ	-10.0546
▁విప్లవ	-10.0547
వరంలో	-10.0547
రాం	-10.0548
▁సందర్భంలో	-10.0549
వద్ద	-10.0553
▁మిశ్రమ	-10.0557
▁ప్రకటించింది	-10.0557
యన	-10.0558
▁ప్లే	-10.0559
▁వచ్చాడు	-10.0562
▁ఇంద్ర	-10.0563
▁పేద	-10.0576
▁స్థాపించ	-10.0577
ion	-10.058
▁ప్రారంభమైంది	-10.0581
▁సమర్పించ	-10.0581
code	-10.0589
▁టె	-10.059
▁వసతి	-10.0591
ence	-10.0594
▁ప్రవేశపెట్ట	-10.0596
▁పేరును	-10.06
▁వర్ష	-10.06
▁1947	-10.0603
ధర్మ	-10.0609
▁విషయాలు	-10.0614
▁లేదని	-10.0615
వైన	-10.0619
▁పుష్ప	-10.062
▁నాగరికత	-10.0623
▁ఫ్రెంచి	-10.0623
జాల	-10.0624
▁వినియోగించ	-10.0624
ల్లు	-10.0626
▁విద్యార్థుల	-10.0627
▁పాలి	-10.0629
▁శాస్త్రవేత్త	-10.0644
▁కుమార్	-10.0649
▁సంస్థల	-10.0653
▁గృహాల	-10.0657
▁సంవత్సర	-10.0658
▁కాలువలు	-10.0659
కూరు	-10.0659
▁తరఫున	-10.066
▁తత్వ	-10.0663
▁ముఖ్యమంత్రి	-10.0669
▁కనిపిస్తాయి	-10.0675
▁విషయ	-10.0675
va	-10.0677
▁తెగ	-10.0686
బంధ	-10.0692
▁హక్కు	-10.0701
▁నాటు	-10.0705
▁నిర్దిష్ట	-10.0706
ందే	-10.0709
▁చేసేందుకు	-10.0709
▁దంపతులకు	-10.071
▁భాషలలో	-10.0712
ల్లె	-10.0713
▁చర్చ	-10.0714
▁హే	-10.0715
▁జంట	-10.0718
స్సు	-10.0719
ne	-10.0721
▁సలహా	-10.0721
ab	-10.0722
తలు	-10.0727
రాజ్	-10.073
హర	-10.0732
▁అధికారులు	-10.0734
▁జన్మించిన	-10.0737
▁బాబా	-10.074
▁వార్షిక	-10.0741
షీ	-10.0754
▁మెదక్	-10.0754
ండర్	-10.0754
ియన్	-10.076
▁ఉదయం	-10.0761
▁గడి	-10.0762
ish	-10.0766
▁52	-10.0768
▁మీదుగా	-10.0769
ant	-10.0771
▁ఆప	-10.0775
▁ఆకర్షణ	-10.0775
▁ముందే	-10.0779
▁వాల్	-10.0785
▁ద్రవ్య	-10.0789
▁బదులుగా	-10.0791
▁అనీ	-10.0798
చేసిన	-10.0798
కున్న	-10.0798
▁ప్యా	-10.0798
{	-10.0799
▁విభజన	-10.08
▁దేవాలయ	-10.08
▁ఇంటర్	-10.0801
నంద	-10.0807
్వా	-10.0817
▁అందరి	-10.0819
ఫై	-10.082
రల్	-10.0821
▁తను	-10.0828
▁కావడం	-10.0832
▁ప్రార్థన	-10.0835
▁ఉపగ్రహ	-10.0835
ందో	-10.0835
▁వందల	-10.0837
▁అక్క	-10.0843
▁సినిమాలు	-10.0848
ష్య	-10.0848
పల్లిలోను	-10.0849
▁కాశీ	-10.0852
ద్వారా	-10.0852
పూర్లో	-10.0853
▁పార్క్	-10.0855
▁రాజుల	-10.0856
ay	-10.0858
▁సన్	-10.0862
▁చలనచిత్ర	-10.0863
సింగ్	-10.0867
▁చేయాలని	-10.0868
▁పనిచేయ	-10.0868
▁ఆన్	-10.0876
▁సర్పంచిగా	-10.0877
▁అమెరికాలో	-10.0877
▁శుద్ధ	-10.0881
బడుతున్నాయి	-10.0881
▁తెలుగుదేశం	-10.0882
▁వంతెన	-10.0882
ంధ	-10.0884
▁చంద	-10.0884
▁స్టార్	-10.0886
సంబంధ	-10.0887
▁తెనాలి	-10.0891
▁US	-10.0899
▁39	-10.0899
▁ప్రతిపాదన	-10.0901
విద్య	-10.0901
ac	-10.0904
▁కారణాల	-10.0906
ak	-10.0907
▁మొక్కల	-10.0907
▁వ్యాపారం	-10.0911
▁వివరాలు	-10.0917
▁దాన	-10.092
▁సమాధి	-10.0923
జాతి	-10.0925
▁పరిమాణం	-10.0926
▁సమాజం	-10.0928
▁నియమించ	-10.0936
▁44	-10.0942
▁ఉండడం	-10.0945
▁రంగం	-10.0952
రహిత	-10.0953
▁సంబంధ	-10.0961
▁సేన	-10.0964
▁పుస్తకాలు	-10.0965
▁సముద్రం	-10.0966
▁శ్రేణి	-10.097
▁సింగ	-10.0972
స్య	-10.0975
▁తపస్సు	-10.0978
▁దూ	-10.0979
మయ్యాయి	-10.0982
గుంట	-10.0986
▁బౌ	-10.0986
▁తోట	-10.0987
దారుల	-10.0988
మ్స్	-10.099
▁లెక్క	-10.099
వల్లి	-10.0993
▁వాదన	-10.0997
▁పెరిగింది	-10.1
▁అభ్యర్థి	-10.1004
డింగ్	-10.1005
▁విధానాన్ని	-10.102
గ్రామ	-10.1023
నార్	-10.1027
డెన్	-10.1028
ంటాడు	-10.1029
శీల	-10.1032
▁కాన్	-10.1043
▁విమాన	-10.1045
బొ	-10.1046
▁జనాభాలో	-10.1047
తనం	-10.1047
ive	-10.1047
▁దొంగ	-10.1051
▁తాత	-10.1052
▁1991	-10.1053
▁స్థాపించారు	-10.1053
ప్త	-10.1054
▁సిద్ధాంత	-10.1056
▁నష్ట	-10.1059
▁ప్రకారము	-10.1061
▁అతనిని	-10.1063
▁ఆచార్య	-10.1064
▁వేయుట	-10.1064
▁చేరాడు	-10.1066
▁ఛా	-10.1066
▁పనుల	-10.1067
▁రాగ	-10.1067
▁జం	-10.1071
-19	-10.1071
▁అప్పటికే	-10.108
lo	-10.108
▁కొంతకాలం	-10.1084
వాదం	-10.1084
0%	-10.1086
▁మహర్షి	-10.109
▁మంచిర్యాల	-10.1094
://	-10.1104
▁ఏదో	-10.1104
▁యుగ	-10.111
▁చేయబడ్డాయి	-10.1111
ుకొనే	-10.1112
జ్ఞాన	-10.1112
▁ప్రారంభించింది	-10.1115
▁అనుమతించ	-10.1116
▁బాబు	-10.1124
▁అదనంగా	-10.1128
▁రూపకల్పన	-10.1128
బడుతున్న	-10.1132
▁ప్రసాద్	-10.1135
▁చేయించ	-10.1136
▁బ్యా	-10.1136
▁చార్	-10.114
▁ఒకరి	-10.1144
▁అటు	-10.1144
▁అకాడమీ	-10.1148
ార	-10.1149
▁దొ	-10.1157
▁విషయాన్ని	-10.1157
▁సత్యనారాయణ	-10.1163
గన్	-10.1164
▁నిజ	-10.1164
si	-10.1164
▁బ్యాంక్	-10.1168
▁మల	-10.117
▁కీర్తి	-10.1176
▁తెలుస్తుంది	-10.1177
▁పార	-10.1178
ప్రా	-10.1179
చూ	-10.1184
ములకు	-10.1189
రుగ	-10.1189
▁రూపాయల	-10.119
ందరూ	-10.1191
ఓ	-10.1191
సన	-10.1194
దురు	-10.1196
▁కలప	-10.1196
క్షన్	-10.1203
▁అనుసరించ	-10.1204
నపుడు	-10.1205
da	-10.1211
▁బిరుదు	-10.1212
▁అధికారి	-10.1212
లిక	-10.1213
▁సమాఖ్య	-10.1217
▁పట్టా	-10.1219
▁భవనం	-10.1219
లెట్	-10.1234
▁గురి	-10.1236
సేవ	-10.1237
▁వ్రాస	-10.1239
▁లోయ	-10.124
▁నెలకొల్ప	-10.1241
మనే	-10.1241
త్స	-10.1243
▁మోస	-10.1244
ణా	-10.1244
▁ప్రాంతాలకు	-10.1247
యస్	-10.1248
▁చేయు	-10.1252
మర	-10.1253
▁దేశీయ	-10.1254
ున్నారు	-10.1257
▁తెలంగాణా	-10.1259
▁హోదా	-10.1261
▁సెం	-10.1261
▁వ్యాప్తి	-10.1261
▁మరణించారు	-10.1266
▁తీవ్రంగా	-10.127
▁అమర్చ	-10.1272
▁వివర	-10.1272
ంచు	-10.1272
యము	-10.1273
▁నియమ	-10.1274
కుంట	-10.1274
డ్స్	-10.1286
▁ఎమ్	-10.1296
వాడి	-10.1302
▁పెరుగుదల	-10.1306
▁90	-10.1307
▁పనిచేస్తున్న	-10.1309
పోవ	-10.131
▁వరద	-10.1311
▁పొగాకు	-10.1311
▁ఎకరాల	-10.1314
తకు	-10.1314
▁వేర్వేరు	-10.1315
ga	-10.1318
▁అన్నీ	-10.1323
▁తిన	-10.133
▁హార్	-10.1331
▁దీంతో	-10.1336
▁కొన్నిసార్లు	-10.1345
▁అత్యధికంగా	-10.1348
▁అనకాపల్లి	-10.1349
▁మిత్ర	-10.1351
ార్	-10.1352
▁ప్రజలను	-10.1354
▁ఉదాహరణ	-10.1358
▁ప్రయోగ	-10.1358
▁మహిళా	-10.1365
▁ఒత్తిడి	-10.1365
▁పాల్గొన	-10.1366
ైంది	-10.1367
న్నాడు	-10.1367
▁ఇంట్లో	-10.1368
▁కళాశాలలు	-10.137
కాని	-10.1373
▁వెలి	-10.1373
▁సంబంధాలు	-10.1373
▁41	-10.1375
▁ప్లా	-10.1377
▁కుమార	-10.1379
▁ప్రమాదం	-10.138
▁ఎరువులు	-10.138
వాస	-10.1383
▁పదవీ	-10.1384
▁మళ్లీ	-10.139
▁తీసిన	-10.1392
ేతర	-10.1392
▁చదువ	-10.1392
▁క్రితం	-10.1397
▁చేసుకున్నారు	-10.1403
ంస్	-10.1404
▁నిజామాబాద్	-10.1407
పక్ష	-10.1408
▁ఇంగ్లీషు	-10.1411
▁పండ	-10.1413
▁వేసిన	-10.1413
▁లభించ	-10.1417
▁గే	-10.1428
▁దూరంగా	-10.1431
▁అరణ్య	-10.1431
▁అక్షర	-10.1433
▁పోర్ట్	-10.1434
▁గర్భ	-10.1435
దగిన	-10.1436
▁భాషలు	-10.1445
▁జనతా	-10.1446
▁ప్రవేశించ	-10.1448
▁క్రమంలో	-10.145
▁సంకేత	-10.1451
ఎం	-10.1453
▁ప్రామాణిక	-10.1456
▁షి	-10.1456
▁కార్బన్	-10.1462
▁ఆరంభ	-10.1463
వేత్త	-10.1465
▁కెమెరా	-10.1466
▁పాశ్చాత్య	-10.1471
▁చెందినది	-10.1475
▁నాట్య	-10.1476
▁పరా	-10.1484
▁రత్న	-10.1484
im	-10.1491
▁విద్యను	-10.1504
▁సంతానం	-10.151
▁కొబ్బరి	-10.1511
▁మాట్లాడే	-10.1512
▁నిత్య	-10.1516
▁తద్వారా	-10.152
▁దాంతో	-10.1521
▁తాగునీటి	-10.1522
▁ఫోటో	-10.1523
▁ఎత్తైన	-10.1528
display	-10.1532
▁విశాఖపట్నంలోను	-10.1534
ందున	-10.1535
▁బాధ్యతలు	-10.1536
▁పోరాడ	-10.1541
పాత్ర	-10.1542
▁క్ర	-10.1544
దాన	-10.1549
▁వహించిన	-10.1553
▁పాల్	-10.1557
రింగ్	-10.1569
యైన	-10.1571
విధ	-10.1571
▁వీధి	-10.1574
▁వస్తువుల	-10.1579
▁నిద్ర	-10.1579
▁షిప్	-10.1583
ca	-10.1583
▁సాగ	-10.1591
▁నీటిలో	-10.1592
మూస	-10.1593
ంతి	-10.1593
▁ముంబై	-10.1593
▁ఇంటర్నేషనల్	-10.1598
▁చర్యలు	-10.1599
దాసు	-10.1601
▁కదా	-10.1606
▁మార్గంలో	-10.161
చ్చు	-10.1614
▁స్థాపించబడింది	-10.1617
ాద్రి	-10.1618
▁పరిసర	-10.1619
త్రా	-10.162
ry	-10.1624
పేరు	-10.1626
▁వనరులు	-10.1627
▁వో	-10.1627
ill	-10.1628
▁షో	-10.1628
ge	-10.163
▁తెలుస	-10.1634
ణు	-10.1635
▁సైతం	-10.1637
▁భారతదేశంలోని	-10.1637
▁పారి	-10.164
▁మేరకు	-10.1643
▁చూ	-10.1645
బడు	-10.1649
▁48	-10.165
▁క్లబ్	-10.1652
▁సంయోగ	-10.1658
హిత	-10.1663
▁సమస్యలు	-10.1663
▁ప్రకాశ	-10.1666
లక్ష్మి	-10.1668
age	-10.167
▁యే	-10.1672
▁ప్రసంగ	-10.1673
▁దీప	-10.1676
▁సిం	-10.168
sa	-10.1689
▁ఎన్నిక	-10.1702
▁దాటి	-10.1702
▁జత	-10.1708
▁గజ	-10.171
▁వర్ణించ	-10.1711
కృష్ణ	-10.1713
ాన్	-10.1721
ుకొన్న	-10.1724
నూరు	-10.1727
▁స్థానాన్ని	-10.1727
▁నమ్మకం	-10.1729
▁1998	-10.173
▁ప్రదర్శ	-10.1731
▁గవర్నర్	-10.1735
▁స్థలం	-10.1736
▁సారి	-10.1738
▁అటువంటి	-10.1739
ఫో	-10.1742
▁పోరాట	-10.1743
విన్	-10.1744
ted	-10.175
▁గురించిన	-10.1753
▁తొమ్మిది	-10.1753
మనీ	-10.1758
▁నవాబు	-10.1758
▁వనపర్తి	-10.1758
ండీ	-10.1759
▁చెట్ల	-10.176
ుతున్నాయి	-10.1761
▁గంగా	-10.1777
▁పర్	-10.1779
గణ	-10.1782
▁ఎన్న	-10.1786
ాలంటే	-10.1789
▁శి	-10.1796
▁యూనివర్సిటీ	-10.18
▁అం	-10.18
▁మౌ	-10.1804
▁బోధన	-10.1811
▁46	-10.1811
▁సత్	-10.1812
▁నేటి	-10.1814
▁ఇచ్చింది	-10.1815
▁మెంట్	-10.1819
▁వేరే	-10.1821
▁సంవత్సరానికి	-10.1824
వల్	-10.183
▁మరణించిన	-10.1831
▁చేసుకున్నాడు	-10.1834
▁పురపాలక	-10.1837
రము	-10.184
▁వహించాడు	-10.1841
▁శివుడు	-10.1853
▁అర్జునుడు	-10.1853
▁బోధించ	-10.1853
▁http	-10.1855
▁వు	-10.1855
▁పుర	-10.1859
▁చేయవచ్చు	-10.1862
▁స్పెయిన్	-10.1863
▁చోటు	-10.1864
స్థితి	-10.1864
▁ప్రయోగించ	-10.1864
▁అస	-10.1866
▁me	-10.1873
▁ఇప్పటి	-10.1874
▁నడి	-10.1875
▁దర్శించ	-10.1883
sh	-10.1885
▁టెక్నాలజీ	-10.19
ధార	-10.1901
▁పట	-10.1902
▁కల్ప	-10.1903
▁రుచి	-10.1904
▁కలి	-10.1904
▁ప్రచార	-10.1906
▁కాన	-10.1913
ap	-10.1918
ట్యూ	-10.1919
ోప	-10.1919
రాదు	-10.1927
ci	-10.1929
యల్	-10.1935
ుకుంటున్న	-10.1936
▁పాత్రను	-10.1938
నాల్	-10.1942
▁వన	-10.1943
▁ఎలాంటి	-10.1945
▁చెన్న	-10.1948
▁కాలి	-10.1949
▁పేర	-10.1952
▁పెరిగి	-10.1952
▁నటించాడు	-10.1958
▁సమూహం	-10.1958
కథ	-10.1961
▁do	-10.1962
▁కుటుంబంలో	-10.1962
▁మించి	-10.1962
▁గ్రంథం	-10.1963
▁నివసించ	-10.1967
▁500	-10.1975
ికా	-10.1977
▁గోడ	-10.1977
వలె	-10.1978
▁కప్	-10.1978
య్యారు	-10.1984
j	-10.1987
▁మాన	-10.1989
▁పెరుగు	-10.1993
వేల	-10.1995
ళ్	-10.1997
▁స్వీకరించ	-10.1997
▁ఏళ్ల	-10.2
▁బిడ్డ	-10.2003
లేరు	-10.2004
నాలు	-10.2005
▁జీవుల	-10.2007
▁శతాబ్దాల	-10.2007
our	-10.2009
రస్	-10.2011
ud	-10.2015
▁మానవుల	-10.2015
▁మణి	-10.2017
▁నన్ను	-10.2018
▁గుర్తించారు	-10.202
▁సినిమాల్లో	-10.2021
▁క్రీడ	-10.2025
▁రాఘవ	-10.2027
▁బోధ	-10.2031
▁43	-10.2037
▁చేయుట	-10.2039
▁ప్రవాహ	-10.2046
▁అయ్యింది	-10.2047
▁తార	-10.205
▁కార్డు	-10.2055
దాని	-10.2059
▁ముగింపు	-10.2059
య్యా	-10.206
ప్పటి	-10.2061
▁ma	-10.2063
▁ఏమి	-10.2064
టూ	-10.2065
పించ	-10.2067
▁చిత్త	-10.2069
▁బోర్డు	-10.207
▁పేర్కొన	-10.2072
▁చైతన్య	-10.2077
▁లక్ష్య	-10.2079
▁సంస్థాన	-10.208
▁ఆశ్చర్య	-10.2081
▁డచ్	-10.2082
▁మాటలు	-10.2084
▁అంశాల	-10.2085
▁దేవుడు	-10.2089
▁1996	-10.2089
▁రాయి	-10.2093
కన్నా	-10.2095
▁పోలీసు	-10.2095
▁వెస్ట్	-10.2098
▁మెరుగు	-10.2109
ాలన్న	-10.2111
▁ఇంటికి	-10.2112
▁సంపాదించ	-10.2112
▁పదవి	-10.2112
▁తిమ్మ	-10.2113
లేదని	-10.2115
▁లూ	-10.2122
▁వాడే	-10.2122
గడ్డ	-10.2128
ావు	-10.2132
▁1930	-10.2134
▁దర్శన	-10.2136
▁65	-10.2143
▁తప్పించ	-10.2143
పడ్డాడు	-10.215
▁ఆస్తి	-10.2152
నామ	-10.2154
చంద్ర	-10.216
టరీ	-10.2162
ల్లీ	-10.2167
▁ఇచ్చాడు	-10.2168
ియ	-10.2179
all	-10.2179
▁ఖనిజ	-10.2179
▁పూజలు	-10.218
▁నాయకులు	-10.2183
▁క్రొత్త	-10.2183
▁రకాలు	-10.2185
▁పద్ధతుల	-10.2188
▁సందర్భ	-10.2193
▁పరంగా	-10.2203
ష్టి	-10.2207
▁డిగ్రీలు	-10.2209
▁కుటుంబానికి	-10.221
▁అమ్మాయి	-10.2222
రత్న	-10.2224
▁ఆకాశ	-10.2229
▁రహస్య	-10.2229
మైనవి	-10.2231
▁రెండూ	-10.2235
▁కొనసాగించ	-10.2235
మయ్యే	-10.2236
▁ప్రారంభం	-10.224
▁వెల	-10.2245
▁అనువదించ	-10.2249
▁ఫిలిం	-10.225
▁ఆకుల	-10.2261
▁అంతేకాక	-10.2262
▁జాతులు	-10.2263
తోనే	-10.2265
▁విస్తృతంగా	-10.2267
ుచు	-10.2269
▁సమాచారాన్ని	-10.2271
▁జరుగుతున్న	-10.2271
▁బ్రిటిషు	-10.2282
టార్	-10.2283
▁యంత్ర	-10.2287
▁ప్రాతినిధ్యం	-10.2292
▁బదిలీ	-10.2293
▁భాగము	-10.2294
▁సౌ	-10.2294
ుకుంటుంది	-10.2297
▁వంతు	-10.2301
▁లిపి	-10.2305
▁చోట	-10.2305
▁అధ్యయన	-10.2305
▁పుస్తకాల	-10.2305
▁వాళ్ళు	-10.2309
▁శంకర	-10.2311
▁స్వర్ణ	-10.2312
▁co	-10.2312
డూ	-10.2313
బై	-10.2316
సంస్థ	-10.2321
ుతోంది	-10.2331
▁ప్రయత్నాలు	-10.2335
ంటె	-10.2336
ut	-10.2339
కుమార	-10.234
ధీ	-10.2341
దేవత	-10.2347
▁ఇంధన	-10.2348
▁నటన	-10.2351
▁వెళ్ళే	-10.2351
▁సామర్థ్యం	-10.2354
▁75	-10.2354
▁అయ్యాడు	-10.2355
ెంట్	-10.2356
▁ప్రవేశం	-10.2362
▁టౌన్	-10.2363
కట్ట	-10.2371
లపాడు	-10.2372
▁దక్క	-10.2379
▁విశ్వాసం	-10.2382
▁అమ్మవారి	-10.2383
నాధ	-10.2387
▁కళ్యాణ	-10.2389
మూరు	-10.2392
ాంధ్ర	-10.2394
▁ఉద్	-10.2396
▁ఆధారిత	-10.2398
క్ర	-10.2401
▁బెర్	-10.2403
▁his	-10.2403
▁ఆధారాలు	-10.2404
యింది	-10.2406
గొట్ట	-10.2408
▁శాశ్వత	-10.2411
భేద	-10.2411
▁రావ	-10.2414
▁పల్లి	-10.2417
▁నాయకుల	-10.2417
he	-10.2422
▁విగ్రహ	-10.2424
ధర	-10.2424
▁సర	-10.2426
▁రామచంద్ర	-10.2426
▁జంక్షన్	-10.2437
▁అయ్యాయి	-10.2439
▁మరల	-10.244
యాన	-10.244
▁వైశాల్యం	-10.2443
ుతాడు	-10.2446
ిణి	-10.2448
▁ఆచరించ	-10.245
▁రాజధానిగా	-10.2451
▁భాషల	-10.2455
ండును	-10.2457
▁అనకాపల్లిలోను	-10.2457
▁పరిధిలోని	-10.2458
మిక్	-10.246
▁దగ్గరగా	-10.2461
▁నృత్యం	-10.2465
▁నం	-10.2467
▁కీలక	-10.2474
▁దాకా	-10.2474
ig	-10.2475
▁అనుభవించ	-10.2475
▁గోవింద	-10.2476
▁విలీనం	-10.248
నైనా	-10.248
▁వైద్యుడు	-10.248
▁కురు	-10.2481
▁పల్ల	-10.2483
▁తాలూకా	-10.2485
▁2017,	-10.2491
▁అక్కడే	-10.2494
▁శుభ	-10.2498
విధంగా	-10.2498
టల్	-10.25
▁వర్గాల	-10.2501
ya	-10.2504
వేశ	-10.2505
ాలపై	-10.2507
ుచున్న	-10.251
ారావు	-10.251
▁నార్వే	-10.2511
▁క్రీస్తు	-10.2513
▁బలి	-10.2513
▁హీ	-10.2513
▁న్యూయార్క్	-10.2515
▁కొరియా	-10.2517
▁నటించింది	-10.2517
ెదరు	-10.2524
▁మీరు	-10.2526
▁అధికారికంగా	-10.2526
▁వంద	-10.2527
▁వైద్యులు	-10.2535
ేయ	-10.2538
▁అనుకూల	-10.2541
▁అమర	-10.2545
▁పదాలు	-10.2545
▁వ్యక్తులు	-10.255
▁పనిచేసిన	-10.2552
▁క్ల	-10.2562
భారత	-10.2564
సింహ	-10.2565
ర్ర	-10.2566
▁తూ	-10.2572
ea	-10.2574
▁రాగి	-10.258
లియన్	-10.2586
▁మన్న	-10.2591
క్కి	-10.2592
▁అభ్యసించ	-10.2594
క్రమ	-10.2594
▁సౌకర్యాలేమ	-10.2595
భాగ	-10.2595
▁రంగస్థల	-10.26
ాయన	-10.2604
▁కూర	-10.2606
న్య	-10.2608
దేశం	-10.2609
▁వాడతారు	-10.261
▁ఈశాన్య	-10.2611
▁సమస్యల	-10.2611
ధాన	-10.2611
కాండ	-10.2616
▁గమనించ	-10.2617
▁ఉత్పత్తుల	-10.2618
▁గద్వాల	-10.2622
▁టన్నుల	-10.2623
▁రైతు	-10.2624
▁వర్క్	-10.2625
తొ	-10.2627
లక	-10.2629
▁కాలానికి	-10.2631
▁నిజానికి	-10.2631
▁వహించ	-10.2632
▁అంతటా	-10.2633
▁పెట్టుబడి	-10.2639
ell	-10.2639
iv	-10.2648
▁చదివి	-10.2652
▁తీసుకున్న	-10.2653
▁కలుగ	-10.2656
▁ట్ర	-10.2659
▁అవగాహన	-10.2662
▁రెండింటి	-10.2662
▁సాహిత్యంలో	-10.2662
▁వెళ్ళాడు	-10.2664
▁మర్	-10.2667
▁రష్యన్	-10.2667
▁పాలనా	-10.2673
▁వ్యవహరించ	-10.2673
▁కేంద్రాల	-10.2677
▁భారతదేశానికి	-10.2679
▁తీగ	-10.268
▁పరిగణించ	-10.2682
▁యో	-10.2683
▁చెప్పే	-10.2686
▁భాగాల	-10.2687
▁జాబితాలో	-10.2688
▁గోధుమ	-10.269
ింపు	-10.2692
▁వయసులో	-10.2693
▁కలగ	-10.2695
▁చోళ	-10.27
▁అవతార	-10.2705
▁రసాయనిక	-10.2706
ఛ	-10.2707
▁చదరపు	-10.2707
ొక	-10.271
▁అంతరిక్ష	-10.2711
▁అన్నారు	-10.2711
▁చిత్రాలలో	-10.2711
▁ఒక్కో	-10.2712
▁బోరుబావులు	-10.2713
▁టు	-10.2717
గురు	-10.2724
▁ఈస్ట్	-10.2726
▁టే	-10.2727
▁1994	-10.2733
▁ప్రస్తావించ	-10.2736
▁సేవలను	-10.2738
▁పాటించ	-10.2739
నాయక	-10.274
▁చిక్క	-10.2741
▁పోయి	-10.2742
▁ముడి	-10.2743
▁మోక్ష	-10.2745
▁వజ్ర	-10.2751
▁నటించ	-10.2752
▁బలహీన	-10.2754
▁సభ్య	-10.2756
▁జోన్	-10.2757
▁పర్యటన	-10.2759
తున్న	-10.2761
▁భక్త	-10.2763
▁పండు	-10.2763
▁శేష	-10.2766
▁విభాగాల	-10.2767
▁కూతురు	-10.2768
▁యస్	-10.2772
}}	-10.2774
▁కార్యకలాపాల	-10.2775
▁మరణించ	-10.2776
▁గార్	-10.2776
▁తిరస్కరించ	-10.2776
▁పలువురు	-10.2776
▁ఉందిసమీప	-10.2781
ag	-10.2783
▁దేశంగా	-10.2784
▁చిత్రానికి	-10.279
ట్ర	-10.279
▁పరచ	-10.2793
pa	-10.2794
లాండ్	-10.2795
▁రేటు	-10.2795
▁ఉంటాడు	-10.2798
▁తెలిసి	-10.28
▁జిల్లాలలో	-10.2801
▁పరిశోధనలు	-10.2804
▁తరలించ	-10.2804
▁ప్రేక్షకుల	-10.2809
▁రవి	-10.281
▁చెబుతారు	-10.2814
▁కనబడ	-10.2815
గలిగే	-10.2818
▁సమీపంలోని	-10.2821
చర్ల	-10.2822
▁కౌన్సిల్	-10.2823
▁స్వర్గ	-10.2823
▁ఖాళీ	-10.2823
▁ప్రతిపాదించ	-10.283
▁విమానాశ్రయం	-10.2831
▁తదుపరి	-10.2834
▁అనుగుణంగా	-10.2834
▁పశువుల	-10.2835
త్వాన్ని	-10.2841
▁జరుగ	-10.2842
▁నాటకం	-10.2846
చేశారు	-10.2847
▁సాధించి	-10.2849
▁ప్రధానమంత్రి	-10.2851
▁చెంది	-10.2853
▁జీవితాన్ని	-10.2858
▁ప్రకటించారు	-10.286
▁చేసుకో	-10.286
▁ఇంగ్లాండ్	-10.2863
▁హింస	-10.2865
▁చూస్తే	-10.2867
▁అష్ట	-10.2867
ండ్ర	-10.2869
▁నౌక	-10.287
▁భూమిని	-10.2871
▁ఎప్పుడూ	-10.2871
▁కొన	-10.2872
▁అందువల్ల	-10.2873
ంకా	-10.2874
▁అదనపు	-10.2875
పత్ర	-10.2878
▁చేతిపంపులు	-10.2879
▁47	-10.2882
▁ప్రమాణ	-10.2883
▁కలుప	-10.2885
▁చేరిన	-10.2887
▁వచ్చ	-10.2889
▁మందికి	-10.2892
▁క్షేత్రం	-10.2898
ిందని	-10.2899
▁కమ్మ	-10.2903
కృత	-10.2903
▁నిర్మాణానికి	-10.2905
su	-10.2909
ద్ది	-10.2912
ుచున్నది	-10.292
▁వినోద	-10.2921
▁చేయటం	-10.2925
▁మూలంగా	-10.2925
▁దుర్	-10.2928
▁భద్ర	-10.2932
▁సకల	-10.2932
▁లాగ	-10.2932
▁పగ	-10.2935
▁సీనియర్	-10.2939
రవ	-10.2939
▁so	-10.2939
▁తరలి	-10.2944
ni	-10.2945
బాయి	-10.2949
▁one	-10.295
ine	-10.295
▁ఆందోళన	-10.2951
ులలో	-10.2954
▁భాగాలు	-10.2955
▁మంగళ	-10.2957
▁కడ	-10.296
▁అంశం	-10.2963
▁సాహితీ	-10.2968
ho	-10.2968
▁విన్న	-10.2968
▁చూడండి	-10.297
▁i	-10.297
▁1989	-10.2978
ind	-10.2978
▁చేస్తే	-10.2979
▁ఊహించ	-10.298
▁అప్పట్లో	-10.298
హే	-10.2983
▁బొగ్గు	-10.2993
▁అక్షరాస్యత	-10.2996
యార్	-10.2999
▁అందించే	-10.2999
రావ	-10.3
యాగ	-10.3005
▁క్లా	-10.301
▁దేశాల్లో	-10.3013
సమ	-10.3015
▁అనుబంధ	-10.3017
▁సేకరణ	-10.3023
▁కనిపిస్త	-10.3025
▁ఉంటుందని	-10.3027
▁ఉండేవారు	-10.3034
▁నాయకత్వంలో	-10.3036
▁1948	-10.3037
▁ఆయనను	-10.3038
▁ప్రవర్తన	-10.3046
▁1997	-10.3048
▁జరిగి	-10.305
▁ట్రి	-10.305
▁స్పానిష్	-10.3051
ాధికార	-10.3053
▁విభాగంలో	-10.3053
▁మండలి	-10.3053
▁పేర్కొన్నాడు	-10.3054
▁సాగించ	-10.3054
▁ఈశ్వర	-10.3055
▁లోతు	-10.3058
▁శతాబ్ది	-10.3058
జయ	-10.3058
▁పోరాటం	-10.3059
▁సందర్భాలలో	-10.306
దైన	-10.3064
సరి	-10.3067
▁has	-10.3072
▁ఏళ్ళ	-10.3072
▁ఫ్ల	-10.3075
భ్ర	-10.3079
య్యే	-10.3081
▁కుక్క	-10.3085
▁వైష్ణవ	-10.3086
ప్రతి	-10.3087
▁అందించారు	-10.3093
▁రొ	-10.3093
▁అంశాలు	-10.3096
వాల్	-10.3096
▁ప్రతిష్ఠ	-10.3097
▁వాని	-10.3101
ప్పి	-10.3101
ంభ	-10.3102
▁భువనగిరి	-10.3105
▁55	-10.3105
కారులు	-10.3106
▁పనిచేస్తుంది	-10.3108
▁పత్ర	-10.3109
▁సుబ్రహ్మణ్య	-10.311
బడుతోంది	-10.3112
రిన్	-10.3113
▁సమాజంలో	-10.3116
▁ఇసుక	-10.3117
ొక్క	-10.3119
▁వెండి	-10.3127
▁చేసుకొని	-10.3128
▁లక్ష్యం	-10.3129
▁ఆదిలాబాద్లో	-10.313
▁సిద్ద	-10.3132
▁పంటలు	-10.3132
షియ	-10.3135
▁కంప	-10.3138
▁పదాన్ని	-10.3141
▁గ్రేట్	-10.3149
▁పిలవ	-10.3149
▁నగరాల	-10.3149
మహా	-10.315
▁ఒకప్పుడు	-10.3155
▁బ్రి	-10.3156
▁సూత్ర	-10.316
▁భయ	-10.3161
▁విశేషం	-10.3165
కళ	-10.3167
దళ	-10.3171
గూడెం	-10.3174
చిత్ర	-10.3175
ka	-10.3177
▁ధాన్య	-10.3178
▁దేహ	-10.3179
మల్	-10.318
▁ఆదాయ	-10.318
▁మార్గాల	-10.3181
pe	-10.3182
ియా	-10.3183
▁పద్య	-10.3183
▁నాశనం	-10.3184
▁విస్తరణ	-10.3186
నంత	-10.3187
▁1995	-10.3191
కూడదు	-10.3192
▁పూల	-10.3194
ోత్సవం	-10.3196
ఫల	-10.3197
▁విధానంలో	-10.3198
▁హైదరాబాదులోను	-10.3202
▁విచారణ	-10.3202
▁దాదాపుగా	-10.3203
▁రక్తం	-10.3203
▁పంజాబ్	-10.3206
▁నియంత్రించ	-10.3206
▁భాగాన్ని	-10.3212
▁ప్రారంభమైన	-10.3212
ట్రా	-10.3214
య్యాయి	-10.3215
పడ్డారు	-10.3218
ాబాద్	-10.3225
▁భావించారు	-10.3229
▁అవసర	-10.323
▁ఎగుమతి	-10.323
▁సమకూర్చ	-10.323
▁విడ	-10.3233
▁ప్రదేశంలో	-10.3234
▁ఎడమ	-10.3236
దార్	-10.3241
▁అనుసంధానం	-10.3245
▁కొమ్మ	-10.3249
▁కలకత్తా	-10.3254
▁శిలా	-10.3254
కాంత	-10.3256
▁ఉర్దూ	-10.326
▁ఇందుకు	-10.3263
▁దొర	-10.3267
లోనికి	-10.3268
▁నర	-10.3269
▁సరళ	-10.327
తిని	-10.3271
విగా	-10.3273
▁సగం	-10.3275
▁పుస్తక	-10.3277
▁సుబ్బారావు	-10.3279
▁వస్తాయి	-10.328
▁హక్కుల	-10.3283
▁భరత	-10.3287
▁తనను	-10.3287
మ్ము	-10.3288
▁గ్రీన్	-10.3291
▁1992	-10.3295
ేశ	-10.3296
▁సూర్యాపేట	-10.3297
మాట	-10.3299
▁నున్న	-10.33
▁మూడో	-10.3301
పోతున్న	-10.3301
-3	-10.3301
ul	-10.3302
▁కళాశాలలో	-10.3302
▁నేత	-10.3302
▁రాక	-10.3303
కృతి	-10.3303
లచే	-10.3305
థర్	-10.3313
▁మహారాజు	-10.3319
▁వర్తక	-10.3323
▁చేస్తాడు	-10.3324
▁ఆగ్నేయ	-10.3327
▁కమ్యూనిస్టు	-10.3327
ణ్	-10.3335
▁కుడి	-10.3338
▁కుమారులు	-10.3339
▁ఫుట్	-10.3339
▁నాగార్జున	-10.334
▁స్పష్టంగా	-10.3341
▁బస్	-10.3343
ాభివృద్ధి	-10.3344
చిత	-10.3351
▁రాయ్	-10.3352
▁విశ్వనాథ	-10.3353
▁నగర్లో	-10.3356
▁దేవతలు	-10.3359
▁గ్రామాలను	-10.336
ర్యా	-10.3361
బల	-10.3361
▁మధ్యకాలంలో	-10.3361
▁రాజీనామా	-10.337
టెన్	-10.3372
రాజ్య	-10.3372
▁మరిన్ని	-10.3372
టికి	-10.3376
▁నిరూపించ	-10.3377
ాంశ	-10.3379
మధ్య	-10.3383
▁ఉండును	-10.3385
▁విఫల	-10.3386
▁ఇటలీ	-10.3388
▁చేసుకునే	-10.3391
▁కంద	-10.3391
▁ప్రపంచం	-10.3391
▁సెప్టెంబర్	-10.3394
▁త్యాగ	-10.3394
▁ప్రత్యేకించి	-10.3395
క్యు	-10.3395
▁వెలుగు	-10.3397
▁ప్రసారం	-10.34
▁వాటా	-10.34
▁అంతకు	-10.3401
▁రైల్వేస్టేషన్	-10.3407
స్థి	-10.3408
▁భూత	-10.341
ver	-10.342
గ్గు	-10.342
▁కావచ్చు	-10.342
▁గ్రంథాలయ	-10.3422
▁మొహ	-10.3424
▁మొదటిసారిగా	-10.3425
▁గం	-10.3432
▁ఉపయోగించారు	-10.3437
డైన	-10.3438
ిస్తుంటారు	-10.3439
▁పంచాయతీ	-10.3441
▁ఎందుకు	-10.3442
▁శాస్త్రము	-10.3444
▁300	-10.3445
▁ఓడ	-10.3451
▁ఎల్ల	-10.3452
▁సర్వే	-10.3453
▁కార్యక్రమాల	-10.3458
▁పదాల	-10.3459
▁మ్యూజియం	-10.3459
▁దెబ్బ	-10.3463
▁అంటు	-10.3464
▁చిత్రాల	-10.3465
▁పరికరాల	-10.3468
బద్ధ	-10.3479
▁సహాయంతో	-10.3479
▁గుజరాత్	-10.348
▁కిందకు	-10.3483
▁దారితీసింది	-10.3487
వేష	-10.3488
ాదేవి	-10.3489
▁మంట	-10.349
▁అంశ	-10.3493
▁స్థాపించిన	-10.3499
పొంద	-10.3501
▁ఎవరి	-10.3503
▁క్రీడా	-10.3503
కారి	-10.3504
▁పెరుగుతుంది	-10.3509
▁రాష్ట్రపతి	-10.3509
▁జీవించ	-10.3509
▁ధరించ	-10.3509
్యత	-10.3512
▁can	-10.3512
లుగు	-10.3514
▁మాస	-10.3525
కుండ	-10.3525
▁దుర్గ	-10.3526
▁గౌ	-10.3528
▁ఉత్తర్వులు	-10.3529
ములతో	-10.353
ఘ్	-10.3538
▁సంప్రదాయం	-10.354
▁మొదల	-10.354
▁ముహమ్మద్	-10.3542
యున్న	-10.3544
▁బిల్	-10.3547
▁అయ్యే	-10.355
▁అనువాద	-10.3551
▁నేడు	-10.3558
one	-10.3558
▁కొడ	-10.356
▁బావులు	-10.3563
▁కాదని	-10.3563
క్తి	-10.3565
▁కను	-10.3567
▁బుద్ధ	-10.3573
ుకోవాలి	-10.3574
▁సినిమాలలో	-10.3579
టమే	-10.3579
▁రాముడు	-10.3579
▁థియేటర్	-10.358
జీవ	-10.3587
వున్న	-10.3587
▁ఎదుర	-10.3588
▁ఆనాటి	-10.359
▁తమ్మ	-10.3598
వతి	-10.36
▁j	-10.3603
▁ప్రాంతము	-10.3606
▁అంతర	-10.361
▁డ్ర	-10.361
రుగా	-10.3611
▁అల్యూమినియం	-10.3624
▁స్టూడియో	-10.3624
▁టెక్	-10.3627
▁చేతుల	-10.3627
▁హోటల్	-10.3631
▁మొదట్లో	-10.3631
వారిని	-10.3639
ందర్	-10.364
▁ప్రజలలో	-10.364
▁వాక్య	-10.3643
▁వెలుపల	-10.3643
ుడే	-10.3653
▁విస్తృత	-10.3655
▁జనసంఖ్య	-10.3656
▁విడిచి	-10.3658
▁కలవ	-10.3658
▁చేపల	-10.3661
▁నాయకత్వం	-10.3661
ట్రో	-10.3665
▁కవిత్వం	-10.3665
ముగ	-10.367
▁పాఠశాలలో	-10.367
మను	-10.3672
▁బహ	-10.3673
▁గోపాల	-10.3674
▁జీర్ణ	-10.3674
▁2013,	-10.3681
మహ	-10.3683
▁ఎండ	-10.3683
▁ఆగష్టు	-10.3685
▁వచ్చు	-10.3686
జిల్లా	-10.3687
డై	-10.3691
▁చేరింది	-10.3698
▁ప్రయత్నించ	-10.37
బెట్ట	-10.3709
▁నొప్పి	-10.3711
వర్తన	-10.3713
▁ట్రాన్స్	-10.3714
వర్ణ	-10.3714
▁సైన్య	-10.3715
్యము	-10.3716
▁ఇక్కడికి	-10.3718
▁అసోసియేషన్	-10.3718
▁who	-10.3719
▁150	-10.372
బెర్	-10.3737
▁శర్మ	-10.3741
జల	-10.3751
▁చిన	-10.3753
శీ	-10.3756
ార్థం	-10.376
de	-10.3761
▁ప్రభుత్వానికి	-10.3763
▁స్థాపించాడు	-10.3764
▁చేసుకోవ	-10.3766
కార్య	-10.3767
▁ఉపాధ్యాయ	-10.3767
▁తానే	-10.3768
▁పశ్చిమాన	-10.3772
▁వర్గ	-10.3772
▁వ్యాప్తంగా	-10.3775
▁గౌతమ	-10.3777
▁5310	-10.3777
▁అధికారుల	-10.3785
▁రథ	-10.3786
వాటి	-10.3787
▁మరికొన్ని	-10.3794
▁ప్రభ	-10.3795
▁ట్రై	-10.3796
ాభి	-10.3798
▁1940	-10.38
▁సీతా	-10.3801
ేపల్లి	-10.3802
▁రౌ	-10.3804
▁పాటల	-10.3814
▁ఉంటూ	-10.3814
▁జరుగు	-10.3814
ance	-10.3817
▁పేర్కొన్న	-10.3817
▁రచించారు	-10.3817
తము	-10.3818
వన్	-10.3822
▁పోషించ	-10.3822
▁సాయం	-10.3822
▁ఐస్	-10.3829
per	-10.3833
▁ఐర్లాండ్	-10.3833
▁ఉమ్మడి	-10.3833
▁ఇరాన్	-10.3835
▁మాల్	-10.3835
▁మనస్సు	-10.3836
▁తల్లిదండ్రులు	-10.3837
▁సుమారుగా	-10.3838
▁ఇచ్చ	-10.384
▁విధాన	-10.3842
▁వుండే	-10.3842
▁వ్య	-10.3843
▁ప్రసాద	-10.3843
▁కార్యదర్శి	-10.3843
▁కన	-10.3847
▁కాశ్మీరు	-10.3848
▁పరిశోధనా	-10.3852
▁పెట్టిన	-10.3852
▁ప్రతిబింబ	-10.3857
▁ఏనుగు	-10.3861
ంచె	-10.3864
▁అసాధారణ	-10.3865
యోగ	-10.3866
▁శివుని	-10.3866
▁ముని	-10.3867
▁అనుకూలంగా	-10.3868
▁ఆకులు	-10.3877
▁పెం	-10.3877
▁చేయాలి	-10.3883
ప్పటికి	-10.3884
▁పరిధి	-10.3889
పుల్	-10.3889
యీ	-10.3896
▁వస్త్ర	-10.3896
▁మెడ	-10.3897
▁గ్రూప్	-10.3897
▁క్రియ	-10.3899
▁మాధవ	-10.3899
ాచార	-10.39
▁పొగ	-10.39
▁పట్టణంలో	-10.3902
▁వృత్తులు	-10.3904
▁లోపలి	-10.3905
క్రియ	-10.3905
▁సప్త	-10.3917
▁చక్కగా	-10.3918
▁Ch	-10.3918
▁కూరగాయలు	-10.3919
దేశాల	-10.3919
దానం	-10.392
ect	-10.3921
▁సరిగా	-10.3923
ue	-10.3924
▁గుర	-10.3928
▁దాట	-10.393
▁ప్రే	-10.3931
▁లాటిన్	-10.3931
▁An	-10.3931
బ్ర	-10.3932
ాచల	-10.3932
▁గుర్తించిన	-10.3932
ుతు	-10.3935
▁చూడవచ్చు	-10.3937
▁మనో	-10.3939
▁బుద్ధి	-10.394
tion	-10.3943
min	-10.3943
▁పార్టీకి	-10.3943
ూర్లో	-10.3953
▁49	-10.3953
▁మహిళలు	-10.3954
▁స్వేచ్ఛ	-10.3954
▁శంఖ	-10.3956
వాని	-10.3959
▁దళ	-10.3962
ందరి	-10.3965
▁ఆంగ్లంలో	-10.3965
▁చేసేవారు	-10.3967
▁నిషేధించ	-10.3971
స్సా	-10.3974
▁కాంగ్రెసు	-10.3975
▁పాల్గొన్నారు	-10.3975
టెడ్	-10.3976
▁li	-10.3977
▁విషయము	-10.3979
▁మద	-10.3981
able	-10.3982
▁నిర్మించాడు	-10.3984
▁దీక్ష	-10.3987
ానికీ	-10.3987
ary	-10.399
▁చేరారు	-10.3991
▁నేర్ప	-10.3991
▁వీటికి	-10.3993
చేసే	-10.3994
▁చేసుకుంది	-10.3994
▁వ్యాధుల	-10.3994
▁ప్రొఫెసర్	-10.4001
▁బంగ్లాదేశ్	-10.4001
▁వాడుక	-10.4005
▁దేవుని	-10.4006
▁హెక్టారులు	-10.4007
▁శ్రద్ధ	-10.4008
▁సాధ్య	-10.401
▁బీజ	-10.4013
▁గోప	-10.4017
vi	-10.4018
▁అడిగ	-10.4019
దశ	-10.4021
బల్	-10.4025
▁సూర్యుని	-10.4025
ంగో	-10.4025
చక్ర	-10.4025
లాంటి	-10.4026
▁యూనివర్శిటీ	-10.4027
▁ఎత్తులో	-10.4028
▁సింధు	-10.4028
▁కామారెడ్డి	-10.4028
▁నడుప	-10.4029
▁సౌందర్య	-10.4033
▁విజయవంతంగా	-10.4034
▁చేస్తా	-10.4036
▁ఆఫ్రికన్	-10.404
మెంటు	-10.4042
▁ఎదురు	-10.4042
డ్డు	-10.4046
▁ముద్రించ	-10.4047
భూమి	-10.4048
▁దోష	-10.4053
▁రాయల్	-10.406
▁అడ్	-10.406
వ్యవస్థ	-10.4061
▁అర్చ	-10.4062
▁ఒకదాని	-10.4064
▁గొల్ల	-10.4067
▁వసంత	-10.4067
▁అభిమాన	-10.4067
వీర	-10.4072
▁పోయింది	-10.4072
▁ఫ్రీ	-10.4072
కోణ	-10.4081
▁ఎడ్	-10.4084
▁ఏది	-10.4084
▁?	-10.4084
▁ఏమీ	-10.4089
యాత్ర	-10.4091
పేట్లో	-10.4093
▁సమానంగా	-10.4094
ుకునేందుకు	-10.4099
మవుతుంది	-10.41
▁గంట	-10.4102
▁సమావేశ	-10.4102
మతి	-10.4103
▁పరస్పర	-10.4105
▁మీటర్లు	-10.4108
య్యాడు	-10.4111
▁రంగులో	-10.4116
ఘా	-10.4119
▁ప్రోత్సాహ	-10.4119
▁ch	-10.4119
▁దేశము	-10.4121
▁విజయవంతమైన	-10.4121
▁రెడ్	-10.4123
adj	-10.4123
యొ	-10.4131
mp	-10.4133
▁మల్	-10.4135
▁ప్రారంభించిన	-10.4135
▁తిరుగు	-10.4136
▁విశ్వాస	-10.4137
▁వస్తు	-10.4137
గాని	-10.4139
▁ప్రక్క	-10.414
▁రంగుల	-10.4141
హీ	-10.4142
▁కావడంతో	-10.4146
మెన్	-10.4153
▁నిర్వహిస్తారు	-10.4154
▁అభివృద్ధికి	-10.4155
సార్లు	-10.4156
▁వైరస్	-10.416
▁ఊరి	-10.4161
▁హైదరాబాదులో	-10.4162
du	-10.4164
▁దంత	-10.4165
▁శక్తివంతమైన	-10.4167
పడ్డ	-10.4172
ప్రాంత	-10.4173
▁పండ్లు	-10.4175
▁సన్న	-10.4176
▁శాన్	-10.4177
▁అరేబియా	-10.4178
సిల్	-10.418
▁సంభాషణ	-10.4185
రంగంలో	-10.4186
▁ఆమోదించ	-10.4186
ండె	-10.4188
▁నాటకాలు	-10.4189
▁ఫీ	-10.4189
ృత	-10.4192
▁నిర్ణయం	-10.4192
▁చర్మ	-10.4196
▁ముద్రణ	-10.4196
డ్యూ	-10.4198
ంజ్	-10.4203
▁దశాబ్దాల	-10.4204
ంబర	-10.4206
చ్చే	-10.4214
▁ఇండో	-10.4216
▁ద్వి	-10.4221
▁1952	-10.4221
ana	-10.4224
▁దీనితో	-10.4229
▁ఊహ	-10.4231
కొని	-10.4233
▁పూర్ణ	-10.4235
▁పురాణం	-10.4235
▁వాహన	-10.4236
పురి	-10.4239
▁మాయ	-10.424
▁కొద్దిగా	-10.4244
▁గ్రహించ	-10.4245
▁దక్షిణాన	-10.4246
వరకూ	-10.425
▁ముస్లింలు	-10.4252
షియన్	-10.4252
▁దానితో	-10.4254
▁విధానాల	-10.4256
▁నారాయణ్	-10.4256
▁అటవీ	-10.4258
▁చౌ	-10.4259
▁లభించిన	-10.4263
▁సాంద్రత	-10.4265
▁పిలువబడే	-10.4266
ాలయ	-10.427
▁ఎవరు	-10.4272
▁ఇవ్వడం	-10.4275
▁విధానాలు	-10.4277
రియో	-10.4277
వన	-10.4277
▁లక్ష్మణ	-10.4279
ుతుంటారు	-10.428
▁యుద్ధానికి	-10.428
▁చేస్తోంది	-10.428
ెర	-10.4281
నెల్	-10.4284
▁చేపట్ట	-10.4286
▁వారితో	-10.4286
▁ఓడించి	-10.4287
▁అడిగాడు	-10.4288
▁కర్ర	-10.429
▁యందు	-10.4291
▁తిప్ప	-10.4293
▁ప్రదర్శనలు	-10.4294
▁గణ	-10.4295
▁ఉత్సవాల	-10.43
▁బండ	-10.4302
▁పట్టి	-10.4303
▁స్థితిలో	-10.4304
▁వస్తువులను	-10.4308
▁చేరుకుంది	-10.4309
చాడు	-10.4315
▁సమ్మేళన	-10.4315
▁పరిశ్రమల	-10.4319
▁నైట్	-10.4319
ంప్	-10.4322
టిల్	-10.4327
▁పాము	-10.4328
గలిగిన	-10.4332
▁నాగర్	-10.4335
K	-10.4337
చెర్ల	-10.4339
▁శ్రమ	-10.4343
స్తోంది	-10.4346
థ్	-10.435
▁అరటి	-10.4351
నొ	-10.4352
▁పల్లిలో	-10.4353
▁స్ట్రా	-10.4359
▁మార్క్	-10.4362
మందు	-10.4365
▁చక్కెర	-10.4366
ెత్త	-10.4366
▁ఖగోళ	-10.4366
ముందు	-10.4372
▁లంక	-10.4373
▁గుర్తిస్తూ	-10.4374
▁తెలుసు	-10.4376
వచ్చ	-10.4377
int	-10.4377
od	-10.4378
▁any	-10.4378
▁అనునది	-10.4383
ున్నాయి	-10.4385
▁also	-10.4386
▁మామూలు	-10.4386
▁పునః	-10.4386
ుడయ్యాడు	-10.4387
▁సమయానికి	-10.4391
▁ఇందు	-10.4393
▁స్టీ	-10.4398
▁ప్రధానమైన	-10.4398
▁రామ్	-10.4398
▁సంతకం	-10.4398
▁విధ	-10.44
ంజి	-10.4401
▁దీర్ఘ	-10.4403
ంపేట	-10.4409
▁మొదలైంది	-10.4415
▁ఆదర్శ	-10.4417
ఠా	-10.4425
ిరెడ్డి	-10.4427
▁చాట	-10.443
▁పుట్టి	-10.4433
▁నివసించే	-10.4435
▁అత్యున్నత	-10.444
▁విషయాల	-10.4446
▁ధ్రువ	-10.4446
▁నేపథ్యంలో	-10.4448
లెక్	-10.4448
▁రాజ్యాంగం	-10.445
▁కవుల	-10.445
జీవిత	-10.4452
▁సాధించారు	-10.4456
▁షేక్	-10.446
▁మైసూరు	-10.446
▁దండయాత్ర	-10.4461
▁ఆర్య	-10.4462
▁గూడ	-10.4468
నాటికి	-10.447
▁చీర	-10.447
వంతమైన	-10.4472
▁ఎన్నికల్లో	-10.4473
మార్గ	-10.4477
▁భూభాగంలో	-10.4479
▁ముఖ్యమైనవి	-10.4485
▁మధుర	-10.4487
▁గూర్చి	-10.4488
▁గ్రంధ	-10.4489
tic	-10.449
యుడు	-10.4491
▁వృత్త	-10.4493
▁నవంబర్	-10.4495
ునకు	-10.4496
▁కాట	-10.4498
▁అండ	-10.4498
▁సుదీర్ఘ	-10.4501
▁పరిషత్తు	-10.4502
▁ప్రదేశాల	-10.4505
▁నివసిస్తున్న	-10.4505
▁ఎగువ	-10.4509
భాగంలో	-10.4509
▁అనుకున్న	-10.4511
ిస్తున్నాయి	-10.4513
▁పొడవైన	-10.4515
కుమారి	-10.4517
▁ఉదయ	-10.4517
▁తయార	-10.4518
▁మరీ	-10.4518
▁ఫ్లా	-10.4522
▁కొంచెం	-10.4522
tu	-10.4522
▁అశోక	-10.4523
▁అత	-10.4524
1-	-10.4524
▁లభించాయి	-10.4524
▁మాటల	-10.4527
▁సుప్రసిద్ధ	-10.4529
టెక్	-10.4529
▁చమురు	-10.4536
▁కాల్	-10.4537
త్యం	-10.454
▁డిసెంబర్	-10.4543
▁అతన్ని	-10.4544
▁ఉపరితల	-10.4544
స్తులు	-10.4546
▁సూచన	-10.4547
▁తీస	-10.455
చ్చారు	-10.4554
▁ఆదిలాబాద్	-10.4555
▁లేఖ	-10.4555
హర్	-10.4556
ణ్య	-10.4557
లియో	-10.4559
▁వ్యవహార	-10.4562
▁కళాకారులు	-10.4563
▁అవకాశాలు	-10.4563
▁అంబ	-10.4569
▁మందు	-10.4574
▁పరిచయ	-10.4576
కాన్	-10.4578
ధన	-10.458
▁స్వామివారి	-10.4584
▁అక్బరు	-10.4584
▁టాప్	-10.4585
▁విశ్లేషణ	-10.4587
▁పార్కు	-10.4589
▁ఉపయోగించడం	-10.4591
తాయని	-10.4591
సులు	-10.4592
▁నీల	-10.4592
▁స్థల	-10.4596
▁నచ్చ	-10.4598
▁అడ్డు	-10.4599
▁మహిళ	-10.46
గలదు	-10.4602
ులై	-10.4602
పడిన	-10.4602
▁రచించాడు	-10.4606
▁పద్ధతులు	-10.4607
మండల	-10.4608
▁రూపొందించిన	-10.4609
వరు	-10.461
▁సభలో	-10.4611
పోతాయి	-10.4611
▁ఇతడి	-10.4611
▁అత్యుత్తమ	-10.4612
▁క్రో	-10.4612
ంఛ	-10.4613
▁కల్గి	-10.4616
▁ఫిల్మ్	-10.4616
క్షేప	-10.4616
▁నేతృత్వంలో	-10.4619
ఒ	-10.4622
▁అప్పగించ	-10.4627
▁లాస్	-10.4629
▁నిర్మించబడింది	-10.4629
▁పదార్థాల	-10.4631
▁రచయితలు	-10.4632
పురుష	-10.4634
▁భావించి	-10.4636
▁సూర	-10.4637
▁మూర్తి	-10.464
▁టెస్ట్	-10.4642
చెరువు	-10.4644
▁పరిశ్రమలు	-10.4645
▁హిల్	-10.4646
▁బాహ్య	-10.4646
▁నివసిస్తున్నారు	-10.4648
▁కోర్సు	-10.4649
▁చు	-10.4657
▁లలిత	-10.4658
▁తాగ	-10.4658
▁64	-10.4659
▁పిల్లలకు	-10.4659
▁di	-10.466
▁హనుమ	-10.466
కారుల	-10.4662
co	-10.4662
రోధ	-10.4665
ాలజీ	-10.4669
▁వెళ్ళిన	-10.4671
▁pa	-10.4671
▁తమకు	-10.4672
▁పాల్గొన్న	-10.4672
మిని	-10.4674
▁చో	-10.4676
ెన	-10.4676
▁స్థానాల	-10.4678
▁కవిత	-10.468
ts	-10.4681
క్టర్	-10.4681
▁అక్టోబర్	-10.4681
▁ఇంగ్లీష్	-10.4681
▁రెవెన్యూ	-10.4681
షణ	-10.4681
▁గట్టి	-10.4684
▁తీరు	-10.4689
▁ద్వీపం	-10.4689
▁సంగారెడ్డి	-10.4694
▁సంగ్రహ	-10.4694
తుంది	-10.4694
▁నగరాన్ని	-10.4695
▁త్వరగా	-10.4695
▁నిండి	-10.4696
చర్య	-10.4696
▁అందరు	-10.4697
▁ఆశ్రమ	-10.4698
▁వారసత్వ	-10.4699
▁చెట్లు	-10.4704
▁రంగారెడ్డి	-10.4705
▁ధరించి	-10.4705
▁వెడల్పు	-10.4709
గుల	-10.4709
▁గణపతి	-10.471
▁నువ్వు	-10.4714
శారు	-10.4714
▁ఇరవై	-10.4716
▁నాణ్యత	-10.4716
స్తున్నారు	-10.4716
▁5%	-10.4718
▁అనా	-10.472
▁గ్రంథాలు	-10.4727
ph	-10.4731
▁ముస్లింల	-10.4732
▁ఐదుగురు	-10.4732
ుకుంటే	-10.4733
▁పూజా	-10.4733
హరి	-10.4739
▁కన్య	-10.474
▁శరీరంలో	-10.4749
ములోని	-10.4752
▁పోలిస్తే	-10.4752
▁వుంటాయి	-10.4753
▁శత	-10.4755
▁ఊరు	-10.4755
▁రోడ్డుతో	-10.4757
టీఎం	-10.4757
▁ఫైనల్	-10.476
▁సంవత్సరములో	-10.4762
హె	-10.4763
▁యువత	-10.4764
▁ప్రాంతాలను	-10.4767
బాటు	-10.477
▁పిండి	-10.4771
▁పీఠ	-10.4772
▁సుబ్బ	-10.4773
▁నిర్ధారించ	-10.4776
దేవుడు	-10.4776
▁ఆదరణ	-10.4779
వేసి	-10.4782
ారి	-10.4784
ుకుంటాడు	-10.4784
▁ఫ్రాం	-10.4785
▁ఓపెన్	-10.4786
▁నివారణ	-10.4786
రిస్	-10.4791
▁కార్పొరేషన్	-10.4793
ాళ్	-10.4797
▁రావడం	-10.4797
ach	-10.4797
▁వ్యవహారాల	-10.4802
▁విధి	-10.4805
▁రచనల	-10.4809
ధ్వ	-10.481
పత	-10.4813
▁రాష్ట్రాలలో	-10.4814
▁II	-10.4815
ala	-10.4817
ించడానికి	-10.4818
పాలు	-10.4818
ుకోవచ్చు	-10.4818
▁పేట	-10.4819
▁శ్రీమతి	-10.4827
ట్లే	-10.4828
▁పాయింట్	-10.4829
▁లక్ష	-10.4829
▁రామాయణ	-10.4829
రెన్	-10.4831
భూ	-10.4836
▁గాజు	-10.4836
▁బియ్యం	-10.4837
▁ఆయుధ	-10.4837
▁మార్పుల	-10.4837
▁పోత	-10.4838
చ్చాడు	-10.4839
▁కమిషన్	-10.4843
కూడ	-10.4846
▁చుట్ట	-10.4848
▁సాఫ్ట్	-10.4852
వీడు	-10.4854
▁సుల్తాన్	-10.4871
5,000	-10.4872
▁62	-10.4875
▁స్థాపించి	-10.4876
లిపి	-10.4877
ట్రిక్	-10.4878
ధాన్య	-10.488
▁రాష్ట్రాలు	-10.4883
▁ఆగ	-10.4883
ke	-10.4885
▁పద్ధతిని	-10.4885
▁భద్రత	-10.4886
▁నెలలో	-10.4887
ుచున్నారు	-10.4888
▁రఘు	-10.4888
▁రాశారు	-10.4889
▁ఎర్	-10.4891
సభ	-10.4895
వచ్చని	-10.4896
▁1983	-10.4896
దాయ	-10.4902
▁లేకపోవడం	-10.4903
gu	-10.4906
▁దుఃఖ	-10.4907
కాక	-10.4908
▁ఉచిత	-10.491
క్యూ	-10.491
ింపబడిన	-10.4912
no	-10.4917
ast	-10.4917
▁కథల	-10.4919
ొచ్చు	-10.492
▁పోషక	-10.4922
▁దిక్కు	-10.4925
▁మేక	-10.4927
▁గాథ	-10.4928
▁అనుసంధానమై	-10.4928
టాన్ని	-10.4931
బండ	-10.4932
నాగ	-10.4932
సమూహ	-10.4933
▁వడ	-10.4934
▁se	-10.4937
▁పెర్	-10.4937
ధారణ	-10.4942
▁నందు	-10.4944
▁నవ్వ	-10.4945
స్కో	-10.4948
థో	-10.4948
ction	-10.4951
▁సినిమాకు	-10.4953
▁సైట్	-10.4956
తరం	-10.4956
ళు	-10.4962
ిరి	-10.4963
▁సులభంగా	-10.4964
▁కార్యక్రమంలో	-10.4964
ంద్	-10.4964
▁కనిపెట్ట	-10.4967
▁మతపరమైన	-10.4968
పర్తి	-10.4972
▁అర్హత	-10.4973
▁పరుగులు	-10.4976
▁ఫ్ర	-10.4978
చ్చిన	-10.4981
బాబు	-10.4983
సెల్	-10.4983
▁అలంకరించ	-10.4985
▁మసీదు	-10.4985
▁దిశలో	-10.4989
▁బట్ట	-10.4992
▁హస్త	-10.4993
▁అందుకున్నారు	-10.4994
మయ్య	-10.4994
క్ట్	-10.4995
mi	-10.4995
▁మినుము	-10.4999
▁సభ్యుడు	-10.4999
▁ఆర	-10.5002
▁రాక్	-10.5004
up	-10.5005
▁బ్లా	-10.5006
యందు	-10.5009
▁శాసనం	-10.501
▁1962	-10.5011
బడినవి	-10.5012
▁వినియోగదారు	-10.5014
▁వర్షపాతం	-10.5014
▁సంవత్సరాలలో	-10.5015
▁ప్రాంతంలోని	-10.5016
▁వంగ	-10.5016
స్తుందని	-10.502
▁వినాయక	-10.502
▁అంచు	-10.5024
▁అజ	-10.5026
▁వుండి	-10.5027
▁అధి	-10.5028
▁జంతువులు	-10.5031
▁పొరుగు	-10.5031
ినీ	-10.5035
స్టో	-10.5035
▁స్థాపన	-10.5036
Sub	-10.504
▁లాగా	-10.504
▁మీడియా	-10.504
ప్స్	-10.504
▁అరకులోయలో	-10.5041
▁పాత్రల	-10.5041
▁ఈజిప్టు	-10.5043
▁మొఘల్	-10.5043
▁ఆకర్షించ	-10.5043
ical	-10.5047
▁పెసర	-10.5049
▁బలం	-10.5049
▁గణనీయమైన	-10.505
▁అందమైన	-10.5055
▁have	-10.5058
▁ప్రేరణ	-10.5059
రని	-10.506
▁త్ర	-10.5061
▁అనేవి	-10.5064
▁సంపన్న	-10.5065
▁శతక	-10.5066
▁1985	-10.5069
యిడ్	-10.507
▁పడుతుంది	-10.5072
▁అద్భుత	-10.5076
▁శాస్త్రవేత్తలు	-10.5076
▁భౌగోళిక	-10.5079
▁పనికి	-10.5082
▁హిందువులు	-10.5085
్ర	-10.5085
▁డొ	-10.5087
▁హిమ	-10.5087
▁వ్యవస్థను	-10.5087
▁చేతులు	-10.5091
సిద్ధ	-10.5097
▁ఆర్మేనియా	-10.5101
▁బెల్లం	-10.5102
▁తోడు	-10.5103
▁1971	-10.5105
వంశ	-10.5105
▁దశాబ్ద	-10.5109
వెంట్	-10.511
▁పాఠ	-10.5115
▁గణన	-10.5115
▁నిరాకరించ	-10.5116
జూ	-10.5116
▁పరిశీలించ	-10.5116
to	-10.5117
శ్చ	-10.5117
ang	-10.5117
సియ	-10.512
▁నష్టం	-10.5123
▁జగిత్యాల	-10.513
▁డిస్	-10.5136
▁రూపొంద	-10.5139
▁1920	-10.5146
క్షేత్ర	-10.5147
▁సేకరించ	-10.5147
▁నిమ్మ	-10.5148
కాన్ని	-10.5149
▁పరిషత్	-10.5152
▁రాష్ట్రములోని	-10.5153
▁సమస్త	-10.5157
ఉంది	-10.5157
కల్ప	-10.5157
▁మాదిరిగా	-10.5158
లాగా	-10.5161
▁పనిచేసి	-10.5162
▁పోయిన	-10.5165
▁బర్మా	-10.5167
▁సులభ	-10.5167
▁అచ్చ	-10.5168
▁Ma	-10.517
ీశ్వర	-10.5171
▁గుండ	-10.5171
▁చిత్రీకరించ	-10.5172
నాయుడు	-10.5172
ానని	-10.5173
▁వ్యక్త	-10.5175
▁కాలము	-10.5179
res	-10.5181
▁కేటాయించ	-10.5181
▁ప్రశాంత	-10.5184
లెస్	-10.5185
టక	-10.5188
ోద్యమ	-10.5191
ాల్ని	-10.5196
▁చోట్ల	-10.5198
▁నిర్వహిస్తున్న	-10.5199
ఫే	-10.52
▁విక్రయ	-10.5203
▁బెంగాలీ	-10.5203
▁రోగి	-10.5209
▁క్రిస్ట	-10.5209
▁బిందువు	-10.521
కోశ	-10.5215
▁కాలేజ్	-10.5218
▁ఉపయోగం	-10.5219
పోత	-10.522
డికి	-10.522
పోవటం	-10.522
▁అందించిన	-10.5222
▁నిర్మాణంలో	-10.5226
భీ	-10.5227
▁కారక	-10.5229
▁విర	-10.5231
▁పోలీస్	-10.5233
▁మంత్రిగా	-10.5235
▁పరిస్థితులు	-10.5236
▁1000	-10.5239
లార్	-10.524
▁శైవ	-10.524
ష్ణ	-10.5247
▁జరుగుతాయి	-10.525
▁హిందువుల	-10.525
▁సందేహ	-10.5256
▁చెల్ల	-10.5256
▁వీజీ	-10.5258
తర్	-10.526
▁ఉత్సవాలు	-10.5262
▁రైతులు	-10.5265
వర్తి	-10.5265
▁దిశ	-10.5265
▁కార	-10.5269
▁అనారోగ్య	-10.527
▁సముద్రమట్టానిక	-10.527
▁లిం	-10.527
స్తాన్	-10.5272
▁రంధ్రం	-10.5272
▁మండలంతో	-10.5273
▁అద్భుతమైన	-10.5276
▁రాజ్యాన్ని	-10.5276
ంటున్న	-10.5278
▁పంపించ	-10.5284
మగు	-10.5286
యిల్	-10.5287
▁తీరంలో	-10.5287
కన్	-10.5288
▁2016,	-10.5288
▁po	-10.5288
ాక్ష	-10.5297
▁మ్యా	-10.5299
▁లక్ష్మి	-10.53
మెట్	-10.53
▁సమయ	-10.5303
▁దిశగా	-10.5304
▁ఎడారి	-10.5307
▁పరిశోధకులు	-10.531
▁పరిపాలించ	-10.5312
▁దుర	-10.5312
▁ఐరోపాలో	-10.5314
▁ప్రవేశించి	-10.5316
ినది	-10.5317
▁మంగ	-10.5318
▁నాయిక	-10.5319
▁కాలేజీ	-10.5323
▁శ్వాస	-10.5327
▁ప్రాజెక్ట్	-10.5329
▁వహించారు	-10.5335
▁నోబెల్	-10.5337
▁శనగ	-10.5337
చరిత్ర	-10.5339
గిన	-10.5349
▁రజ	-10.5353
▁వీరిని	-10.5355
▁1984	-10.5355
▁తెలి	-10.5355
▁నమ్మక	-10.5357
▁ఓట్ల	-10.5357
లన్నీ	-10.5358
▁గుడివాడ	-10.5358
▁పండిత	-10.536
▁నగరాలలో	-10.5362
▁టర్కీ	-10.5362
▁పరిశీలన	-10.5366
▁జంతు	-10.5369
▁విమానాశ్రయ	-10.537
▁1956	-10.5371
▁1993	-10.5371
▁కోడ	-10.5375
▁అందరికీ	-10.5377
▁అంజ	-10.5377
▁1967	-10.5378
వలెను	-10.5379
▁బాగు	-10.5379
ానికే	-10.5381
పోవడం	-10.5382
▁కావున	-10.5383
ార్ధం	-10.5385
ండో	-10.5385
ెల	-10.5385
▁పఠ	-10.5386
▁భద్రాచలం	-10.5389
▁భోగ	-10.5393
▁కొందరి	-10.54
▁స్థాయికి	-10.5402
oc	-10.5405
స్థల	-10.5408
▁పదము	-10.5411
▁తరహా	-10.5414
▁;	-10.5417
▁పాస్	-10.5417
▁రుణ	-10.5418
▁గిరి	-10.5418
▁సామ	-10.5418
ుదురు	-10.5422
ఫు	-10.5426
▁వేలాది	-10.5429
▁తెలుపు	-10.5432
ిస్తోంది	-10.5434
▁పేరిట	-10.5434
▁ఆఖరి	-10.5442
▁సిక్కు	-10.5444
▁కవులు	-10.5447
రగ	-10.5448
▁ప్రతిభ	-10.5449
▁స్మారక	-10.5449
▁సమీక్ష	-10.5449
-4	-10.5449
▁India	-10.5451
▁వేగ	-10.5452
▁పెన్	-10.5454
▁చేయటానికి	-10.5454
▁విశిష్ట	-10.5457
▁తీసుకొ	-10.5464
▁పేర్కొంది	-10.5464
▁పాత్రలో	-10.5465
▁2017	-10.5467
▁పవర్	-10.5467
▁భోజన	-10.5471
▁పొందాయి	-10.5474
పణ	-10.5474
▁చేపట్టిన	-10.5482
▁పిలిచే	-10.5483
▁కటక	-10.5483
▁క్ష	-10.5485
▁కలయిక	-10.5487
▁ఇస్తుంది	-10.5487
▁వైభవంగా	-10.5488
▁వాటర్	-10.5488
▁వేగం	-10.5488
▁గ్రంథము	-10.5489
ింపబడ	-10.5491
▁బాంబు	-10.5494
▁పరిమితం	-10.5494
ాచార్యులు	-10.55
▁సందేశ	-10.55
▁ప్రస్తావన	-10.5502
▁గ్రూపు	-10.5502
ినపుడు	-10.5504
ari	-10.5504
▁ప్రమాణం	-10.5505
▁కృష్ణుడు	-10.5506
నారాయణ	-10.5508
▁అంతేకాకుండా	-10.5509
▁పండ్ల	-10.5515
▁ఎక్క	-10.5517
▁mo	-10.5517
▁నిమిషాల	-10.552
▁we	-10.5523
▁ఒడిషా	-10.5525
5%	-10.5529
▁సమూహాల	-10.5531
▁sp	-10.5532
▁నివారించ	-10.5533
▁అగ	-10.5533
క్షణ	-10.5533
యత్	-10.554
రకాల	-10.5541
▁అడవుల	-10.5543
▁భక్తులకు	-10.5543
▁విద్యార్థులకు	-10.5543
red	-10.5544
▁కవితా	-10.5545
▁ప్రచురించ	-10.5551
▁1972	-10.5551
▁ప్రభువు	-10.5553
▁క్షత్రియ	-10.5555
▁చదవ	-10.5555
▁నుండే	-10.5559
▁అగ్నిపర్వత	-10.5563
▁అమృత	-10.5563
మియా	-10.5563
▁ఎన్ని	-10.5566
యిన్	-10.5566
▁జ్ఞాపక	-10.557
▁అధ్యాపక	-10.557
ard	-10.5571
కరంగా	-10.5571
▁అనుమాన	-10.5573
▁ప్రవాహం	-10.5574
▁ఉన్నాయని	-10.5575
శ్వ	-10.5578
▁గిరిజన	-10.5579
▁ఆవు	-10.5579
▁పడవ	-10.5579
ాలున్నాయి	-10.5579
▁విరమణ	-10.5588
తీయ	-10.5592
▁ప్రత్యర్థి	-10.5593
▁కొత్తగూడెం	-10.56
▁దయ	-10.5603
▁ఆరుగురు	-10.561
ుకోవటం	-10.5626
▁చేపలు	-10.5627
లిస్	-10.5629
▁ప్రచురించారు	-10.563
▁పరమాణు	-10.5632
▁ఊర	-10.5633
త్వము	-10.5639
▁మూలం	-10.5646
▁మిగిలి	-10.5648
▁ఆలయానికి	-10.565
డియ	-10.565
▁నిర్వహించే	-10.5652
మున్న	-10.5652
ేసి	-10.5653
▁అన్నమయ్య	-10.5653
▁జరిపిన	-10.5666
▁ఘంటసాల	-10.5669
▁సమకాలీన	-10.5669
దగ్గ	-10.567
ear	-10.567
▁1975	-10.5674
▁కాంగ్	-10.5675
▁దక్షిణాఫ్రికా	-10.5677
▁మెడికల్	-10.5677
▁ప్రభావిత	-10.5678
▁ఫెర్	-10.568
▁కష్టం	-10.5681
▁బ్యాండ్	-10.5682
▁మిస్	-10.5683
▁వెళ	-10.5683
రణం	-10.5687
తాను	-10.5688
ధం	-10.5688
▁విజయాన్ని	-10.5689
చింది	-10.5692
▁గుప్త	-10.5693
▁బయలుదేర	-10.5695
▁తాళ	-10.5701
▁అత్త	-10.5702
వహ	-10.5703
▁క్యూ	-10.5704
▁వడ్డ	-10.5706
భూషణ	-10.5708
▁78	-10.5709
▁హాజర	-10.5711
▁వాడకం	-10.5714
▁వ్యతిరేకించ	-10.5717
▁ఆధిపత్యం	-10.5719
▁వహిస్త	-10.572
▁చక్కని	-10.5724
▁వ్రత	-10.5727
▁విస్తరించింది	-10.5728
▁పుల్ల	-10.5735
▁మేఘ	-10.5737
శో	-10.5738
ight	-10.574
▁నర్స	-10.574
▁దీ	-10.5742
▁పండించ	-10.5742
▁హిట్	-10.5743
▁హెర్	-10.5746
▁జన్యు	-10.5746
▁ఛాంపియన్	-10.5747
▁స్కా	-10.5748
రోగ	-10.5752
▁క్లో	-10.5759
▁400	-10.5763
▁ప్రజాస్వామ్య	-10.5763
▁సున్న	-10.5763
ాచార్య	-10.5764
ev	-10.5766
పేట్	-10.5766
▁చిత్రాన్ని	-10.5767
టూరు	-10.5767
amu	-10.5768
▁తులసి	-10.577
▁యూనిట్	-10.5772
▁స్టె	-10.5774
శేష	-10.5774
▁రాకెట్	-10.5774
▁అనేకమంది	-10.5774
▁ఇటీవలి	-10.5775
ట్రి	-10.5776
ానంతరం	-10.5777
ుంటారు	-10.5782
▁వేదాంత	-10.5782
▁గడ	-10.5783
▁సాయంత్రం	-10.5786
ాధికారి	-10.5786
▁అల్లాహ్	-10.5786
లాడ	-10.5788
▁ధ్యాన	-10.579
▁1977	-10.579
▁గుర్తించి	-10.5793
▁టర్	-10.5795
▁పండితులు	-10.5797
▁శ్రీనివాస	-10.5798
▁విటమిన్	-10.5801
▁వికీ	-10.5803
రూపం	-10.5804
పిల్ల	-10.5806
▁తెలియజేస	-10.5808
▁మార్పిడి	-10.5809
▁శస్త్రచికిత్స	-10.5809
తెలంగాణ	-10.581
▁భాషను	-10.5814
▁రోగుల	-10.5815
▁72	-10.5816
▁ఆధారం	-10.5818
▁తలెత్త	-10.5819
▁సంతాన	-10.5822
▁వినియోగ	-10.5826
▁పురాణాల	-10.5827
▁స్ఫూర్తి	-10.5836
వంటి	-10.5843
ొచ్చ	-10.5843
గూడెంలో	-10.5844
▁అబ్	-10.5844
▁ఎవరైనా	-10.5848
▁మౌలిక	-10.5849
▁తెచ్చి	-10.5849
ాంక	-10.5852
▁నిర్మించి	-10.5853
▁సిరీస్	-10.5856
పట్ల	-10.5858
▁ఫ్లో	-10.5859
▁నిజమైన	-10.586
▁పాండవుల	-10.586
▁అన్	-10.586
సౌ	-10.5863
▁చుట్టు	-10.5863
▁article	-10.5864
▁సిద్ధిపేట	-10.5864
▁పసిఫిక్	-10.5864
▁ఎరుపు	-10.5864
▁విలువైన	-10.5872
▁కొల్ల	-10.5875
ాన్నే	-10.5876
పూజ	-10.5878
▁పక్కన	-10.5879
ee	-10.588
జార్	-10.5888
ఉన్న	-10.5889
▁చనిపో	-10.5889
▁ప్రదేశాలలో	-10.5893
రియల్	-10.5895
▁క్షిపణి	-10.5895
▁స్థూల	-10.5895
output	-10.5895
పార్	-10.5895
▁తొలిసారిగా	-10.59
ep	-10.5901
▁సౌత్	-10.5904
▁సైనికులు	-10.5907
ఇతర	-10.5908
▁సుర	-10.591
▁పోర్చుగీసు	-10.5911
▁సంబ	-10.5913
సింది	-10.5915
ాము	-10.5915
▁బ్రిటీషు	-10.5919
▁పాటుగా	-10.5919
▁సహకారంతో	-10.5921
▁కళాకారుల	-10.5922
▁అగు	-10.5922
▁అధిగమించ	-10.5927
▁ఏమిటంటే	-10.5927
ంబా	-10.5931
▁జిల్లాల్లో	-10.5933
భక్త	-10.5934
కారుడు	-10.5935
▁హీరో	-10.5944
▁వేళ	-10.5951
▁శు	-10.5953
పట్ట	-10.5958
▁మస్జిద్	-10.5958
▁తిరగ	-10.5971
పడ్డాయి	-10.5971
▁other	-10.5974
▁సరాసరి	-10.5974
▁into	-10.5975
▁నాగేశ్వరరావు	-10.5975
▁పుట్టుక	-10.5975
2)	-10.5979
▁ప్రారంభించి	-10.5981
▁విషయాలను	-10.5981
సముద్రం	-10.5983
▁పడిన	-10.5983
▁పూజించ	-10.5989
▁బెంగుళూరు	-10.599
▁తెలిపారు	-10.599
▁మిక్కిలి	-10.599
రంగం	-10.5994
▁స్వీయ	-10.5994
▁బ్రాడ్	-10.5996
ాధిపతి	-10.5997
▁సహకరించ	-10.5999
▁చెందుతున్న	-10.6004
▁సల్	-10.6004
▁యుగం	-10.6004
వాయి	-10.6005
▁విశాల	-10.6005
▁ప్రయాణీకుల	-10.6006
▁వ్యూహ	-10.6009
నూర్	-10.601
మరియు	-10.6012
▁నుంచే	-10.6013
సిన్	-10.6014
▁To	-10.6017
▁విశ్వవిద్యాలయము	-10.6018
ath	-10.6018
▁పౌరులు	-10.602
▁అరుదుగా	-10.6022
▁వికారాబాద్	-10.6024
if	-10.6026
▁ఆల్బమ్	-10.603
▁నదులు	-10.6033
▁కోప	-10.6034
▁మెక్సికో	-10.6038
▁మెదడు	-10.6038
▁దళాల	-10.604
▁కలిగే	-10.6042
▁పరు	-10.6046
బన్	-10.6046
టివ్	-10.6046
▁కనక	-10.6051
▁చెప్పబడింది	-10.6053
▁చిత్రాలను	-10.6054
▁తీర్పు	-10.6054
ూర	-10.6058
రంగు	-10.6059
▁అధికారాన్ని	-10.6059
▁చిన్నతనం	-10.6062
▁తెలుప	-10.6063
▁పదానికి	-10.6065
▁శతాబ్దపు	-10.6066
pi	-10.6066
కత	-10.6067
▁mw	-10.6068
▁నల	-10.6068
▁ఇక్కడే	-10.6069
▁ఆయుర్వేద	-10.607
క్లి	-10.6072
▁చైనాలో	-10.6074
▁ఉపయోగించిన	-10.6079
క్య	-10.6081
విక్	-10.6084
ated	-10.6086
▁కర్నూల్	-10.6086
▁తరపున	-10.6094
▁ద్వితీయ	-10.6094
▁పరిస్థితుల	-10.6094
▁నిర్మ	-10.6097
జెర్	-10.6101
▁ఆధారపడ	-10.6101
▁కర్మాగార	-10.6104
▁నదుల	-10.6109
▁మరు	-10.611
▁కప్ప	-10.611
▁మార్గాలు	-10.6115
సహ	-10.6119
స్థానంలో	-10.6122
▁పరికరం	-10.6125
▁టైటిల్	-10.6127
▁ఒడ్డున	-10.6128
▁భాషగా	-10.6128
▁మొదటిసారి	-10.6137
▁ఉపాధి	-10.6141
parser	-10.6142
▁ఏర్పడి	-10.6142
▁బ్రెజిల్	-10.6142
▁బ్యాటరీ	-10.6143
▁ఉండేవాడు	-10.6144
రాన్ని	-10.6144
గ్రంథ	-10.6147
మంటే	-10.6148
▁తొలగి	-10.6154
▁కార్మిక	-10.6154
▁పర్వ	-10.6155
గొండ	-10.6155
▁బ్ల	-10.616
▁పత్రికలో	-10.6161
పట	-10.6164
▁నిర్వచించ	-10.6165
▁పురుగు	-10.617
▁un	-10.6172
▁మాల	-10.6172
▁క్యాన్సర్	-10.6174
▁సింహాసన	-10.6175
▁గుడ్	-10.6176
ర్చి	-10.6176
దనం	-10.6179
జింగ్	-10.6179
▁ఆదివారం	-10.6183
ాదుల	-10.6186
వరి	-10.6188
▁ఉద్యమంలో	-10.6191
గీత	-10.6196
▁శాస్త్రంలో	-10.6198
▁పాల్గొని	-10.6199
టాన్	-10.6201
ేళ్ళ	-10.6201
ప్పుడే	-10.6202
సమీప	-10.6206
▁బొంబాయి	-10.6207
▁పాలక	-10.6207
▁నిర్వహిస్తుంది	-10.6207
▁వ్యవస్థాపక	-10.621
▁చేశాయి	-10.6211
▁1974	-10.6211
1)	-10.6215
▁మతము	-10.6217
▁ఉంచి	-10.622
▁డేటా	-10.6223
ప్రాయ	-10.6223
▁త్రాగ	-10.6224
ాన్నీ	-10.6227
▁మరాఠీ	-10.6231
▁పరిమిత	-10.6234
ధిక	-10.6243
▁నిరసన	-10.6248
▁సరస్వతి	-10.625
▁ఏర్పడుతుంది	-10.6251
▁కూర్చ	-10.6254
▁dis	-10.6256
థె	-10.6256
▁శృంగార	-10.6256
▁మొగ	-10.6259
▁వాదించ	-10.626
షర్	-10.6264
▁వ్యవసాయాధారిత	-10.6264
▁ఎందరో	-10.6264
▁will	-10.6265
▁నాటిక	-10.6265
▁నగరంలోని	-10.6267
ంచిన	-10.6268
▁యాదవ	-10.6269
▁మిల్	-10.6272
▁దే	-10.6273
నట	-10.6276
▁చేసుకుంట	-10.6279
ంపల్లి	-10.628
సెం	-10.6281
ధర్	-10.6282
▁ప్రతినిధి	-10.6284
▁సెట్	-10.6284
▁భూముల	-10.6285
ోపనిషత్తు	-10.6288
▁నిష్పత్తి	-10.6288
▁విద్యాభ్యాసం	-10.6291
▁అధికం	-10.6293
▁బోర్	-10.6295
ధ్ధ	-10.6296
▁ఉత్సవం	-10.6299
▁---	-10.63
▁విక్రయించ	-10.6301
కరించ	-10.6302
▁మలేషియా	-10.6305
ఎన్	-10.6306
▁జరుపుకుంటారు	-10.6307
▁ఇష్టం	-10.631
▁ప్రఖ్యాతి	-10.6314
న్నింటి	-10.6317
▁నిలిపి	-10.6317
▁తెలుసుకున్న	-10.6317
▁1955	-10.6318
ాంశం	-10.6321
ణ్ణ	-10.6323
▁ఉదాహరణలు	-10.6324
▁శ్రీరంగ	-10.6329
▁అప్పటికి	-10.6329
▁చేరు	-10.6333
తోనూ	-10.6335
os	-10.6336
▁పురస్కార	-10.634
▁1946	-10.6342
▁67	-10.6344
▁వినిపించ	-10.6346
▁కరువు	-10.6352
▁వ్యవహరిస్తారు	-10.6355
వత్	-10.6359
▁జూలైలో	-10.6362
-5	-10.6362
▁వరంగల్లో	-10.6364
ళ్ళలో	-10.6364
ప్రో	-10.6365
▁ఓట్లు	-10.6369
▁63	-10.6369
▁వ్యాపించి	-10.6369
▁524	-10.637
▁పెరుగుతున్న	-10.6371
▁శిష్య	-10.6372
▁1988	-10.6376
▁నోటి	-10.6377
▁కుండ	-10.6379
ంబర్	-10.6382
▁ఉత్సవ	-10.6384
▁బంగారం	-10.6385
▁ఇద్దరూ	-10.6387
▁ఓటమి	-10.6387
▁గ్రాండ్	-10.6391
▁గ్ర	-10.6399
శాడు	-10.6401
▁కిలోమీటర్లు	-10.6401
3)	-10.6403
▁సంవత్సరము	-10.6404
▁కచ్చితంగా	-10.6404
▁ఎన్నికయ్యాడు	-10.6404
ులయ్యారు	-10.6404
▁పురస్కారాన్ని	-10.6405
వ్యాప్త	-10.6413
వంతంగా	-10.6414
▁ఆప్	-10.6417
▁సైనికుల	-10.6417
▁ప్రభావాన్ని	-10.6417
▁మందిరం	-10.6419
tor	-10.642
▁ఏట	-10.6421
▁పోషించారు	-10.6424
▁దగ్గరి	-10.6429
▁రామాయణం	-10.643
▁మక్కా	-10.6431
▁రూపాయలు	-10.6431
▁ఆసియాలో	-10.6433
హారం	-10.6434
▁పునర్	-10.6434
ళం	-10.6435
▁రంధ్ర	-10.6436
▁చారిత్రిక	-10.6437
▁కత్తి	-10.6438
▁కదలిక	-10.644
పుత్ర	-10.644
కూర	-10.644
మ్మా	-10.6441
▁ఉపన్యాస	-10.6442
పాయ	-10.6443
▁ఆదేశ	-10.6444
రేషన్	-10.6444
▁సుల్తాను	-10.6445
▁బోస్	-10.6445
సాన్	-10.6447
▁రమణ	-10.645
▁డిజిటల్	-10.6454
▁లైంగిక	-10.6454
▁పురావస్తు	-10.6454
గొట్టపు	-10.6465
▁వాడుతారు	-10.6472
▁కారణాలు	-10.6473
▁కథనం	-10.6475
▁శంకర్	-10.6475
తిక	-10.6479
▁చేయబడ	-10.648
▁అన్నా	-10.6486
▁తప	-10.6487
▁ఫోర్	-10.6487
▁తాత్కాలిక	-10.6489
▁భూకంప	-10.6496
స్తుంటాయి	-10.6498
▁85	-10.6498
▁పెరిగే	-10.6499
▁పదార్థాలు	-10.65
▁చేయగల	-10.6501
స్ట్రో	-10.6502
ోద్	-10.6507
ళిక	-10.6508
స్థాయిలో	-10.6513
▁చేయబడుతుంది	-10.6516
▁నేపథ్య	-10.6518
బం	-10.6518
▁ఇతనికి	-10.652
వాళ్ళు	-10.6522
▁సముద్రంలో	-10.6523
▁ఆర్ట్	-10.6529
కణ	-10.6529
tal	-10.6529
▁సాహస	-10.653
కూర్	-10.653
▁నివాసం	-10.6531
▁ఎత్తున	-10.6537
వంతు	-10.6539
ల్యాండ్	-10.6539
ాశ	-10.6544
▁ఒంగోలు	-10.6546
స్త్ర	-10.6548
▁క్వా	-10.6549
▁ఇంద్రుడు	-10.6549
▁ఆవిరి	-10.6551
▁కాళ	-10.6554
టొ	-10.6554
▁భాగస్వామ్యం	-10.6556
మస్	-10.6557
▁రచించ	-10.6557
▁బాయిలరు	-10.6562
▁ఆనకట్ట	-10.6563
▁సోదరుడు	-10.6564
▁కలిగించే	-10.6564
▁కణాల	-10.6566
▁1978	-10.6567
▁1964	-10.6567
▁తిరువ	-10.6567
▁ఇస్లామీయ	-10.6569
▁సంస్కృతుల	-10.657
▁యజమాని	-10.6579
▁సూర్యుడు	-10.6581
ేశాడు	-10.6582
జై	-10.6583
▁కట్టి	-10.6583
▁సంస్కరణ	-10.6587
▁లక్షణాల	-10.6588
▁పాల్గొంట	-10.6588
▁such	-10.6588
▁వికీపీడియా	-10.6596
పయోగ	-10.6598
నీరు	-10.6601
▁గలవాడు	-10.6601
▁no	-10.6605
టిన్	-10.6608
శ్య	-10.6614
▁సాయి	-10.6616
▁పరీక్షించ	-10.6617
▁ఆక్రమణ	-10.6617
▁ధర్మం	-10.6617
▁గ్లా	-10.662
▁నైపుణ్య	-10.6621
ెన్	-10.6621
స్తున్నాయి	-10.6621
▁దృఢ	-10.6622
యుక్త	-10.6625
▁వెళ్ళారు	-10.6626
బర	-10.6628
భద్ర	-10.6629
▁ధార్మిక	-10.663
▁థాయ్	-10.6631
▁రాజ్యాల	-10.6634
పాలన	-10.6634
ty	-10.6634
▁గడ్డి	-10.6635
▁శారీరక	-10.6638
చోట	-10.6639
▁దర్	-10.6639
▁మూలకం	-10.664
▁పెను	-10.664
బడినది	-10.6645
▁క్రా	-10.6649
▁రాముని	-10.6649
లూరి	-10.6651
టంలో	-10.6657
నిష్	-10.6657
▁వ్యక్తం	-10.6658
▁1979	-10.6659
ితమైన	-10.6659
▁ద్వారం	-10.666
▁కడుపు	-10.6664
▁పెరిగిన	-10.6664
▁పర్షియన్	-10.6664
▁ప్రపంచంలోనే	-10.6665
▁086	-10.6667
▁నగరము	-10.6672
▁మొత్తంలో	-10.6675
▁హర్	-10.6678
కాలము	-10.6678
▁పెరగ	-10.6681
▁54	-10.6681
▁రచయితగా	-10.6684
ాధి	-10.6688
ట్టే	-10.6689
▁రాయలసీమ	-10.6698
▁జార్జ్	-10.6698
▁కౌరవ	-10.6699
ారో	-10.67
▁కావలి	-10.67
▁సౌదీ	-10.6701
▁ముద్ద	-10.6701
▁దేశాలకు	-10.6703
▁బహుశా	-10.6703
▁అప్	-10.6705
▁పేర్ల	-10.6711
శోధ	-10.6713
▁ఏకీకృత	-10.6715
▁విభాగ	-10.6718
▁చెప్పింది	-10.6719
▁భిన్నంగా	-10.6721
▁డైరెక్టర్	-10.6722
▁వాసన	-10.6722
▁థ	-10.6722
▁కౌంటీ	-10.6724
▁సన్నిహిత	-10.6724
▁ఫలిత	-10.6726
▁వైఎస్	-10.6727
▁సౌర	-10.6728
వైద్య	-10.6729
▁ప్రోగ్రామ్	-10.6732
బ్యూ	-10.6736
▁సమా	-10.6736
▁సంభవ	-10.6739
పీఠ	-10.674
▁పురాతనమైన	-10.6741
▁all	-10.6743
▁ప్రబల	-10.6746
▁పరికరాలు	-10.675
▁లభించే	-10.6757
లంక	-10.676
▁కేంద్రము	-10.6761
▁అరబ్	-10.6761
ారణ్య	-10.6762
▁నిరోధించ	-10.6763
▁లోనికి	-10.6767
▁శివలింగ	-10.6769
తులను	-10.6771
▁భిన్న	-10.6772
▁1965	-10.6772
యుత	-10.6773
ten	-10.6775
▁ఖ్యాతి	-10.6775
▁దాడుల	-10.6777
▁చంపి	-10.6778
▁మెక్	-10.6778
సంఖ్య	-10.6778
▁మర్రి	-10.6779
సాయి	-10.6779
▁మద్రాసులో	-10.6784
▁శర	-10.6787
▁యుక్త	-10.6789
▁గది	-10.6793
▁అపరాలు	-10.6794
ub	-10.6795
▁వాహక	-10.6795
నగర	-10.6801
▁73	-10.6801
▁సాగింది	-10.6803
▁నీతి	-10.6803
▁రంగారావు	-10.6803
▁మహాత్మా	-10.6806
▁భాషల్లో	-10.6815
పాత	-10.6817
ట్టుగా	-10.6818
▁సంగీతాన్ని	-10.682
గృహ	-10.6821
▁ఎవరూ	-10.6822
▁భీమవరం	-10.6825
ంటో	-10.6825
▁సామంత	-10.6825
▁మైళ్ళ	-10.6827
gen	-10.6831
▁స్పా	-10.6831
▁కవిత్వ	-10.6832
▁కాలుష్య	-10.6835
▁భూభాగాల	-10.6836
▁కలదు	-10.6838
గిలి	-10.684
▁చర్మం	-10.6841
▁శిల	-10.6843
▁vi	-10.6844
బ్లి	-10.6846
▁ఉండాలని	-10.6846
▁నగరాలు	-10.6846
▁స్ట్ర	-10.6847
▁భగవ	-10.6848
సిక్	-10.6848
▁సముదాయ	-10.6849
▁pre	-10.685
▁ఇల్లు	-10.6851
▁కంటి	-10.6852
▁జేమ్స్	-10.6854
ాలే	-10.6854
స్పష్ట	-10.6855
స్థాన్	-10.6859
▁భీష్ముడు	-10.686
▁నివాసగృహాలు	-10.6861
▁తాజా	-10.6861
▁నంద్యాల	-10.6862
▁కార్యాలయ	-10.6862
▁అక్రమ	-10.6864
▁120	-10.6865
▁ఎదురుగా	-10.6866
▁అప్పు	-10.6866
▁చిత్రాలకు	-10.6867
తృ	-10.6868
▁కళ్ళ	-10.6872
▁కొలత	-10.6873
▁డ్రా	-10.6873
ew	-10.6876
▁విభాగాలు	-10.6878
▁అత్యవసర	-10.6879
▁నాల్గవ	-10.6879
రిగి	-10.6879
ాలైన	-10.6881
మిన	-10.6883
▁1945	-10.6884
▁భాగవత	-10.6884
ara	-10.6889
▁తీసుకున్నారు	-10.6889
లాల్	-10.6889
ధారి	-10.6891
▁మునిగి	-10.6892
ial	-10.6892
▁ఉత్పత్తులు	-10.6893
▁విముక్తి	-10.6896
▁శుక్ర	-10.6897
▁రూపాల	-10.6897
▁పరిమాణంలో	-10.6897
▁గేయ	-10.6901
▁మోహన్	-10.6902
ec	-10.6903
▁వూ	-10.6903
▁మాతృ	-10.6903
▁డాలర్ల	-10.6904
▁కాథలిక్	-10.6905
హార్	-10.6908
పత్	-10.691
▁1987	-10.6911
రియం	-10.6912
బ్రి	-10.6912
▁చారిత్రాత్మక	-10.6913
▁కమల	-10.6917
▁గంగరాజు	-10.6918
▁గర్	-10.692
మునందు	-10.692
▁అరి	-10.6921
లెన్	-10.6923
▁చేరుకున్న	-10.6923
మిన్	-10.6923
▁ఎన్నికలు	-10.6924
▁శైలిలో	-10.6925
▁కొర	-10.6925
టికల్	-10.6927
ోంది	-10.6928
డియో	-10.6928
▁హాని	-10.6932
▁తయారుచేయ	-10.6932
▁సర్ప	-10.6935
▁పరిష్కరించ	-10.6936
▁ఆరంభించ	-10.6937
▁కన్ను	-10.694
▁తీరం	-10.694
నేట్	-10.6941
▁జాతర	-10.6941
▁టిబెట్	-10.6942
har	-10.6943
▁భోజనం	-10.6945
▁సంస్కృతం	-10.6945
▁తాక	-10.6946
▁దళం	-10.695
▁ధ్వని	-10.6951
సాగర్	-10.6952
న్నర	-10.6955
వారం	-10.6957
పెద్ద	-10.6958
యానా	-10.696
▁ప్రదేశాలు	-10.6961
▁చేర్చి	-10.6962
▁పరిపాలనా	-10.6962
▁జన్మించింది	-10.6964
▁షె	-10.6966
▁రేవు	-10.6966
లాన్	-10.6969
▁1982	-10.6969
▁అంశాలను	-10.6971
▁నిరంతరం	-10.6974
▁గట్టిగా	-10.6976
తికి	-10.698
▁కోర్	-10.6981
▁భారతీయుల	-10.6982
వృ	-10.6983
▁దగ్గరలో	-10.6983
▁కాశ్మీర్	-10.6989
ానిక	-10.699
▁కోల	-10.6991
low	-10.6992
▁దర్శనం	-10.6998
▁విక్	-10.7001
▁లైట్	-10.7005
▁పెద్దగా	-10.7007
▁పరిణామ	-10.7008
త్రో	-10.7008
▁మారిన	-10.701
▁పడమర	-10.7012
ుకొన్నాడు	-10.7013
land	-10.7013
ీకృత	-10.7017
▁నర్	-10.7018
▁క్షయ	-10.702
రూపంలో	-10.7021
▁సగ	-10.7022
▁పోటీలలో	-10.7025
▁న్యాయవాది	-10.703
▁యాగ	-10.703
▁అధ్యక్షుడిగా	-10.703
▁పంచాయతీకి	-10.7031
▁1969	-10.7032
▁తగినంత	-10.7034
▁బోధన్	-10.7036
ba	-10.7038
పోయ	-10.7038
▁పద్యం	-10.7041
▁He	-10.7041
▁ఆయిల్	-10.7042
▁66	-10.7043
▁పునరుద్ధరించ	-10.7045
▁బాధపడ	-10.7045
▁పిలుపు	-10.7046
▁ప్రకటించాడు	-10.7046
సమయంలో	-10.7047
▁దృష్టిలో	-10.7047
▁సంధి	-10.7047
్యాల	-10.705
▁కనపడ	-10.705
క్కా	-10.7052
▁ఖమ్మంలో	-10.7052
కర్మ	-10.7054
▁మధు	-10.7054
▁కూలి	-10.7055
బట్టి	-10.7057
▁గుట్ట	-10.7058
▁పాఠ్య	-10.7059
▁గూడూరు	-10.7061
str	-10.7063
షియా	-10.7063
▁దార	-10.7064
▁మేరీ	-10.7068
▁ఆలయాన్ని	-10.7069
▁పులుల	-10.7074
▁రాష్ట్రానికి	-10.7075
▁టూ	-10.7075
▁విగ్రహాలు	-10.7076
పాట	-10.7077
▁చెప్పడం	-10.7079
▁శ్రీకాకుళంలో	-10.7079
▁ఉద్యోగుల	-10.7082
▁దానిలో	-10.7084
▁విల్	-10.7087
▁రవీంద్ర	-10.7089
▁మత్స్య	-10.7089
▁2018	-10.7091
▁ఇష్ట	-10.7092
బ్రహ్మ	-10.7095
▁రికార్డ్	-10.7097
▁పౌ	-10.7097
▁వర్ణన	-10.7099
▁పడే	-10.7103
▁అంతస్తు	-10.7105
▁వాద్య	-10.7107
▁కరీంనగర్లో	-10.7108
ురాలిగా	-10.7108
▁విప్లవం	-10.711
▁నాయ	-10.7111
▁కథను	-10.7112
▁పెంపకం	-10.7122
▁lo	-10.7123
▁ధా	-10.7126
ాధార	-10.7133
▁రకరకాల	-10.7134
▁మతాల	-10.7136
▁మండలాల	-10.7137
▁పిలిచేవారు	-10.7137
▁విజయవాడలో	-10.714
ుకోవటానికి	-10.7141
▁వాతావరణంలో	-10.7148
ంలోకి	-10.715
▁రాబర్ట్	-10.7152
సంగ	-10.7153
▁పెరి	-10.7153
▁మేలు	-10.7153
▁జగ	-10.7158
▁ఆవిష్కరణ	-10.716
▁అప్పుడే	-10.7165
ఎల్	-10.7168
బార్	-10.7168
▁చెడు	-10.7169
▁మహారాజా	-10.7172
▁చెప్పు	-10.7174
▁సేవల	-10.7175
▁పెట్టె	-10.7176
▁దుస్తుల	-10.7177
▁స్థాన	-10.7178
▁రీసెర్చ్	-10.7178
▁250	-10.7178
▁used	-10.718
▁ఆధిక్యత	-10.7181
రేఖ	-10.7182
వడానికి	-10.7182
▁దుస్తులు	-10.7182
▁వచన	-10.7183
▁అయ్యారు	-10.7184
▁కాకతీయ	-10.7186
▁ప్రీ	-10.7187
ప్రదేశ	-10.7191
స్తి	-10.7192
▁చిట్ట	-10.7195
గ్రీ	-10.7195
▁cs	-10.7199
నీటి	-10.72
తంత్ర	-10.72
▁రాశాడు	-10.7201
ండ్లు	-10.7205
▁ప్రతీక	-10.7205
▁ఇష్టపడ	-10.721
▁జాగ్రత్త	-10.721
▁స్థిరమైన	-10.7211
మరణ	-10.7214
▁అధిపతి	-10.7215
▁ఇవ్వబడింది	-10.7221
▁కాయగూరలు	-10.7223
▁కార్యక్రమాలను	-10.7225
▁చిత్రీకరణ	-10.7226
▁మనుషుల	-10.7228
▁ఎలక్ట్రానిక్	-10.7232
వారని	-10.7233
▁రాజ్యంలో	-10.7235
▁సాయుధ	-10.7235
ప్రాంతాల	-10.7236
ంగళ	-10.7236
▁తేమ	-10.7237
▁కరిగి	-10.7237
శేఖర	-10.724
ting	-10.7241
▁విక్టోరియా	-10.7241
▁శీర్షిక	-10.7241
▁ఆత్మకూరు	-10.7244
▁ముగించ	-10.7247
▁తమ్ముడు	-10.7248
▁68	-10.7255
ింగు	-10.7256
ెన్స్	-10.726
▁నిరంతర	-10.726
తార	-10.7262
▁పర్యాటకుల	-10.7266
▁1957	-10.7273
▁పిలువబడ	-10.7273
▁ద్రోణ	-10.7275
ust	-10.7276
▁గై	-10.728
▁ఆరవ	-10.7283
వలస	-10.7285
▁శ్రీకృష్ణుడు	-10.7287
పూరిత	-10.7292
▁కనుగొన్న	-10.7293
▁వేంకటేశ్వర	-10.7294
ుడని	-10.7298
▁బ్లూ	-10.7299
▁గమన	-10.73
▁హోమ	-10.73
▁సంగీతంలో	-10.7303
▁ఇన్స్టిట్యూట్	-10.7304
india	-10.7305
▁విమర్శించ	-10.7305
▁సాంకేతికత	-10.7311
దేవుని	-10.7314
ఖ్య	-10.7316
▁విజేత	-10.7323
▁సమస్యలను	-10.7325
▁నిన్ను	-10.7325
▁బంతి	-10.7325
4)	-10.7326
▁నిరోధక	-10.7326
art	-10.7327
▁నిపుణులు	-10.733
కెట్	-10.7331
దార	-10.7332
▁ఒలింపిక్	-10.7333
▁విలియం	-10.7341
▁దళాలు	-10.7342
▁గేమ్	-10.7344
▁సంస్థను	-10.7344
రాజా	-10.7344
▁కాకినాడలో	-10.7345
▁ఇంకొక	-10.7345
▁ఆంజనేయ	-10.7355
▁దె	-10.7357
▁వ్యాఖ్యాన	-10.7358
పడింది	-10.7359
▁యేసు	-10.7359
▁డేవిడ్	-10.736
గతి	-10.7363
ళా	-10.7366
▁లక్షణం	-10.7369
టికీ	-10.737
▁సాగర్	-10.737
▁ఒకవేళ	-10.7371
రీత్యా	-10.7372
pr	-10.7373
▁నిధులు	-10.7375
▁అయిదు	-10.7376
చెంద	-10.7376
▁భీముడు	-10.7376
▁మార్గదర్శక	-10.7377
▁డీఏ	-10.738
▁పర్వతాల	-10.7387
▁తెలియదు	-10.7387
▁were	-10.7388
▁పరిగణ	-10.739
▁నామం	-10.7392
▁చెయ్యడం	-10.7395
▁ద్రవ్యరాశి	-10.7396
▁నిర్వహించెదరు	-10.7397
త్తా	-10.7403
▁కలుగుతుంది	-10.7407
▁కులం	-10.7408
▁అరు	-10.7409
▁చర్యల	-10.741
ునితో	-10.741
▁కొట్టి	-10.741
▁జీవి	-10.7412
ించుట	-10.7412
▁tr	-10.7413
▁కాలిఫోర్నియా	-10.7414
ేటప్పుడు	-10.7414
▁నింప	-10.7415
▁దిగుమతి	-10.7423
▁ఇవన్నీ	-10.7425
▁ఒప్పంద	-10.7429
▁తీవ్రత	-10.7432
▁ఖురాన్	-10.7433
mo	-10.7434
ఫ్ట్	-10.7435
ళీ	-10.7435
▁వెంకటగిరి	-10.7437
గ్గి	-10.7438
▁మూత్ర	-10.7438
▁బిలియన్ల	-10.7439
పల్లిలోనూ	-10.7444
▁తల్లిదండ్రుల	-10.7445
▁పోయ	-10.7445
చన	-10.7447
చేసింది	-10.745
▁నకు	-10.745
▁చక్రం	-10.7451
▁వయస్సులో	-10.7452
▁వదల	-10.7454
▁సైన్యాన్ని	-10.7457
▁ఉపరితలం	-10.7458
▁నిరోధ	-10.7459
▁ఘర్షణ	-10.746
రచన	-10.7462
▁రాసి	-10.7462
శివ	-10.7463
ుకుంటాయి	-10.7466
ite	-10.7468
▁ఐదవ	-10.7469
▁క్రైస్తవులు	-10.7471
మ్య	-10.7473
విధానం	-10.7475
▁పెట్టింది	-10.7476
▁95	-10.7477
▁వాషింగ్టన్	-10.7478
▁అగ్రహారం	-10.7479
▁అడుగుపెట్ట	-10.7481
▁కనుగొన్నారు	-10.7482
ide	-10.7483
▁ధ్యానం	-10.7485
▁పాలించ	-10.7485
ూన్	-10.7487
▁గొంతు	-10.7488
▁ప్రయోజనం	-10.749
రైడ్	-10.749
▁గిల్	-10.7491
▁1954	-10.7492
▁విడిగా	-10.7493
బట్ట	-10.7493
▁బిలియన్	-10.7494
▁సంగమ	-10.7496
▁పక్షి	-10.7496
rn	-10.7496
▁క్లోరైడ్	-10.7497
▁ఏర్పడును	-10.75
▁శాంత	-10.7502
▁నిలువ	-10.7504
▁ఆహ్వానించ	-10.7505
▁వెల్డింగు	-10.7506
▁కార్తీక	-10.7508
▁రచయితల	-10.7508
▁సీఆర్	-10.7509
▁ఆవరణ	-10.7509
▁విడిచిపెట్ట	-10.7511
▁రూపము	-10.7512
సార్	-10.7513
▁కోటి	-10.7513
▁వెలువరించ	-10.7515
▁నిలబెట్ట	-10.7516
ian	-10.7518
భు	-10.7521
▁కచ్చితమైన	-10.7524
▁పొలాల	-10.7533
▁మ్యూజిక్	-10.7534
వటం	-10.7536
ప్రభుత్వ	-10.7537
▁అందించింది	-10.754
▁కొండల	-10.7548
▁పువ్వు	-10.7548
▁1986	-10.7549
▁ఘనంగా	-10.7549
▁పెద్దది	-10.7552
▁యాంత్రిక	-10.7552
▁సినిమాలకు	-10.7553
▁చేయబడి	-10.7553
▁ఇస్	-10.7555
▁వైట్	-10.7557
▁ఆలయాలు	-10.7558
▁వృ	-10.756
▁కార్యకలాపాలు	-10.7561
▁తుఫాను	-10.7561
▁క్రియాశీల	-10.7562
▁సంప్రదాయాల	-10.7562
▁భార	-10.7562
▁పట్టణాల	-10.7566
ెడి	-10.7568
దండ	-10.7569
▁డిగ్రీల	-10.7571
▁వసూలు	-10.7571
▁ఇనుము	-10.7572
-6	-10.7572
▁ఆచార	-10.7573
▁ఉపగ్రహం	-10.7575
కెన్	-10.7576
▁కావు	-10.7576
▁It	-10.7578
▁స్నానం	-10.7578
▁74	-10.7578
▁ఆఫ్ఘనిస్తాన్	-10.758
▁part	-10.7581
▁నిర్మించబడిన	-10.7583
▁దక్ష	-10.7584
▁1966	-10.7585
కపోతే	-10.7585
▁ప్రమాణాల	-10.7586
▁ప్రతిష్ఠించ	-10.759
▁UK	-10.759
మండలి	-10.7591
వెళ్ళ	-10.7591
BS	-10.7591
▁రావి	-10.7591
▁గ్రే	-10.7592
▁యుద్ధము	-10.7595
▁”	-10.7596
▁పండితుల	-10.7596
▁రెట్లు	-10.7596
▁మార్చారు	-10.7598
మార్గం	-10.7601
▁రోజులలో	-10.7605
▁రంగాలలో	-10.7607
▁ఆమ్ల	-10.7608
▁వ్యాధులు	-10.7613
▁నెదర్లాండ్స్	-10.7614
▁నడిచే	-10.7616
▁ఇస్తారు	-10.7617
▁తరం	-10.7617
▁డౌన్	-10.7618
▁నడిపించ	-10.7618
▁ఆహ్వాన	-10.7618
▁డాలర్లు	-10.7618
మింగ్	-10.7621
▁ప్రై	-10.7623
ous	-10.7623
▁కాలములో	-10.7627
▁తొలగించి	-10.7627
▁అట్లాంటిక్	-10.7629
లాస్	-10.7631
▁స్తోత్ర	-10.7636
▁స్వేచ్ఛా	-10.7637
6)	-10.7638
▁స్వభావ	-10.764
కెక్క	-10.7641
▁జీవులు	-10.7644
▁గణనీయంగా	-10.7645
▁కాలేజి	-10.7646
జిల్	-10.7646
▁ఆపరేషన్	-10.7646
▁శత్రు	-10.7647
▁ఎత్తి	-10.7648
▁స్వాతి	-10.7653
వృత్తి	-10.7654
▁హైడ్రో	-10.7655
▁ముక్క	-10.7655
▁వర్గీకరించ	-10.7655
ుఁడు	-10.7656
▁దీవి	-10.7657
▁విస్తారమైన	-10.7658
మన్న	-10.7658
▁అవతరించ	-10.7659
▁అద్ద	-10.766
▁తెలియని	-10.7661
▁మచిలీపట్నం	-10.7664
▁సామ్రాజ్యంలో	-10.7664
▁వశ	-10.7665
పంచ	-10.7668
▁మహాసముద్రం	-10.7669
కారము	-10.7673
▁సాంప్రదాయిక	-10.7673
బాల	-10.7674
tri	-10.7679
▁ఇతరుల	-10.7681
ran	-10.7681
లాగే	-10.769
▁ఆగ్రహ	-10.7691
ja	-10.7691
▁నెమ్మదిగా	-10.7692
▁వున్నది	-10.7693
▁పడింది	-10.7693
ీయులు	-10.7695
▁ఒప్ప	-10.7695
మారు	-10.7698
▁సింగిల్	-10.7703
▁71	-10.7703
▁సంగారెడ్డిలోను	-10.7704
▁బాల్యం	-10.7706
▁చనిపోయిన	-10.7706
▁అతడిని	-10.771
▁రావట్లేదు	-10.7711
ప్రె	-10.7712
డియన్	-10.7717
▁అంతగా	-10.772
▁క్యాలెండర్	-10.7721
▁గౌరవించ	-10.7722
▁1953	-10.7726
▁దానం	-10.7726
ob	-10.773
▁person	-10.773
▁పోలాండ్	-10.7734
▁నిర్మిత	-10.7736
ాలూ	-10.7737
ింపజేస	-10.7737
రోజుల	-10.7738
ావతార	-10.7738
▁పోలీసులు	-10.7738
▁పల్	-10.7738
క్కడ	-10.7739
▁గనుల	-10.774
▁పతనం	-10.7742
▁చుక్క	-10.7743
pur	-10.7746
▁స్ట్రీట్	-10.7749
వాది	-10.775
ప్రధాన	-10.7751
▁ద్వార	-10.7752
pu	-10.7754
▁సిరి	-10.7754
row	-10.7755
ies	-10.7756
▁నిర్మాణాలు	-10.7757
▁పార్టీలో	-10.7758
▁82	-10.7758
చేశాడు	-10.7758
▁ముక్కలు	-10.7759
▁పట్టణానికి	-10.7761
జాతీయ	-10.7764
▁మారుతుంది	-10.7765
▁ఫలితం	-10.7766
▁ఆకృతి	-10.7769
▁ఎక్	-10.7769
ంచాడు	-10.7769
me	-10.7772
▁పరమేశ్వర	-10.7772
▁తుమ్మ	-10.7772
▁టెర్	-10.7772
▁అంతరించి	-10.7773
▁ప్రదేశము	-10.7779
జియా	-10.7779
▁గాక	-10.7783
▁ఇతరులు	-10.7783
▁)	-10.7788
state	-10.7792
మయ్యింది	-10.7792
fer	-10.7793
▁61	-10.7796
రాశి	-10.7798
స్తుల	-10.7799
▁ఆకారంలో	-10.7801
గంటి	-10.7802
▁మూలకాల	-10.7804
man	-10.7805
▁వివాదాస్పద	-10.7806
▁పూత	-10.7807
▁మైక్రో	-10.7807
7)	-10.7807
▁నిర్వాహక	-10.7809
గావ్	-10.7815
▁ఉస్మానియా	-10.7816
రామయ్య	-10.7816
▁మక్	-10.7821
▁అనుభవం	-10.7822
▁పనిచేసారు	-10.7824
▁విస్తారంగా	-10.7825
బడలేదు	-10.7826
ుచుండ	-10.7826
▁రకాలుగా	-10.7826
▁man	-10.7826
right	-10.7828
▁సంభవించిన	-10.7829
▁కఠిన	-10.783
కొన్న	-10.7832
ధేయ	-10.7837
▁జరప	-10.7837
▁ప్రచురిత	-10.7841
ip	-10.7842
▁చీకటి	-10.7844
▁వోల్	-10.7845
లేఖ	-10.7853
▁పొందు	-10.7856
▁1973	-10.7858
▁అలవాటు	-10.7863
▁తెలుస్తోంది	-10.7864
▁డాన్	-10.7864
▁నైపుణ్యం	-10.7864
క్రో	-10.7865
▁జాతికి	-10.7865
▁భయం	-10.7866
8)	-10.7867
▁పర్వతం	-10.7871
ముద్ర	-10.7871
▁ప్రముఖులు	-10.7872
▁ఇటాలియన్	-10.7873
▁పంజాబీ	-10.7873
-10	-10.7874
ఉపయోగిస్తున్నారు	-10.7875
▁ఇంజన్	-10.7875
▁మాంసం	-10.788
▁అరెస్టు	-10.7885
▁Al	-10.7886
▁కోవ	-10.7886
▁1942	-10.7888
▁ఘనత	-10.7888
▁చెందాయి	-10.7891
▁అయస్కాంత	-10.7892
▁గోత్ర	-10.7904
▁రోజూ	-10.7904
▁కాస్త	-10.7904
▁జోడించ	-10.7905
▁నియోజకవర్గాల	-10.7906
▁1981	-10.7907
మతం	-10.7908
▁అవసరాలకు	-10.791
▁మలయాళ	-10.7911
▁ఆలోచించ	-10.7911
▁పెట్టుబడుల	-10.7911
5)	-10.7917
▁హాంగ్	-10.7918
▁అన్నింటి	-10.7918
▁77	-10.7918
9)	-10.792
▁రూపొందించారు	-10.792
రెట్	-10.792
▁ల్యాండ్	-10.792
▁కండ	-10.7921
▁కుంభ	-10.7921
ుణ్ణి	-10.7922
షే	-10.7923
▁వాస్తవానికి	-10.7924
గించ	-10.7926
▁గుంపు	-10.7927
ోత్సవ	-10.7927
▁వచ్చును	-10.793
నియం	-10.7931
▁కళల	-10.7933
గలవు	-10.7933
▁గూ	-10.7934
▁కావాలని	-10.7937
జిత్	-10.7937
▁నియంత్ర	-10.7938
▁ప్రయోగం	-10.7938
▁పురస్కారాలు	-10.7939
▁ఓటు	-10.7939
▁వ్రాశాడు	-10.794
▁సమ్మేళనం	-10.7941
▁తడి	-10.7941
▁వారే	-10.7943
▁వసు	-10.7944
▁కాకతీయుల	-10.7944
▁1949	-10.7946
▁బలవంత	-10.7948
▁మోడల్	-10.795
▁69	-10.7951
పర్చ	-10.7952
▁బృంద	-10.7952
▁ఉండవు	-10.7953
▁వాయువ్య	-10.7953
▁గోల్	-10.7955
▁అందుకున్నాడు	-10.7958
శర్మ	-10.796
▁వహిస్తుంది	-10.7961
▁ఉత్	-10.7961
కపోయినా	-10.7962
▁కర్ణ	-10.797
త్రీ	-10.7972
▁పరీక్షలు	-10.7974
▁1951	-10.7975
▁అర్జున	-10.7977
▁నరసరావుపేట	-10.7979
▁ట్యా	-10.798
▁తోడ్పడ	-10.7981
▁జ్యోతి	-10.7986
▁మిషన్	-10.7987
▁అబ్దుల్	-10.7988
▁క్యూబా	-10.7988
ట్లయితే	-10.7988
▁పోర్	-10.799
▁ఉదాహరణకి	-10.799
మల్ల	-10.7996
▁gov	-10.7997
నెస్	-10.7997
గుర్తించబడుతుంది	-10.7998
▁సంక్షిప్త	-10.7999
▁అందుకున్న	-10.8
▁వాహనాల	-10.8002
▁ఖాతా	-10.8005
▁బెంగళూరు	-10.8008
▁సురక్షిత	-10.8008
▁వత్తిడి	-10.8008
▁బొమ్మలు	-10.8009
▁చర్చించ	-10.801
▁సంకలనం	-10.801
▁మూలాలు	-10.8012
ద్రా	-10.8012
క్రి	-10.8018
కొండలో	-10.8023
▁పిలవబడే	-10.8025
▁పరిశోధనల	-10.8027
▁వికెట్	-10.8029
షె	-10.803
▁అభ్యాస	-10.8031
▁76	-10.8033
▁అంతటి	-10.8033
ava	-10.8034
▁పద్ధతులను	-10.8036
ెల్ల	-10.8038
▁రాజస్థాన్	-10.804
మీటర్	-10.8045
▁కృత్రిమ	-10.8047
▁వేరొక	-10.8047
▁పదార్థ	-10.8056
సేపు	-10.8057
శాయి	-10.8067
▁మునుపటి	-10.8067
▁స్వీడన్	-10.8067
గట్ట	-10.8069
▁పద్యాలు	-10.807
▁కలిగివున్న	-10.807
▁వెన్న	-10.8072
▁లక్షణాలను	-10.8074
▁నియమిత	-10.8074
▁స్థాపించబడిన	-10.8074
▁తర్వాతి	-10.8074
▁ప్రశంస	-10.8077
టింగు	-10.8079
సాగాడు	-10.8081
డుతుంది	-10.8084
▁గరిష్ఠ	-10.8087
▁వీని	-10.8088
▁వాస	-10.809
▁bo	-10.8091
▁బడి	-10.8091
ally	-10.8095
▁జ్ఞానం	-10.8098
▁ఎంచ	-10.81
ల్యూ	-10.81
▁సోదర	-10.8102
▁కేశవ	-10.8104
▁ఘట	-10.8105
▁ఇబ్బంది	-10.8106
ough	-10.8106
స్టన్	-10.8109
▁సమగ్ర	-10.8109
hy	-10.8109
▁పలికి	-10.811
▁బాట	-10.8113
▁వారీ	-10.8115
▁ఆక్సైడ్	-10.8116
కళా	-10.8116
▁పర్యాయ	-10.8117
▁వ్యాకరణ	-10.8117
గలుగుత	-10.8122
పెట్టి	-10.8125
▁సముద్రపు	-10.8125
▁వ్రాశారు	-10.8126
బాల్	-10.8127
▁భ్రమ	-10.8128
ron	-10.8131
ాడట	-10.8131
▁నారాయణపేట	-10.8132
గుడి	-10.8134
▁ఐతే	-10.8138
వర్త	-10.8139
▁కార్యదర్శిగా	-10.814
▁గీ	-10.8142
▁సూత్రాల	-10.8144
▁నిఘంటువు	-10.8145
దన్న	-10.8152
▁ఆడి	-10.8154
▁ద్వారక	-10.8154
▁తీసుకురా	-10.8154
▁ఇంగ్లాండు	-10.8155
census	-10.8155
▁చేసుకోవడం	-10.8155
▁చతుర్	-10.8156
▁విమానం	-10.8158
▁బోయ	-10.8158
▁కాఫీ	-10.8161
▁ఏర్పడే	-10.8161
నగరం	-10.8162
▁బ్రాహ్మణుల	-10.8166
▁విస్తర	-10.8166
▁వివరాల	-10.8167
▁పంపు	-10.8169
▁పుచ్చ	-10.817
▁కమ్యూనిటీ	-10.8175
▁నేపాల్	-10.8176
ప్రియ	-10.8178
▁ఉద	-10.8182
▁స్టే	-10.8188
ens	-10.8188
▁గరి	-10.8189
▁హెడ్	-10.8192
య్యింది	-10.8192
▁కొలంబియా	-10.8195
▁గానూ	-10.8197
▁పర్యవేక్షణ	-10.8198
▁సహాయపడ	-10.8204
▁పుష్కర	-10.8204
▁లిమిటెడ్	-10.8205
▁అనువాదం	-10.8206
▁నాట	-10.8206
▁దొరక	-10.8207
▁గడ్డ	-10.8211
▁సరిపో	-10.8212
▁అణువు	-10.8216
▁సభ్యునిగా	-10.8216
▁సమావేశం	-10.8218
▁శతాబ్దము	-10.8218
▁హక్కులు	-10.8223
▁en	-10.8223
మట్ట	-10.8225
▁ఊరేగింపు	-10.8225
▁చరిత్రను	-10.8225
▁రాజవంశం	-10.8227
బద్ద	-10.8228
▁వైవిధ్య	-10.8232
▁మూసి	-10.8234
▁డిజైన్	-10.8234
▁జీడి	-10.8236
▁దీనినే	-10.8239
▁పత్తి	-10.8241
రీతి	-10.8242
▁ఆరో	-10.8243
▁పనితీరు	-10.8244
▁మరణశిక్ష	-10.8245
▁aspx	-10.8254
▁చేరాయి	-10.8255
▁శరీరము	-10.8257
▁బానిస	-10.8259
▁up	-10.8259
▁1961	-10.826
చెప్ప	-10.8261
▁సమయములో	-10.8266
▁కరుణ	-10.8267
▁టవర్	-10.8269
▁మానవులు	-10.827
వారిలో	-10.8273
▁హార్డ్	-10.8274
▁విరివిగా	-10.8274
▁ముల్	-10.8276
▁పంపి	-10.8283
▁లక్నో	-10.8284
▁పరిశ్రమలో	-10.8288
▁కావ్యం	-10.8289
▁అత్య	-10.8292
▁may	-10.8295
ేశ్వరం	-10.8297
▁గింజల	-10.8297
కరు	-10.8297
▁చూచి	-10.8302
,00,000	-10.8303
▁బేరియం	-10.8305
▁మహాభారతం	-10.8307
▁ప్రేమించ	-10.8308
▁హోల్	-10.831
▁హ్యూ	-10.8314
▁అదుపు	-10.8314
▁పంద	-10.8319
▁మేళ	-10.832
▁బలంగా	-10.832
▁శోభ	-10.832
▁తీవ్రవాద	-10.8322
సొ	-10.8324
▁నామకరణం	-10.8324
▁పంతులు	-10.8325
▁న్యూస్	-10.8325
▁96	-10.8328
cul	-10.8334
▁అక్కినేని	-10.8335
ness	-10.8335
▁ప్రయోజన	-10.8337
▁పొందే	-10.8338
▁వ్రాసి	-10.8338
భంగ	-10.8339
▁చరిత్రకారులు	-10.8342
▁తొక్క	-10.8343
▁వెల్లడించ	-10.8345
▁ఉపయోగపడుతుంది	-10.8346
తీర	-10.835
▁వార్తా	-10.8351
కల్లు	-10.8353
▁కలుపు	-10.8354
▁trans	-10.8354
▁నూజివీడు	-10.8354
▁స్పందన	-10.8356
▁టెలి	-10.8358
▁సూత్రం	-10.8359
థీ	-10.8361
▁ఉన్నందున	-10.8364
▁ఇటు	-10.8364
▁శుక్ల	-10.8365
▁శిష్యుల	-10.8365
ess	-10.8365
ధ్ర	-10.8366
▁గానం	-10.8367
▁తుది	-10.8371
▁భాగాలుగా	-10.8372
▁ఇందిరా	-10.8373
ఘర్	-10.8373
▁స్ట	-10.8375
కాదు	-10.8376
బెట్టి	-10.8377
▁కాపర్	-10.838
▁రాజాం	-10.8384
▁సంచిక	-10.8385
▁81	-10.8386
▁అవధాన	-10.8387
▁సాల్	-10.8387
▁సమూహాలు	-10.8388
ప్రాంతంలో	-10.8388
▁నాటకాల	-10.8388
▁నాలుగవ	-10.839
పాలి	-10.8391
▁వైపున	-10.8398
▁విశ్వవిద్యాలయాల	-10.8398
▁వెంకటేశ్వర	-10.8398
మిడి	-10.8399
▁ఆర్థికంగా	-10.8401
▁ముగ్గు	-10.8403
▁కవ	-10.8403
▁పోటీలో	-10.8404
▁స్వచ్ఛంద	-10.8405
వాణి	-10.8405
ld	-10.8408
▁వారాల	-10.8409
▁టీవీ	-10.8412
సస్	-10.8413
▁రామానుజ	-10.8415
▁బల్ల	-10.8421
▁ప్రసాదించ	-10.8421
▁జీవనం	-10.8424
▁ఫలితాలు	-10.8425
▁ప్రయాణించ	-10.8429
▁పెట్టాడు	-10.8433
బోయే	-10.8435
▁పూస	-10.8435
▁నిర్దేశ	-10.8437
▁నుంచీ	-10.8439
▁మైసూర్	-10.8445
▁ఖైదు	-10.8446
▁మౌర్య	-10.8447
▁ఉంటా	-10.845
▁మురుగు	-10.8455
▁తొలుత	-10.8456
▁చెల్లింపు	-10.8456
ిచారు	-10.8456
స్థానం	-10.8457
కపోవడం	-10.8463
మడ	-10.8464
▁ఇంధనం	-10.8466
▁నిర్బంధ	-10.8466
కుటుంబ	-10.847
▁పప్పు	-10.8471
▁ఆకలి	-10.8472
▁ఉరి	-10.8472
▁యూరో	-10.8473
▁మామ	-10.8475
▁ఉక్కు	-10.8475
der	-10.8479
▁చలికాలం	-10.8481
▁మార్గాన్ని	-10.8482
పని	-10.8486
▁ఖలీఫా	-10.8486
▁హనుమంతుడు	-10.8486
▁ముంద	-10.8489
ice	-10.8491
ాహార	-10.8493
▁బుద్ధుని	-10.8493
▁నార	-10.8493
▁నొ	-10.8495
▁కాలంలోనే	-10.8497
▁సంవత్సరాలకు	-10.8501
▁యున్న	-10.8501
▁521	-10.8502
▁ఐక్య	-10.8507
యినా	-10.8507
ఘాత	-10.8507
▁గర్వ	-10.8509
tt	-10.851
▁రాళ్ళ	-10.851
▁పాలకులు	-10.8511
▁జబ్బు	-10.8518
▁పిల్లలను	-10.8523
the	-10.8525
ick	-10.8527
▁అవినీతి	-10.8527
▁పెద్దాపురం	-10.8528
▁లక్ష్యంగా	-10.853
▁మహల్	-10.8531
▁సజ్జ	-10.8533
▁మొదటగా	-10.8535
▁జనగామ	-10.8538
యింగ్	-10.8538
▁చలనచిత్రం	-10.8538
▁దేశాన్ని	-10.8539
▁ఎప్పుడు	-10.8539
district	-10.8542
▁నడప	-10.8544
దై	-10.8544
ాసుర	-10.8544
▁స్ప	-10.8545
▁అబ్బ	-10.8546
▁చొప్పున	-10.8548
▁మోతాదు	-10.8548
▁చెందినవారు	-10.8551
▁శాప	-10.8552
▁గాత్ర	-10.8552
▁వీసా	-10.8553
▁2019	-10.8553
▁కలవాడు	-10.8553
▁ఉంద	-10.8554
ef	-10.8554
▁నిర్వహించి	-10.8554
బోధ	-10.8556
▁శుభ్ర	-10.856
మాంబ	-10.8561
▁పాల్గొన్నాడు	-10.8563
▁1959	-10.8563
▁వ్యాప	-10.8565
▁కృత	-10.8566
Population	-10.8568
▁శ్రామిక	-10.8568
▁మంచిది	-10.857
▁విద్యాలయ	-10.8571
▁కోపం	-10.8572
▁తరంగ	-10.8573
మాస	-10.8575
▁టాక్సీ	-10.8579
▁బ్రాండ్	-10.858
▁విగ్రహాన్ని	-10.8581
Districts	-10.8581
గూడలో	-10.8582
▁ఎదుర్కొ	-10.8586
ద్దా	-10.8586
సీమ	-10.8587
▁స్నాన	-10.8588
దుర్గ	-10.859
sc	-10.8591
▁వుంచ	-10.8593
▁సాధ్యం	-10.8594
▁హిప్	-10.8597
▁ఆక్సిజన్	-10.8599
▁శతాబ్ధ	-10.8599
కృత్	-10.8599
కాలనీ	-10.8601
▁మాత్ర	-10.8606
▁గుడ్డ	-10.8606
▁చిత్రాల్లో	-10.8609
Master	-10.861
▁వినియోగదారుల	-10.8611
▁అంక	-10.8611
▁మంగళగిరి	-10.8611
జెన్	-10.8611
port	-10.8611
▁సెక్	-10.8617
▁వుడ్	-10.8622
ావళి	-10.8622
mu	-10.8622
▁వేగంతో	-10.8624
▁వస్తే	-10.8626
▁ముద్దు	-10.8626
han	-10.8627
▁పన్నెండు	-10.863
▁మహమ్మద్	-10.863
బ్రా	-10.8633
▁ఆరంభం	-10.8634
▁84	-10.8636
యుగ	-10.8643
▁పాడిన	-10.8643
▁వుంది	-10.8644
▁రెండవది	-10.8645
▁ba	-10.865
▁ట్రాక్	-10.8651
కేంద్ర	-10.8658
▁పులులు	-10.866
పత్తి	-10.866
▁వలయ	-10.866
▁జర్	-10.8662
rt	-10.8665
▁కమలా	-10.8673
▁1976	-10.8677
▁సమావేశంలో	-10.8679
▁దృశ్యం	-10.8679
చెయ్య	-10.868
▁గోడల	-10.868
▁వన్	-10.8681
▁ప్రచారంలో	-10.8682
▁ఫౌండేషన్	-10.8682
▁సంక్లిష్ట	-10.8682
ఫోన్	-10.8682
▁నార్త్	-10.869
▁ఎముక	-10.8692
clusion	-10.8692
▁కెరీర్	-10.8692
▁పావు	-10.8695
▁జంతువు	-10.8696
▁భారతదేశపు	-10.8698
▁శ్రీకృష్ణ	-10.8698
▁సమాధానం	-10.8699
▁సాం	-10.8701
AT	-10.8701
▁చెబుతున్న	-10.8703
▁వెల్ల	-10.8707
▁సమర్ధ	-10.8709
▁రూపొందించబడింది	-10.8711
ఉండ	-10.8712
సత్య	-10.8712
మర్రి	-10.8713
▁ఆధీనంలో	-10.8713
▁పల	-10.8713
▁అమె	-10.8717
▁బండి	-10.8718
గలరు	-10.8718
ack	-10.8719
▁ప్రధాని	-10.872
,500	-10.872
ుంటాయి	-10.8721
▁కిమీ	-10.8722
▁ఆకుపచ్చ	-10.8724
▁అరుదైన	-10.8724
▁భూములు	-10.8724
న్యాస	-10.8725
tra	-10.8726
▁వర్గాలు	-10.8728
▁పచ్చి	-10.8728
పోర్ట్	-10.8731
శయ	-10.8731
ai	-10.8732
fi	-10.8733
▁సిరియస్	-10.8735
▁దాచ	-10.8737
▁పొట్ట	-10.8738
▁సంవత్సరముల	-10.8741
ఁడు	-10.8743
▁ఫిన్లాండ్	-10.8744
▁తైవాన్	-10.8745
▁నిబంధన	-10.8745
▁స్క్	-10.8747
▁చలి	-10.8747
▁అనుబంధం	-10.8747
▁its	-10.8747
గంట	-10.8749
ఖి	-10.875
▁మినహా	-10.8754
▁డ్రైనేజీ	-10.8755
▁చార్లెస్	-10.8756
▁కార్మికుల	-10.8757
▁పక్షులు	-10.8758
కుమార్	-10.8763
▁నియమాల	-10.8765
▁నిలబడి	-10.8766
▁అంతరకృషి	-10.8766
▁చంద్రగుప్త	-10.8766
▁నిర్ధారణ	-10.8766
▁ఆరాధన	-10.8767
▁79	-10.8769
▁స్టీము	-10.877
▁చదువుకున్న	-10.8771
▁పాల్వంచ	-10.8771
▁విధానము	-10.8771
▁చెందినవి	-10.8774
▁దీవుల	-10.8774
▁పలుకు	-10.8775
▁గుర్తించబడింది	-10.8776
▁but	-10.8778
▁తయారీలో	-10.8784
▁అక్ష	-10.8784
▁పోల్చ	-10.8784
ui	-10.8785
నెట్	-10.8788
Find	-10.8789
▁పరిష్కార	-10.8795
▁పాలించిన	-10.8797
▁హైడ్రోజన్	-10.8798
▁దేశవ్యాప్తంగా	-10.8798
▁శిశువు	-10.8799
వుతుంది	-10.8799
పూడిలో	-10.8802
మిక	-10.8804
▁సిద్ధాంతాల	-10.8805
▁భారం	-10.8808
▁ఎలి	-10.8808
▁జారీచేసింది	-10.8808
▁బోర్డ్	-10.8812
టైల్	-10.8813
▁ఆపి	-10.8815
మంచి	-10.8816
▁చదివాడు	-10.8818
▁ప్రతికూల	-10.8818
▁రాజవంశ	-10.8819
▁శరణ	-10.8819
▁పోరు	-10.882
వతేదీ	-10.8821
=28	-10.8821
▁ముక్కు	-10.8823
దర్శన	-10.8823
ేశ్వరరావు	-10.8826
be	-10.8827
మంత్రి	-10.8828
▁లయ	-10.8828
▁అభిషేక	-10.8829
▁పరిరక్షణ	-10.883
▁స్వీకరించి	-10.8832
▁దాస్	-10.8832
ount	-10.8835
▁మరొకటి	-10.8835
▁క్వి	-10.8839
▁మంజూరు	-10.8841
▁మిగిలినవి	-10.8841
▁సభకు	-10.8844
▁పెడ	-10.8847
▁రంధ్రము	-10.8848
▁అవసరమ	-10.8848
▁పరిసరాల	-10.8849
▁సంస్థలకు	-10.8849
▁కీలకమైన	-10.8852
రెస్	-10.8852
ధుల	-10.8852
▁దర్శక	-10.8855
▁బాలబడులు	-10.8855
ిస్తాను	-10.8857
చెట్టు	-10.8859
▁ప్రభావ	-10.8861
▁సందర్భాల్లో	-10.8861
▁సివిల్	-10.8861
▁ఫీల్డ్	-10.8861
▁బంధువుల	-10.8863
▁St	-10.8863
▁గెలుచుకున్న	-10.8864
▁కుట్ర	-10.8865
mon	-10.8867
▁భగవంతుని	-10.8871
▁సారిగా	-10.8873
▁మోహ	-10.8874
▁సవరణ	-10.8875
▁x	-10.8879
▁నన్నయ	-10.888
fe	-10.888
▁ద్రాక్ష	-10.8882
▁ఘోర	-10.8884
▁ప్రయోజనాల	-10.8885
మోద	-10.8887
▁ఫార్మ	-10.8887
▁సంవత్సరాల్లో	-10.8888
మోహన్	-10.8888
భాషా	-10.8892
▁చూసే	-10.8894
▁వ్యాఖ్య	-10.8895
▁వెనక	-10.8896
బ్స్	-10.8898
జాన్	-10.89
▁విశ్రాంతి	-10.8903
▁దహన	-10.8904
ాభిమాన	-10.8904
▁ఫైల్	-10.8905
▁ఇత	-10.8908
రాణి	-10.8908
rd	-10.8912
ాబాదు	-10.8913
▁గొర్రె	-10.8913
▁వివరించారు	-10.8917
▁పత్రికా	-10.8918
▁అహ	-10.892
స్టీ	-10.8922
▁కోడి	-10.8923
జులై	-10.8929
▁రాజేంద్ర	-10.893
టెల్	-10.8934
▁చిహ్నం	-10.8934
▁ఇంకో	-10.8936
▁గౌరవం	-10.8938
సూత్ర	-10.8939
▁క్రమం	-10.8939
▁అవమాన	-10.8942
▁డిమాండ్	-10.8945
▁పర్యటించ	-10.8946
బస్తీ	-10.8948
▁అంతర్జాతీయంగా	-10.895
యుగం	-10.8952
శైలి	-10.8954
▁కదల	-10.8955
▁ఏదేమైనా	-10.8956
▁పౌరాణిక	-10.8956
▁వేటాడ	-10.8959
▁సింగపూర్	-10.8961
▁కక్ష్యలో	-10.8964
▁సమర	-10.8966
▁వెర్	-10.8967
డియం	-10.8968
▁అద	-10.897
▁దిగి	-10.8973
▁భద్రతా	-10.8974
▁తెలుసుకో	-10.8977
▁చౌదరి	-10.8977
▁రీతిలో	-10.8979
▁గ్రాములు	-10.8984
▁కార్తె	-10.8984
▁4%	-10.8987
▁పసి	-10.8988
▁డివిజను	-10.8988
▁సంపర్క	-10.8989
▁pl	-10.8993
▁దశకంలో	-10.8995
▁వీలుగా	-10.8995
▁కృప	-10.8996
▁ఎన్టీఆర్	-10.8999
వాలి	-10.9001
▁మాలి	-10.9003
▁బొమ్మల	-10.9004
నిధి	-10.9005
లాట	-10.9006
▁ఏడవ	-10.9008
గానీ	-10.9008
▁యమ	-10.9011
▁వివాదం	-10.9012
టము	-10.902
▁పున	-10.9023
▁సమయంలోనే	-10.9023
ff	-10.9024
▁సెర్	-10.9024
▁ఫాల్	-10.9026
▁అమరిక	-10.9028
▁పోర్చుగల్	-10.9031
▁83	-10.9034
▁కావాలి	-10.9035
▁ప్రతాప	-10.9035
▁కపిల	-10.9036
▁రావణ	-10.9038
వెల	-10.9039
▁నెట్వర్క్	-10.9042
▁పంచాంగం	-10.9042
జూన్	-10.9047
వాదులు	-10.9049
▁నిలుప	-10.9051
▁దిద్ద	-10.9052
▁కాయలు	-10.9053
▁వదలి	-10.9053
▁బదులు	-10.9054
▁చర్చలు	-10.9055
▁ఐన	-10.9055
▁గ్యా	-10.9057
▁పత్రికలు	-10.9059
▁సాంప్రదాయక	-10.9061
▁ఇంగ్లీషులో	-10.9062
▁హెన్రీ	-10.9064
శెట్టి	-10.9064
▁పర్వతాలు	-10.9065
▁ఫ్యా	-10.9067
▁కోస	-10.9069
▁నూనెను	-10.9072
▁కారణము	-10.9074
▁సరిగ్గా	-10.9074
▁ప్రయోగాలు	-10.9079
జరు	-10.908
కావ్య	-10.9081
▁లవణ	-10.9081
▁sh	-10.9082
▁పుస్తకంలో	-10.9085
▁time	-10.9085
▁As	-10.9086
▁వాళ్ల	-10.9089
▁విమానాల	-10.9089
▁త్రవ్వకాల	-10.9092
కన్న	-10.9093
లూరులో	-10.9093
▁కెఫెలు	-10.9094
శంకర	-10.9094
▁విశాలమైన	-10.9097
లిటీ	-10.9098
కట్టు	-10.9098
▁ఉద్దేశం	-10.9103
ందరికీ	-10.9103
▁De	-10.9104
▁వేశారు	-10.9106
▁స్థిరంగా	-10.9106
▁జవహర్	-10.9107
▁ఒకడు	-10.9108
▁చూస్త	-10.9109
▁గలదు	-10.911
nu	-10.911
▁నెలలు	-10.9112
▁రాజ్యాలు	-10.9115
▁ఫిలిప్	-10.9118
▁గుర్తించింది	-10.9118
▁త్రవ్వ	-10.9119
▁వార్త	-10.9122
▁కళలు	-10.9124
▁స్టాక్	-10.9124
▁లార్డ్	-10.9125
ుకోవాలని	-10.9127
▁మార్చబడింది	-10.9127
గర	-10.9128
▁ఐక్యరాజ్యసమితి	-10.9129
▁సమర్థ	-10.9129
▁అంకిత	-10.913
▁సంఘటనలు	-10.913
▁ఇళ్ళ	-10.9135
ెుక్క	-10.914
▁వెదురు	-10.9143
▁1958	-10.9145
▁518	-10.9146
▁బావి	-10.9148
▁కోత	-10.9148
▁బయో	-10.9149
పోతాడు	-10.915
ేటట్లు	-10.9151
▁రాష్ట్రాల్లో	-10.9151
▁వర్గీకరణ	-10.9153
▁వర్మ	-10.9156
▁సమానమైన	-10.9159
▁1,2	-10.9163
▁వదుల	-10.9163
▁ఏర్పడతాయి	-10.9164
▁సంవత్సరాలుగా	-10.9164
▁అడుగులు	-10.9167
▁గవర్నరు	-10.9167
ప్రభ	-10.9167
వలసలో	-10.9168
సల్	-10.917
సెంట్	-10.9171
ేంద్రియ	-10.9171
▁వాహనం	-10.9173
నూనె	-10.9174
▁మాస్టర్	-10.9174
▁600	-10.9177
▁అవ్వ	-10.9178
▁భవనాలు	-10.918
▁గ్యాస్	-10.918
▁రద్దీ	-10.9183
▁భు	-10.9195
▁గుర్	-10.9196
sp	-10.9204
▁కూచిపూడి	-10.9205
మాత	-10.9205
▁సుగ్రీవ	-10.9205
▁గ్రహీత	-10.9205
▁ముఖ్యమంత్రిగా	-10.9209
▁విరాట	-10.9211
▁యుద్ధాల	-10.9211
▁వ్యయం	-10.9212
▁కార్యక్రమాన్ని	-10.9214
వాలా	-10.9215
▁పొటాషియం	-10.9216
▁తీర్మాన	-10.9217
▁ప్రాప్తి	-10.9217
▁చేసాయి	-10.9219
▁మాంస	-10.9219
▁98	-10.922
▁చేప	-10.9222
▁స్వి	-10.9226
▁అలె	-10.9227
▁ప్లాస్టిక్	-10.9227
▁ముత్త	-10.9228
బియా	-10.9229
▁శీతాకాల	-10.9229
▁తిరుగుతూ	-10.9229
▁భజన	-10.9233
▁వాల్వు	-10.9233
▁విస్తృతమైన	-10.9235
యై	-10.9238
▁బ్రౌన్	-10.9238
డులు	-10.9238
▁బాల్య	-10.9238
▁భావం	-10.9238
▁పంది	-10.9239
▁ఎన్నికయ్యారు	-10.9239
▁కలిగింది	-10.9242
▁పీటర్	-10.9243
▁1931	-10.9244
▁విశాఖ	-10.9248
▁Wiktionary	-10.9249
▁Re	-10.925
▁పక్షుల	-10.925
▁సన్మాన	-10.9252
▁మేయర్	-10.9253
▁షియా	-10.9254
▁భీముని	-10.9254
▁తగు	-10.9256
హైడ్ర	-10.9259
▁534	-10.9259
▁భూమిపై	-10.9259
▁1936	-10.9266
▁జయించ	-10.9267
వరణ	-10.9267
▁ప్రతిపక్ష	-10.9269
బాహు	-10.9274
▁పోగొట్ట	-10.9275
▁పండితుడు	-10.9277
▁name	-10.9279
▁చూపు	-10.928
▁their	-10.9282
▁గాయకుడు	-10.9283
పల	-10.9283
▁చదివే	-10.9283
▁చివరలో	-10.9288
▁మరోవైపు	-10.9288
▁కోయ	-10.9292
▁బ్రా	-10.9295
▁విలాస	-10.9296
▁విరామ	-10.9297
▁సమాధాన	-10.9297
▁దేవాలయాల	-10.9299
wa	-10.9301
వర్మ	-10.9305
ాయణ	-10.9305
▁ఎడ	-10.9305
▁ముఖ్యమైనది	-10.9308
▁పాండవులు	-10.9313
▁ఎడి	-10.9314
ey	-10.9315
▁సహజంగా	-10.9317
▁లేత	-10.9319
టిక్స్	-10.9323
▁గుర్త	-10.9326
▁ఇల్ల	-10.9327
▁లాం	-10.9328
▁బానిసత్వ	-10.9328
▁ప్రగతి	-10.9331
▁నడుమ	-10.9332
▁మచ్చ	-10.9333
▁కచేరీ	-10.9337
▁అందించాడు	-10.934
▁రావడానికి	-10.9343
▁లాభ	-10.9344
స్టిక్	-10.9345
▁పార్వతీ	-10.9346
▁క్రీడలలో	-10.9347
▁హిట్లర్	-10.935
లనుండి	-10.935
▁పట్టిక	-10.9351
▁జీత	-10.9352
▁కట్టు	-10.9353
▁1968	-10.9354
కుడిగా	-10.9356
రెన్స్	-10.9358
శిక్ష	-10.936
▁అలంకార	-10.936
దర్శి	-10.9361
మిత్ర	-10.9361
▁అల్ప	-10.9362
▁ఫిల్	-10.9364
▁1963	-10.9365
▁1939	-10.9366
▁సంస్థానం	-10.9366
▁బుట్ట	-10.9367
▁ఒడి	-10.9367
▁వాయిద్య	-10.9368
▁భర్తీ	-10.9369
▁2%	-10.937
బరు	-10.937
▁పంచాయితీ	-10.9371
వనం	-10.9374
ah	-10.9375
స్తుండగా	-10.9375
▁వెయ్యి	-10.9376
▁దేశపు	-10.938
▁స్వభావం	-10.9381
▁చాళుక్యుల	-10.9381
▁బతుకమ్మ	-10.9382
▁వెలువడిన	-10.9386
▁Ra	-10.9387
▁అందంగా	-10.9388
▁యూరోప్	-10.9388
▁జొ	-10.9389
▁ఉంటున్న	-10.9392
▁ఏటా	-10.9393
▁కాళ్ళ	-10.9395
▁గ్రహించి	-10.9396
===	-10.9398
▁యుద్ధాలు	-10.9398
▁ధరించిన	-10.9398
▁ఆజ్ఞ	-10.9401
పోవడంతో	-10.9402
చై	-10.9404
▁ఆవిష్కరించ	-10.9404
▁ఇస్లామిక్	-10.9404
▁ఏటియం	-10.9404
▁స్కూలు	-10.9404
cc	-10.9406
▁ఏర్పడ్డాయి	-10.9408
ింపబడింది	-10.9409
▁సంసార	-10.941
▁నిర్వహించాడు	-10.9412
ప్రజల	-10.9413
క్రా	-10.9413
▁సమైక్య	-10.9415
▁ఉపనిషత్తు	-10.9415
▁గులాబీ	-10.9415
▁ఆస్థాన	-10.9417
▁ప్రక్కన	-10.9417
▁బెల్లంపల్లిలో	-10.9417
▁వచ్చినప్పుడు	-10.9421
▁అక్షరాల	-10.9422
▁ఏనుగుల	-10.9423
దారి	-10.9424
▁మరుగుదొడ్ల	-10.9427
▁చైనీస్	-10.9427
▁వ్రాత	-10.9427
▁విచిత్ర	-10.9428
▁గుర్రం	-10.943
▁నీడ	-10.943
ata	-10.9432
్యాలు	-10.9433
▁తోటల	-10.9434
▁తాటి	-10.9435
ాపన	-10.9435
▁సరుకు	-10.9436
▁ఘటన	-10.9436
▁పట్టణము	-10.9438
▁పూలు	-10.9442
▁పరమాణువు	-10.9447
▁ఇంగ్లండ్	-10.9449
▁చిరంజీవి	-10.9449
▁థామస్	-10.9449
▁స్నేహ	-10.945
▁అఖిల	-10.945
▁రాశి	-10.9452
క్సీ	-10.9452
పోతూ	-10.9453
▁ఒకరోజు	-10.9455
pan	-10.9456
▁కోణం	-10.9457
▁నిజం	-10.9459
▁అనబడే	-10.9459
వోలు	-10.946
▁విధానాలను	-10.9461
▁బయటపడ	-10.9464
▁అర్జునుడి	-10.9467
▁ఆదిలాబాదు	-10.9471
దేవ్	-10.9472
▁సదా	-10.9472
▁కృష్ణమూర్తి	-10.9477
gar	-10.9478
ral	-10.9479
▁మాట్లాడుతూ	-10.9479
▁కథానాయక	-10.9481
▁తీర్చిదిద్ద	-10.9483
▁లింగం	-10.9488
▁వెలువడ	-10.949
చేసారు	-10.949
▁గాంధార	-10.9491
▁ప్రశంసలు	-10.9491
▁పోలిష్	-10.9493
▁రాధ	-10.9494
-7	-10.9495
▁పూర్వపు	-10.9496
▁నటుడిగా	-10.9496
▁మెట్ల	-10.9501
▁పదార్ధాల	-10.9502
▁సూచిక	-10.9502
▁థా	-10.9502
▁భూభాగ	-10.9504
▁పార్లమెంట్	-10.9505
▁మనుగడ	-10.9505
▁విక్రమ	-10.9507
▁కోతలు	-10.951
ాదులు	-10.9513
▁సంరక్షణా	-10.9513
ప్రసాద్	-10.9518
▁వృద్ధ	-10.952
▁జ్వర	-10.952
పదం	-10.9521
▁ఆలయాల	-10.9522
▁వ్యతిరేకత	-10.9523
▁పోషించాడు	-10.9523
లైన్	-10.9526
▁సమేత	-10.9531
▁యంత్రం	-10.9531
cal	-10.9533
TV	-10.9534
▁సత్యం	-10.9534
▁సంపాదక	-10.9534
సియన్	-10.9537
1,000	-10.9537
▁సాంప్రదాయం	-10.9538
▁ఉందో	-10.9538
▁సార్వత్రిక	-10.9539
-18	-10.9545
▁వేతన	-10.9545
▁నోట్	-10.9547
▁యేట	-10.9548
▁పాలకుల	-10.955
▁కాగితం	-10.955
▁గింజలు	-10.9551
▁1%	-10.9552
మడుగు	-10.9554
▁కింగ్డం	-10.9554
డాన్	-10.9556
మాత్ర	-10.956
▁యీ	-10.956
▁you	-10.956
▁ఢిల్లీలో	-10.9561
▁సిరిసిల్ల	-10.9562
▁తప్పనిసరిగా	-10.9562
▁రకము	-10.9563
▁ఇనుప	-10.9565
జేయ	-10.9571
తత్వ	-10.9575
▁పేర్లతో	-10.9576
▁ప్రాంతంగా	-10.9576
యున్నది	-10.9585
▁పద్యాల	-10.9586
దర్శ	-10.9589
▁ప్రిన్స్	-10.9591
దాకా	-10.9593
▁అతుక	-10.9593
▁app	-10.9593
▁పొద్దుతిరుగుడు	-10.9596
▁స్పేస్	-10.9596
ెయిన్	-10.9597
▁పుస్తకము	-10.9598
దీప	-10.9601
▁గుమ్మడి	-10.9603
▁ఖు	-10.9605
▁శతాబ్దానికి	-10.9606
▁అంతిమ	-10.9608
▁పునాది	-10.9608
దుర్తి	-10.9609
▁సొంతం	-10.961
▁చేపట్టారు	-10.961
▁గన్నవరం	-10.961
▁ఆయుధాల	-10.9613
దశలో	-10.9613
▁నిండిన	-10.9616
▁ఇంక	-10.9618
కలి	-10.9619
నెల	-10.9619
▁వెనక్కి	-10.9619
వర్గం	-10.962
▁మండలము	-10.962
▁పేట్	-10.9621
▁బస	-10.9622
మౌ	-10.9627
ory	-10.9627
మద్	-10.9631
▁సంహరించ	-10.9631
▁పాలించారు	-10.9632
▁తీసుకునే	-10.9637
▁కేవలము	-10.9642
▁శివాజీ	-10.9642
▁స్థ	-10.9645
▁చూపిస్తుంది	-10.9646
▁మొదటిది	-10.9649
▁ఇద్దరి	-10.9656
యిస్	-10.9657
▁జాగ	-10.9657
▁అవార్డులు	-10.9659
మాసం	-10.9662
ప్రద	-10.9663
▁మేము	-10.9668
▁బోరు	-10.9668
వచ్చి	-10.9669
▁తెల్లని	-10.9672
▁వేసింది	-10.9674
▁రూపాంతరం	-10.9675
వర్ధన	-10.9675
▁గోళ	-10.9675
▁ఉనికి	-10.9676
▁వివాహమాడ	-10.9677
నందున	-10.9678
▁దేవాలయాలు	-10.9679
-12	-10.9682
▁మానవుడు	-10.9683
▁సిద్ధం	-10.9684
▁తేనె	-10.9684
▁కర్నాటక	-10.9688
క్సు	-10.9688
▁పనిని	-10.9691
▁జోస్	-10.9692
hu	-10.9694
చిహ్న	-10.9697
▁పతాక	-10.97
▁గంధ	-10.9702
లక్ష్మీ	-10.9706
▁సమీకరణ	-10.9707
▁వస్తారు	-10.9707
▁గర్భాశయ	-10.9711
▁కార్బో	-10.9711
▁దత్త	-10.9711
▁1941	-10.9717
▁సభ్యత్వం	-10.9718
కొరకు	-10.9718
▁గూడా	-10.9719
ినందుకు	-10.9719
▁నాగయ్య	-10.972
▁కంపెనీలు	-10.972
లపల్లిలో	-10.972
▁ఆంగ్లేయుల	-10.9722
ave	-10.9726
▁టైమ్స్	-10.9727
▁కొనసాగుతున్న	-10.973
ల్ప	-10.9731
▁ద్వీపంలో	-10.9738
థ్య	-10.974
ism	-10.9742
▁అవుత	-10.9745
▁రాజ్యానికి	-10.9753
▁నిధి	-10.9755
▁సదస్సు	-10.9757
▁అవుట్	-10.9758
▁విడుదలైంది	-10.9762
▁గర్భం	-10.9762
▁ఆమోద	-10.9764
▁గమ్య	-10.9764
వాళ్ళ	-10.9765
పరచి	-10.9766
▁బ్రె	-10.9769
కలిగి	-10.9771
సెన్	-10.9772
▁భాగాలను	-10.9773
ain	-10.9775
▁మందులు	-10.9779
▁ఆమదాలవలస	-10.978
యోగ్య	-10.9781
▁ఉనికిలో	-10.9781
▁ఫే	-10.9782
▁గుంటూరులోను	-10.9784
క్షేత్రం	-10.9784
▁ప్రక్రియలో	-10.9785
విశ్వాస	-10.9785
▁అంధ	-10.9786
▁ఆస్తుల	-10.9787
▁సామ్రాజ్యాన్ని	-10.9789
▁వెలుపలి	-10.9791
▁మోర్	-10.9791
▁ఆవశ్యక	-10.9792
▁స్వీకరించారు	-10.9793
▁నివసిస్త	-10.9794
పడే	-10.9796
సర్వ	-10.9797
▁ఉండటంతో	-10.9797
▁అభ్యర్థిగా	-10.98
బర్గ్	-10.9801
cent	-10.9803
▁ఉద్దేశంతో	-10.9806
▁చివరిలో	-10.9809
▁సభా	-10.9809
ations	-10.981
▁క్రీడలు	-10.9816
▁సెన్	-10.9816
న్యూ	-10.9816
▁ఓవర్	-10.9819
▁ఆఫ్రికాలో	-10.9821
▁బౌద్ధమత	-10.9822
▁అనుసంధాన	-10.9833
▁నౌకా	-10.9833
▁కార్మికులు	-10.9833
▁భరించ	-10.9834
▁పతన	-10.9835
ాచార్యుడు	-10.9836
శాతం	-10.9838
▁పునరుద్ధరణ	-10.9838
▁స్లా	-10.9839
భరణ	-10.9841
స్త్రీ	-10.9841
▁గెలిచి	-10.9842
ful	-10.9844
స్టె	-10.9845
▁క్షణ	-10.9848
▁వాన్	-10.9848
▁మార్కాపురం	-10.985
ture	-10.985
▁మాత్రము	-10.985
▁నరేంద్ర	-10.9851
▁కర్ణుడు	-10.9852
▁కర్త	-10.9856
▁సికింద్రాబాద్	-10.9862
▁సెలవు	-10.9862
ర్చు	-10.9863
▁సద్	-10.9863
ధో	-10.9868
▁ప్రకట	-10.987
▁రాలేదు	-10.9871
▁నిర్మాణాల	-10.9872
యితే	-10.9874
▁కాపీ	-10.9874
▁ముత్యాల	-10.9875
▁పంపాడు	-10.9877
▁విత్తనం	-10.9879
▁నాన్	-10.9879
ex	-10.9879
▁పౌరుల	-10.9879
con	-10.9879
▁దళిత	-10.988
▁బయటికి	-10.9885
▁జరిపి	-10.9885
మైలవరం	-10.9885
▁దరఖాస్తు	-10.9885
▁సమన్వయ	-10.9885
▁అవలంబించ	-10.9885
▁పార్వతి	-10.9886
▁హేమ	-10.9889
టూరి	-10.9889
వాసం	-10.9891
▁కనిపించింది	-10.9891
▁ప్రె	-10.9893
▁బాటు	-10.9895
▁సతీ	-10.9895
▁మాసంలో	-10.9896
ంపల్లిలో	-10.9897
▁కుతుబ్	-10.9897
▁స్పష్టమైన	-10.9897
▁భద్రపరచ	-10.9898
▁ఓడించ	-10.9899
▁చంద్రుడు	-10.9903
▁అమృత్	-10.9906
▁అభివర్ణించ	-10.9909
▁తిన్న	-10.9915
▁దాడులు	-10.9918
▁ఖర	-10.9922
▁పోషిస్త	-10.9922
▁సంభవించ	-10.9922
▁రసం	-10.9924
నిర్మాణ	-10.9924
▁భావించబడుతుంది	-10.9925
▁నరస	-10.9927
గాడు	-10.9928
▁పుస్తకాన్ని	-10.9932
▁కొత్తపల్లి	-10.9932
▁కొద్దీ	-10.9932
▁విహార	-10.9934
▁ఆలీ	-10.9935
ult	-10.9939
ome	-10.994
▁బయటి	-10.9942
కారణ	-10.9944
ాస్త్ర	-10.9945
▁కణాలు	-10.9947
▁అమిత	-10.9947
▁వైస్	-10.9951
▁శిల్పాలు	-10.9952
▁గుంట	-10.9953
ార్కట్	-10.9955
▁తారక	-10.9955
▁బీడీలు	-10.9956
▁దానిపై	-10.9957
▁పాటను	-10.9957
▁పోతుంది	-10.9957
▁ఉపయోగపడ	-10.9958
▁వెడ	-10.9958
▁బుద్ధుడు	-10.9965
▁అంగీకర	-10.9966
▁జీవించి	-10.9966
ుకొన్నారు	-10.9969
మూడి	-10.9971
▁పాండవ	-10.9971
ారాధన	-10.9974
▁హామ్	-10.9976
ుకున్నాయి	-10.9976
▁దినోత్సవం	-10.9977
ుండగా	-10.9978
చింత	-10.9979
▁Sh	-10.998
▁లోతైన	-10.998
▁చీలి	-10.9981
▁లోహాల	-10.9983
▁సంస్కృతంలో	-10.9983
▁బంగార	-10.9995
ించువాడు	-10.9995
భావం	-10.9999
▁మరియూ	-10.9999
▁నక్షత్రాల	-11
▁వేప	-11.0002
▁97	-11.0004
▁మనుమ	-11.0005
▁నూతనంగా	-11.0006
▁సమయాన్ని	-11.0008
▁సహస్ర	-11.0009
pos	-11.0009
▁కలుస	-11.0014
▁నిరుద్యోగ	-11.0015
▁కోన	-11.0015
▁ఛార్	-11.0018
▁నాటకంలో	-11.0019
▁ఉపవాస	-11.002
▁ఆదేశాల	-11.0022
▁రచనా	-11.0022
చేయడం	-11.0025
▁విత్తుట	-11.0027
▁బీహార్	-11.0028
▁వెర్షన్	-11.0028
▁రథం	-11.0028
బెల్	-11.0029
▁br	-11.0032
లపల్లి	-11.0033
▁ద్వీపాల	-11.0035
ేశ్వర్	-11.0037
▁కూటమి	-11.0039
▁అచ్చు	-11.0039
▁ఎన్నుకో	-11.004
▁మారే	-11.004
▁హోం	-11.0042
డ్జ్	-11.0042
▁బ్యాక్	-11.0043
▁అద్దె	-11.0045
కౌ	-11.0045
▁1937	-11.0046
▁వైవిధ్యం	-11.0046
▁మధ్యయుగ	-11.0049
▁ఆకాశవాణి	-11.0051
రాత్రి	-11.0052
▁గౌర	-11.0053
▁మహాభారత	-11.0053
ఘోష	-11.0053
▁ఉన్నవి	-11.0054
▁వ్యక్తిగా	-11.0054
లాండు	-11.0055
▁మెట్రో	-11.0056
ాన్న	-11.0056
▁ధార	-11.0061
ేశ్వరి	-11.0062
▁ధారావాహిక	-11.0063
▁సరస్వతీ	-11.0063
▁అనుచరుల	-11.0064
▁నిశ్చయించ	-11.0066
▁వర్షం	-11.0072
తరువాత	-11.0074
పరిచి	-11.0075
▁సందర్శకుల	-11.0075
▁మహాసభ	-11.0079
దత్త	-11.0079
▁ఈస్టర్	-11.0081
▁సిస్టమ్	-11.0082
్యాన్ని	-11.0083
▁ఆర్మేనియన్	-11.0087
గఢ్	-11.0089
▁అహింస	-11.0091
▁గెలుపొంద	-11.0094
▁శిథిల	-11.0098
▁వండ	-11.0099
▁పొద	-11.01
▁తేజ	-11.0101
▁టాటా	-11.0102
యంత్ర	-11.0104
వారే	-11.0105
▁చేశా	-11.0107
చూప	-11.0107
పరిచే	-11.0108
ong	-11.0109
▁పరిజ్ఞానం	-11.0114
▁నిషేధ	-11.0114
ft	-11.0116
దొ	-11.012
క్సా	-11.0121
▁చురుకుగా	-11.0122
▁గోల్కొండ	-11.0124
▁దాత	-11.0126
▁నిత్యం	-11.0127
▁తెలిసింది	-11.013
▁సాగిన	-11.013
▁ప్రవేశపెట్టారు	-11.0131
▁1933	-11.0131
▁విభజించబడింది	-11.0132
▁నియోజకవర్గ	-11.0132
▁ఇంజిన్	-11.0135
పాణి	-11.0139
▁విరుద్ధంగా	-11.0147
▁సాత్యకి	-11.0147
జాతుల	-11.0149
లేదా	-11.0151
ాశ్రమ	-11.0153
▁శాసనాలు	-11.0153
▁కరి	-11.0153
▁విస్తరించిన	-11.0153
మత్	-11.0156
▁బీమా	-11.0156
▁హైవే	-11.016
▁ఆడపిల్ల	-11.0161
▁మాయా	-11.0162
▁తేదీలు	-11.0163
▁తిరుగ	-11.0163
▁చేయుటకు	-11.0164
▁వాటిలోని	-11.0165
▁శంకరులు	-11.017
▁గ్రామపంచాయతి	-11.0171
▁కామర్సు	-11.0171
▁భాస్కర	-11.0172
▁స్థానము	-11.0181
▁కార్బను	-11.0187
▁మడ	-11.019
బంద	-11.019
▁కాల్పుల	-11.0193
ng	-11.0194
▁హైకోర్టు	-11.0195
▁నైతిక	-11.0196
▁వీరభద్ర	-11.0197
▁శకం	-11.0197
ణాల	-11.0199
▁యుగంలో	-11.02
▁ప్రాంగణ	-11.0205
▁విమర్శకుల	-11.0205
▁వేసే	-11.0206
ali	-11.0207
భో	-11.0209
▁శల్య	-11.0211
▁వాడిన	-11.0212
▁తిక్కన	-11.0217
▁అలి	-11.0217
ుందని	-11.0218
▁కార్యాచరణ	-11.0219
▁మూలక	-11.0219
▁బాలికల	-11.0219
▁3%	-11.022
ాలన్నీ	-11.0221
▁నేత్ర	-11.0223
▁కొరత	-11.0226
▁సంఘాలు	-11.0226
-9	-11.0228
▁110	-11.0229
▁మృత	-11.0231
▁కమాండ	-11.0231
▁ఏమిటి	-11.0233
▁యాత్రికుల	-11.0234
▁నిర్మాణాన్ని	-11.0235
▁పనిచేసాడు	-11.0236
▁మాడుగుల	-11.0238
▁1938	-11.0238
▁ధోరణి	-11.0243
మయింది	-11.0246
▁వైదిక	-11.0247
▁కాలాన్ని	-11.0247
▁మూత	-11.0247
▁కప్పు	-11.0248
▁94	-11.025
▁అవార్డును	-11.0251
▁దగ్గరకు	-11.0252
old	-11.0253
▁జవాబు	-11.0255
▁దేవస్థానం	-11.0262
▁పరుగుల	-11.0263
▁ఆశ్రమం	-11.0263
▁పరిమితమైన	-11.0266
సాహెబ్	-11.0268
▁పునర్నిర్మాణ	-11.0269
▁లెక్కించ	-11.0272
▁మరే	-11.0272
▁పోరాటంలో	-11.0272
▁వానర	-11.0272
▁నిలువు	-11.0275
▁నీలం	-11.0276
▁గేట్	-11.0277
చెన్	-11.0277
▁కలిగ	-11.028
▁పంజాబు	-11.028
▁ఇంజనీర్	-11.028
sha	-11.0283
▁ఫేస్	-11.0283
▁చింతపల్లిలో	-11.0286
▁గడప	-11.0286
ుతుండగా	-11.0286
▁కక్ష్య	-11.0288
▁జైపూర్	-11.029
▁ఛైర్మన్	-11.0292
▁నందిగామ	-11.0292
▁జ్యూ	-11.0292
▁సామర్థ్యాన్ని	-11.0293
▁ప్రాంగణంలో	-11.0295
▁సౌకర్యము	-11.0295
క్రమం	-11.0298
▁గాలిలో	-11.03
▁రూపుదిద్ద	-11.0304
▁సుగంధ	-11.0304
వేసింది	-11.0306
▁మెట్ట	-11.0306
▁అడుగ	-11.0307
▁చట్టాలు	-11.0308
▁వంశం	-11.031
▁అమ్	-11.0311
▁ఆండ్ర	-11.0313
▁ఫోర్స్	-11.0314
▁నిధుల	-11.0317
▁ఆల్బం	-11.0318
▁నగరంగా	-11.0318
▁జింక	-11.032
▁ఫ్రాంక్	-11.0321
▁జాబితాను	-11.0323
▁బలవంతంగా	-11.0324
వర్గ	-11.0325
▁అక్కడికి	-11.0328
▁అధీనంలో	-11.0329
▁స్క్రీన్	-11.0329
▁ఎలక్ట్రాన్	-11.0329
ుకుంటా	-11.0336
▁వార్తల	-11.0339
do	-11.0341
▁పెట్టే	-11.0342
▁జరిపించ	-11.0342
ame	-11.0347
▁ఆచారం	-11.0347
▁1934	-11.0348
▁సాయంతో	-11.0351
▁స్మృతి	-11.0352
క్వా	-11.0353
వారీ	-11.0353
▁పక్షం	-11.0355
కల్లో	-11.0356
▁ఇస్తా	-11.036
▁1944	-11.036
king	-11.0361
▁దారిలో	-11.0362
▁కొన్న	-11.0363
▁నిపుణుల	-11.0364
▁మాధ్యమం	-11.0366
▁రెవిన్యూ	-11.0366
▁స్థూప	-11.0366
▁ముఖం	-11.0366
▁ముగిసింది	-11.0367
▁కొల్	-11.0367
▁నటనకు	-11.037
▁బావ	-11.0372
▁రాకుండా	-11.0375
▁నారాయణరావు	-11.0377
wiki	-11.0378
▁ట్రాఫిక్	-11.0378
▁been	-11.038
▁పీడనం	-11.0383
జిత	-11.0383
▁నియోజకవర్గంలో	-11.0386
▁వ్ర	-11.0388
▁రాజ్యము	-11.0389
▁రికో	-11.0389
▁ఒకటైన	-11.0392
▁పరిగణిస్తారు	-11.0393
▁ఇంద్రియ	-11.0395
▁ఫెడరల్	-11.0396
▁ఆంధ్రా	-11.0399
fa	-11.04
▁ఇతిహాస	-11.0403
▁నిజామాబాదు	-11.0403
మవుతాయి	-11.0404
వేత్తలు	-11.0406
కరం	-11.0406
వాహన	-11.0407
మూర్తుల	-11.0409
ప్రాంతం	-11.041
కొట్ట	-11.0414
▁పిఠాపురం	-11.0415
▁రిచర్డ్	-11.0415
న్నట్లు	-11.0416
▁షీ	-11.0417
▁పరిమితి	-11.0419
▁హీరోగా	-11.042
ign	-11.0421
▁కండరాల	-11.0422
▁మఠ	-11.0423
▁అందిస్తున్న	-11.0424
▁ప్రతిభా	-11.0426
▁ఎగుమతుల	-11.0427
▁కానోపస్	-11.0427
▁అలంకరణ	-11.0427
▁లక్క	-11.0427
▁సోదరి	-11.043
▁న్యాయమూర్తి	-11.0431
▁మొట్టమొదట	-11.0433
▁అధ్యక్షత	-11.0436
▁సామూహిక	-11.044
▁తెలిపింది	-11.044
▁ప్రవర్తించ	-11.044
▁క్రూర	-11.0441
les	-11.0442
▁కీర్తన	-11.0443
▁హైదరాబాదులోనూ	-11.0443
లేవు	-11.0449
▁ఊరిలో	-11.0449
▁పెదబయలు	-11.0452
▁బూడిద	-11.0452
వేసిన	-11.0453
▁రంగా	-11.0454
▁విశ్వసించ	-11.0455
ాడో	-11.0457
CO	-11.0458
▁మినహాయింపు	-11.0465
▁సుదూర	-11.0465
▁సర్వీస్	-11.0465
▁మనము	-11.0465
▁స్థిరపడ్డారు	-11.0466
▁నియమాలు	-11.0468
▁శివారు	-11.0469
▁మలి	-11.0475
▁నిలబడ	-11.0475
▁బడ్జెట్	-11.0477
▁రామగుండం	-11.0477
▁కల్యాణ	-11.0477
▁పిమ్మట	-11.0478
▁రాజీవ్	-11.0479
▁కుండల	-11.0479
▁పరమాత్మ	-11.0481
సంఘ	-11.0482
▁చేసుకొన	-11.0483
▁వివరించాడు	-11.0484
ిస్తున్నా	-11.0486
▁యూని	-11.0486
▁కూడలి	-11.0487
▁దక్షణాన	-11.0489
▁రావణుడు	-11.049
▁ఉత్తీర్ణ	-11.049
2,000	-11.0492
▁స్పె	-11.0492
▁బర్గ్	-11.0495
యోధ	-11.0499
చేస్తుంది	-11.0499
▁సంకలన	-11.05
▁రైతుల	-11.0502
▁మంచ	-11.0503
▁కాల్చి	-11.0504
▁డైరెక్ట	-11.0507
కున్నా	-11.0509
▁సంప్రదాయాలు	-11.051
▁1932	-11.051
▁పార్టీలు	-11.0512
రాయ్	-11.0512
▁రోమ	-11.0513
▁శ్రీకాళహస్తి	-11.0514
▁అయోధ్య	-11.0514
▁శీతల	-11.0514
▁వ్యాపించ	-11.0516
సాగారు	-11.0516
▁తలసరి	-11.0519
▁ఎదుట	-11.0522
రించి	-11.0523
ions	-11.0524
వెల్లి	-11.0525
▁వైభవ	-11.0525
▁కంఠ	-11.0527
▁తోటి	-11.0529
▁క్రోధ	-11.053
▁523	-11.0532
▁91	-11.0534
▁సంతృప్తి	-11.0534
▁స్తంభ	-11.0535
▁శక	-11.0535
▁నవలలు	-11.0536
▁1921	-11.0536
▁పదార్థము	-11.0538
▁పరీక్షల	-11.0541
▁తట్ట	-11.0541
bo	-11.0542
▁ప్రశ్నించ	-11.0548
▁వ్యవహరించారు	-11.0551
▁పటేల్	-11.0552
▁గాంధీజీ	-11.0555
▁సృష్టించిన	-11.0556
▁కల్పన	-11.0558
▁పతి	-11.0563
▁మిర్యాలగూడ	-11.0565
▁ప్యాలెస్	-11.0565
▁చిలక	-11.0567
gr	-11.0569
▁గ్రామాన్ని	-11.057
act	-11.0572
▁1935	-11.0572
నట్లయితే	-11.0573
▁చెక్	-11.0574
వ్రత	-11.0574
▁జడ	-11.0576
నిచ్చి	-11.0578
▁దోహదపడ	-11.0579
▁sub	-11.0579
▁పరిమాణ	-11.058
▁6%	-11.0581
▁ముగిసిన	-11.0581
బొమ్మ	-11.0584
▁1928	-11.0585
▁పారిస్	-11.0586
▁ఇబ్బందులు	-11.0589
▁అతిథి	-11.0589
▁టెన్నిస్	-11.059
▁తాండూరు	-11.059
▁ధ్వంసం	-11.059
tain	-11.0592
▁ధర్మము	-11.0594
▁సీస	-11.0598
లేషన్	-11.06
▁హౌ	-11.0602
;---	-11.0602
▁టోర్నమెంట్	-11.0602
▁క్లిష్టమైన	-11.0604
▁హైదర్	-11.0606
▁సంబంధమైన	-11.0609
▁స్పి	-11.061
▁గిరిజనుల	-11.0616
▁చాలావరకు	-11.0619
దాస్	-11.0622
ుడూ	-11.0622
▁భో	-11.0624
▁ప్రధానమైనవి	-11.0627
▁తై	-11.0627
నైన	-11.0627
▁పరాజయం	-11.0628
▁పారా	-11.0628
▁సాక్ష్య	-11.0628
▁ఆరాధించ	-11.0629
▁పరిపూర్ణ	-11.0629
▁విశాఖపట్నంలోనూ	-11.0633
▁మంజ	-11.0634
▁బయలుదేరి	-11.0636
▁సిద్ధాంతాన్ని	-11.0636
▁తెచ్చిన	-11.0637
▁లోపం	-11.0639
▁ఫెస్టివల్	-11.064
▁గనుక	-11.0642
▁సంస్కరణలు	-11.0643
▁ప్రవేశించిన	-11.0644
▁బసవ	-11.0646
పూర్ణ	-11.0646
▁పాడి	-11.0646
▁గోల్డ్	-11.0648
▁use	-11.0648
▁ఎలక్ట్రో	-11.0653
టర్స్	-11.0653
▁చెవి	-11.0654
▁ఋ	-11.0654
▁కళింగ	-11.0655
▁పనిచేస్తున్నారు	-11.0657
▁కేంద్రాల్లో	-11.0659
▁క్రూ	-11.0659
ram	-11.0661
▁సముద్రతీర	-11.0665
▁ముస్లిములు	-11.0665
bu	-11.0667
▁అపో	-11.0667
▁తీరప్రాంత	-11.0669
bl	-11.067
▁ఆర్మీ	-11.067
▁మోటార్	-11.067
▁జాగ్రత్తగా	-11.0671
ku	-11.0672
ంగల్	-11.0673
▁డయా	-11.0673
▁1929	-11.0673
▁నిజామాబాద్లో	-11.0673
▁ఉద్యానవన	-11.0674
▁ట్రేడ్	-11.0678
▁గలవు	-11.0678
▁పాదాల	-11.0678
▁సోదరులు	-11.0679
▁రాయబార	-11.068
▁మునగ	-11.068
▁7%	-11.0682
▁సేకరించి	-11.0684
నూర్లో	-11.0687
▁బాండ్	-11.0688
▁ఉప్ప	-11.0688
▁పెరగడం	-11.0694
▁టీకా	-11.0695
▁సంగతి	-11.0695
▁కొండపై	-11.0696
▁క్రీడల	-11.0698
▁దుర్గా	-11.0698
▁పోతు	-11.0698
శాసన	-11.07
▁130	-11.07
▁కోరాడు	-11.07
▁పెళ్ళ	-11.0702
▁కుదుర్చ	-11.0702
▁నిర్వహించింది	-11.0704
▁ప్రహ్లాద	-11.0706
▁నూరు	-11.0706
జ్ఞా	-11.0709
▁జగ్గ	-11.0709
▁సముదాయం	-11.0712
▁జలపాతం	-11.0716
▁పీపుల్స్	-11.0716
▁వాన	-11.0717
పూర్వకంగా	-11.0718
కైనా	-11.0719
rit	-11.072
▁గూడెం	-11.0722
▁చేపట్టాడు	-11.0723
▁తలుపు	-11.0724
▁ఖి	-11.0728
▁ప్రత్య	-11.0729
▁స్టేడియం	-11.0729
ail	-11.0731
▁కోల్పో	-11.0731
డొ	-11.0737
▁సంఘాల	-11.0741
▁చుట్టుపక్కల	-11.0742
▁ఆత్మహత్య	-11.0742
▁కేప్	-11.0742
▁ఇప్ప	-11.0743
▁బీదర్	-11.0745
▁బిగించ	-11.0746
▁ఫ్రె	-11.075
▁ప్రాణాలు	-11.075
▁సూచించారు	-11.075
లేము	-11.0752
▁పరిశీలించి	-11.0754
▁చొ	-11.0757
▁ఇంట	-11.0761
▁వ్యక్తిత్వ	-11.0762
SA	-11.0763
▁పదవిని	-11.0763
▁గద	-11.0764
ాంతం	-11.0764
ోత్	-11.0764
▁పాక్షిక	-11.0766
▁కూడి	-11.0767
▁గొలుసు	-11.0768
▁బలగాల	-11.0771
▁తగ	-11.0771
కంఠ	-11.0772
▁Sa	-11.0773
▁పీల్చ	-11.0775
ుకుంటున్నారు	-11.0776
▁డిస్నీ	-11.0777
▁అనిపించ	-11.0778
▁అశ్వత్థామ	-11.078
▁ఉత్తేజ	-11.078
▁హనుమాన్	-11.0781
▁ఘాట్	-11.0782
▁సమర్ప	-11.0785
▁ప్రయత్నాల	-11.0788
▁బ్రో	-11.0788
▁వేషం	-11.0788
▁పరిణామం	-11.0791
▁నడవ	-11.0791
హాస	-11.0792
▁ఇబ్రహీంపట్నం	-11.0793
▁టెస్టు	-11.0795
▁మరలా	-11.0797
▁రంగులు	-11.0798
cu	-11.0799
▁పొందడానికి	-11.0801
ినేని	-11.0802
▁యాక్	-11.0806
పట్టు	-11.0806
▁సార్వభౌమ	-11.0806
▁పెంచి	-11.0807
▁సగటున	-11.0809
▁they	-11.081
▁ఉద్దేశ	-11.0811
▁కుటుంబాలు	-11.0812
రాతి	-11.0813
▁నేటికీ	-11.0814
ారంభ	-11.0814
▁pri	-11.0814
▁108	-11.0815
▁కొండలు	-11.0815
▁యోని	-11.0816
వృక్ష	-11.0816
▁ఫలితాలను	-11.0817
▁మారుతూ	-11.0817
▁పోల్చి	-11.0818
▁వ్యవధి	-11.0819
▁శత్రువుల	-11.082
cle	-11.0821
లాపూర్	-11.0821
▁చున్న	-11.0822
▁తోడ	-11.0822
▁కేశ	-11.0829
▁దృ	-11.0831
▁మాగ్	-11.0832
▁కాగిత	-11.0833
▁తుని	-11.0833
▁ఇంతలో	-11.0834
▁విమర్శకులు	-11.0834
▁ప్రదానం	-11.0838
▁భవిష్యత్తు	-11.0839
▁ప్రస్తుతము	-11.0841
▁వ్యవహర	-11.0843
మామిడి	-11.0847
▁పాదరస	-11.0847
way	-11.0847
▁చెరుకు	-11.0851
▁జెండా	-11.0851
▁నాయకత్వ	-11.0853
▁పత్రం	-11.0853
ward	-11.0855
son	-11.0857
▁శనివారం	-11.0858
▁వదిలే	-11.0858
▁దీన	-11.0859
పింగ్	-11.086
▁పరిజ్ఞాన	-11.086
▁సూచి	-11.0861
మయ్యారు	-11.0863
▁యంత్రాల	-11.0864
▁సైన్యంలో	-11.0867
▁పెద్దపల్లి	-11.0869
పోతు	-11.0869
▁స్పియర్	-11.0871
▁కుడా	-11.0873
▁తీసుకోవడం	-11.0874
కొచ్చి	-11.0877
▁స్కే	-11.0877
▁కోస్తా	-11.0879
▁శని	-11.0881
-15	-11.0881
▁ద్రవీభవన	-11.0883
▁అంకె	-11.0885
▁సీమ	-11.0885
▁చర్చ్	-11.0887
▁లక్షణ	-11.089
▁వస్త్రాల	-11.0892
▁ప్రాబల్య	-11.0897
▁515	-11.0897
▁దర్శకుడిగా	-11.0898
పాల్	-11.0898
▁కంచి	-11.0899
▁భీష్మ	-11.09
ual	-11.0901
▁నక్షత్రాలు	-11.0904
▁పోయే	-11.0909
▁పెంపొందించ	-11.0909
▁చెబుతుంది	-11.091
▁చాళుక్య	-11.091
▁వ్యాఖ్యానించ	-11.0912
▁పెక్కు	-11.0917
▁దేవాలయము	-11.0918
▁1919	-11.0922
▁బొబ్బిలి	-11.0922
▁1900	-11.0925
▁పరివర్తన	-11.0926
▁సంబంధాల	-11.0926
▁శిఖర	-11.093
ith	-11.0933
▁ప్రార్థించ	-11.0937
▁బిల్లు	-11.0937
▁పేదరికం	-11.0943
త్వానికి	-11.0945
▁This	-11.0949
మండ్	-11.0953
▁మున్	-11.0953
▁ప్రభు	-11.0954
▁సిద్దాంత	-11.0956
▁లెస్	-11.0957
గుట్ట	-11.0958
▁నైరుతి	-11.0962
▁పరంపర	-11.0962
▁సాపేక్ష	-11.0963
▁ఆచరణ	-11.0965
▁నాటకరంగ	-11.0967
ారట	-11.097
▁బ్రాహ్మణులు	-11.0971
▁ఆంధ్రదేశ	-11.0972
▁ప్రదేశాన్ని	-11.0975
mar	-11.0975
▁సన్నిధి	-11.0975
▁వెంబడి	-11.0975
sion	-11.0978
క్సైడ్	-11.0978
▁అంబా	-11.0986
▁నదికి	-11.0986
▁పరాక్రమ	-11.0987
▁దినపత్రిక	-11.0988
▁శ్లోకాల	-11.0988
▁భగవంతుడ	-11.0989
▁సభ్యుడిగా	-11.099
▁పోలిక	-11.0994
ైడ్	-11.0994
రికా	-11.0996
▁మహిమ	-11.0996
▁there	-11.0996
పోవడానికి	-11.0997
సాహిత్య	-11.0997
▁కలిగిస్తుంది	-11.0998
క్షా	-11.0999
▁స్థావరం	-11.1001
▁దేవుడి	-11.1002
▁వన్డే	-11.1003
ాత్మకంగా	-11.1005
▁అదేవిధంగా	-11.1006
మౌతుంది	-11.1011
▁వ్యయ	-11.1012
▁కంట	-11.1014
ినట్టు	-11.1014
▁గెలుచుకుంది	-11.1014
▁క్రిస్టియన్	-11.1015
▁పవిత్రమైన	-11.1015
▁పదార్ధాలు	-11.1016
▁పిండ	-11.1016
▁సరిహద్దులు	-11.1017
▁శబ్దం	-11.1019
ఖై	-11.1026
▁చేసుకోవడానికి	-11.1026
▁మెరుగైన	-11.1027
▁దౌత్య	-11.1028
జీవన	-11.1028
▁నియో	-11.1029
▁ఉష్ణోగ్రతలు	-11.1031
న్నిటి	-11.1033
▁సంబంధాలను	-11.1035
▁ఎక్కి	-11.1038
▁పనిచేసింది	-11.1038
▁ఋగ్వేద	-11.104
▁పెట్టడం	-11.104
▁విస్తీర్ణము	-11.104
అవనిగడ్డ	-11.1041
▁నరసింహారావు	-11.1041
▁5311	-11.1043
▁హూ	-11.1044
▁జగన్	-11.1047
▁జంగ్	-11.105
▁శరీరాన్ని	-11.1051
ోదయ	-11.1052
▁అంకితం	-11.1053
▁ప్రీమియర్	-11.1053
సమ్మ	-11.1054
▁చూస్తున్న	-11.1055
▁అండర్	-11.1055
▁విధముగా	-11.1058
▁వేస్తారు	-11.1065
▁రచనలలో	-11.1066
▁హార్ట్	-11.1067
ుద్దీన్	-11.1069
lic	-11.1069
▁ఆశించ	-11.107
▁కార్యక్రమాలలో	-11.1072
▁గురైన	-11.1073
▁పట్టికలో	-11.1074
▁ఉద్యోగులు	-11.1075
▁గండ	-11.1077
వ్యవసాయ	-11.1077
▁ఆహారాన్ని	-11.1077
▁స్వీకర	-11.1079
పార	-11.1079
▁ఏకాదశి	-11.108
▁అయన	-11.1081
స్థుల	-11.1082
▁దొరుకుత	-11.1084
▁చేరుకున్నారు	-11.1084
▁గెలుపొందిన	-11.1087
▁ద్రవం	-11.1088
▁కాంతిని	-11.1088
▁హొ	-11.1089
డన్	-11.109
▁బహిష్కరించ	-11.1093
▁అన్వేషణ	-11.1093
క్ష్య	-11.1097
▁ఆరంభంలో	-11.1098
▁వెచ్చ	-11.11
▁సంక్షోభం	-11.11
▁కుటుంబాల	-11.1104
తెలుగు	-11.1106
▁స్విట్జర్లాండ్	-11.1106
▁తీర్థ	-11.1106
▁కట్టడం	-11.1107
met	-11.1108
dy	-11.1112
▁పెంట	-11.1112
ple	-11.1115
▁పాటలను	-11.1115
కపోవడంతో	-11.1115
▁గదులు	-11.1116
▁నిర్మించబడ్డాయి	-11.1116
▁చూస్తూ	-11.1116
ావసరాల	-11.1116
▁వేల్స్	-11.1116
ాంశాల	-11.1117
స్థులు	-11.1117
రైన్	-11.112
▁పోసి	-11.112
▁సూచించే	-11.112
▁సాగర	-11.1121
▁లాభాల	-11.1121
ందన్న	-11.1123
▁రకాలైన	-11.1124
▁నరక	-11.1124
▁చింతపల్లి	-11.1131
ore	-11.1131
▁రాగం	-11.1133
▁నిరాశ	-11.1135
▁వైన్	-11.1137
sk	-11.1138
▁గదిలో	-11.1139
▁స్నేహితుల	-11.1139
▁ప్రారంభమై	-11.1142
▁ఉపకరణాల	-11.1144
▁అందించడం	-11.1145
▁కవరేజి	-11.1146
▁ధృవ	-11.1146
▁వ్యాయామ	-11.1146
ద్రవ్య	-11.1147
▁గరుడ	-11.115
▁విత్తనాలు	-11.115
▁కుమారుని	-11.1155
▁దోహదం	-11.1155
▁ఉల్లి	-11.1156
▁అందుబాటులోకి	-11.1157
▁అమలాపురం	-11.1159
▁జయంతి	-11.1162
▁తప్పకుండా	-11.1163
▁కట్టిన	-11.1163
▁ముందుగానే	-11.1165
▁యుండ	-11.1167
▁కళ్ళు	-11.1169
ాపక	-11.117
▁పాఠకుల	-11.1172
▁తప్పనిసరి	-11.1173
జిన్	-11.1174
▁శిల్పకళ	-11.1176
ెద	-11.1178
▁చేసేవాడు	-11.1181
ందె	-11.1181
round	-11.1182
▁సాగి	-11.1183
mm	-11.1186
▁కమ్యూనిస్ట్	-11.1186
▁హరిశ్చంద్ర	-11.1186
▁నగదు	-11.1186
▁మొత్తాన్ని	-11.1187
▁గుర్తించబడ	-11.1188
ps	-11.1189
గోపాల	-11.1189
▁నిజంగా	-11.119
▁కోట్లు	-11.1191
▁సంరక్ష	-11.1194
▁వాటితో	-11.1195
▁అధ్యయనాలు	-11.1199
▁హుస్సేన్	-11.1199
▁నాణేల	-11.12
▁అడవులు	-11.1203
▁form	-11.1205
పూర్వక	-11.1205
పబ్లిక్	-11.1209
▁సంస్థలలో	-11.121
ved	-11.1211
▁సరికొత్త	-11.1213
▁లఘు	-11.1213
▁ప్రభాకర	-11.1215
▁సమయము	-11.1215
ure	-11.1216
▁1,0	-11.1218
▁నీలి	-11.1221
▁1857	-11.1222
▁అందుకుంది	-11.1223
▁తెలుస్తున్నది	-11.1226
▁ముంబాయి	-11.1226
▁చట్టాల	-11.1229
వూరు	-11.1229
విషయ	-11.1233
జన్మ	-11.1235
▁ఉద్యమాల	-11.1236
విజయ	-11.1236
▁వహిస్తున్న	-11.1238
జల్	-11.1239
▁లూయిస్	-11.124
భిక్ష	-11.1242
▁తంత్ర	-11.1243
▁కుమారుడైన	-11.1244
▁ఉద్భవించ	-11.1245
▁సన్నని	-11.1246
▁వివాద	-11.1246
▁గ్రంథంలో	-11.1247
పరిచారు	-11.1253
▁సంకీర్ణ	-11.1253
▁క్వీన్	-11.1253
▁ఉచితంగా	-11.1253
▁డిస్క్	-11.1254
▁పనిచేస్తూ	-11.1254
▁త్రిపుర	-11.1255
▁కనీస	-11.1256
▁ఉత్పన్న	-11.1256
▁కొలను	-11.1257
వ్యా	-11.1261
bi	-11.1265
వారిపాలెం	-11.1265
▁న్యాయస్థానం	-11.1265
వాసుల	-11.1267
▁క్షీణించ	-11.1268
▁వీణ	-11.1276
ుకొను	-11.1276
▁దేని	-11.1277
▁ముక్తి	-11.1278
▁ఇంటిలో	-11.1279
▁అహ్మద్	-11.128
▁జగ్గయ్యపేట	-11.128
▁శ్రేణుల	-11.128
▁నిలిచారు	-11.128
▁సూచిస్తారు	-11.1281
▁1,1	-11.1283
యమ్	-11.1285
ోత్సవాలు	-11.1287
▁హామీ	-11.1288
▁సమానం	-11.1289
▁ట్రె	-11.1291
వుండ	-11.1293
▁సంఘర్షణ	-11.1294
▁శక్తుల	-11.1295
ber	-11.1296
▁మిల్లు	-11.1297
భరిత	-11.13
II	-11.1301
ందువలన	-11.1303
థే	-11.1304
చారి	-11.1304
▁పుస్తకాలను	-11.1304
వాక్	-11.1304
▁ఆదరించ	-11.1304
▁విభజించారు	-11.1304
▁Indian	-11.1305
▁అక్బర్	-11.1307
▁మహాత్మ	-11.1308
▁ఖడ్గ	-11.1308
▁నడిపి	-11.1308
▁పదార్థాలను	-11.131
-14	-11.1311
▁మేర	-11.1317
కాల్	-11.1319
యుండ	-11.132
వాయువు	-11.1321
▁ప్రముఖమైన	-11.1323
▁స్వతంత్రం	-11.1323
▁పోవడం	-11.1324
▁పంపిన	-11.1326
ాచారి	-11.1326
▁విమర్శలు	-11.1327
▁అనువైన	-11.1327
▁ఇస్తున్న	-11.1328
▁BBC	-11.1334
▁నిలిచాడు	-11.1334
▁విలువలు	-11.1337
▁ఎదుర్కొన	-11.1338
▁మొదలై	-11.1339
మోహన	-11.1342
▁ఎంచుకున్న	-11.1342
▁కోర్ట్	-11.1345
▁వేదాల	-11.1345
▁జప	-11.1346
▁హక్కులను	-11.1346
▁బీచ్	-11.1346
▁ధనం	-11.1349
▁ఏర్పాట	-11.1349
▁సోడియం	-11.135
ుతుంటాయి	-11.135
▁చూపిన	-11.135
వాసి	-11.1354
▁5071	-11.1355
వాడలో	-11.1355
▁పాత్రకు	-11.1355
▁పత్రికలలో	-11.1355
ాయుధ	-11.1356
▁పరిస్థితిని	-11.1356
▁వేయించ	-11.1356
▁Ar	-11.1357
ేపల్లిలో	-11.1359
▁తర్క	-11.136
▁మాసాల	-11.136
▁ముప్ప	-11.1361
▁పాత్రికేయ	-11.1361
▁రూపు	-11.1363
▁తమిళం	-11.1364
ix	-11.1365
మట	-11.1367
▁ఆధిపత్య	-11.1368
▁అభయ	-11.1369
టైన్	-11.1375
▁ఆధారాల	-11.1375
▁అంబేద్కర్	-11.1375
▁కొని	-11.1384
బియన్	-11.1386
▁శిఖరం	-11.1387
▁two	-11.1389
▁సువాసన	-11.1389
▁8%	-11.1389
మయ్యాడు	-11.1394
und	-11.1395
▁చిత్రించ	-11.1396
▁నిర్ణయించారు	-11.1397
హాన్	-11.1399
న్నింటినీ	-11.1399
గుప్త	-11.1399
స్టే	-11.1404
▁విధాలుగా	-11.1405
▁చెబుత	-11.1405
▁5082	-11.1408
mer	-11.1408
▁రాళ్ల	-11.141
▁యోగి	-11.141
▁ఎప్పుడ	-11.1413
▁800	-11.1414
▁శ్వేత	-11.1416
▁అంగీకార	-11.1416
కునిగా	-11.1417
▁సూఫీ	-11.1418
▁గుర్తుగా	-11.1419
▁దున్న	-11.142
డెంట్	-11.142
▁భావాల	-11.142
▁భావించాడు	-11.1422
▁సంస్కరణల	-11.1423
మరు	-11.1423
▁మోనో	-11.1428
▁దేవతా	-11.1429
▁వాగ్	-11.1429
▁బహిర్గత	-11.143
▁మాత	-11.143
▁ఇబ్న్	-11.143
▁రూపాన్ని	-11.143
ించబడిన	-11.143
▁ఉదాహరణగా	-11.143
▁గార్డెన్	-11.1431
▁వాక్	-11.1431
▁తెరిచి	-11.1432
▁ప్రముఖుల	-11.1434
▁అవతరించింది	-11.1438
▁రంపచోడవరంలో	-11.1439
▁మరణానికి	-11.1439
▁పాప్	-11.144
-8	-11.1442
▁ఎల్లప్పుడూ	-11.1443
▁మద్రాస్	-11.1443
▁శ్ర	-11.1443
▁గోవా	-11.1445
▁కవచ	-11.1446
▁అవే	-11.1446
▁అందిస్తున్నాయి	-11.1454
▁తేల	-11.1455
▁పదవ	-11.1456
▁యాచ	-11.1456
▁ఓడి	-11.1456
▁వైమానిక	-11.1457
▁తీసుకున్నాడు	-11.1458
▁యుధ్ధ	-11.146
▁ప్రమాణాలు	-11.1461
▁పొందడం	-11.1465
▁పాడేరు	-11.1465
ించాయి	-11.1466
▁రోడ్దురవాణా	-11.1471
▁మెహ	-11.1471
▁గ్రెగొర	-11.1472
▁తరగతుల	-11.1473
▁ఇంటిపేరు	-11.1473
▁చేస్తుంటారు	-11.1473
▁అనంతగిరి	-11.1474
▁తరచు	-11.1475
▁గతి	-11.1477
▁పొంగ	-11.1478
▁దేవీ	-11.1479
▁యూదులు	-11.1483
▁గావించ	-11.1483
▁బెజవాడ	-11.1484
▁దుష్ట	-11.1485
పురాణం	-11.1486
▁నివేదించ	-11.1486
▁మార్టిన్	-11.1486
▁district	-11.1492
eg	-11.1494
▁వాసుల	-11.1495
▁ఇవే	-11.1496
▁భౌగోళికంగా	-11.1498
▁అమ్మోనియం	-11.1498
▁సృష్టించింది	-11.1499
▁రోమ్	-11.15
లేకపోయింది	-11.15
▁మతాన్ని	-11.1502
▁రాక్షసుల	-11.1506
▁వినియోగదారులు	-11.1509
▁522	-11.1511
▁జోసెఫ్	-11.1512
▁ఖైదీ	-11.1512
▁స్కాట్లాండ్	-11.1512
▁వినుకొండ	-11.1513
ందనే	-11.1514
▁నలుపు	-11.1514
ఇది	-11.1514
▁రావడంతో	-11.1517
▁దుంప	-11.1519
▁దేవ్	-11.1526
ాలనుకున్న	-11.1527
▁ఎదిగి	-11.1528
▁ప్రత్యక్షంగా	-11.153
▁మేనేజ్మెంట్	-11.1532
▁అవకాశము	-11.1533
ేశ్వరస్వామి	-11.1535
ఖాన్	-11.1535
టోన్	-11.1537
▁గ్రేడ్	-11.1538
▁సంప్రదించ	-11.154
మంద	-11.154
’’	-11.1541
▁అన్నపూర్ణ	-11.1542
▁పరిణామాల	-11.1546
▁ఉంట	-11.1546
ేశ్	-11.1548
▁ఉద్యోగి	-11.1551
▁బహదూర్	-11.1553
▁కణజాల	-11.1555
▁భవనాల	-11.1555
స్వామ్య	-11.1556
బౌ	-11.1559
▁ఊరికి	-11.156
▁సన్యాసి	-11.1561
▁జయించి	-11.1561
▁ఆహారంగా	-11.1561
మిది	-11.1563
▁భూభాగాన్ని	-11.1563
▁అప్పుడప్పుడు	-11.1567
▁వాల్మీకి	-11.1567
▁కాగజ్	-11.1568
▁పిదప	-11.1568
▁వేల్	-11.1568
▁సమాధుల	-11.1569
▁ఫౌ	-11.1569
ీంద్ర	-11.1571
▁శ్రీనివాస్	-11.1571
▁సామాన్యంగా	-11.1572
▁అతడికి	-11.1572
▁కుమార్తెలు	-11.1574
▁సౌకర్య	-11.1575
▁చిల్ల	-11.1578
వుంటుంది	-11.1578
▁తేలిక	-11.1578
▁పంటకు	-11.1579
▁తాళ్ళ	-11.1579
ాభిషేక	-11.158
▁నేర్చుకున్న	-11.1581
▁పోవు	-11.1581
▁అస్థిర	-11.1581
▁నిర్మూలన	-11.1581
▁వైఎస్ఆర్	-11.1582
▁భద్రాద్రి	-11.1582
▁వెంక	-11.1583
▁అమెరికాలోని	-11.1588
100	-11.1589
▁గ్రంథాల	-11.1589
▁అమలులోకి	-11.1592
సత్వ	-11.1594
▁అభ్యర్థుల	-11.1595
▁ఐరిష్	-11.1595
▁మ్యూ	-11.1596
▁సరే	-11.1596
▁లోకసభ	-11.1596
▁లోహం	-11.1597
▁పగటి	-11.1598
AD	-11.1598
స్తుంటాడు	-11.16
ప్రారంభించబడింది	-11.1601
▁మానవుని	-11.1601
స్వరూప	-11.1601
▁పయన	-11.1601
▁మనుషులు	-11.1602
ug	-11.1605
▁కలెక్టర్	-11.1609
▁ద్రౌపది	-11.1609
▁కార్టూన్	-11.1609
▁తప్పక	-11.161
దొడ్డి	-11.1611
డౌ	-11.1612
au	-11.1612
జిక్	-11.1615
▁పిలువ	-11.1618
▁ప్రబంధ	-11.1619
సిటీ	-11.162
▁విజయవంత	-11.162
▁ఇండోనేషియా	-11.1623
▁ఆక్రమించి	-11.1623
హీన	-11.1623
▁మృత్యు	-11.1624
▁మరణానంతరం	-11.1624
▁ఆటంక	-11.1624
▁సమ్మత	-11.1626
▁దర్శి	-11.1627
▁చక్కటి	-11.1627
▁వేయడం	-11.1627
▁చేయి	-11.1631
▁మహాయాన	-11.1632
▁ప్రాముఖ్య	-11.1637
▁చేయడంతో	-11.1637
▁అగస్త్య	-11.1637
▁నడుస్తుంది	-11.1637
షియల్	-11.1639
▁Mo	-11.1643
▁విందు	-11.1645
▁చర్యలను	-11.1645
▁go	-11.1648
▁డ్రైవర్	-11.1653
▁ఉభయ	-11.1653
▁పొరపాటు	-11.1653
▁లేచి	-11.1654
▁మెల్ల	-11.1654
mit	-11.1654
ఫిబ్రవరి	-11.1655
జెస్	-11.1657
▁పాయ	-11.1658
▁some	-11.1659
▁సాక్షి	-11.166
▁జన్యువు	-11.166
▁వాహనాలు	-11.166
▁ఇస్లామ	-11.1663
ంటికి	-11.1664
▁ప్రెసిడెన్సీ	-11.1665
▁సంవత్సరాంతమున	-11.1665
▁ఉల్	-11.1666
▁పరిస్థితులలో	-11.1667
▁వాలి	-11.1671
▁పతకాల	-11.1672
▁తినే	-11.1672
▁క్రాస్	-11.1674
▁కపూర్	-11.1678
లంబ	-11.168
▁శ్యామ	-11.168
▁భాగ్య	-11.1682
▁బేస్	-11.1683
▁మైదాన	-11.1685
▁స్థితిని	-11.1686
▁సౌకర్యాల	-11.1689
▁ఇప్పటికి	-11.1689
▁ఇండి	-11.1691
భోజ	-11.1691
▁ఒకానొక	-11.1693
▁చిహ్నంగా	-11.1695
▁నాలుగో	-11.1696
▁నిర్వహించబడుతు	-11.1696
▁ప్రవేశపెట్టిన	-11.1696
ప్రతిష్ఠ	-11.1698
▁తక్షణ	-11.1698
▁కట్టించ	-11.1703
ోత్తర	-11.1704
▁పదున	-11.1708
గలిగారు	-11.1709
▁భావాలు	-11.1709
▁చిలుక	-11.171
▁రైల్	-11.1714
▁నీళ్ళ	-11.1714
▁తోక	-11.1715
▁ఇప్పటికే	-11.1716
బద్ధమైన	-11.1717
వెర్	-11.1718
▁దుష్	-11.1719
▁బాక్	-11.1721
▁చికాగో	-11.1721
▁స్కోరు	-11.1721
▁సందేశం	-11.1722
▁ఖచ్చిత	-11.1722
కాశ	-11.1723
▁రెండ	-11.1726
▁మండపం	-11.1727
▁జరుగుతూ	-11.1727
వరపు	-11.1728
▁తవ్వ	-11.1733
▁అచ్యుత	-11.1735
▁వివక్ష	-11.1736
▁ప్రక్రియను	-11.1737
▁చేసుకొన్న	-11.1737
బ్యా	-11.1738
▁పాలకుడు	-11.1739
▁ప్రకటనల	-11.174
▁తాప	-11.174
▁కుమారుల	-11.1741
▁ఆంగ్లో	-11.1741
ంగర్	-11.1742
▁హెక్టార్లు	-11.1744
ుకునేవారు	-11.1744
▁మెర్	-11.1745
▁చెబుతాడు	-11.1746
-11	-11.1748
▁హోమ్	-11.1748
▁సిక్ఖు	-11.1749
▁మొదలగునవి	-11.175
▁ఎవర	-11.1755
▁శ్రీకృష్ణుని	-11.1755
▁లైఫ్	-11.1758
▁పర్యాటకులు	-11.1758
గల్లు	-11.1758
▁గ్రంథాలలో	-11.1758
▁అధ	-11.1761
మాంస	-11.1763
▁మరుసటి	-11.1764
▁ఎదుర్కో	-11.1764
▁రాచ	-11.1766
వియా	-11.1767
ేషను	-11.1767
▁గడుప	-11.1768
▁లాంగ్	-11.1768
▁కవితలు	-11.1768
▁నిప్పు	-11.1769
చ్చె	-11.1772
శ్వాస	-11.1773
ప్లా	-11.1774
బలం	-11.1774
▁తీసుకువచ్చి	-11.1775
▁per	-11.1777
▁కాల్షియం	-11.1778
▁ఆర్గనైజేషన్	-11.1778
▁ఛానల్	-11.178
రాత్ర	-11.1782
▁చెప్పాలంటే	-11.1784
▁స్థానానికి	-11.1784
AM	-11.1786
పదార్థం	-11.1786
ుటకై	-11.1788
ుతున్నది	-11.1791
▁విశేషంగా	-11.1791
ట్జ్	-11.1792
vo	-11.1793
▁తీర్ధ	-11.1794
gi	-11.1797
హెచ్	-11.1799
▁తిరిగే	-11.1802
▁విజయవంతం	-11.1802
IT	-11.1803
దట	-11.1805
▁గీతాలు	-11.1805
▁Windows	-11.1806
▁వియత్నాం	-11.1806
▁ఎంతగానో	-11.1806
▁నిలయం	-11.1807
ేటివ్	-11.1807
▁సిరియా	-11.1808
▁శతాబ్ద	-11.1811
యెల్	-11.1812
▁బహుమతులు	-11.1812
▁see	-11.1814
గలిగి	-11.1816
▁180	-11.1818
▁act	-11.1819
వేశారు	-11.1819
డెల్	-11.1819
గర్భ	-11.182
▁కెప్టెన్	-11.182
▁సేవలందించ	-11.1821
▁ఉండటానికి	-11.1821
గలిగాడు	-11.1821
▁బ్రాహ్మణుడు	-11.1822
▁దేవర	-11.1822
▁వెంకటేశ్వరరావు	-11.1824
▁ప్రయత్నంలో	-11.1826
▁కేంద్రీకరించ	-11.1827
▁దోమ	-11.1831
▁కాలేజీలో	-11.1833
ఘట్ట	-11.1834
▁car	-11.1834
▁నైవేద్య	-11.1835
▁జోక్యం	-11.1835
▁త్రిభుజ	-11.1835
▁వాటితోపాటు	-11.1846
▁తెలియకుండా	-11.1847
▁గుల్	-11.1847
▁ఇతివృత్త	-11.1849
▁హాస్పిటల్	-11.1849
▁మధ్యప్రదేశ్	-11.1849
▁ఇంజను	-11.1849
▁సలహాదారు	-11.185
▁భూమికి	-11.1854
పదార్ధ	-11.1855
ుడనే	-11.1858
▁సజీవ	-11.1862
▁సైన్యాల	-11.1863
▁వివేక	-11.1863
▁నెల్లూరులోనూ	-11.1865
ఫిక్	-11.1865
▁వెలుగులోకి	-11.1867
▁ఆకారం	-11.1868
▁ఉన్నారని	-11.1869
▁first	-11.1877
▁పిక్చర్స్	-11.1877
టేషన్	-11.1879
▁వెలసిన	-11.188
▁నిర్దేశించ	-11.188
▁ఫ్రాన్సు	-11.1881
▁పళ్ళ	-11.1881
▁సవాలు	-11.1883
▁కృ	-11.1884
▁ఫార్	-11.1886
▁OS	-11.1888
PA	-11.1889
▁ఆకాశంలో	-11.189
▁పత్రాల	-11.1894
▁పాత్రలను	-11.1896
▁కళ్ల	-11.1899
▁మారాయి	-11.19
▁కళ్యాణం	-11.1902
▁అంతర్భాగ	-11.1903
▁కొనసాగిన	-11.1904
భక్తి	-11.1905
▁ప్రతిస్పందన	-11.1906
▁రక్షక	-11.1907
▁లాంటివి	-11.1909
▁వెనుకబడిన	-11.1912
▁ఉపయోగించవచ్చు	-11.1912
▁వడ్డీ	-11.1916
▁ఆడిన	-11.1916
కంటె	-11.192
▁మేనమామ	-11.1921
▁నటించి	-11.1921
▁గణతంత్ర	-11.1921
▁ఎగుర	-11.1926
lla	-11.1926
▁కొలువు	-11.1927
▁సృష్టించాడు	-11.1929
▁కొయ్య	-11.193
▁మనకి	-11.1932
▁గూగుల్	-11.1935
▁ఉత్సాహం	-11.1936
▁వివరిస్తుంది	-11.194
▁డ్రై	-11.1941
▁శివాలయం	-11.1942
▁యంత్రాలు	-11.1946
▁బుల్	-11.1949
▁వ్యాసము	-11.1951
▁9%	-11.1951
▁సంవత్సరములు	-11.1952
▁ప్రయోగశాల	-11.1952
▁Com	-11.1955
▁స్థాయిని	-11.1957
▁వార్షికోత్సవ	-11.1959
▁పట్టణాలు	-11.196
▁దుగ్గిరాల	-11.1964
▁దసరా	-11.1964
▁పతకం	-11.1964
▁విత్తనాల	-11.1965
▁నటులు	-11.1966
▁మల్లి	-11.1967
▁విజయాలు	-11.1967
సిద్ధి	-11.1968
▁ఆనంద్	-11.197
సంపద	-11.197
▁సేనా	-11.1971
arch	-11.1973
▁BC	-11.1974
▁మనోహర	-11.1974
▁ఋతువు	-11.1974
▁శత్రువు	-11.1975
▁విస్తార	-11.1975
▁శతకము	-11.1977
▁స్టిట్యూట్	-11.1978
▁క్రెడిట్	-11.1978
▁మదీనా	-11.1978
▁పిలిచి	-11.198
▁నాట్యం	-11.198
చిత్రం	-11.1981
▁తాలూకాలోని	-11.1982
▁టెం	-11.1985
▁అనుగ్రహ	-11.1986
▁నిర్వచ	-11.1986
▁పండగ	-11.1987
▁తేల్చ	-11.1987
▁Th	-11.199
lect	-11.1991
▁ఉత్సాహ	-11.1992
పెట్టిన	-11.1992
▁నాటిన	-11.1994
▁స్పందించ	-11.1997
బుద్ధ	-11.1997
▁గోపురం	-11.1998
▁వంశీ	-11.1998
బిసి	-11.2006
▁సుయోధనుడు	-11.2007
▁కావడానికి	-11.2008
▁వుండేది	-11.2009
▁అజర్	-11.201
▁తెలిపాడు	-11.201
▁ప్రయాణికుల	-11.2011
▁ఆరోపించ	-11.2011
స్ట్రీ	-11.2012
ఆంధ్ర	-11.2016
▁హిందు	-11.2017
▁దోపిడీ	-11.2022
▁తత్త్వ	-11.2024
▁రహదారులు	-11.2026
పరిచ	-11.2026
పాప	-11.2028
▁ట్రీ	-11.203
▁విపరీతమైన	-11.203
▁ఉనికిని	-11.2032
గ్రి	-11.2034
▁ఫార్ములా	-11.2036
wi	-11.2037
▁అప్పారావు	-11.2038
▁కర్బన	-11.2038
త్తర	-11.2038
▁inter	-11.2042
▁స్థానాలు	-11.2043
▁రచించి	-11.2045
▁దీవులు	-11.2046
లక్షణ	-11.2048
▁మూడింట	-11.2055
▁సరసన	-11.2056
▁కలిపే	-11.2056
▁చేతితో	-11.2059
▁వికారాబాద్లో	-11.2061
ries	-11.2062
▁బాలీవుడ్	-11.2065
హరణ	-11.2067
ానుసారం	-11.2068
ప్రసాద	-11.2069
▁ముదురు	-11.207
ినవాడు	-11.2072
▁తయారైన	-11.2073
పిస్తుంది	-11.2073
▁తెలుగువారి	-11.2073
శ్రేణి	-11.2073
▁1922	-11.2074
ండేది	-11.2079
▁వ్యంగ్య	-11.208
▁లభిస్తాయి	-11.2081
▁బానిసలు	-11.2082
▁పొడు	-11.2083
▁ప్రదర్శించారు	-11.2084
▁సముద్రాల	-11.2084
▁మహానగర	-11.2084
▁గ్రి	-11.2089
▁నిబంధనల	-11.2091
శారద	-11.2093
▁శుక్రవారం	-11.2095
▁ప్రీతి	-11.2095
▁కేంద్రక	-11.21
aw	-11.21
మోర్	-11.2102
▁పరిస్థితులను	-11.2103
▁సమావేశాల	-11.2104
▁తదితరులు	-11.2104
▁గుమ్మ	-11.2105
▁సన్నివేశ	-11.2105
▁కానుక	-11.2105
▁ఎలుక	-11.2105
▁ద్వీపకల్పం	-11.2109
▁under	-11.211
▁భావించిన	-11.211
▁హాజరు	-11.211
▁జాతీయవాద	-11.2112
▁అధ్యక్షునిగా	-11.2113
▁వస్త్రాలు	-11.2115
కూట	-11.2115
▁గ్రంథాన్ని	-11.2118
▁ప్రచురించిన	-11.2119
▁వాస్తు	-11.2119
▁గడించ	-11.212
స్తుంటారు	-11.212
▁విడిపోయి	-11.2123
▁చేయమని	-11.2123
▁పడమటి	-11.2124
▁work	-11.2124
▁ద్వేష	-11.2125
▁కార్యాలయాలు	-11.2126
▁చల్లని	-11.2126
▁పుల	-11.213
▁జాల	-11.2132
▁కనిపిస్తున్న	-11.2136
ాయపాలెం	-11.2138
▁ప్రాణం	-11.2139
▁ఆదోని	-11.2139
▁మూడ	-11.2143
▁బ్రాం	-11.2144
చరణ	-11.2148
▁1,3	-11.2149
ound	-11.215
▁ఎడ్వర్డ్	-11.2153
▁ఐఐటీ	-11.2153
▁గొడవ	-11.2154
▁బంధించ	-11.2155
పట్టి	-11.2158
ోద్యమంలో	-11.2158
▁తెలు	-11.2159
▁ఇస్రో	-11.2159
▁జీన్	-11.216
▁దంపతులు	-11.216
go	-11.2163
▁ముక్త	-11.2163
హస్త	-11.2164
▁రహదారుల	-11.2165
వచ్చిన	-11.2168
▁అలెగ్జాండర్	-11.2168
▁పోర్చుగీస్	-11.2168
▁ప్రేరేపించ	-11.2168
▁వైఫల్య	-11.2168
▁అన్యాయ	-11.2169
▁విషాద	-11.217
▁ఉద్గార	-11.217
▁మలుపు	-11.2173
▁స్టోన్	-11.2173
▁ఆవిర్భవించ	-11.2177
▁రమ	-11.2178
▁వహించి	-11.2181
dh	-11.2182
త్తూరు	-11.2189
▁మహావీర	-11.219
▁దిగువన	-11.2192
▁విషయాలలో	-11.2194
▁మురికి	-11.2195
▁స్థావర	-11.2196
▁హసన్	-11.2197
▁మించిన	-11.2197
▁దట్టమైన	-11.2198
▁జలాశయ	-11.2198
▁న్యాయస్థాన	-11.2202
▁తరు	-11.2205
యాంగ్	-11.2205
▁ఫండ్	-11.2208
▁చిహ్నాలు	-11.2212
▁సోమవారం	-11.2214
▁చంద్రబాబు	-11.2214
▁ఓర్	-11.2214
▁ప్రదక్షిణ	-11.2215
పించి	-11.222
శాలి	-11.222
▁ధో	-11.222
లోచన	-11.2224
▁షే	-11.2227
▁వొ	-11.2227
ాగ్ని	-11.2227
▁బైబిల్	-11.2227
▁పరిశీలిస్త	-11.223
వాసులు	-11.223
▁షెల్	-11.223
షో	-11.2233
లైట్	-11.2236
▁చేసుకోవచ్చు	-11.2237
▁సంబంధము	-11.2238
బడుతూ	-11.2239
చిత్త	-11.224
▁గుర్తించడం	-11.2241
బడటం	-11.2241
మిల్లి	-11.2242
▁బిజినెస్	-11.2242
▁ఆకర్ష	-11.2243
▁గోపాల్	-11.2244
▁రౌండ్	-11.2245
▁బాపట్ల	-11.2248
▁నివాసితుల	-11.2248
▁పదాలను	-11.2256
▁పౌర్ణమి	-11.2257
▁పైకప్పు	-11.2257
▁ఆమోదం	-11.226
lar	-11.2262
▁కాపు	-11.2264
▁నింద	-11.2266
_{	-11.2266
చుకొని	-11.2269
col	-11.2271
▁ఋషి	-11.2273
▁సామర్ధ్యం	-11.2274
▁బాధపడుతున్న	-11.2275
▁లంబ	-11.2275
▁నమ	-11.2275
▁విధ్వంస	-11.2275
▁ప్రాకృత	-11.2277
ring	-11.2277
▁Co	-11.2279
ాధిపత	-11.2283
▁భాగస్వామ్య	-11.2283
▁కోల్పోయిన	-11.2284
▁సంజీవ	-11.2286
▁ka	-11.2286
▁ప్రతీతి	-11.2286
▁యూదుల	-11.2286
▁వైఖరి	-11.2287
▁ఆయుధాలు	-11.2287
పార్టీ	-11.2287
▁వ్యత్యాస	-11.2288
▁సొమ్ము	-11.2289
▁కవాట	-11.2293
▁అందరినీ	-11.2297
▁పేర్	-11.2297
వేళ	-11.23
▁మహాసముద్ర	-11.23
▁జరిమానా	-11.2301
▁విచ్ఛిన్న	-11.2301
▁ఆతిథ్య	-11.2302
▁భంగిమ	-11.2302
ఉన్నాయి	-11.2304
▁క్షీణ	-11.2306
?"	-11.2307
med	-11.231
▁పొందవచ్చు	-11.231
▁ఒకటే	-11.2314
▁పదవికి	-11.2315
▁సంకీర్తన	-11.2316
▁సాధించడం	-11.2322
▁బద్ద	-11.2323
▁చేసినట్లు	-11.2324
▁సాంగ్	-11.2326
▁ఇవ్వడానికి	-11.2329
▁చిరు	-11.233
▁ధరిస్తారు	-11.233
▁term	-11.233
▁పంచాయతి	-11.2331
▁గాంచిన	-11.2332
▁సిస్టం	-11.2332
మంగళ	-11.2332
▁ఒంటరిగా	-11.2333
▁కాల్చ	-11.2333
▁No	-11.2334
▁భారతదేశములో	-11.2334
▁నాశన	-11.2337
▁తీసే	-11.2337
▁నీళ్ల	-11.2338
▁చందా	-11.2341
▁తేడాతో	-11.2341
▁వస్తూ	-11.2341
సైట్	-11.2342
▁జగన్నాథ	-11.2342
ina	-11.2342
▁సంబంధాన్ని	-11.2343
ఉత్తర	-11.2344
▁సంక్రాంతి	-11.2346
▁ఇరాక్	-11.2348
▁సమ్	-11.235
▁పెడన	-11.2351
▁పదవుల	-11.2351
ుచున్నవి	-11.2352
▁బాగ్	-11.2355
▁గ్రంథాలను	-11.2356
▁తడ	-11.2358
యరు	-11.2359
▁తగ్గింది	-11.2361
▁వైకుంఠ	-11.2361
▁ట్యూబు	-11.2362
▁ద్వ	-11.2366
చెల్	-11.2368
▁నానా	-11.2369
▁సంకేతం	-11.2377
ద్రోహ	-11.2378
▁నారద	-11.238
▁తెలుసుకుని	-11.2382
▁ఉద్దేశించి	-11.2384
▁బజార్	-11.2385
▁అవార్డ్	-11.2386
▁దర్శకులు	-11.2388
▁dr	-11.2389
tro	-11.239
▁పోషించిన	-11.239
▁బళ్ళారి	-11.2392
▁సౌలభ్య	-11.2392
▁ముఖర్జీ	-11.2392
లోపల	-11.2395
▁తేలికగా	-11.2397
▁మిశ్రమం	-11.2397
▁140	-11.2398
▁కొనసాగుతుంది	-11.2399
▁Ba	-11.2404
▁తాడేపల్లి	-11.2404
ేశ్వరుడు	-11.2406
▁నియోజక	-11.2406
▁హనుమంతుని	-11.2407
▁యాంటీ	-11.2407
▁సంఘటనల	-11.2408
▁గాయక	-11.2409
రాశుల	-11.241
▁అధికరణ	-11.241
▁గ్రామస్థులు	-11.2411
▁ఇండోర్	-11.2413
side	-11.2421
▁over	-11.2421
▁temple	-11.2422
▁జోర్డాన్	-11.2422
▁సర్వసాధారణ	-11.2422
▁మహమ్మదు	-11.2422
▁సంచలన	-11.2422
▁సయ్యద్	-11.2422
▁సేన్	-11.2423
▁రాజ్యసభ	-11.2423
రక్షణ	-11.2425
▁సవరించ	-11.2425
▁వెళ్లే	-11.2427
▁ఆక్స్	-11.2428
▁తగ్గుతుంది	-11.243
▁శస్త్ర	-11.243
▁జైలులో	-11.2433
▁వాస్తవిక	-11.2434
▁దంపతుల	-11.2435
▁సైన్సు	-11.2437
▁వాయువుల	-11.2438
▁చిరుత	-11.2439
▁జాక్	-11.2441
▁నమ్ముతారు	-11.2441
▁మహోత్సవ	-11.2443
-17	-11.2446
ింపబడి	-11.2449
▁చరిత్రకారుడు	-11.2455
▁వెళ్ళు	-11.2457
▁పాముల	-11.2459
▁ఛాయ	-11.246
▁అక్షరాలు	-11.2462
మయం	-11.2463
▁అలానే	-11.2465
▁కిరీట	-11.2466
▁విలసిల్ల	-11.2467
pen	-11.2468
▁వుంటారు	-11.2474
▁వారసుడ	-11.2474
▁బంద	-11.2477
▁స్వదేశీ	-11.248
IA	-11.2483
▁మిలియన్లు	-11.2487
▁సన్యాస	-11.2487
▁తీసుకుంటే	-11.249
▁పూర్వీకులు	-11.2491
▁హెల్	-11.2492
▁తయారుచేసిన	-11.2493
▁ధాతువు	-11.2494
▁సరిపడ	-11.2496
▁నీటిపారుదల	-11.2498
▁రేపల్లె	-11.2502
▁పత్రాలు	-11.2505
రిగిన	-11.2506
▁బానిసల	-11.2506
▁బాధ్యతలను	-11.2508
బోర్	-11.251
▁శాసనాల	-11.251
▁అడవిలో	-11.2511
▁తొలిసారి	-11.2511
▁ముగుస్తుంది	-11.2513
▁దొరికిన	-11.2513
▁గోల్డెన్	-11.2513
డూరు	-11.2514
మార్చి	-11.2514
▁700	-11.2517
వాళ	-11.2518
▁ఒప్పించ	-11.252
జన్య	-11.2521
▁మెన్	-11.2522
▁ఉన్నదని	-11.2523
▁బండ్ల	-11.2523
▁బాపు	-11.2525
▁పురోగతి	-11.2528
▁దక్షిణాసియా	-11.2528
▁నడుస్తున్న	-11.253
కాలపు	-11.2532
ood	-11.2533
TT	-11.2533
▁నిర్మింప	-11.2534
▁చేయలేదు	-11.2536
▁నిర్వహిస్త	-11.2537
ానికై	-11.254
▁వంశానికి	-11.2542
▁త్వరిత	-11.2543
▁రాధాకృష్ణ	-11.2543
▁స్మిత్	-11.2543
ణువు	-11.2547
▁గట్టు	-11.2548
▁సేకరించిన	-11.2549
భైరవ	-11.2551
▁పడుతున్న	-11.2551
▁వారసత్వం	-11.2551
▁స్నేహం	-11.2551
▁రాయడం	-11.2553
▁ప్రతిఫల	-11.2555
విద్యా	-11.2555
▁తీయుట	-11.2555
▁గాఢ	-11.2556
▁మేడ్చల్	-11.2559
▁క్వార్టర్	-11.2559
▁ఏర్పాట్లు	-11.2559
▁out	-11.2559
▁5324	-11.2561
పత్రిక	-11.2564
▁హిందూపురం	-11.2565
▁సముద్రతీరం	-11.2566
▁పట్టుకుని	-11.2571
▁ఒప్పందాల	-11.2573
="	-11.2573
ువుల	-11.2574
▁శూన్య	-11.2574
▁నార్వేజియన్	-11.2574
▁మొక్కలను	-11.2575
▁వనరు	-11.2578
▁ప్రాంతములో	-11.2578
▁నటుల	-11.258
ిస్తుందని	-11.2584
డ్రో	-11.2589
▁నాస్తిక	-11.259
▁హెల్త్	-11.2594
▁స్విస్	-11.2595
-16	-11.2597
▁వైవిధ్యమైన	-11.2598
మిష	-11.2599
▁గుణం	-11.2603
▁జిన్నా	-11.2603
▁లైబ్రరీ	-11.2605
▁జగద	-11.2605
▁నిధులను	-11.2612
▁తీసింది	-11.2615
▁పుట్టింది	-11.2616
▁నక్క	-11.2617
▁హార్మోన	-11.2619
▁కొండూరు	-11.2619
▁దేశాలతో	-11.2619
మాధ్యమిక	-11.262
పరిషత్	-11.2621
▁పునర	-11.2622
▁ధైర్యం	-11.2624
సరోవర	-11.2628
▁శీతాకాలంలో	-11.2633
4,000	-11.2634
క్సైడు	-11.2636
air	-11.2638
▁కుట్ట	-11.2642
▁పాల్గొనే	-11.2642
▁==	-11.2642
▁క్లై	-11.2643
తల్లి	-11.2644
ుకొంది	-11.2644
▁గుత్తి	-11.2645
రమ్మ	-11.2647
▁కథలను	-11.2648
▁కొల్లూరు	-11.2651
ative	-11.2651
▁అత్యల్ప	-11.2651
▁నివసించిన	-11.2652
▁పాక్	-11.2657
▁అంతకంటే	-11.2657
▁నొక	-11.2658
▁యాజమాన్య	-11.266
▁భయపడ	-11.2663
▁కలుగు	-11.2666
▁సల్ఫేట్	-11.2667
▁సుపరిచిత	-11.2667
▁గంధర్వ	-11.2667
జియన్	-11.2669
కెళ్ళ	-11.267
▁more	-11.2672
-13	-11.2674
▁పథ	-11.2674
▁మాడ	-11.2675
▁పురుషుడు	-11.2678
▁హంస	-11.2679
▁యాదాద్రి	-11.2682
▁అరబిక్	-11.2682
▁ఓడరేవు	-11.2682
▁చంద్రశేఖర్	-11.2687
▁స్వతంత్రంగా	-11.2688
▁పోరాటాల	-11.2689
▁సిద్ధంగా	-11.2691
▁మాదిరిగానే	-11.2691
▁పలాస	-11.2693
▁అద్వైత	-11.2698
▁చుట్టుప్రక్కల	-11.2698
▁ద్వీపాలు	-11.2699
▁నిషేధం	-11.2701
▁తొందర	-11.2704
భాగాలు	-11.2705
శ్లేష	-11.2705
▁వ్యయంతో	-11.2706
▁సున్నీ	-11.2706
ani	-11.2707
▁భారతీయులు	-11.2707
▁వాసులు	-11.2708
▁క్షార	-11.271
▁భగవద్గీత	-11.2713
www	-11.2713
▁మునుపు	-11.2716
left	-11.2716
శ్రుత	-11.2716
▁మెజారిటీ	-11.2719
స్థాపన	-11.272
▁మెజారిటీతో	-11.2723
▁మొత్తము	-11.2723
war	-11.2724
గూర్	-11.2725
▁బాస్కెట్	-11.2729
▁చెప్తారు	-11.2729
▁విశ్లేష	-11.273
లేడు	-11.2731
ie	-11.2739
▁అర్హ	-11.274
▁గ్రె	-11.274
వ్యాధి	-11.2741
కృత్య	-11.2741
రాళ్ళ	-11.2743
▁జరిప	-11.2743
▁అర్జెంటీనా	-11.2744
▁క్షిపణుల	-11.2744
▁place	-11.2744
▁కుంకుమ	-11.2744
▁వేగవంతమైన	-11.2745
▁మాండలిక	-11.2746
▁అవుతాయి	-11.2746
▁నెల్లూరులోను	-11.2746
▁పోతున్న	-11.2747
ుచూ	-11.2747
నిచ్చింది	-11.2748
▁కామన్	-11.2749
▁తీసుకుంది	-11.2751
▁ఆమ్లాలు	-11.2752
▁వికాస	-11.2752
▁1943	-11.2754
వేర్	-11.2754
▁చేసినప్పుడు	-11.2755
▁అందుచేత	-11.2756
▁హ్యా	-11.2756
▁వాయించ	-11.2759
కల్పన	-11.276
▁ఫోర్డ్	-11.276
▁అందుకని	-11.276
▁చేపట్టింది	-11.2761
తుల్	-11.2762
▁ఆటగాళ్ళ	-11.2767
ling	-11.2769
▁అనువర్తన	-11.2773
నాధ్	-11.2773
▁మృగ	-11.2774
▁ఆమ్లాల	-11.2774
dent	-11.2775
▁ఈస్టిండియా	-11.2776
▁మహేష్	-11.2776
▁స్వదేశ	-11.2778
▁భాగమైన	-11.2779
▁జార్జి	-11.2781
▁ఉద్యానవనం	-11.2781
▁సాగే	-11.2786
▁జమీందారు	-11.2789
▁ప్రవేశించింది	-11.279
▁తయారీదారు	-11.2791
▁పద్మనాభ	-11.2791
▁రబ్బరు	-11.2791
▁చిత్రలేఖన	-11.2791
▁ప్రకటించిన	-11.2792
▁తీసుకువెళ్ళ	-11.2793
▁గూడూరులోనూ	-11.2793
▁దృష్టిని	-11.2798
ిద్దరూ	-11.2802
▁Na	-11.2803
▁కొన్నాళ్ళ	-11.2808
కుంటలో	-11.2808
▁found	-11.2808
ook	-11.2815
▁చెర	-11.2817
▁km	-11.2818
టప్పుడు	-11.2819
▁Po	-11.2822
▁ప్రెసిడెంట్	-11.2823
▁శ్రవణ	-11.2823
▁బయలు	-11.2824
▁గదుల	-11.2824
▁కనుగొన్నాడు	-11.2825
▁కంప్యూటరు	-11.2825
▁నాజీ	-11.2825
▁సంపాదించి	-11.2829
▁మృతి	-11.283
▁ప్రదేశాల్లో	-11.2833
▁టెట్రా	-11.2833
మెర్	-11.2839
▁రుసుము	-11.2839
▁రాచరిక	-11.284
▁నవలా	-11.2844
▁క్రు	-11.2846
▁భవిష్యత్తులో	-11.2848
▁దయా	-11.2848
▁స్థితికి	-11.2849
ద్రావణ	-11.285
▁అవకాశాల	-11.285
▁10,000	-11.2852
▁IBM	-11.2854
▁వెనుజులా	-11.2854
▁జమ్మూ	-11.2854
▁సాక్ష్యం	-11.2857
▁పుంజ	-11.286
▁ఎదుర్కొన్న	-11.2861
▁గ్రాడ్యుయేట్	-11.2862
▁వాడటం	-11.2863
▁కార్యక్రమానికి	-11.2863
▁1927	-11.2864
▁వ్యర్థ	-11.2865
▁సభ్యులుగా	-11.2866
▁సుప్రీం	-11.287
▁కాల్సియం	-11.287
ాచార్యుల	-11.2872
లేట్	-11.2873
▁సేవించ	-11.2873
▁భాగస్వామి	-11.2875
నామం	-11.2875
rm	-11.2875
▁ఆలయము	-11.2875
యోగి	-11.2877
▁నిర్వహించడం	-11.2879
▁తయారీకి	-11.2883
దూరు	-11.2885
▁మరియొక	-11.2885
సుందర	-11.2885
కూడదని	-11.2887
▁ఋషుల	-11.2887
▁జర్నల్	-11.2887
▁రాజకీయాల	-11.2888
▁వ్యక్తికి	-11.289
▁ప్రభావాల	-11.2897
▁కూతుర	-11.2897
▁అనుకూలమైన	-11.2898
▁అల్లా	-11.29
▁పీడన	-11.29
▁దర్గా	-11.2901
▁పునర్నిర్మించ	-11.2902
▁మిషనరీ	-11.2902
▁రిజర్వ్	-11.2902
8%	-11.2903
▁సదాశివ	-11.2904
▁స్కాట్	-11.2904
ంబుల	-11.2907
▁had	-11.2907
ning	-11.2911
▁చెందుతుంది	-11.2911
ించెను	-11.2916
బ్లా	-11.2917
▁ఉపయోగపడే	-11.2918
▁గుర్రాల	-11.2918
▁తిలక్	-11.2918
▁1,4	-11.2922
▁శరీరానికి	-11.2923
▁పిచ్చి	-11.2925
ాధ్యక్ష	-11.2927
ంబున	-11.2929
▁ప్రముఖంగా	-11.2929
▁నియమించారు	-11.2929
▁ఫాస్ట్	-11.2931
▁చేబ్రోలు	-11.2933
▁నవాబ్	-11.2934
▁ఉష్ణమండల	-11.2935
▁ప్రతినిధుల	-11.2935
▁అంతర్జాల	-11.2935
▁రైట్	-11.2936
▁యూదు	-11.2937
▁వాస్కో	-11.2939
▁కఠినమైన	-11.2941
▁గ్రామాల్లో	-11.2946
▁నమస్కరించ	-11.2949
▁అస్సాం	-11.2951
▁పాక్షికంగా	-11.2951
▁నేపథ్యం	-11.2952
▁ఎవరో	-11.2954
ృతి	-11.2955
పెల్	-11.2959
▁గురై	-11.296
▁ఎలిజబెత్	-11.2965
▁కథానాయిక	-11.2965
▁తల్లితండ్రుల	-11.2965
▁ద్రావిడ	-11.2966
▁ఉంచారు	-11.2966
▁like	-11.2966
▁వహించింది	-11.2969
▁బోల్	-11.2969
▁విడాకుల	-11.2972
▁కూర్చుని	-11.2973
▁పూర్వము	-11.2975
▁డెన్మార్క్	-11.2981
▁ప్రపంచానికి	-11.2982
▁పెంపుడు	-11.2983
▁పరిష్కారం	-11.2984
సెట్	-11.2989
దేశము	-11.2992
▁1917	-11.2992
పురము	-11.2993
▁నీళ్ళు	-11.2994
▁సారా	-11.2994
రూపము	-11.2995
వ్వడం	-11.2997
వ్యాపారాత్మక	-11.2997
తః	-11.2997
రోహణ	-11.2998
▁ఆటగాడు	-11.2999
▁హరికథ	-11.3
▁కావటం	-11.3002
▁సూత్రాలు	-11.3004
కోటి	-11.3005
cur	-11.3005
▁కృష్ణుని	-11.3011
▁ఇతరులకు	-11.3013
▁ఉంటాయని	-11.3014
▁స్వరాజ్య	-11.3016
▁గాయాల	-11.3017
ాధికారం	-11.3018
మవుతున్న	-11.3019
▁అడవులలో	-11.3019
▁విపరీతంగా	-11.302
▁ఫ్యూ	-11.3023
▁కొంతవరకు	-11.3023
మండ	-11.3024
▁state	-11.3027
▁పోటీచేసి	-11.3028
▁గీతం	-11.3028
▁మక్కువ	-11.303
▁చిక్కు	-11.303
▁వందలాది	-11.3032
▁రెక్కల	-11.3032
▁తెలిపే	-11.3034
▁తిరిగ	-11.3035
▁ఒక్కసారి	-11.3035
ాక్షర	-11.3039
▁జమ్ము	-11.3039
ీయుల	-11.3043
▁ఉండడంతో	-11.3045
▁after	-11.3045
▁most	-11.3048
▁అనుమతిస్తుంది	-11.305
▁విలీన	-11.3051
▁వెంకయ్య	-11.3051
▁యాజమాన్యం	-11.3052
▁హన్	-11.3052
▁రావణుని	-11.3053
▁రూపాలు	-11.3056
▁వూరి	-11.3057
▁చిత్రకళ	-11.3058
ంధ్ర	-11.3058
ణీయ	-11.306
▁స్నేహితుడు	-11.3066
ific	-11.307
వంతుడు	-11.3072
▁నియమం	-11.3072
పడుతుంది	-11.3074
▁రక్ష	-11.3076
▁అసమ	-11.3077
▁రంగాల్లో	-11.3078
▁నవీన	-11.3079
▁160	-11.308
▁అసలైన	-11.3081
▁కైలాస	-11.3081
▁అందజేస్త	-11.3083
▁ప్రవహించే	-11.3087
ధ్వజ	-11.3088
వార్డ్	-11.3088
ాంశాలు	-11.3089
▁పరిస్థితుల్లో	-11.309
ాకారంలో	-11.3092
▁హెచ్చు	-11.3101
▁మేజర్	-11.3101
▁శాతవాహనుల	-11.3103
▁బేగం	-11.3105
▁టాం	-11.3106
▁పాన్	-11.3106
▁భట్ట	-11.3107
▁గ్రహం	-11.3109
▁జలాల	-11.311
▁టెక్కలి	-11.3111
▁విదేశాలలో	-11.3111
▁పువ్వులు	-11.3112
▁తైల	-11.3114
▁చూచ	-11.3116
▁డమ్	-11.3121
▁ఆలస్యం	-11.3121
▁మదర్	-11.3122
▁వుంట	-11.3122
▁ఉపశమన	-11.3126
▁మొఘలు	-11.3126
▁మేడ	-11.3128
▁ఉండేలా	-11.3129
▁ఒక్కటే	-11.3129
▁ఒకేసారి	-11.3133
వర్ష	-11.3133
so	-11.3134
నియల్	-11.3139
గలడు	-11.314
▁నందమూరి	-11.3142
▁వింత	-11.3143
▁Vi	-11.3144
చేయడానికి	-11.3144
▁రాళ్ళు	-11.3144
ైజేషన్	-11.3144
▁నాటకాలలో	-11.3148
మైతే	-11.3154
▁శ్రీహరి	-11.3155
▁షేర్	-11.3156
▁రాజకీయాలలో	-11.3158
▁విమానాలు	-11.316
రాధ	-11.3163
▁ప్రశంసించ	-11.3164
ఋ	-11.3164
▁నడిపే	-11.3164
▁విభాగానికి	-11.3165
▁శాతవాహన	-11.3166
▁కోచ్	-11.3168
పాతం	-11.3169
▁గెలిచిన	-11.3171
▁తమిళంలో	-11.3171
▁సుంక	-11.3172
▁సావిత్రి	-11.3175
▁line	-11.3175
▁డెల్టా	-11.3175
▁పాండిత్య	-11.3175
▁shall	-11.3176
▁దారుణ	-11.3176
▁అబ్దుల్లా	-11.3177
▁అట్ట	-11.318
▁ప్రబోధ	-11.318
సాగర	-11.3181
భట్టు	-11.3183
▁పొన్న	-11.3184
▁వర్షాలు	-11.3185
కూరులో	-11.3185
▁స్థిరపడిన	-11.3187
▁కీర్తించ	-11.3189
▁విశ్లేషించ	-11.3191
ities	-11.3191
▁వికారాబాదు	-11.3191
▁ఆముదం	-11.3192
▁ఆరోపణలు	-11.3192
▁ఖండాల	-11.3193
▁అరుణ	-11.3195
▁రాజపుత్ర	-11.3196
▁ల్యా	-11.3197
ందనీ	-11.3199
▁పాతాళ	-11.3199
▁ఆచరణలో	-11.3202
▁ప్రయత్నించారు	-11.3202
ms	-11.3202
▁దినము	-11.3202
▁ట్రెంచ్	-11.3208
▁సెర్బియా	-11.3208
▁బైజాన్	-11.3209
▁చావు	-11.3209
▁బేసిన్	-11.321
భాయ్	-11.321
▁సర్వస్వ	-11.3213
▁ఉద్భవించింది	-11.3215
▁నొక్కి	-11.3215
ప్రపంచ	-11.3217
▁తేలింది	-11.3218
▁125	-11.3223
▁మృదు	-11.3224
▁ఫిర్యాదు	-11.3224
▁ఉత్తరప్రదేశ్	-11.3224
▁తటస్థ	-11.3224
▁నెలకొని	-11.3226
less	-11.323
▁పాల్వంచలో	-11.3232
▁వధించ	-11.3232
▁వేమన	-11.3234
▁ప్రవహించ	-11.3235
ముఖ్య	-11.3236
కుంటు	-11.3236
▁పాల్పడ	-11.3237
▁గారికి	-11.3239
▁వినియోగిస్తున్న	-11.3239
▁సిఫార్సు	-11.324
▁వార్డు	-11.3241
▁పర్షియా	-11.3241
పోతారు	-11.3241
▁పథకాల	-11.3243
▁ఆపద	-11.3245
▁being	-11.3248
▁పోలీసుల	-11.3249
ఫోర్	-11.3251
▁పురాణాలు	-11.3251
▁అందుచే	-11.3251
▁నిశ్చయ	-11.3252
ందువల్ల	-11.3253
▁సామర్థ్య	-11.3253
▁ముఖ్యముగా	-11.3254
సహాయ	-11.3255
వ్యాస	-11.3256
▁ఆహారము	-11.3257
▁మలయాళం	-11.3257
పాళ	-11.3258
▁కోస్ట్	-11.326
ృష్ట	-11.3261
వుతారు	-11.3264
▁తీసుకొన	-11.3264
▁అభిమానుల	-11.3266
▁కష్టాలు	-11.3267
పాలక	-11.3268
▁1923	-11.3269
▁తెచ్చుకున్న	-11.3273
▁CPU	-11.3273
▁ఉపసంహరించ	-11.3273
హై	-11.3274
▁మరియ	-11.3275
▁దీనిపై	-11.3276
▁కదులు	-11.3276
▁దాసరి	-11.3277
▁జ్ఞానము	-11.3278
▁కొమ్ము	-11.3279
▁కోడూరు	-11.328
▁పట్టభద్ర	-11.3281
▁తరంగాలు	-11.3281
నొప్పి	-11.3282
▁కొమరంభీం	-11.329
▁మరాఠా	-11.329
▁మొర	-11.329
▁నెలకొన్న	-11.3292
▁బాధితుల	-11.3292
▁చేరుకుని	-11.3295
మైనవాడు	-11.3296
▁శ్రీశైలం	-11.3298
వృత్త	-11.33
▁ఎత్త	-11.33
▁వేయి	-11.3302
▁చేయకుండా	-11.3305
▁సృజనాత్మక	-11.3306
▁సిడ్నీ	-11.3306
▁ఈవిడ	-11.3307
▁నేరాల	-11.3308
▁ఆలోచనల	-11.331
▁అవక్షేప	-11.331
రాబాద్	-11.331
▁సూచించిన	-11.3312
రాదని	-11.3312
▁1,5	-11.3312
▁ప్రచురించాడు	-11.3313
▁నౌ	-11.3317
▁జెన్	-11.3318
చిత్తూరు	-11.3318
▁బట్టలు	-11.3319
▁శ్రీనాథ	-11.3321
బడతారు	-11.3323
▁కీటకాల	-11.3324
ద్దీన్	-11.3325
▁years	-11.3328
ువుగా	-11.3329
▁సంస్కృతికి	-11.333
మంత్ర	-11.3333
కర్ణ	-11.3334
బీర్	-11.3334
fin	-11.3336
స్కోప్	-11.3336
▁వెన్ను	-11.3336
▁నిరంకుశ	-11.3339
▁స్వచ్ఛమైన	-11.3339
▁లాహోర్	-11.3339
▁సదుపాయం	-11.3341
▁ఉత్తర్వు	-11.3342
▁than	-11.3344
pec	-11.3345
▁చేస్తున్నాయి	-11.3347
▁పార్వతీపురం	-11.3348
▁అసంతృప్తి	-11.335
▁జలపాత	-11.3352
మౌత	-11.3355
▁డబ్బింగ్	-11.3356
▁పెట్రోలియం	-11.3356
▁పేరొందిన	-11.3356
▁సెకండరీ	-11.3356
▁సోమాలియా	-11.3356
ద్విబంధ	-11.3356
ise	-11.3357
▁స్థావరాల	-11.3357
▁శాస్త్రాల	-11.336
▁అమ్మవారు	-11.336
▁తొండ	-11.336
▁ప్రాకార	-11.3363
▁ప్రచుర	-11.3363
▁క్షేత్రాల	-11.3365
మంతటా	-11.3365
▁తిని	-11.3366
▁ప్రయాణించి	-11.3367
▁వచ్చిందని	-11.3367
▁మఠం	-11.3368
▁దీనివల్ల	-11.3371
▁her	-11.3372
▁జయశంకర్	-11.3373
▁సాయిబాబా	-11.3373
▁డిపార్ట్	-11.3373
▁సమక్షంలో	-11.3373
▁నిర్మూలించ	-11.3373
▁అలాస్కా	-11.3373
▁ప్రయోగాత్మక	-11.3373
▁ట్రాన్స	-11.3375
▁దూక	-11.3375
▁ఉన్నట్టు	-11.3378
▁అదృశ్య	-11.3379
▁మిత్రుల	-11.338
▁సదుపాయాలు	-11.338
కేంద్రం	-11.3382
▁భిన్నమైన	-11.3385
▁లక్షలు	-11.3388
▁గ్లూకోజ్	-11.3389
▁గ్లోబల్	-11.3389
▁విరాళాల	-11.3389
▁యెడల	-11.3389
▁యార్క్	-11.339
▁వైపులా	-11.3397
షనల్	-11.3399
▁రహస్యంగా	-11.34
▁స్తూప	-11.3404
వాళ్లు	-11.3405
▁ప్రావిన్సు	-11.3406
▁మౌంట్	-11.3409
▁40%	-11.3411
▁వక్ర	-11.3411
▁తగిలి	-11.3413
▁1926	-11.3416
▁లభ్యమవ	-11.3417
3,000	-11.3418
▁1914	-11.3418
సైడ్	-11.3421
▁మైనారిటీ	-11.3423
▁యురేపియన్	-11.3423
▁మదనపల్లె	-11.3423
▁మొదలవుతుంది	-11.3423
▁సైకిల్	-11.3423
▁సంపుటి	-11.3423
▁సంస్కార	-11.3425
వేసే	-11.3425
▁కొనసాగించారు	-11.3428
▁విభజ	-11.3431
కేంద్రంగా	-11.3432
▁సారంగ	-11.3433
విశ్వ	-11.3435
▁చెందారు	-11.3438
▁బాక్టీరియా	-11.3439
▁అశ్వమేధ	-11.3439
▁ఎలక్ట్రిక్	-11.3439
▁సరోజ	-11.3441
▁యుద్ద	-11.3441
▁మొత్త	-11.3442
నాళ	-11.3448
▁ఫర్డ్	-11.3448
▁హింసాత్మక	-11.3449
▁శిలాజ	-11.345
▁ఉపయోగించేవారు	-11.3456
▁భాగస్వాముల	-11.3456
▁సుమతీ	-11.3456
ెన్నో	-11.3457
▁విధుల	-11.3459
▁చేరుతుంది	-11.3459
▁గౌడ	-11.3462
▁గీస	-11.3465
బలిజ	-11.3467
▁గొట్టం	-11.3468
▁1918	-11.3468
▁చదువుతున్న	-11.3469
▁gra	-11.3471
▁ప్రపంచములో	-11.3473
▁information	-11.3473
▁ఇంటర్వ్యూ	-11.3473
▁పరశురామ	-11.3473
▁సోయాబీన్	-11.3473
▁సైప్రస్	-11.3473
▁మద్ది	-11.3473
▁ఇప్పటివరకు	-11.3475
▁లాక్	-11.3475
▁పెరుగుతాయి	-11.3476
▁స్వామివారికి	-11.3482
▁వృక్షం	-11.3483
▁స్థలాన్ని	-11.3483
▁దీర్ఘకాల	-11.3485
▁కాలేయ	-11.3486
▁చేర్చారు	-11.3487
▁లభి	-11.3488
▁అదృష్ట	-11.349
▁ఉద్యమాన్ని	-11.349
▁మెయిల్	-11.3494
▁ఇంకనూ	-11.3494
పర్రు	-11.3494
▁ప్రతిభను	-11.3497
▁దావా	-11.3498
▁మెచ్చ	-11.3502
▁రాజైన	-11.3505
▁1910	-11.3506
▁మున్నగు	-11.3507
▁క్షేత్రము	-11.3509
▁ఇంతవరకు	-11.351
▁UN	-11.3511
▁వధ	-11.3514
▁సర్వర్	-11.3515
ద్వీప	-11.3515
కీర్తి	-11.3516
ాదిత్య	-11.3517
ందరినీ	-11.3519
▁గురవ	-11.352
▁స్పష్టం	-11.3521
▁ఆశ్రయించ	-11.3521
▁పుష్పాలు	-11.3523
▁ఛాయాచిత్ర	-11.3523
▁షూటింగ్	-11.3524
వచన	-11.3531
▁అధికమైన	-11.3533
▁విచ్చేస	-11.3534
్యమైన	-11.3535
▁పిల్లి	-11.3535
కపోవచ్చు	-11.3538
సామర్ధ్య	-11.3538
▁వెంకటాపురం	-11.354
▁బ్రహ్మాండ	-11.354
▁విచార	-11.3542
▁వ్యూహాత్మక	-11.3542
అంత	-11.3545
▁ట్రస్ట్	-11.3546
▁పళ్ల	-11.3546
▁ఒంటి	-11.3552
▁నాటకాల్లో	-11.3552
వన్నీ	-11.3552
▁దశకం	-11.3554
▁నాడీ	-11.3556
ోన్నత	-11.3558
▁వాడుతున్నారు	-11.3564
▁బృందాలు	-11.3565
▁రైళ్ళు	-11.3567
తాళ	-11.3568
▁భూలోక	-11.3571
▁పూట	-11.3574
▁విషయమై	-11.3575
▁వరాహ	-11.3576
▁మొదలుపెట్టారు	-11.3577
▁సేవలకు	-11.3579
▁అట్టి	-11.3582
▁చట్టాన్ని	-11.3582
▁రైతులకు	-11.3582
AN	-11.3583
▁భీమా	-11.3584
రించు	-11.3584
▁టిప్పు	-11.3584
▁వ్యాసుడు	-11.3586
▁అభిమానం	-11.3586
▁నిర్వర్తించ	-11.3591
ల్లర్	-11.3592
నాయకుడు	-11.3594
▁ఉద్యోగాల	-11.3595
▁నడక	-11.3596
▁ఇవ్వబడిన	-11.3597
uth	-11.3598
▁కల్పిస్తుంది	-11.3598
▁సంభవించాయి	-11.3601
▁అబ్బాయి	-11.3603
తానని	-11.3606
▁తత్వవేత్త	-11.3608
కొద్ది	-11.3608
▁ఐసోటోపు	-11.3608
▁భైంసా	-11.3608
▁గ్రీక్	-11.3608
▁వస్తాడు	-11.3609
దేహ	-11.361
ark	-11.3612
ster	-11.3612
ration	-11.3614
డెడ్	-11.3615
▁వర్ణించాడు	-11.3615
▁గ్రహించిన	-11.3615
▁పూర్తిచేసి	-11.3616
▁భస్మ	-11.3617
▁స్కీ	-11.362
▁స్థాపించింది	-11.362
▁నశించ	-11.3622
▁మాండ	-11.3622
ండ్రు	-11.3623
గ్రాఫిక్	-11.3624
తుండ	-11.3624
▁ఎక్కువమంది	-11.3627
▁వేయబడింది	-11.363
▁తీసుకుంటారు	-11.3631
ార్జున	-11.3632
▁తేది	-11.3635
భారతి	-11.3637
▁సత్కరించ	-11.3637
▁చెల్లెలు	-11.3639
▁వెయ్య	-11.3642
▁నిర్లక్ష్య	-11.3642
▁విండోస్	-11.3642
▁పీఠభూమి	-11.3643
▁ప్రసన్న	-11.3645
▁ప్రదర్శించే	-11.3653
▁స్థలము	-11.3654
▁అందిస్తాయి	-11.3655
గై	-11.3655
▁ఉద్దేశించిన	-11.3656
▁గయ	-11.3656
▁ఆలోచ	-11.3657
▁స్వీకరించాడు	-11.3659
▁అసిస్టెంట్	-11.3659
▁మాంచెస్టర్	-11.3659
▁వ్యాఖ్యాత	-11.3662
▁కళాకారుడు	-11.3662
ందట	-11.3664
▁క్లాస్	-11.3664
ెడు	-11.3665
సైన్య	-11.3671
▁సిద్ధాంతాలు	-11.3674
వైశాల్య	-11.3675
▁విజయాల	-11.3676
కుంట్ల	-11.3676
▁కర్తవ్య	-11.3679
▁తండా	-11.368
పోకుండా	-11.3682
▁రాబోయే	-11.3683
ama	-11.3684
▁పెరూ	-11.3686
▁గవర్న	-11.3688
▁యువరాజు	-11.3688
uk	-11.369
▁భైర	-11.3691
▁రబీ	-11.3692
io	-11.3693
▁ప్రేక్షకులు	-11.3693
▁కోరారు	-11.3694
▁అమాయక	-11.3694
▁ఊపిరితిత్తుల	-11.3694
▁ప్రభావము	-11.3694
tre	-11.3696
▁ఆకర్షిత	-11.3699
▁అడగ	-11.37
▁శిర	-11.3703
▁సమాంతరంగా	-11.3706
▁పరిధితో	-11.3709
▁ప్రతినిధులు	-11.3709
▁కాంక్రీటు	-11.3711
▁కాలక్రమేణా	-11.3711
▁చిలకలూరిపేట	-11.3711
▁రిజిస్ట్రేషన్	-11.3711
▁లౌకిక	-11.3711
▁మర్యాద	-11.3711
▁అంతేకాదు	-11.3712
▁పట్టాభిషేక	-11.3712
▁జమీందార	-11.3713
▁స్పటిక	-11.3714
▁ఫైర్	-11.3714
▁హైదరాబాదులోని	-11.3715
దేవర	-11.3718
ములందు	-11.3719
▁చాప	-11.372
▁స్వాగత	-11.3721
రేజ్	-11.3723
▁శిబి	-11.3724
▁ప్రయత్నించాడు	-11.3725
బడుతున్నది	-11.3726
▁క్రమశిక్షణ	-11.3728
▁చెలరేగ	-11.3728
▁యూరప్	-11.3728
మండప	-11.3729
▁విల్లు	-11.373
▁తాజ్	-11.3731
జమ్	-11.3737
▁అధినేత	-11.374
▁పోతన	-11.374
సాధక	-11.3741
▁పాడుతూ	-11.3742
▁హిమాలయ	-11.3744
▁మూలాల	-11.3745
▁ఆక్సీకరణ	-11.3745
▁ఫస్ట్	-11.3745
▁మనస్తత్వ	-11.3748
▁అర్థము	-11.3748
▁సామ్రాజ్యానికి	-11.3751
▁ద్రావ	-11.3754
▁విదేశాల	-11.3762
▁కాళిదాసు	-11.3762
▁వుండటం	-11.3763
▁రచయిత్రి	-11.3763
▁సుదర్శన	-11.3767
ium	-11.3768
వృత	-11.3771
ుకోలేక	-11.3773
సాధన	-11.3775
ఫార్మ	-11.3776
స్వామివారి	-11.3779
▁తృప్తి	-11.378
▁ఆవిర్భావ	-11.378
▁ఆర్మూర్	-11.378
▁జాడ	-11.378
▁వాళ్లు	-11.3782
▁అంగుళాల	-11.3783
▁చట్టపరమైన	-11.3783
▁మ్యాన్	-11.3783
▁కల్పించింది	-11.3785
మెంట	-11.3786
▁బ్రతికి	-11.3786
▁ఖండించ	-11.3787
▁వయసులోనే	-11.3787
▁విభాగము	-11.3792
మొత్తం	-11.3793
ఖ్యాత	-11.3796
▁పొదల	-11.3798
▁మెరి	-11.3799
▁దీర్ఘకాలిక	-11.38
▁ప్రవేశపెట్టింది	-11.3802
▁అవసరము	-11.3804
కొత్త	-11.3806
▁యోధుల	-11.3806
▁ఉపదేశ	-11.3807
▁కేంద్రీకృతమై	-11.3808
▁రాజీ	-11.3809
tent	-11.3811
▁తదనంతరం	-11.3813
▁ప్రవహిస్త	-11.3814
▁నామము	-11.3814
▁వీక్షించ	-11.3816
▁పద్మశ్రీ	-11.3817
▁స్వాతంత్య్ర	-11.3821
▁అమర్	-11.3821
▁పచ్చని	-11.3822
▁సరసు	-11.3823
వచ్చింది	-11.3828
▁ధరించే	-11.3828
▁సఫల	-11.3828
▁వరస	-11.383
▁topic	-11.3832
ప్తి	-11.3839
bit	-11.384
క్రమణ	-11.384
నిచ్చే	-11.3843
▁వల్లభ	-11.3844
▁ఉపగ్రహాన్ని	-11.3845
▁ఉత్తమమైన	-11.3847
▁సంపాదించాడు	-11.3847
రెండు	-11.3848
నక్షత్ర	-11.3848
▁సాధిస్త	-11.3848
▁సామ్యవాద	-11.3849
▁సత్ర	-11.3851
ond	-11.3851
▁సమ్మె	-11.3852
▁గూడూరులో	-11.3856
ప్రభావ	-11.3859
▁కష్టాల	-11.386
▁మిడ్	-11.3862
▁గోవు	-11.3862
vel	-11.3862
▁గాఢత	-11.3864
వచ్చే	-11.3866
▁సియాటెల్	-11.3867
cl	-11.3867
▁ఇబ్బందుల	-11.3868
▁ఇయర్	-11.3872
bha	-11.3872
CA	-11.3875
యెన్	-11.3877
▁ఆరుద్ర	-11.3878
▁కొలవ	-11.3879
▁1911	-11.3881
▁ఏడుగురు	-11.3887
మూత	-11.3888
▁మూవీ	-11.3893
▁నగరాల్లో	-11.3893
▁కనిపించిన	-11.3899
▁ఐస్లాండ్	-11.3903
▁శివుడి	-11.3907
గమనం	-11.3912
▁అద్దం	-11.3912
▁కారణమైన	-11.3913
▁సహచర	-11.3914
▁మకర	-11.3916
▁అద్దంకి	-11.3917
▁న్యాయవాద	-11.3918
పదార్థాల	-11.3919
▁అసాధ్య	-11.3919
ko	-11.3919
▁చోదక	-11.392
▁స్థానికంగా	-11.392
▁శివరాత్రి	-11.3921
▁ముఖ్యపాత్ర	-11.3925
▁లోపలికి	-11.3926
▁text	-11.3928
▁సూచనలు	-11.3928
▁కూలీల	-11.393
దక్షిణ	-11.3931
▁వ్యవహరించాడు	-11.3934
▁350	-11.3936
▁కలశ	-11.3937
▁బందీ	-11.3941
▁రెండుసార్లు	-11.3942
▁ఉపాధ్యాయులు	-11.3946
రావుపేట	-11.3946
▁సంతతికి	-11.3947
▁మూసిన	-11.3951
▁పాడారు	-11.3952
▁డాక్టరేట్	-11.3954
▁నియామక	-11.3954
▁వివేకానంద	-11.3955
వేగం	-11.3957
▁ఎక్స	-11.3957
▁స్తంభాల	-11.3958
eng	-11.3958
▁మరణించింది	-11.3959
▁దేశములో	-11.396
▁పరిమితుల	-11.396
▁విభజింప	-11.3965
▁ధైర్య	-11.3967
▁అక్షరం	-11.397
▁వాజపేయి	-11.3972
▁అజ్ఞాత	-11.3972
▁అవశేషాలు	-11.3972
▁దిగుబడి	-11.3972
▁గల్ఫ్	-11.3972
9%	-11.3973
▁కిరణాల	-11.3976
▁పెట్రో	-11.3977
▁ఫ్రా	-11.3978
సంవత్సర	-11.3978
▁జనక	-11.3979
▁నిర్వహణా	-11.398
▁తట్టుకో	-11.3982
పడుతున్న	-11.3982
▁వెళ్లారు	-11.3983
▁కొప్ప	-11.3983
ition	-11.3984
▁గాయని	-11.3987
▁బలరామ	-11.3987
▁ఒంటరి	-11.3988
నాటక	-11.3988
హ్మ	-11.3989
▁రంధ్రముల	-11.3991
▁విద్వాంసు	-11.3998
▁క్షీర	-11.4001
చిన్న	-11.4002
టియా	-11.4008
▁వదిలివేయ	-11.4008
▁అర్ధము	-11.4008
▁పుట్	-11.4009
▁జియో	-11.4011
▁బాలకృష్ణ	-11.4011
స్తుంద	-11.4012
adv	-11.4013
ox	-11.4014
▁ఎక్కడా	-11.4014
▁నాన్న	-11.4015
▁Ca	-11.4017
▁దర్శించి	-11.4018
▁చింతల	-11.402
లేకుండా	-11.402
▁దత్తత	-11.402
▁శాం	-11.4022
▁మంత్రిత్వ	-11.4022
▁నేర్చుకున్నాడు	-11.4024
▁స్తంభం	-11.4025
▁చాంపియన్	-11.4025
▁వాయవ్య	-11.4025
▁తణుకు	-11.4025
▁ఏమాత్రం	-11.4025
▁కొలువై	-11.4028
▁విద్వాంసులు	-11.4029
▁బృహ	-11.403
▁సందర్శన	-11.403
▁గింజ	-11.403
మెత్త	-11.4032
▁తెలుసుకొని	-11.4032
▁తారా	-11.4032
▁లాభం	-11.4034
▁ఎముకల	-11.4035
▁ఎండి	-11.4044
400	-11.4045
ever	-11.4047
▁మలచ	-11.405
▁జన్మించ	-11.4053
వుంది	-11.4055
▁50%	-11.4057
▁కట్టుబడి	-11.4057
▁నర్సీపట్నం	-11.4059
పద్మ	-11.406
▁కిర్గిజిస్తాన్	-11.4061
▁జహీరాబాద్	-11.4061
▁తగ్గించడానికి	-11.4061
▁శాస్త్రజ్ఞులు	-11.4061
▁మోటారు	-11.4061
▁కెన్యా	-11.4061
▁గడియార	-11.4062
ిస్టులు	-11.4063
▁క్రీడాకారులు	-11.4067
▁తరంగాల	-11.4072
▁తత్వం	-11.4073
▁1925	-11.4074
ib	-11.4074
టట్లు	-11.4075
▁నిర్మించింది	-11.4079
▁నిర్మాణము	-11.4081
స్తంభ	-11.4081
▁చెప్పుకోవచ్చు	-11.4084
▁ఆచారాలు	-11.4084
▁Me	-11.4084
▁కుప్పం	-11.4087
▁మార్చడం	-11.4089
chi	-11.4095
▁కలిగివుండ	-11.4095
▁ప్రావీణ్య	-11.4096
▁ఉపాధ్యక్ష	-11.4104
ank	-11.4106
▁సేలం	-11.4107
▁5022	-11.4108
▁1916	-11.4109
▁పూర్తిస్థాయి	-11.4109
▁జరిపే	-11.411
గోపుర	-11.4114
▁జనసాంద్రత	-11.4114
▁సెంచరీ	-11.4114
▁తియ్య	-11.4114
▁భగత్	-11.4114
▁పొరల	-11.4115
▁స్కోర్	-11.4115
ju	-11.4116
▁అనువుగా	-11.4116
నిర్మాణం	-11.4117
▁తగ్గించడం	-11.4118
▁ఆసియన్	-11.412
▁బాక్స్	-11.4122
కాలిక	-11.4122
▁గుర్తించవచ్చు	-11.4126
▁నిర్మాతగా	-11.4128
▁పలకల	-11.4129
▁ఇవ్వబడ్డాయి	-11.4129
▁మొదలుపెట్ట	-11.4132
▁నెయ్యి	-11.4133
▁నెరవేర్చ	-11.4133
▁తెలియజేయ	-11.4134
▁సూర్యనారాయణ	-11.4134
▁నాగుల	-11.4135
చేసాడు	-11.4136
▁వర్షాకాల	-11.4137
▁అంశాలపై	-11.4141
▁గాయకులు	-11.4142
ship	-11.4143
▁నరసాపురం	-11.4149
▁సోషల్	-11.415
▁తత్	-11.4151
▁పెరుగుతూ	-11.4152
▁ప్లేట్	-11.4153
▁కుమారస్వామి	-11.4154
▁విరమించ	-11.4154
▁అరబ్బు	-11.4155
▁భూగోళ	-11.4156
▁షూ	-11.4157
▁పేపర్	-11.4158
▁పొందుతున్న	-11.4162
▁కోరింది	-11.4163
▁ప్రవహించి	-11.4163
▁సెక్యూరిటీ	-11.4168
ఎమ్	-11.4168
బద్ధంగా	-11.4169
▁కూర్పు	-11.4169
▁ప్రభావాలు	-11.417
▁స్నేహితులు	-11.4171
▁వారీగా	-11.4171
▁అమ్మవారికి	-11.4172
▁ముడిపడి	-11.4174
ttle	-11.4176
▁వ్యాపారులు	-11.4176
oo	-11.4176
▁జ్యోతిష	-11.4177
▁వివాదాల	-11.4183
▁జట్లు	-11.4184
▁పన్నుల	-11.4184
▁చేనేత	-11.4187
▁made	-11.4188
గలిగింది	-11.419
▁పోగు	-11.4191
▁ద్రావణం	-11.4192
▁తెలియక	-11.4193
▁ఉగ్ర	-11.4195
▁పట్టే	-11.4196
▁ఐరన్	-11.4198
out	-11.4198
▁ప్రజ్ఞ	-11.4199
▁వున్నాయి	-11.4202
ik	-11.4204
▁పార్లమెంటరీ	-11.4204
▁స్టీఫెన్	-11.4204
▁మధుమేహ	-11.4204
▁వాహకనౌక	-11.4204
▁షరతు	-11.4205
ుడవు	-11.4205
▁గురువారం	-11.4206
▁పొడిగించ	-11.4207
▁జరుగుతున్నాయి	-11.421
▁వృష	-11.4212
రైట్	-11.4215
ావస్థ	-11.422
▁ఈజిప్ట్	-11.4222
▁ముంబయి	-11.4222
▁క్రమము	-11.4223
▁తొడ	-11.4225
కొంద	-11.4227
▁సాగుతుంది	-11.4229
▁పురాణము	-11.4231
light	-11.4232
▁జెట్	-11.4234
▁అన్నయ్య	-11.4235
▁ప్రతిపాదించిన	-11.424
ానంతర	-11.424
పెనమలూరు	-11.424
▁ఉంగుటూరు	-11.424
▁మహబూబాబాద్	-11.424
▁వారణాసి	-11.424
▁శ్మశాన	-11.424
▁ప్రోగ్రాం	-11.424
▁మమ్మీ	-11.4241
ఆధారిత	-11.4241
▁కొనసాగించాడు	-11.4244
వ్యాప్తంగా	-11.4244
▁పర్యవేక్ష	-11.4245
CC	-11.4246
▁పట్టింది	-11.4246
ుకోలేదు	-11.4246
స్తుంటే	-11.425
▁ఉద్యమాలు	-11.4251
▁నోరు	-11.4252
▁ఉంచిన	-11.4254
▁హరిజన	-11.4256
▁వ్యత్యాసం	-11.4257
background	-11.4259
▁space	-11.4259
▁శ్లోకం	-11.4259
▁ఆస్ట్రియా	-11.4259
▁రికార్డింగ్	-11.4259
▁సెకన్ల	-11.426
▁అణువుల	-11.4262
IC	-11.4262
▁విద్యుద	-11.4264
చేస్తున్న	-11.4266
▁వార్తలు	-11.4266
▁పీఠం	-11.4267
▁పిట్ట	-11.4268
▁శాశ్వతంగా	-11.4269
▁గమనించి	-11.4271
▁కటకం	-11.4271
ock	-11.4273
▁డబుల్స్	-11.4275
▁పాలియోలిథికు	-11.4277
▁house	-11.4277
▁క్షేమ	-11.4277
▁ఎదుర్కొంటున్న	-11.4277
rat	-11.428
ప్రథమ	-11.4281
▁దిబ్బ	-11.4281
▁కట్టడాలు	-11.4281
▁మొలక	-11.4284
▁అస్త్ర	-11.4284
శిల్ప	-11.4285
▁నాట్లు	-11.4285
▁జగన్నాధ	-11.4286
▁నిలవ	-11.4286
▁నిర్ణయించుకున్న	-11.4287
▁రేసు	-11.4287
చేస్తారు	-11.4289
▁చంద్రుని	-11.429
▁వివాదాలు	-11.4291
▁cause	-11.4295
▁హయాంలో	-11.4295
put	-11.4297
ట్రాక్	-11.43
▁పోరాడి	-11.4302
ించుకున్న	-11.4302
జేశారు	-11.4302
చేసుకున్న	-11.4303
▁వినాశ	-11.4303
▁సంభవించే	-11.4308
Di	-11.4312
position	-11.4313
▁ఉపయోగిస్తున్న	-11.4314
▁ప్రక్కనే	-11.4315
▁విశిష్టమైన	-11.4315
▁యువకుల	-11.4316
aj	-11.4319
▁పొలం	-11.4322
సంబంధిత	-11.4324
▁ప్రతిజ్ఞ	-11.4325
▁దీన్	-11.4326
▁ముఖద్వార	-11.4326
▁1912	-11.4328
ఁగ	-11.4331
▁దూరము	-11.4331
▁క్రీడాకారుడు	-11.4332
▁లవ్	-11.4333
▁మిగిల	-11.4334
▁పూరీ	-11.4335
▁గుణము	-11.4339
▁తిథి	-11.4339
▁సంభవించింది	-11.4342
▁అధ్య	-11.4345
▁1,6	-11.4346
నౌక	-11.4348
▁వర్గానికి	-11.4349
▁ప్రయోజనాలు	-11.435
▁ఉండుట	-11.4351
▁సంరక్షించ	-11.4353
▁మారారు	-11.4353
▁చూడడానికి	-11.4354
▁వేగవంతం	-11.4355
▁కొంగ	-11.4356
▁మాడుగులలో	-11.4358
▁రంగానికి	-11.4359
▁దుకాణ	-11.4361
▁పోస్టు	-11.4362
▁మరణించే	-11.4366
ాల్లోనూ	-11.4368
▁water	-11.4368
▁బాంబే	-11.4368
▁తరిమి	-11.4368
▁తీసుకోవాలి	-11.437
పియన్	-11.437
▁వంటకాల	-11.4371
వారిపల్లె	-11.4373
▁రాయితీ	-11.4374
▁సోదరుల	-11.4375
▁దీర్ఘకాలం	-11.4378
▁లింగాల	-11.438
▁వేచి	-11.438
▁ప్రొడక్షన్స్	-11.4381
▁చాలాకాలం	-11.4381
▁భవిష్యత్	-11.4383
▁ఉద్యమానికి	-11.4383
▁అలోపతీ	-11.4385
▁చైనీయుల	-11.4386
▁అభినయ	-11.4388
▁అభిమానులు	-11.4391
▁కలిగివుంది	-11.4393
▁భావించే	-11.4395
▁పట్టించుకో	-11.4395
స్థాప	-11.4396
ావతి	-11.4397
▁కాంగో	-11.4399
▁రామస్వామి	-11.4399
▁1924	-11.4399
▁కలిసే	-11.4401
▁పట్టుకొని	-11.4402
▁పేర్కొంటారు	-11.4405
▁గాంచింది	-11.4405
▁స్తుత	-11.4406
పురాణ	-11.4406
▁బుధ	-11.4408
▁పోషణ	-11.4411
▁మరోసారి	-11.4413
▁నిర్మల	-11.4416
▁మల్లె	-11.4418
▁లక్ష్మణ్	-11.4418
▁when	-11.4423
▁భూపాలపల్లి	-11.4424
▁శక్తులు	-11.4425
వాదుల	-11.4426
▁మొదలయిన	-11.4426
▁రోజులపాటు	-11.4427
▁ఉద్యోగాలు	-11.4428
▁నయం	-11.443
▁పిఎస్	-11.4431
▁అక్షాంశ	-11.4431
press	-11.4436
▁నిర్వహించడానికి	-11.4436
▁వర్తించ	-11.4437
▁చంద్రశేఖర	-11.4438
com	-11.4438
ోత్సవాల	-11.4439
▁number	-11.4442
▁తయారి	-11.4442
▁విధులు	-11.4442
▁చేస్తు	-11.4442
▁నిర్వచనము	-11.4443
▁ఆదేశించ	-11.4443
▁పెట్టుకుని	-11.4443
▁వాసుదేవ	-11.4443
▁అరబ్బీ	-11.4445
▁శ్రీనివాసరావు	-11.4446
▁ప్రాచ్య	-11.4446
▁dec	-11.4447
▁సన్నివేశాల	-11.4447
▁దేవేంద్ర	-11.4449
▁ప్రతిపత్తి	-11.445
▁నౌకాశ్రయ	-11.4457
▁వాయిస్	-11.4457
▁టెక్సాస్	-11.446
▁ప్రోటీన్	-11.446
▁సమృద్ధి	-11.4461
▁నిదర్శనం	-11.4462
దీప్	-11.4462
▁సారవంతమైన	-11.4462
తక్కువ	-11.4464
▁ముప్పు	-11.4464
▁తయారుచేసి	-11.4466
▁పొందుపరచ	-11.4468
▁కోల్పోయింది	-11.4468
▁కలిగించింది	-11.4468
▁ప్రాంతపు	-11.447
▁బందరు	-11.447
చోట్ల	-11.4473
emb	-11.4474
men	-11.4475
▁ఎద్దు	-11.4476
▁కోసి	-11.4479
▁అభ్యుదయ	-11.4479
▁గమనార్హం	-11.4479
▁రాజమహేంద్రవరం	-11.4479
▁శ్రావణ	-11.4479
▁మేనేజర్	-11.4479
▁వెళ్ళింది	-11.4479
▁అంతకుముందు	-11.448
పధ	-11.4483
▁దీపాల	-11.4484
▁సత్యాగ్రహం	-11.4485
▁నడుము	-11.4487
తీర్థ	-11.4493
▁స్టీల్	-11.4494
తనము	-11.4495
▁పోషించింది	-11.4496
▁అయ్యి	-11.4496
▁హాకీ	-11.4497
▁అయ్యర్	-11.4497
▁ప్యూర్టో	-11.4498
▁దశరథ	-11.4498
▁సీరియల్	-11.4501
▁రూరల్	-11.4501
▁స్థలాలు	-11.4502
వెంట	-11.4502
▁రంపచోడవరం	-11.4504
▁విగ్రహాలను	-11.4504
▁అణువులు	-11.4504
▁సమయాలలో	-11.4505
▁సత్యాగ్రహ	-11.451
▁అనుకో	-11.451
▁గంభీర	-11.4515
▁తీర్థం	-11.4515
▁ప్రవాస	-11.4516
▁ఖరీదైన	-11.4516
▁ధ్వజస్తంభ	-11.4516
▁సంభోగ	-11.4516
▁కిరణాలు	-11.4517
రిచ్	-11.4521
▁కారాగార	-11.4521
▁కేసుల	-11.4521
మిచ్చి	-11.4523
▁పొందుతారు	-11.4527
▁చీఫ్	-11.453
▁ప్రజల్లో	-11.4534
▁కలుషిత	-11.4535
▁ప్రతిరోజూ	-11.4535
▁తాడికొండ	-11.4535
▁చక్రవర్తుల	-11.4535
▁పండిట్	-11.4535
▁నిబంధనలు	-11.4537
▁రాణించ	-11.4538
బ్రాహ్మణ	-11.4538
▁క్షీణత	-11.4538
▁లేకపోతే	-11.4539
▁కాలపు	-11.4539
▁బారిన	-11.4545
▁గెలుచ	-11.455
▁ప్రచురించింది	-11.455
ఇంటర్మీడియట్	-11.4553
▁సంకర	-11.4557
సాగింది	-11.4557
▁గజపతి	-11.4557
▁1830	-11.456
▁రామదాసు	-11.4561
over	-11.4562
▁అధికారంలోకి	-11.4563
▁కోరుతూ	-11.4569
▁శారదా	-11.4572
▁లావాదేవీ	-11.4572
▁కమ్యూనికేషన్	-11.4572
▁చదివారు	-11.4572
▁హెచ్చరించ	-11.4572
▁దక్షిణాది	-11.4574
▁5334	-11.4575
▁ద్రోణుడు	-11.4577
▁చిలీ	-11.4579
ెక్కడ	-11.4585
లేకపోయాడు	-11.4588
▁తగ్గిస్తుంది	-11.4589
▁అద్భుతంగా	-11.4591
▁ఫ్యాక్టరీ	-11.4591
▁about	-11.4591
▁మట్టానికి	-11.4591
▁తేలి	-11.4593
▁సున్నితమైన	-11.4595
ుకొంటారు	-11.4605
వాడైన	-11.4605
▁మెయిన్	-11.4606
▁తీర్మానం	-11.4608
▁గెలాక్సీ	-11.461
▁ఫోటోగ్రఫీ	-11.461
▁ధర్మనందనా	-11.461
▁శూద్ర	-11.461
▁ప్రదేశానికి	-11.461
▁బృహత్తర	-11.461
▁మెరుపు	-11.461
▁చేరువ	-11.4611
▁విష్ణుమూర్తి	-11.4613
ఊ	-11.4613
ink	-11.4615
▁ప్రతిష్ఠాత్మక	-11.4615
మృగ	-11.4616
కలాప	-11.4616
▁కోయిల	-11.4617
▁కూర్చో	-11.4618
▁మిగుల	-11.4623
▁క్రియా	-11.4625
▁ఏర్పడ్డ	-11.4625
ili	-11.4628
▁విశ్వాసాల	-11.4629
▁గర్భగుడి	-11.4629
▁కదిరి	-11.4629
▁him	-11.4632
▁చేపట్టి	-11.4633
పర్వత	-11.4635
చంద	-11.4636
▁Man	-11.4636
▁కథనాలు	-11.464
▁కార్డ్	-11.464
న్నిటినీ	-11.4641
▁వలసదారుల	-11.4643
▁ఇంచుమించు	-11.4647
పూర్తి	-11.4652
▁పడగొట్ట	-11.4652
పండు	-11.4653
▁ల్యాప్	-11.4656
▁కంబ	-11.466
▁అనుసంధానించ	-11.4661
▁ఫలితాల	-11.4665
▁వేణు	-11.4665
▁ఆస్ట్రేలియన్	-11.4666
▁మునిసిపల్	-11.4666
▁మైక్రోసాఫ్ట్	-11.4666
▁కెనడియన్	-11.4666
▁మంగోలియా	-11.4667
gin	-11.4668
▁ఎదిరించ	-11.4668
▁శ్రీశ్రీ	-11.4672
MD	-11.4674
▁కోరిన	-11.4676
▁Be	-11.4678
▁వేముల	-11.4684
▁తాత్విక	-11.4685
▁హుకుంపేట	-11.4685
గ్రహణం	-11.4691
▁మల్టీ	-11.4692
▁గుణాల	-11.4697
▁20%	-11.4697
▁కనుమల	-11.4698
▁ఎదుర్కొన్నాడు	-11.4699
ake	-11.4701
▁ఉద్దేశించ	-11.4701
▁పురస్కారాల	-11.4702
▁చుట్టి	-11.4703
పప్పు	-11.4703
▁సంపాదకుడు	-11.4704
▁అభిరుచి	-11.4704
▁కంట్రోల్	-11.4704
ull	-11.4707
నైట్	-11.4708
▁మెరుగుపరచ	-11.4715
▁లొంగి	-11.4716
▁మాతృభాష	-11.4718
▁వినయ	-11.472
▁గుంతకల్లు	-11.4723
▁appears	-11.4723
▁కార్యనిర్వాహక	-11.4723
సమయ	-11.4723
▁ఫుడ్	-11.4725
▁నరికి	-11.4727
▁నిర్వచనం	-11.4727
▁గీతాల	-11.4728
▁ఆశ్రయం	-11.4728
▁విశ్వామిత్ర	-11.4731
▁భాగవతం	-11.4732
▁సమాంతర	-11.4733
▁శిష్యులు	-11.4733
▁రాగము	-11.4736
▁జావా	-11.4738
▁ఓడల	-11.4739
▁డయాక్సైడ్	-11.4743
▁జనాదరణ	-11.4743
▁మగధ	-11.4745
▁కళాత్మక	-11.4746
▁విగ్రహాల	-11.4747
సృ	-11.4749
avi	-11.475
▁గాయం	-11.4751
ారనే	-11.4753
▁సన్యాసుల	-11.4754
300	-11.4757
▁గంగాధర	-11.4758
▁నైజీరియా	-11.4761
▁ఫ్రాన్సిస్కో	-11.4764
▁దెబ్బతిన్న	-11.4764
▁లక్ష్యాన్ని	-11.4767
▁పరిపాలించిన	-11.4769
▁నొక్క	-11.4769
హృద	-11.4772
▁విలియమ్స్	-11.4774
▁పూజిస్తారు	-11.4777
▁ఇథియోపియా	-11.4781
▁బృహస్పతి	-11.4781
▁లిథువేనియా	-11.4781
▁సంతరించుకుంది	-11.4781
▁హనుమంతరావు	-11.4781
▁పల్లవుల	-11.4784
▁చౌక	-11.4788
▁చేరే	-11.4793
▁క్లిష్ట	-11.4797
▁కంటికి	-11.4799
▁period	-11.48
▁అచ్చంపేట	-11.4801
▁పెడతారు	-11.4801
పోలి	-11.4803
▁భయపడి	-11.4806
▁చక్రాల	-11.481
▁పెంచడం	-11.481
▁ప్రవేశించారు	-11.4813
▁గుండ్రంగా	-11.4814
▁నిలయ	-11.4814
▁గద్య	-11.4818
▁చేయబడతాయి	-11.4821
▁ప్రసిద్ధమైన	-11.4829
▁1905	-11.4831
▁మొదలుపెట్టి	-11.4832
▁రూపాయి	-11.4837
▁శివరావు	-11.4838
▁between	-11.4838
▁high	-11.4838
▁తెలియజేస్తుంది	-11.4838
▁సారూప్య	-11.4838
▁విభాగాలుగా	-11.4839
పహాడ్	-11.4839
▁విలక్షణ	-11.484
▁గోచర	-11.484
ాన్సీ	-11.4842
▁శ్రేయ	-11.4843
▁హ్యారీ	-11.4844
▁జార్జియా	-11.4845
శాంతి	-11.4848
▁ప్రమాదకరమైన	-11.4849
▁స్నేహితు	-11.4851
బడుచున్న	-11.4852
▁ప్రాణాల	-11.4857
▁క్లోరిన్	-11.4858
▁నియమించబడ్డాడు	-11.4859
పట్టణం	-11.4866
▁చేయుదురు	-11.4867
▁వస్తుంటారు	-11.4869
▁రంగాల	-11.4872
▁రాజన్న	-11.4872
▁కూర్చున్న	-11.4874
▁కోణాల	-11.4874
▁ఇండస్ట్రీ	-11.4877
▁హెచ్చరిక	-11.4877
▁ప్రకాష్	-11.4877
▁ఉదహరించ	-11.4877
0°	-11.4877
▁5332	-11.488
▁విద్యార్ధుల	-11.4882
•	-11.4884
నాట్య	-11.4884
▁వేగాన్ని	-11.4886
▁హర్ష	-11.4887
షైర్	-11.4889
▁ప్రమాదకర	-11.4895
▁ఆలోచనా	-11.4896
▁కనిష్ఠ	-11.4896
▁స్థితిగతుల	-11.4897
▁ఆర్డర్	-11.4899
▁ద్రవిడ	-11.49
ోత్తమ	-11.4901
▁చూడటానికి	-11.4903
▁ఎవరికీ	-11.4904
▁యజ్ఞము	-11.4906
▁చెప్పడానికి	-11.4906
సూచి	-11.4908
▁రాజకీయాల్లో	-11.4911
▁ఇదొక	-11.4912
రంభ	-11.4913
▁ఆసుపత్రుల	-11.4915
▁యాభై	-11.4915
▁వేణుగోపాల	-11.4916
▁కంభం	-11.4916
ద్రవ	-11.4919
▁స్వీకరించిన	-11.4919
▁ఇస్తూ	-11.492
▁సమాజాల	-11.4921
▁శంకరాచార్య	-11.4921
బోతున్న	-11.4922
ెక్కి	-11.4923
▁ఎవరికి	-11.4923
▁వేశ్య	-11.4925
ress	-11.4925
▁విరిగి	-11.4925
ఫ్యూ	-11.4927
▁కంచు	-11.4928
▁అంగీకరించాడు	-11.4928
శుద్ధి	-11.4931
పృ	-11.4933
▁గుండ్ర	-11.4934
▁ఇన్నింగ్స్	-11.4935
▁సువార్త	-11.4935
▁ఏకాంత	-11.4936
▁స్వప్న	-11.4936
▁లిబియా	-11.4937
▁తయారుచేస్తారు	-11.4937
ప్పె	-11.4937
for	-11.4939
▁సారథి	-11.4939
▁గంగానది	-11.494
▁పనిచేయడం	-11.4942
బృంద	-11.4942
▁1500	-11.4946
జొ	-11.4947
▁మిసిసిపీ	-11.4954
▁పూర్తయిన	-11.4954
▁చూపింది	-11.4955
▁ఢీ	-11.4955
లూర్	-11.4959
▁విశ్వనాధ	-11.4962
▁వృత్తుల	-11.4963
▁వెతుక	-11.4964
▁80%	-11.4964
▁అంగీకరించారు	-11.4965
దలచ	-11.4966
దోష	-11.4969
ండేవి	-11.497
బెర్గ్	-11.4972
▁పెట్టుకొని	-11.4973
▁people	-11.4974
▁అల్పసంఖ్యాక	-11.4974
▁దృక్పథ	-11.4974
▁రెస్టారెంట్	-11.4974
ననుసరించి	-11.4974
▁పుట	-11.4974
▁క్లే	-11.4975
▁లక్ష్మీదేవి	-11.4977
▁give	-11.4978
▁శంకరుల	-11.4978
▁బతిక	-11.4987
▁1908	-11.4987
▁సంపాదించిన	-11.499
▁పోల్	-11.4994
వెళ్ల	-11.4995
▁ఉదయగిరి	-11.4996
▁విక్షనరీ	-11.4998
జేసి	-11.4999
▁మంగోల	-11.4999
▁కప్పబడి	-11.501
▁ఇబ్రహీం	-11.5012
lat	-11.5013
▁అనుభూతి	-11.5013
▁ఫెడరేషన్	-11.5013
▁large	-11.5014
▁ప్రసిద్ధిచెందిన	-11.5014
▁వధువు	-11.5015
▁ఖుర్	-11.5015
ki	-11.502
▁ముట్టడి	-11.5022
▁మెటల్	-11.5023
ఉంటుంది	-11.5026
cy	-11.5029
lass	-11.503
పుచ్చ	-11.503
▁అవకాశాన్ని	-11.503
▁నిర్మించడం	-11.5031
▁అధికరించ	-11.5032
▁అడ్డతీగల	-11.5033
▁దూరదర్శన్	-11.5033
▁బద్వేలు	-11.5033
6,000	-11.5033
▁సంప్రదాయక	-11.5034
▁విశ్వసిస్తున్న	-11.5035
▁ఇళ్ల	-11.5036
▁పొడవునా	-11.5037
▁నియమించాడు	-11.5039
పేర్	-11.5039
ండేవారు	-11.504
▁ప్రవేశించాడు	-11.504
గురించి	-11.5045
▁యాగం	-11.5047
▁ఫుల్	-11.5049
▁అలహాబాద్	-11.5052
▁గురుత్వాకర్షణ	-11.5052
▁కనుమరుగ	-11.5052
▁సంగ్	-11.5054
▁ఫొటో	-11.5054
మళ్ళ	-11.5055
▁నౌకాశ్రయం	-11.5056
▁కాంస్య	-11.5057
▁తెలివి	-11.5058
▁మొట్ట	-11.5061
▁షట్	-11.5063
▁ఉబ్బ	-11.5064
ఉప	-11.5066
▁పక్షము	-11.5067
▁విశిష్టత	-11.5068
లేకపోయారు	-11.5068
▁విద్యాలయం	-11.5072
▁బ్యాంకింగ్	-11.5072
▁115	-11.5072
▁సీరీస్	-11.5072
రోహిణి	-11.5072
▁కొల్లిపర	-11.5073
▁long	-11.5073
▁ప్రవచన	-11.5076
form	-11.5077
▁రంజ	-11.5077
▁వేమూరు	-11.5079
ోద్యోగ	-11.5079
రచయిత	-11.5082
▁నక్షత్రము	-11.5082
▁వేళ్ళ	-11.5083
ుతుంటే	-11.5085
▁తాత్కాలికంగా	-11.5086
▁విధాల	-11.5088
▁ప్రయత్నించిన	-11.5089
▁మొగ్గు	-11.509
▁పర్య	-11.509
▁అపార	-11.5091
▁ప్రళయ	-11.5092
rain	-11.5092
▁సంక్రమించ	-11.5092
▁ట్యాంకు	-11.5093
▁వ్యక్తిగతంగా	-11.5094
▁ఆడియో	-11.5095
▁కుమారుడి	-11.5096
▁పదమూడ	-11.5096
▁పుష్పించే	-11.5096
వాళ్ల	-11.5098
▁కలుపుతూ	-11.5099
▁హోలీ	-11.51
గోళం	-11.5102
▁తెచ్చింది	-11.5107
▁సెకండ్	-11.5113
▁సరియైన	-11.5114
▁చర్చల	-11.5115
▁ధర్మవరం	-11.5115
▁పట్టుదల	-11.5118
ారనీ	-11.5118
ible	-11.5119
కారక	-11.5122
▁తామర	-11.5122
తనాన్ని	-11.5124
తీరంలో	-11.5125
▁సదుపాయాల	-11.5128
ాలయాలు	-11.5129
▁ఆమ్లాన్ని	-11.5129
▁ఉగ్రవాద	-11.513
▁సుభాష్	-11.5131
▁అరవింద	-11.5132
▁ఎన్నికై	-11.5132
▁రేగు	-11.5134
▁సొరంగ	-11.5136
▁many	-11.5137
▁దేవరకొండ	-11.5137
▁తొలగించడం	-11.514
వియన్	-11.514
▁గమనిక	-11.5141
దృష్టి	-11.5142
▁సాధ్యపడ	-11.5143
వ్యాధుల	-11.5143
▁క్రిమి	-11.5143
▁మహావిష్ణువు	-11.5151
▁లంబాడీ	-11.5151
▁మార్షల్	-11.5151
గురువు	-11.5151
త్రయం	-11.5152
▁జోగి	-11.5153
▁పిలువబడుతుంది	-11.5156
atch	-11.5158
▁సత్కార	-11.516
సముద్ర	-11.5162
ాశ్వ	-11.5164
▁శోధన	-11.5166
▁ప్రయాణించే	-11.5168
▁called	-11.5171
▁హర్యానా	-11.5171
▁వారసులు	-11.5177
▁పొన్నూరు	-11.5181
▁సూచించింది	-11.5182
NS	-11.5182
తేజ	-11.5183
▁ములుగు	-11.5184
▁శిబిరాల	-11.5184
▁సైన్యాలు	-11.5185
▁సమావేశాలు	-11.5187
▁జోగులాంబ	-11.5191
▁తాడిపత్రి	-11.5191
▁మిలిటరీ	-11.5191
▁మధ్యధరా	-11.5191
▁దండెత్తి	-11.5193
DA	-11.5194
▁విత్తన	-11.5196
▁పూర్వీకుల	-11.5196
▁ఒప్పందాన్ని	-11.5208
▁యెక్క	-11.521
▁ఐశ్వర్య	-11.5211
▁నలభై	-11.5211
▁సత్తెనపల్లి	-11.5211
▁నిరాకరణ	-11.5211
error	-11.5212
Cl	-11.5217
▁పరిమాణాన్ని	-11.5219
▁తగల	-11.5222
▁హౌరా	-11.5226
▁గన్న	-11.523
▁క్రమబద్ధ	-11.523
భాగము	-11.5231
▁రమేష్	-11.5231
▁కజకస్తాన్	-11.5231
▁వృషణ	-11.5233
▁పక్షాల	-11.5234
▁సాధించడానికి	-11.5235
▁కన్నె	-11.524
▁శాస్త్రవేత్తల	-11.5245
▁తీపి	-11.5246
మ్యా	-11.5248
▁ఆరోపణల	-11.525
▁గువేరా	-11.5251
▁సర్పంచ్	-11.5251
▁వివాహము	-11.5254
▁భేదం	-11.5257
▁నౌకల	-11.5259
▁fl	-11.526
▁మాదిరి	-11.5263
FS	-11.5264
▁ప్రసారాల	-11.5267
▁ఏజెన్సీ	-11.5271
▁నిమగ్న	-11.5271
▁ముంచింగిపుట్టు	-11.5271
▁ఆళ్వారు	-11.5271
▁తెలియజేస్తున్న	-11.5271
▁ఎస్టేట్	-11.5271
సాక్షాత్	-11.5271
▁127	-11.5272
▁‘‘	-11.5272
▁మినహాయించ	-11.5272
▁135	-11.5272
▁జరిగిందని	-11.5273
▁స్థానికులు	-11.5281
▁హద్దు	-11.5287
▁పోప్	-11.5287
▁రచనల్లో	-11.5289
▁ఊపిరి	-11.5291
▁దురదృష్ట	-11.5291
▁ఉద్దేశ్య	-11.5292
▁వ్యర్ధ	-11.5293
▁తోడేళ్ళ	-11.5293
▁వైశ్య	-11.5295
ease	-11.5303
▁మార్చింది	-11.5304
▁బాబ్	-11.5306
▁చేసుకున్నాయి	-11.5306
▁వంపు	-11.5308
పిండి	-11.5311
▁స్క్వేర్	-11.5311
▁ప్రతిరోజు	-11.5312
▁స్థలాల	-11.5316
▁మట్టం	-11.5317
▁మిట్ట	-11.5319
▁రూజ్	-11.5322
▁అక్షాంశం	-11.533
▁ద్వాదశ	-11.5331
▁డిస్ట్రిక్	-11.5332
▁కొమర	-11.5338
ature	-11.534
▁హరిత	-11.5342
▁కాళ్ళు	-11.5343
సమాజ	-11.5344
uch	-11.5345
▁పీచు	-11.5346
▁కీర్తనలు	-11.5347
▁తరగతులు	-11.5349
▁స్థిరపడ	-11.5349
▁భాగాన	-11.5349
▁వ్యాపించింది	-11.5351
▁యక్షగాన	-11.5352
▁సికింద్రాబాదు	-11.5352
▁పారదర్శక	-11.5352
▁రొట్టె	-11.5352
▁ముస్లిముల	-11.5352
▁ఆస్పత్రి	-11.5352
▁సామగ్రి	-11.5352
▁తొలగింపు	-11.5353
▁same	-11.5355
▁అప్పటినుండి	-11.536
▁వీర్య	-11.536
▁తరాల	-11.5362
▁తెరవ	-11.5368
▁సార్వ	-11.5371
▁మల్లికార్జున	-11.5372
▁మురళీ	-11.5372
▁పింగళి	-11.5372
ోత్పత్తి	-11.5372
▁అనాథ	-11.5373
▁అందించడానికి	-11.5376
▁శిష్యుడు	-11.5379
▁జింకు	-11.538
▁చేసుకుంటారు	-11.5385
హ్లాద	-11.539
▁కంబోడియా	-11.5392
▁ఫ్యూర్టో	-11.5392
▁మైఖేల్	-11.5392
లాజికల్	-11.5392
▁బుధవారం	-11.5392
▁చవిచూ	-11.5392
▁చతురస్ర	-11.5393
▁అధిష్టించ	-11.5393
▁కశ్యప	-11.5393
▁తీసుకెళ్ల	-11.5393
▁క్రై	-11.5393
use	-11.5395
బుచ్చ	-11.5395
▁గుర్రాలు	-11.5398
▁మధ్యాహ్నం	-11.5406
▁కల్పిత	-11.5407
సంహార	-11.5408
800	-11.5411
▁ధూళి	-11.5413
▁విత్తిన	-11.5413
▁ఫ్లోరైడ్	-11.5413
▁పారిపో	-11.5414
▁ఏదీ	-11.5415
▁టైగర్	-11.5417
▁ఎడిటర్	-11.5418
▁ఒకరైన	-11.5418
▁కొయ్యూరు	-11.5418
▁రూపొందించాడు	-11.542
▁ఉంచుతారు	-11.5422
ాధికారులు	-11.5425
aga	-11.5428
▁సాంబ	-11.543
▁1800	-11.5431
▁గుండెపోటు	-11.5433
▁పెదకాకాని	-11.5433
▁ఉయ్యాలో	-11.5433
▁న్యూఢిల్లీ	-11.5433
▁కదిలే	-11.5434
▁new	-11.5437
▁known	-11.5437
▁చక్క	-11.5438
SI	-11.5444
▁నాటకీయ	-11.5444
ేసరికి	-11.5446
భారతదేశ	-11.5449
▁టైమ్	-11.5453
▁అభిప్రాయాలు	-11.5453
▁పాలకొల్లు	-11.5453
▁ప్రతాపరుద్ర	-11.5453
▁కత్తిరించ	-11.5456
▁మైదానాల	-11.5461
▁సూరి	-11.5463
▁తరలించాలని	-11.5463
▁1901	-11.5467
పాదిస్తున్నారు	-11.5469
▁ఒలింపిక్స్	-11.547
▁అనంతర	-11.547
▁గ్రౌండ్	-11.5474
▁word	-11.5474
▁కింగ్డమ్	-11.5474
▁తపాలా	-11.5474
tha	-11.5475
వాహక	-11.5475
▁మెప్పించ	-11.5479
▁దర్శకుల	-11.548
▁అవకాశ	-11.548
▁అనుభవాల	-11.5485
▁ఎద్దుల	-11.5487
▁తెప్పించ	-11.5492
▁స్థిరపడి	-11.5493
ిస్తానని	-11.5494
▁సైన్సెస్	-11.5494
▁మహో	-11.5494
▁కళాఖండాల	-11.5496
vid	-11.5498
▁అనురాగ	-11.5498
▁చేయవలసిన	-11.5499
▁చేరుకుంటుంది	-11.55
▁బ్లూస్	-11.5501
▁జరగడం	-11.5507
▁చేరుకున్నాడు	-11.5512
▁రైల్వేస్టేషను	-11.5515
▁పటిష్ఠ	-11.5515
▁హేతువాద	-11.5515
▁ఉగాది	-11.5517
app	-11.5517
▁చీల్చ	-11.5522
▁1913	-11.553
బడిందని	-11.5533
▁చిత్రీకరించారు	-11.5535
▁ఉదజని	-11.5536
▁commit	-11.5536
పరిగణించబడుతుంది	-11.5538
▁నిండు	-11.5538
▁చోటుచేసుకు	-11.5539
▁ఉమర్	-11.554
▁గడిపాడు	-11.5542
▁పెంచడానికి	-11.5542
▁దూత	-11.5543
▁అయ్యప్ప	-11.5544
▁చెవుల	-11.5548
ఉపయోగించబడుతుంది	-11.5549
▁హతమార్చ	-11.5557
▁పనిముట్ల	-11.5559
▁స్వలింగ	-11.5561
నాటికీ	-11.5568
▁గుర్తింప	-11.5571
▁అన్నదమ్ముల	-11.5577
▁సులువుగా	-11.5577
▁ఇత్తడి	-11.5577
▁ప్రవర్త	-11.5577
▁నౌకాదళ	-11.5578
▁ఏమైనా	-11.5579
▁నంబర్	-11.5579
▁కురుక్షేత్ర	-11.5582
leg	-11.5582
▁pra	-11.5583
▁సంహిత	-11.5589
cha	-11.5589
▁కలాం	-11.5594
▁మొగల్	-11.5595
ప్రకాశ	-11.5598
HTML	-11.5598
▁భాజపా	-11.5598
▁చిరునామా	-11.5598
▁బ్యూరో	-11.5598
▁సనాతన	-11.5598
▁వలయం	-11.5598
▁సిల్వర్	-11.5598
▁అపూర్వ	-11.5598
▁చెప్పబడిన	-11.5601
▁మాస్టర్స్	-11.5605
▁విపత్తు	-11.5607
▁స్వాధీన	-11.5608
▁కారకాల	-11.5608
▁పద్యము	-11.5608
పరీక్ష	-11.5613
▁మొత్తానికి	-11.5613
▁చెల్లె	-11.5615
▁మారాడు	-11.5616
▁థియ	-11.5616
▁తుంగభద్ర	-11.5619
▁ప్రాదేశిక	-11.5619
▁ఎనర్జీ	-11.5619
▁ఉదర	-11.5619
▁నలుమూలల	-11.5619
▁అతీత	-11.5619
▁5322	-11.5622
▁తెలప	-11.5623
▁రతి	-11.5625
▁కాన్సర్	-11.5626
వినియోగ	-11.5629
▁జట్ల	-11.5629
▁కప్పి	-11.5629
▁వహిస్తున్నాయి	-11.563
▁అంశంపై	-11.5633
తర్వాత	-11.5634
డిసెంబరు	-11.5635
▁ప్రతిష్ఠా	-11.5635
పత్తు	-11.5636
▁అసమాన	-11.5636
▁For	-11.5637
▁పోటీల్లో	-11.5639
▁రిజర్వేషన్	-11.5639
▁విమోచన	-11.5639
▁కరాచీ	-11.5639
▁అహంకార	-11.5641
▁జానకి	-11.5641
▁పిలిపించ	-11.5641
డానికీ	-11.5641
▁ఆదిత్య	-11.565
▁కుమ్మరి	-11.5653
▁అవుతున్న	-11.5656
విద్యుత్	-11.5656
▁కమల్	-11.5657
సృష్టి	-11.5658
▁ఫ్లోరిడా	-11.566
▁Con	-11.5661
▁పెట్టుకున్న	-11.5662
చార్	-11.5666
▁ఆవుల	-11.5669
▁మహాదేవ	-11.5669
▁అనంతపురంలోనూ	-11.5675
▁మాధ్యమాల	-11.5681
▁మంత్రిత్వశాఖ	-11.5682
▁సూచిస్తాయి	-11.5683
భుజ	-11.5699
▁సెక్రటరీ	-11.5702
▁రక్తపోటు	-11.5702
▁స్కాటిష్	-11.5702
▁ప్రాధమిక	-11.5702
▁పరమపదించ	-11.5702
▁వ్యాపారవేత్త	-11.5703
▁పేటెంట్	-11.5703
▁జగత్తు	-11.5705
▁మిత్రులు	-11.5706
▁సెక్షన్	-11.5711
దీక్ష	-11.5714
▁1,8	-11.572
వయసు	-11.572
▁ఇంగ్లండు	-11.5723
▁పురాతత్వ	-11.5723
▁లెబనాన్	-11.5723
వేయడం	-11.5724
▁తనదైన	-11.5725
ల్యూషన్	-11.5726
▁బ్యాట్స్	-11.5727
ాశ్రయ	-11.5727
▁జరిగ	-11.5731
పడతారు	-11.5734
▁విశ్వామిత్రుడు	-11.5736
▁రావటం	-11.5736
▁ఆభరణాలు	-11.5741
▁ప్లాట్	-11.5744
▁పనిచేస్తాయి	-11.5744
▁తీశారు	-11.5746
▁సూచిస్తున్నాయి	-11.5749
▁సమయాల్లో	-11.575
ారన్న	-11.5753
▁సుధా	-11.5754
▁యువకులు	-11.5757
▁చరిత్రకారుల	-11.5761
▁కాల్పనిక	-11.5765
▁చుట్టుముట్ట	-11.5766
▁గడువు	-11.5769
▁ఆగమ	-11.5769
▁నిర్ణయించింది	-11.577
▁తిరుగుబాటుదారుల	-11.5771
▁ఉండేదని	-11.5772
▁కేబుల్	-11.5776
▁బెస్ట్	-11.578
▁చెందడం	-11.5781
▁సల్ఫైడ్	-11.5786
▁తీసుకెళ్ళ	-11.5787
▁ఫ్రి	-11.5787
▁హీరోయిన్	-11.5787
▁జన్మించి	-11.5789
▁మహేంద్ర	-11.5791
▁ధనిక	-11.5798
▁ఉపయోగిస్తుంది	-11.5801
▁అణిచి	-11.5802
▁నారదుడు	-11.5802
▁బంధించి	-11.5805
▁భక్తుడు	-11.5807
▁సమాజానికి	-11.5808
▁బురుజు	-11.5808
▁పదకొండు	-11.5808
▁గుజ్జు	-11.5808
ిద్దరి	-11.581
▁అంతరిక్షంలో	-11.5816
▁పర్యవేక్షించ	-11.5817
▁శాసనము	-11.5817
▁స్రావ	-11.5819
▁సిస్ట	-11.5822
▁లౌ	-11.5825
dra	-11.5828
▁where	-11.5829
▁పరిశుభ్ర	-11.5829
▁శైలుల	-11.5829
▁డైరక్ట	-11.5829
▁బెర్లిన్	-11.5831
▁these	-11.5833
▁రీతుల	-11.5834
పౌర	-11.5835
ER	-11.5836
▁సహచరుల	-11.5837
▁కంక	-11.5841
▁అక్షయ	-11.5843
హక్కు	-11.5843
ాకృతి	-11.5843
▁కలిగిఉన్న	-11.5844
ేసారు	-11.5844
సరిహద్దు	-11.5847
▁దృష్ట్యా	-11.585
▁వాయిద్యాల	-11.5855
▁నీళ్లు	-11.5856
▁ధనవంత	-11.5856
▁నాగేంద్ర	-11.5856
వ్రా	-11.5858
▁ఫేర్	-11.5858
పక్క	-11.5859
▁ఉద్ద	-11.5859
▁మొదలుపెట్టాడు	-11.5862
▁criteria	-11.5871
▁కామన్వెల్త్	-11.5871
▁formatt	-11.5872
▁copie	-11.5873
▁వినియోగదారులకూ	-11.5874
raM	-11.5887
▁భృగు	-11.5893
▁పదిహేను	-11.5893
▁గుర్రపు	-11.5893
▁రుజువు	-11.5893
▁శ్రోతల	-11.5893
▁మాసపత్రిక	-11.5893
▁గేజ్	-11.5894
▁గుండ్ల	-11.5894
ింగ్టన్	-11.5895
▁చుండూరు	-11.5895
▁అమృతలూరు	-11.5897
చేసుకో	-11.5897
▁వెన్నెల	-11.5899
▁ఎదుర్కొన్నారు	-11.5902
▁కనబడుతుంది	-11.5904
వస్తువు	-11.5913
▁కాంగ్రేసు	-11.5914
▁చురుకైన	-11.5914
▁సమర్థవంతంగా	-11.5915
కారణంగా	-11.5919
▁నిజాము	-11.5919
▁కేదార	-11.5924
▁మూసివేయ	-11.5924
[...]
