<unk>	0
<s>	0
</s>	0
.	-3.11389
▁	-3.26064
,	-3.77296
ం	-4.01077
ర్	-4.35756
న	-4.39096
ల	-4.43979
వ	-4.5115
ర	-4.58907
ని	-4.65562
క	-4.69611
ా	-4.76133
▁అ	-4.80028
లు	-4.81431
త	-4.83192
లో	-4.86759
మ	-4.90511
య	-4.93695
ి	-5.00878
ప	-5.04299
స్	-5.06539
ూ	-5.12028
స	-5.12927
ు	-5.13774
ే	-5.13887
▁నుండి	-5.16085
▁కి	-5.1844
రి	-5.20111
ీ	-5.20186
న్	-5.22694
గా	-5.25886
▁క	-5.26403
▁ప	-5.2671
కు	-5.28693
ట	-5.29397
గ	-5.31891
ను	-5.33815
ో	-5.33883
రు	-5.3418
▁ఉన్నాయి	-5.36933
▁మీ	-5.37199
ల్	-5.37849
▁ఆ	-5.40121
ె	-5.42279
క్	-5.44511
డ	-5.45112
▁ఉంది	-5.46282
్	-5.4834
ము	-5.50287
ద	-5.50953
▁గ్రామం	-5.54153
▁మ	-5.54937
▁స	-5.54953
▁వ	-5.57242
▁దూరంలో	-5.6035
ారు	-5.63913
ణ	-5.64842
▁ఈ	-5.65726
ై	-5.67749
లి	-5.67813
▁10	-5.69584
హ	-5.7374
▁వి	-5.7486
రా	-5.75926
ంలో	-5.76858
▁కా	-5.77707
▁ప్ర	-5.80104
ది	-5.80874
ంగా	-5.81569
కి	-5.82627
డి	-5.83248
▁5	-5.86435
▁గ్రామంలో	-5.87065
జ	-5.88876
తి	-5.89153
టి	-5.8974
ధ	-5.91452
వా	-5.92797
ట్	-5.93821
వి	-5.94681
▁న	-5.95122
న్న	-5.96136
భ	-5.96579
శ	-6.00738
▁మరియు	-6.01299
▁ఎ	-6.01684
▁జ	-6.04909
డు	-6.05182
యా	-6.06435
1	-6.06498
▁బ	-6.06794
▁ఒక	-6.08241
▁ఇ	-6.09242
▁గ	-6.09375
సి	-6.09673
ాలు	-6.10636
0	-6.11868
చ	-6.12787
▁చ	-6.12971
▁కేంద్రం	-6.13218
▁చే	-6.15784
మా	-6.16215
a	-6.17537
▁త	-6.19148
e	-6.19296
బ	-6.204
▁సమీప	-6.20487
క్ష	-6.22818
6	-6.2404
ొ	-6.24714
వు	-6.25473
ష	-6.2623
ాల	-6.26916
2	-6.27019
s	-6.27868
▁లో	-6.28854
నా	-6.28889
▁ని	-6.28984
త్	-6.29203
ాడు	-6.30753
లా	-6.30821
ించ	-6.31134
తో	-6.33806
నే	-6.34646
8	-6.35055
ంది	-6.36328
డ్	-6.38043
9	-6.38838
-	-6.39081
3	-6.39098
▁హ	-6.39118
4	-6.40474
▁1	-6.40502
గు	-6.40513
5	-6.40697
t	-6.4076
ాన్ని	-6.41103
పు	-6.42143
7	-6.42149
i	-6.42206
ులు	-6.42472
▁ర	-6.44173
కా	-6.44344
దు	-6.44442
▁పా	-6.44662
▁కూడా	-6.45046
త్ర	-6.46365
ానికి	-6.47334
ంద	-6.49775
ంత	-6.5069
▁ద్వారా	-6.51241
తు	-6.5149
మి	-6.54437
థ	-6.54767
మైన	-6.54862
ాయి	-6.54973
్య	-6.5511
▁పాఠశాల	-6.56046
ంట	-6.56337
పా	-6.58021
▁ద	-6.58254
▁ఉ	-6.59938
సు	-6.6061
▁మా	-6.61192
రీ	-6.61302
▁సౌకర్యం	-6.6132
ళ	-6.61581
:	-6.62818
ృ	-6.6318
ల్ల	-6.64897
o	-6.65651
▁19	-6.65872
u	-6.67001
రణ	-6.68443
▁పైబడిన	-6.69128
▁ప్రభుత్వ	-6.69172
▁సంఖ్య	-6.69304
యు	-6.6964
టు	-6.6967
▁జిల్లా	-6.6975
ుల	-6.70656
▁కళాశాల	-6.74325
▁వా	-6.74398
రో	-6.74821
ండ	-6.75062
నీ	-6.75757
యం	-6.7662
▁భ	-6.76753
▁సరఫరా	-6.77288
▁ఉన్న	-6.7784
రం	-6.78434
్యా	-6.78606
దా	-6.78891
▁2	-6.79802
▁కొ	-6.79826
▁"	-6.80968
ైన	-6.81224
m	-6.81268
ష్	-6.81354
l	-6.81449
ిక	-6.81597
ుడు	-6.82098
▁నా	-6.82168
ండ్	-6.82714
ౌ	-6.82734
ంగ	-6.83211
c	-6.83416
లను	-6.838
▁శ	-6.83891
ప్ప	-6.84103
ట్ట	-6.84154
ప్	-6.85069
ిన	-6.85075
క్క	-6.85951
d	-6.8614
సా	-6.86712
▁వే	-6.87785
▁యొక్క	-6.89618
▁వ్యవస్థ	-6.89619
ద్	-6.89835
చి	-6.90768
మ్మ	-6.9081
▁సి	-6.91264
▁ఏ	-6.92361
p	-6.92752
త్త	-6.94069
▁సా	-6.9442
లలో	-6.94471
▁పరి	-6.94722
▁గ్రామానికి	-6.94907
డం	-6.9543
వే	-6.95576
చే	-6.95828
▁రహదారి	-6.96228
▁సం	-6.96647
ంచ	-6.96661
▁లేదు	-6.96755
ింది	-6.97095
▁ఇది	-6.98125
హా	-6.9833
▁20	-6.98347
▁రా	-6.98623
జ్	-6.99762
h	-7.00618
గి	-7.00882
ందు	-7.01491
▁చె	-7.02037
తా	-7.0236
గ్	-7.02584
▁ఫ	-7.03545
చ్చ	-7.04583
లోను	-7.05933
▁బా	-7.07318
▁పి	-7.08198
▁స్	-7.08272
▁పో	-7.08627
ంగ్	-7.09464
చు	-7.09938
▁ప్రాథమిక	-7.11594
ఖ	-7.12059
య్య	-7.12167
▁మండల	-7.13421
ద్ద	-7.14082
▁వె	-7.14511
▁ఆరోగ్య	-7.15567
యి	-7.15998
స్థ	-7.16033
ూరు	-7.17145
▁వీ	-7.17255
▁లే	-7.17314
ించిన	-7.17454
▁ఎక్కువ	-7.17842
▁గు	-7.18882
▁వ్యవసాయ	-7.19162
ఫ	-7.19227
▁సామాజిక	-7.19318
▁పె	-7.19503
పై	-7.19685
▁కు	-7.20276
▁పు	-7.20558
ించి	-7.20679
▁ము	-7.22296
▁-	-7.22363
మ్	-7.22781
n	-7.2288
▁రాష్ట్ర	-7.24017
లోనూ	-7.24174
▁3	-7.2422
పో	-7.24335
టీ	-7.24942
▁చేయ	-7.25614
▁వైద్య	-7.25765
▁కో	-7.26119
▁విద్యా	-7.26394
"	-7.26415
▁లోపు	-7.26634
▁తన	-7.26839
బ్	-7.26864
ధి	-7.28416
రే	-7.28418
ద్ధ	-7.28578
▁గా	-7.28647
▁సమ	-7.2934
జా	-7.29432
▁ప్రైవేటు	-7.30129
లే	-7.31685
ఘ	-7.31756
▁తె	-7.32544
ించారు	-7.32998
ాలను	-7.33046
y	-7.33443
▁కింది	-7.33475
కొ	-7.33525
స్తా	-7.35282
లకు	-7.35478
ంతో	-7.35992
దేశ	-7.36121
▁అనే	-7.36272
;	-7.36323
ళ్ళ	-7.36581
▁భూ	-7.36622
లె	-7.36859
▁పాటు	-7.37746
ష్ట	-7.3821
స్తు	-7.38626
ద్ర	-7.39106
▁ప్రధాన	-7.39284
దే	-7.40061
జి	-7.4082
00	-7.40884
▁రాజ	-7.41944
పి	-7.41954
▁అను	-7.42145
ంబ	-7.42383
్యూ	-7.43049
b	-7.43068
▁సు	-7.43118
▁శా	-7.43437
▁ఇం	-7.43822
'	-7.43939
శి	-7.44455
▁చి	-7.44793
▁బి	-7.45045
g	-7.45516
టా	-7.4568
▁ఇతర	-7.457
▁నీరు	-7.45825
▁సినిమా	-7.46434
▁కంటే	-7.46798
▁వారి	-7.47052
ప్ర	-7.47313
డా	-7.47706
కో	-7.47834
er	-7.47959
లీ	-7.48654
r	-7.48862
▁అని	-7.49763
▁/	-7.50056
▁లా	-7.50553
▁కలిగి	-7.50569
డానికి	-7.51704
▁తరువాత	-7.52159
▁చెందిన	-7.5242
▁ఉప	-7.52558
బ్బ	-7.53031
ధ్య	-7.53211
▁దేశ	-7.53274
లతో	-7.53651
▁సంస్థ	-7.53678
w	-7.53702
▁విద్యుత్	-7.54211
in	-7.54395
ాలలో	-7.54474
మే	-7.54874
జీ	-7.55141
▁4	-7.55685
తీ	-7.55791
ించాడు	-7.55815
▁స్వ	-7.55867
బడ	-7.55994
దర్శ	-7.56215
యో	-7.56538
ియన్	-7.5674
▁కోడ్	-7.58063
▁బ్యాంకు	-7.58378
తే	-7.58429
▁7	-7.58887
త్య	-7.59104
▁బస్సు	-7.59106
f	-7.59234
▁దీని	-7.59521
▁ఉన్నారు	-7.59787
ండి	-7.60201
ట్టి	-7.6026
▁భారత	-7.60494
▁జనగణన	-7.61324
▁ఆయన	-7.61752
▁శ్రీ	-7.6177
▁ఆసుపత్రి	-7.619
▁వారం	-7.61932
▁వాణిజ్య	-7.62231
▁కాల	-7.62259
▁పబ్లిక్	-7.62383
దీ	-7.62736
త్రి	-7.63022
▁ఒకటి	-7.63053
▁పథకం	-7.6362
ల్లో	-7.63731
ట్టు	-7.6385
శా	-7.64136
▁ఫోన్	-7.64167
▁లేదా	-7.64379
▁ప్రకారం	-7.64405
▁షెడ్యూల్డ	-7.64444
▁వైద్యశాల	-7.65077
కాల	-7.65397
▁ప్రా	-7.65412
▁గ్రామ	-7.65469
▁తా	-7.65469
మీ	-7.6574
స్థాన	-7.65941
షి	-7.66176
▁గంటల	-7.66397
రె	-7.6693
ద్య	-7.67044
పూర్	-7.6724
▁ప్రతి	-7.67355
న్నాయి	-7.67578
ుతుంది	-7.67618
▁మి	-7.67654
శ్ర	-7.67773
▁ఆఫీసు	-7.68399
▁జా	-7.68432
▁కోసం	-7.68554
▁ఖ	-7.68578
▁రెండు	-7.68823
▁స్టేషన్	-7.69063
▁పోస్టాఫీసు	-7.69798
▁చిత్ర	-7.69943
an	-7.70314
▁రోజు	-7.70636
ుకున్న	-7.70906
▁అంద	-7.71055
పల్లి	-7.71371
▁ప్రత్యేక	-7.71784
▁ఐ	-7.72035
కార	-7.72132
▁అభివృద్ధి	-7.72834
▁నగర	-7.73538
బా	-7.74219
▁మొదలైన	-7.74454
▁మధ్య	-7.74514
v	-7.74548
డే	-7.74687
▁·	-7.74694
గ్ర	-7.74944
▁తీ	-7.75183
▁ఉండ	-7.75202
▁మె	-7.75251
▁ఒ	-7.75824
టె	-7.76108
ంటే	-7.76164
ించే	-7.76336
▁పేరు	-7.77507
A	-7.77925
ar	-7.78221
చార	-7.78306
▁వ్యవసాయానికి	-7.78613
ించింది	-7.78689
ిస్తున్న	-7.78983
▁నె	-7.79051
on	-7.79193
▁పొ	-7.79585
బు	-7.80422
▁రోడ్లు	-7.80721
▁డిగ్రీ	-7.81433
వచ్చు	-7.81835
▁the	-7.81891
ప్పుడు	-7.82033
▁జాతీయ	-7.82802
▁పద	-7.83001
/	-7.8329
▁చెప్ప	-7.83786
or	-7.83984
▁అంత	-7.8409
ధార	-7.8416
ణి	-7.84766
▁తిరిగి	-7.85682
▁భాగ	-7.86142
▁నుంచి	-7.86399
▁వై	-7.86803
▁కుటుంబ	-7.87014
బడింది	-7.87023
▁చాలా	-7.8717
ళ్ల	-7.87711
S	-7.8817
▁దేవ	-7.88275
k	-7.89047
▁18	-7.89408
▁రైల్వే	-7.89768
ట్లు	-7.89858
en	-7.89947
▁నీటి	-7.90343
▁కొన్ని	-7.90398
▁వంటి	-7.90793
ఫ్	-7.91278
చ్	-7.91508
ఠ	-7.91509
▁ప్రాంతాల	-7.92206
శాస్త్ర	-7.9239
▁విధంగా	-7.92631
▁పొంద	-7.93106
చ్చి	-7.93285
▁ఉంటుంది	-7.93408
▁ఓ	-7.93454
ులను	-7.93673
వ్య	-7.94255
క్రమ	-7.94961
▁మొ	-7.95215
▁వ్యా	-7.95231
al	-7.95803
▁జరుగుతోంది	-7.9583
▁పెద్ద	-7.95944
స్ట్	-7.96372
తాయి	-7.9643
▁తెలుగు	-7.96601
▁సె	-7.9699
▁విజయ	-7.97039
శ్వ	-7.97562
ుకో	-7.97662
కుండా	-7.97938
వ్వ	-7.98045
▁సంత	-7.98048
మో	-7.98461
at	-7.9915
▁ఆమె	-7.99261
డె	-7.99622
is	-7.99933
▁ఉత్పత్తి	-8.00782
▁ఏడాది	-8.01001
▁అనేక	-8.02141
re	-8.0255
పెట్ట	-8.02627
C	-8.03366
త్తు	-8.03414
స్తుంది	-8.04259
▁ప్రారంభ	-8.05616
th	-8.0569
▁మురుగునీటి	-8.06062
▁అందుతుంది	-8.06353
▁పౌర	-8.06824
ుతున్న	-8.07419
▁వరకు	-8.07878
▁ముఖ్య	-8.08144
▁పొడుగునా	-8.08159
రావు	-8.08196
కృష్ణ	-8.08272
st	-8.08755
▁దాని	-8.08824
▁భాష	-8.09576
వాడు	-8.09711
▁మహా	-8.10988
ed	-8.11086
▁ప్రజల	-8.1154
I	-8.12039
▁అయిన	-8.12515
ులకు	-8.12833
▁కాలువల	-8.13412
▁స్వయం	-8.13574
యోగ	-8.13587
ిస్తారు	-8.13615
పురం	-8.13765
▁ప్రపంచ	-8.14154
M	-8.14169
ఞ	-8.1451
త్తి	-8.14558
భాగ	-8.1465
గ్రహ	-8.14899
▁బ్ర	-8.14924
▁of	-8.14999
బడిన	-8.15203
▁2011	-8.15449
▁భావ	-8.15596
▁వృత్తి	-8.15672
▁మంది	-8.15936
▁విస్తరించి	-8.16142
▁వాటి	-8.16625
▁ఆఫ్	-8.16867
▁బహిరంగ	-8.17103
▁శిక్షణ	-8.17286
▁మొదటి	-8.17302
▁బె	-8.17402
%	-8.17441
రాజు	-8.17837
ఛ	-8.18404
▁సహకార	-8.18584
▁సంబంధ	-8.18764
▁జరుగుతుంది	-8.19006
▁సంఘం	-8.19582
▁కొరకు	-8.20396
▁నమోదు	-8.21296
▁ప్రవహిస్తుంది	-8.21354
▁రవాణా	-8.21385
ాలకు	-8.21865
▁అతని	-8.21918
▁పశు	-8.21983
▁మాధ్యమిక	-8.22154
▁సామాన్య	-8.22181
▁గణాంకాల	-8.22209
▁ఉండే	-8.22261
▁డాక్టర్లు	-8.22878
▁మురుగునీరు	-8.23738
▁బృందం	-8.24037
le	-8.24658
▁చిన్న	-8.25207
▁ఇక్కడ	-8.25296
▁ఔషధ	-8.25319
▁కేంద్రాలు	-8.25324
▁చేసిన	-8.25512
▁కార్యాలయం	-8.25761
▁సౌకర్యాలు	-8.26381
▁రూప	-8.26964
▁సంరక్షణ	-8.27313
అ	-8.27382
▁కులాల	-8.27389
▁వినియోగం	-8.27441
▁ఆటల	-8.27492
▁తెగల	-8.27769
▁సొసైటీ	-8.28009
▁సంపూర్ణ	-8.28088
▁శిశు	-8.28217
▁సహాయక	-8.28404
▁లైన్	-8.28417
▁దూరం	-8.2856
▁జనన	-8.28565
▁సేవా	-8.2858
▁రామ	-8.28811
▁ప్రత్యామ్నాయ	-8.29297
పేట	-8.29696
▁ఆటో	-8.29857
▁సైన్స్	-8.29977
ేంద్ర	-8.30231
▁ప్రాథమికోన్నత	-8.30333
▁మైదానం	-8.3038
▁గ్రామాల	-8.30554
▁బాలల	-8.30654
▁సబ్	-8.3106
▁గ్రంథాలయం	-8.31188
▁కార్యకర్త	-8.31321
▁ఇంటర్నెట్	-8.31501
▁నిమిత్తం	-8.31531
▁సంక్షేమ	-8.31604
▁ప్రాంతం	-8.31654
▁వార్తాపత్రిక	-8.31695
▁జనాభా	-8.31913
50	-8.32143
▁మొబైల్	-8.32196
ాల్లో	-8.32288
▁మరణాల	-8.32295
▁ఆర్ట్స్	-8.32553
▁పంపిణీ	-8.32631
ic	-8.32684
▁సంచార	-8.32701
▁మార్కెటింగ్	-8.32761
▁లొకేషన్	-8.32796
▁వనరుల	-8.328
▁మగవారి	-8.33325
▁జనాభాతో	-8.33327
▁ఉత్తర	-8.33382
▁క్రి	-8.33615
▁యుద్ధ	-8.33721
▁ఆడవారి	-8.33773
▁పారామెడికల్	-8.33777
▁ఆశా	-8.33896
▁రీడింగ్	-8.33954
▁హెక్టార్లలో	-8.34112
▁రూం	-8.34154
▁మార్కెట్	-8.34161
లేదు	-8.34174
▁పోలింగ్	-8.3418
▁జూనియర్	-8.34196
▁ఇళ్లతో	-8.34352
రెడ్డి	-8.34735
▁పారిశుధ్య	-8.34835
▁వీధుల	-8.34885
▁టెలిఫోన్	-8.35058
▁అంగన్	-8.35089
▁వాడీ	-8.35098
▁మాతా	-8.35403
▁పోస్ట్	-8.35749
▁ఉత్పాదక	-8.35868
▁కొరియర్	-8.36549
▁కెఫె	-8.36612
▁చేస్తున్నారు	-8.36903
▁పోషకాహార	-8.36921
▁గృహావసరాల	-8.37226
▁పక్కనే	-8.37422
▁తర్వాత	-8.37437
▁సేకరించే	-8.37522
బడ్డ	-8.37645
▁ముందు	-8.37713
▁వస్తువులు	-8.37971
▁కంకర	-8.38039
▁ఇంటింటిక	-8.38127
▁అవసరాల	-8.38257
▁పరపతి	-8.38266
▁అనియత	-8.38296
▁సమీకృత	-8.38409
▁వ్యర్థాలను	-8.38431
▁బయోగ్యాస్	-8.38745
▁మరుగుదొడ్డి	-8.38884
▁దివ్యాంగ	-8.39019
▁ఏటీఎమ్	-8.39056
▁డిస్పెన్సరీ	-8.39065
▁అలోపతి	-8.39103
ేషన్	-8.3913
▁పాలీటెక్నిక్	-8.39279
▁చెత్తను	-8.39481
▁అధిక	-8.3957
▁టెలిగ్రాఫ్	-8.39806
▁భారతదేశ	-8.39847
▁పట్టణమైన	-8.39899
▁పారబోస్త	-8.39946
ెంట్	-8.40211
కృత	-8.40254
▁తిరు	-8.40577
▁చేతిపంపుల	-8.40778
▁కేంద్రమైన	-8.41162
▁మూడు	-8.41207
P	-8.41322
▁మేనేజిమెంటు	-8.41356
▁దక్షిణ	-8.41385
▁వలన	-8.41853
ింప	-8.41883
▁బాలబడి	-8.41899
▁అమలవుతోంది	-8.43172
▁విషయ	-8.44047
▁సాధారణ	-8.4434
ప్పటికీ	-8.44462
▁ఉంటాయి	-8.4462
▁కిలోమీటర్ల	-8.45471
▁యూ	-8.45638
▁కుళాయిల	-8.46181
▁సంవత్సరాల	-8.46183
▁వ్యక్త	-8.46343
ri	-8.46606
T	-8.47394
▁అసెంబ్లీ	-8.47779
స్వామి	-8.48031
▁సంగీత	-8.48221
▁ఆలయ	-8.48354
▁అయితే	-8.48564
కొండ	-8.48763
ఎ	-8.49234
▁రోజువారీ	-8.49372
▁నిర్మించ	-8.49466
▁గుండా	-8.495
ఆ	-8.49517
ిస్తుంది	-8.49557
▁నిర్వహించ	-8.49577
ro	-8.49584
|	-8.49821
శతాబ్ద	-8.50354
▁గురించి	-8.5041
▁జీవ	-8.50996
D	-8.51036
▁అవుతున్నాయి	-8.51393
▁దూరంలోనూ	-8.51453
ప్రాంత	-8.51806
▁పూర్తి	-8.52485
▁వెళ్ళ	-8.52964
▁అధికార	-8.53074
▁మొత్తం	-8.53433
▁ఇంజనీరింగ్	-8.53816
B	-8.53884
ార్థ	-8.54243
ేవారు	-8.54468
ing	-8.54747
ాబాద్	-8.54854
▁తెలంగాణ	-8.55088
ేశ్వర	-8.56656
▁ఉపయోగ	-8.56732
▁ఆంధ్ర	-8.57158
▁సంవత్సరం	-8.57275
ఊ	-8.57654
▁ఫ్ర	-8.5776
▁ఉపయోగించ	-8.57781
▁అంటారు	-8.57924
▁సమయంలో	-8.58006
!	-8.58513
=	-8.59794
▁ఎన్నిక	-8.59965
▁నిర్మాణ	-8.59989
బంధ	-8.60885
▁ఏర్పడ	-8.6161
▁జరిగిన	-8.62433
ఖ్య	-8.63879
▁తీసుకు	-8.64596
▁నేరుగా	-8.64778
▁పార్టీ	-8.65884
▁సాధించ	-8.65889
▁మాత్రమే	-8.65961
▁to	-8.66419
ుతూ	-8.66496
▁మార్గ	-8.67026
▁ప్రస్తుత	-8.67229
▁ప్రముఖ	-8.67355
▁జన్మ	-8.67492
▁ప్రవేశ	-8.68865
▁అక్కడ	-8.68911
▁and	-8.69029
▁వచ్చిన	-8.69235
▁అతను	-8.69506
▁మార్చ	-8.70955
▁మంచి	-8.70993
N	-8.7103
▁శుద్ధి	-8.71632
ుకొని	-8.71636
)	-8.71877
▁చరిత్ర	-8.71921
E	-8.72932
▁తక్కువ	-8.73233
▁తిరుగుతున్నాయి	-8.73416
▁ఇద్దరు	-8.73788
▁గుర్తించ	-8.74165
చంద్ర	-8.74679
▁మంచినీటి	-8.74713
▁మొదల	-8.75696
▁జీవిత	-8.75988
▁రక్షిత	-8.76236
▁తూర్పు	-8.76587
▁ధర్మ	-8.76967
▁విధాన	-8.77469
▁స్త్రీ	-8.79133
▁సముద్ర	-8.79501
వనరుల్లోకి	-8.79666
▁తయారు	-8.79897
▁శక్తి	-8.80298
▁ఇందులో	-8.80507
ఢ	-8.81097
▁అందుబాటులో	-8.81168
▁సేవ	-8.81267
▁వివిధ	-8.81549
▁ట్రాక్టర్లు	-8.82234
▁వాడేందుక	-8.82263
▁చేశారు	-8.82351
▁సభ్య	-8.83918
▁సంస్కృత	-8.84257
▁వదులుతున్న	-8.84285
R	-8.84306
H	-8.84877
▁భారతీయ	-8.86048
U	-8.86222
▁తగ్గ	-8.87352
▁విడుదల	-8.87751
▁రాజకీయ	-8.88099
▁రెండవ	-8.88646
▁బావుల	-8.89848
▁ఆర్థిక	-8.90461
▁చూప	-8.91161
పల్లె	-8.91646
▁నాలుగు	-8.91951
నారాయణ	-8.92484
▁నాటక	-8.92991
▁ఏర్పాటు	-8.9327
▁స్థాపించ	-8.94369
▁అమెరికా	-8.94531
ఉ	-8.9482
L	-8.96259
x	-8.98076
F	-8.99654
O	-9.04857
?	-9.05414
W	-9.06064
ఇ	-9.08322
G	-9.14403
’	-9.19199
•	-9.19842
ః	-9.20521
V	-9.23738
j	-9.30846
‘	-9.30893
ఋ	-9.42609
K	-9.43555
}	-9.45446
ఒ	-9.493
{	-9.51388
ఁ	-9.51846
°	-9.54313
_	-9.5632
”	-9.58976
ఏ	-9.65121
ఔ	-9.97756
ఐ	-10.1603
ఈ	-10.3126
ఓ	-10.7231
·	-14.4278
