<unk>	0
<s>	0
</s>	0
.	-2.68211
,	-3.33484
▁	-4.27734
లో	-4.71117
▁నుండి	-4.75608
▁కి	-4.77268
ం	-4.78511
▁ఉన్నాయి	-4.9628
▁మీ	-5.03299
▁ఉంది	-5.05882
▁గ్రామం	-5.13288
లు	-5.19362
▁దూరంలో	-5.1981
ను	-5.27877
▁ఈ	-5.28539
▁10	-5.29659
ని	-5.36271
ల	-5.45293
▁గ్రామంలో	-5.46553
గా	-5.47696
ు	-5.50787
కు	-5.52799
న	-5.5994
▁మరియు	-5.60801
▁5	-5.63725
స్	-5.70347
ి	-5.7517
▁కేంద్రం	-5.77152
వ	-5.80362
▁ఆ	-5.82052
▁సమీప	-5.83092
▁ఒక	-5.84264
ా	-5.91505
ము	-5.95387
ర్	-5.9578
క	-5.98304
▁కూడా	-6.02527
న్	-6.04435
్	-6.04836
తో	-6.0636
ాలు	-6.07815
▁ద్వారా	-6.09574
కి	-6.10347
ాన్ని	-6.19064
▁సౌకర్యం	-6.2076
ల్	-6.22092
ర	-6.22165
▁లో	-6.24385
త	-6.25003
-	-6.27346
మ	-6.27507
▁సంఖ్య	-6.28308
▁పైబడిన	-6.28607
▁అ	-6.28617
▁పాఠశాల	-6.30431
▁కళాశాల	-6.32495
ంగా	-6.32706
రు	-6.34564
ే	-6.3556
▁జిల్లా	-6.36455
▁"	-6.38917
▁ప్రభుత్వ	-6.38991
క్	-6.40454
రి	-6.45947
▁యొక్క	-6.49143
▁వ్యవస్థ	-6.49974
ారు	-6.51984
ట్	-6.52431
▁గ్రామానికి	-6.54005
▁లేదు	-6.54668
ప	-6.55158
▁రహదారి	-6.55402
▁ఇది	-6.56026
వి	-6.56754
▁సరఫరా	-6.59172
:	-6.60237
ది	-6.60391
ానికి	-6.61303
▁ఉన్న	-6.61721
▁వి	-6.64799
గ	-6.66133
ట	-6.6846
ుడు	-6.69398
రా	-6.69538
▁ప్రాథమిక	-6.70797
స	-6.7179
లను	-6.73102
▁ఆరోగ్య	-6.7373
నే	-6.74054
▁సామాజిక	-6.78082
మైన	-6.79318
ాల	-6.80004
ిన	-6.80176
డ్	-6.80697
ాడు	-6.82862
▁తన	-6.84064
ింది	-6.84875
▁లోపు	-6.8568
▁వైద్య	-6.85757
య	-6.86672
డ	-6.87727
నా	-6.87843
"	-6.88399
▁క	-6.88446
పు	-6.88784
▁ప్రైవేటు	-6.89146
▁వ	-6.89671
▁కింది	-6.91064
▁అని	-6.92084
లా	-6.921
▁పాటు	-6.9295
లి	-6.93482
ులు	-6.93721
ంలో	-6.94007
s	-6.94057
▁ఎక్కువ	-6.94122
;	-6.97052
▁మ	-6.99145
డి	-6.99681
ద	-7.01709
▁ఇతర	-7.03179
మా	-7.04352
▁ప్రధాన	-7.04585
▁నీరు	-7.04875
▁విద్యా	-7.05249
▁కంటే	-7.05456
డం	-7.05829
▁/	-7.07707
▁-	-7.07873
సి	-7.08048
▁వ్యవసాయ	-7.08189
▁కు	-7.0857
▁న	-7.09105
▁చెందిన	-7.09512
కా	-7.09545
ాలను	-7.10421
▁ప	-7.12091
పై	-7.12202
ాయి	-7.12802
ీ	-7.13447
టి	-7.13638
▁అనే	-7.15697
డు	-7.15816
▁సినిమా	-7.16444
▁బ్యాంకు	-7.16691
మి	-7.16763
▁విద్యుత్	-7.17187
▁కోడ్	-7.17209
▁ఉన్నారు	-7.17305
▁ఎ	-7.17439
▁తరువాత	-7.17933
▁బి	-7.1868
▁ని	-7.19274
లోనూ	-7.19311
▁ఆయన	-7.19516
వా	-7.19821
▁సంస్థ	-7.19862
రీ	-7.20367
▁జనగణన	-7.20751
▁ఏ	-7.20795
▁ఆసుపత్రి	-7.20919
▁పబ్లిక్	-7.21297
▁కా	-7.21382
▁వాణిజ్య	-7.21403
▁వారం	-7.21425
▁ప్రకారం	-7.2171
▁కోసం	-7.21907
▁పథకం	-7.22068
లోను	-7.22346
▁ఫోన్	-7.22403
▁లేదా	-7.22623
▁గంటల	-7.22675
మ్	-7.23952
▁రెండు	-7.23954
లలో	-7.24547
▁రాష్ట్ర	-7.24562
లకు	-7.24593
▁భారత	-7.24686
▁షెడ్యూల్డ	-7.24708
▁నుంచి	-7.25613
▁7	-7.26558
▁స్టేషన్	-7.26891
▁ఒకటి	-7.27126
ప్	-7.27339
▁ఇ	-7.27476
▁ఆఫీసు	-7.27617
▁2	-7.28011
నీ	-7.28072
▁అభివృద్ధి	-7.29165
▁పోస్టాఫీసు	-7.29272
▁19	-7.29349
▁బ	-7.30288
▁మా	-7.30938
వు	-7.31496
▁వైద్యశాల	-7.32152
▁స	-7.32445
న్న	-7.32964
యా	-7.33595
▁·	-7.34188
జ్	-7.34576
డానికి	-7.35747
లోని	-7.36767
▁గా	-7.37168
ూ	-7.377
▁వ్యవసాయానికి	-7.37956
▁ఉప	-7.38123
▁జాతీయ	-7.38721
▁డిగ్రీ	-7.39498
▁రోడ్లు	-7.39864
తి	-7.40238
▁the	-7.41396
త్	-7.41507
▁1	-7.41579
▁3	-7.41689
▁తిరిగి	-7.43586
ుల	-7.4386
▁వారి	-7.44963
ణ	-7.46165
▁ను	-7.4629
▁18	-7.48166
▁రా	-7.48218
▁లు	-7.48656
▁4	-7.48988
▁నా	-7.49044
మ్మ	-7.49084
▁మధ్య	-7.49504
జ	-7.5012
▁భూ	-7.50224
ల్లో	-7.50631
సు	-7.50726
చ	-7.50962
▁పెద్ద	-7.51106
▁విధంగా	-7.51222
గు	-7.51294
▁ప్రత్యేక	-7.51362
▁చాలా	-7.51571
▁ఉంటుంది	-7.51577
వే	-7.5174
▁కలిగి	-7.51926
ో	-7.52528
▁రైల్వే	-7.52928
/	-7.54175
▁కొన్ని	-7.54231
దు	-7.5476
▁జరుగుతోంది	-7.54913
▁టి	-7.55041
రో	-7.55596
▁సి	-7.55635
▁ఏడాది	-7.56068
గ్	-7.56358
▁కో	-7.57281
హ	-7.57853
▁త	-7.58414
▁వరకు	-7.59132
n	-7.59258
▁వంటి	-7.59547
▁ఉత్పత్తి	-7.59589
▁నీటి	-7.59897
▁బా	-7.60007
▁లోని	-7.60435
▁6	-7.61279
▁ము	-7.61499
లే	-7.6218
▁ప్ర	-7.62716
శ	-7.6281
▁కుటుంబ	-7.6285
▁అనేక	-7.63676
▁శ్రీ	-7.64517
▁మురుగునీటి	-7.65456
▁మె	-7.6574
▁అందుతుంది	-7.65784
ద్	-7.65922
▁పి	-7.66111
పి	-7.66147
▁పొడుగునా	-7.67653
▁వారు	-7.67708
య్య	-7.68297
'	-7.68323
సా	-7.68559
▁పేరు	-7.68988
▁బస్సు	-7.69581
▁మండల	-7.69713
▁పౌర	-7.70451
▁ఉ	-7.70563
మే	-7.70637
బ్	-7.70685
దా	-7.71524
▁జ	-7.71624
▁తెలుగు	-7.7213
▁చేసిన	-7.72216
రే	-7.72941
▁మంది	-7.73225
తా	-7.73299
యు	-7.73569
▁సంఘం	-7.74202
▁వా	-7.74314
▁సా	-7.74316
▁ఆమె	-7.74373
▁అండ్	-7.74426
▁of	-7.74452
▁ల	-7.74528
▁ప్రతి	-7.7453
▁పా	-7.74559
▁శిక్షణ	-7.74648
▁2011	-7.74805
▁వృత్తి	-7.74925
▁నమోదు	-7.74941
కో	-7.75136
▁8	-7.76312
టం	-7.77147
▁సంత	-7.77241
▁'	-7.77374
ంది	-7.7746
లీ	-7.77516
:.	-7.77824
చి	-7.77972
చే	-7.78182
▁జరుగుతుంది	-7.78317
సీ	-7.78523
▁స్	-7.7869
పా	-7.78889
ధ	-7.7924
▁రవాణా	-7.79335
▁కాగా	-7.79646
▁సం	-7.79665
▁కొరకు	-7.79896
ళ్ళ	-7.80058
▁కార్యాలయం	-7.8019
▁విస్తరించి	-7.80591
▁ప్రవహిస్తుంది	-7.80843
▁కాలువల	-7.81125
ాలలో	-7.81132
▁సామాన్య	-7.8133
▁గణాంకాల	-7.81541
▁మాధ్యమిక	-7.81686
▁సహకార	-7.81846
లతో	-7.81867
▁బృందం	-7.82214
▁డాక్టర్లు	-7.82262
▁హ	-7.82423
ములు	-7.82456
జి	-7.82634
క్ష	-7.82755
▁మే	-7.82872
▁స్వయం	-7.82985
ుని	-7.83127
▁మురుగునీరు	-7.83171
త్త	-7.83718
ె	-7.83794
▁మీద	-7.84234
▁ఔషధ	-7.84288
▁కేంద్రాలు	-7.84427
▁తమ	-7.84523
ించ	-7.85125
▁శ	-7.85737
▁చిన్న	-7.85897
▁పె	-7.8595
▁మొదటి	-7.86045
బడింది	-7.86183
▁సొసైటీ	-7.86345
▁సంరక్షణ	-7.86407
▁కులాల	-7.86413
▁సబ్	-7.86443
▁వినియోగం	-7.86519
▁సేవా	-7.86622
టీ	-7.86968
▁శిశు	-7.87011
▁లైన్	-7.87278
▁సంపూర్ణ	-7.8729
)	-7.87382
▁మొదలైన	-7.87393
▁తెగల	-7.8761
▁సంక్షేమ	-7.87655
▁పశు	-7.87664
▁సహాయక	-7.87679
▁చేయ	-7.87865
▁జనన	-7.88095
టు	-7.88389
▁ప్రత్యామ్నాయ	-7.88469
e	-7.88492
▁సైన్స్	-7.88513
▁ఆటో	-7.8855
▁ఆటల	-7.89005
ై	-7.89014
▁కార్యకర్త	-7.89099
▁మైదానం	-7.8939
రం	-7.8966
▁ప్రాథమికోన్నత	-7.8978
అ	-7.89787
▁నిమిత్తం	-7.9003
▁పంపిణీ	-7.90035
▁కొ	-7.90142
▁బాలల	-7.90157
▁తర్వాత	-7.90184
▁మార్కెట్	-7.90194
▁గ్రంథాలయం	-7.90579
▁జనాభా	-7.90752
▁పిన్	-7.90758
▁ఇంటర్నెట్	-7.90861
▁మొబైల్	-7.91046
యం	-7.91147
▁వార్తాపత్రిక	-7.91162
▁గ	-7.91184
▁ఆర్ట్స్	-7.91462
▁మరణాల	-7.91686
▁ఓ	-7.91711
▁సంచార	-7.91749
▁తో	-7.91787
▁మార్కెటింగ్	-7.91893
▁ఆశా	-7.91904
▁లొకేషన్	-7.92254
▁జూనియర్	-7.92328
▁ఐ	-7.92424
▁చేస్తున్నారు	-7.92633
ండ	-7.92728
▁మగవారి	-7.928
▁ది	-7.92835
▁లోను	-7.92871
▁జనాభాతో	-7.92872
▁పోలింగ్	-7.93221
▁పారామెడికల్	-7.93248
▁ఆడవారి	-7.93262
▁రీడింగ్	-7.93355
▁హెక్టార్లలో	-7.93547
▁పారిశుధ్య	-7.93733
▁ఇళ్లతో	-7.93835
▁లాండ్	-7.93872
▁రూం	-7.93955
బ	-7.94023
▁అంగన్	-7.94146
▁వీధుల	-7.94187
▁మాతా	-7.94267
▁పోస్ట్	-7.9449
▁టెలిఫోన్	-7.94524
▁వాడీ	-7.94605
▁ఆర్	-7.94762
▁సరఫరాల	-7.95176
▁పై	-7.9519
▁ఉత్పాదక	-7.95307
▁మూడు	-7.95913
తు	-7.95933
▁కొరియర్	-7.95965
▁కెఫె	-7.9611
న్నాయి	-7.96278
▁పోషకాహార	-7.96291
▁వద్ద	-7.96299
▁దూరం	-7.96341
▁అవసరాల	-7.96349
▁హాలు	-7.96398
▁పక్కనే	-7.96438
ంద	-7.96544
▁గృహావసరాల	-7.96723
ష్	-7.96792
ౌ	-7.96929
▁సేకరించే	-7.97005
యి	-7.97168
▁వస్తువులు	-7.97379
▁కంకర	-7.97457
▁గ్రామ	-7.97567
▁9	-7.97568
▁పరపతి	-7.97618
జీ	-7.97627
▁అనియత	-7.97777
▁దివ్యాంగుల	-7.97781
▁సమీకృత	-7.97782
▁వ్యర్థాలను	-7.97804
▁ఇంటింటికీ	-7.97868
కే	-7.97877
▁చ	-7.97878
▁మి	-7.98191
▁బయోగ్యాస్	-7.98196
▁మరుగుదొడ్డి	-7.98381
ాలని	-7.98544
▁సు	-7.98546
▁ఏటీఎమ్	-7.98548
▁డిస్పెన్సరీ	-7.98553
▁అలోపతి	-7.98591
జా	-7.98661
▁in	-7.98666
▁పాలీటెక్నిక్	-7.98794
▁చెత్తను	-7.98799
ంతో	-7.99095
▁దీని	-7.99219
▁టెలిగ్రాఫ్	-7.99303
▁పట్టణమైన	-7.99439
▁పారబోస్తా	-7.99458
▁దాని	-7.99675
▁15	-7.99676
▁జల	-7.99982
▁గ్రామాల	-8.00039
▁చేతిపంపుల	-8.00275
▁ఆఫ్	-8.00424
▁వనరుల	-8.00468
▁కేంద్రమైన	-8.00687
▁మేనేజిమెంటు	-8.00853
▁ప్రాంతాల	-8.00909
▁వలన	-8.0094
బా	-8.0121
▁బాలబడి	-8.01404
▁రోజుకు	-8.0142
▁అయితే	-8.015
u	-8.01529
▁12	-8.01779
▁వే	-8.02053
ళ	-8.02324
▁చేశారు	-8.02476
▁అమలవుతోంది	-8.02664
యో	-8.02757
ట్లు	-8.02972
ిక	-8.03273
▁లా	-8.03381
▁ఉంటాయి	-8.03386
ాల్లో	-8.03428
▁కిలోమీటర్ల	-8.03851
▁అసెంబ్లీ	-8.03905
▁పో	-8.04287
▁చేసి	-8.05007
▁వరి	-8.05225
ంగ్	-8.05281
▁కుళాయిల	-8.05668
ట్ట	-8.05801
ప్ర	-8.05913
y	-8.0605
మో	-8.06061
పల్లి	-8.06115
స్ట్	-8.06338
▁పాఠశాలలు	-8.0651
గి	-8.06641
ండి	-8.0716
ాలకు	-8.07167
▁బస్సులు	-8.072
▁చె	-8.07246
▁అతని	-8.07318
▁అయిన	-8.07445
పో	-8.07492
▁కానీ	-8.07664
▁మొత్తం	-8.07706
▁ప్రభుత్వం	-8.07936
▁గు	-8.07974
▁--	-8.07998
టర్	-8.0809
2	-8.08415
ాలి	-8.0843
ళ్ల	-8.08596
▁రోజువారీ	-8.08724
▁గుండా	-8.08906
రె	-8.09231
ిత	-8.09236
▁ఇక్కడ	-8.09251
▁a	-8.09337
ించి	-8.10108
భ	-8.10256
o	-8.1054
▁అవుతున్నాయి	-8.10736
ఫ్	-8.10966
▁తెలంగాణ	-8.11028
▁సిబ్బంది	-8.1119
▁దూరంలోనూ	-8.11295
ed	-8.11353
▁ఎస్	-8.11487
▁మండలం	-8.11526
▁గో	-8.1164
▁ఇంజనీరింగ్	-8.11663
లేదు	-8.11763
▁డి	-8.11889
▁మహా	-8.12112
▁జరిగిన	-8.12389
బి	-8.12539
ట్టు	-8.12559
ప్ప	-8.12622
▁సమయంలో	-8.13018
మీ	-8.1315
తీ	-8.13273
నం	-8.13573
▁చెప్ప	-8.1401
కీ	-8.14348
▁అది	-8.14475
▁ర	-8.14648
er	-8.15413
ష	-8.15613
▁ఉత్తర	-8.15913
▁దక్షిణ	-8.16338
▁ఆంధ్ర	-8.17015
▁సె	-8.17281
▁అంటారు	-8.17324
A	-8.17488
▁గురించి	-8.17491
▁వ్యవసాయం	-8.17717
▁లేని	-8.17821
▁కాని	-8.1792
▁ప్రపంచ	-8.17936
▁అన్ని	-8.18101
కం	-8.18162
al	-8.18454
▁సౌకర్యాలు	-8.18838
మని	-8.18874
ంత	-8.18909
▁20	-8.19111
బడిన	-8.19228
00	-8.19312
▁:	-8.20045
▁అను	-8.20095
కొ	-8.20292
్లో	-8.20369
▁తారు	-8.20955
వారు	-8.21355
ములో	-8.21603
▁మొదలైనవి	-8.21615
▁16	-8.21766
▁రాజ	-8.21868
▁భ	-8.21884
వచ్చు	-8.2197
▁మాత్రమే	-8.22054
▁17	-8.22158
a	-8.22427
▁లేరు	-8.22454
▁పార్టీ	-8.22828
ing	-8.22854
1	-8.22973
▁11	-8.23044
▁ప్రముఖ	-8.23083
▁భాష	-8.23186
▁14	-8.23248
▁నేరుగా	-8.23257
▁ముందు	-8.23424
▁వచ్చిన	-8.23879
▁తా	-8.23899
i	-8.23979
▁పూ	-8.24201
▁కె	-8.24659
▁పలు	-8.24832
▁కాల	-8.25148
▁కొత్త	-8.25441
డా	-8.25916
నూ	-8.26011
వీ	-8.2621
▁శాల	-8.26955
▁S	-8.27049
ుతుంది	-8.27264
▁బహిరంగ	-8.27777
c	-8.27934
ించారు	-8.28189
▁A	-8.28215
కుండా	-8.28233
▁జా	-8.28292
▁అతను	-8.28467
▁ఇద్దరు	-8.28484
▁రాష్ట్రం	-8.28559
▁వై	-8.28664
▁and	-8.28781
▁పరి	-8.2888
▁మో	-8.28947
నె	-8.29075
▁ద	-8.29133
▁కాలంలో	-8.29231
త్ర	-8.29242
వ్	-8.29446
ేందుకు	-8.29561
d	-8.30196
▁వల్ల	-8.30427
నో	-8.30805
ించిన	-8.30881
▁శుద్ధి	-8.30924
టా	-8.31041
▁to	-8.31137
▁య	-8.31201
g	-8.31205
ిస్తుంది	-8.31609
▁కథ	-8.3236
p	-8.32775
▁తిరుగుతున్నాయి	-8.32893
ండ్	-8.33146
దీ	-8.33204
▁ఏర్పాటు	-8.33341
C	-8.33487
▁సంవత్సరాల	-8.33698
ైన	-8.33833
▁మన	-8.33846
▁దా	-8.33955
ొ	-8.33956
▁మంచినీటి	-8.33961
▁లే	-8.34053
▁చిత్ర	-8.34247
▁అతి	-8.34248
క్క	-8.34467
ంచ	-8.34521
వర్	-8.34612
సం	-8.34797
▁వివిధ	-8.35038
▁రక్షిత	-8.35639
▁ఒ	-8.35723
ంబ	-8.35841
▁అందుబాటులో	-8.36009
థ	-8.36226
▁13	-8.36356
▁ఇందులో	-8.36439
ంగ	-8.36443
t	-8.36556
▁మండలానికి	-8.37386
ూరు	-8.37479
▁దీనిని	-8.37632
▁రామ	-8.37656
▁పొ	-8.3767
▁అన్న	-8.38034
రణ	-8.38071
▁పాత్ర	-8.38209
కర	-8.38442
వనరుల్లోకి	-8.39164
▁s	-8.39326
re	-8.39459
ిస్తారు	-8.39635
మె	-8.39685
▁పూర్తి	-8.39814
▁చేసే	-8.39979
5	-8.39984
పూర్	-8.40232
వ్వ	-8.40498
▁మంచి	-8.40555
▁ఆర్థిక	-8.40764
▁సంగీత	-8.40862
’	-8.4089
▁కే	-8.40963
మును	-8.41192
ఖ	-8.41248
▁అవ	-8.41356
సె	-8.4144
▁ఇవి	-8.41528
▁ఒకరు	-8.41602
▁ట్రాక్టర్లు	-8.41688
రావు	-8.41783
▁పని	-8.41926
▁లోనూ	-8.41973
▁చే	-8.4232
▁అధిక	-8.42539
▁వె	-8.42793
▁కేంద్ర	-8.4293
3	-8.43121
డీ	-8.43834
ుతూ	-8.43902
▁చేసింది	-8.43903
▁వదులుతున్నార	-8.43947
▁దేవ	-8.43955
టానికి	-8.44106
▁రి	-8.44334
రాజు	-8.44351
వారి	-8.44425
ిస్తూ	-8.44556
▁యు	-8.44623
ద్ద	-8.45344
▁చి	-8.45344
▁50	-8.45395
గల	-8.45425
▁జి	-8.45523
జన	-8.45729
!	-8.45822
?	-8.46263
▁కలిగిన	-8.46309
▁ప్రజలు	-8.46626
▁అంత	-8.46756
▁నాలుగు	-8.47077
▁ఉండే	-8.47172
▁ఖ	-8.47287
▁పొంద	-8.47384
4	-8.47695
ట్ల	-8.4783
▁వాడేందుక	-8.47873
▁ఎం	-8.47877
▁రెండవ	-8.47885
▁రే	-8.482
▁ఉండ	-8.48447
పీ	-8.48524
▁దేశ	-8.48532
▁కారణంగా	-8.4862
k	-8.48633
▁వాటి	-8.48709
▁చేర	-8.48765
▁అనేది	-8.48921
▁యా	-8.49284
ar	-8.4942
▁బావుల	-8.49437
b	-8.4954
▁సంవత్సరం	-8.49617
బడి	-8.49832
ల్ల	-8.50219
ముల	-8.50264
▁రూ	-8.503
ష్ట	-8.50342
▁తయారు	-8.5036
M	-8.50504
వాడు	-8.50506
▁గల	-8.50525
▁పెట్ట	-8.50562
మై	-8.5071
▁‘	-8.50777
▁రాజకీయ	-8.51166
కులు	-8.51633
▁వీ	-8.51641
▁ముగ్గురు	-8.51665
S	-8.51761
▁కలిసి	-8.52051
▁c	-8.52216
▁సీ	-8.52461
▁హా	-8.52572
ముగా	-8.5281
▁వాడ	-8.53027
ంజ	-8.5306
చు	-8.5307
టో	-8.5313
▁అవి	-8.53142
▁బె	-8.53156
కర్	-8.53237
▁జరిగింది	-8.53312
▁ధర్మ	-8.53319
్య	-8.53415
▁(	-8.53587
క్స్	-8.53888
▁భారతీయ	-8.53928
హా	-8.53932
▁మత	-8.54193
▁మూల	-8.54652
▁తూర్పు	-8.54678
▁పు	-8.54883
ళ్ళు	-8.54961
▁గ్రామము	-8.55194
డే	-8.55475
లుగా	-8.5582
▁అంద	-8.55822
▁శాఖ	-8.56252
▁స్వ	-8.56308
▁పాల	-8.56383
▁అదే	-8.56389
▁సమ	-8.56479
▁ప్రాంతంలో	-8.56567
శి	-8.56718
ాయ	-8.56837
ాలతో	-8.56918
ఆ	-8.56967
▁C	-8.57051
ుకుని	-8.57096
▁తక్కువ	-8.57252
r	-8.57409
▁అంటే	-8.57526
చ్	-8.57747
▁తండ్రి	-8.58018
▁చా	-8.58087
or	-8.58095
▁శివ	-8.58271
▁అత్యంత	-8.58321
▁ఎక్కువగా	-8.58415
an	-8.5852
h	-8.58559
▁వీరు	-8.58578
▁తు	-8.5877
టే	-8.58781
▁సాధారణంగా	-8.59137
▁ఇలా	-8.59188
▁కార్	-8.59263
▁ప్రా	-8.59284
▁బో	-8.59532
ప్పుడు	-8.59559
▁ప్రాంతం	-8.59595
▁పోటీ	-8.59679
m	-8.59776
లె	-8.59778
▁విజయ	-8.59833
లోకి	-8.59958
కాల	-8.60408
ుకో	-8.60492
కె	-8.60666
in	-8.60804
ంటి	-8.60896
ులకు	-8.61116
▁రాజు	-8.61242
▁కొండ	-8.61296
▁ప్రజల	-8.61518
పల్లిలో	-8.61627
ించాడు	-8.6168
స్త	-8.61681
▁నీ	-8.62165
▁ఎన్	-8.62169
▁చిత్రం	-8.62327
▁చరిత్ర	-8.62564
▁బు	-8.6265
గో	-8.62725
▁భూమి	-8.62751
దే	-8.6279
f	-8.62809
షి	-8.62871
ంటే	-8.62964
▁గుర్తించ	-8.63053
చ్చ	-8.63095
▁ప్రస్తుతం	-8.63114
▁అలాగే	-8.63648
ుడి	-8.63668
▁మండలంలోని	-8.63835
ంట్	-8.64058
▁అక్కడ	-8.6423
నుండి	-8.64525
▁పడ	-8.64935
▁సుమారు	-8.64966
▁ముఖ్య	-8.6497
en	-8.65026
▁డ	-8.65197
▁తొలి	-8.652
ేవారు	-8.65448
ఆంధ్రజ్యోతి	-8.65678
ుకొని	-8.65749
ధి	-8.65781
▁వచ్చింది	-8.65823
I	-8.65977
తే	-8.6602
▁బహిరంగంగా	-8.66093
బో	-8.66359
వాస	-8.66374
దేశ	-8.67038
▁పంప	-8.67214
▁మొ	-8.67255
స్తూ	-8.67358
▁•	-8.67513
ారని	-8.67643
వో	-8.67734
▁కల	-8.67927
ేశ్వర	-8.68118
లోనే	-8.68237
▁బ్రహ్మ	-8.68427
▁నిర్వహించ	-8.68473
▁p	-8.68736
▁చూప	-8.68916
బీ	-8.68979
▁వచ్చే	-8.69085
ించే	-8.69568
సే	-8.69635
ంచి	-8.69819
బడ్డాయి	-8.69938
డంతో	-8.69971
▁బోరుబావుల	-8.70026
▁డాక్టరు	-8.7009
త్తు	-8.70169
▁నగర	-8.70219
▁రో	-8.70307
▁f	-8.70308
▁కాంగ్రెస్	-8.70527
▁కాకుండా	-8.70527
▁తి	-8.70629
▁పశ్చిమ	-8.70672
ుతున్న	-8.7092
▁లేక	-8.70994
▁కచ్చా	-8.7112
▁శక్తి	-8.71415
బు	-8.71499
▁డా	-8.71512
▁కొంత	-8.71729
▁ఫ	-8.71756
▁వ్యక్తి	-8.71855
ri	-8.71943
▁వచ్చి	-8.71962
6	-8.71968
▁పట్ట	-8.72018
త్వ	-8.72069
▁విడుదల	-8.72091
▁కన్నా	-8.72263
▁అమెరికా	-8.72393
▁M	-8.72457
▁25	-8.72946
పురం	-8.73083
th	-8.73253
▁మానవ	-8.73465
▁ఇంకా	-8.73545
▁P	-8.73631
కార	-8.73657
▁30	-8.73869
▁వారికి	-8.74014
▁రచయిత	-8.7407
▁కృష్ణ	-8.7408
వె	-8.74097
▁జీవ	-8.74141
ుకున్న	-8.74232
▁మరో	-8.74396
▁చేయడం	-8.74538
▁నెల	-8.74614
▁అనగా	-8.74665
ీయ	-8.7486
D	-8.7495
యే	-8.74988
▁నిర్మాణ	-8.75022
త్య	-8.75025
▁హిందూ	-8.7505
స్థ	-8.75339
le	-8.75396
▁బీ	-8.75499
▁పోతోంది	-8.75521
మర్	-8.7561
▁దు	-8.75703
ందు	-8.75795
▁57	-8.75824
ులను	-8.75896
స్తారు	-8.7591
▁నె	-8.75992
▁లోకి	-8.76051
▁దగ్గర	-8.76078
రియా	-8.76095
▁కేంద్రంలో	-8.76338
▁కాదు	-8.76387
జు	-8.765
▁కాలం	-8.76833
రెడ్డి	-8.76882
పాడు	-8.76984
▁బాగా	-8.77002
▁చైనా	-8.77031
హ్	-8.7731
గ్రామంలో	-8.77465
▁రె	-8.77495
▁B	-8.77506
్యూ	-8.77602
▁యుద్ధ	-8.7766
▁కట్ట	-8.77812
ra	-8.77834
శ్	-8.77899
ట్టి	-8.77919
త్వం	-8.77971
స్వామి	-8.78017
▁శాసనసభ	-8.78143
షన్	-8.78159
ల్లి	-8.78321
▁పేరుతో	-8.78349
▁మంత్రి	-8.78564
▁ఈయన	-8.78575
హి	-8.7874
డో	-8.7893
▁హో	-8.79017
ండు	-8.7903
స్తుంది	-8.79099
▁దీనికి	-8.79216
▁ప్రదేశ్	-8.79247
ుడైన	-8.79265
లం	-8.79334
▁విద్య	-8.79483
▁అమ్మ	-8.79728
ఇ	-8.79739
ింప	-8.79743
▁తల	-8.7979
సన్	-8.79809
▁చెరువు	-8.79859
▁సంబంధించిన	-8.80157
ంప	-8.80261
▁గి	-8.80494
రూప	-8.80564
▁షా	-8.80638
ఘ	-8.80729
l	-8.80795
▁అన	-8.80927
▁పత్రిక	-8.81036
▁నివాస	-8.81456
–	-8.81861
es	-8.81922
▁నది	-8.82401
▁అంతర్జాతీయ	-8.8246
▁వీరి	-8.82498
ాత్మక	-8.82634
▁కోట	-8.82894
ల్లా	-8.82956
న్స్	-8.83085
▁సాగ	-8.83144
▁సో	-8.83311
▁ఎత్తు	-8.83568
ఎస్	-8.83572
ణి	-8.83692
▁తప్ప	-8.83698
▁మహ	-8.83789
▁భాగంగా	-8.83825
▁క్రీ	-8.83977
▁జె	-8.84206
▁స్థానిక	-8.84436
▁పే	-8.84506
▁2001	-8.84759
పోయింది	-8.85109
):	-8.85166
▁భావ	-8.85215
▁ప్లాంట్	-8.85288
గిరి	-8.85804
▁పాట	-8.85809
▁ఉపయోగించ	-8.85876
▁చేశాడు	-8.86084
▁సాధారణ	-8.8642
▁వ్యాపార	-8.86434
▁మార్చ	-8.8653
▁నాగ	-8.86539
▁పెంచ	-8.86542
▁రోజు	-8.86545
▁ఆలయ	-8.86603
▁చంద్ర	-8.86743
జె	-8.86754
▁తల్లి	-8.8692
▁ఒక్క	-8.87015
▁పీ	-8.8706
ిస్తున్న	-8.87089
▁రైలు	-8.87142
▁కోర	-8.87453
▁b	-8.87494
▁స్వామి	-8.87517
▁ఇవ్వ	-8.87578
వాద	-8.87725
▁గుంటూరు	-8.87808
0	-8.87879
▁మాత్రం	-8.87934
రంగ	-8.88065
కూ	-8.8808
తం	-8.88086
▁జన	-8.88275
పె	-8.88279
▁ఉంచ	-8.88408
ీకరణ	-8.88833
▁కృష్ణా	-8.8903
ధ్య	-8.89092
నది	-8.89181
▁అప్పటి	-8.89191
▁వున్న	-8.89264
▁విశాఖపట్నం	-8.89295
▁పురుషుల	-8.89338
బడుతుంది	-8.89417
▁న్యాయ	-8.89467
▁పూర్వ	-8.8955
▁ఉన్నత	-8.89591
▁లి	-8.89598
లై	-8.89715
▁సముద్ర	-8.89767
▁భార్య	-8.89808
▁మరొక	-8.89925
న్నారు	-8.90028
ిని	-8.90074
▁చెంద	-8.90176
▁లభిస్తుంది	-8.90217
▁తీసుకు	-8.90449
7	-8.90607
స్తు	-8.90625
▁విజయవాడ	-8.90649
▁రూప	-8.90729
▁n	-8.90734
దని	-8.90779
▁వెంకట	-8.90812
v	-8.90836
▁సభ	-8.9105
▁be	-8.91052
ంట	-8.9124
▁రంగు	-8.91263
చ్చి	-8.91353
▁నగరం	-8.91422
un	-8.91429
▁దాదాపు	-8.91469
▁ప్రారంభ	-8.91522
తుల	-8.91595
E	-8.91789
ధా	-8.9198
▁is	-8.92126
at	-8.92193
▁ఫా	-8.92316
▁ప్రదర్శన	-8.92323
ాన	-8.92355
▁హై	-8.92381
▁నగర్	-8.9254
▁గొప్ప	-8.92551
▁కంపెనీ	-8.92695
కుడు	-8.92774
కుల	-8.92936
బడ	-8.92981
ic	-8.93027
▁సంప్రదాయ	-8.93036
10	-8.93088
▁ఒకే	-8.93119
8	-8.93361
పర్	-8.93482
▁ఇన్	-8.93513
on	-8.93667
▁సై	-8.93944
మన్	-8.94005
▁కనుక	-8.94537
▁యూ	-8.9461
తులు	-8.94633
రూ	-8.94748
పే	-8.94885
జర్	-8.94961
▁చివరి	-8.95117
▁పట్టణ	-8.95183
సర	-8.95235
▁యుద్ధం	-8.95276
▁or	-8.95312
ుట	-8.95372
▁డె	-8.95426
▁=	-8.9543
▁బ్ర	-8.95604
▁తెలియ	-8.9566
▁మూ	-8.95802
కొండ	-8.95868
▁ప్రజా	-8.95892
ణం	-8.95973
▁0	-8.95976
▁పరీక్ష	-8.96033
▁వార	-8.96067
▁శి	-8.961
▁చెయ్య	-8.96204
పడ	-8.96288
పద	-8.96417
సో	-8.96463
▁సర్వ	-8.96529
న్నా	-8.96633
నగర్	-8.96728
గానే	-8.96743
▁వెళ్ళ	-8.96892
ur	-8.96922
P	-8.96941
ad	-8.97277
టన్	-8.9743
కల్	-8.97445
రామ	-8.97486
▁వాటిని	-8.9774
▁ఇం	-8.97826
స్తా	-8.97849
పెట్ట	-8.97885
▁పారుదల	-8.97921
▁హైదరాబాదు	-8.9798
ృ	-8.98042
▁నాటి	-8.98149
▁బల	-8.98151
▁కాక	-8.98181
▁పొందిన	-8.9827
▁రంగ	-8.98514
▁మరింత	-8.98514
మున	-8.98628
▁24	-8.98716
▁ట్రాక్టరు	-8.9874
ాను	-8.9885
చె	-8.98851
లూ	-8.98897
▁శా	-8.99065
▁ఆడ	-8.99106
▁N	-8.99234
వర	-8.99288
▁పంపిస్తున్నారు	-8.99349
▁సాహిత్య	-8.99398
▁58	-8.99446
▁పాడ	-8.99505
ంపు	-8.99577
▁మై	-8.99863
▁అక్టోబరు	-8.99865
యూ	-8.99959
50	-8.99996
▁వైపు	-9.00012
▁ఉండేది	-9.00035
▁పంచ	-9.0009
▁న్యూ	-9.00149
▁శాతం	-9.00274
N	-9.0028
నియా	-9.00517
సర్	-9.00525
లపై	-9.00529
▁21	-9.00648
▁నే	-9.00726
▁జిల్లాలో	-9.0083
▁డిసెంబరు	-9.00978
▁తాను	-9.01149
▁బాల	-9.01165
▁మార	-9.01179
▁పర్వత	-9.01254
▁నిర్మించ	-9.01296
▁ముఖ్యమైన	-9.01361
▁g	-9.01599
▁వీర	-9.01643
▁నాటికి	-9.0167
▁D	-9.01704
▁కేవలం	-9.01728
మూ	-9.01742
షా	-9.0188
▁నవంబరు	-9.01989
ుకున్నారు	-9.02019
▁నెల్లూరు	-9.0208
▁మిగిలిన	-9.02259
ల్స్	-9.02294
గం	-9.02432
▁m	-9.02454
▁లోపే	-9.02463
ళ్లు	-9.02487
▁పద	-9.0249
గే	-9.02541
▁ఫి	-9.02624
20	-9.02839
ూర్	-9.02962
▁స్థిర	-9.02964
▁హె	-9.03021
ఏ	-9.03025
▁భాగం	-9.03038
▁ప్రత్తి	-9.03178
▁R	-9.03514
మెంట్	-9.03583
ఎ	-9.03783
మాన	-9.03859
ఐ	-9.04117
తారు	-9.04128
▁ఆధునిక	-9.0426
▁0.	-9.0429
▁భాగ	-9.04363
ుగా	-9.04379
▁!	-9.04476
▁హైదరాబాద్	-9.04522
11	-9.04655
▁గోదావరి	-9.04796
▁చూడ	-9.04925
ందని	-9.04999
▁లేకుండా	-9.05172
▁మార్చి	-9.05182
▁ష	-9.05273
▁దేశం	-9.05289
▁జీవిత	-9.05365
రాయ	-9.05452
ుడిగా	-9.05482
ించింది	-9.05532
▁దుకాణం	-9.05601
▁ఈమె	-9.0578
▁ఆధారంగా	-9.05811
▁ఆలయం	-9.05977
▁వరంగల్	-9.06149
పేట	-9.06283
▁The	-9.06375
▁జనవరి	-9.0653
▁విశ్వవిద్యాలయం	-9.0667
▁జీ	-9.06679
భా	-9.06803
▁22	-9.07142
▁గుర్తింపు	-9.07218
▁నాటక	-9.0722
దేవి	-9.07288
ుకునే	-9.07389
▁ఐదు	-9.07394
▁కొనసాగ	-9.07524
ుతారు	-9.07584
▁ముఖ్యంగా	-9.0795
▁సందర్భంగా	-9.07953
▁శాలలో	-9.08189
బ్బ	-9.08218
ప్పు	-9.08327
▁రకాల	-9.08403
లైన	-9.08478
▁దేశంలో	-9.08575
స్థాన	-9.08686
T	-9.08704
▁ఎన్నో	-9.08807
▁వెళ్ళి	-9.0894
▁ధ	-9.08968
పతి	-9.08978
▁స్థానంలో	-9.0905
ును	-9.09061
9	-9.09091
▁సూర్య	-9.09122
▁I	-9.09171
▁జో	-9.09199
▁నేను	-9.092
▁తెలిపారు	-9.09258
▁సేవ	-9.09292
ent	-9.09464
ాలుగా	-9.09554
ఫి	-9.09636
▁59	-9.09959
▁పరిశోధన	-9.09981
ున్న	-9.10135
▁అవకాశం	-9.10302
డె	-9.10352
టిక్	-9.10412
▁చేత	-9.10433
▁అల్	-9.10578
మైనది	-9.10647
జ్ఞ	-9.10721
యర్	-9.10821
లేక	-9.10858
▁రెడ్డి	-9.10948
▁ఆరు	-9.10953
▁బ్రిటిష్	-9.10957
▁ఈనాడు	-9.11007
▁జూలై	-9.11013
am	-9.11062
పోయిన	-9.11079
ఁ	-9.11343
్యం	-9.1138
O	-9.11388
▁ప్రక్రియ	-9.11456
శా	-9.11471
వరం	-9.11566
ూరి	-9.11566
▁ఉండి	-9.1168
ation	-9.11695
▁అలా	-9.11786
▁నిర్	-9.11849
రై	-9.11959
▁సౌకర్యాలున్నాయి	-9.11965
▁గాంధీ	-9.11991
సారి	-9.12059
▁అధికంగా	-9.12128
ch	-9.12171
▁టీ	-9.1224
▁అందులో	-9.12258
▁అందించ	-9.12272
▁విశ్వ	-9.12346
చేయ	-9.12486
▁బొ	-9.1258
▁23	-9.12706
▁నిర్వహణ	-9.12722
▁మట్టిరోడ్ల	-9.12831
మునకు	-9.12898
▁నిర్మాణం	-9.12913
దం	-9.12923
▁ఎంతో	-9.13401
▁అమలు	-9.13418
దర్	-9.13434
క్రమ	-9.13505
it	-9.13506
▁స్థాయి	-9.13506
▁రాజ్య	-9.13568
▁ఇంటి	-9.13729
%	-9.13781
▁తాగునీరు	-9.1384
▁చేయని	-9.13921
▁ఇప్పుడు	-9.13998
▁వలస	-9.14135
▁విజయం	-9.1417
టింగ్	-9.14203
క్కు	-9.14467
ట్స్	-9.14488
il	-9.14579
ంగు	-9.14668
▁తె	-9.14729
ంగి	-9.14745
▁తే	-9.14779
▁పోతున్నాయి	-9.148
ించడం	-9.14872
▁దానిని	-9.15004
▁చట్ట	-9.15209
లేని	-9.15229
▁లెక్కల	-9.15234
చన	-9.15257
▁చేస్తారు	-9.15269
▁భారతదేశంలో	-9.15269
టె	-9.15344
ః	-9.15525
▁వేల	-9.15561
య్	-9.15788
▁చేస్తున్న	-9.15956
▁ధర	-9.15993
▁ప్రేమ	-9.16013
వాడ	-9.16173
వరకు	-9.16201
▁d	-9.16238
ంధ	-9.16323
▁నూతన	-9.16334
చర	-9.16436
▁వేద	-9.16514
▁అల	-9.16608
12	-9.16791
▁డీ	-9.16854
▁వేయ	-9.16855
▁అంచనా	-9.16885
ly	-9.16919
▁మార్	-9.1693
▁వారిని	-9.16955
▁G	-9.17
దర్శ	-9.17117
ద్ర	-9.17132
పాలెం	-9.17198
▁సర్	-9.17348
30	-9.17358
▁ఉత్తమ	-9.17374
19	-9.17493
ెను	-9.17534
▁దశ	-9.1756
▁ఇండియా	-9.17605
▁రాయ	-9.17643
▁దృష్టి	-9.1766
▁సత్య	-9.1785
▁H	-9.17854
▁ప్రాణ	-9.18189
▁భా	-9.182
▁చంప	-9.18218
▁సిద్ధ	-9.18251
ళి	-9.18308
▁కేసు	-9.18377
▁ఉపయోగ	-9.18389
ుటకు	-9.18398
కల	-9.18537
us	-9.18636
▁26	-9.18636
▁సిబ్బంద	-9.18656
▁కాం	-9.18658
రాజ	-9.18747
▁తగ్గ	-9.18933
ఉ	-9.19044
24	-9.19096
▁ఏక	-9.19117
▁ఇదే	-9.19238
▁పూర్తిగా	-9.19277
▁2014	-9.19302
▁2009	-9.19344
▁లలో	-9.1942
జం	-9.19492
▁లాంటి	-9.19512
ంటు	-9.19979
పుడు	-9.20056
▁అవుతోంది	-9.20192
భవ	-9.20427
ికి	-9.2052
44	-9.20567
▁తర	-9.20636
తర	-9.20698
▁చేయడానికి	-9.20769
తాయి	-9.20811
▁కృషి	-9.20816
41	-9.2088
ియన్	-9.20891
▁for	-9.20906
▁సాంకేతిక	-9.20935
▁గ్	-9.20963
▁రై	-9.20983
▁ఫల	-9.2103
ందుకు	-9.2112
తన	-9.21197
et	-9.21206
▁ఆహార	-9.21212
తాడు	-9.21221
ంక	-9.21272
▁స్టేషను	-9.21283
▁w	-9.21292
▁ఎల్	-9.213
వార	-9.21343
ఫా	-9.21469
ిస్తున్నారు	-9.21524
▁ప్రసిద్ధి	-9.21552
▁కారణం	-9.21608
▁27	-9.21622
▁బే	-9.21629
22	-9.21723
ుకున్నాడు	-9.21867
పాల	-9.21964
▁తమిళ	-9.22039
▁ఉద్యోగ	-9.22064
▁ప్రయోగ	-9.22119
▁లను	-9.22207
థా	-9.22254
గ్ర	-9.22275
43	-9.22293
లర్	-9.22305
▁నూనె	-9.22408
▁వంశ	-9.22415
▁re	-9.2243
▁తీర	-9.22631
ాడని	-9.22668
ార	-9.22731
▁వలె	-9.2277
న్నీ	-9.22814
▁వీటిలో	-9.22866
▁కనిపించ	-9.22982
▁శాస్త్ర	-9.23039
▁28	-9.23143
▁యునైటెడ్	-9.23234
ములను	-9.23268
▁దేశాల	-9.23364
li	-9.23401
R	-9.23445
త్రి	-9.23622
▁కవి	-9.23712
రోజు	-9.23739
▁రాజా	-9.23753
▁లె	-9.23867
▁అర్థం	-9.24001
▁పరిశ్రమ	-9.24026
▁శాసన	-9.2404
▁వర్ణ	-9.24085
▁అధికార	-9.24091
నని	-9.24105
39	-9.24146
▁పుట్ట	-9.24218
ఠ	-9.24305
▁ఉపయోగిస్తారు	-9.24394
రస	-9.24414
▁కుల	-9.24435
థి	-9.24461
ఫ	-9.24494
▁ఊ	-9.24526
రిక	-9.24544
బె	-9.24556
ంపై	-9.24589
▁అత్యధిక	-9.24744
▁లక్షల	-9.24749
▁హి	-9.2476
▁ప్రస్తుత	-9.24786
వంత	-9.248
గర్	-9.24895
ునిగా	-9.2491
న్ని	-9.24915
శాల	-9.24953
▁రోడ్డు	-9.24969
▁చేర్చ	-9.25155
18	-9.25222
▁L	-9.25272
రవ	-9.25296
▁T	-9.25323
▁గాయ	-9.25332
మైంది	-9.25333
▁కళ	-9.25343
▁నిర్వహించారు	-9.25461
21	-9.25492
▁ఎలా	-9.25552
▁క్ర	-9.25685
▁కలిపి	-9.25774
ిస్తాయి	-9.25777
ండ్ల	-9.25892
ాడ	-9.25896
ఆర్	-9.26002
తను	-9.26094
▁2007	-9.2611
▁అతిపెద్ద	-9.26287
▁స్త్రీల	-9.2635
శ్ర	-9.26414
▁ఐరోపా	-9.26633
▁ఎక్స్	-9.26702
▁అవార్డు	-9.26717
బర్	-9.26852
బుల్	-9.26902
▁ఇతని	-9.26908
ల్లు	-9.26937
▁స్వతంత్ర	-9.26961
▁సృష్టించ	-9.26983
యిన	-9.27022
▁రూపొందించ	-9.27097
చిన	-9.27134
▁అస	-9.27182
▁రచన	-9.27258
14	-9.27285
▁భారీ	-9.27421
▁40	-9.27572
▁కౌ	-9.27657
▁కావ	-9.27748
క్షణ	-9.27861
23	-9.2799
▁ఖండ	-9.28002
▁చేసారు	-9.28045
▁సంగీతం	-9.2806
ఢ	-9.28123
▁2008	-9.28123
రక	-9.28142
మూర్తి	-9.28146
▁మహబూబ్	-9.28182
మీద	-9.28214
▁t	-9.28229
▁అప్పుడు	-9.28238
ితే	-9.2824
▁రాజధాని	-9.28284
▁నమ్మ	-9.28284
ేషన్	-9.28376
▁హరి	-9.28425
▁దారి	-9.2852
▁రోజుల	-9.28529
▁వీటిని	-9.28543
కరణ	-9.28621
▁కళా	-9.28648
15	-9.28656
▁E	-9.28685
పరి	-9.28932
▁చికిత్స	-9.28965
▁దాడి	-9.28988
పాటు	-9.29345
▁నారాయణ	-9.29351
దేవ	-9.29354
▁ఘన	-9.29385
హార	-9.29437
పల్లె	-9.2945
▁అభి	-9.29681
▁చూ	-9.29752
▁జాతి	-9.29898
▁సైనిక	-9.29965
▁కష్ట	-9.29997
వ్య	-9.29998
నున్న	-9.30019
▁నో	-9.30091
ha	-9.30113
ir	-9.30211
▁కూ	-9.30225
▁మాట్లాడ	-9.30255
|	-9.30269
▁పైగా	-9.30299
▁తొలగించ	-9.30392
▁పూర్	-9.30417
la	-9.30452
25	-9.30741
w	-9.30756
▁కం	-9.30787
▁అధ్యక్ష	-9.30815
▁విషయం	-9.30863
▁శతాబ్దం	-9.30969
పూడి	-9.31032
దో	-9.31077
▁కీ	-9.31086
▁2013	-9.31118
ుడ	-9.31148
▁టె	-9.31213
▁h	-9.31213
▁ఉష్ణోగ్రత	-9.31231
▁భారతదేశ	-9.31285
49	-9.31304
వై	-9.31357
▁జూన్	-9.31455
▁వేరు	-9.31459
మంది	-9.31493
▁W	-9.31571
=	-9.31594
▁F	-9.31613
▁53	-9.31737
▁ఆంధ్రప్రదేశ్	-9.31774
▁వ్యాధి	-9.31803
▁ఛా	-9.31917
▁సహ	-9.31946
ర్ల	-9.31983
▁బహు	-9.32005
x	-9.32058
▁కుమార	-9.3219
▁ఆంగ్ల	-9.32213
▁చేస్తుంది	-9.32299
స్టర్	-9.32312
▁చేపట్ట	-9.32313
▁రక్షణ	-9.32354
▁ప్రభావం	-9.32425
▁పాత	-9.32479
కారం	-9.32534
▁కుమారుడు	-9.32569
▁నిర్ణయించ	-9.32625
ర్స్	-9.32646
13	-9.32698
▁l	-9.32703
ద్ధ	-9.32721
▁భావించ	-9.32796
B	-9.32875
▁సంస్కృతి	-9.33049
40	-9.33058
ిస్తాడు	-9.33141
17	-9.33466
స్తాయి	-9.33469
▁టా	-9.335
ార్	-9.33515
▁పంట	-9.33571
▁సహజ	-9.33917
▁మందుల	-9.33992
ంటారు	-9.34023
▁వివాహం	-9.34195
చేసి	-9.34242
▁దానికి	-9.3428
ంలోని	-9.3432
▁సంవత్సరంలో	-9.34377
ఫీ	-9.34585
ులుగా	-9.34615
ol	-9.3465
ro	-9.34689
▁ఆట	-9.34741
ులైన	-9.3475
▁స్థానం	-9.34832
ుకోవడం	-9.34844
im	-9.34858
33	-9.34888
32	-9.34895
▁పద్ధతి	-9.34918
ర్య	-9.34918
▁సూ	-9.34929
▁నవల	-9.34935
▁U	-9.35226
భాష	-9.3527
పరచ	-9.35341
ుతాయి	-9.35363
ఈ	-9.35445
▁విమాన	-9.35473
▁కొద్ది	-9.35502
▁మాట	-9.35544
▁వరకూ	-9.35564
ీకరించ	-9.35601
ండా	-9.3562
▁సహా	-9.35642
గూడ	-9.35658
▁పురాతన	-9.35806
▁విలువ	-9.35824
▁మహిళల	-9.35824
61	-9.35963
ప్పటికీ	-9.35963
▁వెళ్ల	-9.35972
▁నగరంలో	-9.36074
▁ఎన్నికలలో	-9.36196
▁ఢిల్లీ	-9.36196
▁అమెరికన్	-9.36197
▁సరిహద్దు	-9.36236
డుగు	-9.36275
▁వర్	-9.363
▁పరిమిత	-9.36304
చ్ఛ	-9.36335
(	-9.36356
▁సార	-9.36359
▁బ్యా	-9.36643
▁శ్రీకాకుళం	-9.36694
48	-9.36703
▁గ్రా	-9.36709
▁చూసి	-9.36749
▁భారతదేశం	-9.36833
స్ట	-9.3684
▁స్త్రీ	-9.36897
▁గె	-9.36922
సూ	-9.36922
▁ట్ర	-9.36992
16	-9.37012
లూరు	-9.37032
కై	-9.37055
లక	-9.37075
దర	-9.37082
▁కొందరు	-9.37176
▁నల్ల	-9.37182
చార	-9.37299
▁బై	-9.37319
▁లీ	-9.37393
నర్	-9.37462
▁అవసరం	-9.37499
▁పదం	-9.37538
భావ	-9.3758
▁సాధించ	-9.37593
63	-9.37641
▁గ్రామాలు	-9.37644
▁జ్ఞాన	-9.37656
▁వీటి	-9.37681
కాలు	-9.37697
▁పెళ్ళి	-9.37735
▁భీమ	-9.3775
▁గాలి	-9.37855
▁సంస్కృత	-9.37864
యె	-9.37875
▁శతాబ్దంలో	-9.37904
▁ఎంత	-9.38001
ce	-9.38195
▁k	-9.38211
ినట్లు	-9.3824
▁కణ	-9.38351
▁బౌద్ధ	-9.38405
▁జరిగే	-9.3841
నై	-9.38514
పాద	-9.38587
ప్త	-9.38588
డమే	-9.38659
గ్గ	-9.38673
▁ఇతడు	-9.38805
▁తయారీ	-9.3886
▁ఖమ్మం	-9.38863
▁మొట్టమొదటి	-9.39106
ఒక	-9.3933
▁చర్చ	-9.39421
▁మద్య	-9.39432
తల	-9.39479
▁స్టా	-9.39675
▁ఆనంద	-9.39735
▁మొదట	-9.39803
ాది	-9.39831
ుడిని	-9.39899
▁గత	-9.39952
▁పది	-9.40021
కర్త	-9.40073
▁నామ	-9.40141
▁ఆసియా	-9.40185
్యా	-9.4023
▁కలి	-9.40251
▁టై	-9.40422
▁కోట్ల	-9.40481
వులు	-9.40617
న్య	-9.40681
▁ఉద్యమ	-9.40681
చో	-9.40722
▁రసాయన	-9.40726
▁శరీర	-9.40784
▁29	-9.40814
▁విడి	-9.40888
L	-9.40921
▁మద్రాసు	-9.40978
ాపురం	-9.41024
క్త	-9.41072
▁పద్య	-9.41082
▁ఏర్పడ	-9.41096
▁ప్రాంతాలలో	-9.41108
సై	-9.41108
వచ్చును	-9.41123
▁ఎంపిక	-9.41152
▁గురు	-9.41225
▁స్థితి	-9.41249
▁నియమ	-9.41268
▁అగ్ని	-9.41273
▁ధన	-9.41291
65	-9.41298
▁అయినప్పటికీ	-9.41343
▁చేస్తూ	-9.41373
▁అతడి	-9.41417
▁త్రి	-9.41495
సిన	-9.41533
▁ఫ్ర	-9.41536
▁రాత్రి	-9.41553
ter	-9.41631
▁మద్దతు	-9.41927
▁గౌరవ	-9.41969
▁గాని	-9.42061
▁ఆది	-9.42105
▁సంవత్సరాలు	-9.42147
రికి	-9.4222
వపేజీ	-9.42259
వార్	-9.42267
▁ఫై	-9.42288
F	-9.42412
▁ఏప్రిల్	-9.42432
దె	-9.42443
▁సూచించ	-9.42488
▁లింగ	-9.42502
▁పొందింది	-9.42514
త్తి	-9.42555
▁చింత	-9.42576
▁మార్గ	-9.42599
నాడు	-9.42619
▁వస్తుంది	-9.4263
▁సమయ	-9.42637
▁మారింది	-9.4264
▁మూడవ	-9.42649
వేత్త	-9.42739
ుకుంది	-9.43004
మాన్	-9.43036
భారత	-9.43056
గ్రామానికి	-9.43105
▁చేసాడు	-9.43132
తోపాటు	-9.43133
స్తున్న	-9.43203
గొట్ట	-9.43208
ండే	-9.43248
75	-9.43298
47	-9.43422
ాక	-9.43459
▁క్రమ	-9.43491
▁ఇంత	-9.43525
68	-9.43561
▁కోల్	-9.43588
ేంద్ర	-9.43636
ద్య	-9.43677
భ్య	-9.43717
▁నక్షత్ర	-9.43717
▁with	-9.43734
▁సంస్థలు	-9.43806
▁ప్రసిద్ధ	-9.43853
▁ఆత్మ	-9.43971
▁భవన	-9.44015
▁2006	-9.44088
జన్	-9.44127
న్నది	-9.44158
60	-9.44161
▁K	-9.44164
▁ఉండటం	-9.44168
0%	-9.44187
గూడెం	-9.44195
దళ	-9.44231
ణా	-9.44322
▁ఉదాహరణ	-9.4435
▁ఏడు	-9.44398
ఎం	-9.44444
▁విశ్వవిద్యాలయ	-9.44483
▁పర	-9.44525
▁అధ్యక్షుడు	-9.44632
▁2010	-9.44677
▁గుర్తు	-9.44755
▁ప్రాచీన	-9.4477
▁చర్య	-9.44947
▁కల్పించ	-9.44969
▁అనంతరం	-9.45082
34	-9.4528
▁వాటిలో	-9.45386
నాథ	-9.45469
▁సభ్య	-9.45494
31	-9.45534
ేవాడు	-9.45535
▁చిత్తూరు	-9.4561
▁as	-9.45685
76	-9.45711
శారు	-9.45749
▁v	-9.4578
▁జాబితా	-9.45786
▁దేవాలయ	-9.45959
▁గీత	-9.46003
గొ	-9.46072
బే	-9.46201
కాలం	-9.46216
om	-9.46221
కోట	-9.46323
దల	-9.4634
se	-9.46378
is	-9.4638
▁బయట	-9.46387
▁మారి	-9.4642
ృత	-9.46503
▁రీ	-9.46537
0,000	-9.46616
▁లక్ష్మీ	-9.46622
▁జట్టు	-9.46681
ల్డ్	-9.46812
▁ప్రభావ	-9.4686
ంటుంది	-9.46861
▁డాక్టర్	-9.47
▁సెప్టెంబరు	-9.47072
▁సంఘ	-9.47156
మార్	-9.47156
▁బట్టి	-9.47325
▁చక్ర	-9.47396
▁బ్రిటీష్	-9.47469
▁దేశాలలో	-9.47518
▁భర్త	-9.47548
▁వెంటనే	-9.47679
▁జీవన	-9.4768
26	-9.4781
ట్రా	-9.4784
el	-9.47845
▁కూడిన	-9.47944
▁పురాణ	-9.47985
46	-9.47994
చీ	-9.48046
▁ఆల్	-9.4805
▁వ్యతిరేకంగా	-9.48063
▁తీస	-9.48079
▁ఫలితంగా	-9.48155
స్థాయి	-9.48174
రియ	-9.48281
ముఖ	-9.48342
శాఖ	-9.48343
▁అధికారులు	-9.48388
గ్రా	-9.48391
▁పాలన	-9.48403
▁యంత్ర	-9.48406
▁రక్త	-9.48455
▁పడి	-9.48469
H	-9.48573
▁కాలువ	-9.4867
▁పరిస్థితి	-9.48703
మన	-9.48745
▁సే	-9.48746
▁అతడు	-9.48861
▁ఫిబ్రవరి	-9.48899
▁తిరుపతి	-9.48951
55	-9.4899
▁ప్రదర్శించ	-9.49077
▁సామ్రాజ్యం	-9.49101
▁రెండో	-9.49108
▁అయింది	-9.49117
▁పరిధిలో	-9.49155
▁వ్యతిరేక	-9.49217
ారెడ్డి	-9.49295
71	-9.49312
▁తెర	-9.49358
▁వెల్	-9.49391
▁వెనుక	-9.49564
▁కర్నూలు	-9.49653
▁బ్రాహ్మణ	-9.49665
మర	-9.49689
జో	-9.49862
▁పాప	-9.49921
▁అర్ధ	-9.50086
▁by	-9.50114
▁యువ	-9.50114
▁విధానం	-9.50193
▁వర	-9.50237
పుర	-9.50308
▁జయ	-9.50337
▁దుర్	-9.50354
ైనా	-9.50371
▁ప్రతీ	-9.50396
▁అర్	-9.50443
▁పొడవు	-9.50498
▁పైన	-9.50521
తె	-9.50569
▁మాజీ	-9.50645
ందే	-9.5068
st	-9.50762
ర్తి	-9.50887
▁నేషనల్	-9.50949
▁అల్ల	-9.50953
▁రూపంలో	-9.5099
▁కమిటీ	-9.5103
▁పూజ	-9.51037
జాల	-9.51079
ప్రైవేటు	-9.51115
ూరులో	-9.51118
నల్	-9.51128
▁విధ	-9.51141
▁పేజీ	-9.51163
▁తనకు	-9.51303
▁రాష్ట్రంలో	-9.51309
జే	-9.51313
▁ఏర్పడిన	-9.51365
▁e	-9.51431
um	-9.51524
▁లేవు	-9.5153
▁●	-9.5153
▁తీ	-9.51567
కాయ	-9.516
▁కాంతి	-9.51627
భాగ	-9.51651
▁అయ్య	-9.5166
29	-9.51731
▁దిన	-9.51733
▁ప్రవేశ	-9.51782
▁సంబంధ	-9.51805
01	-9.5184
▁విదేశీ	-9.51863
▁మంత్ర	-9.51869
పించ	-9.51895
28	-9.51947
▁చీ	-9.51947
▁క్యా	-9.51976
▁హిందీ	-9.52015
▁చుట్టూ	-9.52046
గడ	-9.5206
85	-9.52185
▁శాంతి	-9.52187
▁బాధ్యత	-9.52227
వలసిన	-9.52253
శ్రీ	-9.52388
వేయ	-9.52446
▁సింగ్	-9.52449
▁క్రింద	-9.52452
▁యె	-9.52581
▁సభ్యులు	-9.52666
కము	-9.52704
▁ప్రణాళిక	-9.52793
▁కార్యదర్శి	-9.52837
35	-9.52994
లిక	-9.53021
▁సరి	-9.53037
▁పిలుస్తారు	-9.5312
శాస్త్ర	-9.53131
▁సామ్రాజ్య	-9.53149
ండర్	-9.53153
▁సమస్య	-9.53191
▁ప్రకాశం	-9.53207
లియ	-9.53284
▁ప్రదేశాల	-9.53302
▁తొ	-9.5331
క్షి	-9.5336
▁నేర	-9.53366
▁గొ	-9.53381
▁తెలుస	-9.5339
ర్ర	-9.53428
▁వేరుశనగ	-9.53578
పాటి	-9.53629
దన	-9.53715
▁ప్రపంచంలో	-9.53725
ంటూ	-9.53727
000	-9.53788
తలు	-9.5396
గారు	-9.54036
▁31	-9.54041
స్టు	-9.54089
చూ	-9.54176
రాజ్య	-9.54361
▁జన్మ	-9.54398
▁అనుమతి	-9.54418
▁మొక్కజొన్న	-9.54456
▁విశేష	-9.54588
64	-9.54667
▁తిరుగుబాటు	-9.54746
▁అప	-9.54783
▁పట్ల	-9.54789
▁ఆయనకు	-9.5479
27	-9.54793
em	-9.54799
డర్	-9.54827
యన్	-9.54853
పోయారు	-9.54862
చా	-9.54871
▁మొదలు	-9.54929
▁వాస్తవ	-9.54949
▁ఉంటే	-9.55012
పొ	-9.55158
▁1.	-9.55177
▁కల్ప	-9.55191
▁కుమార్తె	-9.55259
▁సిద్ధాంత	-9.55315
▁సమాన	-9.55337
▁ప్రకటన	-9.55349
▁సమీపంలో	-9.55362
▁పాల్గొన్నారు	-9.55409
▁ప్రవేశపెట్ట	-9.55534
▁పిల్లల	-9.55653
▁తగ్గించ	-9.55752
▁సైన్య	-9.55755
▁చాల	-9.5579
id	-9.558
ఫె	-9.5586
▁విమర్శ	-9.55928
▁అన్నారు	-9.55974
▁నియమించ	-9.56006
▁గారు	-9.56116
మత	-9.56122
▁de	-9.56287
ష్ఠ	-9.56322
ాల్సి	-9.56336
టరు	-9.56339
▁ఆధార	-9.56434
కార్	-9.56436
వైపు	-9.56506
▁కాలనీ	-9.56589
ాయని	-9.56594
36	-9.56673
క్షన్	-9.5669
ప్రాంత	-9.56735
▁అక్షర	-9.56853
▁గర్భ	-9.56958
▁స్థాయిలో	-9.56964
ేష్	-9.56986
ేయ	-9.56996
▁ఇక	-9.57075
▁మర	-9.5708
▁వ్య	-9.57083
▁దూ	-9.57097
ాంతర	-9.57142
▁నిర్మించిన	-9.57197
న్నె	-9.57207
08	-9.57212
▁ముస్లిం	-9.5726
▁బొమ్మ	-9.57385
▁52	-9.57423
▁సంయుక్త	-9.57458
▁సాంస్కృతిక	-9.5748
▁చట్టం	-9.57508
▁చెట్టు	-9.5766
37	-9.57665
▁రు	-9.57674
▁ఆగస్టు	-9.57731
▁మార్పు	-9.5777
▁సంపాదించ	-9.57826
కుంట	-9.57827
62	-9.57897
ంబు	-9.57923
▁తేదీ	-9.57953
▁పాద	-9.58036
▁51	-9.58063
జ్ఞాన	-9.58085
లింగ్	-9.5811
▁పోలి	-9.58115
▁2004	-9.58137
కాలంలో	-9.58266
70	-9.58377
▁con	-9.58423
▁సినీ	-9.58475
వాహ	-9.58512
▁ప్రధానంగా	-9.58567
ునికి	-9.58581
▁ఇక్కడి	-9.58587
▁అందు	-9.58639
ాలయం	-9.58642
▁స్థల	-9.58701
మొ	-9.58705
▁ఆసక్తి	-9.58716
▁వాతావరణం	-9.58724
▁ఘ	-9.58725
▁జన్మించాడు	-9.58735
ందున	-9.58814
పోయి	-9.5883
ిస్తే	-9.5896
▁చెప్పారు	-9.58977
▁వివాహ	-9.59019
▁కార్య	-9.59029
as	-9.59067
▁ఆలోచన	-9.59161
వలసి	-9.59322
▁గురువు	-9.59325
42	-9.59332
▁చేయబడింది	-9.59349
67	-9.59376
▁ప్రజలకు	-9.59383
వుల	-9.59391
▁పండుగ	-9.59425
▁బాధ	-9.59501
▁నేల	-9.59506
▁పత్ర	-9.59509
▁నియోజకవర్గం	-9.59509
▁100	-9.59524
77	-9.59582
▁కంప్యూటర్	-9.59641
ండ్ర	-9.59645
58	-9.59658
▁ఒప్పందం	-9.59699
▁గారి	-9.59797
మల	-9.60014
▁కారణ	-9.60082
▁సైన్యం	-9.60093
ాం	-9.60114
▁ఉపగ్రహ	-9.60159
▁మూస	-9.60223
sh	-9.60234
ార్ధ	-9.60259
▁సోమ	-9.60385
▁అన్నాడు	-9.6039
▁గుణ	-9.60423
డంలో	-9.60439
▁నవ	-9.60455
▁అంగీకరించ	-9.60512
▁ప్రయాణ	-9.60549
▁సంబంధం	-9.60552
▁డై	-9.60589
బద్ధ	-9.60616
72	-9.60651
82	-9.60833
▁వాడు	-9.60925
▁సాధన	-9.60958
లిన్	-9.61117
లక్ష్మి	-9.6126
▁రావ	-9.61295
పక్ష	-9.61341
▁గుడి	-9.6138
▁V	-9.6138
▁భాషా	-9.61437
ార్థ	-9.61462
▁పర్వము	-9.61468
▁ఎయిర్	-9.61518
▁ఫె	-9.61642
▁గృహాలు	-9.61652
▁కన్	-9.61681
▁సాంప్రదాయ	-9.6171
▁జై	-9.61712
స్త్ర	-9.61777
▁పాటలు	-9.61829
▁జరగ	-9.61861
▁కింద	-9.61896
▁సంవత్సరము	-9.61966
▁హు	-9.62034
80	-9.62062
▁O	-9.62107
▁చెప్పిన	-9.62121
▁ఉదాహరణకు	-9.62135
హో	-9.6224
▁ప్రారంభించారు	-9.62283
ాపూర్లో	-9.62381
▁గృహ	-9.62384
▁చేస	-9.62438
▁అక్కడి	-9.62443
▁మల్ల	-9.62482
38	-9.62491
59	-9.62521
▁మొదల	-9.62536
▁రాజ్యం	-9.62544
▁చేయాలని	-9.62549
▁ముఖ్యమంత్రి	-9.6257
▁ప్రాంత	-9.62626
▁పారి	-9.62659
▁వర్ష	-9.62706
ంటా	-9.62733
▁రేడియో	-9.62745
▁అనుభవ	-9.62775
▁చదువు	-9.62871
▁తెల్ల	-9.62891
కంగా	-9.62901
ంతా	-9.62973
▁ఆఫ్రికా	-9.62997
వల్ల	-9.63033
▁సహాయ	-9.63043
99	-9.63093
▁పద్మ	-9.63163
▁వెళ	-9.63167
▁మొక్క	-9.63178
▁ముఖ	-9.63205
ుతున్నారు	-9.63212
▁అయి	-9.63224
▁మార్గం	-9.63323
▁హెచ్	-9.63437
▁గ్రామములో	-9.63459
▁పట్టు	-9.63524
▁ప్రకృతి	-9.63544
పూ	-9.63626
▁ఎందుకంటే	-9.63674
07	-9.63792
రియన్	-9.63875
▁ఇప్పటికీ	-9.63936
▁జొన్న	-9.63938
▁నర	-9.6394
▁శిక్ష	-9.63975
78	-9.64043
▁ద్రవ	-9.64065
▁డ్ర	-9.64113
▁కాబట్టి	-9.64156
▁ఇచ్చిన	-9.64161
▁గణ	-9.64419
98	-9.64475
పడి	-9.64476
▁35	-9.64509
▁ప్రో	-9.64521
▁రాసిన	-9.64543
▁పాకిస్థాన్	-9.64546
నాటి	-9.64681
54	-9.64692
▁అమరావతి	-9.64739
మయ	-9.64774
▁ప్రయత్న	-9.64828
ve	-9.6486
▁తెలి	-9.64883
▁శాస్త్రం	-9.64914
▁డిస్	-9.64925
▁రికార్డు	-9.64937
▁సూచి	-9.64945
▁అందుకు	-9.65002
రుగు	-9.65018
▁సంఘటన	-9.65088
▁భారత్	-9.65092
▁ప్రాంతాల్లో	-9.65108
▁కోర్టు	-9.65158
గె	-9.65192
▁పరా	-9.65244
▁తిరుమల	-9.65248
▁శిల్ప	-9.65257
▁నాయక	-9.65265
ుకుంటారు	-9.65265
▁చెక్క	-9.65276
▁హార్	-9.65294
▁వ్యాస	-9.65349
▁అనంత	-9.65367
పురంలో	-9.6546
▁దిగ	-9.65476
▁కరీంనగర్	-9.65478
▁అర	-9.6548
▁నలుగురు	-9.65503
ందో	-9.65545
స్టి	-9.65546
▁వివరించ	-9.65559
జయ	-9.65562
నీయ	-9.65572
▁ఉంటారు	-9.65587
▁ప్రకటించ	-9.65589
ధు	-9.65606
▁సూక్ష్మ	-9.6565
రాయి	-9.65679
▁నియంత్రణ	-9.65683
▁భూభాగం	-9.65716
ాంగ	-9.65759
▁పరిపాలన	-9.65765
దాన	-9.65767
▁సమయం	-9.65819
▁ఆధ్వర్యంలో	-9.65823
▁రాష్ట్రాల	-9.65848
ినా	-9.65919
వలన	-9.65979
▁అతనికి	-9.65979
▁on	-9.66047
▁కూడ	-9.6605
▁యూనియన్	-9.66057
▁భౌతిక	-9.6612
▁వేస	-9.66121
▁జే	-9.66172
▁ఖాన్	-9.66201
▁చెప్పాడు	-9.66221
కృత	-9.66231
▁కామ	-9.66316
ాంత	-9.66337
▁స్వా	-9.66345
కృష్ణ	-9.66349
▁ప్రాజెక్టు	-9.66393
ఖా	-9.66421
ac	-9.66462
ములలో	-9.66512
▁కల్	-9.66517
వాన్	-9.66534
గల్	-9.66554
90	-9.66561
▁ప్రెస్	-9.66598
ేలా	-9.66624
యాన్	-9.66666
నిక్	-9.66675
▁2005	-9.66683
95	-9.66756
°	-9.66803
హర	-9.66817
ువు	-9.66842
66	-9.6685
83	-9.66879
▁తిరు	-9.6694
జ్జ	-9.66944
భేద	-9.66944
▁రోజులు	-9.67012
వంతమైన	-9.67083
టై	-9.67107
▁పుస్తక	-9.67221
▁లై	-9.67256
▁దీ	-9.67272
ోత్సవ	-9.67371
▁60	-9.67388
V	-9.67409
▁సిటీ	-9.67418
69	-9.67445
షియ	-9.67453
దారు	-9.67475
▁బాల్	-9.67485
లింగ	-9.67493
డూ	-9.67494
ిగా	-9.6751
▁అంశాల	-9.67523
▁చూస	-9.67528
▁ప్రచురించ	-9.67578
03	-9.67625
▁కీలక	-9.67671
▁ఉందని	-9.67681
ల్లె	-9.67684
93	-9.67739
తూ	-9.67774
ర్ధ	-9.67945
క్ర	-9.67976
యిల్	-9.68001
▁భక్తులు	-9.68009
▁రావు	-9.68079
వతి	-9.68095
శు	-9.68163
▁that	-9.68276
▁జు	-9.68295
▁దీన్ని	-9.68363
▁మరణ	-9.68402
▁అంతర్	-9.68424
▁చల్ల	-9.68444
84	-9.68491
▁జరుప	-9.68508
06	-9.6853
▁స్వీకరించ	-9.68545
▁దేవాలయం	-9.68573
▁ఫర్	-9.6863
▁అర్థ	-9.68665
81	-9.68676
హిత	-9.68693
ుకోవడానికి	-9.68707
ర్థ	-9.68714
▁విగ్రహ	-9.68738
శ్య	-9.68767
▁వృక్ష	-9.68774
05	-9.68876
▁కావ్య	-9.69028
▁అడ్డ	-9.69116
పల్లిలోను	-9.69119
▁వ్యా	-9.69155
▁భాషలో	-9.69207
▁కార్యక్రమాల	-9.69232
▁ఉపయోగించి	-9.69268
▁దర్శన	-9.69272
96	-9.69284
స్తాడు	-9.69299
▁చక్రవర్తి	-9.69325
▁గడి	-9.69349
ినప్పుడు	-9.69368
హం	-9.69437
▁ఉన్నది	-9.69488
74	-9.69488
ta	-9.69526
▁అభిప్రాయ	-9.69535
di	-9.69555
09	-9.69623
▁తెచ్చ	-9.69705
▁నిజ	-9.69768
క్కి	-9.69803
91	-9.6985
▁అనంతపురం	-9.6985
స్తే	-9.69878
▁ఎక్కడ	-9.69933
-1	-9.70061
▁వ్యాసం	-9.70098
▁చివర	-9.70114
▁జారీ	-9.70145
▁పాకిస్తాన్	-9.70245
▁నడి	-9.70276
vi	-9.7035
శీ	-9.70354
కవి	-9.70365
ానంద	-9.70382
▁పుష్ప	-9.70454
▁ద్వీప	-9.7052
ాధికార	-9.70531
ాబాద్	-9.70565
▁క్రి	-9.70653
ట్రో	-9.70668
స్కో	-9.70728
87	-9.70742
ేది	-9.70773
పోయాడు	-9.70808
▁com	-9.7081
ాపూర్	-9.70814
▁ప్రొ	-9.70867
జీవ	-9.70955
▁నిర్మించారు	-9.71055
▁లోహ	-9.7123
విద్య	-9.71245
▁2016	-9.71271
▁సమాచారం	-9.71347
టూ	-9.71349
కూరు	-9.71362
▁మాట్లాడుతూ	-9.71395
గీ	-9.71405
రాల	-9.71432
లాండ్	-9.71451
▁రష్యా	-9.71467
▁శైలి	-9.71473
▁ప్రచారం	-9.7151
▁జాన్	-9.71529
▁విచారణ	-9.71572
▁an	-9.7159
▁విప్లవ	-9.71677
▁విడుదలైన	-9.71748
▁ఉద్దేశ	-9.71779
92	-9.71791
ులతో	-9.71792
▁st	-9.7181
▁it	-9.71828
▁మరి	-9.71854
యన	-9.71916
▁నిర్వహించిన	-9.71922
▁వేడి	-9.71925
▁విన	-9.7196
▁ఎన్నిక	-9.71973
▁విషయాల	-9.71975
▁నమూనా	-9.71986
}	-9.72112
▁కర్ణాటక	-9.72176
▁నేత	-9.72215
▁పేర్కొన్నారు	-9.72217
▁కొట్ట	-9.72227
▁ముందుగా	-9.72266
▁అయినా	-9.72284
పరమైన	-9.72546
▁గ్రహ	-9.72595
▁సొంత	-9.72617
▁నాడు	-9.72689
▁ఉన్నాడు	-9.72836
సింగ్	-9.7286
▁విభజించ	-9.72907
▁వాయువు	-9.73001
▁తరగతి	-9.73003
ment	-9.73005
▁ఉద్యమం	-9.73034
▁కొల	-9.73049
▁కలసి	-9.73061
▁రచించిన	-9.7307
గత	-9.73101
02	-9.73109
సార	-9.73121
శక్తి	-9.73124
క్తి	-9.73148
57	-9.73226
కోసం	-9.73243
86	-9.73322
▁వేసవి	-9.73335
▁తెలుగులో	-9.73423
▁భావిస్తున్నారు	-9.73446
▁ప్లా	-9.73492
▁ప్రశ్న	-9.73508
స్టా	-9.73578
▁చిత్రంలో	-9.73582
▁సమాజ	-9.73601
▁విజయనగరం	-9.73662
▁గతంలో	-9.73674
▁విజ్ఞాన	-9.73692
▁శంకర	-9.73699
ెం	-9.73816
నూరు	-9.73857
స్సు	-9.73885
చర్	-9.73913
▁వీలు	-9.73942
ధ్వ	-9.73968
▁తరచుగా	-9.7401
▁జపాన్	-9.74013
▁ఇప్పటి	-9.74044
ాలనే	-9.74051
పడిన	-9.74165
▁క్షేత్ర	-9.7417
డ్డ	-9.74183
ంచు	-9.74234
▁కొడుకు	-9.74256
▁ప్రవేశించ	-9.74286
ల్ని	-9.74424
ot	-9.74547
▁పసుపు	-9.74549
▁అంగ	-9.74605
88	-9.74615
45	-9.74627
▁తక్కువగా	-9.74641
▁డే	-9.74667
▁వంటివి	-9.74711
▁చెప్పవచ్చు	-9.74716
73	-9.74885
▁అనుసరించి	-9.74926
97	-9.74932
▁నౌక	-9.74942
▁కలుప	-9.74954
▁మంద	-9.74958
ధీ	-9.7506
ాచార్య	-9.75141
▁మౌ	-9.75158
▁విష్ణు	-9.75171
▁సత్	-9.75212
▁మేరకు	-9.7523
▁2000	-9.75315
▁చర్యలు	-9.75399
▁నై	-9.75536
▁చిత్రాల	-9.75671
te	-9.75701
ma	-9.75787
▁పుస్తకం	-9.75817
▁పెద	-9.75953
▁ఎన్న	-9.75997
స్య	-9.76062
▁కార్యక్రమంలో	-9.76085
▁టో	-9.76091
▁హే	-9.76095
త్స	-9.76169
దేశం	-9.76179
▁వాహన	-9.7621
▁పరిచయం	-9.76242
▁జూ	-9.76248
▁శాస్త్రీయ	-9.76317
▁ఆధారపడి	-9.76358
వర్తన	-9.7636
▁స్కూల్	-9.76427
▁ద్వార	-9.7654
▁జిల్లాకు	-9.76556
▁యోగ	-9.76558
కింగ్	-9.76558
▁సౌ	-9.76562
▁పిల్ల	-9.76623
▁ఎర్ర	-9.76629
89	-9.76637
▁నల్గొండ	-9.76729
age	-9.76776
వైన	-9.76796
ుంది	-9.768
▁క్రింది	-9.76804
ాభి	-9.76831
▁నివేదిక	-9.7684
బడే	-9.76863
శాస్త్రం	-9.76909
▁ఖర్చు	-9.76923
▁ఎన్నికల	-9.76924
ate	-9.76952
▁కూర్చ	-9.77017
ఫే	-9.771
▁పోషించ	-9.77122
▁ప్రాంతాలు	-9.77147
▁పదవి	-9.77152
▁సగటు	-9.77199
▁పచ్చ	-9.7721
మ్ము	-9.77256
▁ఔ	-9.77257
▁పవిత్ర	-9.77283
▁బంగారు	-9.77337
ఘా	-9.77369
▁గ్రంథ	-9.77468
▁తయార	-9.77481
తక	-9.77484
గానూ	-9.77515
సేన	-9.77532
04	-9.77607
పోతుంది	-9.77627
▁దూర	-9.77643
గ్రహ	-9.77656
▁సభ్యుల	-9.77706
ప్రా	-9.77756
94	-9.77767
▁తీవ్ర	-9.77822
▁కాకినాడ	-9.77838
▁చెందింది	-9.77864
షీ	-9.77932
▁అధ్యయనం	-9.7794
▁అసలు	-9.77947
సియా	-9.77956
▁బంధ	-9.77973
▁జీవితం	-9.78069
▁జర్మనీ	-9.78173
టరీ	-9.78178
▁విద్యార్థులు	-9.78268
▁నగరాల	-9.78299
ow	-9.78378
▁ఉండగా	-9.78428
▁కాపాడ	-9.7845
▁వివర	-9.78461
79	-9.78487
▁కనిపిస్తుంది	-9.78569
శ్వ	-9.78686
▁దో	-9.78695
కృతి	-9.78701
▁స్వాతంత్ర్య	-9.78705
ుకుంటున్న	-9.7875
▁దీనిలో	-9.78793
ణ్	-9.78833
ఖ్	-9.78835
▁అవసరమైన	-9.78867
▁దర్శకత్వం	-9.78873
యాన	-9.78942
▁he	-9.78983
తున్న	-9.79034
▁నిజాం	-9.79099
▁విషయంలో	-9.79117
▁ముక్క	-9.79131
▁అభ్యర్థి	-9.79157
లిక్	-9.79161
యోగ	-9.79219
▁అప్ప	-9.79245
బడతాయి	-9.79249
▁వున్నవి	-9.79279
కంటే	-9.79342
ist	-9.79379
▁కింగ్	-9.79441
▁వెళ్లి	-9.79454
▁రంగంలో	-9.79468
▁చేతి	-9.79492
▁యుద్ధంలో	-9.79493
▁కర్మ	-9.79583
▁వ్యక్తిగత	-9.796
వారికి	-9.79617
▁స్టీ	-9.79734
ాయ్	-9.79821
▁అధికారం	-9.79835
భాగం	-9.79883
56	-9.79897
▁నిర్మాత	-9.79925
ాల్సిన	-9.79943
▁{	-9.79964
ర్చ	-9.79964
▁క్రైస్తవ	-9.7997
▁భక్తి	-9.80021
and	-9.80024
▁దొర	-9.80061
వాగు	-9.80075
▁సర్వీసు	-9.80122
▁సార్లు	-9.80162
వలె	-9.802
▁పురుష	-9.80207
కట్ట	-9.8021
ఫో	-9.80213
▁దీంతో	-9.80215
దారుల	-9.80268
ైతే	-9.80309
ుతుందని	-9.80337
నప్పుడు	-9.80364
▁మన్	-9.80388
శాస్త్రి	-9.80431
{	-9.80451
▁దర్శకుడు	-9.80522
భి	-9.80542
▁సాధ్య	-9.80577
▁సినిమాలో	-9.80592
▁పండ	-9.80623
▁పొర	-9.80659
▁|	-9.80705
▁గే	-9.80705
దిగా	-9.80716
రాం	-9.80732
▁ప్రత్యక్ష	-9.80745
గుణ	-9.80796
పరంగా	-9.80838
▁పరిస్థితుల	-9.80855
hi	-9.8093
▁జిల్లాలోని	-9.80988
▁was	-9.8102
▁వ్యాసాలు	-9.81036
యము	-9.81037
▁కథలు	-9.81041
డము	-9.8108
▁దీప	-9.81098
వేశ	-9.81116
▁పనులు	-9.81165
▁వార్	-9.81215
గడ్డ	-9.81285
గారి	-9.81319
ాంశ	-9.8136
▁are	-9.81438
▁pro	-9.81475
▁గౌ	-9.81502
▁సోదర	-9.81578
▁నెహ్రూ	-9.81587
▁భాగంలో	-9.81613
చ్చు	-9.81633
▁అర్బన్	-9.81649
▁from	-9.81674
▁సాగు	-9.81778
▁చేసుకున్న	-9.81796
▁ప్రఖ్యాత	-9.81834
య్యారు	-9.81866
బీయెస్	-9.81964
▁పర్యాటక	-9.81985
లియా	-9.82066
▁నిర్ణయ	-9.82067
▁మతం	-9.82091
పల్లెలో	-9.82175
నప్పటికీ	-9.82191
lo	-9.82202
ఫల	-9.82209
ద్ది	-9.82215
▁మనం	-9.82216
దూ	-9.82268
▁కాయ	-9.82315
క్ష్య	-9.82473
ాలంటే	-9.82476
తుంది	-9.82477
▁mo	-9.8248
పత్తి	-9.82496
గుంట	-9.82533
▁లభించింది	-9.82566
▁ఎమ్బీ	-9.82587
▁ఉన్నా	-9.82677
▁ఉండాలి	-9.82697
▁చిత్రాలు	-9.82707
▁పట్టణం	-9.82747
▁రూపాయల	-9.82758
▁వదిలి	-9.8277
▁చదివిన	-9.82803
▁r	-9.82815
▁అంతే	-9.8286
▁ఉండవచ్చు	-9.82895
తనం	-9.82948
▁వ్రాసిన	-9.82974
రిక్	-9.83078
▁వస్త్ర	-9.83094
▁వ్రాయ	-9.83103
రాలు	-9.83131
కరమైన	-9.83158
▁చరిత్రలో	-9.83209
▁వయస్సు	-9.83221
▁సుందర	-9.83237
▁వారిలో	-9.83295
ించు	-9.83351
▁పుట్టిన	-9.83367
తికి	-9.83415
ణీ	-9.83447
ింపబడ	-9.83463
▁సమావేశ	-9.83486
యల్	-9.83581
▁తోట	-9.83656
షు	-9.83824
▁క్రికెట్	-9.83845
వ్యా	-9.83882
51	-9.83904
ుడికి	-9.83908
▁32	-9.8394
ందా	-9.8397
ant	-9.83994
▁కాల్	-9.83994
▁ఆహారం	-9.84045
▁మగ	-9.84164
టంతో	-9.84174
డాన్ని	-9.84176
▁దృశ్య	-9.84226
ాలపై	-9.84252
రల్	-9.84258
▁ప్రసార	-9.84305
▁పొందారు	-9.84306
ru	-9.84333
▁రస	-9.8435
▁పర్	-9.84443
నియన్	-9.84464
▁పోలీసులు	-9.84505
▁ఉష్ణ	-9.84534
▁ఆస్ట్రేలియా	-9.84553
దారులు	-9.84558
▁ఆలయంలో	-9.84625
▁నృత్య	-9.84643
▁at	-9.84662
కొని	-9.84709
▁పిల్లలు	-9.84754
▁చర్చి	-9.84838
పోయే	-9.84859
▁గుర	-9.84864
▁మిలియన్	-9.84901
▁సీఎం	-9.85034
▁ఆక్రమించ	-9.85075
▁వుండ	-9.8508
▁సంబంధించి	-9.85091
చేసిన	-9.85145
▁se	-9.8515
పోవ	-9.85193
ka	-9.85241
హీ	-9.85263
ak	-9.85298
మ్స్	-9.8532
est	-9.85325
▁అధికారుల	-9.85556
▁దక్క	-9.85586
▁1990	-9.85625
చిత్ర	-9.8564
▁వార్త	-9.85655
▁మ్యాచ్	-9.85737
నాయక	-9.8574
▁తీయ	-9.8574
▁పార్	-9.85747
▁ఉపాధ్యాయ	-9.85753
చేత	-9.85755
▁చేయబడిన	-9.85769
▁ఇలాంటి	-9.8577
▁తగ్గి	-9.85778
▁వైద్యశాలలో	-9.85799
కాంత	-9.85857
▁చెన్నై	-9.85866
▁–	-9.85869
▁జైలు	-9.85875
శేఖర	-9.85907
క్సి	-9.85924
▁తరువాతి	-9.8597
▁దిగువ	-9.86106
ంటాడు	-9.86152
రన్	-9.86175
▁మీటర్ల	-9.8618
ive	-9.86239
దార్	-9.86256
▁మనిషి	-9.863
▁పన్ను	-9.86351
▁అవుతుంది	-9.8641
▁చంద	-9.86439
▁మల	-9.86442
▁అడుగు	-9.86529
▁రాగ	-9.86567
▁అఫ్	-9.86641
▁ఇచ్చారు	-9.86675
గుల	-9.86692
ంద్ర	-9.86716
▁ఇస్లాం	-9.86753
▁అడుగుల	-9.86789
నాథ్	-9.86791
▁కొంతమంది	-9.86813
ia	-9.86882
▁నీవు	-9.86939
▁ఖా	-9.86952
▁సాధించింది	-9.86982
శం	-9.86995
ొక్క	-9.8701
▁హత్య	-9.87051
▁సెంటర్	-9.87091
▁జన్మించారు	-9.87105
▁విద్యార్థి	-9.87122
▁ఛ	-9.87155
▁వ్యవహరించ	-9.87296
▁ప్లే	-9.87315
▁ఉద్	-9.87395
U	-9.8742
▁శబ్ద	-9.87428
▁విషయ	-9.87483
▁డివిజన్	-9.87488
ers	-9.87535
▁పనిచేస్తున్న	-9.87548
▁సంబంధిత	-9.87608
మైనవి	-9.87637
▁వాల్	-9.87644
ండీ	-9.87665
నాధ	-9.8772
రేట్	-9.87729
ుకొన్న	-9.87803
▁మధ్యలో	-9.87857
▁సాధించిన	-9.87905
▁ఉదయం	-9.87979
▁విష	-9.88035
▁ప్రత్యేకంగా	-9.8804
▁ma	-9.88059
ధార	-9.88067
ాలయ	-9.88095
నంద	-9.88163
మయిన	-9.88256
▁నాకు	-9.88276
▁జనరల్	-9.88306
▁ప్యా	-9.88311
▁కోరిక	-9.88437
▁దైవ	-9.88474
▁చేరి	-9.88479
53	-9.88547
▁యే	-9.88559
▁తత్వ	-9.88586
▁ఆమెను	-9.88593
తృ	-9.88616
▁ఏమి	-9.8868
▁గ్రామీణ	-9.88692
▁ఆమ్ల	-9.88778
▁పరమ	-9.88817
వడం	-9.88877
▁ప్రవాహ	-9.88886
▁క్రో	-9.88974
52	-9.8898
▁45	-9.89002
▁ప్రదేశం	-9.89048
▁హీరో	-9.89072
▁సొ	-9.89087
▁ప్రాంతీయ	-9.89119
▁రొ	-9.89159
▁వేదిక	-9.89172
▁పెడ	-9.89223
కారుడు	-9.89247
▁వేడుక	-9.89256
na	-9.89275
కుమార్	-9.89275
▁చెల్లించ	-9.8934
▁గమనించ	-9.89344
పర	-9.8935
కొన	-9.8942
▁వాయు	-9.89476
▁రిపబ్లిక్	-9.89509
▁మారు	-9.89518
▁జగన్	-9.89558
▁పుణ్య	-9.89616
▁నీటిని	-9.89622
ముతో	-9.89649
▁సూత్ర	-9.8969
▁ప్రమాద	-9.89692
▁ఎదురు	-9.89747
▁నటుడు	-9.89808
వెన్	-9.89832
▁యి	-9.89923
▁వేసి	-9.89987
▁ఆప	-9.90019
▁సాంఘిక	-9.90037
▁గంగ	-9.90075
▁ఇటీవల	-9.90098
రాన్	-9.90119
▁ఇరు	-9.90136
ాకార	-9.90182
పరు	-9.90199
డ్స్	-9.90205
▁ప్రయత్నించ	-9.90222
గురు	-9.90236
మంత	-9.90266
▁2017	-9.90275
పాడులో	-9.90297
వచ్చ	-9.90322
op	-9.90339
▁యాత్ర	-9.90345
చ్చే	-9.9036
▁వహించ	-9.90406
పాత్ర	-9.90551
co	-9.90579
తంత్ర	-9.90582
▁అన్నది	-9.90609
▁అంతా	-9.90614
▁పరిమాణం	-9.9069
ేరు	-9.90758
ci	-9.90782
▁ప్రతిష్ఠ	-9.90798
▁లోక	-9.90822
▁ఎవరి	-9.90853
▁వన	-9.90869
▁పారిశ్రామిక	-9.90912
▁లాల్	-9.90963
G	-9.90967
దృ	-9.90977
▁ఏర్పడింది	-9.91003
▁పంచాయతీ	-9.9105
▁బర్	-9.91092
▁తగిన	-9.91163
బడ్డాడు	-9.91217
ోప	-9.91229
సిస్	-9.91232
▁రాక్షస	-9.91256
▁నంది	-9.91309
▁గంగా	-9.91321
▁సేవలు	-9.91323
ay	-9.91362
గొండ	-9.91384
ళ్	-9.91388
▁వ్రాస	-9.91438
▁మిలియన్ల	-9.91469
▁వర్గం	-9.91574
ోత్సవం	-9.91624
▁అందువలన	-9.91633
▁రచనలు	-9.91687
▁కడప	-9.91718
▁కార్యక్రమాలు	-9.91743
▁లక్ష్య	-9.91899
హు	-9.91923
5%	-9.91972
పదార్ధ	-9.91993
▁సృష్టి	-9.91998
రుగ	-9.92005
చ్చిన	-9.92048
ab	-9.92051
▁పురస్కారం	-9.92091
▁రద్దు	-9.92104
▁దర్	-9.92126
ంటె	-9.92168
పేటలో	-9.92169
యిన్	-9.92176
▁లాభ	-9.92176
మార్గ	-9.92229
డెన్	-9.92284
ుతోంది	-9.92402
▁ఏరియా	-9.92409
వల్	-9.92411
మణి	-9.92501
▁పల్లె	-9.92601
▁వంట	-9.92623
▁పనిచేశాడు	-9.92662
▁అగ్ర	-9.92707
▁స్వర	-9.92738
▁చలనచిత్ర	-9.92788
▁దాన్ని	-9.92813
▁చేతిలో	-9.92834
▁దూరములో	-9.92856
చారు	-9.92858
▁స్త్రీలు	-9.92881
ంపేట	-9.92892
▁భూగర్భ	-9.92945
▁ఎఫ్	-9.92948
▁అర్ధం	-9.93086
ంతి	-9.93132
టివ్	-9.93138
ఋ	-9.93331
▁గణిత	-9.93346
ారావు	-9.93377
▁సముద్రం	-9.93454
▁కొనుగోలు	-9.93497
పాలెంలో	-9.93501
▁చారిత్రక	-9.9353
▁ప్రయత్నం	-9.93536
▁జగ	-9.93543
రువు	-9.93549
▁నిత్య	-9.9357
▁వీడియో	-9.93596
▁పొందాడు	-9.93642
తిక	-9.93647
▁కార్యక్రమం	-9.93654
W	-9.9368
ారంలో	-9.93686
య్యా	-9.93693
▁కన్నడ	-9.93721
▁తేడా	-9.93733
▁పేర్లు	-9.9374
▁ఉండేవి	-9.93811
▁ప్రాంతాన్ని	-9.93814
▁బరువు	-9.93831
ొక	-9.93889
ంబర్	-9.93974
▁స్వంత	-9.93975
▁మిగతా	-9.93988
▁పరిసర	-9.93993
▁హక్కు	-9.94038
▁మహారాష్ట్ర	-9.94046
▁ఆమెకు	-9.94082
▁దర్శకత్వంలో	-9.94088
▁చెరకు	-9.94256
పోవడం	-9.94276
మోహన్	-9.94279
క్సైడ్	-9.94283
▁నెలల	-9.94295
▁పెట్టి	-9.94329
▁తరలించ	-9.94335
పేరు	-9.94354
ఖ్య	-9.94376
▁2012	-9.94508
▁ఉత్పత్తుల	-9.94546
▁స్టేట్స్	-9.94594
▁డబ్బు	-9.94614
▁ఇండియన్	-9.94619
res	-9.94631
▁గూ	-9.94723
టల్	-9.94744
వేద	-9.94799
ge	-9.94853
▁which	-9.94909
▁లండన్	-9.9491
▁1980	-9.94938
▁తీసుకో	-9.94955
▁పనిచేశారు	-9.94961
చర్ల	-9.94983
లెక్	-9.94999
▁గోడ	-9.95034
▁దశలో	-9.95046
▁పొడి	-9.95075
కథ	-9.95077
▁ఊరి	-9.95087
▁వాతావరణ	-9.95095
▁పదార్థాల	-9.95153
▁సెల్	-9.95184
▁క్ల	-9.95236
▁సమాచార	-9.95321
దశ	-9.95349
డియా	-9.95349
▁పూర్వం	-9.95424
▁వర్గ	-9.95468
▁నిర్మ	-9.9547
షియా	-9.95581
బంధ	-9.95628
▁కర	-9.95705
▁జరిప	-9.95752
▁పేద	-9.9584
▁లకు	-9.95847
▁ఆయా	-9.95852
▁మాన్	-9.95861
▁మనసు	-9.95861
షే	-9.95871
ద్దు	-9.95911
▁చలన	-9.95932
▁భావన	-9.95933
బడ్డ	-9.96029
▁క్రీడా	-9.96126
▁కై	-9.96132
▁నరసింహ	-9.96174
హరి	-9.96176
▁కుమార్	-9.96184
నారాయణ	-9.96185
▁ఇతను	-9.96227
▁కార్యకలాపాల	-9.96241
▁రోజుల్లో	-9.96245
ul	-9.96282
▁చివరకు	-9.96305
▁వృద్ధి	-9.9635
ity	-9.96414
▁వచ్చాయి	-9.96489
▁వచ్చ	-9.96546
▁నిల్వ	-9.96587
▁తీసుకుని	-9.9659
బల	-9.96679
డింగ్	-9.96707
పాక	-9.9672
all	-9.96725
▁అందుకే	-9.96729
న్నింటి	-9.96745
▁మార్పులు	-9.96745
ుకుంటూ	-9.96751
గమ	-9.96846
యింది	-9.96972
రియల్	-9.97005
▁జరుగుతున్న	-9.9717
▁పలక	-9.9723
▁నటి	-9.97253
▁పురస్కార	-9.97266
▁ఇంధన	-9.97289
▁ప్రక్క	-9.97314
పడింది	-9.97319
▁పాల్గొన	-9.97322
నార్	-9.97331
▁బార్	-9.97384
▁డో	-9.97425
▁ఉపయోగించే	-9.97458
▁హక్కుల	-9.97625
▁పరిశీలించ	-9.9766
▁కుటుంబం	-9.97666
ిణి	-9.97678
వెల్	-9.97686
▁జరిగాయి	-9.97692
▁ప్రథమ	-9.97736
▁ఇష్ట	-9.97741
బర	-9.97751
▁మట్టి	-9.97768
▁తార	-9.97845
▁గాను	-9.9794
▁ఇంగ్లీషు	-9.98066
▁అందరి	-9.98166
▁మామిడి	-9.98204
▁వరల్డ్	-9.98251
▁హాజర	-9.98259
▁పోలీసు	-9.98301
▁చదువ	-9.98305
నామ	-9.98335
▁ఇచ్చే	-9.98391
▁స్నేహితు	-9.98403
▁అడవి	-9.98414
ఓ	-9.98459
▁ఫ్రెంచ్	-9.98477
▁వయసు	-9.98497
ష్ణ	-9.98508
▁ఇంద్ర	-9.98548
▁బౌ	-9.98561
ారా	-9.98562
▁నట	-9.98637
▁నాలుగ	-9.98642
▁లేదని	-9.98686
ఫర్	-9.98732
▁ఇచ్చి	-9.98887
▁పద్ధతుల	-9.98899
ఛ	-9.98918
▁నాయకుడు	-9.98925
▁రథ	-9.99014
▁ప్రైవేట్	-9.99026
ag	-9.99046
▁తేదీన	-9.99057
▁నిజామాబాద్	-9.99095
▁పరికరాల	-9.9912
▁ఆమ్లం	-9.9915
▁ఇంటర్	-9.9915
▁ప్రాధాన్యత	-9.99164
▁విద్యార్థుల	-9.99167
క్షేత్ర	-9.99227
▁కలిగించ	-9.99261
▁నాయకులు	-9.9929
▁వరుస	-9.99309
▁దేశాలు	-9.99353
▁గోపాల	-9.99361
▁సింహ	-9.99407
దాయ	-9.99424
బడుతున్న	-9.99426
▁చెప్పి	-9.9946
▁వస్తున్న	-9.99537
చై	-9.99563
▁నూ	-9.9957
శీల	-9.99572
గణ	-9.99601
▁యో	-9.99605
▁వెబ్	-9.99666
▁అధికారిక	-9.9977
▁ప్రభ	-9.99773
▁తమిళనాడు	-9.99806
బడ్డారు	-9.9982
▁విభాగ	-9.9986
▁ex	-9.99907
▁రకాలు	-10.0001
▁పదార్థం	-10.0001
▁కాన్	-10.0001
▁దర్శించ	-10.0004
▁తీసి	-10.0008
▁అలీ	-10.001
▁అణు	-10.0016
▁వందల	-10.002
▁నిలిచి	-10.0021
▁33	-10.0022
భూత	-10.0022
up	-10.0026
ne	-10.0026
▁కప్ప	-10.0035
▁మిశ్రమ	-10.0041
▁సాయం	-10.0042
▁రాణి	-10.0054
▁పోరాట	-10.0057
▁అనుబంధ	-10.0058
▁గుండె	-10.006
▁దిశ	-10.0064
j	-10.0071
▁నంద	-10.0088
▁సున్న	-10.0093
▁రాజ్యాంగ	-10.0097
నింగ్	-10.01
▁తిన	-10.0101
▁విధాన	-10.0107
ga	-10.0107
▁సీత	-10.0117
▁ఏర్పరచ	-10.0119
ప్రాథమిక	-10.0121
▁పనిచేయ	-10.0121
▁రాష్ట్రంలోని	-10.0122
▁కారణాల	-10.0124
▁విభాగం	-10.0125
▁పున	-10.0127
he	-10.0128
దేశాల	-10.0135
▁మానసిక	-10.0136
▁ఆచార	-10.0138
▁తీసుకున్న	-10.0139
బొ	-10.0145
▁పాలనలో	-10.0146
▁పర్యావరణ	-10.015
du	-10.0151
▁బాణ	-10.0153
ish	-10.0153
▁సారి	-10.0155
పురా	-10.0155
▁క్లా	-10.0156
▁వివరణ	-10.0156
▁80	-10.0159
▁పనుల	-10.0161
యోధ	-10.0167
స్తున్నారు	-10.0167
▁జాతుల	-10.0171
▁ఆదివారం	-10.0179
రాజ్	-10.018
▁తిరుగు	-10.0189
▁యజ్ఞ	-10.0191
ాపురంలో	-10.0193
▁సంపద	-10.0195
▁సోవియట్	-10.0196
ుకోవచ్చు	-10.0203
▁గోల్	-10.0204
▁ఉన్నట్లు	-10.0209
▁నేటి	-10.0214
▁నటించిన	-10.0215
▁చార్	-10.022
న్నాడు	-10.0223
ధర్మ	-10.0226
జూ	-10.0227
▁In	-10.0228
▁మరణించ	-10.023
▁సేన	-10.0234
per	-10.0234
▁సర్వే	-10.0239
▁జానపద	-10.0239
▁కెనడా	-10.0239
▁స్వాధీనం	-10.0244
▁రేఖ	-10.0252
▁మళ్ళీ	-10.0257
▁ప్రతిపాదించ	-10.0258
▁వీరికి	-10.026
▁లోక్	-10.0263
▁°	-10.0266
▁కనిపించే	-10.0266
▁సంస్కరణ	-10.0268
▁వచ్చారు	-10.0269
ంచె	-10.0279
వరంలో	-10.0285
▁వస్తువు	-10.0286
▁జంతువుల	-10.0293
▁బహుమతి	-10.0293
రొ	-10.0297
▁విద్యుత్తు	-10.0304
▁స్కా	-10.0307
▁కర్	-10.0308
▁సామెత	-10.0314
▁వేంకట	-10.0316
▁నాట్య	-10.0317
▁భోజన	-10.0318
▁రాజ్	-10.0319
▁ముందుకు	-10.0327
▁దేవి	-10.0327
▁అధికారి	-10.0327
▁36	-10.0333
▁రైతు	-10.0334
▁జరుగ	-10.0335
▁మనకు	-10.0339
ప్రతి	-10.0343
పోయాయి	-10.0344
ించడానికి	-10.0347
▁కొనసాగించ	-10.0366
ess	-10.037
▁విస్తరించ	-10.0371
▁సందర్శించ	-10.0373
▁2003	-10.0378
▁వెలువడ	-10.0379
▁ప్రారంభించ	-10.0381
▁గ్రీకు	-10.0384
పట్నం	-10.0384
యందు	-10.0385
▁దేవత	-10.0388
▁మహిళా	-10.0393
▁సుఖ	-10.0393
▁అడవుల	-10.0393
క్ట్	-10.0393
నుంచి	-10.0393
షణ	-10.0395
▁ఉండడం	-10.0398
▁రక్షించ	-10.0399
▁లక్ష్యం	-10.0399
ుచున్న	-10.0403
▁సరైన	-10.0407
▁సహాయం	-10.0411
▁ఉద్యోగుల	-10.0414
▁ప్రవక్త	-10.0415
▁బెంగాల్	-10.0416
ురాలు	-10.0419
▁ఉత్సవ	-10.0421
స్వామ్య	-10.0425
▁నిబంధన	-10.0433
▁రోజున	-10.0434
▁దెబ్బ	-10.0436
▁బయటకు	-10.0439
▁మల్	-10.0443
ిందని	-10.0447
▁కీర్తి	-10.045
రింగ్	-10.0457
ుతున్నాయి	-10.0466
▁కార్యాలయ	-10.0474
▁ఎటువంటి	-10.0476
ంభ	-10.0487
బాటు	-10.0488
▁వ్యాధుల	-10.049
లేదని	-10.0494
పంచ	-10.0498
▁పాలు	-10.0499
▁అమెరికాలో	-10.0499
▁వెల	-10.0501
ion	-10.0502
▁రాస	-10.0509
▁అమ్మవారి	-10.051
య్యే	-10.0511
మూల	-10.0513
▁శ్రీలంక	-10.0514
సెస్	-10.0517
▁బెల్	-10.0523
▁తదితర	-10.0533
▁నెట్	-10.0533
▁తాము	-10.0535
▁బోధన	-10.0539
▁వర్గాల	-10.054
▁పాల్	-10.0543
ధాన	-10.055
▁స్థానాల	-10.0551
▁పొట్టి	-10.0555
▁భద్రత	-10.0556
▁ప్రతిభ	-10.0562
▁విధించ	-10.0564
▁కంది	-10.0564
▁ఎక్క	-10.0569
ాలన్న	-10.0569
▁కర్ణ	-10.0573
ట్లుగా	-10.0573
▁చర్మ	-10.0575
ష్య	-10.0576
▁సుర	-10.0578
క్యు	-10.0579
▁రోగ	-10.058
▁చౌ	-10.0586
ందరి	-10.0587
▁శాస్త్రవేత్త	-10.0593
▁అమృత	-10.0594
▁గ్యా	-10.0595
ుడై	-10.0596
▁పులి	-10.0599
de	-10.06
▁దాన	-10.06
▁ఒకటిగా	-10.0603
పోతున్న	-10.0603
▁సోమవారం	-10.0605
▁మిల్	-10.0607
pe	-10.0613
▁వద్దకు	-10.0614
▁లక్ష్మణ	-10.062
▁స్నాన	-10.0628
▁దివ్య	-10.0629
▁బెల్లం	-10.063
▁this	-10.0639
భూ	-10.0648
▁వుండును	-10.0648
▁1970	-10.065
▁హాస్య	-10.065
▁సంకేత	-10.065
పడ్డారు	-10.0658
ిస్తా	-10.0658
ుకోవాలి	-10.066
ణ్య	-10.0663
ni	-10.0666
▁నేర్చ	-10.0671
▁తీసుకొ	-10.0673
▁సంస్థాన	-10.0674
▁స్వేచ్ఛ	-10.0676
▁ప్రశంస	-10.0676
సులు	-10.068
చ్చారు	-10.068
▁వెంట	-10.0681
ష్టి	-10.0681
చాడు	-10.0685
▁ఉచిత	-10.0687
▁నటన	-10.0688
సంబంధ	-10.0692
గన్	-10.0695
▁ప్రాంతానికి	-10.0697
▁వేగ	-10.0698
▁మొదలగు	-10.07
▁ప్రి	-10.0706
▁అధ్యయన	-10.0711
▁కారు	-10.0713
▁పాల్గొన్న	-10.0715
▁మెరుగు	-10.0717
▁ప్రేక్షకుల	-10.0717
▁స్థాపించ	-10.0724
గ్రామ	-10.0726
▁ప్రారంభంలో	-10.0732
త్రా	-10.0732
▁త్ర	-10.0734
▁రోడ్	-10.0739
▁రంధ్ర	-10.0743
రిగి	-10.0745
ధ్	-10.0746
▁వర్ణించ	-10.0746
▁చూపించ	-10.0746
దగిన	-10.0748
▁పోరాడ	-10.0751
▁కన్న	-10.0751
▁అశ్వ	-10.0754
▁పీఠ	-10.0755
▁నష్ట	-10.0756
▁ఫోర్	-10.0764
▁నిర్మల్	-10.0767
▁గట్టి	-10.0771
▁షె	-10.0772
ాంధ్ర	-10.0773
▁చేసుకోవ	-10.0775
▁మండ	-10.0775
▁వృత్త	-10.0776
▁దే	-10.0777
▁బ్రి	-10.0778
మవుతుంది	-10.0784
▁జైన	-10.0785
▁గజ	-10.079
స్తుందని	-10.0793
ence	-10.0793
▁రుద్ర	-10.0794
ఫై	-10.0796
▁కొత్తగా	-10.0798
▁వ్యాసాల	-10.0799
▁me	-10.08
థ్	-10.0801
▁రామాయణ	-10.0807
▁వివరాలు	-10.0814
▁గ్రే	-10.0833
▁రాతి	-10.0834
▁లోపల	-10.0838
▁ఉన్నప్పటికీ	-10.0838
▁తెలిసిన	-10.0845
బూ	-10.085
ఎన్	-10.0851
ఖండ	-10.0853
▁మొక్కల	-10.0858
▁సమ్మేళన	-10.0864
▁బ్రిటన్	-10.0865
▁జరిగి	-10.0866
వర్తి	-10.0868
▁గానీ	-10.0871
క్టర్	-10.0873
▁పరిధిలోకి	-10.0876
▁చేసుకుని	-10.0886
▁మరణం	-10.0886
యీ	-10.0888
ill	-10.0892
▁అంటూ	-10.0895
రాష్ట్ర	-10.0897
▁రకం	-10.0913
▁వేర్	-10.0914
▁లీగ్	-10.0918
▁జీవితంలో	-10.0919
ుతాడు	-10.0922
ut	-10.0947
▁వ్యక్తుల	-10.0953
▁వాడి	-10.0954
▁భాగాలు	-10.0955
▁అనువాద	-10.0955
▁ఎనిమిది	-10.0967
ెత్త	-10.0971
▁నీల	-10.0973
▁సన్న	-10.0973
కోణ	-10.0976
▁వాద	-10.098
దురు	-10.0981
▁చేసేందుకు	-10.0984
▁రామారావు	-10.0993
▁సంపాదక	-10.0994
ైంది	-10.1002
▁మిరప	-10.1002
▁సమితి	-10.1002
▁సాహిత్యం	-10.1004
▁ఆకాశ	-10.1004
▁స్వరూప	-10.1013
▁ఇటువంటి	-10.1019
ామని	-10.1019
▁అచ్చ	-10.1021
భీ	-10.103
oc	-10.1036
▁ఉపరితల	-10.1036
▁నిరంతర	-10.1036
▁నొ	-10.104
జేయ	-10.1045
▁కనుగొన	-10.105
మయ్యాయి	-10.1057
▁ఏళ్ల	-10.1062
▁విస్తృత	-10.1068
▁విస్తీర్ణం	-10.1071
▁రామకృష్ణ	-10.1074
▁దొంగ	-10.1078
▁సంభవించ	-10.1078
▁భక్తుల	-10.1084
▁శ్రీరామ	-10.1087
▁క్రమంగా	-10.1088
▁సమర్పించ	-10.1091
మూరు	-10.1094
▁ఆధ్యాత్మిక	-10.1094
య్యాయి	-10.1096
our	-10.1096
▁ఆశ	-10.1099
దానం	-10.11
▁అందరూ	-10.1101
▁సంతోష	-10.1106
▁నివసించ	-10.1109
▁పాత్రలు	-10.1116
▁శిలా	-10.1117
▁ఆదాయం	-10.1118
▁కళ్యాణ	-10.1121
▁పోరాటం	-10.1129
▁రాజమండ్రి	-10.1133
▁బూ	-10.1134
▁వాడుకలో	-10.1135
end	-10.1136
▁కోప	-10.1137
▁అలాంటి	-10.1144
▁ఎలాంటి	-10.1147
▁జంతు	-10.1148
▁ఏదైనా	-10.1152
పైన	-10.1157
ాలున్నాయి	-10.1157
భ్ర	-10.1159
▁తీసుకొని	-10.1162
▁37	-10.1164
-2	-10.1171
యస్	-10.1173
▁ఫో	-10.1178
▁ప్రోత్సహించ	-10.118
▁ఎమ్మెల్యే	-10.118
▁చేయుట	-10.1186
పార్	-10.1191
పత్ర	-10.1191
||	-10.1191
▁విగ్రహం	-10.1195
ca	-10.12
▁మీడియా	-10.12
▁కథా	-10.1205
▁ఆకర్షణ	-10.1207
▁ప్రకాశ	-10.1218
▁కలుగ	-10.1221
▁ప్రకటించింది	-10.1225
▁లక్ష	-10.1225
బాబు	-10.1226
▁వీరిలో	-10.1228
▁ఆరంభ	-10.1229
▁ఒక్కొక్క	-10.1229
మంతా	-10.123
▁ఎకరాల	-10.123
▁కాశీ	-10.123
▁మంచు	-10.1245
▁క్లబ్	-10.1249
▁క్రమంలో	-10.1257
▁ప్రాముఖ్యత	-10.1259
▁ధర్మరాజు	-10.1261
▁గురి	-10.1281
▁నదీ	-10.1284
▁పద్ధతిలో	-10.1286
▁వైవిధ్య	-10.1294
ములకు	-10.13
▁వాళ్ళ	-10.1308
▁ప్రసాద్	-10.1309
▁సర	-10.1313
▁స్వయంగా	-10.1315
▁క్రీడ	-10.1319
▁US	-10.1326
▁చూసిన	-10.1334
▁శాస్త్రి	-10.1335
▁బుద్ధ	-10.134
▁||	-10.1354
▁అనకాపల్లి	-10.1354
▁శక్తిని	-10.1355
▁ఉన్నప్పుడు	-10.1356
▁గ్రంథం	-10.1358
▁లభించ	-10.1361
▁భావిస్తారు	-10.1362
ప్పటి	-10.1364
▁పల్ల	-10.1366
▁సంవత్సర	-10.1374
▁తాలూకా	-10.1378
▁అండ	-10.1379
▁ఏనుగు	-10.1381
ుకుంటుంది	-10.1385
▁సందేశ	-10.1388
▁మళ్లీ	-10.1394
▁యూరోపియన్	-10.1397
▁లక్షణ	-10.1399
్యత	-10.14
▁వరుసగా	-10.1402
ాదుల	-10.1408
శ్లేష	-10.141
చేశారు	-10.1414
చంద్ర	-10.1415
ేశ్	-10.1418
▁సీజన్	-10.1422
ిరెడ్డి	-10.1424
▁అమర్చ	-10.1424
▁వేట	-10.1426
ear	-10.1427
డియ	-10.1428
▁షో	-10.143
లెట్	-10.1431
▁స్టేట్	-10.1432
▁మరణించాడు	-10.1433
▁ఒప్ప	-10.1436
▁ఫీ	-10.1437
▁కాలేజీ	-10.1438
▁వరద	-10.1439
▁డాలర్ల	-10.1441
▁ఒకసారి	-10.1447
▁నేపథ్యంలో	-10.1452
దాసు	-10.1454
▁తప్పు	-10.1454
ధర	-10.1456
▁చిక్క	-10.1458
▁దుకాణాలు	-10.146
▁బెర్	-10.1461
ti	-10.1467
త్వాన్ని	-10.1468
▁నాయుడు	-10.1468
iv	-10.1469
▁మిత్ర	-10.1472
▁తీర్చ	-10.1473
▁దళాల	-10.1477
▁నార్	-10.1477
▁వెలుపల	-10.1478
▁ధ్యాన	-10.148
▁లక్షణాలు	-10.1484
▁అంశం	-10.1487
ud	-10.149
▁ముద్ర	-10.1494
▁రహస్య	-10.1494
▁పదవీ	-10.1494
▁పురుషులు	-10.1511
▁అంట	-10.1515
ap	-10.1515
▁2002	-10.1521
▁రాయి	-10.1522
▁పక్క	-10.1523
▁గుహ	-10.1523
▁శుక్రవారం	-10.1526
గ్రీ	-10.1529
▁అంబ	-10.1529
ిస్తున్నాయి	-10.1531
ల్లీ	-10.1533
▁అనుకూల	-10.1536
ట్యూ	-10.1538
▁శాశ్వత	-10.1538
▁కేరళ	-10.1539
▁సెంట్రల్	-10.1543
da	-10.1544
▁సెయింట్	-10.1547
▁కృ	-10.1554
▁ప్రపంచంలోని	-10.1555
లపాడు	-10.156
▁ఉత్	-10.1563
▁ఒప్పంద	-10.1566
▁వేగంగా	-10.1567
▁డిమాండ్	-10.1567
మయ్య	-10.1569
▁1999	-10.157
మహ	-10.1571
▁తరఫున	-10.1575
▁హింస	-10.1577
▁దండ	-10.1579
మిక్	-10.1587
▁దాడుల	-10.1589
▁సీతారామ	-10.1594
▁విశిష్ట	-10.1595
యైన	-10.1596
▁200	-10.1598
▁తప్పించ	-10.16
lu	-10.1602
▁కనీసం	-10.1607
కళ	-10.1608
▁పండిత	-10.1612
▁ప్రతిపాదన	-10.1612
▁చేతుల	-10.1613
యున్న	-10.1618
▁ప్రమాణ	-10.1628
దేహ	-10.1628
▁దేశంలోని	-10.1629
▁ఉనికి	-10.1629
▁రోమన్	-10.1638
▁ఉప్పు	-10.1642
స్థల	-10.1647
▁బాబు	-10.1647
్యాల	-10.1647
▁చెరువులు	-10.1652
▁యూనివర్సిటీ	-10.1653
ine	-10.1656
▁ప్రమాదం	-10.1659
ట్రిక్	-10.1663
ig	-10.1669
ప్రపంచవ్యాప్తంగా	-10.1669
▁శనివారం	-10.1677
▁చేస్తా	-10.1682
▁రవి	-10.1683
యాత్ర	-10.1684
భో	-10.1689
▁మ్యా	-10.169
వాటి	-10.1691
▁పనిచేసే	-10.1692
▁చేశా	-10.1696
నంత	-10.1698
▁సింగ	-10.1702
వద్ద	-10.1706
యుక్త	-10.1712
▁అష్ట	-10.1717
▁ట్రా	-10.1718
▁కురు	-10.1719
▁నైపుణ్య	-10.1723
దైన	-10.1724
od	-10.1726
లొ	-10.1726
▁ఫ్రాన్స్	-10.1727
▁పుస్తకాల	-10.173
వాదం	-10.173
▁విభిన్న	-10.1731
▁క్రితం	-10.1734
ke	-10.1739
▁బ్లాక్	-10.1741
▁వడ్డ	-10.1743
▁ఆందోళన	-10.1743
జై	-10.1747
▁సమస్యలు	-10.1748
▁70	-10.1751
▁వాదన	-10.1756
ry	-10.1756
ుదురు	-10.176
▁బానిస	-10.177
▁కనబడ	-10.1771
▁అసోసియేషన్	-10.1772
▁క్రా	-10.1773
▁1960	-10.1774
▁బుధవారం	-10.1777
▁టెలివిజన్	-10.1781
బడుతున్నాయి	-10.1792
▁పాలి	-10.1799
▁పదార్థ	-10.1799
▁బోధ	-10.1807
▁రావడం	-10.1808
▁ప్రదర్శ	-10.1813
▁సూపర్	-10.1817
▁అభిమాన	-10.1819
▁పాడేరులోనూ	-10.1822
▁సీనియర్	-10.1822
గతి	-10.1823
▁బోర్డు	-10.1831
▁సత్యనారాయణ	-10.1836
▁సౌకర్య	-10.1841
ast	-10.1842
ర్చి	-10.1843
▁చేసుకుంట	-10.1846
▁మీదుగా	-10.1849
ోద్యమ	-10.1859
ub	-10.186
దత్త	-10.1861
▁ప్రియ	-10.1868
రత్న	-10.1869
డ్డు	-10.1871
▁గూడూరు	-10.1873
▁ఇచ్చ	-10.188
▁బాధ్యతలు	-10.1883
▁వినియోగ	-10.1885
▁నటించ	-10.1888
▁బదిలీ	-10.189
▁కావలసిన	-10.1892
బండ	-10.1892
▁నిలిచింది	-10.1895
▁తీవ్రమైన	-10.1896
ములోని	-10.1899
▁హాల్	-10.19
▁చేసుకో	-10.1902
ph	-10.1903
▁పోయి	-10.1911
టెన్	-10.1913
ంటో	-10.1914
▁సరస్సు	-10.1915
▁కవిత	-10.1921
▁హౌస్	-10.1922
▁నాటకం	-10.1923
▁బ్యాంక్	-10.1932
▁not	-10.1934
▁1950	-10.1937
▁రావణ	-10.1938
టిల్	-10.1944
పాయ	-10.195
▁నటించారు	-10.1954
▁తూర్పున	-10.1956
▁అడిగ	-10.1958
ార్థం	-10.1963
▁పెట్టారు	-10.1966
▁తరచూ	-10.1967
▁నిరోధ	-10.1972
▁సూచన	-10.1972
ect	-10.1973
▁38	-10.1983
క్షేప	-10.1988
సింహ	-10.1988
▁రామచంద్ర	-10.1989
చారి	-10.1992
▁అధి	-10.1993
▁2015	-10.1994
▁విఫల	-10.1994
▁ఒక్కో	-10.1995
▁దేవతల	-10.1997
▁వెలి	-10.1997
▁చాలామంది	-10.2
▁జీవుల	-10.2003
▁ఇజ్రాయిల్	-10.2004
▁నిండి	-10.2011
▁నగరానికి	-10.2013
ధ్ధ	-10.2015
▁విధమైన	-10.2016
రేషన్	-10.202
▁విషయాన్ని	-10.2023
శ్చ	-10.2023
▁ముడి	-10.2032
▁అవగాహన	-10.2033
▁2015,	-10.2033
ies	-10.2036
గ్గు	-10.2036
▁34	-10.2041
style	-10.2046
స్థి	-10.2047
▁చేసుకున్నారు	-10.2049
▁ఉత్తర్వులు	-10.205
▁ఇంట్లో	-10.205
టెక్	-10.205
▁గవర్నర్	-10.205
▁జవాహర్	-10.205
లెస్	-10.2051
▁శ్రీరాములు	-10.2053
▁చివరికి	-10.2054
స్టో	-10.2056
▁వినియోగించ	-10.2057
▁పోత	-10.2057
▁ప్రత్యేకత	-10.2057
▁ఆశ్రమ	-10.2063
▁ఫిర్యాదు	-10.2068
▁మండలాలు	-10.2071
▁ప్రొఫెసర్	-10.2072
ధర్	-10.2073
▁ప్రయాణం	-10.2082
▁తీవ్రంగా	-10.2083
▁ప్రత్యేకమైన	-10.2093
▁స్టార్	-10.2093
▁వుంటుంది	-10.2094
▁ప్రభావితం	-10.2094
▁ఏలూరు	-10.2095
▁కత	-10.21
▁దుస్తుల	-10.2102
▁మానవుల	-10.2103
▁పార్లమెంటు	-10.2106
▁స్వల్ప	-10.2106
ుచు	-10.2111
▁ఉద్యోగం	-10.2112
కాని	-10.2118
శో	-10.2123
కపోతే	-10.2126
▁దేశానికి	-10.2126
▁మోస	-10.213
▁ఫ్రాం	-10.213
bo	-10.2134
వలస	-10.2134
▁ముంబై	-10.2136
▁నిర్వహ	-10.214
ుకొనే	-10.2151
ండును	-10.2154
▁కొనసాగింది	-10.2156
▁విధానాల	-10.2161
▁పలువురు	-10.2167
-20	-10.2168
ell	-10.217
▁దొ	-10.2173
▁సూచిస్తుంది	-10.2173
▁అందిస్తుంది	-10.2179
▁ఎండ	-10.2186
స్థితి	-10.2193
▁జంట	-10.2193
▁సమూహాల	-10.2197
ఫు	-10.2199
▁నిలువ	-10.22
▁అదనపు	-10.2201
▁పార	-10.2202
మండల	-10.2207
▁అవసర	-10.2208
▁వసతి	-10.221
వీర	-10.2213
టువంటి	-10.2216
▁ముందే	-10.2217
▁పునర్	-10.2217
▁సాధించాడు	-10.2218
ాధి	-10.2219
బోధ	-10.2219
▁హృదయ	-10.2224
సార్లు	-10.2224
os	-10.2225
▁అంతకు	-10.2227
▁శతాబ్దాల	-10.2235
ల్యాండ్	-10.2237
▁బుక్	-10.2247
▁పైకి	-10.2248
నట్లు	-10.2256
▁అర్జున	-10.2258
ంగళ	-10.2259
తులను	-10.2261
▁పరిగణ	-10.2263
డికి	-10.2264
▁చేస్తాయి	-10.2267
▁భక్త	-10.2269
ction	-10.227
▁వార్షిక	-10.227
▁పనిచేస్త	-10.2272
▁వాటికి	-10.2277
▁కావడం	-10.2277
▁ఓడ	-10.2278
▁sp	-10.2281
▁కొమ్మ	-10.2286
▁అకాడమీ	-10.2288
▁కార్యక్రమ	-10.2291
▁రాఘవ	-10.2293
▁సలహా	-10.2296
▁ప్రారంభించాడు	-10.2299
రోగ	-10.2307
▁పుత్ర	-10.2308
▁కొల్ల	-10.2313
▁జర్మన్	-10.2315
▁బలమైన	-10.2316
▁సీతా	-10.2318
▁అంతర్గత	-10.2329
మయ్యే	-10.2329
▁తిమ్మ	-10.2348
యొక్క	-10.2348
కేంద్ర	-10.2348
ధారణ	-10.2349
భక్త	-10.2352
వేసి	-10.2352
▁గార్	-10.2353
▁అంతరిక్ష	-10.2354
▁వయసులో	-10.2356
▁ఫ్ల	-10.2358
▁పెట్టుబడి	-10.2358
కూడా	-10.2366
ంటాయి	-10.2366
▁కోర్	-10.2368
▁లెక్క	-10.2368
▁ఉండదు	-10.2371
▁పరిగణించ	-10.2372
▁సమర్థ	-10.2375
రెన్	-10.2377
▁మెదక్	-10.2381
▁డైరెక్టర్	-10.2383
▁కాలేదు	-10.2394
▁ప్రచురణ	-10.2408
▁విజయనగర	-10.2409
▁విశాల	-10.2411
▁మొక్కలు	-10.2412
▁బహుళ	-10.2417
▁ప్ల	-10.2438
▁వేగం	-10.245
నేట్	-10.2452
మనే	-10.2454
▁భుజ	-10.2457
▁నాటు	-10.2458
▁పేర్ల	-10.246
బడు	-10.2463
▁ఒత్తిడి	-10.2465
▁ఋణ	-10.2465
▁ప్రారంభమైంది	-10.2468
▁పేరును	-10.2469
కారుల	-10.2472
డియం	-10.2473
▁ఇండో	-10.2475
▁ఫిలిం	-10.2475
పూరు	-10.2479
ho	-10.248
▁తెచ్చి	-10.2483
▁శతక	-10.2486
▁ఏకైక	-10.2487
▁పాలించ	-10.2487
▁42	-10.2489
స్సా	-10.2489
వంతు	-10.2494
▁ఉద	-10.2496
▁ఉదా	-10.2498
▁రత్న	-10.25
ెన్స్	-10.2505
▁మించి	-10.2505
▁పరిధి	-10.2507
▁ఎదుర	-10.251
▁హోదా	-10.2514
▁కార్డు	-10.2515
ver	-10.2519
▁టెక్	-10.2521
▁పోలీస్	-10.2532
▁బృంద	-10.2533
▁ఓడి	-10.2535
▁పరిధిలోని	-10.2536
▁వంతెన	-10.2536
▁హైకోర్టు	-10.2536
▁చేరుకున్న	-10.2536
▁రకమైన	-10.2537
▁ట్యా	-10.2539
▁పట్టా	-10.2553
▁సస్యరక్షణ	-10.2554
▁నీకు	-10.2556
▁విడ	-10.2558
గలదు	-10.2558
▁పరిమాణ	-10.256
▁పెరిగింది	-10.2563
ంచింది	-10.2567
▁భాగాల	-10.2568
▁తెలిసి	-10.2572
▁సైతం	-10.2573
▁మందికి	-10.2576
▁కొవ్వు	-10.2577
ted	-10.2578
▁అరబ్	-10.2581
▁బయలుదేర	-10.2581
ెదరు	-10.2591
సాయి	-10.2592
సాగర్	-10.2595
▁వ్యక్తం	-10.2595
no	-10.2597
▁కలవ	-10.2598
▁వచ్చాడు	-10.2599
▁భాషలలో	-10.26
లోనికి	-10.2601
▁విధానాన్ని	-10.2603
▁వుండే	-10.2604
▁రౌ	-10.2606
ంజా	-10.2608
▁ఇంటికి	-10.2619
▁ఎమ్	-10.2621
▁అనుమతించ	-10.2629
▁ఆర్ధిక	-10.2629
▁రాజులు	-10.2634
▁రూపం	-10.2634
▁విష్ణువు	-10.2635
▁సందర్భంలో	-10.2636
▁పొంది	-10.2639
▁ప్రాంతము	-10.2641
▁దంపతులకు	-10.2642
▁దాంతో	-10.2644
▁ప్రజాదరణ	-10.2644
ినపుడు	-10.2653
ther	-10.2657
▁సమస్యల	-10.2659
▁సరిహద్దులో	-10.266
▁ఎదుర్కొ	-10.2662
నెల	-10.2663
▁వేసిన	-10.2666
ఎల్	-10.2675
ec	-10.2678
▁ఉత్తరాన	-10.2683
▁హీ	-10.2685
▁చైర్మన్	-10.2685
▁ప్రార్థన	-10.2686
▁మంట	-10.269
▁అప్పటికే	-10.269
తాయని	-10.2692
వర్మ	-10.2693
▁విషయాలు	-10.2693
▁పరమాణు	-10.2695
వల్లి	-10.2695
▁పెరుగు	-10.2697
▁మార్గము	-10.2697
▁ప్రాచుర్యం	-10.2699
▁అదనంగా	-10.2703
▁ద్రవ్య	-10.2707
▁నర్	-10.2708
లియన్	-10.271
▁భూముల	-10.271
▁చెబుత	-10.2713
▁గురువారం	-10.2717
శేష	-10.2717
రహిత	-10.2718
▁అభిప్రాయం	-10.2718
▁బిలియన్	-10.272
▁కార్మికుల	-10.2722
▁ఇచ్చింది	-10.2725
▁ద్వి	-10.2726
ాత్మ	-10.2732
వ్యవస్థ	-10.2739
der	-10.274
▁ఆచార్య	-10.2741
టెడ్	-10.2741
▁ప్రారంభం	-10.2742
▁పేర్కొన	-10.2749
▁విభజన	-10.2761
▁రంగం	-10.2761
▁ప్రసంగ	-10.2764
స్థానం	-10.2773
▁భవనం	-10.2783
విధ	-10.2786
భూమి	-10.279
కూడ	-10.2795
▁టౌన్	-10.28
▁నిర్వచ	-10.2801
ముందు	-10.2803
▁బాబా	-10.2803
▁శిష్య	-10.2812
వచ్చని	-10.2812
▁రచనల	-10.2814
▁సిద్ధాంతం	-10.2822
▁నిర్దిష్ట	-10.2823
బాల్	-10.2823
వంతంగా	-10.2824
▁1947	-10.2825
▁స్వాతంత్ర్యం	-10.2825
బియా	-10.2825
▁కొంతకాలం	-10.2828
su	-10.2829
▁మరల	-10.2833
▁టెక్నాలజీ	-10.2836
▁జనతా	-10.2837
▁పార్క్	-10.2839
▁పూజలు	-10.2839
▁క్రీడల	-10.2841
▁వ్యాఖ్యాన	-10.2842
▁వైద్యులు	-10.2846
▁జన్మించిన	-10.2846
▁ch	-10.2858
code	-10.2859
▁విశేషం	-10.2859
▁ప్రజలను	-10.286
వాల్	-10.2861
▁శరీరం	-10.2863
▁ఫోటో	-10.2867
ందరూ	-10.2869
▁ఉంటుందని	-10.2871
▁తెగ	-10.2872
▁కనిపిస్తాయి	-10.2872
▁తెలుగుదేశం	-10.2872
▁వేర్వేరు	-10.2873
▁వారసత్వ	-10.2874
▁చెల్ల	-10.2876
జాన్	-10.2877
ous	-10.2878
▁చేయించ	-10.2881
▁90	-10.2882
▁పెరగ	-10.2884
▁ఫ్రెంచి	-10.2892
▁నాగరికత	-10.2892
సేవ	-10.2892
▁ఘటన	-10.2893
బై	-10.2896
▁కెమెరా	-10.2897
ేతర	-10.2897
ుకునేందుకు	-10.2901
▁వీధి	-10.2903
▁వ్యాపారం	-10.2904
▁నక్షత్రం	-10.2906
▁గృహాల	-10.2907
ద్వారా	-10.2912
av	-10.2915
వేష	-10.292
▁అక్క	-10.2923
▁చేరు	-10.2931
▁సమాజం	-10.2931
చేసే	-10.2932
▁సమాఖ్య	-10.2934
ass	-10.2936
▁ఉపయోగపడ	-10.2937
▁ప్రచార	-10.2937
▁ద్వీపం	-10.2938
▁బదులుగా	-10.2945
▁పేర	-10.2946
▁కమిషన్	-10.2948
▁ప్రాంతాలకు	-10.295
జాతి	-10.2953
▁నిర్ణయం	-10.2954
స్తుంటారు	-10.2955
▁రూపకల్పన	-10.2967
▁ప్రకటించారు	-10.2968
▁మంగళవారం	-10.2971
▁లోపలి	-10.2972
▁ప్రారంభించింది	-10.2974
▁ఉదయ	-10.298
డుతూ	-10.2982
▁జాగ్రత్త	-10.2985
▁ఆమోదించ	-10.2985
▁యుగ	-10.2991
▁దేశీయ	-10.2996
కెట్	-10.2999
▁శ్రేణి	-10.3004
▁తెనాలి	-10.3004
tr	-10.3007
▁అటు	-10.301
సహ	-10.3013
▁ప్రీ	-10.3014
ాద్రి	-10.3015
▁పుస్తకాలు	-10.3015
▁ఊర	-10.3021
▁బ్రా	-10.3023
▁పౌ	-10.3028
ఠా	-10.3029
▁శుద్ధ	-10.3038
▁వెల్లడించ	-10.304
ిస్తోంది	-10.3041
▁సమాధాన	-10.3042
▁అమర	-10.3043
▁కాలువలు	-10.3043
▁లోనే	-10.3045
▁రఘు	-10.3047
▁భౌగోళిక	-10.3051
ొచ్చు	-10.3059
▁తరలి	-10.3062
య్యాడు	-10.3062
▁శ్రీకృష్ణ	-10.3067
▁మంచిర్యాల	-10.307
▁ధాన్య	-10.3074
▁విశ్వాస	-10.3078
▁చేయబడ	-10.3078
▁జరుగు	-10.3082
▁గుర్తించారు	-10.3083
▁పరిష్కార	-10.3084
▁సాహితీ	-10.3094
▁నెలకొల్ప	-10.3099
హే	-10.3099
▁ముద్ద	-10.3109
▁చంద్రబాబు	-10.311
▁కప్	-10.3112
బెర్	-10.3114
▁నడుప	-10.3119
▁అద్భుత	-10.313
▁పెరిగి	-10.3131
▁కలెక్టర్	-10.3132
▁సర్పంచిగా	-10.3132
▁ప్రతిబింబ	-10.3132
▁సమాధి	-10.3132
▁లూ	-10.3132
▁ఏదో	-10.3133
▁ఆకుల	-10.314
ితమైన	-10.3149
▁బలహీన	-10.3151
▁అన్నీ	-10.3153
▁ఎల్ల	-10.3154
పట్ల	-10.3154
▁మార్గంలో	-10.3155
కరించ	-10.3159
▁దూరంగా	-10.316
▁పాండవుల	-10.3164
▁మాదిరిగా	-10.3165
▁వికారాబాద్	-10.317
▁ఉమ్మడి	-10.317
▁శేష	-10.3171
▁చనిపో	-10.3176
▁కోట్లు	-10.3176
▁ధ్రువ	-10.318
మధ్య	-10.3184
▁తీసిన	-10.3187
▁అంక	-10.3187
▁స్వామివారి	-10.3188
▁కలప	-10.3191
వర్ణ	-10.3191
▁దుర్గ	-10.3191
▁నేడు	-10.3194
▁1991	-10.3197
▁56	-10.3203
▁కార్పొరేషన్	-10.3203
▁అనుసరించ	-10.3204
▁ఇంటర్నేషనల్	-10.3208
▁పెరుగుదల	-10.3215
▁స్థలం	-10.3216
వ్యాప్త	-10.3217
▁ముస్లి	-10.3221
▁అనీ	-10.3222
▁ఖాళీ	-10.3228
▁అత్యధికంగా	-10.3228
▁తదితరులు	-10.3231
▁గెలుపొంద	-10.3232
▁కంప	-10.3233
ated	-10.3235
్యము	-10.3236
▁మందు	-10.3237
▁చుట్ట	-10.3237
ాభివృద్ధి	-10.3237
://	-10.3237
▁స్వర్ణ	-10.3237
ళా	-10.3239
▁India	-10.3242
▁మరణించారు	-10.3243
▁నిద్ర	-10.3243
చిత	-10.3243
▁చోటు	-10.3243
▁తపస్సు	-10.3247
ానికీ	-10.3247
గోళ	-10.3247
▁దీక్ష	-10.3248
టార్	-10.3249
▁నమ్మకం	-10.3251
పేట్	-10.3255
▁చైతన్య	-10.3256
▁జీవించ	-10.3258
కూర్	-10.3268
▁అణువు	-10.3269
ఘ్	-10.3281
▁రాజుల	-10.3286
▁చేరాడు	-10.3287
▁మహర్షి	-10.3295
▁నిర్వహిస్తున్న	-10.3297
▁స్థాపించారు	-10.33
డై	-10.3314
▁కనిపిస్త	-10.3321
▁ప్రకారము	-10.3329
▁చేయాలి	-10.3332
-19	-10.3334
ord	-10.3337
ంగో	-10.334
▁వేయుట	-10.3344
▁రాక	-10.3349
పరిణామ	-10.3351
▁అతనిని	-10.3351
స్తున్నాయి	-10.3352
▁బిరుదు	-10.3353
▁వదల	-10.3355
సంపన్న	-10.3357
ea	-10.3361
▁ఫుట్	-10.3363
ోపనిషత్తు	-10.3368
హారం	-10.337
పొంద	-10.3375
▁ఆధిపత్య	-10.3378
●	-10.338
▁తద్వారా	-10.3383
▁తెలుస్తుంది	-10.3387
▁చేయబడ్డాయి	-10.3387
▁కుడి	-10.3392
▁వ్యాప్తి	-10.3393
పణ	-10.3394
▁భద్ర	-10.3398
▁చేయు	-10.3404
▁మణి	-10.3407
▁పులుల	-10.3415
▁ఆగ్నేయ	-10.3417
▁బట్ట	-10.3418
si	-10.3426
ువాడు	-10.3427
కార్య	-10.3431
పడ్డాడు	-10.3432
▁తాగునీటి	-10.3436
▁తాత	-10.3437
▁లిం	-10.3437
▁రైతుల	-10.344
దొ	-10.3441
▁సంబంధాలు	-10.345
▁యుగం	-10.3456
▁జన్యు	-10.3457
▁పర్యటన	-10.3466
▁సంవత్సరానికి	-10.3467
ండె	-10.347
mp	-10.3474
▁లక్షణాల	-10.3476
▁మూడో	-10.3477
▁చేస్తే	-10.348
▁ప్రామాణిక	-10.348
▁ప్రే	-10.3485
▁మార్గాల	-10.3485
▁కుండ	-10.3489
▁తెలంగాణా	-10.3495
▁పొగాకు	-10.3497
ిస్తుంటారు	-10.3497
మెంటు	-10.3497
పాత	-10.3498
రోధ	-10.3498
సంఖ్య	-10.3499
▁ఎరువులు	-10.35
▁తొమ్మిది	-10.3505
▁కొబ్బరి	-10.3505
▁వహించిన	-10.3507
▁ధరించ	-10.3518
బర్గ్	-10.352
▁దాటి	-10.353
బట్ట	-10.3532
▁మండలి	-10.3541
▁నాయకుల	-10.3547
▁పదాల	-10.3554
▁ముగింపు	-10.356
▁కొన్నిసార్లు	-10.3561
ప్రె	-10.3562
జింగ్	-10.3567
▁విద్యను	-10.3571
▁సమావేశంలో	-10.3589
▁సముదాయ	-10.3589
able	-10.3591
▁షిప్	-10.36
▁కదా	-10.3601
▁రూపొంద	-10.3602
▁విభాగంలో	-10.3602
tt	-10.3603
▁గది	-10.3605
వరకూ	-10.3608
▁భిన్న	-10.361
డైన	-10.3613
ానని	-10.362
▁బిడ్డ	-10.3621
▁పోర్ట్	-10.3629
స్తంభ	-10.3638
నూర్	-10.3642
ip	-10.3644
▁మృతి	-10.3648
▁చేసుకున్నాడు	-10.365
పుత్ర	-10.3659
▁కుటుంబానికి	-10.3661
▁గ్రూప్	-10.3664
▁కఠిన	-10.367
▁అరణ్య	-10.3671
▁చెట్ల	-10.3672
▁జంక్షన్	-10.3675
▁కాళ	-10.3686
▁సన్	-10.3689
▁పాశ్చాత్య	-10.369
▁విద్యార్థులకు	-10.3692
▁ప్రయాణించ	-10.3696
▁కార్బన్	-10.3696
ధాన్య	-10.3699
▁సంతానం	-10.3709
▁స్వర్గ	-10.3712
▁500	-10.3712
▁వేరే	-10.3713
మౌ	-10.3714
ింపబడిన	-10.372
▁ఎత్తైన	-10.3735
▁వినియోగదారుల	-10.3739
▁స్వభావ	-10.374
▁ఇసుక	-10.3741
▁చోట	-10.3741
sa	-10.3742
మతి	-10.3746
భద్ర	-10.3746
▁వస్తువుల	-10.375
▁చెన్న	-10.3753
▁గ్రంథాల	-10.3757
చెర్ల	-10.3757
▁పాటల	-10.3758
▁వెండి	-10.3758
▁అనుగుణంగా	-10.376
▁జోన్	-10.3762
ide	-10.3766
▁గౌతమ	-10.377
▁his	-10.3773
బ్రహ్మ	-10.3774
▁నన్ను	-10.3775
▁ఆస్తి	-10.3778
▁వంద	-10.3778
నెల్	-10.378
లన్నీ	-10.3781
ంఛ	-10.3782
▁చిత్త	-10.3784
చరిత్ర	-10.3786
▁so	-10.3787
▁j	-10.3792
▁అక్రమ	-10.3793
ానిక	-10.3795
▁కేటాయించ	-10.3796
▁చెందినది	-10.3798
display	-10.3801
▁విశాఖపట్నంలోను	-10.3805
ఉన్న	-10.3805
▁మాట్లాడే	-10.3806
▁అటువంటి	-10.3807
▁కోరారు	-10.3807
కారులు	-10.3809
వాడి	-10.381
▁రుణ	-10.3811
▁రామ్	-10.3814
▁నైట్	-10.3814
తీయ	-10.3816
▁లేఖ	-10.3816
ూర్లో	-10.3817
▁కౌన్సిల్	-10.3821
▁కొన	-10.3823
వృద్ధ	-10.3825
మూస	-10.3833
▁టన్నుల	-10.3838
▁రాజవంశ	-10.3839
▁దేశము	-10.3841
▁మద	-10.3842
▁వనరులు	-10.3842
▁స్థానాన్ని	-10.3843
న్యాస	-10.3848
▁ట్రి	-10.385
▁మహిళ	-10.386
▁హైదరాబాదులో	-10.3863
▁భయం	-10.3867
▁పురపాలక	-10.3867
సిద్ధ	-10.3868
ct	-10.3871
fe	-10.3872
పట్ట	-10.3875
▁వ్యూహ	-10.3878
▁వనపర్తి	-10.3878
వంశ	-10.3882
▁వ్యక్తులు	-10.3883
▁స్థాపించబడింది	-10.3888
శోధ	-10.39
▁భాషలు	-10.39
▁భారతదేశంలోని	-10.3903
▁ఇందుకు	-10.3908
▁బహ	-10.3908
ew	-10.3908
లేరు	-10.3913
▁పిలువబడ	-10.3918
▁అక్కడే	-10.3918
▁పనిచేసి	-10.3927
▁సంయోగ	-10.3932
ొచ్చ	-10.3934
▁నవాబు	-10.3934
▁కుటుంబంలో	-10.3937
▁రెవెన్యూ	-10.3939
▁1998	-10.3943
టాన్	-10.3945
▁బాల్య	-10.3962
▁మరణించిన	-10.3963
▁నేర్ప	-10.3963
ya	-10.3963
థర్	-10.3964
▁కారక	-10.3965
పురి	-10.3969
▁తదుపరి	-10.397
▁వాడుక	-10.397
▁మాటలు	-10.3976
▁http	-10.3981
▁సమీపంలోని	-10.3981
▁సాయంత్రం	-10.3991
ాయన	-10.3991
శయ	-10.3995
▁సుబ్బ	-10.3995
▁రుచి	-10.4001
▁పూర్ణ	-10.4004
ములతో	-10.4012
▁ఆశ్చర్య	-10.4017
▁చేసుకొ	-10.4019
▁ఎన్నికల్లో	-10.4021
▁అందించారు	-10.4023
▁భూమిని	-10.4025
▁ఎందుకు	-10.4027
▁సూచించారు	-10.403
▁వుంట	-10.4031
▁వ్ర	-10.4032
ప్రదేశ	-10.4036
మింగ్	-10.4036
▁సమీక్ష	-10.4038
▁నిలిపి	-10.4043
▁చొ	-10.4049
▁వజ్ర	-10.4049
ుచున్నది	-10.405
▁వెస్ట్	-10.4051
ong	-10.4053
▁గొల్ల	-10.4053
▁అమ్మాయి	-10.4063
ple	-10.4068
▁శుభ	-10.4071
▁సామర్థ్యం	-10.4074
▁పాత్రను	-10.4075
ానికే	-10.4077
▁చేయవచ్చు	-10.4078
ావళి	-10.4079
▁ప్రయత్నాలు	-10.408
▁వహించాడు	-10.4092
▁బోస్	-10.4093
▁గురించిన	-10.4094
▁సందర్భ	-10.4105
▁Ch	-10.4106
▁క్రీస్తు	-10.4107
▁క్రియ	-10.4109
లియో	-10.4112
▁సేవలను	-10.4114
▁సేవల	-10.4115
▁దాకా	-10.4115
▁విన్న	-10.4117
▁స్పెయిన్	-10.4117
▁వాటా	-10.4123
ునకు	-10.4128
▁వంతు	-10.413
▁శివుడు	-10.413
▁అర్జునుడు	-10.4131
▁సమాచారాన్ని	-10.4138
ాల్ని	-10.4138
▁పరిశ్రమల	-10.4143
చర్య	-10.4149
ty	-10.4155
▁జాబితాలో	-10.4156
▁అయ్యింది	-10.4158
▁కటక	-10.4162
▁అంశ	-10.4169
తుండ	-10.4175
▁సినిమాల్లో	-10.4182
▁గ్రీన్	-10.4185
▁నర్స	-10.4186
▁పాటించ	-10.4188
నీటి	-10.4188
▁మూసి	-10.4188
ఒ	-10.4189
▁పాయింట్	-10.4195
▁రచించ	-10.4196
▁పక్షుల	-10.4198
▁నియంత్రించ	-10.4199
▁వ్యక్త	-10.4199
▁మనుషుల	-10.4201
▁నటించాడు	-10.4201
▁సమూహం	-10.4202
▁చిత్రీకరించ	-10.4202
▁గోవింద	-10.4203
▁నిధుల	-10.4211
▁నిర్మాణానికి	-10.4219
ical	-10.422
▁వర్క్	-10.4223
కన్నా	-10.4223
▁బలి	-10.4229
కుమార	-10.423
▁పనిచేసిన	-10.4234
▁సేకరణ	-10.4235
▁రాజీనామా	-10.4243
▁వస్తు	-10.4246
లాంటి	-10.4247
నిధి	-10.425
▁పరంగా	-10.4251
▁క్లి	-10.4253
▁తాత్కాలిక	-10.4254
▁పాము	-10.4259
తొ	-10.426
ానంతర	-10.4267
▁విలీనం	-10.427
▁ప్రవేశించి	-10.4272
▁విస్తృతంగా	-10.4273
▁పరిపాలించ	-10.4276
▁వ్యవహార	-10.4282
▁ఖనిజ	-10.4284
▁ఫ్యా	-10.4289
▁గురై	-10.4293
▁అయ్యాయి	-10.4294
▁ప్రాతినిధ్యం	-10.4296
▁ఇచ్చాడు	-10.4301
▁1996	-10.4305
▁కేంద్రాల	-10.4316
▁తై	-10.4319
▁కాలి	-10.432
▁రైతులు	-10.4326
నైనా	-10.4331
▁రెండూ	-10.4334
▁జత	-10.4335
va	-10.4336
▁అధికారికంగా	-10.4336
▁కాదని	-10.4343
▁అవసరమ	-10.4345
▁ఆధారాలు	-10.4345
బాయి	-10.4347
▁విస్తరణ	-10.435
▁మంగళ	-10.435
క్కడ	-10.4353
▁బలవంత	-10.4354
▁1930	-10.4363
▁రేటు	-10.4367
ధిక	-10.4371
▁కొడ	-10.4374
▁కొరియా	-10.4375
స్తాన్	-10.4377
▁సెప్టెంబర్	-10.4382
▁పరిష్కరించ	-10.4388
▁అశోక	-10.4391
rit	-10.4391
▁అనువదించ	-10.4393
▁వ్యాప్తంగా	-10.4399
వాసుల	-10.4401
▁వివరాల	-10.4402
▁ఆధారిత	-10.4402
▁తూ	-10.4403
▁ప్రసాద	-10.4404
▁దేవుడు	-10.4409
▁కూతురు	-10.4411
▁నేపథ్య	-10.4412
▁ఇందు	-10.4414
▁నిలబడ	-10.4415
▁రాష్ట్రపతి	-10.4416
ళీ	-10.4418
▁మహిళలు	-10.4428
ప్పటికి	-10.4429
వేసింది	-10.443
▁ప్రస్తావించ	-10.4431
ేశాడు	-10.4432
▁వాడే	-10.4433
▁పరచ	-10.4435
▁వినోద	-10.4435
▁అప్పగించ	-10.4439
▁ఎవర	-10.4445
రంగంలో	-10.4445
▁కారణమ	-10.4446
▁అంతేకాక	-10.4447
▁ఆకర్ష	-10.4447
▁విశ్వాసం	-10.4451
▁ఫ్లో	-10.4452
▁క్రొత్త	-10.4453
▁సంకలన	-10.4458
▁లిపి	-10.4467
ట్లయితే	-10.4469
▁బోధించ	-10.447
▁హోటల్	-10.4483
pos	-10.4485
▁ఆచరించ	-10.4487
▁చదివి	-10.449
▁విమానాశ్రయం	-10.4493
ari	-10.4496
▁ట్రై	-10.4499
▁వినియోగదారు	-10.45
▁అబ్దుల్	-10.4502
▁న్యూయార్క్	-10.4502
విధంగా	-10.4502
టికీ	-10.4503
▁Ma	-10.4503
ight	-10.4505
▁అరెస్టు	-10.4507
▁యువత	-10.4509
▁జాతులు	-10.4518
▁వాళ్ళు	-10.4526
▁క్లో	-10.4533
▁చేరిన	-10.4534
ep	-10.4535
▁పోల్చ	-10.4537
స్థానంలో	-10.4538
జిల్	-10.454
▁చిత్రానికి	-10.454
ీశ్వర	-10.4542
▁గమన	-10.4547
▁సిద్ద	-10.4547
పత్రిక	-10.4549
▁బ్రిటిషు	-10.4551
బన్	-10.4551
ారణ్య	-10.4552
tion	-10.4565
▁ఉందిసమీప	-10.4567
ind	-10.4567
▁తిరస్కరించ	-10.4567
▁మాల్	-10.4568
ff	-10.4572
han	-10.4576
సమూహ	-10.4578
▁వెంక	-10.4579
}}	-10.4579
రాదు	-10.4582
▁తిప్ప	-10.4585
▁పేర్కొంది	-10.4587
▁కలగ	-10.4588
కాండ	-10.4588
▁ఆదాయ	-10.4595
▁రాజధానిగా	-10.4596
▁ప్రవేశం	-10.4597
▁కన్ను	-10.4598
▁తల్లిదండ్రులు	-10.4598
▁ఈశాన్య	-10.4606
▁అయ్యాడు	-10.4606
▁అవతరించ	-10.4607
▁కుక్క	-10.4608
దై	-10.4626
టికల్	-10.4628
▁చదరపు	-10.4628
▁ఒకదాని	-10.4631
దేవత	-10.4638
రాణి	-10.4638
▁వెన్న	-10.464
మెన్	-10.4642
పోవటం	-10.4642
▁డచ్	-10.4645
▁చర్యల	-10.4649
▁ప్రతినిధుల	-10.465
▁కాలానికి	-10.4654
▁సాధించి	-10.4655
▁నాగార్జున	-10.4662
▁గద్వాల	-10.4672
దేవుడు	-10.4673
▁నిర్వాహక	-10.4684
నగర	-10.4686
int	-10.4689
▁ప్రవహించ	-10.4689
▁తీగ	-10.4689
▁రమణ	-10.4689
▁ఫార్మ	-10.469
▁ర్యా	-10.469
▁దగ్గరగా	-10.4692
▁తాజా	-10.4693
▁చదవ	-10.4698
▁సంతాన	-10.4699
వ్రత	-10.4699
▁తప్పనిసరి	-10.47
▁వైశాల్యం	-10.4702
▁సాఫ్ట్	-10.4704
▁అప్పట్లో	-10.4706
రైడ్	-10.4706
▁కావడంతో	-10.471
▁పెట్టిన	-10.4713
▁బాలిక	-10.4725
▁చేసుకొని	-10.4726
▁అనకాపల్లిలోను	-10.4728
▁నృత్యం	-10.4728
▁మెడికల్	-10.4728
▁విధానంలో	-10.473
▁భావించి	-10.4731
▁మరిన్ని	-10.4731
కుమారి	-10.4736
హె	-10.4737
▁ఎప్పుడూ	-10.4737
▁పాలనా	-10.4738
▁షేక్	-10.4742
▁సంస్కృతం	-10.4743
హెచ్	-10.4743
▁ట్రాన్స్	-10.4744
▁నార్వే	-10.4744
▁రెండింటి	-10.4745
▁రాగి	-10.4746
▁విభాగాల	-10.475
▁శర్మ	-10.4754
▁రంగస్థల	-10.4758
ధ్ర	-10.4761
▁చూస్తే	-10.4763
మహా	-10.4764
▁శర	-10.4765
ఉంది	-10.4767
▁వెలుగు	-10.4769
▁థియేటర్	-10.4773
▁వెళ్ళే	-10.4776
▁నటించింది	-10.4778
▁ప్రధానమంత్రి	-10.4779
▁నిజానికి	-10.478
▁do	-10.478
భ్యాస	-10.4782
▁అభ్యసించ	-10.4784
▁అందువల్ల	-10.4785
▁సమాజంలో	-10.4788
▁మనో	-10.4789
▁భరత	-10.4789
▁దేశాల్లో	-10.4793
▁అవతార	-10.4806
బోయే	-10.4808
▁ప్రారంభమైన	-10.4816
▁అందించే	-10.4821
▁ఎడ్	-10.4821
ుంటాయి	-10.4823
▁అంతటా	-10.4831
▁మోక్ష	-10.4837
ేశ్వరరావు	-10.4838
▁రైల్వేస్టేషన్	-10.4846
one	-10.4847
▁పరిశోధనలు	-10.4849
▁భువనగిరి	-10.4851
▁గోధుమ	-10.4851
బ్రి	-10.4856
▁గుజరాత్	-10.4857
▁వైష్ణవ	-10.4857
▁సాహిత్యంలో	-10.4858
▁బియ్యం	-10.4859
▁సౌకర్యాలేమ	-10.4863
భాగంలో	-10.4867
కూర	-10.4871
▁వాడతారు	-10.4877
▁కంటి	-10.4878
▁స్టె	-10.4878
▁సేకరించ	-10.4891
▁అనుసంధానం	-10.4891
బంద	-10.4894
ాసన	-10.4895
రేఖ	-10.4896
▁జీవితాన్ని	-10.4898
▁వాహనాల	-10.4898
▁సమర్ధ	-10.4901
▁అటవీ	-10.4903
-3	-10.4912
▁మొగ	-10.4916
▁గంట	-10.4917
▁ఈశ్వర	-10.4917
▁భారతదేశానికి	-10.4918
▁ఆయుధ	-10.4918
▁రష్యన్	-10.4919
▁ఆర్య	-10.4924
ిస్తు	-10.4927
▁కోర్సు	-10.493
బెట్ట	-10.4931
▁బొగ్గు	-10.4932
▁గుర్తి	-10.4933
▁పదాలు	-10.4934
త్వము	-10.4935
ుడయ్యాడు	-10.4939
▁తెలుసు	-10.4941
▁ప్రవర్తన	-10.4941
జిల్లా	-10.4946
▁వెళ్ళాడు	-10.4947
▁దీర్ఘకాల	-10.4947
▁మిగిలి	-10.495
▁చోళ	-10.4953
▁1994	-10.4956
రాశి	-10.4957
▁కూర	-10.4963
▁ఫ్రీ	-10.4968
▁ఆకర్షించ	-10.4969
▁నేతృత్వంలో	-10.4971
▁ఉద్భవించ	-10.4971
▁సమకూర్చ	-10.4977
▁చెబుతారు	-10.4978
▁రసాయనిక	-10.4978
▁దేశంగా	-10.4981
▁అంకిత	-10.4982
▁చేయటం	-10.4983
▁ఏపీ	-10.4986
▁కనుగొన్న	-10.4986
▁ఎగుమతి	-10.4988
▁పోర్	-10.4989
▁డ్రా	-10.4992
ుకుంటాడు	-10.4992
యుద్ధ	-10.4994
▁పశువుల	-10.5001
▁భయ	-10.5003
▁కమ్మ	-10.5012
ాంతం	-10.5012
▁భాగము	-10.5013
▁విక్రయ	-10.5015
గలిగే	-10.5018
▁పండు	-10.502
▁సుబ్రహ్మణ్య	-10.5022
▁చెప్పే	-10.5024
ture	-10.5026
ang	-10.5027
చక్ర	-10.5031
▁మాతృ	-10.5035
▁హ్యా	-10.5036
▁300	-10.5041
▁శ్రీనివాస్	-10.5043
▁బోరుబావులు	-10.5043
చెంద	-10.5044
▁ఉంటాడు	-10.5044
మిష	-10.5048
▁po	-10.5051
ాధికారి	-10.5054
▁వారీ	-10.5054
డియో	-10.5057
వృత్తి	-10.5059
▁పంటలు	-10.5066
▁పంజాబ్	-10.5068
కూడదు	-10.5069
▁నిషేధ	-10.5071
▁చేపల	-10.5078
▁మహాసముద్ర	-10.5082
▁అవకాశాలు	-10.5084
వెళ్ళ	-10.5094
శక్తుల	-10.5097
▁అంశాలు	-10.5097
▁నాయకత్వంలో	-10.51
▁సుబ్బారావు	-10.5104
▁సకల	-10.5104
▁ఇంగ్లాండ్	-10.5109
▁పుల్ల	-10.5111
cl	-10.5112
▁తేలిక	-10.5112
▁వ్యయం	-10.5115
▁వాహక	-10.5116
▁కుమారులు	-10.5119
▁చూడండి	-10.5123
జెన్	-10.5123
▁చిత్రాలలో	-10.5127
▁అబ్బ	-10.5127
▁మాయ	-10.5129
▁క్యూ	-10.5131
▁జ్యోతి	-10.5136
▁చెంది	-10.5143
▁మూలంగా	-10.5144
మూర్తుల	-10.5148
▁పిలవ	-10.5148
▁ఊహించ	-10.5152
▁ఎడమ	-10.5156
▁తీర్థ	-10.5157
1%	-10.5158
▁లోతు	-10.5159
tor	-10.516
▁డొ	-10.516
▁అక్షరాస్యత	-10.5161
▁నాశనం	-10.5161
▁రంగారెడ్డి	-10.5165
కల్ప	-10.5166
ాచల	-10.5169
చ్చాడు	-10.517
ాంక	-10.5173
▁సూర్యాపేట	-10.5179
▁తీరు	-10.519
▁150	-10.519
▁సగం	-10.5193
▁గ్రంథాలయ	-10.5195
పూజ	-10.5195
out	-10.5201
▁తీర్పు	-10.5202
▁1989	-10.5205
మన్నారు	-10.5209
▁పువ్వు	-10.521
▁దరఖాస్తు	-10.5214
▁త్యాగ	-10.5214
▁కాగిత	-10.5215
▁పేర్కొన్నాడు	-10.5219
పడుతున్న	-10.522
▁నిరసన	-10.5226
▁కంద	-10.5237
టూరు	-10.5238
▁సప్త	-10.5243
district	-10.5243
▁శతాబ్ది	-10.5244
మాసం	-10.5244
▁దీర్ఘ	-10.5244
▁ఇరాన్	-10.5246
నాయుడు	-10.5249
▁భాగవత	-10.525
పడ్డ	-10.525
act	-10.5253
▁1997	-10.5258
▁వ్యాఖ్య	-10.5266
▁యస్	-10.5266
▁మాధవ	-10.5266
▁ఉండేవారు	-10.5273
▁చేపట్టిన	-10.5273
▁సరళ	-10.5273
ాపన	-10.5277
క్రియ	-10.528
▁మలయాళ	-10.5285
పేట్లో	-10.5286
ేటప్పుడు	-10.5286
▁1948	-10.5288
▁పనిచేస్తుంది	-10.5291
▁చేసుకుంది	-10.5292
▁చేరింది	-10.5292
▁భావించారు	-10.5294
▁రాయ్	-10.5298
▁one	-10.5299
▁ఉర్దూ	-10.5302
▁నిరూపించ	-10.5305
▁వస్తాయి	-10.5308
▁ఒకప్పుడు	-10.5309
▁సాయి	-10.5313
▁స్పానిష్	-10.5314
▁సందర్భాలలో	-10.5326
▁ఉంటా	-10.5333
▁దాదాపుగా	-10.5336
▁పట్టిక	-10.5336
పరిచి	-10.5337
▁దేహ	-10.5338
▁క్షేత్రం	-10.5339
▁పాలకుల	-10.534
▁బంగ్లాదేశ్	-10.5344
▁గుర్తించిన	-10.5344
▁has	-10.5349
ాచార్యులు	-10.5361
▁కమ్యూనిస్టు	-10.5361
▁An	-10.5367
చేసింది	-10.537
▁విశ్వనాథ	-10.5371
▁గ్రేట్	-10.5371
▁1995	-10.5372
▁ప్రదేశంలో	-10.5372
▁ప్రయోజనాల	-10.5391
▁తెలుప	-10.5393
▁పదాన్ని	-10.5396
ue	-10.5404
▁చేస్తోంది	-10.5405
థో	-10.5406
▁స్పష్టంగా	-10.5416
కరంగా	-10.542
▁ద్రావ	-10.5421
ary	-10.5422
▁ఆదిలాబాద్లో	-10.5428
▁సభ్యుడు	-10.5428
▁ప్రారంభించిన	-10.5435
పర్తి	-10.5436
▁కిందకు	-10.5437
▁అద్ద	-10.544
▁చిహ్నం	-10.5441
సభ	-10.5444
4%	-10.5445
▁ఇవ్వడం	-10.5452
▁వెంకటేశ్వర	-10.5452
ame	-10.5475
▁భాగాన్ని	-10.548
▁వికీ	-10.548
▁కలకత్తా	-10.5481
▁డిసెంబర్	-10.5481
▁ద్రోణ	-10.5481
▁హైదరాబాదులోను	-10.5482
ధుల	-10.5487
▁సహాయంతో	-10.549
▁pl	-10.5493
▁ఫెర్	-10.5493
▁ముప్ప	-10.5496
▁విభాగాలు	-10.5499
▁ప్రోత్సాహ	-10.5499
▁వర్తక	-10.55
వెంట్	-10.5501
▁విదేశాల	-10.5503
టమే	-10.5504
▁1992	-10.5509
▁వ్యవహర	-10.551
▁పార్టీకి	-10.5517
▁ఒలింపిక్	-10.5517
▁రెడ్	-10.552
▁ఆదర్శ	-10.5521
▁అయ్యే	-10.553
▁మధ్యకాలంలో	-10.5532
▁మ్యూజియం	-10.5535
▁స్క్	-10.5543
▁మహారాజు	-10.5543
కంఠ	-10.5543
▁కమల	-10.5548
ob	-10.5548
▁నష్టం	-10.5551
ాధార	-10.5559
▁స్ట్ర	-10.5559
▁పర్యాటకుల	-10.5561
▁క్వా	-10.5562
▁మరికొన్ని	-10.5566
▁ఇటలీ	-10.5566
▁ప్రసారం	-10.5572
▁నాటకాల	-10.5574
ేశ్వర్	-10.5575
▁నాయకత్వం	-10.5579
▁సంభవ	-10.5584
gu	-10.5584
▁గెలిచి	-10.5584
▁చేస్తాడు	-10.5589
▁నింప	-10.5592
▁దంపతుల	-10.5593
▁పార్కు	-10.5595
▁తీర్మాన	-10.5596
▁సమావేశం	-10.5602
▁ప్రత్యేకించి	-10.5606
ీకృత	-10.5607
▁ఉంటూ	-10.5609
గీత	-10.5611
▁పోలీసుల	-10.5613
▁ఆరంభం	-10.5625
▁దారితీసింది	-10.5627
▁ఏళ్ళ	-10.5632
క్యూ	-10.5634
▁దయ	-10.5636
▁బ్లూ	-10.5638
sion	-10.564
state	-10.5642
ాధ్యక్ష	-10.5651
ుతుంటారు	-10.5654
▁ఆంజనేయ	-10.5657
▁నిర్ధారించ	-10.5657
▁మొదటిసారిగా	-10.566
కృత్	-10.5662
▁ఉండును	-10.5662
▁జీర్ణ	-10.5664
▁దాట	-10.5667
▁అర్హత	-10.567
▁దేవతలు	-10.5671
▁పూజా	-10.5671
▁పెరుగుతుంది	-10.5672
▁నగర్లో	-10.5673
▁ఘనంగా	-10.5675
▁ఉపయోగించారు	-10.5675
▁విడిచి	-10.5678
▁తిరువ	-10.5678
▁రజ	-10.5681
▁శీతాకాల	-10.5682
▁రక్తం	-10.5686
▁స్టూడియో	-10.5688
ణ్ణ	-10.5691
▁అనుకూలంగా	-10.5691
▁వివరించారు	-10.5694
▁నాణ్యత	-10.5694
▁అంటు	-10.5696
▁విజయవంతంగా	-10.5697
▁నొప్పి	-10.5698
ోదయ	-10.57
▁పొద	-10.57
నగరం	-10.5707
▁స్థాపించిన	-10.571
పాలన	-10.5717
▁ఎవరు	-10.5719
▁మొహ	-10.5719
న్యూఢిల్లీ	-10.5725
▁తమ్మ	-10.5727
▁కావచ్చు	-10.5729
టొ	-10.5729
▁శ్రద్ధ	-10.5737
▁చేరారు	-10.574
▁స్నేహ	-10.5746
ాళ్	-10.5753
▁వసంత	-10.5758
▁ఆనాటి	-10.5762
▁మొదట్లో	-10.5766
▁పట్టణంలో	-10.5774
ాంశం	-10.5776
▁ఉపాధి	-10.5777
▁దీవుల	-10.578
▁ముహమ్మద్	-10.578
▁సరిగా	-10.5791
గలవు	-10.5797
▁యాదవ	-10.5798
▁తానే	-10.5799
▁టెస్ట్	-10.5804
▁అనుమాన	-10.5809
▁ఓపెన్	-10.5812
8%	-10.5813
▁నవంబర్	-10.5813
▁ప్రశాంత	-10.5817
▁లేకపోవడం	-10.5818
▁శాస్త్రము	-10.5818
▁తట్ట	-10.5823
▁సింధు	-10.5831
▁కార్మిక	-10.5834
▁నివసిస్తున్న	-10.5846
▁అన్వేష	-10.5849
ముద్ర	-10.585
▁చేసుకునే	-10.585
▁శోభ	-10.585
▁లంక	-10.5856
ుకుంటే	-10.5857
▁రాముడు	-10.5858
కళా	-10.5859
▁ఇక్కడికి	-10.5861
శాసన	-10.5861
టీఎం	-10.5861
▁అల్యూమినియం	-10.5861
▁మృత	-10.5863
▁భవిష్యత్తు	-10.587
ాలజీ	-10.5871
if	-10.588
ృష్ట	-10.588
▁టాప్	-10.5881
▁రాజేంద్ర	-10.5883
పిల్ల	-10.5885
▁పరిశోధనా	-10.5886
▁కవిత్వం	-10.5892
▁సినిమాలలో	-10.5899
▁అనుభవించ	-10.5899
▁విశాఖ	-10.5901
▁దిశగా	-10.5901
▁కామారెడ్డి	-10.5907
▁సంఘాల	-10.5912
▁చేరుకుంది	-10.5912
▁పేర్కొన్న	-10.5914
▁పరుగులు	-10.5916
బ్యూ	-10.5917
సామర్ధ్య	-10.5918
▁జనసంఖ్య	-10.592
▁శంఖ	-10.592
ుకోవాలని	-10.5924
▁can	-10.5925
▁ఫైనల్	-10.5929
▁యూనిట్	-10.5929
▁ఆగష్టు	-10.593
▁కూటమి	-10.593
ten	-10.5932
▁విలువైన	-10.594
▁అసాధారణ	-10.5943
▁వైరస్	-10.5944
▁బీజ	-10.5948
▁పేరిట	-10.595
▁ఎదుర్కొన్న	-10.595
▁విద్యాలయ	-10.5951
▁వాక్య	-10.5952
ana	-10.5953
▁తీసుకురా	-10.596
భూషణ	-10.5961
▁ఆదిలాబాద్	-10.5961
▁నిర్వహిస్తారు	-10.5965
▁దోష	-10.5968
▁బుద్ధి	-10.5968
ath	-10.5969
న్నిటి	-10.5971
art	-10.5972
app	-10.5973
లాండు	-10.5974
▁ఏమీ	-10.5974
▁త్వరగా	-10.5975
▁ఉన్నాయని	-10.5975
▁వీటికి	-10.5975
▁రూపొందించిన	-10.5977
▁పేర్కొ	-10.5978
▁కూరగాయలు	-10.5982
▁who	-10.5983
▁II	-10.5983
ణువు	-10.5992
▁గ్రహించ	-10.6004
▁చక్కగా	-10.6006
▁స్థాపించాడు	-10.6012
▁పశ్చిమాన	-10.6013
▁నోటి	-10.6016
▁అడ్డు	-10.6018
▁పాల్వంచ	-10.6019
▁శ్రమ	-10.6023
▁కళాకారులు	-10.6027
పోయ	-10.6029
▁మనస్సు	-10.6031
టేషన్	-10.6035
▁రచించారు	-10.6037
▁పరస్పర	-10.6038
స్పష్ట	-10.6039
▁సాధించారు	-10.6044
ద్దీన్	-10.6045
▁చీర	-10.6048
▁5310	-10.6049
▁పరిశీలన	-10.6051
▁సహకరించ	-10.6053
▁ఆరోపణల	-10.6057
స్తోంది	-10.6057
▁రహదారుల	-10.6058
దండ	-10.6061
▁పోష	-10.6062
డియన్	-10.6063
▁పోలిస్తే	-10.6065
▁సుదీర్ఘ	-10.607
ుకోవటం	-10.6074
▁మంగ	-10.6074
▁అధ్యాపక	-10.6076
▁1940	-10.6082
▁కోల్పో	-10.6082
▁ఐర్లాండ్	-10.6089
▁మహాత్మా	-10.6089
ance	-10.6094
▁man	-10.6096
▁పార్వతీ	-10.6096
▁చేసేవారు	-10.61
▁సంగారెడ్డి	-10.6107
▁తొలగ	-10.6108
▁క్వి	-10.611
over	-10.6117
▁కాశ్మీరు	-10.6118
▁అనారోగ్య	-10.6134
షియన్	-10.6137
పూరిత	-10.6138
form	-10.6141
▁అక్టోబర్	-10.6147
▁వృత్తులు	-10.6148
పెడ	-10.6149
▁పునః	-10.6155
▁పండ్లు	-10.6159
▁వాటర్	-10.6159
▁యూనివర్శిటీ	-10.616
▁మొదలైంది	-10.6161
▁సమానంగా	-10.6161
▁పిల్లలకు	-10.6164
▁దశాబ్దాల	-10.6165
▁యాజమాన్య	-10.6166
▁ఎముక	-10.6167
▁ప్రమాణాల	-10.6169
▁హామీ	-10.6171
మాంస	-10.6171
▁ఉంద	-10.6173
▁మాస్టర్	-10.6179
▁విద్వాంసు	-10.6179
▁రాయల్	-10.6183
పూర్వక	-10.6183
ఎఫ్	-10.6184
▁లాటిన్	-10.6186
▁విధి	-10.6188
▁ఐదుగురు	-10.6188
▁వృ	-10.6193
▁దంత	-10.6198
నాటికి	-10.6198
▁తరహా	-10.6201
▁రాజ్యాంగం	-10.6202
▁పొగ	-10.6202
▁శివుని	-10.6214
▁సమయానికి	-10.6217
▁లభించిన	-10.6218
▁డేటా	-10.6218
▁చూడవచ్చు	-10.6224
▁సంతకం	-10.6224
▁శరణ	-10.6227
▁ప్రయోగించ	-10.623
2%	-10.6231
▁నిర్మించాడు	-10.6237
▁అత్యుత్తమ	-10.6237
▁శ్రీనివాస	-10.6238
▁వలయ	-10.6239
▁పరిషత్	-10.6242
▁మీటర్లు	-10.6243
▁కాంగ్రెసు	-10.6244
బడినవి	-10.6247
▁ఫ్లా	-10.6248
▁ఆంగ్లంలో	-10.6248
యొ	-10.6249
ాసుర	-10.625
యిడ్	-10.6251
కెక్క	-10.6252
▁రాశారు	-10.6256
▁వస్తువులను	-10.6256
▁సౌందర్య	-10.6257
కపోయినా	-10.6263
▁అరేబియా	-10.6263
▁తెలిపింది	-10.6263
ేందర్	-10.6265
▁నుంచే	-10.6271
▁నగరంలోని	-10.6275
▁హెక్టారులు	-10.6276
▁పిలుపు	-10.6284
▁విధానాలు	-10.629
రియో	-10.6294
ally	-10.6297
దుర్గ	-10.63
▁విజయవంతమైన	-10.6301
▁ఆఫ్రికన్	-10.6309
▁స్థాపించి	-10.6313
ard	-10.6314
▁సంభాషణ	-10.6316
▁లలిత	-10.6316
▁నివారణ	-10.6316
ుతుంటాయి	-10.6322
మందు	-10.6327
సెంట్	-10.6332
▁అత్యున్నత	-10.6342
▁శుభ్ర	-10.6342
pi	-10.6342
▁భక్తులకు	-10.6346
▁కర్ర	-10.6351
adj	-10.6366
ition	-10.6367
▁తాగ	-10.6368
జాతీయ	-10.6373
▁సూర్యుని	-10.6375
▁త్రాగ	-10.6376
▁ముస్లింలు	-10.6377
▁దేవుని	-10.6378
▁రవీంద్ర	-10.6381
▁సామర్థ్య	-10.6381
ోంది	-10.6385
▁ఫిల్మ్	-10.6388
▁ఉత్సవాల	-10.6393
▁నాగర్	-10.6399
▁ముస్లింల	-10.64
ting	-10.6402
bl	-10.6404
▁సమస్యలను	-10.6404
▁పవర్	-10.6406
▁శాన్	-10.6415
▁అన్య	-10.6417
వాణి	-10.6417
▁శక్తివంతమైన	-10.6418
▁కాంగ్	-10.6425
▁ముద్రణ	-10.6428
▁కొద్దిగా	-10.6429
▁గిరిజన	-10.6432
▁పరిచయ	-10.6432
▁ప్రతినిధి	-10.6433
దన్న	-10.6433
సముద్రం	-10.6434
▁బీజేపీ	-10.6441
▁యుద్ధానికి	-10.6442
ఫ్ట్	-10.6442
▁1952	-10.6448
▁మధుర	-10.6449
ఘట్ట	-10.6454
▁సూర	-10.6455
▁దక్షిణాన	-10.6457
బద్ద	-10.646
▁నారాయణ్	-10.646
▁సాంద్రత	-10.6461
▁విషయము	-10.6461
▁అప్పు	-10.6462
ించుట	-10.6462
▁బాంబు	-10.6465
▁నాటకాలు	-10.6465
▁హిమ	-10.6467
▁విరమణ	-10.6467
▁ఊరు	-10.6469
▁విమర్శకుల	-10.6472
▁స్ఫూర్తి	-10.6474
▁స్ట్రా	-10.6477
▁ఊహ	-10.6483
▁ఆస్పత్రి	-10.6487
▁ఎంపీ	-10.6493
▁ఐక్య	-10.6495
హ్లాద	-10.6501
▁వినాయక	-10.6504
▁ముద్రించ	-10.6511
▁నిర్వహించే	-10.6514
▁ఎగువ	-10.6514
▁చక్కెర	-10.6527
ుతుంద	-10.6527
▁చమురు	-10.6528
ీయులు	-10.6528
▁అరటి	-10.653
▁అందరికీ	-10.6541
▁అడిగాడు	-10.6544
▁నువ్వు	-10.6545
▁మార్క్	-10.6557
రకాల	-10.6562
▁గణపతి	-10.6564
▁మార్పుల	-10.6566
▁అమిత	-10.6573
▁శత్రువు	-10.6574
K	-10.6575
చెరువు	-10.6576
▁చోట్ల	-10.6576
▁ఎన్టీఆర్	-10.6587
▁గుర్తిస్తూ	-10.6589
▁అందిస్తున్న	-10.6592
tra	-10.6594
▁అతన్ని	-10.6594
▁మామూలు	-10.6595
▁దళిత	-10.6595
▁కవుల	-10.6599
▁లభించాయి	-10.6601
▁గ్రంధ	-10.6602
▁పిలువబడే	-10.6603
▁నిషేధించ	-10.6605
▁హనుమకొండ	-10.6609
▁ఖాతా	-10.6609
▁నిమిషాల	-10.661
▁అంజ	-10.6611
▁నిధులు	-10.6612
▁ఖగోళ	-10.6617
▁గాజు	-10.6618
▁కమిషనర్	-10.6621
▁యాగ	-10.6629
జీవిత	-10.6632
పడ్డాయి	-10.6633
▁కనక	-10.6633
▁మైసూరు	-10.6635
6%	-10.6638
▁మాటల	-10.6638
▁వ్యవహారాల	-10.6639
▁అనుకున్న	-10.664
▁న్యాయవాది	-10.6648
▁any	-10.665
▁నడుమ	-10.6653
▁స్పా	-10.6654
▁also	-10.6655
▁విశ్లేషణ	-10.6655
▁ఇందిరా	-10.6656
▁అనునది	-10.6659
ai	-10.6663
▁అందుకున్నారు	-10.6667
▁ఉత్సాహ	-10.6668
▁సమగ్ర	-10.6671
amu	-10.6677
▁సుప్రసిద్ధ	-10.6682
ప్రసాద్	-10.6685
ara	-10.6688
▁మసీదు	-10.6689
▁విక్రమ	-10.669
▁అందించిన	-10.6691
▁పాల్గొని	-10.6693
▁పరిషత్తు	-10.67
గలిగిన	-10.6703
▁కొంచెం	-10.6709
▁చాట	-10.6713
▁శరీరంలో	-10.6714
▁నచ్చ	-10.6717
▁సాక్ష్య	-10.672
▁మేఘ	-10.6721
mi	-10.6722
▁ఇంగ్లీష్	-10.6723
▁దండయాత్ర	-10.6723
▁తోడు	-10.6727
ood	-10.6729
▁పొడవైన	-10.673
▁ఆదరణ	-10.673
▁హ్యూ	-10.6736
▁ముఖ్యమైనవి	-10.674
▁పోస్టు	-10.6741
▁గదుల	-10.6745
▁సహస్ర	-10.6745
▁పద్ధతులు	-10.6755
5,000	-10.6757
▁గూర్చి	-10.6758
▁ధరించి	-10.676
▁పక్కన	-10.6761
▁జరిపిన	-10.6763
▁చెట్లు	-10.6765
▁గణన	-10.6766
▁ఇతడి	-10.6766
▁సాగించ	-10.6769
▁పిండి	-10.677
పురుష	-10.6772
▁ఓడించి	-10.6789
నిర్మాణ	-10.6789
▁వెడల్పు	-10.6791
▁సిరీస్	-10.6792
ుందని	-10.6793
ిస్తున్నా	-10.68
▁మౌలిక	-10.68
▁పరిస్థితులు	-10.6801
▁సంగ్రహ	-10.6802
▁నివసిస్తున్నారు	-10.6808
▁కల్గి	-10.6814
▁అక్బరు	-10.6819
పోతాయి	-10.6822
▁నగరాన్ని	-10.6822
▁నందు	-10.6825
▁సుల్తాన్	-10.6825
▁కన్య	-10.6831
▁నివసించే	-10.6832
▁ఇరవై	-10.6833
9%	-10.6833
▁బ్రాహ్మణుల	-10.6835
▁ప్రాజెక్ట్	-10.6839
▁సముద్రతీర	-10.684
3%	-10.6842
భిప్రాయ	-10.6844
చోట	-10.6847
▁విమానాశ్రయ	-10.685
▁చుట్టు	-10.685
▁పాఠ్య	-10.6852
▁తెలుసుకున్న	-10.6854
▁వైభవంగా	-10.686
▁ఉండాలని	-10.6864
సృ	-10.6866
పల్లిలోనూ	-10.6867
min	-10.6873
▁గ్రూపు	-10.6875
▁క్యాన్సర్	-10.6881
▁రచించాడు	-10.6881
▁చేతులు	-10.6887
▁శంకర్	-10.6887
▁బాహ్య	-10.6888
▁శాస్త్రవేత్తలు	-10.6893
▁వ్యవస్థాపక	-10.6895
▁టైటిల్	-10.6896
▁నవ్వ	-10.69
▁నిర్మించబడింది	-10.6908
▁ఆధీనంలో	-10.6908
▁అలంకరించ	-10.6908
▁నిరాకరించ	-10.6908
▁అరకులోయలో	-10.6915
▁స్థాపన	-10.6915
▁దశాబ్ద	-10.6916
▁ఉపయోగించడం	-10.692
సియన్	-10.6928
▁అవమాన	-10.6929
▁ఉద్యానవన	-10.6929
▁జగిత్యాల	-10.6929
▁తలెత్త	-10.6932
▁పెరుగ	-10.6936
▁మఠ	-10.6942
రామయ్య	-10.6946
fi	-10.6951
▁హిందువుల	-10.6953
ie	-10.6953
▁ఉత్సవాలు	-10.6954
ుచున్నారు	-10.6961
▁వర్షపాతం	-10.6971
▁మంజూరు	-10.6971
▁ఆఖరి	-10.6972
యింగ్	-10.6979
▁సహకారంతో	-10.6982
▁అందరు	-10.6982
▁సంబ	-10.6993
▁దిక్కు	-10.6994
▁అద్భుతమైన	-10.6995
▁స్థాయికి	-10.6996
▁తీరంలో	-10.6998
▁పాఠ	-10.7001
▁రోగుల	-10.7003
▁పాక్షిక	-10.7006
ach	-10.7012
సౌ	-10.7012
▁విక్రయించ	-10.7015
▁గుడివాడ	-10.7016
▁సులభంగా	-10.7017
▁పురాణాల	-10.7022
▁వేలాది	-10.7025
▁సదస్సు	-10.7027
▁రోడ్డుతో	-10.7027
▁సులభ	-10.7031
▁బ్లా	-10.7033
▁తెలుపు	-10.7033
▁పొరుగు	-10.7034
▁వుంటాయి	-10.7037
▁చలి	-10.7041
▁కళాకారుల	-10.7042
▁నాగేశ్వరరావు	-10.705
▁శ్రీమతి	-10.7055
▁అదుపు	-10.7056
▁వంగ	-10.7057
▁గ్రంథాలు	-10.7059
▁వేళ	-10.7066
▁హిల్	-10.7071
▁మతపరమైన	-10.7075
▁రంధ్రము	-10.7077
port	-10.7088
har	-10.7097
▁పడుతుంది	-10.7097
▁గెలుచుకున్న	-10.7098
▁రేవంత్	-10.7105
▁కనిపెట్ట	-10.7105
ులయ్యారు	-10.7109
▁హిందువులు	-10.7112
▁మైక్రో	-10.7119
ంటున్నారు	-10.7124
▁తీసుకున్నారు	-10.7126
▁దుఃఖ	-10.7126
▁విజేత	-10.7126
▁కుంభ	-10.7129
▁స్మారక	-10.7133
▁తేజ	-10.7134
▁కాలేజ్	-10.714
▁భోగ	-10.7145
▁సాహస	-10.7152
▁1983	-10.7153
▁ఓట్ల	-10.7154
▁భూభాగాల	-10.7154
▁అనుసంధానమై	-10.7158
▁డిజిటల్	-10.7169
▁చింతపల్లి	-10.717
▁వ్యాపించి	-10.7171
▁మినుము	-10.7171
రంగు	-10.7176
▁అధ్యక్షుడిగా	-10.7181
tal	-10.7182
▁బీసీ	-10.7185
▁వివేక	-10.7191
▁కథనం	-10.7198
▁జలపాత	-10.7203
▁మొఘల్	-10.7204
▁జయించ	-10.7207
▁ప్రేరణ	-10.7208
▁ల్యా	-10.7208
▁dis	-10.7208
▁వహించారు	-10.7209
▁స్పె	-10.7212
ome	-10.722
వీడు	-10.7226
▁ఆచరణ	-10.7226
▁శిథిల	-10.7233
▁రోగి	-10.7234
▁హౌ	-10.7241
▁అంచు	-10.7243
కోశ	-10.7244
భిక్ష	-10.7247
▁అహ్మద	-10.7247
▁ఎవరైనా	-10.7248
▁భారతీయుల	-10.7249
▁జంతువులు	-10.725
▁జరుగుతాయి	-10.7251
▁అందమైన	-10.7252
గృహ	-10.7252
▁గాథ	-10.7257
బెట్టి	-10.7258
▁వోల్	-10.7264
మియా	-10.7267
▁తాళ	-10.7275
తెలంగాణ	-10.7282
▁గణనీయమైన	-10.7283
▁ధైర్య	-10.7283
ala	-10.7284
▁కొందరి	-10.7284
కారణ	-10.7284
▁ఎన్నికైనారు	-10.7287
▁బంగారం	-10.7287
▁తిరిగ	-10.7289
▁1962	-10.729
▁ఈజిప్టు	-10.7291
hy	-10.7292
tu	-10.7293
▁ఆరుగురు	-10.7293
▁నోబెల్	-10.7298
▁వాయిద్య	-10.7298
▁వుండి	-10.7298
▁సేకరించి	-10.7302
▁సంధి	-10.7302
les	-10.7302
▁have	-10.7305
▁కొత్తగూడెం	-10.7307
షనల్	-10.7308
స్తానని	-10.731
▁సౌత్	-10.731
▁1971	-10.7314
▁పరిశోధకులు	-10.7319
▁1985	-10.7321
▁సమస్త	-10.7326
దగ్గ	-10.7328
Sub	-10.7329
▁చేస్తు	-10.733
▁ఆర్మేనియా	-10.7334
▁ఉప్ప	-10.734
▁సైట్	-10.7341
టైన్	-10.7351
▁బెంగాలీ	-10.7356
▁కత్తి	-10.7357
▁పెసర	-10.7357
▁ఏర్పాట	-10.7361
▁రాకెట్	-10.7367
▁వినిపించ	-10.7371
పర్చ	-10.7374
థె	-10.7375
▁కవులు	-10.7376
▁శైవ	-10.7379
▁వైఎస్	-10.7379
జిత్	-10.738
mon	-10.738
▁జస్టిస్	-10.7385
ack	-10.7387
▁కార్తీక	-10.7398
▁మాడుగుల	-10.74
▁నివారించ	-10.7401
▁పురుగు	-10.7414
▁ఎడారి	-10.7414
▁నిర్బంధ	-10.7416
▁1920	-10.7423
▁రాష్ట్రములోని	-10.7427
▁అంతేకాకుండా	-10.7429
▁జ్ఞాపక	-10.7429
▁బర్మా	-10.743
▁ఇప్పటికే	-10.7431
▁బిందువు	-10.7436
▁విగ్రహాల	-10.744
▁భద్రాచలం	-10.7443
▁పెట్టుబడుల	-10.7443
భరణ	-10.7445
▁వికెట్	-10.7455
▁ప్రజాస్వామ్య	-10.7468
7%	-10.748
▁శస్త్రచికిత్స	-10.748
▁శనగ	-10.7484
▁అన్నమయ్య	-10.7489
▁పోషక	-10.7493
స్తుండగా	-10.75
▁ఆలయానికి	-10.7502
▁దక్షిణాఫ్రికా	-10.7502
▁ప్రస్తావన	-10.7502
▁మధ్యాహ్న	-10.7509
▁తరగతుల	-10.751
▁మూత్ర	-10.7511
▁ఆక్రమణ	-10.7513
▁సముద్రమట్టానిక	-10.7524
▁పాల్గొంట	-10.7528
▁సిక్కు	-10.7533
భంగ	-10.7537
▁పండించ	-10.7542
▁వీజీ	-10.7542
▁శిష్యుల	-10.7544
mo	-10.7546
▁బెంగళూరు	-10.7554
▁కలయిక	-10.7554
pur	-10.7556
▁చెబుతున్న	-10.756
▁కావున	-10.7565
▁ఆవిష్కరణ	-10.7569
▁పండ్ల	-10.7571
▁St	-10.7571
▁ట్రాఫిక్	-10.7576
▁రాజ్యాన్ని	-10.7576
▁తులసి	-10.7577
కపోవడం	-10.7578
▁1993	-10.7581
▁నాయిక	-10.7584
▁టర్కీ	-10.7584
▁పిలిచే	-10.7588
▁1967	-10.759
▁చతుర్	-10.7592
మండలి	-10.7603
▁సదుపాయ	-10.7603
▁1984	-10.7603
▁సరిపో	-10.7605
▁ప్రమాణం	-10.7611
▁ప్రత్యర్థి	-10.762
▁వృష	-10.7622
▁చేయటానికి	-10.7622
▁ద్వితీయ	-10.7628
▁ఆహ్వాన	-10.7636
కొద్దీ	-10.7638
▁పండితులు	-10.7641
▁ఇస్తుంది	-10.7641
▁1956	-10.7646
▁కవితా	-10.7648
par	-10.7649
▁క్షత్రియ	-10.765
▁తొలిసారిగా	-10.765
▁క్షయ	-10.7652
▁హైడ్రో	-10.7654
ప్పుడే	-10.7665
ాధిపతి	-10.7668
▁జింక	-10.7668
▁పెరుగుతున్న	-10.7671
▁కాకతీయ	-10.7672
▁పెరిగిన	-10.7675
▁కొట్టి	-10.7677
▁చేపలు	-10.768
▁అధిగమించ	-10.768
▁క్షిపణి	-10.7688
▁స్పందించ	-10.7688
▁ఓటమి	-10.7695
▁ఆస్తుల	-10.7697
▁ప్రారంభించి	-10.7698
ెయిన్	-10.7701
▁వసూలు	-10.7703
▁మెజారిటీ	-10.771
▁ప్రై	-10.7713
▁ఎంచ	-10.7716
▁జంగ	-10.7718
టెల్	-10.7718
మంత్రి	-10.7727
▁నుండే	-10.7729
దక్షిణ	-10.773
ఫోన్	-10.773
▁పఠ	-10.7731
▁ఆత్మహత్య	-10.7733
▁ఘంటసాల	-10.7733
▁ఒడిషా	-10.7733
▁దుష్	-10.7735
▁పుష్కర	-10.7741
ాన్నే	-10.7747
▁ఇటీవలి	-10.7749
ite	-10.7754
▁మంగోల	-10.7756
ుచుండ	-10.7758
▁బ్ల	-10.7759
▁చేశాయి	-10.7762
▁కలిగే	-10.7766
▁కాలుష్య	-10.7771
▁త్వరలో	-10.7771
▁పొందాయి	-10.7776
ian	-10.7776
▁తరపున	-10.7779
▁వాడకం	-10.7782
▁1972	-10.7785
▁ప్రభువు	-10.7788
థ్య	-10.779
▁కృష్ణుడు	-10.779
▁సంరక్ష	-10.7792
▁సైనికులు	-10.7792
▁సంతృప్త	-10.7809
గంటి	-10.7816
▁ప్రభావిత	-10.7816
▁చెందుతున్న	-10.782
గలిగి	-10.7823
ాపక	-10.7825
▁అగ్నిపర్వత	-10.7831
▁వెనక	-10.7836
జియా	-10.7839
యుగం	-10.7839
▁ఆధారపడ	-10.7841
▁తిరగ	-10.7844
▁ప్రచురించారు	-10.7855
’’	-10.7855
▁హైడ్రా	-10.7857
▁చక్కని	-10.7862
గఢ్	-10.7864
శారద	-10.7866
రీత్యా	-10.7872
▁నిజమైన	-10.7874
ran	-10.7877
▁బ్యాండ్	-10.7877
▁యజమాని	-10.7877
ust	-10.7878
శృ	-10.7882
▁హిట్	-10.7882
▁రాయలసీమ	-10.7885
▁సమకాలీన	-10.7885
ld	-10.7886
▁స్థూల	-10.79
▁లైంగిక	-10.79
▁తల్లిదండ్రుల	-10.7903
▁ఆయుర్వేద	-10.7908
▁క్షీణ	-10.791
▁pre	-10.791
▁అభ్యర్థుల	-10.7915
▁మధు	-10.792
పట్టణ	-10.7922
ron	-10.7922
▁విటమిన్	-10.7923
▁మెదడు	-10.7923
▁వేదాంత	-10.7923
▁బ్యాటరీ	-10.7933
▁పతాక	-10.7934
▁వహిస్త	-10.7934
▁వైసీపీ	-10.7939
▁రాజ్యాల	-10.7939
▁కథానాయక	-10.794
ుకొన్నాడు	-10.7944
▁ఒంటరి	-10.7946
▁1975	-10.795
▁గ్రంథము	-10.7952
tic	-10.7953
▁ఎవరూ	-10.7955
▁అనేకమంది	-10.796
▁చిట్ట	-10.7961
▁స్పష్టం	-10.7962
▁విస్తరించింది	-10.7963
▁స్వీయ	-10.7969
▁క్రిస్ట	-10.7974
▁గ్రాండ్	-10.7988
▁ఇప్ప	-10.7989
▁గుండ	-10.7997
బడుతోంది	-10.8
▁ఎరుపు	-10.8001
▁భర్తీ	-10.8007
str	-10.8007
▁ఛాంపియన్	-10.8008
▁పుట్టుక	-10.8012
red	-10.8018
ప్రియ	-10.8019
యత్న	-10.8038
▁సరస్వతి	-10.8039
▁మొదటిసారి	-10.8041
▁1977	-10.8046
▁కర్మాగార	-10.8047
ప్రభుత్వ	-10.8048
ba	-10.8049
▁ఇద్దరూ	-10.8055
▁అల్లాహ్	-10.8055
▁వహిస్తున్న	-10.8058
▁కచ్చితంగా	-10.8062
▁part	-10.8066
లేఖ	-10.8068
▁పసిఫిక్	-10.807
▁గ్రహించి	-10.8071
ఇతర	-10.8072
▁ఒంగోలు	-10.8078
low	-10.808
ral	-10.808
▁దోహద	-10.8081
▁సన్నివేశ	-10.8086
▁సిద్ధిపేట	-10.8086
▁లభిస్త	-10.8087
▁పదము	-10.8103
▁తెలియజేస	-10.8115
▁న్యాయమూర్తి	-10.8116
▁నదుల	-10.8132
▁హనుమ	-10.8132
▁article	-10.8133
▁ఫిలిప్	-10.8133
▁ఎత్తి	-10.8138
▁ఏమిటంటే	-10.8141
▁తెలుస్తోంది	-10.8141
షె	-10.8142
పరుచ	-10.8151
▁ఆయుధాల	-10.8157
▁గేమ్	-10.816
output	-10.8164
▁బెంగుళూరు	-10.8164
▁చిన్నతనం	-10.8168
▁ప్రయాణీకుల	-10.8173
▁పోర్చుగీసు	-10.818
▁బ్రిటీషు	-10.818
▁సరాసరి	-10.818
▁అత్యవసర	-10.8188
▁రంపచోడవరం	-10.8188
▁కల్యాణ	-10.8188
▁ఇల్లు	-10.8195
▁ఇబ్బంది	-10.8196
▁other	-10.8196
ail	-10.8196
యుండ	-10.8208
▁కావాలని	-10.8213
ేటట్లు	-10.8213
▁బ్రాడ్	-10.8215
▁భయపడ	-10.8216
▁మస్జిద్	-10.8219
▁మిక్కిలి	-10.822
▁కర్నూల్	-10.822
▁ఓట్లు	-10.8223
▁కాఫీ	-10.8229
▁అరుదుగా	-10.8235
▁into	-10.8236
wa	-10.8238
▁తెలిసింది	-10.8243
▁మందిరం	-10.8243
▁మెక్సికో	-10.8243
▁మార్గదర్శక	-10.8243
మరియు	-10.825
▁మత్స్య	-10.8251
▁పెరిగే	-10.8251
▁ఆవిష్కరించ	-10.8252
▁ఆవరణ	-10.8252
▁పునరుద్ధరించ	-10.8259
▁అవినీతి	-10.8259
▁పర్వ	-10.8261
▁నదులు	-10.8262
▁మచిలీపట్నం	-10.8267
▁సౌర	-10.8267
▁ఉద్దేశించి	-10.827
▁శ్రీరంగ	-10.8271
▁ఆల్బమ్	-10.8275
▁తీవ్రత	-10.8275
▁ఒడ్డున	-10.8277
ign	-10.8277
▁సోదరుడు	-10.8277
పోతు	-10.8283
కణాల	-10.829
▁బ్రెజిల్	-10.8299
▁సీఆర్	-10.8301
▁సంబంధాల	-10.8304
▁డిప్యూటీ	-10.8307
▁శతాబ్దపు	-10.8307
▁పోషించారు	-10.8313
ram	-10.8316
▁ద్వ	-10.8319
▁కరువు	-10.8329
▁ధరించిన	-10.8331
▁నిష్పత్తి	-10.8331
▁కదలిక	-10.8331
▁పదానికి	-10.8334
గ్రంథ	-10.8336
▁mw	-10.8337
▁ఎందరో	-10.8339
▁రాజకీయాల	-10.8341
▁పరికరం	-10.8345
▁హొ	-10.8345
▁చెప్పబడింది	-10.8348
భాగ్య	-10.8357
▁కలిగించే	-10.8361
▁మలేషియా	-10.8363
▁కూలి	-10.8364
▁ఇబ్బందులు	-10.8366
▁చేయగల	-10.8374
▁వ్యత్యాస	-10.8379
▁ఆలస్య	-10.838
▁ఉండేవాడు	-10.8385
▁ఎలక్ట్రానిక్	-10.8387
▁అయ్యారు	-10.839
▁వర్గీకరించ	-10.8397
▁పంపించ	-10.841
▁చర్చించ	-10.841
సమీప	-10.8411
parser	-10.8411
▁శాతవాహన	-10.8411
▁పురస్కారాన్ని	-10.8419
▁సింహాసన	-10.842
▁వివాదాల	-10.8421
▁ప్రవహిస్త	-10.8425
▁మరాఠీ	-10.8427
▁శృంగార	-10.8427
▁విద్యాభ్యాసం	-10.8428
▁అరుణ	-10.8439
▁స్వీకరించి	-10.8439
▁నిర్వహిస్తుంది	-10.844
▁1974	-10.8441
▁చొప్పున	-10.8444
▁శుక్ర	-10.8444
వైద్య	-10.8446
▁To	-10.8449
▁శారీరక	-10.8452
▁కడుపు	-10.8452
▁ఏర్పడుతుంది	-10.8454
▁వర్గీకరణ	-10.8455
800	-10.8459
▁హిందు	-10.8459
▁వ్యవహరిస్తారు	-10.8463
▁మిషన్	-10.8464
ఫోర్డ్	-10.8467
▁బొంబాయి	-10.8468
శెట్టి	-10.8476
mar	-10.8477
▁సత్కరించ	-10.8478
▁గై	-10.8478
▁సన్నిహిత	-10.8484
▁ఓడించ	-10.8486
ందన్నారు	-10.8492
కపోవడంతో	-10.8499
▁భూకంప	-10.8501
▁సైనికుల	-10.8503
పయోగ	-10.851
▁క్రీడాకారుల	-10.8513
▁will	-10.8519
▁కార్యక్రమాన్ని	-10.8519
కార్బను	-10.852
▁గ్లా	-10.8521
▁ధార్మిక	-10.8525
▁వ్యవసాయాధారిత	-10.8525
▁1955	-10.8527
▁ప్రపంచంలోనే	-10.8529
ింపజేస	-10.8534
▁గడ్డి	-10.8536
▁విధుల	-10.854
▁ప్రోగ్రామ్	-10.8541
•	-10.8541
▁we	-10.8543
కొట్ట	-10.855
▁జరుపుకుంటారు	-10.856
▁కుట్ర	-10.856
▁ఉపన్యాస	-10.8568
▁మరోవైపు	-10.8572
▁విభజ	-10.8574
▁జమీందార	-10.8574
పోర్ట్	-10.8584
సరికి	-10.8591
▁ఆపరేషన్	-10.8591
ధేయ	-10.8592
▁మునిగి	-10.8593
▁అంతస్తు	-10.861
బాహు	-10.8611
ందరికీ	-10.8612
▁పురావస్తు	-10.8615
▁ప్రశ్నించ	-10.863
▁లిమిటెడ్	-10.8632
▁ఎన్నికయ్యాడు	-10.8633
▁1946	-10.8634
▁బాధితుల	-10.8634
ఘోష	-10.8635
▁పయన	-10.8636
▁నంద్యాల	-10.8641
aj	-10.8642
▁1988	-10.8652
▁120	-10.866
▁చెల్లింపు	-10.8665
▁మక్కా	-10.8666
▁తరంగాల	-10.867
▁ఉస్మానియా	-10.8673
▁ముగ్గు	-10.8675
▁నిపుణులు	-10.8676
పీఠ	-10.8676
వాళ్లు	-10.8677
▁డీఏ	-10.868
▁సౌదీ	-10.868
▁ద్రాక్ష	-10.8681
ice	-10.8686
▁ఓవర్	-10.8688
▁you	-10.8694
▁జరప	-10.8696
mit	-10.8699
▁చారిత్రిక	-10.8706
▁సుల్తాను	-10.8714
▁తొలుత	-10.8715
▁బతుకమ్మ	-10.8723
▁బాధపడ	-10.874
▁వాడుతారు	-10.8748
▁థాయ్	-10.8748
▁ఆవిరి	-10.8752
▁దృఢ	-10.8756
గొట్టపు	-10.8758
▁భిన్నంగా	-10.8762
▁జాతర	-10.8772
పెద్ద	-10.8775
▁లైట్	-10.8777
▁ఫౌండేషన్	-10.8781
▁నీతి	-10.8781
ురాలిగా	-10.8782
▁విమర్శించ	-10.879
▁వాసన	-10.8794
▁చేయబడుతుంది	-10.8796
▁జార్జ్	-10.8798
▁ఆనకట్ట	-10.8798
▁ఏకీకృత	-10.8799
▁1964	-10.8807
▁మూలకం	-10.8808
▁టెలి	-10.881
▁సూత్రాల	-10.881
▁1978	-10.8813
▁లభించే	-10.8813
▁పర్యవేక్షణ	-10.8815
▁కవిత్వ	-10.8817
▁భీష్మ	-10.8819
భరిత	-10.8822
▁ఇస్లామీయ	-10.8825
▁ఇంద్రుడు	-10.8828
▁బాయిలరు	-10.8831
▁కావలి	-10.8835
▁తయారుచేయ	-10.8836
▁సింగిల్	-10.885
▁నేర్చుకున్న	-10.8855
ati	-10.8856
▁such	-10.8857
▁ముగించ	-10.886
▁హెడ్	-10.8862
▁వికీపీడియా	-10.8865
▁విముక్తి	-10.8865
సంఘ	-10.8869
సంస్థ	-10.8869
▁నియమిత	-10.8871
▁గలవాడు	-10.8871
▁దేశవ్యాప్తంగా	-10.8874
▁భీమవరం	-10.888
ుకోవటానికి	-10.8887
▁086	-10.889
▁2018	-10.8896
▁పూజించ	-10.8897
▁శివలింగ	-10.8898
▁ఇన్స్టిట్యూట్	-10.8907
క్రమణ	-10.8908
▁రీసెర్చ్	-10.8916
▁ప్రబల	-10.8922
▁కనపడ	-10.8928
▁క్షీణించ	-10.8931
▁గొంతు	-10.8934
▁పర్షియన్	-10.8934
▁ఖ్యాతి	-10.8935
▁బహుశా	-10.8942
▁రంగారావు	-10.8945
▁1979	-10.8945
▁జార్జి	-10.8947
▁శీర్షిక	-10.895
▁బృహ	-10.895
▁పురాతనమైన	-10.8961
au	-10.8963
స్తుంటాయి	-10.8969
▁కౌరవ	-10.8975
▁అభయ	-10.8979
▁సంక్షోభ	-10.8984
▁కౌంటీ	-10.8984
ఆంధ్ర	-10.8991
▁1965	-10.8997
▁వ్యాపించ	-10.8998
▁ఘర్షణ	-10.9001
శర్మ	-10.9002
▁రోజూ	-10.9005
ever	-10.901
▁రాముని	-10.9012
▁అపరాలు	-10.9012
డెంట్	-10.9014
▁అప్పుడే	-10.9016
▁నిలబెట్ట	-10.902
మృగ	-10.9026
▁రకరకాల	-10.9027
▁ఒకవేళ	-10.9027
▁అందుకున్న	-10.9029
▁సంస్కృతుల	-10.9029
▁గంగరాజు	-10.9033
▁తగినంత	-10.9035
▁gov	-10.9036
▁జేమ్స్	-10.9046
▁ఎక్స	-10.9049
▁డేవిడ్	-10.9053
▁రికార్డ్	-10.9053
ుకుంటాయి	-10.9054
col	-10.9057
▁సామంత	-10.9057
▁వెలిగ	-10.906
▁నాల్గవ	-10.9061
▁తాడేపల్లి	-10.9061
▁వెలువరించ	-10.907
▁చారిత్రాత్మక	-10.9078
▁గేయ	-10.9092
బొమ్మ	-10.9093
▁వివాదం	-10.9093
way	-10.9098
▁నారద	-10.9099
▁అడుగుపెట్ట	-10.9099
▁కలదు	-10.9104
▁దిగుమతి	-10.9104
▁అతిథి	-10.9109
cul	-10.9113
మునందు	-10.9114
▁ఇష్టపడ	-10.9115
▁సీపీ	-10.9119
▁నీళ్ల	-10.912
▁స్పందన	-10.9122
▁కొలత	-10.9125
▁నివాసగృహాలు	-10.913
▁సర్ప	-10.9133
▁భీష్ముడు	-10.9134
▁కరిగి	-10.9135
▁1987	-10.9136
▁ఫలితం	-10.9137
▁టిబెట్	-10.9149
▁ఆత్మకూరు	-10.9151
▁1945	-10.9152
▁సంకల్ప	-10.9154
▁చిత్రీకరణ	-10.9157
▁కేశవ	-10.9158
▁వేతన	-10.9164
▁స్టే	-10.917
▁ధ్వని	-10.9173
▁కాథలిక్	-10.9174
చేశాడు	-10.918
▁నియోజకవర్గ	-10.9188
సమయంలో	-10.9192
▁వస్తే	-10.9193
▁సంప్రదాయాల	-10.9194
▁ట్రాక్	-10.9197
tain	-10.9198
బస్తీ	-10.92
▁అధిపతి	-10.9202
ాబాదు	-10.921
▁ఎప్పుడ	-10.9211
▁పరుగుల	-10.9215
▁2019	-10.9216
▁ఆహ్వానించ	-10.9217
▁జన్మించింది	-10.9222
▁కాశ్మీర్	-10.9226
▁సన్మాన	-10.9229
▁1982	-10.9234
old	-10.9242
▁పడమర	-10.9243
▁డౌన్	-10.9244
▁చుక్క	-10.9254
▁ప్రతిపక్ష	-10.926
▁తొక్క	-10.9261
▁శ్రీశైల	-10.9261
▁ప్రకటించాడు	-10.9266
▁సాయుధ	-10.9267
▁1969	-10.9267
▁తమ్ముడు	-10.927
▁తెలియదు	-10.9282
▁పనితీరు	-10.9288
▁నిర్వచించ	-10.9289
▁నీళ్ళ	-10.9293
▁సివిల్	-10.9307
▁డిజైన్	-10.9314
▁గనుల	-10.9319
ఉపయోగిస్తున్నారు	-10.932
▁మూలకాల	-10.9322
ase	-10.933
▁గుర్రాల	-10.9331
▁తుఫాను	-10.9332
▁రాజస్థాన్	-10.9332
▁మోడల్	-10.9332
▁బంధువుల	-10.9335
mm	-10.9336
▁బంతి	-10.9338
▁నడిపించ	-10.934
▁సవరణ	-10.9341
▁ఆలోచించ	-10.9341
▁క్యాలెండర్	-10.9349
▁మైళ్ళ	-10.9353
▁వాద్య	-10.9357
▁గరిష్ఠ	-10.9358
▁చనిపోయిన	-10.9361
ినేని	-10.9361
▁టీడీపీ	-10.9367
▁ఫలితాలు	-10.9367
land	-10.9367
▁ఇవన్నీ	-10.9367
row	-10.9372
శంకర	-10.9379
▁నడిచే	-10.9384
▁మ్యూజిక్	-10.9385
▁రాబర్ట్	-10.9385
▁అయిదు	-10.9387
▁పరిరక్షణ	-10.9394
హైదరాబాద్	-10.9398
▁మంగళగిరి	-10.9405
▁పిలిచేవారు	-10.9406
▁నిన్ను	-10.941
దేవుని	-10.9411
▁వాషింగ్టన్	-10.9412
▁గణనీయంగా	-10.9412
▁విక్టోరియా	-10.9412
▁మహారాజా	-10.9412
▁ఆధిక్యత	-10.9421
▁అలవాటు	-10.9421
▁వ్యతిరేకించ	-10.9427
▁రాశాడు	-10.943
▁పెట్టె	-10.9432
▁అసంతృప్త	-10.9447
▁used	-10.9449
▁నిరోధించ	-10.9457
▁వెచ్చ	-10.9474
▁బ్రె	-10.9474
▁కాయగూరలు	-10.9474
పీడన	-10.9475
▁ఇంకొక	-10.9482
▁సోషల్	-10.9483
ult	-10.9486
▁పొలాల	-10.9487
▁పర్యటించ	-10.9492
▁విడిచిపెట్ట	-10.9494
▁టీవీ	-10.95
▁వివాదాస్పద	-10.9501
▁ఇవ్వబడింది	-10.9505
▁కమ్యూనిటీ	-10.951
▁ప్రత్య	-10.9512
▁స్వచ్ఛంద	-10.9519
▁He	-10.9528
చెప్ప	-10.9528
▁విలియం	-10.9529
▁ఉంటున్న	-10.9534
▁కృత్రిమ	-10.9537
▁రద్దీ	-10.9537
india	-10.9538
▁1957	-10.9551
▁కలుగుతుంది	-10.9552
▁శ్రీకృష్ణుడు	-10.9561
▁దర్యాప్తు	-10.9564
▁యేసు	-10.9573
▁క్రియాశీల	-10.9573
▁కచ్చితమైన	-10.9573
▁రంగాలలో	-10.9574
▁సజ్జ	-10.9576
▁చీఫ్	-10.9577
▁వాదించ	-10.9581
▁ఇంజనీర్	-10.9583
▁కాలిఫోర్నియా	-10.9583
▁సురక్షిత	-10.9583
▁సికింద్రాబాద్	-10.9601
▁ప్రచురిత	-10.9602
▁ఇనుము	-10.9612
విధానం	-10.9612
▁ఇద్దరి	-10.9619
▁ఉక్కు	-10.9622
▁రెట్లు	-10.9625
▁శాంత	-10.9629
▁పక్షి	-10.9631
▁కరుణ	-10.9631
▁కమలా	-10.9637
▁బడ్జెట్	-10.9637
▁చౌదరి	-10.9637
▁‘‘	-10.9647
▁ఇంజన్	-10.9653
▁ఖురాన్	-10.9655
▁వెంకటగిరి	-10.9657
▁were	-10.9658
▁చిహ్నాల	-10.9659
బడలేదు	-10.9661
▁స్వాతి	-10.9663
▁ద్రవ్యరాశి	-10.9665
▁నిర్వహించెదరు	-10.9668
▁చీకటి	-10.9674
▁సంగమ	-10.9676
▁క్రైస్తవులు	-10.9677
▁సెలవు	-10.9677
▁వేంకటేశ్వర	-10.9677
▁కనుగొన్నారు	-10.9679
పితామహ	-10.9681
▁అఖిల	-10.9683
▁నియోజకవర్గాల	-10.9692
▁ఐదవ	-10.9693
▁జనగామ	-10.9693
▁మాంసం	-10.9698
▁వ్రాత	-10.9711
▁పరమేశ్వర	-10.9713
ావధాన	-10.9716
శాతం	-10.9719
ప్రధాన	-10.9732
▁భాస్కర	-10.9736
▁జోడించ	-10.9736
▁నిర్దేశ	-10.9736
▁అగ్రహారం	-10.9739
▁శత్రు	-10.9748
▁టవర్	-10.975
▁అంతరించి	-10.9752
▁సత్యాగ్రహ	-10.9756
ిద్దరూ	-10.9759
▁మేయర్	-10.9765
▁క్లోరైడ్	-10.9766
▁స్తంభాల	-10.9766
▁ఏర్పడును	-10.9772
▁ఆవిర్భవించ	-10.9775
▁వెల్డింగు	-10.9775
▁It	-10.9777
▁1954	-10.9782
▁పండితుల	-10.9784
▁పవన్	-10.9788
▁సంజీవ	-10.9793
▁నెమ్మదిగా	-10.9793
▁1986	-10.9799
▁యాంత్రిక	-10.9812
▁విస్తర	-10.9813
▁నిర్మించబడిన	-10.9815
▁నెదర్లాండ్స్	-10.9821
▁అభిషేక	-10.9821
▁ఉత్తీర్ణ	-10.984
▁ఎదుట	-10.9843
▁1966	-10.9847
▁ఆఫ్ఘనిస్తాన్	-10.9849
▁కాలేజి	-10.9849
▁భ్రమ	-10.9851
▁గుడ్డ	-10.9857
▁స్ట్రీట్	-10.9858
▁తగిలి	-10.9859
▁UK	-10.986
▁అట్లాంటిక్	-10.9868
మెయిల్	-10.9877
▁అభిమానుల	-10.9882
▁ఆకారంలో	-10.9883
▁స్తోత్ర	-10.9887
▁ప్రతాప	-10.9901
మేనేజ్మెంట్	-10.9905
▁తేనె	-10.9918
▁యువకుల	-10.9919
▁సహాయపడ	-10.9921
▁డ్రైవర్	-10.9924
▁అరుదైన	-10.9924
▁విస్తారమైన	-10.9928
BS	-10.9931
rt	-10.9941
▁నటుల	-10.9946
line	-10.9947
ావతార	-10.9948
▁సాంప్రదాయిక	-10.9951
▁నియంత్ర	-10.9952
▁మారుతుంది	-10.9954
పరిచే	-10.9955
ful	-10.9957
▁రావట్లేదు	-10.9962
ఖ్యాత	-10.9966
▁సంగారెడ్డిలోను	-10.9973
▁బ్రాండ్	-10.9977
▁నడప	-10.9981
▁1953	-10.9982
▁కట్టడాల	-10.9983
▁తెలియజేస్తు	-10.9984
right	-10.9993
▁విస్తారంగా	-10.9993
▁person	-10.9999
▁అక్కినేని	-11
మయ్యింది	-11.0008
▁నియామక	-11.0009
▁నిర్మిత	-11.001
▁పోలాండ్	-11.0011
▁Al	-11.0013
▁తీర్చిదిద్ద	-11.0018
▁ప్రదేశము	-11.002
▁ఆరంభించ	-11.0035
ుణ్ణి	-11.0036
▁పలికి	-11.0045
ారాధన	-11.0047
▁జయంతి	-11.0049
▁తోడ్పడ	-11.0052
▁తెలుసుకో	-11.0054
▁గుంపు	-11.0056
▁శతాబ్దము	-11.0056
▁కాకతీయుల	-11.006
వినియోగ	-11.0061
▁నిర్ధారణ	-11.0068
▁నౌకాశ్రయ	-11.0075
▁పనిచేసారు	-11.0087
ోన్నత	-11.009
▁చేసుకోవడం	-11.0092
▁నారాయణపేట	-11.0094
▁నరసరావుపేట	-11.0094
విషయ	-11.0101
▁1973	-11.0109
▁ఎద్దు	-11.011
▁అందుకున్నాడు	-11.011
▁పంజాబీ	-11.0123
▁శైల	-11.0125
▁ఇటాలియన్	-11.0133
▁చుండ	-11.0149
▁సంక్షిప్త	-11.0152
▁కెరీర్	-11.0152
▁అక్షాంశ	-11.0152
▁1981	-11.0158
▁ప్రమాదకర	-11.0161
▁అయస్కాంత	-11.0161
▁నగదు	-11.0162
▁ఘోర	-11.0163
యోగ్య	-11.017
▁వాయువ్య	-11.0171
▁1942	-11.018
▁ఊరేగింపు	-11.019
▁సమన్వయ	-11.019
▁జారీచేసింది	-11.0191
▁నేపాల్	-11.02
హైడ్ర	-11.02
సంవత్సర	-11.0205
▁వ్రాశాడు	-11.021
▁చూచి	-11.0218
▁వహిస్తుంది	-11.022
▁పరీక్షించ	-11.0221
శతాబ్ద	-11.0227
▁పర్యాయ	-11.0239
▁1951	-11.0242
▁అనుసంధాన	-11.0247
▁వేరొక	-11.0248
▁క్యూబా	-11.0249
▁ప్రయాణికుల	-11.0252
▁బంధించ	-11.0256
▁వత్తిడి	-11.0258
▁అనుగ్రహ	-11.0258
▁ఆకలి	-11.0264
▁సంభవించిన	-11.027
▁పిలవబడే	-11.0278
▁మురుగు	-11.0279
▁కావాలి	-11.0287
▁స్వీడన్	-11.0287
▁శుక్ల	-11.0287
▁మునుపటి	-11.0297
▁మహాసభ	-11.0302
▁మినహా	-11.0306
▁ఆశ్రయ	-11.0308
అద్దంకి	-11.031
▁పుచ్చ	-11.0317
▁స్థాపించబడిన	-11.0318
▁ప్రేమించ	-11.0328
AT	-11.0331
▁కలిగివున్న	-11.0333
▁మెట్రో	-11.0334
▁శ్వేత	-11.0336
▁నుంచీ	-11.0336
▁నూజివీడు	-11.0346
▁వెనక్కి	-11.0346
▁ఏర్పాట్లు	-11.0346
▁దసరా	-11.0346
▁వ్యాకరణ	-11.0349
▁పాల్పడ	-11.0354
▁పార్లమెంట్	-11.0355
▁దహన	-11.0359
▁ముగిసిన	-11.0365
▁దుకాణ	-11.0371
కుటుంబ	-11.0374
AP	-11.0375
ough	-11.0375
శ్యామ	-11.0378
▁తీవ్రవాద	-11.038
గలుగుత	-11.0383
▁నామకరణం	-11.0385
▁ప్రగతి	-11.0388
▁నిఘంటువు	-11.0395
▁వ్రాశారు	-11.0395
పరిచారు	-11.0395
▁కొలంబియా	-11.0405
▁విరివిగా	-11.0405
▁గౌరవించ	-11.0405
▁డ్రైనేజీ	-11.0414
▁ఇంగ్లాండు	-11.0424
▁మహమ్మద్	-11.0424
census	-11.0424
▁గొర్రె	-11.0424
▁మరణశిక్ష	-11.0434
ించువాడు	-11.0438
▁కూచిపూడి	-11.0444
▁రామానుజ	-11.0444
▁సంచిక	-11.0445
▁టాటా	-11.0447
▁కొనసాగుతున్న	-11.0449
▁లక్నో	-11.0454
▁వుంచ	-11.0458
▁సభ్యునిగా	-11.0459
,00,000	-11.0461
▁trans	-11.0464
▁వెయ్యి	-11.0465
ాయుధ	-11.0476
▁పరిణామాల	-11.0493
శాస్త్రజ్ఞుల	-11.0494
▁త్రిపుర	-11.0503
▁ఉపయోగపడుతుంది	-11.0509
▁కీర్తనల	-11.0514
▁ఎన్నికయ్యారు	-11.0516
▁జబ్బు	-11.0516
▁aspx	-11.0523
▁దేవస్థానం	-11.0525
▁జవహర్	-11.0533
▁చైనీయుల	-11.0534
▁నెట్వర్క్	-11.0543
ుతుండగా	-11.0551
▁విశ్వామిత్ర	-11.0553
▁ఖైదు	-11.0553
▁చలికాలం	-11.0557
▁సింగపూర్	-11.0559
▁may	-11.0564
▁బేరియం	-11.0573
▁పంతులు	-11.0574
▁చరిత్రకారులు	-11.0577
▁వంటకాల	-11.0583
▁గన్నవరం	-11.0583
▁అవధాన	-11.0586
▁ఎన్నికైన	-11.0597
▁హెచ్చరించ	-11.0604
▁నార్త్	-11.0608
▁సరుకు	-11.0612
ఉత్తర	-11.0631
▁పిటిషన్	-11.0634
▁మైసూర్	-11.0644
▁మోతాదు	-11.0654
▁క్షీర	-11.0657
▁నరేంద్ర	-11.0658
గుర్తించబడుతుంది	-11.066
▁హెక్టార్ల	-11.0665
▁హిమాలయ	-11.0666
▁ప్రాంగణంలో	-11.067
▁మెరుగైన	-11.0674
▁తైవాన్	-11.0675
▁అద్దె	-11.0684
▁ఇంగ్లండ్	-11.0684
▁ప్రకట	-11.0686
▁ఆక్సిజన్	-11.0694
▁విలక్షణ	-11.0695
▁సదాశివ	-11.0704
▁సరిగ్గా	-11.0705
▁స్టేడియం	-11.0705
లక్ష్మీ	-11.0708
▁మౌర్య	-11.0708
▁నివసి	-11.0711
▁శ్రామిక	-11.0715
▁అనుసంధానించ	-11.072
ిద్దరి	-11.0722
మంతటా	-11.0723
▁రీతిలో	-11.0725
శాంతి	-11.073
▁మంత్రివర్గ	-11.0735
▁ఫీల్డ్	-11.0737
కాలిక	-11.0741
▁ఖలీఫా	-11.0745
▁హనుమంతుడు	-11.0745
▁వుడ్	-11.0752
▁కుదుర్చ	-11.0755
▁ప్లాస్టిక్	-11.0755
▁బుద్ధుని	-11.076
శ్రుత	-11.0762
▁బీఆర్ఎస్	-11.0765
▁టాక్సీ	-11.0766
గోపాల	-11.0768
ook	-11.0778
▁ప్రదానం	-11.0779
▁విశ్రాంతి	-11.0786
▁నిలుప	-11.0794
▁చిరంజీవి	-11.0796
▁సిరిసిల్ల	-11.0796
▁గ్రహీత	-11.0796
▁నిరుద్యోగ	-11.0806
ఉండ	-11.0815
▁హైడ్రోజన్	-11.0818
▁ప్రతికూల	-11.0827
ొద్దు	-11.0836
Population	-11.0837
శైలి	-11.0843
Districts	-11.0847
▁శతాబ్ధ	-11.0847
▁పన్నెండు	-11.0848
ోత్పత్తి	-11.0848
సాగాడు	-11.0855
▁know	-11.0858
▁సంక్లిష్ట	-11.0858
▁సందర్భాల్లో	-11.0874
ాభిమాన	-11.0875
▁లొంగ	-11.0878
Master	-11.0879
▁ఆకుపచ్చ	-11.0889
▁అవుట్	-11.0892
▁సర్వీస్	-11.0899
▁బోర్డ్	-11.0899
▁సంగతి	-11.09
▁ఆరాధన	-11.091
▁స్తుత	-11.0925
▁చార్లెస్	-11.0931
▁సంప్రదించ	-11.0941
▁ఫిన్లాండ్	-11.0951
▁బయటపడ	-11.0956
▁బదులు	-11.0959
clusion	-11.0961
▁వదుల	-11.0967
▁ముత్యాల	-11.0968
వతేదీ	-11.0985
జులై	-11.1
▁సిరియస్	-11.1003
ారంభ	-11.1006
▁ఐక్యరాజ్యసమితి	-11.1014
ja	-11.1017
కిరణాల	-11.1022
సూత్ర	-11.1023
▁పునరుద్ధరణ	-11.1024
▁టెస్టు	-11.1029
▁అంతరకృషి	-11.1035
▁చంద్రగుప్త	-11.1035
▁but	-11.1049
▁చదివాడు	-11.1056
▁వేటాడ	-11.1056
Find	-11.1059
▁జరిమానా	-11.1066
▁దశకంలో	-11.1067
▁అలంకార	-11.1067
▁ప్రసాదించ	-11.107
కుప్పం	-11.1072
▁విలాస	-11.1086
▁ముగిసింది	-11.1087
వర్ధన	-11.1088
=28	-11.1091
▁చదివే	-11.1094
▁బాలబడులు	-11.1098
▁భగవంతుని	-11.1108
▁పౌరాణిక	-11.1108
▁పథకాల	-11.1109
▁జ్వర	-11.1117
▁అసిస్టెంట్	-11.1119
▁కపిల	-11.1121
▁విరాట	-11.113
స్తారని	-11.1133
▁కృష్ణమూర్తి	-11.1139
wiki	-11.114
▁అధికరించ	-11.1155
▁కొలువు	-11.1157
▁ఏడవ	-11.1161
▁ఏదేమైనా	-11.1161
▁1,2	-11.1164
▁ఆభరణాల	-11.117
▁ప్రతిష్ఠించ	-11.1181
1,000	-11.1189
▁నర్సీపట్నం	-11.1193
▁నన్నయ	-11.1194
▁అపార	-11.12
▁కార్యాచరణ	-11.1204
▁హెన్రీ	-11.1204
▁స్పేస్	-11.1215
▁నిదర్శన	-11.1215
▁తిరుగుతూ	-11.1227
▁పాండవ	-11.1233
▁సమేత	-11.1241
▁అనుచరుల	-11.125
▁సంపర్క	-11.1251
▁కార్తె	-11.1256
▁అందజేశారు	-11.1257
▁డివిజను	-11.1257
▁రమేష్	-11.1257
▁అమరిక	-11.1266
▁ఉంటుంద	-11.1277
▁కాల్పుల	-11.1278
▁పోర్చుగల్	-11.1279
▁స్కోరు	-11.128
ేంద్రియ	-11.1281
▁లవణ	-11.1283
▁జన్మించ	-11.1289
▁సార్వత్రిక	-11.1289
▁పంచాయితీ	-11.1289
▁చదువుకున్న	-11.1304
▁తనిఖీ	-11.1311
▁పంచాంగం	-11.1311
▁గాయకుడు	-11.132
ప్రజల	-11.1324
▁సదుపాయాల	-11.1325
▁వెదురు	-11.1328
▁భరించ	-11.1332
▁ఇనుప	-11.1338
▁ఇటుకల	-11.1344
▁లార్డ్	-11.1346
ోత్తమ	-11.1351
▁సమైక్య	-11.1354
▁గుమ్మడి	-11.1354
▁time	-11.1354
▁నిపుణ	-11.1361
▁గులాబీ	-11.1365
▁కచేరీ	-11.1365
▁మనుగడ	-11.1365
▁త్రవ్వకాల	-11.1369
▁గవర్నరు	-11.1376
▁మరుగుదొడ్ల	-11.1376
▁త్రవ్వ	-11.138
▁ధ్వంసం	-11.1387
▁బ్రౌన్	-11.1387
▁గుర్రం	-11.1387
▁విరుద్ధంగా	-11.1398
▁ఏర్పడతాయి	-11.1403
చేసారు	-11.1413
▁ప్రాప్తి	-11.1415
▁పొటాషియం	-11.1419
మంత్ర	-11.142
▁ముట్టడి	-11.1426
మోహన	-11.1427
lect	-11.1431
▁స్పష్టమైన	-11.1464
▁సుగ్రీవ	-11.1474
▁అంతిమ	-11.1475
▁ఏర్పడ్డాయి	-11.1479
▁మిత్రుల	-11.1479
శిల్ప	-11.1481
▁శివాజీ	-11.1485
ిస్తామని	-11.1495
▁నిపుణుల	-11.1508
▁తదనంతర	-11.1518
▁రిజిస్ట్రేషన్	-11.1518
▁Wiktionary	-11.1518
▁ఇస్లామిక్	-11.1518
▁విద్యుద	-11.1526
ెుక్క	-11.1541
▁name	-11.1545
▁స్కూలు	-11.1551
▁తీసుకెళ్ల	-11.1562
▁పటేల్	-11.1562
▁ప్రాంగణ	-11.1567
▁థామస్	-11.1573
TT	-11.1576
▁నటుడిగా	-11.1577
▁వదిలే	-11.1579
▁తీసుకోవడం	-11.158
▁నందిగామ	-11.1585
▁తేల్చ	-11.1588
▁చైనీస్	-11.1595
▁మొగ్గ	-11.16
▁టోర్నమెంట్	-11.1606
▁ప్రవర్తించ	-11.1606
▁హిట్లర్	-11.1619
వైశాల్య	-11.1628
▁ఉపనిషత్తు	-11.1629
మైలవరం	-11.1633
పోతూ	-11.1636
ava	-11.1639
▁యూరోప్	-11.164
▁సిస్టమ్	-11.164
▁బంగార	-11.1643
▁ప్రెసిడెంట్	-11.1651
▁చాళుక్యుల	-11.1651
===	-11.1651
▁మోటార్	-11.1657
▁గమ్య	-11.1658
▁ఏటియం	-11.1673
▁సమర్ప	-11.1679
▁మేనేజర్	-11.1684
▁వాయిదా	-11.1685
▁జెండా	-11.1697
▁పునాది	-11.1699
text	-11.17
▁మినహాయింపు	-11.1707
▁ప్రిన్స్	-11.1712
▁ఎగుమతుల	-11.1718
▁హెల్త్	-11.1718
▁అనబడే	-11.1725
▁దాల్చ	-11.1739
▁ఆదిలాబాదు	-11.1741
▁సరికొత్త	-11.1741
▁రూపాంతరం	-11.1741
▁సందర్శకుల	-11.1741
▁గోల్కొండ	-11.1745
▁దొరుకు	-11.1745
▁గాంధార	-11.1752
▁బానిసత్వ	-11.1763
▁రాజీవ్	-11.1763
▁తీసుకోవాలని	-11.1764
▁కనీస	-11.1767
▁అభివర్ణించ	-11.1775
చిహ్న	-11.1797
TV	-11.1799
▁డైరెక్ట	-11.1802
▁ఆవశ్యక	-11.1808
▁ప్రొడక్షన్	-11.1808
ుకొను	-11.1825
▁రూపుదిద్ద	-11.1831
▁కర్నాటక	-11.1842
▁పొద్దుతిరుగుడు	-11.1842
▁శతాబ్దానికి	-11.1843
▁షేర్	-11.1845
▁పార్వతి	-11.1856
కలిగి	-11.1857
▁అర్జునుడి	-11.1859
▁చోటుచేసుకు	-11.1859
▁బౌద్ధమత	-11.1859
ism	-11.1867
▁టైమ్స్	-11.188
▁గర్భాశయ	-11.1888
▁సంహరించ	-11.189
▁విడుదలైంది	-11.1893
▁ఛైర్మన్	-11.1899
▁వివాహమాడ	-11.1901
▁కేవలము	-11.1911
ాదిత్య	-11.1919
▁సామూహిక	-11.1922
▁జవాబు	-11.1922
▁హార్మోన	-11.1925
▁నైతిక	-11.1925
▁వారసుల	-11.1931
▁నిరాశ	-11.1932
▁హయాంలో	-11.1946
▁ఆంగ్లేయుల	-11.1957
కొరకు	-11.1958
▁రౌండ్	-11.1962
▁ధోరణి	-11.1968
▁గడప	-11.1981
▁ఆడపిల్ల	-11.1982
▁వెలుగులోకి	-11.1984
▁థియ	-11.1995
▁లోతైన	-11.2004
▁బలగాల	-11.2005
▁మార్కాపురం	-11.2015
▁ట్రేడ్	-11.2026
▁ఇబ్రహీంపట్నం	-11.2026
▁స్థానము	-11.2037
▁ఆమదాలవలస	-11.2038
▁పెంపొందించ	-11.2049
▁అవలంబించ	-11.2049
▁మృదు	-11.2049
▁రాజ్యసభ	-11.2051
▁సరస్వతీ	-11.2061
▁ఫొటో	-11.2063
▁అలంకరణ	-11.2072
ాశ్రమ	-11.2073
▁పునర్నిర్మాణ	-11.2073
▁తీసుకువచ్చి	-11.2079
ix	-11.2084
▁టెన్నిస్	-11.2084
▁మనుమ	-11.209
▁కెప్టెన్	-11.2096
▁భద్రపరచ	-11.2098
▁శ్రీనివాసరావు	-11.21
▁అయోధ్య	-11.2108
▁అదేవిధంగా	-11.2111
▁ఘాట్	-11.2113
▁దోహదపడ	-11.2115
▁ఢీ	-11.212
▁ఉత్తర్వు	-11.2123
▁వ్యవధి	-11.2131
▁కుతుబ్	-11.2131
▁కర్బన	-11.2133
▁వెర్షన్	-11.2143
▁ఆకాశవాణి	-11.2143
▁అతుక	-11.2157
▁వీరభద్ర	-11.2157
▁యాత్రికుల	-11.2159
▁ఫెస్టివల్	-11.2166
▁సుప్రీంకోర్టు	-11.2166
▁స్క్రీన్	-11.2166
▁అడుగ	-11.2187
▁బీహార్	-11.219
▁బీడీలు	-11.219
▁ప్యాలెస్	-11.2191
▁తలుపు	-11.2194
▁పక్షం	-11.2195
▁చూస్తున్న	-11.22
▁హుస్సేన్	-11.2213
▁అహింస	-11.2213
▁హనుమాన్	-11.2213
▁బసవ	-11.2214
ెన్నో	-11.2216
▁సల్ఫ	-11.2218
▁మనోహర	-11.2222
▁బూడిద	-11.2225
▁మహిమ	-11.2235
▁ఫ్రాన్సిస్	-11.2237
▁సెక్రటరీ	-11.2237
▁వన్డే	-11.2237
▁అందజేస	-11.224
▁లభిస్తున్న	-11.2242
▁వెంకటేశ్వరరావు	-11.2256
▁చురుకుగా	-11.226
▁ప్రిన్సిపాల్	-11.226
సాహెబ్	-11.226
▁మరియూ	-11.2266
▁వైదిక	-11.2282
▁అంబేద్కర్	-11.2284
▁రామగుండం	-11.2284
▁నార్కట్	-11.2296
▁విత్తుట	-11.2297
▁సలహాదారు	-11.2299
▁మధ్యయుగ	-11.2299
తరువాత	-11.23
▁నవీన	-11.2313
▁ధారావాహిక	-11.232
▁బిజినెస్	-11.232
▁ఇంజిన్	-11.232
▁వానర	-11.2328
▁నిశ్చయించ	-11.2332
▁సంక్రాంతి	-11.2344
▁మాధ్యమం	-11.2344
▁ఆర్మేనియన్	-11.2356
▁స్థావరం	-11.2356
▁పదవుల	-11.2359
▁అధీనంలో	-11.2368
▁స్థూప	-11.2368
▁నిలిచారు	-11.2368
▁సాత్యకి	-11.2368
▁గొడవ	-11.2369
▁కళాకారుడ	-11.2372
▁పతకాల	-11.2386
▁ఫెడరల్	-11.2404
▁రాయబార	-11.2408
▁some	-11.2409
2,000	-11.2411
▁లెక్కించ	-11.2418
▁సొమ్ము	-11.2419
▁పిఠాపురం	-11.2428
▁పరాజయం	-11.2428
▁గార్డెన్	-11.2429
▁శల్య	-11.2432
▁గ్రామపంచాయతి	-11.244
▁కామర్సు	-11.244
▁పట్టించుకో	-11.2442
▁నడవ	-11.2468
ేషను	-11.2472
▁సుగంధ	-11.2476
ific	-11.249
▁గిరిజనుల	-11.2493
▁పనిచేసాడు	-11.25
▁తిక్కన	-11.2501
▁కండరాల	-11.2503
▁పీడనం	-11.2506
మవుతున్న	-11.251
▁పట్టభద్ర	-11.2516
▁సుప్రీం	-11.2525
▁తరుణ	-11.2533
▁చుట్టుపక్కల	-11.2537
▁జగ్గయ్యపేట	-11.2537
▁ఒకటైన	-11.2539
▁పంజాబు	-11.2549
▁సన్నిధి	-11.255
▁శీతల	-11.2561
▁మిర్యాలగూడ	-11.2573
▁సుదూర	-11.2573
▁తాండూరు	-11.2573
▁ఆల్బం	-11.2586
▁బిగించ	-11.2587
▁స్థిరపడ్డారు	-11.259
▁ఎలక్ట్రాన్	-11.2598
▁డెవలప్	-11.2598
▁ప్రీమియర్	-11.2598
▁రిచర్డ్	-11.2598
▁పేదరికం	-11.2598
▁రెవిన్యూ	-11.261
మవుతాయి	-11.2622
▁పీపుల్స్	-11.2622
▁గొలుసు	-11.2623
▁విషాద	-11.2625
▁తీరప్రాంత	-11.2628
▁షెడ్యూల్	-11.263
▁దోపిడీ	-11.2647
▁శ్రీకాళహస్తి	-11.2647
▁హాస్పిటల్	-11.2647
▁ఖైదీ	-11.2647
▁ఇంద్రియ	-11.2648
▁విశ్వసించ	-11.2655
▁మొట్టమొదట	-11.2657
▁ఇతిహాస	-11.2659
▁శ్రేణుల	-11.2659
▁స్థాపక	-11.2659
▁వెంబడి	-11.2664
▁పీల్చ	-11.267
▁అవకాశము	-11.2672
▁నిజామాబాదు	-11.2672
▁తలసరి	-11.2672
▁రుక్మ	-11.2675
▁పెదబయలు	-11.2684
▁రిజర్వేషన్	-11.2684
▁నరసింహారావు	-11.2686
▁కానోపస్	-11.2696
count	-11.2709
▁మండపం	-11.2716
▁క్లిష్టమైన	-11.2721
▁పరమాత్మ	-11.2738
▁నైరుతి	-11.2746
▁మొత్తాన్ని	-11.2746
▁పిమ్మట	-11.2747
▁జ్యోతిష	-11.2753
▁చెరుకు	-11.2755
▁దక్షణాన	-11.2759
▁పరిపూర్ణ	-11.2759
ప్రకాష్	-11.2764
▁1,0	-11.2765
▁దారుణ	-11.2774
▁కళింగ	-11.281
▁గనుక	-11.2815
▁హర్ష	-11.2827
▁దర్శకుడిగా	-11.2834
▁దౌత్య	-11.2834
▁ఆరాధించ	-11.2834
▁నిలిచాడు	-11.2846
▁ఎలక్ట్రో	-11.2859
;---	-11.2871
కలాప	-11.2882
▁ఇన్నింగ్స్	-11.2884
▁గడువు	-11.2884
▁హాజరై	-11.2895
అవనిగడ్డ	-11.2898
▁జోక్యం	-11.2909
▁క్రిస్టియన్	-11.2911
▁బహిష్కరించ	-11.2922
నగర్లోనూ	-11.2928
▁భద్రాద్రి	-11.2935
▁దినపత్రిక	-11.2936
▁బాధపడుతున్న	-11.2946
ఫికేషన్	-11.2947
అమరావతి	-11.2948
తెలుగు	-11.2948
మహాత్మ	-11.2951
▁1,1	-11.2955
▁ఆర్టీసీ	-11.296
▁ఉత్తేజ	-11.296
▁తెలిపిన	-11.2962
▁యాంటీ	-11.2973
▁సార్వభౌమ	-11.2985
▁వైమానిక	-11.2986
▁use	-11.2988
▁వేషం	-11.2992
మౌతుంది	-11.2996
▁గూగుల్	-11.2998
▁సంచలన	-11.2998
▁వ్యాయామ	-11.2998
▁సేవలందించ	-11.2999
ప్రసాద	-11.301
▁బాలీవుడ్	-11.3024
▁బెజవాడ	-11.3024
▁పరంపర	-11.3025
▁అశ్వత్థామ	-11.3037
▁మునగ	-11.3037
▁భగవంతుడ	-11.3049
▁నిర్మూలన	-11.3049
▁ప్రాబల్య	-11.3049
▁మృత్యు	-11.305
▁1,5	-11.3052
▁జమ్మూ	-11.3062
ావసరాల	-11.307
▁విచారించ	-11.307
ward	-11.3072
▁ఏకాదశి	-11.3075
▁అంగీకార	-11.3075
▁నాణేల	-11.3075
▁యజమానుల	-11.3088
▁నివేదించ	-11.3091
▁ప్రచుర	-11.3093
▁ద్రౌపది	-11.3101
▁ధృవ	-11.3106
▁బొబ్బిలి	-11.3114
▁తెరిచి	-11.3118
▁మేడ్చల్	-11.3127
▁వార్షికోత్సవ	-11.313
▁ప్రార్థించ	-11.313
▁కనిపిస్తున్న	-11.3136
▁బహదూర్	-11.314
▁స్పియర్	-11.314
▁మధ్యప్రదేశ్	-11.314
▁సమక్షంలో	-11.314
వ్యవసాయ	-11.3143
సాహిత్య	-11.3143
▁గరుడ	-11.3151
▁ద్రవీభవన	-11.3153
▁చక్కటి	-11.3153
▁పరిశీలిస్త	-11.3156
▁ఆశ్రయించ	-11.3156
ోపాధ్యాయ	-11.3166
▁ఉభయ	-11.3166
▁నిర్దేశించ	-11.3172
▁చాళుక్య	-11.3178
▁స్విట్జర్లాండ్	-11.3178
▁వైఖరి	-11.3179
▁కమ్యూన	-11.3179
▁చెబుతుంది	-11.318
ావస్థ	-11.3182
▁ఆదరించ	-11.3185
▁పాత్రికేయ	-11.3191
▁ప్రదేశాన్ని	-11.3192
▁శ్లోకాల	-11.3193
▁పాఠకుల	-11.3205
▁This	-11.3218
▁గెలుచుకుంది	-11.3218
▁ఐఐటీ	-11.3218
▁అమలాపురం	-11.3218
▁అవకాశాల	-11.3221
▁కూల్చ	-11.3228
▁మద్రాస్	-11.3231
▁సాపేక్ష	-11.3231
▁సిద్దాంత	-11.3232
▁వాయిస్	-11.3239
▁ఉపకరణాల	-11.3261
▁నీటిపారుదల	-11.327
▁వాల్మీకి	-11.327
▁మనస్తత్వ	-11.327
▁విద్యాసంస్థల	-11.3273
▁షూటింగ్	-11.3283
▁వివక్ష	-11.3286
▁బహిర్గత	-11.3296
▁మర్యాద	-11.3296
▁పతకం	-11.3298
▁ఇబ్బందుల	-11.3305
▁ఋగ్వేద	-11.3309
▁స్థావరాల	-11.3309
▁విస్తీర్ణము	-11.3309
round	-11.3322
▁గీస	-11.3328
▁విజ్ఞప్తి	-11.3349
▁ఉత్పన్న	-11.3349
▁క్వీన్	-11.3349
▁ఉంటాయని	-11.3362
▁ఫార్ములా	-11.3362
▁ఎంతగానో	-11.3375
ార్జున	-11.3377
▁శిల్పకళ	-11.338
ాగ్ని	-11.3385
▁హరిశ్చంద్ర	-11.3389
▁వైఫల్య	-11.3389
▁ఇస్రో	-11.339
పబ్లిక్	-11.3394
▁ఇస్లామ	-11.34
▁సంఘర్షణ	-11.3402
▁ముంబాయి	-11.3402
▁కవచ	-11.3408
▁కవరేజి	-11.3415
▁లఘు	-11.3416
▁చిలుక	-11.3421
▁కమ్యూనిస్ట్	-11.3429
▁విధ్వంస	-11.3429
▁లూయిస్	-11.3429
▁నోటీసు	-11.3429
▁మార్టిన్	-11.3429
▁పిలిచి	-11.343
▁ఖడ్గ	-11.3446
వాయువు	-11.3465
▁అక్బర్	-11.3469
▁వైఎస్ఆర్	-11.347
గంటల	-11.3471
▁అధినేత	-11.3476
▁సమ్మత	-11.3479
▁ఎల్లప్పుడూ	-11.3482
▁తెలుస్తున్నది	-11.3482
▁ఎదుర్కో	-11.3482
▁సయ్యద్	-11.3495
▁సంకీర్ణ	-11.3509
▁అన్నపూర్ణ	-11.3509
▁కాగజ్	-11.3523
ోత్తర	-11.3529
▁మరుసటి	-11.3536
▁జోసెఫ్	-11.3536
దొడ్డి	-11.3541
▁క్వార్టర్	-11.3549
▁సువాసన	-11.355
▁సర్కారు	-11.356
▁అస్థిర	-11.3576
▁ఎదిగి	-11.3577
▁రాధాకృష్ణ	-11.359
▁నైవేద్య	-11.359
▁వికాస	-11.3595
▁BBC	-11.3603
▁దుర్యోధన	-11.3603
▁స్థానానికి	-11.3605
▁ఎంచుకున్న	-11.3612
▁అందజేస్త	-11.3614
▁ఆఫీసర్	-11.3617
▁జలాశయ	-11.3617
▁సవరించ	-11.3637
▁సన్యాసి	-11.3644
▁ఎగుర	-11.3653
▁గడుప	-11.3655
▁two	-11.3658
▁ఆర్గనైజేషన్	-11.3658
▁పురోగతి	-11.3658
▁వినుకొండ	-11.3658
▁వైకుంఠ	-11.3671
▁భూభాగాన్ని	-11.3671
▁గావించ	-11.3688
▁తర్క	-11.3691
▁అప్పుడప్పుడు	-11.3699
▁ఇబ్న్	-11.3699
▁ఆశించ	-11.37
▁జరిపించ	-11.3706
▁ప్రాముఖ్య	-11.3711
▁క్రెడిట్	-11.3712
▁యాదాద్రి	-11.3726
▁రోడ్దురవాణా	-11.374
▁గ్రెగొర	-11.374
▁ఆతిథ్య	-11.374
▁అమ్మోనియం	-11.3767
▁మరణానంతరం	-11.3767
▁స్కాట్లాండ్	-11.3767
▁సమాధుల	-11.3767
▁ధృతరాష్ట్ర	-11.3781
▁వర్సిటీ	-11.3781
గలిగారు	-11.3784
▁చిరుత	-11.3794
▁ఇండోనేషియా	-11.3795
▁త్వరిత	-11.3795
▁ఎదుర్కొంటున్న	-11.3797
ానుసారం	-11.3798
▁అగస్త్య	-11.3809
హృద	-11.3813
సాక్షాత్	-11.3814
▁నడుస్తుంది	-11.3823
▁అచ్యుత	-11.3836
▁మైనారిటీ	-11.3836
▁కాల్షియం	-11.3836
అలోపతీ	-11.3837
▁పిదప	-11.3837
▁లోకసభ	-11.3838
▁కార్టూన్	-11.385
ఫిబ్రవరి	-11.3851
▁ఐరిష్	-11.3864
▁ఖచ్చిత	-11.3865
▁వియత్నాం	-11.3878
▁సెక్యూరిటీ	-11.3878
శ్రేణి	-11.3879
ప్రారంభించబడింది	-11.3895
సుందర	-11.3907
▁ప్రెసిడెన్సీ	-11.392
▁ఇంటర్వ్యూ	-11.392
▁పదున	-11.3928
▁పౌర్ణమి	-11.3934
▁సంవత్సరాంతమున	-11.3934
▁రుసుము	-11.3936
▁ఒకానొక	-11.3948
▁కొలిచ	-11.3953
▁మేనమామ	-11.3962
▁పెళ్లి	-11.3963
▁ఫుడ్	-11.3965
▁ఎలక్ట్రిక్	-11.3976
▁చికాగో	-11.3976
▁ఆదేశించారు	-11.3976
▁విస్తార	-11.3987
▁నెయ్యి	-11.3991
▁ఇతివృత్త	-11.4004
▁పిక్చర్స్	-11.4004
▁స్వాతంత్య్ర	-11.4019
▁చెలరేగ	-11.4019
▁సిక్ఖు	-11.4019
▁మొదలగునవి	-11.4019
ద్రోహ	-11.4022
▁అత్యల్ప	-11.4033
▁క్షిపణుల	-11.4033
▁దుగ్గిరాల	-11.4033
▁సరసన	-11.4068
▁Windows	-11.4075
▁ప్రతిస్పందన	-11.4075
▁రిజర్వ్	-11.4075
గలిగాడు	-11.4076
▁మూడింట	-11.4077
▁చాంపియన్	-11.4104
▁త్రిభుజ	-11.4104
▁ఇంజను	-11.4105
▁నడుస్తున్న	-11.4109
▁వ్యంగ్య	-11.4133
▁first	-11.4147
▁ఫ్రాన్సు	-11.4147
▁బైబిల్	-11.4147
▁దట్టమైన	-11.4161
▁ప్రేరేపించ	-11.419
▁ఉత్తరప్రదేశ్	-11.419
▁మదీనా	-11.419
▁ద్వేష	-11.4206
www	-11.4218
▁తొందర	-11.4219
▁ఋతువు	-11.4233
▁మునిసిపల్	-11.4233
▁గమనార్హం	-11.4247
▁స్టిట్యూట్	-11.4247
▁లైబ్రరీ	-11.4262
▁మున్సిపల్	-11.4276
▁సుయోధనుడు	-11.4276
▁పైకప్పు	-11.4276
▁శ్రవణ	-11.4291
▁స్టోన్	-11.4294
ైజేషన్	-11.4309
▁ఆదోని	-11.4321
▁కథానాయిక	-11.4334
▁వెతుక	-11.4335
▁సౌలభ్య	-11.4349
▁under	-11.4349
▁భవిష్యత్	-11.4359
▁గ్లోబల్	-11.4364
▁పడమటి	-11.4364
▁నివాసితుల	-11.4376
▁విచ్ఛిన్న	-11.4378
▁ద్వీపకల్పం	-11.4378
▁ఆగ్రహం	-11.4384
▁ఉద్గార	-11.4385
▁work	-11.4393
▁ఏజెన్సీ	-11.4393
▁భాగస్వాముల	-11.4393
▁సంకీర్తన	-11.4408
▁కవాట	-11.4408
▁ఎడ్వర్డ్	-11.4422
▁ముఖర్జీ	-11.4422
▁విడాకుల	-11.4423
▁సుదర్శన	-11.4431
▁ఉపసంహరించ	-11.4437
▁నియోజక	-11.4437
▁అలెగ్జాండర్	-11.4437
▁పోర్చుగీస్	-11.4437
▁ఓటర్ల	-11.4479
▁బాస్కెట్	-11.4481
▁స్మిత్	-11.4496
▁రిటైర	-11.4497
▁సహకరిస్త	-11.451
▁స్పెషల్	-11.4511
▁అవార్డ్	-11.4512
▁ఇరాక్	-11.4514
▁భగవద్గీత	-11.4526
▁రాహుల్	-11.4526
▁భంగిమ	-11.4526
▁దొరికిన	-11.4527
▁సావిత్రి	-11.4541
4,000	-11.4546
పరిషత్	-11.4554
▁నందమూరి	-11.4571
▁పరోక్ష	-11.4571
‘	-11.4579
▁సాయిబాబా	-11.4586
▁పంచాయతి	-11.4586
▁term	-11.4599
▁విరాళాల	-11.4601
నిచ్చింది	-11.4603
▁కూతుర	-11.4622
▁సర్వసాధారణ	-11.4631
▁ట్యూబు	-11.4631
▁సమ్మె	-11.4631
▁ఎమ్మెల్సీ	-11.4646
▁సైన్సు	-11.4646
▁నాస్తిక	-11.4646
▁కుంకుమ	-11.4654
▁బళ్ళారి	-11.4661
▁ఆటగాడు	-11.4661
▁హనుమంతుని	-11.4676
▁శూన్య	-11.4676
▁దక్షిణాసియా	-11.4676
▁temple	-11.4691
▁జోర్డాన్	-11.4691
▁వేణుగోపాల	-11.4691
▁మహమ్మదు	-11.4691
▁ముగుస్తుంది	-11.4691
▁విలసిల్ల	-11.4706
▁వారసుడ	-11.4711
▁బ్రతుక	-11.4716
▁డిపార్ట్	-11.4721
▁క్రమశిక్షణ	-11.4736
▁జయశంకర్	-11.4736
▁ఫ్యాక్టరీ	-11.4736
▁పొడిగించ	-11.474
▁ఎడ్యుకేషన్	-11.4751
▁ధాతువు	-11.4751
▁కనిష్ఠ	-11.4752
▁నెరవేర్చ	-11.4752
ుకోవాల్సి	-11.4755
▁పలాస	-11.4758
▁స్వాధీన	-11.476
▁ఉపశమన	-11.4767
స్వాతంత్ర్యోద్యమ	-11.4775
▁అదృశ్య	-11.4797
▁మహబూబాబాద్	-11.4797
▁పునరుజ్జీవ	-11.4812
▁సెంచరీ	-11.4813
▁సుపరిచిత	-11.4813
▁షరతు	-11.4814
భైరవ	-11.4842
▁నార్వేజియన్	-11.4843
▁ఫెడరేషన్	-11.4843
▁చిత్రలేఖన	-11.4843
మాధ్యమిక	-11.4858
▁గంధర్వ	-11.4874
▁పద్మనాభ	-11.4874
▁ఓడరేవు	-11.4874
▁హెచ్చరిక	-11.4889
▁చేనేత	-11.489
▁వాయించ	-11.4899
▁వధించ	-11.4904
క్సైడు	-11.4905
▁తుమ్మల	-11.4906
సరోవర	-11.4914
▁అద్వైత	-11.492
▁అంగుళాల	-11.492
▁అరబిక్	-11.492
▁జర్నల్	-11.492
▁ప్రసన్న	-11.4927
▁సల్ఫేట్	-11.4936
▁అర్జెంటీనా	-11.4951
▁పెంపుడు	-11.4952
రాశుల	-11.4965
▁చుట్టుప్రక్కల	-11.4967
▁నవాబ్	-11.4967
▁క్షార	-11.4968
▁నిర్వర్తించ	-11.4982
▁చెప్తారు	-11.4982
▁సిఫార్సు	-11.4998
▁మాండలిక	-11.4998
▁రబ్బరు	-11.4998
▁place	-11.5014
▁అందుకని	-11.5014
▁సరోజ	-11.5029
▁ఆవిర్భావ	-11.5029
▁గ్రౌండ్	-11.5029
▁మిషనరీ	-11.5029
▁కంట్రోల్	-11.5029
▁అదృష్ట	-11.5029
▁అస్సాం	-11.5031
▁ఆటగాళ్ళ	-11.5039
▁కట్టుబడి	-11.5043
▁ఈస్టిండియా	-11.5045
▁రాచరిక	-11.5045
▁విచ్చేస	-11.5046
ుకొనుటకు	-11.5053
▁డాక్టరేట్	-11.506
▁డెన్మార్క్	-11.506
▁మక్కువ	-11.5061
▁అభ్యంతర	-11.5076
▁పునర్నిర్మించ	-11.5076
▁కొన్నాళ్ళ	-11.5077
▁ద్రావిడ	-11.5079
లక్ష్మణ	-11.5079
▁కంప్యూటరు	-11.5092
▁సైకిల్	-11.5093
▁తల్లితండ్రుల	-11.5108
▁చేబ్రోలు	-11.5108
మండప	-11.5118
▁IBM	-11.5123
▁వెనుజులా	-11.5123
▁ఎలిజబెత్	-11.5139
▁కాల్సియం	-11.5139
▁కైలాస	-11.5143
▁రెక్కల	-11.5144
▁మరియొక	-11.5153
▁సృజనాత్మక	-11.5155
▁ఋషుల	-11.5155
▁నిర్మూలించ	-11.5171
▁సిడ్నీ	-11.5171
▁సంస్కార	-11.5175
▁వేగవంతం	-11.5182
▁మధుమేహ	-11.5187
▁నమస్కరించ	-11.5203
▁సెకండరీ	-11.5203
ప్రదర్శన	-11.5207
వ్యాపారాత్మక	-11.5211
▁విరమించ	-11.5219
▁like	-11.5234
▁పాతాళ	-11.5239
▁ఇండస్ట్రీ	-11.525
▁పేరొందిన	-11.5282
▁స్పోర్ట్స్	-11.5282
3,000	-11.5283
▁డబ్బింగ్	-11.5298
▁after	-11.5315
▁మల్లికార్జున	-11.5315
▁డెల్టా	-11.5315
▁టెక్కలి	-11.5315
▁నిశ్చయ	-11.5315
మొత్తం	-11.5322
▁వెల్లడి	-11.5326
▁గంజాయి	-11.5347
▁మొఘలు	-11.5363
▁బేసిన్	-11.5363
▁ట్రాన్స	-11.5373
▁సర్పంచ్	-11.5379
▁సంపుటి	-11.538
▁లాహోర్	-11.5395
▁మరాఠా	-11.5395
▁తటస్థ	-11.5396
▁పెట్రోలియం	-11.5412
▁మదనపల్లె	-11.5412
▁అమాయక	-11.5412
▁నిరంకుశ	-11.5428
▁పాండిత్య	-11.5444
▁పూర్తయిన	-11.5444
▁ప్రోత్సహిస్త	-11.5444
▁shall	-11.5444
▁వికారాబాదు	-11.546
▁సెర్బియా	-11.546
▁ట్రెంచ్	-11.5477
▁ఏమాత్రం	-11.551
▁కృతజ్ఞత	-11.551
▁కొమరంభీం	-11.5526
▁లౌకిక	-11.5526
▁కర్తవ్య	-11.5526
▁వాసుదేవ	-11.5527
▁సర్కిల్	-11.5528
▁CPU	-11.5542
▁పార్లమెంటరీ	-11.5542
చేసుకున్న	-11.5547
▁వీక్షించ	-11.5549
ద్వీప	-11.5556
▁ఇందిర	-11.5558
▁years	-11.5559
▁మురళీ	-11.5559
▁మొదలవుతుంది	-11.5559
▁కీటకాల	-11.556
▁సోమాలియా	-11.5575
▁సంజయ్	-11.5575
▁శిఖరాల	-11.5576
▁గల్ఫ్	-11.5576
▁సందర్శన	-11.5577
▁అజ్ఞాత	-11.5592
▁ఊపిరితిత్తుల	-11.5592
▁శ్మశాన	-11.5592
▁మొదలుపెట్టారు	-11.5592
బృంద	-11.5602
ఊ	-11.6552
ఞ	-12.0777
ఔ	-12.949
·	-14.0476
