<unk>	0
<s>	0
</s>	0
,	-3.19094
▁	-4.43052
▁నుండి	-4.56641
▁కి	-4.58849
లో	-4.68792
▁ఉన్నాయి	-4.77432
▁మీ	-4.84988
▁ఉంది	-4.87219
▁గ్రామం	-4.94309
ం	-4.99613
▁దూరంలో	-5.00868
▁10	-5.11776
▁ఈ	-5.16817
ను	-5.19771
లు	-5.26921
▁గ్రామంలో	-5.2771
ని	-5.38972
▁మరియు	-5.41836
▁5	-5.47496
గా	-5.49998
కు	-5.5438
ల	-5.58674
▁కేంద్రం	-5.59924
▁సమీప	-5.64446
ు	-5.68605
▁ఒక	-5.68705
న	-5.7449
స్	-5.79196
ి	-5.85512
▁కూడా	-5.85599
▁ఆ	-5.88168
▁ద్వారా	-5.91818
ము	-5.9792
్	-5.98291
ా	-5.99726
వ	-5.99875
▁సౌకర్యం	-6.01855
తో	-6.03593
▁లో	-6.0681
ారు	-6.07736
▁పైబడిన	-6.09664
▁సంఖ్య	-6.11893
కి	-6.12425
▁పాఠశాల	-6.12589
▁కళాశాల	-6.16612
:	-6.19164
-	-6.19517
▁"	-6.19827
క	-6.20403
న్	-6.21638
ాన్ని	-6.23939
▁ప్రభుత్వ	-6.25216
▁జిల్లా	-6.25823
ర్	-6.26031
ాలు	-6.27142
▁యొక్క	-6.30178
▁వ్యవస్థ	-6.31467
▁గ్రామానికి	-6.35455
ే	-6.3605
▁లేదు	-6.36408
▁రహదారి	-6.3676
▁ఇది	-6.37965
ంగా	-6.39712
▁సరఫరా	-6.40812
త	-6.47075
ల్	-6.48294
▁ఉన్న	-6.48747
▁ప్రాథమిక	-6.52167
▁ఆరోగ్య	-6.56099
ర	-6.59599
▁సామాజిక	-6.59853
ానికి	-6.62452
మ	-6.62752
ది	-6.64484
క్	-6.64991
▁అ	-6.66035
ీ	-6.6641
▁లోపు	-6.66811
"	-6.69644
లను	-6.69785
ుడు	-6.70586
ట్	-6.70674
▁ప్రైవేటు	-6.70746
వి	-6.71268
▁వైద్య	-6.71741
▁కింది	-6.7205
▁తన	-6.72675
▁ఎక్కువ	-6.75853
రి	-6.76965
నే	-6.77312
▁పాటు	-6.78086
;	-6.78182
ాడు	-6.78571
ుల	-6.79245
▁అని	-6.80784
మైన	-6.85178
▁నీరు	-6.86348
▁కంటే	-6.86984
రా	-6.8712
s	-6.87187
▁ఇతర	-6.88151
▁విద్యా	-6.88263
▁-	-6.88483
▁వి	-6.88541
▁/	-6.886
▁వ్యవసాయ	-6.90718
▁ప్రధాన	-6.95046
రు	-6.95394
స	-6.95845
గ	-6.97785
▁కోడ్	-6.98371
▁బ్యాంకు	-6.98909
▁చెందిన	-6.98922
▁తరువాత	-6.99397
▁ఉన్నారు	-6.99885
▁కు	-6.9994
▁విద్యుత్	-7.00138
లా	-7.01017
▁అనే	-7.01573
▁జనగణన	-7.01856
ప	-7.02225
▁ఆసుపత్రి	-7.02431
▁వాణిజ్య	-7.02762
ట	-7.02913
▁పబ్లిక్	-7.02934
ాల	-7.02975
డ్	-7.03038
ద	-7.03178
▁వారం	-7.03763
▁పథకం	-7.04159
▁వ	-7.04421
నా	-7.04607
▁ఫోన్	-7.0473
▁లేదా	-7.04752
▁ప్రకారం	-7.04933
▁షెడ్యూల్డ	-7.05297
డం	-7.05299
ిన	-7.06014
▁గంటల	-7.07063
లోనూ	-7.0765
డ	-7.07747
▁భారత	-7.08042
▁న	-7.08472
▁ఒకటి	-7.08514
య	-7.08731
▁ఆఫీసు	-7.0893
▁కోసం	-7.09192
▁రెండు	-7.09381
▁స్టేషన్	-7.09595
లోను	-7.10079
▁పోస్టాఫీసు	-7.10329
▁సినిమా	-7.10566
▁బి	-7.11019
ింది	-7.12263
పు	-7.12396
▁వైద్యశాల	-7.13208
లి	-7.13401
ంలో	-7.13431
ులు	-7.14151
▁సంస్థ	-7.14478
▁·	-7.15222
▁ఆయన	-7.15608
▁అభివృద్ధి	-7.1704
▁7	-7.17847
▁వ్యవసాయానికి	-7.19041
▁2	-7.20167
పై	-7.20596
▁రోడ్లు	-7.21283
సి	-7.2197
ాయి	-7.22259
డు	-7.23927
లలో	-7.24831
ాలను	-7.2558
▁జాతీయ	-7.25853
▁తిరిగి	-7.26237
▁లు	-7.26456
▁డిగ్రీ	-7.26831
టి	-7.26914
▁నుంచి	-7.2703
▁ను	-7.27122
▁1	-7.28403
▁the	-7.29062
▁రాష్ట్ర	-7.29114
▁ఉప	-7.29173
డానికి	-7.2951
మా	-7.30203
▁గా	-7.30754
మ్	-7.30755
డి	-7.31159
మి	-7.31595
▁కా	-7.32113
▁ఏ	-7.32408
▁ఎ	-7.33082
▁విధంగా	-7.33226
▁ఉంటుంది	-7.33966
▁క	-7.33969
▁3	-7.34232
▁వారి	-7.34571
▁18	-7.35475
లకు	-7.35502
లోని	-7.35576
▁మధ్య	-7.36043
ూ	-7.36146
▁జరుగుతోంది	-7.36362
▁రైల్వే	-7.36486
▁చాలా	-7.36628
▁కొన్ని	-7.36934
▁ప్రత్యేక	-7.38434
/	-7.39672
▁ని	-7.39807
▁టి	-7.39952
వా	-7.40029
▁మ	-7.40111
▁ఉత్పత్తి	-7.41313
▁ఏడాది	-7.41532
జ్	-7.41752
▁ఇ	-7.41884
▁వంటి	-7.42405
కా	-7.43562
▁లోని	-7.43844
▁కలిగి	-7.44123
▁భూ	-7.44893
▁పెద్ద	-7.45178
▁అనేక	-7.45637
▁మురుగునీటి	-7.46593
▁అందుతుంది	-7.46819
▁కుటుంబ	-7.48113
▁వరకు	-7.48547
▁నీటి	-7.48589
▁పొడుగునా	-7.4869
నీ	-7.49318
'	-7.49574
▁నా	-7.51145
▁స	-7.51617
రీ	-7.51895
▁బస్సు	-7.52391
న్న	-7.52723
త్	-7.52753
▁వారు	-7.53084
n	-7.53698
▁4	-7.54466
కో	-7.54467
సు	-7.5489
▁పేరు	-7.5556
▁2011	-7.55984
▁వృత్తి	-7.56312
▁తెలుగు	-7.56498
▁ప	-7.56512
▁of	-7.56875
ప్	-7.56956
▁శిక్షణ	-7.57832
▁'	-7.58183
▁మండల	-7.58193
▁అండ్	-7.58265
▁శ్రీ	-7.58692
▁పౌర	-7.59002
▁జరుగుతుంది	-7.59539
తి	-7.60074
▁సంఘం	-7.60254
▁ఆమె	-7.60325
▁కొరకు	-7.60962
వు	-7.60964
▁సంత	-7.61039
▁విస్తరించి	-7.61725
▁6	-7.61788
▁నమోదు	-7.61827
▁ప్రవహిస్తుంది	-7.61885
▁రవాణా	-7.61916
ల్లో	-7.62043
▁మా	-7.622
▁బ	-7.62317
▁సి	-7.62351
▁కాలువల	-7.62369
▁మాధ్యమిక	-7.62715
▁సామాన్య	-7.62728
▁గణాంకాల	-7.62775
▁డాక్టర్లు	-7.63461
మ్మ	-7.63843
▁సహకార	-7.64036
యా	-7.64195
▁మురుగునీరు	-7.64269
▁స్వయం	-7.64454
▁బృందం	-7.64654
▁మంది	-7.65465
మే	-7.6558
▁కాగా	-7.65768
▁ఔషధ	-7.6585
▁కేంద్రాలు	-7.65956
▁8	-7.66186
▁కార్యాలయం	-7.66354
▁మీద	-7.66506
జ	-7.66881
చ	-7.67794
▁సంరక్షణ	-7.6785
▁కులాల	-7.67941
▁పి	-7.68022
▁వినియోగం	-7.68027
▁సొసైటీ	-7.6854
దు	-7.68558
▁సంపూర్ణ	-7.6862
▁తెగల	-7.68682
▁మొదలైన	-7.68761
▁సేవా	-7.68806
▁లైన్	-7.69021
▁జనన	-7.69186
▁మొదటి	-7.6921
▁ప్రతి	-7.69218
▁సహాయక	-7.69362
▁ప్రత్యామ్నాయ	-7.69838
▁ఆటల	-7.70135
▁చిన్న	-7.70334
▁పశు	-7.70347
▁సబ్	-7.70359
▁సైన్స్	-7.70512
▁ప్రాథమికోన్నత	-7.7087
▁మైదానం	-7.70939
▁చేసిన	-7.7127
టం	-7.7128
▁బాలల	-7.71412
▁ఆటో	-7.71695
▁గ్రంథాలయం	-7.7178
▁పిన్	-7.71831
▁కార్యకర్త	-7.71853
▁ఇంటర్నెట్	-7.72045
▁నిమిత్తం	-7.72063
▁సంక్షేమ	-7.72136
▁వార్తాపత్రిక	-7.72226
గ్	-7.72287
▁మొబైల్	-7.72728
▁శిశు	-7.7276
▁మరణాల	-7.72951
▁సంచార	-7.7306
▁ఆర్ట్స్	-7.73107
▁పంపిణీ	-7.73162
▁మార్కెటింగ్	-7.73293
▁లొకేషన్	-7.73327
▁లోను	-7.73484
▁ఆశా	-7.73604
య్య	-7.73787
▁మగవారి	-7.73859
▁జనాభాతో	-7.73894
▁పారామెడికల్	-7.74309
▁ఆడవారి	-7.74312
వే	-7.74358
▁రీడింగ్	-7.74486
▁హెక్టార్లలో	-7.74654
▁మార్కెట్	-7.74693
▁పోలింగ్	-7.74717
▁జూనియర్	-7.74728
▁రూం	-7.74756
▁లాండ్	-7.74806
▁ఇళ్లతో	-7.74883
▁తో	-7.75083
రో	-7.75168
▁పారిశుధ్య	-7.75366
▁మాతా	-7.75375
▁వీధుల	-7.75412
▁టెలిఫోన్	-7.75597
▁అంగన్	-7.75671
▁వాడీ	-7.75691
▁సరఫరాల	-7.761
▁రా	-7.76135
▁పోస్ట్	-7.76152
▁ఉత్పాదక	-7.76399
▁కొరియర్	-7.7708
▁కెఫె	-7.77149
▁హాలు	-7.77407
▁పోషకాహార	-7.77452
▁చేస్తున్నారు	-7.77487
లే	-7.77726
▁గృహావసరాల	-7.77757
▁దూరం	-7.77786
▁పక్కనే	-7.7797
▁తర్వాత	-7.77993
▁అవసరాల	-7.78068
▁సేకరించే	-7.78113
ో	-7.78247
▁పై	-7.78517
▁కంకర	-7.78572
▁వస్తువులు	-7.78602
▁ఇంటింటిక	-7.78662
▁పరపతి	-7.78799
▁అనియత	-7.78825
▁సమీకృత	-7.78941
▁వ్యర్థాలను	-7.78965
▁బయోగ్యాస్	-7.79277
▁మరుగుదొడ్డి	-7.79416
ములు	-7.79551
▁దివ్యాంగ	-7.79565
▁ఏటీఎమ్	-7.79587
▁డిస్పెన్సరీ	-7.79596
▁అలోపతి	-7.79634
▁పాలీటెక్నిక్	-7.79826
▁చెత్తను	-7.8001
▁ల	-7.8023
▁టెలిగ్రాఫ్	-7.80337
▁పట్టణమైన	-7.80453
▁పారబోస్త	-7.80478
▁జనాభా	-7.81726
▁కేంద్రమైన	-7.81735
▁మూడు	-7.81743
▁మేనేజిమెంటు	-7.81887
ద్	-7.82079
లీ	-7.82127
▁వలన	-7.82154
▁వనరుల	-7.82254
▁బాలబడి	-7.82437
▁తమ	-7.82445
హ	-7.82477
▁బా	-7.82599
▁ది	-7.82742
▁రోజుకు	-7.83069
అ	-7.83264
గు	-7.83537
▁అమలవుతోంది	-7.83704
▁జల	-7.83837
ుని	-7.84005
▁ఉంటాయి	-7.85158
▁in	-7.85262
రే	-7.85352
▁15	-7.85777
▁కుళాయిల	-7.86723
▁a	-7.87099
▁వద్ద	-7.87292
పి	-7.87305
▁ఆఫ్	-7.87363
▁వరి	-7.87372
▁9	-7.87686
▁పాఠశాలలు	-7.87696
బడింది	-7.88266
▁అసెంబ్లీ	-7.88319
▁12	-7.8833
▁గ్రామాల	-7.88777
▁బస్సులు	-7.88812
▁అయితే	-7.89102
చే	-7.89221
▁అతని	-7.89261
▁ప్ర	-7.89377
తా	-7.89413
▁చేతిపంపుల	-7.89746
▁రోజువారీ	-7.89903
▁ము	-7.90039
▁గుండా	-7.90151
▁ప్రాంతాల	-7.90404
▁అయిన	-7.90408
న్నాయి	-7.9089
శ	-7.9099
లతో	-7.90991
▁జ	-7.91137
▁పా	-7.91164
▁సం	-7.91399
▁కానీ	-7.91531
▁గ్రామ	-7.91825
▁అవుతున్నాయి	-7.91927
▁కిలోమీటర్ల	-7.92132
▁చేయ	-7.92211
▁దూరంలోనూ	-7.92344
▁సా	-7.92366
▁త	-7.92367
ణ	-7.92626
▁శ	-7.93678
▁మొత్తం	-7.94158
▁దాని	-7.94189
▁ఇంజనీరింగ్	-7.94368
చి	-7.94641
2	-7.94863
▁--	-7.95518
యు	-7.956
జి	-7.96036
▁అది	-7.97101
▁చేసి	-7.97978
▁అంటారు	-7.98485
బ	-7.98641
▁వ్యవసాయం	-7.98767
ష్	-7.98961
ె	-7.99002
యి	-7.99197
బ్	-7.99205
▁ఇక్కడ	-7.99321
▁మే	-7.99379
▁సిబ్బంది	-7.99385
సా	-7.99518
▁డి	-7.99784
▁దక్షిణ	-7.9993
▁ఉత్తర	-8.00171
▁సౌకర్యాలు	-8.00263
▁ఓ	-8.00372
▁కాని	-8.00402
▁లేని	-8.01078
▁మె	-8.01238
▁దీని	-8.01285
▁గురించి	-8.0145
▁తారు	-8.01736
ాలి	-8.01833
▁ఆంధ్ర	-8.02115
ాలలో	-8.02136
▁ఆర్	-8.02238
▁మొదలైనవి	-8.0264
▁జరిగిన	-8.03294
▁సు	-8.03321
▁మండలం	-8.03482
▁లేరు	-8.03588
▁చ	-8.03847
పా	-8.03856
▁సమయంలో	-8.04314
ed	-8.04453
▁హ	-8.05051
▁నేరుగా	-8.05312
▁స్	-8.05453
▁వా	-8.05824
ఫ్	-8.05879
దా	-8.06089
ంది	-8.06191
▁ఉ	-8.06453
▁మాత్రమే	-8.06494
టు	-8.06971
కే	-8.06977
▁తెలంగాణ	-8.07337
▁:	-8.0743
▁17	-8.07545
▁16	-8.07927
మని	-8.07957
లేదు	-8.0837
▁అన్ని	-8.08832
ై	-8.09246
▁14	-8.09264
ిక	-8.0927
▁శాల	-8.09336
▁and	-8.09811
▁ఎస్	-8.09831
▁అతను	-8.09951
▁రాష్ట్రం	-8.09975
▁బహిరంగ	-8.10048
er	-8.10624
▁ఐ	-8.10668
▁ప్రపంచ	-8.11266
బా	-8.11448
▁ముందు	-8.11799
▁కొ	-8.11811
▁to	-8.11963
ండ	-8.12012
క్ష	-8.12051
▁శుద్ధి	-8.12242
▁0	-8.1236
ంత	-8.12409
y	-8.12882
▁11	-8.12901
ంతో	-8.12978
ించ	-8.13332
▁ప్రభుత్వం	-8.13491
▁తిరుగుతున్నాయి	-8.13947
ప్ర	-8.14106
ధ	-8.14206
ళ్ళ	-8.14286
▁ఇద్దరు	-8.14314
బడిన	-8.14911
తు	-8.15034
▁మంచినీటి	-8.15247
ౌ	-8.15313
ష	-8.1625
▁పార్టీ	-8.1627
బి	-8.16634
▁కో	-8.16635
▁రక్షిత	-8.16767
▁20	-8.16828
▁వల్ల	-8.17172
▁S	-8.1732
▁మి	-8.17442
▁కాలంలో	-8.17632
▁చె	-8.17737
▁వచ్చిన	-8.17983
సీ	-8.18065
మో	-8.18067
ిత	-8.18643
▁మండలానికి	-8.18727
జా	-8.19138
▁పలు	-8.19235
▁ప్రముఖ	-8.19306
▁కె	-8.19411
ాలని	-8.19415
▁దీనిని	-8.19491
నో	-8.19555
యో	-8.20124
వనరుల్లోకి	-8.20198
టీ	-8.2023
వారు	-8.20231
1	-8.21003
▁మన	-8.21135
▁ఇందులో	-8.21192
▁గ	-8.21499
▁అందుబాటులో	-8.21699
కీ	-8.21929
▁లోనూ	-8.22058
▁వివిధ	-8.22086
ట్లు	-8.22144
▁ఒకరు	-8.2271
▁ట్రాక్టర్లు	-8.22765
▁అతి	-8.22804
యం	-8.22924
▁చేశారు	-8.23053
▁ఇవి	-8.23054
ప్ప	-8.23404
▁రాజ	-8.24017
▁కొత్త	-8.24455
▁వదులుతున్న	-8.2495
భ	-8.25053
▁పో	-8.25086
్లో	-8.25106
పో	-8.25179
▁13	-8.25201
▁చెప్ప	-8.25352
ించి	-8.2539
ళ్ల	-8.25501
ాలకు	-8.25845
నూ	-8.26268
జీ	-8.26737
గి	-8.26938
మీ	-8.26961
▁య	-8.27251
▁A	-8.27335
▁అను	-8.27522
వచ్చు	-8.27634
▁రాజకీయ	-8.2866
ంద	-8.28674
3	-8.29025
▁కలిగిన	-8.29073
వ్	-8.29179
రం	-8.29218
▁వాడేందుక	-8.29227
▁లా	-8.29287
ేందుకు	-8.29305
▁చేసే	-8.29485
▁మహా	-8.29667
▁చే	-8.29821
ండి	-8.30222
▁అనేది	-8.30861
టా	-8.30919
కొ	-8.30981
C	-8.31078
▁ర	-8.31158
▁ఉండే	-8.31204
ing	-8.31474
▁వే	-8.31592
కం	-8.31729
▁సంవత్సరాల	-8.31916
%	-8.31975
▁19	-8.32207
al	-8.32485
▁నాలుగు	-8.325
▁ప్రజలు	-8.3302
▁మంచి	-8.33082
▁కారణంగా	-8.33145
▁సంవత్సరం	-8.3318
▁అన్న	-8.33329
ైన	-8.33501
▁కాల	-8.33613
▁రామ	-8.33626
టానికి	-8.33629
▁ఏర్పాటు	-8.33848
మును	-8.34025
▁సంగీత	-8.34189
▁గల	-8.34218
a	-8.34813
▁జా	-8.35186
e	-8.35192
▁ఒ	-8.35271
ిస్తారు	-8.35297
▁ముగ్గురు	-8.35499
ములో	-8.35649
▁గ్రామము	-8.35935
00	-8.35946
ంచ	-8.36334
ంగ్	-8.36517
▁రెండవ	-8.36857
▁తూర్పు	-8.37093
▁అవి	-8.37132
A	-8.37316
▁భారతీయ	-8.37323
▁గో	-8.37551
గల	-8.38208
▁యు	-8.38265
▁తయారు	-8.38292
రాజు	-8.38323
ంగ	-8.38457
ాల్లో	-8.38514
వాడు	-8.38551
నం	-8.38768
▁వాటి	-8.38848
▁ఆర్థిక	-8.3895
పల్లి	-8.39029
▁పని	-8.3927
టర్	-8.39404
▁చేసింది	-8.39519
▁ద	-8.39546
M	-8.40189
▁వీరు	-8.40494
▁సాధారణంగా	-8.40609
▁అంటే	-8.40646
▁తక్కువ	-8.40814
ిస్తూ	-8.40958
రె	-8.40958
ళ	-8.41045
▁ఎక్కువగా	-8.41403
▁జి	-8.41489
▁జరిగింది	-8.4153
▁తండ్రి	-8.41694
క్క	-8.41915
▁అత్యంత	-8.41949
బడి	-8.42024
▁అదే	-8.42078
▁పూర్తి	-8.42128
▁కథ	-8.42303
▁ప్రాంతం	-8.42852
▁బావుల	-8.4298
కర	-8.43247
నుండి	-8.43253
టో	-8.43904
▁లే	-8.43938
▁రి	-8.43988
▁అధిక	-8.44232
డా	-8.44256
త్త	-8.44374
▁ఇలా	-8.44441
ట్ట	-8.44585
▁పూ	-8.44766
ిస్తుంది	-8.44902
▁వాడ	-8.44925
▁50	-8.45981
▁భాష	-8.46014
▁రాజు	-8.46018
స్ట్	-8.46284
▁ఎం	-8.46378
నె	-8.46404
▁వై	-8.46978
▁పాత్ర	-8.47159
▁బహిరంగంగా	-8.47303
▁మండలంలోని	-8.47308
సం	-8.47313
d	-8.47741
▁కలిసి	-8.47877
▁s	-8.4805
▁చిత్రం	-8.48621
▁మో	-8.48684
మై	-8.48685
కుండా	-8.4898
ుతూ	-8.49152
o	-8.49271
ముగా	-8.49764
u	-8.49946
▁చా	-8.50445
ించిన	-8.5077
▁వచ్చింది	-8.508
▁బ్రహ్మ	-8.50969
▁అలాగే	-8.51048
▁బోరుబావుల	-8.51135
▁డాక్టరు	-8.51143
▁ప్రస్తుతం	-8.51467
దీ	-8.51558
▁పు	-8.5165
▁కచ్చా	-8.52154
▁ప్రాంతంలో	-8.52454
▁కల	-8.52665
రావు	-8.53437
▁కన్నా	-8.53908
!	-8.54037
▁శక్తి	-8.54181
4	-8.54314
▁దేవ	-8.54403
▁అక్కడ	-8.54945
▁కాకుండా	-8.55282
గో	-8.55652
▁చిత్ర	-8.55653
ేవారు	-8.55655
▁57	-8.55782
▁బె	-8.5591
▁చరిత్ర	-8.55931
▁అనగా	-8.56173
▁గు	-8.56234
▁భూమి	-8.56305
ప్పుడు	-8.56345
▁మత	-8.56351
▁లోకి	-8.56476
▁పోతోంది	-8.56645
▁లేక	-8.57032
▁దేశ	-8.57045
▁C	-8.57138
ష్ట	-8.5716
▁ఉండ	-8.57408
▁ఇంకా	-8.5786
▁పరి	-8.57889
t	-8.57919
▁పశ్చిమ	-8.57935
ముల	-8.57999
లుగా	-8.58172
▁అమెరికా	-8.58304
▁కార్	-8.58387
▁నీ	-8.58445
చ్	-8.59054
▁ధర్మ	-8.59137
▁బాగా	-8.59353
ఆ	-8.59395
▁ఈయన	-8.59559
ుడి	-8.5959
▁కాలం	-8.59645
▁కేంద్రంలో	-8.59732
ులకు	-8.59839
▁చి	-8.59908
గ్రామంలో	-8.59926
S	-8.60371
▁అవ	-8.60533
▁ప్రదేశ్	-8.60541
?	-8.60791
▁శాసనసభ	-8.61117
▁తల	-8.61536
▁తా	-8.6158
▁M	-8.6179
▁కాదు	-8.61989
▁పె	-8.61995
▁వె	-8.62003
▁కొంత	-8.62058
▁మొ	-8.62061
తీ	-8.62092
▁కే	-8.62179
క్స్	-8.62212
వీ	-8.62648
▁మూల	-8.62989
▁వారికి	-8.63516
▁దీనికి	-8.63722
వారి	-8.64151
▁నది	-8.6435
పల్లిలో	-8.64536
▁చేయడం	-8.64653
దే	-8.64654
వ్వ	-8.6478
▁తొలి	-8.64956
▁వచ్చే	-8.64961
▁శాఖ	-8.65174
▁చెరువు	-8.65187
ుకుని	-8.65192
i	-8.6538
ధి	-8.65461
r	-8.65547
▁30	-8.6563
▁పేరుతో	-8.65699
ట్టు	-8.65719
▁చేర	-8.6574
▁క్రీ	-8.65745
▁హిందూ	-8.65757
ళ్ళు	-8.65909
▁•	-8.65918
▁2001	-8.65962
▁ప్రజల	-8.6608
▁నగర్	-8.66453
వర్	-8.6647
▁25	-8.66529
ద్ద	-8.66557
▁వచ్చి	-8.66574
ar	-8.66593
▁సుమారు	-8.6677
లోనే	-8.66814
బడ్డాయి	-8.67122
ాలతో	-8.67133
▁రో	-8.67344
తే	-8.67812
▁సంబంధించిన	-8.67994
ుడైన	-8.68021
or	-8.68046
p	-8.68131
థ	-8.68156
▁విద్య	-8.68207
▁P	-8.68574
▁ముఖ్య	-8.68801
▁ప్లాంట్	-8.68926
ుతుంది	-8.68929
ుకొని	-8.68977
సె	-8.69073
బు	-8.69109
5	-8.69273
▁భ	-8.69275
పూర్	-8.69299
▁రే	-8.69573
▁వ్యక్తి	-8.6964
▁B	-8.69818
▁సాధారణ	-8.69915
▁సె	-8.70029
▁డా	-8.70607
మె	-8.70727
▁కాంగ్రెస్	-8.70752
▁పాట	-8.70795
లె	-8.70846
▁చేశాడు	-8.70915
ంబ	-8.70921
▁విడుదల	-8.71014
హా	-8.71072
▁పోటీ	-8.71297
హ్	-8.7133
▁లభిస్తుంది	-8.71518
▁పురుషుల	-8.71635
▁అన	-8.71829
▁అంద	-8.71876
▁రైలు	-8.71899
▁నగరం	-8.71947
▁f	-8.72396
c	-8.72483
▁కృష్ణ	-8.72834
▁కోట	-8.7285
▁శివ	-8.7288
▁is	-8.72898
▁స్వామి	-8.73018
▁c	-8.73058
an	-8.73448
▁తల్లి	-8.73587
▁ఎన్	-8.73718
▁చూప	-8.73835
▁హా	-8.74055
▁మాత్రం	-8.74443
▁పంప	-8.74909
▁చైనా	-8.75079
వె	-8.75424
సన్	-8.75538
▁కేంద్ర	-8.75611
▁అమ్మ	-8.75634
ఇ	-8.75956
▁డ	-8.75981
పె	-8.76013
▁భాగంగా	-8.76039
’	-8.76167
ండ్	-8.76195
▁గొప్ప	-8.76218
▁పొ	-8.76387
▁రోజు	-8.76422
యే	-8.76559
▁పెట్ట	-8.76573
▁యుద్ధం	-8.76641
▁పాల	-8.76757
లోకి	-8.76774
6	-8.77282
▁కనుక	-8.77351
▁దాదాపు	-8.77471
▁ప్రా	-8.7753
▁కొండ	-8.77703
▁కృష్ణా	-8.77726
▁భార్య	-8.77784
▁కాక	-8.78037
కాల	-8.78143
▁దా	-8.78556
▁స్థానిక	-8.78678
▁నె	-8.78681
ొ	-8.78716
ండు	-8.78853
▁అంతర్జాతీయ	-8.79026
▁58	-8.79175
▁చివరి	-8.79262
డే	-8.79339
▁పారుదల	-8.79345
re	-8.79347
▁పెంచ	-8.79649
▁ట్రాక్టరు	-8.79774
b	-8.79979
ీయ	-8.79996
▁ఖ	-8.80108
ాయ	-8.80136
డో	-8.80187
▁అంత	-8.80253
▁పంపిస్తున్నారు	-8.80402
ూరు	-8.80416
చు	-8.80511
▁జె	-8.80829
▁ఉన్నత	-8.80846
▁వ్యాపార	-8.80912
th	-8.80926
▁యా	-8.81123
సే	-8.8128
▁వీరి	-8.81285
బో	-8.81387
▁షా	-8.81429
డీ	-8.81458
▁జీవ	-8.81576
▁ఉండేది	-8.81658
▁పొందిన	-8.81759
▁బో	-8.81941
ులను	-8.81987
▁or	-8.82158
h	-8.82163
E	-8.82476
బడుతుంది	-8.82534
ట్ల	-8.82599
▁సాహిత్య	-8.82861
▁తు	-8.82932
▁నివాస	-8.82959
▁విశాఖపట్నం	-8.83088
ఖ	-8.83589
▁లోపే	-8.83596
▁మరో	-8.8363
ాను	-8.83832
▁భాగం	-8.84077
▁వాటిని	-8.84078
డంతో	-8.84302
D	-8.84331
I	-8.84355
▁మరొక	-8.84371
▁ప్రత్తి	-8.84435
▁=	-8.84479
▁గుంటూరు	-8.84489
▁జన	-8.84569
le	-8.84865
ంచి	-8.84941
▁తి	-8.85034
▁తప్ప	-8.85053
▁!	-8.85087
్య	-8.85359
కర్	-8.85423
▁నగర	-8.85446
ింప	-8.85482
▁n	-8.85578
పాడు	-8.85596
▁మానవ	-8.85913
▁సో	-8.85935
▁కోర	-8.85941
▁వీ	-8.85947
m	-8.86005
ుతున్న	-8.86022
g	-8.86127
▁సర్వ	-8.86225
▁విజయ	-8.86379
▁కేవలం	-8.86382
య్	-8.86445
▁వున్న	-8.86452
షన్	-8.86579
▁మరింత	-8.86587
▁ఈమె	-8.86665
▁ఒకే	-8.86727
▁ఆధునిక	-8.86937
కల్	-8.86964
ారని	-8.86967
▁అప్పటి	-8.87009
▁నాటికి	-8.87244
▁దగ్గర	-8.87246
▁దుకాణం	-8.87359
▁The	-8.87546
▁కంపెనీ	-8.87591
▁దేశం	-8.87696
ంటి	-8.87827
కె	-8.87863
▁ఉపయోగించ	-8.87935
▁ఆడ	-8.88059
▁పడ	-8.88159
స్త	-8.88165
▁24	-8.8821
▁గోదావరి	-8.8829
నది	-8.88325
ీకరణ	-8.88327
ాన	-8.88347
ఎ	-8.88378
▁ఇన్	-8.88538
▁తాను	-8.88605
▁ఆలయం	-8.88908
▁హైదరాబాదు	-8.88965
▁‘	-8.89114
త్తు	-8.89134
▁విశ్వవిద్యాలయం	-8.89155
▁శాలలో	-8.89203
దని	-8.8926
in	-8.89389
▁జిల్లాలో	-8.89462
P	-8.89488
▁21	-8.8958
▁59	-8.8974
ుట	-8.89767
▁మార్చి	-8.8983
స్తూ	-8.89913
న్స్	-8.89953
హి	-8.90006
▁ప్రారంభ	-8.90019
కులు	-8.90135
▁పంచ	-8.9026
సో	-8.90274
రణ	-8.90417
మన్	-8.90614
▁చూడ	-8.90858
▁ముఖ్యంగా	-8.90965
l	-8.91077
జన	-8.91508
es	-8.9166
మున	-8.91824
▁ఉంచ	-8.92081
▁ఈనాడు	-8.92092
▁ఎన్నో	-8.92253
▁బ్రిటిష్	-8.92349
గానే	-8.92409
▁చెయ్య	-8.92488
▁చేత	-8.92558
ంటే	-8.92563
ుకున్న	-8.9273
▁ఆధారంగా	-8.92799
▁గుర్తింపు	-8.92962
▁సౌకర్యాలున్నాయి	-8.93004
▁సీ	-8.93287
ra	-8.93405
జు	-8.93509
▁మట్టిరోడ్ల	-8.93865
▁నేను	-8.93877
▁పూర్వ	-8.94044
▁ముఖ్యమైన	-8.94065
ిస్తున్న	-8.94139
▁వీర	-8.94156
▁అలా	-8.9452
▁ఐదు	-8.9457
▁బు	-8.94715
▁స్థానంలో	-8.94886
▁ఉండి	-8.94942
▁అధికంగా	-8.94946
▁నెల్లూరు	-8.95025
టే	-8.95114
▁ఒక్క	-8.95139
▁చేయని	-8.95226
యూ	-8.95266
▁తాగునీరు	-8.95434
ly	-8.95607
బ్బ	-8.95616
▁నాగ	-8.95837
▁పోతున్నాయి	-8.95871
▁22	-8.95948
▁రె	-8.96021
▁యుద్ధ	-8.96282
కార	-8.96351
▁లలో	-8.968
▁దేశంలో	-8.96838
▁p	-8.97025
▁జీవిత	-8.97064
▁లేకుండా	-8.97079
ించే	-8.97109
ును	-8.97112
▁భారతదేశంలో	-8.97284
▁దానిని	-8.97321
లూ	-8.97332
▁m	-8.97505
ri	-8.97505
▁లెక్కల	-8.97541
మునకు	-8.97617
7	-8.97651
▁సముద్ర	-8.97711
▁డె	-8.98011
▁భావ	-8.98189
▁లి	-8.98289
▁పొంద	-8.98339
▁ప్రదర్శన	-8.98367
▁అందులో	-8.98479
▁వైపు	-8.98728
▁సై	-8.98802
▁చేస్తారు	-8.98813
ధా	-8.98848
షి	-8.99136
▁శాతం	-8.99383
T	-8.994
▁ప్రక్రియ	-8.99424
20	-8.99477
▁విజయం	-8.99492
”	-8.99507
am	-8.99563
▁బాల	-8.99596
ుటకు	-8.99607
▁లను	-8.9961
▁మిగిలిన	-8.99678
▁సమ	-8.99726
పురం	-8.9975
▁సిబ్బంద	-8.99811
▁పే	-8.99922
▁I	-8.99947
ంట్	-9.00012
▁be	-9.0033
ట్టి	-9.0036
▁మార్చ	-9.00372
▁23	-9.00389
ేశ్వర	-9.00428
▁చెంద	-9.00442
▁ఎంతో	-9.00458
ద్ధ	-9.00504
▁పత్రిక	-9.0064
▁నిర్మాణ	-9.00735
▁బీ	-9.00745
▁2009	-9.00798
▁నాటి	-9.01182
▁వెళ్ళ	-9.01192
పద	-9.01274
త్వం	-9.01385
కూ	-9.01433
రియా	-9.01435
▁పట్ట	-9.01502
▁for	-9.01571
8	-9.01689
ధ్య	-9.01743
▁అవుతోంది	-9.01866
వో	-9.01938
▁స్థాయి	-9.02054
▁స్టేషను	-9.02365
▁ఇప్పుడు	-9.02428
▁ఉత్తమ	-9.02457
▁లాంటి	-9.02571
▁G	-9.02713
ించారు	-9.02739
▁నిర్వహణ	-9.02845
ెను	-9.02886
త్ర	-9.03066
ఘ	-9.03106
కుడు	-9.03177
▁నే	-9.0318
ల్ల	-9.03389
ల్లా	-9.03482
▁D	-9.03531
ించాడు	-9.03576
నియా	-9.03739
శి	-9.03844
పీ	-9.03942
▁వెళ్ళి	-9.04095
పతి	-9.04139
▁రకాల	-9.04177
▁పీ	-9.04221
చ్చ	-9.04411
▁ఎత్తు	-9.045
▁ఫ	-9.04694
▁ఆరు	-9.04739
▁యునైటెడ్	-9.0477
▁అంచనా	-9.0477
లం	-9.04771
▁పూర్తిగా	-9.04841
R	-9.04906
▁వలె	-9.04944
ic	-9.04982
▁N	-9.04989
▁ప్రజా	-9.05101
▁వీటిలో	-9.0515
▁వలస	-9.05175
▁నూనె	-9.05219
O	-9.05337
▁నిర్వహించ	-9.05344
ాడని	-9.05353
▁ఉపయోగిస్తారు	-9.05489
▁కారణం	-9.05494
వరం	-9.05506
▁కవి	-9.0552
▁విజయవాడ	-9.05577
▁ఏక	-9.05591
▁అవకాశం	-9.056
▁ఫా	-9.05697
v	-9.05797
▁చేయడానికి	-9.05909
▁హో	-9.05987
మైనది	-9.06103
ుకునే	-9.06124
▁ష	-9.06133
▁సేవ	-9.06531
▁రంగ	-9.06537
ad	-9.06649
en	-9.06662
▁అర్థం	-9.06676
షా	-9.06839
▁వారిని	-9.06968
▁స్త్రీల	-9.07381
_	-9.07457
స్వామి	-9.07475
▁2007	-9.0751
▁ప్రసిద్ధి	-9.07693
▁హై	-9.07883
▁అత్యధిక	-9.07918
గిరి	-9.07975
▁పద	-9.07992
మూ	-9.07996
▁H	-9.08065
మాన	-9.08088
ందు	-9.08373
▁ప్రేమ	-9.08418
▁అతిపెద్ద	-9.08528
▁చంద్ర	-9.08588
0	-9.08657
జె	-9.0869
▁ఇండియా	-9.08792
▁సంప్రదాయ	-9.08793
▁రెడ్డి	-9.08908
▁చేసారు	-9.08991
50	-9.09084
▁స్వతంత్ర	-9.09134
యర్	-9.09202
▁తె	-9.09301
at	-9.0934
▁ఎల్	-9.09374
నగర్	-9.09512
▁మై	-9.0972
▁2008	-9.09721
తారు	-9.09753
లేని	-9.09825
▁పరిశోధన	-9.10032
▁జనవరి	-9.10107
▁పాడ	-9.10152
▁26	-9.10203
▁అప్పుడు	-9.10234
▁వేద	-9.103
పోయింది	-9.1033
▁కలిపి	-9.10443
కుల	-9.10517
▁అల	-9.10592
▁ఇదే	-9.10593
▁న్యూ	-9.10645
▁అల్	-9.1071
టింగ్	-9.10764
▁re	-9.11009
▁దశ	-9.11091
▁మహబూబ్	-9.11169
▁శా	-9.11203
చేయ	-9.11394
▁బొ	-9.11455
ణి	-9.11598
▁రాయ	-9.11647
నని	-9.11659
స్తా	-9.11754
మైంది	-9.11828
టన్	-9.11848
▁విశ్వ	-9.11854
▁వీటిని	-9.11926
ఫి	-9.12199
▁శతాబ్దం	-9.12218
కొండ	-9.12228
▁F	-9.12424
త్య	-9.12474
ur	-9.12497
ుకున్నారు	-9.12513
▁సర్	-9.12527
▁సైనిక	-9.12562
ంట	-9.12938
▁గాంధీ	-9.13206
▁సత్య	-9.13215
▁రచయిత	-9.13273
▁జూలై	-9.13344
▁27	-9.13577
▁రాజధాని	-9.13598
ములను	-9.1362
▁L	-9.1364
▁b	-9.13867
రామ	-9.13918
ళ్లు	-9.13957
▁దు	-9.1396
▁జో	-9.14007
et	-9.14018
▁వేల	-9.14177
లై	-9.1418
మీద	-9.14284
▁కృషి	-9.14311
▁చేస్తుంది	-9.14583
ల్లి	-9.14592
ంజ	-9.14756
▁E	-9.14799
▁స్వ	-9.14968
▁నాటక	-9.15082
10	-9.15155
▁వ్యాధి	-9.15177
ః	-9.15264
▁జూన్	-9.15347
తం	-9.1535
ృ	-9.15361
▁సిద్ధ	-9.15523
ిని	-9.15572
జర్	-9.15807
చ్చి	-9.16015
▁నవల	-9.16152
▁శాస్త్ర	-9.16228
తులు	-9.16237
బీ	-9.16248
స్తుంది	-9.16349
9	-9.16396
▁ఫి	-9.16448
▁రూ	-9.16473
▁సంస్కృతి	-9.16619
▁రూప	-9.16663
▁40	-9.16696
us	-9.16797
ిస్తాడు	-9.16797
▁పాత	-9.16913
▁ఉష్ణోగ్రత	-9.16984
▁ఎన్నికలలో	-9.17049
▁ప్రభావం	-9.17258
30	-9.17371
11	-9.17406
▁28	-9.17424
▁మార	-9.17456
▁భారతదేశం	-9.17487
▁దానికి	-9.17579
▁వివాహం	-9.17594
ంగి	-9.17664
▁ఇవ్వ	-9.17664
ుతారు	-9.17712
▁పురాతన	-9.17769
▁పదం	-9.17833
▁రంగు	-9.17964
▁అవార్డు	-9.18136
▁సంవత్సరంలో	-9.1829
▁అమెరికన్	-9.18399
▁ఫల	-9.18543
సర	-9.18654
19	-9.18786
ునిగా	-9.18875
బడ	-9.18882
▁పెళ్ళి	-9.18964
40	-9.19068
▁చూసి	-9.19121
▁స్త్రీ	-9.19206
▁శతాబ్దంలో	-9.19231
13	-9.19247
▁వెంకట	-9.19278
రూప	-9.19304
▁ఖండ	-9.19399
▁స్థానం	-9.19423
▁కీ	-9.19459
▁గ్రామాలు	-9.19487
▁కుమారుడు	-9.19565
▁గుర్తించ	-9.19585
▁నిర్మించ	-9.19588
▁బౌద్ధ	-9.19591
▁మాట	-9.19605
▁ఊ	-9.19631
▁పైగా	-9.19642
▁బే	-9.19805
▁సరిహద్దు	-9.19858
▁R	-9.19859
▁నిర్మాణం	-9.19863
▁ఇతడు	-9.19933
డె	-9.19935
స్థ	-9.19939
సర్	-9.19954
▁తెలియ	-9.1996
▁కట్ట	-9.19987
k	-9.2003
▁మహ	-9.20068
మర్	-9.2009
వాడ	-9.20195
ుగా	-9.20203
ందుకు	-9.20272
▁ఆహార	-9.20485
▁మొట్టమొదటి	-9.20496
▁వేరు	-9.20593
రూ	-9.20745
▁ఎక్స్	-9.20765
▁దారి	-9.20767
▁గి	-9.20809
▁వరకూ	-9.20903
▁ఆంధ్రప్రదేశ్	-9.20973
▁ఎలా	-9.21018
మంది	-9.2105
ch	-9.21183
▁బ్ర	-9.21333
▁పంట	-9.21405
▁న్యాయ	-9.21506
▁లె	-9.21621
▁రక్షణ	-9.2164
▁కొద్ది	-9.21666
▁చికిత్స	-9.22012
దో	-9.22017
N	-9.22091
ఒక	-9.22129
f	-9.22147
▁ఇంటి	-9.22232
ులైన	-9.22292
రాజ	-9.22331
▁ప్రాంతాలలో	-9.22343
ంప	-9.22375
పడ	-9.22428
ించింది	-9.2246
B	-9.22502
▁as	-9.22533
▁వీటి	-9.2256
ఉ	-9.22679
▁గాని	-9.22688
▁గాలి	-9.22758
లపై	-9.22905
il	-9.22942
▁రసాయన	-9.22943
తాడు	-9.23033
▁కళా	-9.23064
పర్	-9.2314
▁చంప	-9.23258
రై	-9.23327
వపేజీ	-9.23332
▁అయినప్పటికీ	-9.23334
కల	-9.23444
ుకున్నాడు	-9.2349
దర	-9.23499
పాలెం	-9.23576
▁విలువ	-9.23598
▁పొందింది	-9.23604
▁మూడవ	-9.23922
▁సంస్కృత	-9.23938
▁టా	-9.24054
▁w	-9.24121
▁హె	-9.24124
భా	-9.24153
▁నగరంలో	-9.24155
ప్పటికీ	-9.24173
▁చేసాడు	-9.24208
శా	-9.24236
|	-9.24271
▁ఆలయ	-9.24405
ూర్	-9.24516
▁వార	-9.24617
▁వస్తుంది	-9.24679
గ్రామానికి	-9.24716
ఫ	-9.24743
▁నూతన	-9.24767
▁with	-9.2481
వాద	-9.24817
on	-9.25161
▁నల్ల	-9.2519
▁ఉపయోగ	-9.25225
తుల	-9.25232
శ్	-9.25244
▁విషయం	-9.25305
▁కాం	-9.25313
▁2006	-9.2538
▁ఎంత	-9.254
L	-9.25522
▁ప్రసిద్ధ	-9.25588
ుకోవడం	-9.25599
14	-9.2562
▁కొందరు	-9.25624
▁ఆంగ్ల	-9.25639
నై	-9.25724
▁అవసరం	-9.25764
ంగు	-9.25938
▁ప్రస్తుత	-9.26014
▁దేశాల	-9.26071
▁దాడి	-9.2609
▁2010	-9.26137
▁రచన	-9.2623
▁ప్రాచీన	-9.26246
ిస్తాయి	-9.26344
▁కం	-9.26382
ద్ర	-9.26421
▁ఏప్రిల్	-9.26425
▁కొనసాగ	-9.26442
ent	-9.26456
వ్య	-9.26495
స్తారు	-9.26509
▁అగ్ని	-9.26552
ఁ	-9.26588
▁వంశ	-9.26671
▁మందుల	-9.26809
ఫా	-9.26841
▁సహా	-9.26856
లర్	-9.2705
▁తమిళ	-9.27229
న్నా	-9.27229
▁సంగీతం	-9.27285
▁నిర్	-9.27336
▁కనిపించ	-9.27378
ట్స్	-9.27404
▁మహిళల	-9.27491
▁అమలు	-9.27574
▁పాప	-9.27678
▁పది	-9.27693
▁సాంకేతిక	-9.27732
▁చేస్తున్న	-9.27846
▁మారింది	-9.27861
▁మార్	-9.2797
▁ఆనంద	-9.27976
▁తీర	-9.28164
▁దేశాలలో	-9.28192
పొ	-9.28217
▁రోడ్డు	-9.28233
▁చిత్తూరు	-9.28253
▁వాటిలో	-9.28377
తర	-9.28605
▁బ్రిటీష్	-9.2871
ro	-9.28993
కరణ	-9.28998
▁ఆది	-9.28999
▁ఆత్మ	-9.29031
పెట్ట	-9.29064
నాడు	-9.29114
జం	-9.29134
▁చర్య	-9.29263
పే	-9.29313
న్ని	-9.29341
ల్స్	-9.29445
▁వర్ణ	-9.29506
se	-9.29513
బుల్	-9.29696
కాలం	-9.29766
ులుగా	-9.29831
ుడిగా	-9.29862
▁సంస్థలు	-9.29905
డమే	-9.29982
▁మద్దతు	-9.30038
▁ఇతని	-9.30451
▁K	-9.30468
▁బట్టి	-9.30474
బె	-9.30519
నల్	-9.30537
60	-9.30683
▁రాజా	-9.307
▁జాతి	-9.30881
వై	-9.30895
▁ఫలితంగా	-9.30929
▁ధర	-9.3097
▁భారీ	-9.31032
▁చేర్చ	-9.31057
▁by	-9.31146
ాలుగా	-9.31208
పోయిన	-9.31302
▁పైన	-9.31366
రిక	-9.31499
▁జాబితా	-9.31518
15	-9.31576
ార	-9.31741
▁కాలువ	-9.31759
▁జరిగే	-9.31824
▁నారాయణ	-9.3191
పుడు	-9.31916
▁గౌరవ	-9.3198
▁అతడు	-9.31988
్యం	-9.32138
శాల	-9.32152
వర	-9.32265
తాయి	-9.32279
▁పరీక్ష	-9.32343
▁అయింది	-9.32406
=	-9.32428
ప్రైవేటు	-9.32467
▁పొడవు	-9.3247
ాత్మక	-9.32498
ర్స్	-9.32617
▁పర	-9.32708
ation	-9.32916
బర్	-9.33238
▁ఐరోపా	-9.33252
▁సభ	-9.33346
▁లీ	-9.33352
తను	-9.33376
యిన	-9.33379
▁కర్నూలు	-9.33416
ించడం	-9.33454
▁కాంతి	-9.33527
▁వ్యతిరేకంగా	-9.33539
12	-9.33581
▁కుల	-9.33706
▁క్రింద	-9.33788
▁ఫిబ్రవరి	-9.33945
▁లేవు	-9.33966
▁పట్టణ	-9.34098
చార	-9.34124
)	-9.34279
గే	-9.34312
23	-9.3434
▁పిలుస్తారు	-9.3435
▁T	-9.34407
త్వ	-9.34493
▁అల్ల	-9.3451
▁పాలన	-9.34528
రక	-9.34559
17	-9.34563
▁ఏర్పడిన	-9.34669
లేక	-9.34701
▁సహజ	-9.3475
▁ప్రాణ	-9.34811
▁రూపంలో	-9.34864
▁వేరుశనగ	-9.34875
స్తాయి	-9.35008
▁గురు	-9.35026
▁భర్త	-9.35042
టిక్	-9.35132
స్టర్	-9.35211
పల్లె	-9.35264
▁నిర్ణయించ	-9.35371
▁సూర్య	-9.35376
▁నిర్వహించారు	-9.3544
▁దృష్టి	-9.35461
▁రై	-9.35536
▁ప్రదర్శించ	-9.35584
క్కు	-9.35666
▁గారు	-9.35804
▁పూర్	-9.35908
▁వర	-9.35911
కారం	-9.35918
▁పూజ	-9.35942
ేవాడు	-9.35954
▁ధన	-9.35975
▁విధానం	-9.36015
16	-9.36019
▁చుట్టూ	-9.36184
ుతాయి	-9.36243
▁మొక్కజొన్న	-9.36345
w	-9.36404
▁ఆట	-9.36487
ాక	-9.36571
▁హిందీ	-9.36622
▁మూ	-9.36722
▁బల	-9.36806
▁కూడిన	-9.36842
01	-9.36887
ha	-9.36888
▁చేస్తూ	-9.3693
▁నేషనల్	-9.3698
▁అర్ధ	-9.3704
శాస్త్ర	-9.37062
▁పర్వత	-9.37164
▁ప్రకాశం	-9.37171
▁ధ	-9.37186
కర్త	-9.37211
▁చాల	-9.37235
రాయ	-9.37245
చె	-9.37282
H	-9.37329
▁సహ	-9.37331
▁29	-9.37646
్యు	-9.37781
ుకుంది	-9.37809
వలసిన	-9.37833
85	-9.37848
ముఖ	-9.38061
ున్న	-9.38371
▁నో	-9.38421
▁W	-9.38552
▁U	-9.38644
▁బహు	-9.38654
▁జట్టు	-9.38681
▁కారణ	-9.3874
▁తగ్గించ	-9.38773
చేసి	-9.38807
ాడ	-9.389
▁సాధించ	-9.3893
▁ప్రపంచంలో	-9.38958
▁విశేష	-9.38977
▁టై	-9.39079
దేవి	-9.39208
▁గుర్తు	-9.39212
▁కౌ	-9.39258
▁చింత	-9.39259
భవ	-9.39277
రెడ్డి	-9.39307
▁గారి	-9.39433
▁లక్షల	-9.39648
▁31	-9.39681
▁యూ	-9.39793
▁జన్మించాడు	-9.39808
▁2004	-9.3989
▁సైన్యం	-9.39894
ుడిని	-9.39907
25	-9.39953
▁సింగ్	-9.39965
ంటు	-9.40136
క్షణ	-9.40269
ర్ల	-9.40272
▁చేయబడింది	-9.40316
▁ఘన	-9.40339
0,000	-9.40341
▁వాడు	-9.40379
▁అధికార	-9.40387
▁సంపాదించ	-9.40422
▁కూ	-9.40444
ంబు	-9.40548
▁తిరుపతి	-9.40569
▁అయ్య	-9.40686
33	-9.40767
▁చెట్టు	-9.40896
▁జ్ఞాన	-9.40976
ండే	-9.41092
▁ముస్లిం	-9.41111
▁రక్త	-9.41197
08	-9.41305
▁ఎంపిక	-9.41305
ండ్ల	-9.4132
▁తొలగించ	-9.41362
▁ప్రధానంగా	-9.41584
ాది	-9.416
▁అన్నాడు	-9.41607
▁జయ	-9.41749
▁గొ	-9.41757
▁సమీపంలో	-9.41772
▁అక్టోబరు	-9.41787
కోట	-9.41789
వైపు	-9.41851
▁గురువు	-9.41898
▁తెర	-9.42085
▁పట్ల	-9.42191
▁ఇక్కడి	-9.42233
▁గ్రా	-9.42372
la	-9.42421
61	-9.42547
▁పర్వము	-9.42556
77	-9.42593
▁ప్రణాళిక	-9.42622
▁నిర్మించిన	-9.42641
▁శ్రీకాకుళం	-9.42671
▁కంప్యూటర్	-9.42694
▁టీ	-9.42752
▁ఆయనకు	-9.42766
▁సంవత్సరాలు	-9.42768
కాయ	-9.42806
▁ఆగస్టు	-9.42828
▁గుణ	-9.42873
▁అప	-9.42875
▁మంత్ర	-9.42944
▁ఇంత	-9.4297
▁మొదట	-9.43122
▁ఉదాహరణకు	-9.43139
▁గృహాలు	-9.43191
▁శాంతి	-9.43223
▁ప్రవేశ	-9.43243
▁పరిస్థితి	-9.43274
చా	-9.4329
▁మూస	-9.434
▁తనకు	-9.4344
▁ఉంటే	-9.43443
కాలంలో	-9.43504
టె	-9.4355
నర్	-9.43554
▁సూచించ	-9.43629
జో	-9.43664
▁పాటలు	-9.43698
▁మార్పు	-9.43707
99	-9.43746
ce	-9.43756
▁g	-9.43798
▁d	-9.4395
▁రేడియో	-9.44039
థా	-9.4404
▁ఏడు	-9.4415
▁పరిధిలో	-9.44165
▁కుమార్తె	-9.44227
స్తు	-9.44242
లూరు	-9.44292
▁భాషా	-9.44316
▁తీసుకు	-9.44339
70	-9.4434
▁సంయుక్త	-9.44355
▁వేయ	-9.44433
▁సంబంధం	-9.44486
▁వరంగల్	-9.44514
▁గ్రామములో	-9.44523
పేట	-9.44555
▁మద్య	-9.44617
▁నవ	-9.44621
▁సాంస్కృతిక	-9.44657
▁కల్పించ	-9.44671
▁హైదరాబాద్	-9.44681
డుగు	-9.44728
▁కొల	-9.44728
▁రాజ్య	-9.44748
▁ఆఫ్రికా	-9.44755
▁వివాహ	-9.44816
ఏ	-9.44895
▁బాధ్యత	-9.4491
దేశ	-9.44916
st	-9.45033
ఠ	-9.45047
మత	-9.45159
▁గాయ	-9.45187
▁సందర్భంగా	-9.45412
▁35	-9.45423
▁2013	-9.45455
▁ఎందుకంటే	-9.45507
పరి	-9.45581
▁కార్య	-9.45581
▁గుడి	-9.45614
▁on	-9.45667
▁హరి	-9.45691
▁జొన్న	-9.45742
▁మార్గం	-9.45794
▁ఒప్పందం	-9.45799
▁భావించ	-9.45824
▁h	-9.45878
▁ఆల్	-9.45899
▁సాధన	-9.45911
as	-9.45914
▁నెల	-9.45974
▁l	-9.46072
▁డై	-9.46133
సూ	-9.46142
▁లింగ	-9.46162
▁అయి	-9.46299
టరు	-9.46309
▁శి	-9.46378
▁నియోజకవర్గం	-9.46476
▁తర	-9.46485
21	-9.46548
▁ముఖ	-9.47011
▁సోమ	-9.47047
▁51	-9.47082
▁చట్టం	-9.47147
▁భాషలో	-9.47173
▁ప్రకృతి	-9.47176
కాలు	-9.47196
▁పడి	-9.47202
▁నేల	-9.47217
▁సినీ	-9.4724
▁ఆసక్తి	-9.47278
▁ఉండటం	-9.47301
▁ఇప్పటికీ	-9.47342
▁త్రి	-9.47345
▁ప్రయాణ	-9.47361
▁మొక్క	-9.47362
98	-9.47403
▁పుట్ట	-9.47425
▁ఆలోచన	-9.47443
మన	-9.47457
▁2014	-9.47512
దం	-9.47565
▁కాబట్టి	-9.47621
▁పద్ధతి	-9.47622
it	-9.47679
▁అతనికి	-9.47703
▁డిసెంబరు	-9.47718
▁అంగీకరించ	-9.47729
▁100	-9.47755
▁తగ్గ	-9.47882
▁విదేశీ	-9.47892
కై	-9.47938
▁ఇం	-9.48042
▁భారతదేశ	-9.48076
▁ప్రాంత	-9.48091
▁మద్రాసు	-9.48098
▁మల్ల	-9.48129
ఫె	-9.48244
▁2005	-9.4826
▁రెండో	-9.48317
▁తే	-9.48322
▁ఉంటారు	-9.48417
▁సమస్య	-9.48482
90	-9.48486
▁కామ	-9.48518
▁తొ	-9.48565
▁మాట్లాడ	-9.48638
07	-9.4866
▁k	-9.48698
మెంట్	-9.48745
95	-9.48796
▁చెప్పిన	-9.48798
▁చెప్పాడు	-9.48839
F	-9.48856
ంలోని	-9.4887
▁రు	-9.4888
▁పండుగ	-9.48889
గొ	-9.48901
▁ఖాన్	-9.48909
▁భౌతిక	-9.49011
▁రాసిన	-9.49036
▁బాల్	-9.49039
ఎస్	-9.49042
▁వెంటనే	-9.4928
▁స్థాయిలో	-9.49284
▁that	-9.4931
గం	-9.49339
డర్	-9.49537
▁గృహ	-9.49548
▁డీ	-9.49575
▁ఆసియా	-9.49612
న్నె	-9.49626
▁రాత్రి	-9.49639
te	-9.49667
24	-9.49676
▁వెళ్ల	-9.49685
▁పాకిస్థాన్	-9.49716
తూ	-9.49739
పాటి	-9.49757
93	-9.49976
▁దేవాలయం	-9.50052
▁జు	-9.50177
69	-9.50197
ణం	-9.50223
18	-9.50245
▁మారి	-9.50288
▁సెప్టెంబరు	-9.50369
96	-9.50416
▁వ్యాసం	-9.50435
68	-9.50458
▁de	-9.50493
మొ	-9.50514
▁ఉన్నది	-9.50576
0%	-9.50704
li	-9.50735
22	-9.50781
▁హి	-9.50809
▁తిరుగుబాటు	-9.50829
▁ఖమ్మం	-9.50834
ితే	-9.50957
లైన	-9.51009
వలసి	-9.51034
▁వృక్ష	-9.51115
▁చెక్క	-9.51129
వార	-9.51263
▁అందించ	-9.51284
▁పాకిస్తాన్	-9.51383
91	-9.51414
్యా	-9.51439
▁నవంబరు	-9.51462
ీకరించ	-9.51526
80	-9.5155
వచ్చును	-9.51663
▁ఎయిర్	-9.51669
▁చివర	-9.51711
▁ఉద్యమ	-9.51724
యాన్	-9.51749
▁ఇక	-9.51784
జ్ఞ	-9.5182
ప్పు	-9.51923
కవి	-9.51948
un	-9.51965
థి	-9.51985
▁చల్ల	-9.52021
పోయి	-9.52034
ol	-9.52063
▁అర్థ	-9.52122
▁చక్రవర్తి	-9.52139
▁60	-9.52166
▁నలుగురు	-9.52292
వంత	-9.52338
▁పత్ర	-9.52367
76	-9.52413
▁కల్	-9.52441
వేత్త	-9.52475
ుంది	-9.52524
▁సామ్రాజ్యం	-9.52531
06	-9.5256
26	-9.52826
తె	-9.52862
▁కాలనీ	-9.52912
▁సహాయ	-9.52919
▁com	-9.52924
ినట్లు	-9.53017
el	-9.531
ద్య	-9.53152
నాటి	-9.53287
ారెడ్డి	-9.53361
▁2016	-9.53402
గ్ర	-9.53449
▁స్వాతంత్ర్య	-9.5348
ధు	-9.53504
03	-9.53583
▁సమయం	-9.53595
▁మరి	-9.53633
ార్థ	-9.53648
▁జాన్	-9.5372
▁e	-9.53758
▁an	-9.5381
ంపై	-9.53854
▁విమర్శ	-9.53876
▁బాధ	-9.53877
▁స్థల	-9.53906
ిస్తున్నారు	-9.53927
▁వేడి	-9.53994
▁జన్మ	-9.54006
84	-9.54026
87	-9.5406
▁ప్రజలకు	-9.54064
▁శిక్ష	-9.54122
▁వాయువు	-9.54167
పాటు	-9.54185
▁సూ	-9.54187
09	-9.54201
▁దీన్ని	-9.54223
న్నీ	-9.54273
▁యూనియన్	-9.54301
▁నియంత్రణ	-9.54322
92	-9.54374
ిస్తే	-9.54463
97	-9.5448
▁అతడి	-9.54484
▁వేస	-9.54494
తల	-9.54519
ుకుంటారు	-9.54562
▁సభ్యులు	-9.5463
81	-9.54639
▁ప్రెస్	-9.54673
▁విడుదలైన	-9.54694
▁అనంతపురం	-9.54719
86	-9.54731
ంపు	-9.54757
▁ఢిల్లీ	-9.54781
ంతా	-9.54814
▁రీ	-9.54836
▁రావు	-9.54843
▁చట్ట	-9.54844
83	-9.54853
▁వెనుక	-9.54937
హం	-9.5524
31	-9.55303
32	-9.55316
▁రచించిన	-9.55341
▁చదువు	-9.55346
తన	-9.55404
లియ	-9.55474
బడే	-9.55482
▁చెప్పవచ్చు	-9.55494
▁వేసవి	-9.55518
▁నమూనా	-9.55519
▁ఉన్నాడు	-9.5552
ter	-9.55526
▁తరచుగా	-9.55528
42	-9.55534
▁నాడు	-9.5563
▁జరుప	-9.55651
▁నిర్మించారు	-9.55699
రంగ	-9.55771
ృత	-9.55854
స్ట	-9.55885
నాథ	-9.55921
▁క్రి	-9.55926
▁ఫర్	-9.55952
▁తెలుగులో	-9.5596
▁మొదలు	-9.56008
▁t	-9.56042
గారు	-9.56128
బడతాయి	-9.5614
ment	-9.56158
55	-9.56232
పూడి	-9.56488
▁ప్రారంభించారు	-9.56489
పరచ	-9.56504
వేయ	-9.56516
▁అనుసరించి	-9.56578
చిన	-9.56606
▁2000	-9.56741
▁బ్రాహ్మణ	-9.56842
ేషన్	-9.56851
▁విజయనగరం	-9.5689
is	-9.56916
▁తిరు	-9.56936
▁నమ్మ	-9.56964
వతి	-9.57025
▁వంటివి	-9.57036
▁చక్ర	-9.57052
భాష	-9.57125
94	-9.57127
▁దూ	-9.57178
▁సూక్ష్మ	-9.57213
▁విజ్ఞాన	-9.57237
▁పసుపు	-9.57241
▁రికార్డు	-9.57367
▁కలసి	-9.57416
▁జపాన్	-9.57462
▁ఆధారపడి	-9.57529
శక్తి	-9.57548
▁క్రింది	-9.57578
▁చిత్రంలో	-9.57654
వులు	-9.57877
}	-9.57887
గల్	-9.57911
▁తక్కువగా	-9.57922
▁v	-9.58012
▁గత	-9.58017
క్త	-9.58155
▁భావిస్తున్నారు	-9.58163
భాగ	-9.58268
ళి	-9.58322
▁సంఘ	-9.58334
▁రష్యా	-9.58455
▁ఎక్కడ	-9.58516
వరకు	-9.58526
▁సామ్రాజ్య	-9.58555
▁నల్గొండ	-9.58705
▁st	-9.58731
రుగు	-9.58737
▁నియమించ	-9.58749
▁గీత	-9.58772
డము	-9.5887
88	-9.58929
um	-9.58943
▁స్థితి	-9.58946
▁కొడుకు	-9.58959
ంచు	-9.59014
▁ద్రవ	-9.59021
యె	-9.59062
▁సాగ	-9.59106
హో	-9.59169
▁శాస్త్రీయ	-9.59174
మూర్తి	-9.5927
▁పరిశ్రమ	-9.59289
▁ఫై	-9.59441
ర్డ్	-9.5945
▁కర్ణాటక	-9.59458
▁అయినా	-9.59468
▁నేర	-9.59479
▁ప్రాంతాలు	-9.59479
ూరి	-9.595
▁ప్రకటన	-9.59528
▁దూర	-9.59546
89	-9.59582
▁కావ	-9.59602
గ్గ	-9.59609
▁డే	-9.5963
▁రోజులు	-9.59668
▁con	-9.59703
ంక	-9.59783
మాన్	-9.59796
02	-9.59813
రవ	-9.59837
28	-9.59876
త్తి	-9.59905
▁కనిపిస్తుంది	-9.59998
▁గ్	-9.60029
▁భక్తులు	-9.60081
▁దీనిలో	-9.60128
▁వున్నవి	-9.60222
▁జర్మనీ	-9.60248
బే	-9.60311
పోతుంది	-9.60314
04	-9.60356
ార్	-9.60371
▁అనంతరం	-9.60384
ti	-9.60385
▁V	-9.60467
▁కోట్ల	-9.60495
చీ	-9.60518
▁కొట్ట	-9.60537
▁చెందింది	-9.60548
ునికి	-9.60557
పం	-9.60575
▁పేజీ	-9.6058
▁రూపొందించ	-9.60672
మం	-9.60713
వాగు	-9.60736
▁పరిచయం	-9.6086
కము	-9.60864
ండా	-9.60937
▁గ్రంథ	-9.60945
▁యుద్ధంలో	-9.60959
27	-9.61013
▁జీవితం	-9.61026
▁హు	-9.61077
▁భా	-9.61172
తోపాటు	-9.61213
▁మతం	-9.61296
▁he	-9.61358
▁రాష్ట్రంలో	-9.61374
▁కర్మ	-9.61417
29	-9.61499
▁32	-9.61522
▁కన్	-9.61567
స్తే	-9.61598
ర్య	-9.61603
ణా	-9.61656
▁బై	-9.61663
▁సృష్టించ	-9.61707
రికి	-9.61754
ాపురం	-9.61829
°	-9.61831
79	-9.61963
45	-9.61997
▁అర్	-9.62014
▁దర్శకత్వం	-9.6202
▁{	-9.62034
▁సమాన	-9.62041
▁was	-9.62051
లింగ్	-9.62117
▁పట్టణం	-9.62218
▁తరగతి	-9.62222
గుణ	-9.62262
ాం	-9.62276
▁క్రైస్తవ	-9.62307
▁క్షేత్ర	-9.62328
48	-9.62354
కోసం	-9.62364
▁పిల్లల	-9.62369
▁జిల్లాకు	-9.62375
▁కోల్	-9.62438
▁క్యా	-9.62463
▁నిజాం	-9.62463
▁వ్యాసాలు	-9.62472
▁are	-9.62486
▁వెళ	-9.625
65	-9.62521
▁అసలు	-9.62546
▁గ్రహ	-9.62553
శాస్త్రి	-9.62566
▁కథలు	-9.62572
దేవ	-9.62686
▁సమాజ	-9.6273
35	-9.62746
▁జీవన	-9.62821
▁from	-9.62824
▁బంగారు	-9.62914
▁తయారీ	-9.62945
బీయెస్	-9.62998
గె	-9.63171
▁అధ్యయనం	-9.63182
43	-9.63269
▁సొంత	-9.63329
▁కష్ట	-9.63336
▁బంధ	-9.63351
▁చేతి	-9.63437
▁ఎమ్బీ	-9.63616
శాస్త్రం	-9.63626
ములలో	-9.63696
▁కళ	-9.63699
▁ఉండవచ్చు	-9.6373
▁అర	-9.63747
▁యువ	-9.63778
▁సార్లు	-9.63825
▁భాగంలో	-9.63844
స్టు	-9.63856
▁మంద	-9.63857
▁ప్రాంతాల్లో	-9.63872
ుడ	-9.63889
▁సినిమాలో	-9.63928
-1	-9.64009
నప్పుడు	-9.6405
గారి	-9.64067
and	-9.64083
▁వ్రాయ	-9.64124
▁కర	-9.64132
▁r	-9.64201
▁నక్షత్ర	-9.64258
మల	-9.64261
▁మనం	-9.64318
ాయని	-9.64322
రోజు	-9.64348
▁ఔ	-9.64388
జ్జ	-9.64397
▁వ్రాసిన	-9.64471
▁క్ర	-9.64508
ల్లు	-9.64542
▁ఫ్ర	-9.64587
▁|	-9.64645
▁వ్యతిరేక	-9.64809
▁జరగ	-9.6481
▁సే	-9.64844
▁చదివిన	-9.64844
▁చిత్రాలు	-9.64845
▁అభిప్రాయ	-9.6487
▁తిరుమల	-9.64898
ర్ర	-9.64949
పరంగా	-9.64951
▁నెహ్రూ	-9.65082
ందని	-9.65163
ల్డ్	-9.65168
యన్	-9.65191
▁ఎర్ర	-9.65195
వారికి	-9.65227
47	-9.65268
▁రాగ	-9.65287
రియ	-9.65296
▁కింద	-9.65432
▁రోజుల	-9.65463
భావ	-9.65497
ాపూర్లో	-9.65582
05	-9.65713
▁అనుమతి	-9.65756
నిక్	-9.65809
▁శరీర	-9.65927
56	-9.6593
▁ఆహారం	-9.66054
▁అందుకు	-9.66064
▁వర్	-9.66153
54	-9.66184
రాల	-9.66242
▁పట్టు	-9.6644
▁మంత్రి	-9.66445
▁పిల్ల	-9.66469
న్నది	-9.66517
ాలనే	-9.66526
▁వ్యక్తిగత	-9.66529
▁తరువాతి	-9.66537
75	-9.66572
▁చరిత్రలో	-9.66648
చ్ఛ	-9.66732
ాంత	-9.66751
▁అర్బన్	-9.6679
▁జూ	-9.66799
ta	-9.66805
దేశాల	-9.66834
▁ప్రసార	-9.66945
పురంలో	-9.66997
▁చర్చి	-9.67034
▁అవసరమైన	-9.67054
జే	-9.67072
▁గె	-9.67127
▁వైద్యశాలలో	-9.67217
▁1990	-9.6727
ాపూర్	-9.67312
గ్రా	-9.6736
ద్దు	-9.67384
రియన్	-9.67479
▁యె	-9.67488
▁పొందారు	-9.67518
▁O	-9.67589
▁అధ్యక్ష	-9.67607
ఢ	-9.67609
▁వ్యాస	-9.67669
▁మిలియన్	-9.67694
▁ప్లా	-9.6772
▁రాజ్యం	-9.67745
గడ	-9.67975
▁ఛా	-9.68058
ినా	-9.6807
▁ఇస్లాం	-9.68154
▁చేయబడిన	-9.68161
▁నీవు	-9.68169
id	-9.68261
▁వివరించ	-9.68262
పాల	-9.68404
▁లభించింది	-9.68487
వార్	-9.68589
భాగం	-9.68609
U	-9.68665
▁జన్మించారు	-9.68665
▁భక్తి	-9.68688
కార్	-9.68703
ల్లె	-9.68748
▁సార	-9.68773
మయిన	-9.68808
సేన	-9.68843
జాల	-9.68978
▁ఉండాలి	-9.69024
▁అవుతుంది	-9.69064
63	-9.6907
డ్డ	-9.69178
64	-9.69184
వాన్	-9.69192
37	-9.69281
చూ	-9.69309
▁ఉద్యోగ	-9.69347
▁శబ్ద	-9.69356
రస	-9.69381
▁మనిషి	-9.69387
ినప్పుడు	-9.69388
ాధికార	-9.6939
▁రంగంలో	-9.695
పుర	-9.69513
ma	-9.6952
▁దిగువ	-9.69608
చర్	-9.69668
▁పద్మ	-9.69672
▁టె	-9.69672
▁వెల్	-9.69696
▁ఉపయోగించి	-9.69712
▁కాపాడ	-9.6973
▁సర్వీసు	-9.69851
▁జే	-9.69867
▁దిన	-9.69874
డంలో	-9.69889
శు	-9.69948
ాలయం	-9.70067
51	-9.70106
కరమైన	-9.70124
▁జిల్లాలోని	-9.70152
▁పురాణ	-9.70203
▁కోరిక	-9.70253
▁పరమ	-9.70258
▁నృత్య	-9.70275
44	-9.70295
▁భీమ	-9.70309
ికి	-9.70313
కూరు	-9.70344
▁ఖర్చు	-9.70354
▁45	-9.70378
▁ఉండగా	-9.70393
డాన్ని	-9.70398
▁భారత్	-9.70408
▁చేరి	-9.70415
నీయ	-9.70418
▁ప్రయత్నించ	-9.70427
▁ప్రదేశం	-9.70442
▁ఆస్ట్రేలియా	-9.70443
▁సరి	-9.70446
41	-9.70567
▁కమిటీ	-9.706
▁లకు	-9.70746
▁పిల్లలు	-9.70775
▁పారి	-9.70808
58	-9.70825
లక	-9.70839
▁దైవ	-9.70842
▁ప్రొ	-9.70852
▁అభి	-9.70969
ుకోవడానికి	-9.71025
36	-9.71026
చర	-9.71035
▁రిపబ్లిక్	-9.71045
▁అనంత	-9.7106
▁స్కూల్	-9.71103
▁ఇచ్చిన	-9.71149
దన	-9.71153
శ్రీ	-9.71214
▁జీ	-9.71373
▁వారిలో	-9.71381
▁ఆలయంలో	-9.71413
▁దుర్	-9.71432
ుకు	-9.71506
పర	-9.71539
hi	-9.71622
కుంట	-9.71629
▁శిల్ప	-9.7164
సిన	-9.71668
▁మధ్యలో	-9.71681
▁స్థిర	-9.71688
దర్	-9.71717
67	-9.71737
▁నిర్మాత	-9.7174
▁ఉపగ్రహ	-9.71752
శ్ర	-9.71783
▁ప్రశ్న	-9.71787
39	-9.71787
వలన	-9.71792
sh	-9.71861
ంటారు	-9.71885
▁తీ	-9.71965
▁పుష్ప	-9.71972
ఖా	-9.71995
▁సుందర	-9.72093
▁సభ్యుల	-9.72119
▁మీటర్ల	-9.72166
విద్య	-9.72198
▁పుట్టిన	-9.72232
▁ప్లే	-9.72254
▁స్వర	-9.72329
▁అన్నది	-9.72366
పల్లెలో	-9.72385
G	-9.72436
▁ప్రాంతీయ	-9.72454
ాంతర	-9.72459
▁52	-9.72517
▁సాధించింది	-9.72531
▁పుణ్య	-9.72573
▁గతంలో	-9.72604
బద్ధ	-9.72693
▁అందువలన	-9.72726
▁ఫె	-9.72741
▁మిలియన్ల	-9.72745
▁కొంతమంది	-9.72753
పూ	-9.72778
46	-9.72836
49	-9.72867
▁వాతావరణం	-9.72871
గీ	-9.72904
ఫో	-9.72939
▁సాంఘిక	-9.73075
ిగా	-9.73083
▁క్రికెట్	-9.73143
పాడులో	-9.73154
▁at	-9.73221
ూరులో	-9.73247
▁ముందుగా	-9.73275
▁రచనలు	-9.73296
▁దర్శకుడు	-9.73307
రాన్	-9.73329
ir	-9.73334
▁స్వంత	-9.73374
ia	-9.73514
62	-9.73587
▁వర్గం	-9.73597
▁విష	-9.73689
▁పనిచేశాడు	-9.73761
▁లాల్	-9.73778
▁నియమ	-9.738
ానంద	-9.73844
▁ప్రాజెక్టు	-9.73849
సిస్	-9.73852
ల్ని	-9.73886
▁నాకు	-9.73887
▁దూరములో	-9.73887
▁స్త్రీలు	-9.73957
▁నీటిని	-9.74037
▁లక్ష్మీ	-9.7406
▁అర్ధం	-9.74141
▁గంగ	-9.74289
నప్పటికీ	-9.74334
▁సాగు	-9.74364
V	-9.74411
▁వదిలి	-9.74436
▁కణ	-9.74485
ఈ	-9.74492
72	-9.74505
▁అంతా	-9.74593
ist	-9.74635
▁ప్రో	-9.74666
▁ప్రత్యేకంగా	-9.74675
▁పొందాడు	-9.74709
▁నామ	-9.74712
సారి	-9.74752
▁అఫ్	-9.74758
▁స్టా	-9.74759
ందే	-9.74839
జన్	-9.75064
▁ఏర్పడింది	-9.75105
38	-9.75121
▁పన్ను	-9.75147
▁ఉండేవి	-9.75178
▁పెద	-9.75244
▁హెచ్	-9.75245
▁చెరకు	-9.75386
▁గణిత	-9.75434
▁ఆమెను	-9.75472
▁భూగర్భ	-9.75528
▁పూర్వం	-9.75583
▁వాయు	-9.75604
▁యోగ	-9.75611
▁స్టేట్స్	-9.75617
రువు	-9.75643
▁అమరావతి	-9.75646
ాల్సి	-9.7569
▁చేసుకున్న	-9.75697
ేది	-9.75815
సియా	-9.75872
వాస	-9.75921
▁which	-9.75943
▁శాస్త్రం	-9.75953
▁పురస్కారం	-9.75995
▁ప్రాంతాన్ని	-9.76032
▁ఉన్నా	-9.76049
▁విషయంలో	-9.7609
▁నంది	-9.76095
▁ఇలాంటి	-9.7616
పోయే	-9.76167
ంధ	-9.76236
▁చెన్నై	-9.7626
స్తున్న	-9.7629
రాజ్య	-9.76335
52	-9.7634
▁1980	-9.76439
di	-9.76533
▁లోహ	-9.76534
53	-9.76542
▁33	-9.76549
పరమైన	-9.76555
▁నై	-9.76562
▁నటుడు	-9.76581
▁పల్లె	-9.76582
ka	-9.7662
న్య	-9.7664
చో	-9.76687
▁2012	-9.76717
▁ఏరియా	-9.76748
ముతో	-9.76774
▁కన్నడ	-9.76813
రాయి	-9.76819
న్నారు	-9.7685
పించ	-9.76859
▁నిర్ణయ	-9.76954
▁వంట	-9.76958
▁చారిత్రక	-9.76973
▁ప్రకటించ	-9.77015
▁ఉందని	-9.77073
ంటా	-9.77216
హిత	-9.77323
▁భాగ	-9.7736
▁ఇతను	-9.77376
▁మరణ	-9.77379
▁బరువు	-9.77396
▁అక్కడి	-9.77414
▁శాసన	-9.7744
క్షి	-9.77493
71	-9.77531
▁నిర్వహించిన	-9.77567
▁భావన	-9.77594
▁ప్రవేశించ	-9.77652
▁బర్	-9.77834
▁ప్రయత్న	-9.77842
▁చలన	-9.77861
▁లండన్	-9.7788
▁మార్గ	-9.77895
▁అధ్యక్షుడు	-9.77915
▁పనిచేశారు	-9.77929
టై	-9.77951
దిగా	-9.77954
ెం	-9.78072
▁క్రమ	-9.78078
దారు	-9.78112
▁దాన్ని	-9.78182
59	-9.78221
34	-9.7824
▁చేతిలో	-9.78273
తుంది	-9.78275
స్టా	-9.78289
చన	-9.78293
నాయక	-9.78338
74	-9.784
▁అక్షర	-9.78423
ay	-9.78452
▁సాధించిన	-9.78458
▁పేర్లు	-9.78465
ేంద్ర	-9.78589
▁చీ	-9.78653
ుడికి	-9.78702
ఫీ	-9.78803
▁పారిశ్రామిక	-9.78804
▁ఆమ్లం	-9.78824
ించు	-9.78824
లియా	-9.78829
▁మారు	-9.78853
▁గ్రామీణ	-9.78896
▁నివేదిక	-9.79032
లిన్	-9.79064
ine	-9.79084
లిక	-9.79196
▁తీస	-9.7922
షీ	-9.79357
▁కడప	-9.79375
▁పర్యాటక	-9.79405
షు	-9.79418
రిక్	-9.79428
▁మనసు	-9.79471
ate	-9.79476
ఆర్	-9.79479
▁అడ్డ	-9.79516
స్య	-9.79674
వని	-9.79677
ాంగ	-9.79757
▁ప్రయత్నం	-9.7976
పాద	-9.7976
▁పదార్థం	-9.79776
▁మగ	-9.79863
▁చివరకు	-9.7988
నామ	-9.79924
▁విన	-9.79959
▁ఫ్రెంచ్	-9.79992
▁సంబంధిత	-9.80015
na	-9.80022
పోయారు	-9.80024
▁తేడా	-9.80029
వల	-9.80041
▁కలిగించ	-9.8009
▁ఆమెకు	-9.80104
66	-9.80163
సార	-9.80184
▁జైలు	-9.80272
▁it	-9.80319
ర్లు	-9.80409
▁36	-9.80418
▁ఇండియన్	-9.80439
▁కేసు	-9.8045
మణి	-9.80453
▁పలక	-9.80501
భి	-9.80509
ియన్	-9.80553
ne	-9.80592
్ని	-9.80622
▁బాణ	-9.80633
ప్రా	-9.80642
ఐ	-9.80644
బడ్డ	-9.80672
ారా	-9.80738
స్తాడు	-9.80753
భ్య	-9.80825
ఖ్	-9.80962
పడి	-9.80973
▁బయట	-9.81047
లిక్	-9.81144
దె	-9.81259
▁వర్ణించ	-9.81278
ందా	-9.81305
▁విడి	-9.81316
▁చూస	-9.81388
▁దేశాలు	-9.81398
బడ్డారు	-9.81403
▁నూ	-9.81588
▁తయార	-9.81606
▁దశలో	-9.81642
▁కొనసాగించ	-9.81748
▁జై	-9.81766
▁దీప	-9.81772
పరు	-9.81774
▁దక్క	-9.81789
▁పొడి	-9.81803
▁కావ్య	-9.81826
▁తగిన	-9.81907
నము	-9.8195
దల	-9.81992
▁అడవి	-9.82011
op	-9.82043
గర్	-9.82049
▁మామిడి	-9.82071
▁డో	-9.82074
▁మ్యాచ్	-9.82127
em	-9.82187
▁సమాచార	-9.82237
ైనా	-9.82253
▁సీత	-9.82269
▁80	-9.82349
▁తిన	-9.82365
మార్	-9.82383
▁ఏర్పరచ	-9.82397
▁కార్యక్రమాలు	-9.82419
వడం	-9.82499
▁గాను	-9.82505
▁హత్య	-9.82544
ప్రాథమిక	-9.82594
వల్ల	-9.82646
▁మిశ్రమ	-9.82647
▁అనుభవ	-9.82661
▁ప్రాధాన్యత	-9.82714
కంటే	-9.82746
ులతో	-9.82756
▁వేసి	-9.82773
▁మర	-9.82793
▁మార్పులు	-9.82847
▁కరీంనగర్	-9.82856
▁నరసింహ	-9.82924
▁మట్టి	-9.82929
▁టో	-9.82932
78	-9.82976
▁సోవియట్	-9.83033
కొన	-9.8305
▁పుస్తకం	-9.83134
▁కుటుంబం	-9.8316
▁°	-9.8317
▁యాత్ర	-9.83219
▁జాతుల	-9.83247
▁కన్న	-9.83262
▁వీలు	-9.83303
ve	-9.83305
మయ	-9.83332
ట్రా	-9.83362
▁జనరల్	-9.83366
▁పచ్చ	-9.83372
▁అగ్ర	-9.83507
▁In	-9.83507
ుకుంటూ	-9.83517
x	-9.83518
▁మాన్	-9.83553
▁ఎఫ్	-9.83594
▁వరల్డ్	-9.83613
est	-9.83644
▁దేవి	-9.83689
▁యజ్ఞ	-9.83727
▁మళ్ళీ	-9.83817
▁ఛ	-9.83876
▁ప్రథమ	-9.83892
▁వేంకట	-9.83938
▁కోర్టు	-9.83944
ున్నారు	-9.83955
▁యి	-9.83989
▁పాలు	-9.84019
▁నంద	-9.84132
ండర్	-9.84135
▁రేఖ	-9.84156
000	-9.8423
▁వర్ష	-9.84236
▁అందుకే	-9.84241
ుకుంటున్న	-9.84243
▁సేవలు	-9.84285
▁నిల్వ	-9.84325
శాఖ	-9.84334
▁పవిత్ర	-9.84365
▁నిజామాబాద్	-9.84427
▁ప్రభావ	-9.84473
▁సింహ	-9.84512
▁ప్రమాద	-9.84527
▁వయసు	-9.84539
57	-9.84551
బడుతున్న	-9.84575
▁విష్ణు	-9.8458
▁తెచ్చ	-9.84642
ac	-9.84651
▁బౌ	-9.84656
ుడై	-9.84736
▁సామెత	-9.84752
▁అంగ	-9.84774
▁విమాన	-9.84818
▁పొర	-9.84881
▁గ్రీకు	-9.84938
▁వరుస	-9.84961
▁ఇంద్ర	-9.85037
▁జరిగాయి	-9.85053
▁ఇరు	-9.85129
▁అధికారిక	-9.85138
ేలా	-9.85168
ధర్మ	-9.85168
▁కనిపించే	-9.85191
▁బార్	-9.85198
▁వస్తువు	-9.85227
▁2003	-9.85282
▁బ్యా	-9.85322
కింగ్	-9.85355
ొక్క	-9.85367
ాలయ	-9.85375
పులు	-9.85404
▁మాజీ	-9.85426
వెన్	-9.85438
▁ప్రవక్త	-9.8544
ైతే	-9.85462
గుంట	-9.85469
▁అడుగుల	-9.85524
హీ	-9.85594
▁మనకు	-9.85615
▁పోలి	-9.85615
▁జానపద	-9.85622
ow	-9.85652
▁ఉదాహరణ	-9.85658
▁తెల్ల	-9.85677
▁పరిపాలన	-9.85693
▁వచ్చాయి	-9.85715
ers	-9.85739
కట్ట	-9.85793
▁వృద్ధి	-9.85823
ంటె	-9.86049
▁తగ్గి	-9.86078
▁అలీ	-9.861
▁దర్శకత్వంలో	-9.8619
స్టి	-9.86195
▁ఉపయోగించే	-9.86292
రాం	-9.86312
హార	-9.86384
వచ్చ	-9.86403
▁పెట్టి	-9.86417
డియా	-9.86425
▁ఉష్ణ	-9.86442
▁చంద	-9.86487
కంగా	-9.86499
▁తీసుకుని	-9.86522
▁విస్తరించ	-9.86535
క్షన్	-9.8659
▁సగటు	-9.86609
▁చూపించ	-9.8676
గన్	-9.86784
▁ఘ	-9.86929
▁వీరికి	-9.86982
ధ్	-9.86999
▁వెళ్లి	-9.87107
▁క్ల	-9.87146
ార్ధ	-9.87179
▁సుఖ	-9.87211
▁ప్రతిపాదించ	-9.87279
▁సెంటర్	-9.87292
▁this	-9.87425
▁భవన	-9.87463
▁వుండును	-9.87515
▁1970	-9.87571
▁పాద	-9.87598
▁ఇచ్చే	-9.87624
▁ఒకటిగా	-9.87631
ot	-9.87662
▁జైన	-9.87701
▁క్లా	-9.87714
▁సిటీ	-9.87762
▁వ్యాసాల	-9.87803
ru	-9.87808
▁సంబంధించి	-9.87818
▁వుండ	-9.87821
ాల్సిన	-9.87831
పోయాడు	-9.87851
▁నటి	-9.87947
▁మొదలగు	-9.8798
▁ఏర్పడ	-9.88008
▁వాతావరణ	-9.88037
కాంత	-9.88048
▁గుండె	-9.8815
▁రక్షించ	-9.88174
సై	-9.88188
▁ఇచ్చి	-9.88196
▁సౌ	-9.88212
▁రోగ	-9.88225
▁కార్యక్రమాల	-9.8826
▁బహుమతి	-9.88284
▁చర్చ	-9.88352
▁మన్	-9.88372
▁బెంగాల్	-9.88506
▁కంది	-9.88529
▁తీవ్ర	-9.88547
ity	-9.88599
▁నాట్య	-9.88603
యల్	-9.88645
▁వివరణ	-9.88657
రాలు	-9.88688
▁సమాచారం	-9.88702
▁లోక	-9.88718
▁పొట్టి	-9.88728
▁హాస్య	-9.88766
▁ప్రారంభంలో	-9.88798
ారంలో	-9.88925
▁స్వీకరించ	-9.88938
▁తీసి	-9.88946
స్థాన	-9.88951
▁రస	-9.88973
▁సంపద	-9.88976
తలు	-9.88978
▁పర్యావరణ	-9.88992
▁శైలి	-9.89027
▁పాల్గొన	-9.89036
▁పనులు	-9.89067
▁శాస్త్రవేత్త	-9.89075
ష్ఠ	-9.89103
▁37	-9.89139
రొ	-9.89168
▁తేదీన	-9.89177
▁పరిస్థితుల	-9.89183
▁చెప్పి	-9.89186
▁పాలనలో	-9.89205
▁ఆయా	-9.89226
▁ప్రత్యక్ష	-9.89253
▁సహాయం	-9.8928
▁తత్వ	-9.89294
▁సంకేత	-9.89296
▁ఖా	-9.89302
▁నెట్	-9.8934
▁ప్రచురించ	-9.89352
▁పోరాట	-9.89379
▁తమిళనాడు	-9.89388
▁మానసిక	-9.89408
▁రోజున	-9.89512
▁విద్యుత్తు	-9.89633
om	-9.89641
▁పరా	-9.89661
▁ఎటువంటి	-9.89691
▁వృత్త	-9.89711
▁పార్	-9.89713
కలు	-9.89736
▁జంతువుల	-9.89751
▁వేదిక	-9.89828
పాలెంలో	-9.89851
టంతో	-9.89874
▁రాతి	-9.89914
▁వెబ్	-9.9003
▁విషయాల	-9.90032
▁వేర్	-9.90038
▁మండ	-9.90112
▁నటించిన	-9.90178
పట్ట	-9.90182
▁శ్రీలంక	-9.9023
▁కెనడా	-9.9032
▁నాయకుడు	-9.90363
▁దివ్య	-9.90473
బడ్డాడు	-9.90477
▁మహారాష్ట్ర	-9.90533
73	-9.90557
▁pro	-9.90628
▁మొక్కల	-9.90631
▁గర్భ	-9.90641
▁అందు	-9.90703
▁నిర్మల్	-9.9072
▁లోక్	-9.90742
సింగ్	-9.90769
▁అడుగు	-9.90779
▁పనిచేయ	-9.90798
మ్స్	-9.90801
▁ఇచ్చారు	-9.90836
▁కేంద్రంగా	-9.9086
నుంచి	-9.90868
▁రకం	-9.90881
పోయాయి	-9.90888
▁వాస్తవ	-9.9089
▁గుర	-9.91001
▁కార్యక్రమం	-9.91016
▁ఆధ్వర్యంలో	-9.91086
పాక	-9.9109
ణీ	-9.91131
▁ఉద్యమం	-9.91136
▁సరైన	-9.91144
▁బ్రిటన్	-9.9121
వరంలో	-9.91249
▁సెల్	-9.91282
▁సృష్టి	-9.91345
▁మరణం	-9.91377
వేశ	-9.91379
▁సాహిత్యం	-9.91424
▁మిరప	-9.91434
హర	-9.91452
▁పరిధిలోకి	-9.91453
▁ఉండడం	-9.91459
▁ఉపాధ్యాయ	-9.9148
గ్గు	-9.9151
పేటలో	-9.91542
▁విద్యార్థులు	-9.91545
ర్తి	-9.91568
▁గానీ	-9.91592
లని	-9.91617
▁ట	-9.91753
▁ఇంటర్	-9.9176
▁ఉన్నప్పటికీ	-9.9185
▁వచ్చారు	-9.91871
ak	-9.91918
age	-9.91948
▁విధించ	-9.91999
lu	-9.92006
▁ద్వీప	-9.92012
▁తెలిసిన	-9.92018
▁కనుగొన	-9.92042
▁వీడియో	-9.9207
▁ఉన్నట్లు	-9.92072
▁తెలి	-9.92087
▁వాడుకలో	-9.92099
చేత	-9.92171
▁సొ	-9.922
▁భూభాగం	-9.92242
▁నెలల	-9.92254
▁నిలిచి	-9.92256
▁కథా	-9.92277
ంటుంది	-9.92281
యోగ	-9.92328
సెస్	-9.92341
▁లోపల	-9.92393
▁అమెరికాలో	-9.92398
▁లై	-9.9247
▁సత్	-9.92488
త్స	-9.92531
ఫర్	-9.92623
రన్	-9.92671
▁డివిజన్	-9.92676
▁చేసుకుంట	-9.92736
ారం	-9.92774
వైన	-9.92799
ాకార	-9.92804
▁నట	-9.92856
నూరు	-9.92862
స్వ	-9.92935
▁పులి	-9.93118
▁కత	-9.9313
హు	-9.93135
ుతుందని	-9.93154
▁ఆక్రమించ	-9.93159
ంచే	-9.93252
▁కూడ	-9.93272
lo	-9.93281
▁దో	-9.93315
గూడ	-9.93386
గ్రహ	-9.93416
ci	-9.93444
▁ex	-9.9345
ందో	-9.93501
▁కై	-9.93521
స్తుందని	-9.93535
▁రాజ్యాంగ	-9.93611
మంత	-9.93618
▁ఇటువంటి	-9.93633
▁డాక్టర్	-9.93668
▁క్రమంగా	-9.93734
బల	-9.93753
క్ర	-9.93777
శం	-9.93779
▁జీవితంలో	-9.93781
ిణి	-9.93793
▁గ్రంథం	-9.93822
▁తీయ	-9.93832
క్సి	-9.93902
▁ధర్మరాజు	-9.93904
▁అధికారం	-9.93982
▁స్వరూప	-9.93995
▁వివర	-9.94003
end	-9.94076
▁ప్రైవేట్	-9.94093
▁పాత్రలు	-9.94182
▁యో	-9.94183
ca	-9.94223
▁పుస్తకాల	-9.94263
{	-9.9429
మవుతుంది	-9.9429
▁వాళ్ళ	-9.94296
▁లీగ్	-9.94303
▁తెలుస	-9.94358
▁||	-9.94373
చ్చే	-9.94382
కథ	-9.94414
నికి	-9.94441
▁34	-9.94501
▁పోరాడ	-9.94523
▁పదవి	-9.94535
▁ma	-9.94564
▁సంస్థల	-9.94576
వేద	-9.946
▁రాష్ట్రంలోని	-9.94603
▁నేర్చ	-9.94604
ేరు	-9.94682
▁ప్రాంతానికి	-9.94779
||	-9.94805
డ్స్	-9.94849
-2	-9.94875
శ్వ	-9.94892
▁భావిస్తారు	-9.9491
▁పర్	-9.94921
రేట్	-9.94939
▁కళ్యాణ	-9.94944
▁ఎనిమిది	-9.94969
im	-9.95006
▁ప్రాముఖ్యత	-9.95026
▁రాజమండ్రి	-9.95049
▁ట్ర	-9.95091
▁ప్రచారం	-9.95104
జ్ఞాన	-9.9511
పల్లిలోను	-9.95118
▁బయటకు	-9.95142
మాల	-9.95216
▁వస్తున్న	-9.95231
ట్లుగా	-9.95244
యము	-9.95251
▁విస్తీర్ణం	-9.95253
▁నదీ	-9.95274
▁శక్తిని	-9.9529
▁రోజుల్లో	-9.95296
నియన్	-9.95323
ప్త	-9.9539
▁పేద	-9.95479
▁లక్ష్మణ	-9.95482
▁విద్యార్థి	-9.95492
గొండ	-9.955
▁ప్రి	-9.95503
పైన	-9.95506
▁స్టీ	-9.95571
▁అణు	-9.95671
▁దర్శించ	-9.95693
ంక్	-9.95764
▁రాజ్	-9.95777
▁ఉద్	-9.95783
▁వేడుక	-9.95794
ుచు	-9.95794
గానూ	-9.95845
▁మిగతా	-9.95853
▁కాశీ	-9.95868
▁యూరోపియన్	-9.95877
▁శాస్త్రి	-9.95891
▁డబ్బు	-9.95895
▁హే	-9.95908
▁అభ్యర్థి	-9.9594
▁మరణించాడు	-9.95969
దూ	-9.96125
▁దిగ	-9.96172
▁US	-9.96179
▁గుహ	-9.96192
పాత్ర	-9.96285
ధార	-9.96321
మర	-9.9635
▁ఏదైనా	-9.96379
▁ప్రయోగ	-9.96416
ఖ్య	-9.96418
నున్న	-9.9642
▁లక్షణాలు	-9.96482
పోవ	-9.96549
▁తీసుకో	-9.96558
మంతా	-9.96596
కృత	-9.96622
▁ఆధ్యాత్మిక	-9.96622
▁వ్యక్తుల	-9.96631
ైంది	-9.96675
▁వెంట	-9.96709
▁వీరిలో	-9.96809
▁2002	-9.96818
▁గే	-9.96838
▁అనకాపల్లి	-9.96862
ంటూ	-9.96923
ab	-9.96973
▁కలి	-9.96996
▁వద్దకు	-9.97014
మయ్యాయి	-9.97019
▁1999	-9.9703
శీల	-9.97086
▁ఒక్కొక్క	-9.97125
▁పురుషులు	-9.97138
▁ప్రపంచంలోని	-9.97139
▁తేదీ	-9.97216
▁పద్ధతిలో	-9.97262
స్సు	-9.97271
▁ప్రారంభించ	-9.97287
▁ఒకసారి	-9.97378
▁సందర్శించ	-9.9744
లొ	-9.97446
▁రోమన్	-9.97451
▁వ్యా	-9.97457
▁ప్రతీ	-9.97497
రల్	-9.97507
▁వహించ	-9.97534
▁అందరూ	-9.9758
సన	-9.97648
▁జరుగుతున్న	-9.97659
▁రహస్య	-9.97685
చర్ల	-9.97719
▁పోరాటం	-9.97749
▁దేవతల	-9.97768
▁విగ్రహం	-9.97899
▁అశ్వ	-9.97965
▁అంతర్	-9.98006
▁వన	-9.98007
▁ఆప	-9.98069
గూడెం	-9.9808
లపాడు	-9.98116
▁సెయింట్	-9.98179
▁విశ్వవిద్యాలయ	-9.98228
▁అప్ప	-9.98245
▁దండ	-9.98259
▁అమర్చ	-9.98289
▁ప్యా	-9.98317
పట్నం	-9.98377
▁స్వాధీనం	-9.98435
▁ముందుకు	-9.98459
ండును	-9.98466
▁దుకాణాలు	-9.98476
▁లక్ష్య	-9.98524
▁చెబుత	-9.98542
▁మౌ	-9.98624
▁అంశాల	-9.9867
ఫే	-9.98787
▁చేసుకుని	-9.98842
▁స్వయంగా	-9.98848
▁1960	-9.98848
కొని	-9.98911
▁మిత్ర	-9.9893
▁కలుగ	-9.99005
▁చౌ	-9.99047
▁పురుష	-9.99064
▁టెలివిజన్	-9.99092
▁కర్	-9.991
▁రామారావు	-9.99111
▁ఫో	-9.9913
▁ఫ్రాన్స్	-9.99139
▁చెరువులు	-9.99151
▁సంఖ్యలో	-9.9916
▁సాంప్రదాయ	-9.99195
నకు	-9.99206
▁38	-9.9928
▁పాడేరులోనూ	-9.99284
ుతున్నారు	-9.99309
▁సందేశ	-9.9931
▁సైన్య	-9.99316
ంద్ర	-9.99342
▁రాక్షస	-9.99366
▁రాస	-9.99417
ant	-9.99424
▁ఉన్నప్పుడు	-9.99441
▁దర్	-9.99464
▁చూసిన	-9.9947
▁ప్రోత్సహించ	-9.99509
▁చెల్లించ	-9.9955
▁నాయక	-9.99558
▁సేన	-9.99581
▁విభాగం	-9.99582
▁మంచు	-9.99605
▁మల	-9.99617
▁లభించ	-9.99646
యన	-9.99658
▁ఆరంభ	-9.99671
▁తిరుగు	-9.99671
▁రావ	-9.99676
▁చూ	-9.99684
▁కొనుగోలు	-9.99719
▁ఉప్పు	-9.99754
▁విశిష్ట	-9.99761
▁వాద	-9.99823
▁వార్	-9.99856
సమ	-9.99875
▁మొదల	-9.99936
ురాలు	-9.99985
ఫై	-10.0003
ఖండ	-10.0003
▁రద్దు	-10.0005
▁70	-10.0007
▁పండ	-10.0008
▁కావలసిన	-10.0014
▁అలాంటి	-10.0018
▁లతో	-10.0019
▁సిద్ధాంత	-10.0024
కన్	-10.0027
దగిన	-10.0028
▁తీసుకొని	-10.0033
▁క్లబ్	-10.0036
బూ	-10.004
భూత	-10.0045
▁తూర్పున	-10.0047
బొ	-10.0053
▁1950	-10.0054
ంటాడు	-10.0056
ంతి	-10.0057
▁జారీ	-10.0059
▁నిజ	-10.006
▁సమితి	-10.0065
▁తాము	-10.0067
▁అంతే	-10.007
▁ట్రా	-10.0072
▁విభిన్న	-10.0073
లింగ	-10.0075
▁తీర్చ	-10.0085
ిరెడ్డి	-10.0086
తకు	-10.009
ద్ది	-10.0091
▁సరస్సు	-10.0095
▁కొత్తగా	-10.0098
ున్నాయి	-10.0101
చిత్ర	-10.0101
he	-10.0103
W	-10.0113
▁వెలి	-10.0113
▁శాశ్వత	-10.0115
కృతి	-10.0116
ge	-10.0116
▁42	-10.0118
▁ముద్ర	-10.012
▁కేరళ	-10.012
▁చెప్పారు	-10.0121
ప్రపంచవ్యాప్తంగా	-10.0133
▁ఇజ్రాయిల్	-10.0145
style	-10.015
▁గమనించ	-10.015
▁విధమైన	-10.0152
▁2014,	-10.0154
▁నటించ	-10.0154
రాష్ట్ర	-10.0157
▁జవాహర్	-10.0158
▁ప్రభ	-10.0161
▁ప్రత్యేకత	-10.0168
▁బొమ్మ	-10.0178
▁శంకర	-10.0181
▁మండలాలు	-10.0181
▁తీవ్రమైన	-10.0185
▁అవసర	-10.0187
ియా	-10.0187
యాన	-10.0187
▁2015,	-10.0187
▁అంట	-10.0189
▁సీతారామ	-10.019
లాండ్	-10.0191
82	-10.0194
▁ఆశ	-10.0196
చ్చు	-10.0204
▁not	-10.0205
▁చిక్క	-10.0206
▁స్వా	-10.0207
▁రాణి	-10.0207
నాథ్	-10.0211
లుగు	-10.0213
క్కి	-10.0217
ప్పటి	-10.0232
▁వుంటుంది	-10.0234
▁చదువ	-10.0238
ాపురంలో	-10.0239
▁వరుసగా	-10.0241
▁2015	-10.0242
▁ఊరి	-10.0244
▁తోట	-10.0246
భారత	-10.0246
▁ఎన్న	-10.0249
▁అభిమాన	-10.025
పూరు	-10.025
▁ప్రత్యేకమైన	-10.0261
-20	-10.0262
లక్ష్మి	-10.0264
▁స్టేట్	-10.0267
ములకు	-10.0271
▁సింగ	-10.0279
▁భక్తుల	-10.0279
▁సూచిస్తుంది	-10.0279
దారులు	-10.028
▁నార్	-10.0289
రావ	-10.0291
▁అమ్మవారి	-10.0291
ర్థ	-10.0295
▁దృశ్య	-10.0303
య్యే	-10.0305
▁ఇటీవల	-10.0307
▁ఏమి	-10.0307
▁వ్యవహరించ	-10.031
నాలు	-10.0313
▁హౌస్	-10.032
స్థాయి	-10.0323
▁పార	-10.0329
▁నాయుడు	-10.0332
గత	-10.0345
▁నటించారు	-10.0346
▁కనీసం	-10.0348
ుతు	-10.0349
▁అందిస్తుంది	-10.0352
▁దేశంలోని	-10.0352
▁ప్రభావితం	-10.0356
▁రాష్ట్రాల	-10.0358
▁సీజన్	-10.0359
▁శతాబ్దాల	-10.0361
దురు	-10.0361
▁ప్రేక్షకుల	-10.0361
వెల్	-10.0363
▁రోడ్	-10.0364
టువంటి	-10.0365
గొట్ట	-10.0372
▁ఎన్నికైన	-10.0374
▁పనిచేసే	-10.0376
▁పుత్ర	-10.0379
ింగ్	-10.0379
ట్రో	-10.0384
▁సన్న	-10.0384
▁శ్రీరాములు	-10.0395
▁ప్రదర్శ	-10.0397
బడు	-10.04
డూ	-10.04
▁చాలామంది	-10.0402
▁బూ	-10.0403
▁హాజర	-10.0411
మూల	-10.0414
▁కొనసాగింది	-10.0427
యాత్ర	-10.0438
▁జర్మన్	-10.044
నింగ్	-10.0442
▁ప్రారంభించాడు	-10.0442
▁చేస్తాయి	-10.0447
▁తరచూ	-10.0454
▁హక్కు	-10.0458
▁53	-10.0464
▁రామకృష్ణ	-10.0464
▁మరణించ	-10.0466
యొక్క	-10.0469
▁వాడి	-10.047
గతి	-10.0474
▁వేగంగా	-10.0477
తున్న	-10.0478
ence	-10.0485
▁కూర	-10.0489
▁చివరికి	-10.0496
▁ఆదాయం	-10.0499
ండ్ర	-10.0505
▁హక్కుల	-10.0506
▁ఆమ్ల	-10.0512
▁రుద్ర	-10.0512
పేరు	-10.0512
▁విని	-10.0519
▁ఎన్నిక	-10.0519
▁రూపం	-10.0521
ill	-10.0521
▁200	-10.0521
▁పైకి	-10.0528
▁మించి	-10.0533
▁కాన్	-10.0534
▁బెల్	-10.0536
బడుతున్నాయి	-10.0552
కూడా	-10.0555
ంపేట	-10.0557
▁కాకినాడ	-10.0559
▁వేట	-10.056
▁హృదయ	-10.0564
ాత్మ	-10.0565
వలె	-10.0567
▁విజయనగర	-10.0568
▁మార్గము	-10.0569
▁సాధించాడు	-10.0572
▁సెంట్రల్	-10.0573
రిగి	-10.0575
▁ఋణ	-10.0576
▁తీసుకొ	-10.0581
త్రి	-10.0586
▁హార్	-10.0586
▁రచనల	-10.0588
▁బలమైన	-10.0597
ాభి	-10.06
▁వయస్సు	-10.0609
ea	-10.0609
▁పేర్కొన	-10.061
ాబాద్	-10.0611
▁బిల్	-10.0611
ాలపై	-10.0612
▁పరిగణించ	-10.0612
▁వయసులో	-10.0619
▁ఎన్నికల	-10.0622
▁తదితర	-10.0622
▁నౌక	-10.0626
స్థితి	-10.0629
క్షేత్ర	-10.0631
రుగ	-10.0631
▁తరలించ	-10.0635
▁దాన	-10.0639
▁ప్రచురణ	-10.064
▁నష్ట	-10.064
▁ఫోర్	-10.0642
▁వ్రాస	-10.0644
▁ప్రాంతము	-10.0649
ాంధ్ర	-10.0652
ధాన	-10.0654
▁శ్రీరామ	-10.0655
▁దేవత	-10.0656
▁సంతోష	-10.0657
▁పొంది	-10.0661
▁నిలిచింది	-10.0661
▁తిమ్మ	-10.0662
తిని	-10.0668
▁విషయ	-10.0668
▁ఉద్యోగం	-10.0671
ధారణ	-10.0675
▁సస్యరక్షణ	-10.0675
▁బహుళ	-10.0681
రస్	-10.0683
ాలంటే	-10.0683
▁రాజులు	-10.0687
▁భక్త	-10.0688
▁ఉండదు	-10.0692
ెదరు	-10.0693
▁అంతరిక్ష	-10.0693
ింపు	-10.0695
▁ప్రయాణం	-10.0696
దారుల	-10.07
దార్	-10.0701
▁రకమైన	-10.0703
▁వాటికి	-10.0706
ంటాయి	-10.0707
▁పక్క	-10.0708
్వా	-10.0709
▁పెట్టారు	-10.071
ast	-10.0719
▁మొక్కలు	-10.0724
▁ఏకైక	-10.0725
▁బ్లాక్	-10.073
▁విభజించ	-10.0731
▁సిద్ధాంతం	-10.0731
▁ప్ల	-10.0733
▁విష్ణువు	-10.0734
▁నీకు	-10.0746
▁పేర	-10.0752
▁పార్లమెంటు	-10.0752
▁మద	-10.0752
ువాడు	-10.0754
▁ఆధార	-10.0756
▁కాలేదు	-10.0756
▁సంఘటన	-10.0761
▁ఓడ	-10.0762
కాని	-10.0769
▁ఎండ	-10.0769
▁పద్య	-10.0772
▁విధ	-10.0775
▁ఉత్తరాన	-10.078
ell	-10.078
▁సంవత్సర	-10.0786
▁మిల్	-10.0788
▁ఉదా	-10.0791
ear	-10.0792
▁ప్రజాదరణ	-10.0798
▁దేశానికి	-10.0803
▁కారు	-10.0811
విన్	-10.0814
▁అంటూ	-10.0814
▁కాయ	-10.0815
▁నక్షత్రం	-10.0825
ంచె	-10.083
▁ప్రతిష్ఠ	-10.083
▁అంతర్గత	-10.0835
▁ఏలూరు	-10.0835
క్తి	-10.0838
▁నగరానికి	-10.0838
ోప	-10.0838
▁ప్రఖ్యాత	-10.0853
▁స్వల్ప	-10.0857
▁పేర్కొన్నారు	-10.0864
▁ప్రాచుర్యం	-10.0865
▁హీ	-10.0866
య్యారు	-10.0869
▁కింగ్	-10.0873
ుతాడు	-10.0875
▁స్థాపించ	-10.0876
▁హాల్	-10.0878
ంభ	-10.0879
▁భుజ	-10.0881
ర్ధ	-10.0888
▁సూపర్	-10.0891
▁56	-10.0894
▁విప్లవ	-10.0898
▁కొవ్వు	-10.0901
▁సరిహద్దులో	-10.0901
▁స్థానాల	-10.0905
▁స్వాతంత్ర్యం	-10.0906
▁ఆర్ధిక	-10.0919
ధ్ధ	-10.0923
▁సందర్భంలో	-10.0924
▁అభిప్రాయం	-10.0924
విధ	-10.0924
▁నిర	-10.0926
▁లోనే	-10.0927
▁ప్రకటించింది	-10.0933
▁వచ్చాడు	-10.0939
▁రాం	-10.0939
రుగా	-10.0941
▁బుక్	-10.0943
▁శరీరం	-10.0944
ish	-10.0948
కేంద్ర	-10.0951
▁మాన	-10.0952
ుతున్నాయి	-10.0952
▁ప్రారంభమైంది	-10.0954
▁సమర్పించ	-10.0955
▁వర్గ	-10.0958
గ్రామ	-10.0959
▁వచ్చ	-10.0962
code	-10.0962
▁వసతి	-10.0963
▁పట్టా	-10.0964
▁ప్రవేశపెట్ట	-10.0965
▁పేరును	-10.0969
ధీ	-10.097
భేద	-10.0972
భ్ర	-10.0972
▁షో	-10.0975
▁1947	-10.0976
బాటు	-10.0977
▁విద్యార్థుల	-10.0994
▁చేరు	-10.0995
▁జనతా	-10.0995
▁ఫ్రెంచి	-10.0995
▁నాగరికత	-10.0996
▁లేదని	-10.0998
▁ధరించ	-10.1001
▁పరిధి	-10.1001
కరించ	-10.1001
▁పాల్	-10.1004
నాధ	-10.1009
దైన	-10.1012
డెన్	-10.1016
గణ	-10.1017
ుకొనే	-10.1019
▁ప్రియ	-10.1019
▁అంశం	-10.1021
▁దేవాలయ	-10.1021
▁తప్పు	-10.1024
▁పదార్థాల	-10.1024
▁కుమార్	-10.1029
▁విషయాలు	-10.1029
▁అష్ట	-10.1031
▁తరఫున	-10.1033
నంద	-10.1038
▁ముఖ్యమంత్రి	-10.104
▁వినియోగించ	-10.1041
బంధ	-10.1042
▁పరిమాణ	-10.1045
▁కనిపిస్తాయి	-10.1049
j	-10.105
▁ఫోటో	-10.1059
▁సంపాదక	-10.106
▁తను	-10.1062
జాతి	-10.1064
లెట్	-10.107
▁నాటు	-10.1071
▁జన్మించిన	-10.1077
▁నిర్దిష్ట	-10.1079
ధ్వ	-10.108
▁చేసేందుకు	-10.1081
▁దంపతులకు	-10.1082
▁కాలువలు	-10.1085
▁భాషలలో	-10.1094
▁పోత	-10.1098
▁గృహాల	-10.11
▁జంట	-10.11
▁గురి	-10.1104
సార్లు	-10.1104
▁సలహా	-10.1105
లియన్	-10.1113
▁అధికారులు	-10.1114
▁ఎవరి	-10.1114
▁వార్షిక	-10.1122
▁కవిత	-10.1122
▁మెదక్	-10.1127
▁నడి	-10.1137
▁ఉదయం	-10.1141
▁మీదుగా	-10.1144
▁బాబా	-10.1144
ive	-10.1148
ష్య	-10.1149
▁ముందే	-10.1155
రాజ్	-10.1155
పోతున్న	-10.116
▁ఆకర్షణ	-10.116
▁విభజన	-10.116
▁బదులుగా	-10.1164
▁పదాల	-10.117
▁ద్రవ్య	-10.1171
▁యుగ	-10.1183
మైనవి	-10.1186
నట్లు	-10.1188
▁పాలి	-10.1191
వ్యవస్థ	-10.1194
sa	-10.1195
▁గడి	-10.1203
▁పోషించ	-10.1203
▁ప్రార్థన	-10.1208
▁వందల	-10.1209
ొక	-10.121
చేసిన	-10.121
▁దొ	-10.1211
▁చలనచిత్ర	-10.1211
▁కలుప	-10.1213
ద్వారా	-10.1214
▁రత్న	-10.1216
▁కావడం	-10.1217
ుతోంది	-10.122
వద్ద	-10.122
▁అనీ	-10.1226
▁39	-10.1227
▁పార్క్	-10.1231
▁తాత	-10.1237
▁లోపలి	-10.1244
▁డ్ర	-10.1245
▁చేయాలని	-10.1246
దళ	-10.1247
సంబంధ	-10.1249
▁సర్పంచిగా	-10.125
▁శుద్ధ	-10.125
క్రమ	-10.1251
▁వ్య	-10.1251
▁వంతెన	-10.1254
▁తెలుగుదేశం	-10.1254
▁స్టార్	-10.1261
▁తెనాలి	-10.1264
▁కీలక	-10.1264
▁90	-10.1265
ియ	-10.1268
పోవడం	-10.1268
▁అందరి	-10.1271
▁ప్రతిపాదన	-10.1273
▁వాల్	-10.1274
▁సంబంధ	-10.1276
▁సభ్య	-10.1278
▁ఫ్ల	-10.128
▁రౌ	-10.1283
▁తెగ	-10.1284
▁సమాధి	-10.1297
ంబర్	-10.1297
చేశారు	-10.13
వేష	-10.1304
▁సినిమాలు	-10.1307
▁అణువు	-10.1309
▁వివరాలు	-10.1309
ెల	-10.131
ికా	-10.1314
▁అస	-10.1323
ఫల	-10.1325
▁లెక్క	-10.1325
ya	-10.1335
▁44	-10.1336
వాదం	-10.1341
న్నాడు	-10.1344
రహిత	-10.1345
▁శ్రేణి	-10.1346
▁తపస్సు	-10.135
si	-10.1353
▁రాజుల	-10.1355
▁పుస్తకాలు	-10.1361
మిక్	-10.1367
da	-10.137
▁అక్క	-10.1371
▁పెరిగింది	-10.1373
▁వాదన	-10.1378
▁ఎదుర్కొ	-10.1382
▁విధానాన్ని	-10.1394
పూర్లో	-10.14
▁వ్యాపారం	-10.1402
▁సముద్రం	-10.1403
▁గార్	-10.1404
▁మంగళ	-10.1406
▁పరిమాణం	-10.1406
▁ఎదుర	-10.1421
టికి	-10.1426
▁దొంగ	-10.1427
▁1991	-10.1427
▁స్థాపించారు	-10.1427
శీ	-10.1434
▁ప్రకారము	-10.1434
▁వేయుట	-10.1439
▁జనాభాలో	-10.1439
▁ఆచార్య	-10.1441
వల్	-10.1441
-19	-10.1443
▁సమాజం	-10.1445
▁ఫీ	-10.1446
▁చేరాడు	-10.1449
▁ఆచార	-10.1451
డింగ్	-10.1452
▁విశ్వాస	-10.1452
▁అప్పటికే	-10.1453
వల్లి	-10.1454
▁కొంతకాలం	-10.1457
▁పెరుగు	-10.1463
▁మహర్షి	-10.1465
▁మంచిర్యాల	-10.1466
▁అనుమతించ	-10.1467
▁అతనిని	-10.1467
://	-10.1476
▁ఏదో	-10.1478
▁పనుల	-10.1478
టరీ	-10.1478
ఘా	-10.148
▁చేయబడ్డాయి	-10.1487
▁ప్రారంభించింది	-10.1491
వర్ణ	-10.1492
▁రంగం	-10.1493
▁కాలేజీ	-10.1496
ుకొన్న	-10.1499
▁రూపకల్పన	-10.15
▁అదనంగా	-10.1501
▁విశేషం	-10.151
▁అమర	-10.1512
▁ప్రసాద్	-10.1512
యస్	-10.1513
పడ్డారు	-10.1513
▁se	-10.1515
▁అకాడమీ	-10.152
▁కారణాల	-10.152
▁బాబు	-10.1521
▁co	-10.1521
▁రొ	-10.1526
▁అనుసరించ	-10.1527
ap	-10.1527
▁విషయాన్ని	-10.1532
▁సత్యనారాయణ	-10.1535
▁చేయు	-10.1539
▁బ్యాంక్	-10.1541
▁అటు	-10.1542
▁పాటల	-10.1542
▁బృంద	-10.1543
▁చార్	-10.1546
▁తెలుస్తుంది	-10.1549
ళ్	-10.1552
▁తార	-10.1552
ఓ	-10.1554
హే	-10.1557
▁రూపాయల	-10.1558
▁దేశము	-10.156
▁కీర్తి	-10.1563
ందరూ	-10.1569
▁లూ	-10.1577
బై	-10.1581
▁సీతా	-10.1588
▁సమాఖ్య	-10.1589
▁బిరుదు	-10.1594
నపుడు	-10.1594
▁కలప	-10.1597
▁అధికారి	-10.1598
▁కుమార	-10.1599
చేసే	-10.1602
▁రథ	-10.1604
ణ్	-10.1607
సేవ	-10.1612
▁నెలకొల్ప	-10.1613
▁సూచన	-10.1615
▁ప్రాంతాలకు	-10.1617
యింది	-10.1619
▁దేశీయ	-10.1622
▁భవనం	-10.163
▁టెక్	-10.1632
▁కుడి	-10.1634
▁వ్యాప్తి	-10.1635
▁మహిళా	-10.1635
ట్ర	-10.1636
ానికీ	-10.1638
▁ఎల్ల	-10.1638
▁హోదా	-10.1639
మయ్యే	-10.164
తనం	-10.1645
▁తీవ్రంగా	-10.1646
▁మరణించారు	-10.1646
▁జరుగ	-10.1646
▁లిం	-10.1646
కల్ప	-10.1649
▁యుగం	-10.1657
▁తెలంగాణా	-10.166
▁ఆన్	-10.166
త్రా	-10.1661
ల్లీ	-10.1664
షణ	-10.1671
▁చేతుల	-10.1676
▁సాహితీ	-10.1678
ction	-10.1678
డియ	-10.1679
▁పెరుగుదల	-10.1679
▁లోయ	-10.168
▁పనిచేస్తున్న	-10.1681
వాటి	-10.1681
▁పొగాకు	-10.1684
▁వేర్వేరు	-10.1688
▁ఎకరాల	-10.1689
▁ఇచ్చ	-10.1691
va	-10.1699
ాంశ	-10.171
▁దీంతో	-10.1711
▁అన్నీ	-10.1712
▁వరద	-10.1714
▁సన్	-10.1718
▁మోస	-10.1719
▁కొన్నిసార్లు	-10.172
కున్న	-10.1724
iv	-10.1725
ందున	-10.1726
స్సా	-10.1727
▁బలహీన	-10.1728
▁అత్యధికంగా	-10.1728
▁కోప	-10.173
▁ఒకరి	-10.1732
గురు	-10.1736
మ్య	-10.1737
▁ఒత్తిడి	-10.1738
▁ప్రజలను	-10.1738
▁ఎమ్	-10.1739
▁ఇంట్లో	-10.1741
▁బట్ట	-10.1743
▁సాగించ	-10.1746
▁ఎరువులు	-10.1753
ంగో	-10.1755
మనే	-10.1755
▁విల్	-10.1759
▁పదవీ	-10.1762
▁సంబంధాలు	-10.1762
▁మళ్లీ	-10.1763
▁క్రితం	-10.177
▁అడిగ	-10.1771
able	-10.1773
▁విఫల	-10.1773
▁ఇంగ్లీషు	-10.1779
▁చేపట్ట	-10.1779
మధ్య	-10.1781
▁చేసుకున్నారు	-10.1783
▁తప్పించ	-10.1787
▁బ్రి	-10.1793
ాలన్న	-10.1795
▁అరణ్య	-10.1804
▁చేయించ	-10.1808
ఛ	-10.1809
▁పోర్ట్	-10.1817
▁వేసిన	-10.1819
▁me	-10.1823
దాయ	-10.1824
▁దూరంగా	-10.1825
▁ప్రామాణిక	-10.1828
▁క్రమంలో	-10.1829
▁తీసిన	-10.1831
య్యాయి	-10.1835
▁కార్బన్	-10.1835
▁మంట	-10.1835
▁కెమెరా	-10.1838
▁స్వామివారి	-10.1839
ండీ	-10.1842
▁పాశ్చాత్య	-10.1843
టూ	-10.1847
వాడి	-10.1847
ధర	-10.1849
▁ప్రమాదం	-10.185
▁కనిపిస్త	-10.1851
▁భాషలు	-10.1852
▁గజ	-10.1854
▁గ్రంథాల	-10.1855
స్కో	-10.186
▁41	-10.1865
టక	-10.1866
పణ	-10.1871
▁విద్యను	-10.1877
▁పీఠ	-10.1877
టల్	-10.1878
▁నిద్ర	-10.188
▁కొబ్బరి	-10.1884
▁చెందినది	-10.1885
▁నిత్య	-10.1889
▁తద్వారా	-10.1893
▁తాగునీటి	-10.1894
ిందని	-10.1895
▁di	-10.1896
ted	-10.1898
▁ఎత్తైన	-10.1899
▁దాంతో	-10.19
ry	-10.19
▁వహించిన	-10.1904
display	-10.1904
▁విశాఖపట్నంలోను	-10.1908
య్యా	-10.1913
▁పరిసర	-10.1916
▁షి	-10.1918
▁సంతానం	-10.192
▁సూత్ర	-10.192
▁వీధి	-10.1927
▁ద్వి	-10.1933
▁మెరుగు	-10.1933
▁బాధ్యతలు	-10.1933
ion	-10.1937
▁విడ	-10.1939
ga	-10.194
▁సెం	-10.1943
నార్	-10.1946
▁మాట్లాడే	-10.1949
ఎం	-10.1951
కోణ	-10.1953
res	-10.1956
▁షిప్	-10.1957
ేతర	-10.1959
దాన	-10.1961
▁ముంబై	-10.1966
▁వస్తువుల	-10.1969
▁ఇంటర్నేషనల్	-10.1971
▁ప్రయాణించ	-10.1973
మూస	-10.1978
రింగ్	-10.1981
ుకోవచ్చు	-10.1985
మ్ము	-10.1986
▁మార్గంలో	-10.1987
▁స్థాపించబడింది	-10.199
▁క్రీడా	-10.1992
చరిత్ర	-10.1992
▁సున్న	-10.1994
▁కదా	-10.1996
▁చర్యలు	-10.2
▁మేరకు	-10.2003
▁కళాశాలలు	-10.2006
▁his	-10.2008
▁అడవుల	-10.201
▁సైతం	-10.2011
▁నీటిలో	-10.2013
ాద్రి	-10.2019
▁భారతదేశంలోని	-10.2021
▁కంప	-10.2025
▁ఫుట్	-10.2027
▁ప్రకాశ	-10.2028
▁వికారాబాద్	-10.2032
▁సంయోగ	-10.2032
▁వనరులు	-10.2043
ములోని	-10.2044
▁ప్రసంగ	-10.2046
జల	-10.2049
▁సమస్యలు	-10.2051
క్టర్	-10.2051
యైన	-10.206
ver	-10.207
కృష్ణ	-10.2076
▁48	-10.2081
▁వో	-10.2084
టెన్	-10.2085
బ్రహ్మ	-10.2091
ెంట్	-10.2092
▁స్థానాన్ని	-10.2104
▁1998	-10.2105
▁పాము	-10.2107
▁గవర్నర్	-10.2109
▁మ్యా	-10.211
▁పునర్	-10.2112
▁అటువంటి	-10.2115
▁దాటి	-10.2117
▁శేష	-10.2118
▁చుట్ట	-10.2118
వరకూ	-10.2122
▁నమ్మకం	-10.2124
▁తొమ్మిది	-10.2126
▁కప్	-10.2126
▁ప్రతిభ	-10.2126
▁నవాబు	-10.2131
▁వనపర్తి	-10.2131
▁సిం	-10.2138
దాసు	-10.2138
▁చెట్ల	-10.2139
ెన్	-10.214
ep	-10.2142
పక్ష	-10.2148
సులు	-10.2148
▁గురించిన	-10.2156
జీవ	-10.2163
▁సర	-10.2164
▁గది	-10.2168
▁యూనివర్సిటీ	-10.2172
▁అద్భుత	-10.2174
▁క్రియ	-10.2178
▁వినియోగదారు	-10.2178
ణు	-10.218
ul	-10.2186
▁వాడుక	-10.2187
రత్న	-10.2187
▁బోధన	-10.2187
▁ఇచ్చింది	-10.2191
▁సారి	-10.2195
▁సంవత్సరానికి	-10.2198
▁చేయవచ్చు	-10.2201
▁క్రీడ	-10.2204
▁వేరే	-10.2204
▁యే	-10.2205
▁థ	-10.2207
సిద్ధ	-10.2208
▁పురపాలక	-10.2209
▁చేసుకున్నాడు	-10.2211
ud	-10.2215
▁వహించాడు	-10.2218
▁http	-10.222
▁పుర	-10.2223
చంద్ర	-10.2225
నూర్	-10.2226
▁నేటి	-10.2227
▁దొర	-10.2229
▁అర్జునుడు	-10.2232
▁do	-10.2232
▁స్పెయిన్	-10.2235
▁బాల్య	-10.2238
▁ప్రతిబింబ	-10.224
▁శివుడు	-10.2243
▁ఇప్పటి	-10.2246
▁చోటు	-10.2248
మనీ	-10.2257
▁కల్ప	-10.2263
▁నివసించ	-10.2264
స్తంభ	-10.2264
▁మెంట్	-10.2269
▁టెక్నాలజీ	-10.2272
▁ప్రచార	-10.2272
▁బోధించ	-10.2277
▁రుచి	-10.228
▁వు	-10.2281
▁గంగా	-10.2281
▁46	-10.2282
▁హైదరాబాదులో	-10.2282
ట్యూ	-10.2287
▁మరణించిన	-10.2287
▁పట	-10.2292
వంశ	-10.2292
▁విగ్రహ	-10.2294
▁జం	-10.2297
▁క్రీస్తు	-10.2297
పురి	-10.2299
▁జత	-10.2314
▁గోడ	-10.2315
▁ఎలాంటి	-10.2319
▁కొడ	-10.2321
కాండ	-10.2324
▁li	-10.233
▁సమూహం	-10.2332
ుకుంటుంది	-10.2333
▁పెరిగి	-10.2333
▁నటించాడు	-10.2336
▁సూచి	-10.2337
▁నేర్ప	-10.2341
tion	-10.2342
▁పాత్రను	-10.2347
▁కను	-10.2347
ind	-10.2351
▁బిడ్డ	-10.2351
ag	-10.2354
ష్టి	-10.2358
▁కుటుంబంలో	-10.2361
▁శుభ	-10.2361
▁చెన్న	-10.2362
vi	-10.2363
టిల్	-10.2364
▁సంస్థాన	-10.2366
▁ఆమోదించ	-10.237
▁ప్రమాణ	-10.2375
▁రచించ	-10.2378
▁రాఘవ	-10.2384
▁కటక	-10.2388
▁నన్ను	-10.2392
▁ప్రవాహ	-10.2393
▁43	-10.2393
▁ప్రయోగించ	-10.2397
▁పరిపాలించ	-10.24
▁విన్న	-10.2405
▁గుర్తించారు	-10.2407
▁సినిమాల్లో	-10.2409
కన్నా	-10.241
▁చెల్ల	-10.2411
▁అత	-10.2412
▁కార్డు	-10.2414
రాదు	-10.2421
▁చేయుట	-10.2423
▁రైతు	-10.2423
డ్డు	-10.2429
▁అయ్యింది	-10.243
▁అర్జున	-10.2431
▁ముగింపు	-10.2432
our	-10.2434
▁బోర్డు	-10.2442
▁పోలీసు	-10.2444
▁500	-10.2445
▁మణి	-10.2448
చిత	-10.245
▁జీవుల	-10.2451
▁ఆశ్చర్య	-10.2453
▁చైతన్య	-10.2455
▁1996	-10.2464
▁మాటలు	-10.2471
▁వెస్ట్	-10.2474
▁భయం	-10.2476
▁మానవుల	-10.2479
▁బోధ	-10.2484
భద్ర	-10.2485
▁ఏళ్ల	-10.2486
▁యంత్ర	-10.2493
▁చిత్త	-10.2493
▁వెండి	-10.2494
▁ఇంటికి	-10.2494
▁వజ్ర	-10.2495
▁శిష్య	-10.2497
▁వంతు	-10.2499
పేట్	-10.2499
తంత్ర	-10.2502
all	-10.2503
od	-10.2504
గడ్డ	-10.2504
▁చిత్రీకరించ	-10.2506
▁1930	-10.2509
ig	-10.2514
▁దేవుడు	-10.2514
లేదని	-10.2521
▁Ma	-10.2521
కుమార	-10.2524
▁దర్శన	-10.253
▁ఆస్తి	-10.2534
చర్య	-10.2534
▁చు	-10.2539
ారావు	-10.2542
పడ్డాడు	-10.2542
పాయ	-10.2543
▁ఇచ్చాడు	-10.2546
▁పద్ధతుల	-10.2546
ావు	-10.2551
▁ఖనిజ	-10.2552
ాచల	-10.2553
▁క్రొత్త	-10.2556
▁విభాగ	-10.2557
▁సందర్భ	-10.2557
▁గౌతమ	-10.2558
▁వస్త్ర	-10.256
▁నాయకులు	-10.2566
లేరు	-10.2566
▁గొల్ల	-10.2573
▁పూజలు	-10.2574
▁వేగ	-10.2582
కారులు	-10.2583
దేశం	-10.2585
▁ఆకాశ	-10.2599
▁స్థలం	-10.26
▁అమ్మాయి	-10.26
వంతమైన	-10.2601
దాని	-10.2605
▁పరంగా	-10.2605
▁కుటుంబానికి	-10.2606
▁రెండూ	-10.2608
pa	-10.2609
▁అనువదించ	-10.2621
▁j	-10.2622
▁ఇంధన	-10.2622
▁ఫిలిం	-10.2623
లెక్	-10.2627
▁65	-10.2632
ూర్లో	-10.2633
▁అంతేకాక	-10.2634
▁రాయి	-10.2636
▁విస్తృతంగా	-10.2641
▁డచ్	-10.2642
విగా	-10.2642
▁సమాచారాన్ని	-10.2646
స్తున్నాయి	-10.2647
▁అధ్యయన	-10.265
▁బ్రిటిషు	-10.2654
▁వాడే	-10.2656
తొ	-10.2657
నాల్	-10.2658
▁కర్ణ	-10.2658
▁జాతులు	-10.266
గుల	-10.2661
ేయ	-10.2664
▁బదిలీ	-10.2665
వచ్చని	-10.2666
▁ప్రాతినిధ్యం	-10.2667
భూ	-10.267
▁డిగ్రీలు	-10.2671
▁రకాలు	-10.2673
▁భావించి	-10.2676
వేల	-10.2678
▁భాగము	-10.2681
తోనే	-10.2681
▁వెల	-10.2683
▁కాలి	-10.2685
▁స్వర్ణ	-10.2686
▁లిపి	-10.2695
▁గణ	-10.2701
▁ప్రారంభం	-10.2701
▁వాళ్ళు	-10.2703
▁చోట	-10.2708
▁జరిప	-10.2716
▁ప్రయత్నాలు	-10.2719
▁టౌన్	-10.272
▁దర్శక	-10.2721
దేవత	-10.2722
టివ్	-10.2723
సంస్థ	-10.2726
ందర్	-10.2731
త్వాన్ని	-10.2733
▁కాన	-10.2735
▁నేపథ్య	-10.2735
▁రూపొంద	-10.2737
▁సామర్థ్యం	-10.2737
▁ఆకుల	-10.274
▁అయ్యాడు	-10.2741
▁కారక	-10.2758
▁ఆధారిత	-10.2774
▁నటన	-10.2778
▁దే	-10.2778
▁వెళ్ళే	-10.278
ప్పి	-10.2781
▁ప్రవేశం	-10.2783
▁కాళ	-10.2788
▁రామచంద్ర	-10.28
పత్ర	-10.2805
▁నాయకుల	-10.2809
▁జంక్షన్	-10.281
▁బెర్	-10.2812
▁ఆధారాలు	-10.2813
గిన	-10.2813
▁వైశాల్యం	-10.2816
▁భాషల	-10.282
▁విశ్వాసం	-10.2821
ెన	-10.2821
▁ఆచరించ	-10.2823
▁అయ్యాయి	-10.2824
▁రాజధానిగా	-10.2828
▁అనకాపల్లిలోను	-10.2832
ొచ్చు	-10.2833
ిస్తున్నాయి	-10.2837
▁పరిధిలోని	-10.2839
▁75	-10.2843
▁దెబ్బ	-10.2843
నైనా	-10.2847
▁గోవింద	-10.2851
▁2017,	-10.2852
పోత	-10.2855
బాయి	-10.2856
▁విలీనం	-10.2858
▁తాలూకా	-10.2858
▁దగ్గరగా	-10.2859
▁దాకా	-10.286
ho	-10.2864
విధంగా	-10.2865
▁సుబ్బ	-10.2867
▁పోయి	-10.2869
ఒ	-10.2869
▁పల్ల	-10.2869
కారి	-10.287
▁సమావేశ	-10.2874
▁అక్కడే	-10.2875
ంబర	-10.288
▁ప్రక్క	-10.288
జయ	-10.2883
▁నార్వే	-10.2885
▁న్యూయార్క్	-10.2887
లెస్	-10.2888
క్యు	-10.2888
ర్యా	-10.2889
▁నృత్యం	-10.289
▁వైద్యుడు	-10.2891
▁కొరియా	-10.2893
▁నటించింది	-10.2893
మూరు	-10.2895
ఉంది	-10.2903
▁అధికారికంగా	-10.2903
▁అనుకూల	-10.2909
▁పనిచేసిన	-10.2909
▁so	-10.2912
▁అధి	-10.2913
▁మర్	-10.2917
సింహ	-10.2924
ుచున్న	-10.2924
థ్	-10.2926
ేళ్ళ	-10.2926
శయ	-10.2928
▁కురు	-10.2929
▁వ్యక్తులు	-10.2935
▁కార్యకలాపాల	-10.2937
ath	-10.2938
▁ఓడి	-10.2938
▁వ్యక్త	-10.2945
ంకా	-10.2945
▁వైద్యులు	-10.2946
ect	-10.295
▁బలి	-10.2951
తము	-10.2951
▁మరల	-10.2954
ేశ	-10.2955
ut	-10.2956
▁వెలువడ	-10.2956
▁అభ్యసించ	-10.2966
▁సౌకర్యాలేమ	-10.2968
▁వర్గాల	-10.2969
▁నిర్మ	-10.2972
దేవుడు	-10.2973
▁రంగస్థల	-10.2973
▁బోస్	-10.2981
ూర	-10.2982
▁ఈశాన్య	-10.2983
▁నేత	-10.2984
▁వాడతారు	-10.2985
▁ఉత్పత్తుల	-10.2986
▁పదాలు	-10.2987
ోద్యమ	-10.2991
▁నం	-10.2991
▁గద్వాల	-10.2994
su	-10.2995
▁టన్నుల	-10.2996
చ్చిన	-10.2998
▁అంతటా	-10.3006
▁నిజానికి	-10.3007
▁పెట్టుబడి	-10.3012
దశ	-10.3012
▁వంద	-10.3012
▁కాలానికి	-10.3022
ాభివృద్ధి	-10.3023
▁mo	-10.3025
వరి	-10.3026
pe	-10.3026
▁చదివి	-10.3029
▁తీసుకున్న	-10.3029
రోగ	-10.3032
▁వాస	-10.3033
▁పండు	-10.3034
▁అవగాహన	-10.3034
▁రెండింటి	-10.3034
▁రాగి	-10.3036
▁సమస్యల	-10.3038
మెన్	-10.3038
పోవటం	-10.3038
పుల్	-10.304
▁రష్యన్	-10.304
▁పల్లి	-10.3043
▁సాహిత్యంలో	-10.3044
-3	-10.3046
▁వెళ్ళాడు	-10.3046
▁పాలనా	-10.3052
▁వర్క్	-10.3053
▁భారతదేశానికి	-10.3053
▁గోధుమ	-10.3063
▁ఆకర్షించ	-10.3064
స్త్ర	-10.3067
▁అనుభవించ	-10.3073
▁చోళ	-10.3073
▁అవతార	-10.3078
▁రసాయనిక	-10.308
▁చదరపు	-10.308
▁మన్న	-10.308
డ్యూ	-10.308
ni	-10.3084
▁ఒక్కో	-10.3086
ిస్తుంటారు	-10.3089
▁చిత్రాలలో	-10.309
చెర్ల	-10.3095
▁తీగ	-10.3095
▁చదవ	-10.3096
▁కలగ	-10.3101
ుకుంటాడు	-10.3102
os	-10.3105
▁బోరుబావులు	-10.3107
స్టో	-10.3108
▁1994	-10.3108
▁ప్రస్తావించ	-10.3109
▁అన్నారు	-10.3114
▁దీ	-10.3116
▁సేవలను	-10.3124
▁జాబితాలో	-10.3124
▁మోక్ష	-10.3126
వ్యాప్త	-10.3129
▁పర్యటన	-10.3132
్యత	-10.3139
▁కూతురు	-10.3142
▁ఈస్ట్	-10.3143
▁రఘు	-10.3143
▁భాగాల	-10.3144
ప్రె	-10.3147
▁తిరస్కరించ	-10.3149
▁పలువురు	-10.3149
}}	-10.315
▁ఉందిసమీప	-10.3151
టాన్	-10.3153
మయ్య	-10.3153
▁జోన్	-10.3154
tu	-10.3158
▁కనబడ	-10.3159
▁తూ	-10.3162
▁ముడి	-10.3164
▁చిత్రానికి	-10.3168
▁రేటు	-10.3171
▁ఉంటాడు	-10.3173
▁తెలిసి	-10.318
వర్తన	-10.3181
de	-10.3181
డికి	-10.3182
తాయని	-10.3183
▁దేశంగా	-10.3186
▁భయ	-10.319
▁జిల్లాలలో	-10.3192
▁పరిశోధనలు	-10.3192
▁కౌన్సిల్	-10.3195
▁ఖాళీ	-10.3195
▁ఆవు	-10.3196
గలిగే	-10.3198
gu	-10.3198
▁స్వర్గ	-10.3199
▁దీక్ష	-10.32
ానికే	-10.3202
▁47	-10.3203
▁తదుపరి	-10.3207
▁అనుగుణంగా	-10.3207
▁చెబుతారు	-10.321
▁సమీపంలోని	-10.3215
శ్య	-10.3219
▁i	-10.3223
▁యస్	-10.3223
▁ప్రధానమంత్రి	-10.3224
ph	-10.3225
▁ప్రకటించారు	-10.3236
▁ఇంగ్లాండ్	-10.3236
▁రవి	-10.3236
క్ట్	-10.3236
▁విమానాశ్రయం	-10.3237
▁సాధించి	-10.3238
▁చూస్తే	-10.3241
▁హింస	-10.3241
▁జీవితాన్ని	-10.3241
బాల్	-10.3243
▁ఎప్పుడూ	-10.3244
▁టు	-10.3246
▁అందువల్ల	-10.3247
క్షేప	-10.3247
▁అదనపు	-10.3247
▁టే	-10.3251
▁చెప్పే	-10.3253
ండె	-10.3255
ధో	-10.3264
du	-10.327
మల్	-10.3273
▁త్ర	-10.3273
ించడానికి	-10.3274
▁భూమిని	-10.3274
ుకోవాలి	-10.3274
▁కొన	-10.3276
▁మీరు	-10.3277
▁చనిపో	-10.3278
▁మందికి	-10.3282
▁నిర్మాణానికి	-10.3285
▁ప్రవర్తన	-10.3286
ుచున్నది	-10.3287
పాత	-10.3289
▁చేతిపంపులు	-10.3292
▁వినోద	-10.3295
▁అనుబంధ	-10.3304
▁పుస్తక	-10.3304
ర్చి	-10.3304
తృ	-10.3305
▁పరచ	-10.3306
▁సకల	-10.3312
▁కమ్మ	-10.3313
▁సీనియర్	-10.3313
▁నాటకం	-10.3315
ళు	-10.3316
స్థల	-10.3317
▁పశువుల	-10.3319
▁పాటించ	-10.3319
▁చేరిన	-10.332
త్యం	-10.3321
▁ఆందోళన	-10.3323
సరి	-10.3323
▁మూలంగా	-10.3326
▁తాత్కాలిక	-10.3329
▁గూడూరు	-10.3333
▁చేయటం	-10.3333
▁భాగాలు	-10.3334
▁భద్ర	-10.3336
▁దేశాల్లో	-10.3336
▁one	-10.3341
పడిన	-10.3344
▁ఊహించ	-10.3345
▁చూడండి	-10.3345
ాళ్	-10.3345
district	-10.3347
ములతో	-10.3349
▁1989	-10.3352
▁చేస్తే	-10.3352
▁అప్పట్లో	-10.3353
రిన్	-10.3365
యాగ	-10.3366
▁పువ్వు	-10.3366
▁బొగ్గు	-10.3366
▁అక్షరాస్యత	-10.3369
ేపల్లి	-10.3376
▁విభాగాల	-10.3383
కళ	-10.3385
▁సేకరణ	-10.3396
▁నాయకత్వంలో	-10.3396
▁కథల	-10.3396
లార్	-10.3397
కాన్	-10.3401
▁తరలి	-10.3406
▁శతాబ్ది	-10.3406
మహా	-10.3408
▁ఉండేవారు	-10.3409
▁ఉంటుందని	-10.3409
▁1948	-10.3411
▁పూల	-10.3411
ధ్ర	-10.3412
▁సప్త	-10.3414
చాడు	-10.3415
▁చేసుకో	-10.3417
▁ఆయనను	-10.3417
▁కేంద్రాల	-10.3419
5%	-10.3422
▁1997	-10.3423
బడుతోంది	-10.3423
▁స్పానిష్	-10.3424
చింది	-10.3427
▁పేర్కొన్నాడు	-10.3428
▁ఈశ్వర	-10.3432
నంత	-10.3433
▁సందర్భాలలో	-10.3434
▁విభాగంలో	-10.3434
▁జరిగి	-10.3436
▁చెంది	-10.3438
ముగ	-10.3439
▁గ్ర	-10.3444
పంచ	-10.3445
▁has	-10.3448
డియో	-10.3452
▁వైష్ణవ	-10.3459
థర్	-10.3462
▁జంతు	-10.3465
వృత్తి	-10.3465
▁లోతు	-10.3473
షియ	-10.3473
▁అందించారు	-10.3476
▁భువనగిరి	-10.3477
▁పనిచేస్తుంది	-10.3478
per	-10.3479
▁భాగవత	-10.3479
▁సుబ్రహ్మణ్య	-10.3483
▁ఒప్పంద	-10.3485
▁ట్రి	-10.3486
▁చేసుకొని	-10.3488
▁పుల్ల	-10.3489
▁ఇసుక	-10.3489
▁సమాజంలో	-10.3492
▁అందించే	-10.3492
▁అంశాలు	-10.3504
లచే	-10.3508
టార్	-10.3509
ఉన్న	-10.3512
▁మండలి	-10.3519
▁నియంత్రించ	-10.3522
▁కుక్క	-10.3525
▁ఒకప్పుడు	-10.3526
▁అంశ	-10.3526
▁గ్రేట్	-10.3526
▁పిలవ	-10.3528
▁పదాన్ని	-10.353
▁నాశనం	-10.3531
లోనికి	-10.3533
▁తీర్థ	-10.3534
▁ఆదాయ	-10.3534
▁పంటలు	-10.3542
▁55	-10.3542
▁క్షేత్రం	-10.3543
స్తాన్	-10.3548
▁తిప్ప	-10.3548
▁సిద్ద	-10.3552
వాల్	-10.3553
▁ఏళ్ళ	-10.3553
▁ఎడ్	-10.3554
బ్ర	-10.3557
▁ఫ్రీ	-10.3558
▁విస్తరణ	-10.3559
▁ధాన్య	-10.356
కూడదు	-10.356
▁బహ	-10.3562
▁1995	-10.3566
▁విచారణ	-10.3573
▁తేలిక	-10.3574
▁విధానంలో	-10.3577
▁ఆదిలాబాద్లో	-10.3578
▁పంజాబ్	-10.3579
▁కన	-10.358
▁దాదాపుగా	-10.358
▁దేహ	-10.3581
▁హైదరాబాదులోను	-10.3589
▁భాగాన్ని	-10.359
▁కొమ్మ	-10.3592
▁లాగ	-10.3594
▁పాత్రల	-10.3595
వీర	-10.36
▁ఎగుమతి	-10.3603
▁సమకూర్చ	-10.3603
▁పట్టిక	-10.3606
▁ప్రదేశంలో	-10.3607
▁ఎడమ	-10.3608
▁కంటి	-10.3612
▁పౌ	-10.3614
ary	-10.3616
▁శిలా	-10.3617
ీశ్వర	-10.3617
▁సంవత్సరము	-10.3618
▁భావించారు	-10.3621
▁వాని	-10.3626
▁కలకత్తా	-10.3627
▁కాల్	-10.3627
ంజ్	-10.3627
▁గౌ	-10.3632
▁ఉర్దూ	-10.3633
▁అనుసంధానం	-10.3633
▁ఇందుకు	-10.3639
డై	-10.3642
▁రాక	-10.3643
స్థి	-10.3643
▁సరళ	-10.3644
ోత్సవం	-10.3646
ప్రతి	-10.3647
▁ప్రారంభమైన	-10.3648
▁దయ	-10.3649
▁సుబ్బారావు	-10.3651
సార్	-10.3655
▁వస్తాయి	-10.3658
▁భరత	-10.366
ff	-10.366
▁వెల్ల	-10.366
▁లక్ష్యం	-10.3662
▁గ్రీన్	-10.3663
▁తనను	-10.3667
▁1992	-10.3669
▁మలయాళ	-10.3669
▁సూర్యాపేట	-10.3669
▁సగం	-10.3672
▁కావచ్చు	-10.3674
▁నగరాల	-10.3676
▁మూడో	-10.3676
తికి	-10.3678
ోపనిషత్తు	-10.3681
▁లక్ష	-10.3684
▁విభాగాలు	-10.3691
▁మహారాజు	-10.3694
▁బెల్లం	-10.3695
▁సూర	-10.3696
▁వర్తక	-10.3698
▁చేస్తాడు	-10.3699
▁కమ్యూనిస్టు	-10.37
▁ఆగ్నేయ	-10.37
ష్ణ	-10.3701
బెట్ట	-10.3705
వారం	-10.3707
int	-10.3708
▁కడ	-10.371
▁ద్రోణ	-10.3712
▁నాగార్జున	-10.3712
▁స్పష్టంగా	-10.3715
శక్తుల	-10.3715
▁వినియోగ	-10.3716
యుత	-10.3719
మండల	-10.3719
▁కుమారులు	-10.372
మాట	-10.3727
గీత	-10.3728
యత్	-10.3729
నొ	-10.3733
▁మధ్యకాలంలో	-10.3735
▁నున్న	-10.3737
▁మల్	-10.3737
▁విశ్వనాథ	-10.3738
▁దేవతలు	-10.3742
▁రాజీనామా	-10.3742
▁రక్తం	-10.3743
▁మరిన్ని	-10.3745
ెత్త	-10.3748
state	-10.3748
కాన్ని	-10.3748
▁నిరూపించ	-10.3749
▁ఆరంభం	-10.3752
▁రాయ్	-10.3753
▁గ్రామాలను	-10.3755
ాధార	-10.3759
యార్	-10.3759
▁ఇటలీ	-10.3761
▁ఉండును	-10.3762
టెడ్	-10.3762
▁డొ	-10.3764
▁చేసుకునే	-10.3765
▁సెప్టెంబర్	-10.3767
▁త్యాగ	-10.3767
▁వచ్చు	-10.3769
art	-10.3769
▁వెలుగు	-10.377
▁ch	-10.3772
out	-10.3774
▁అద్ద	-10.3775
▁రైల్వేస్టేషన్	-10.3779
వాని	-10.3783
ుడయ్యాడు	-10.3783
▁అంతకు	-10.3785
▁వాటా	-10.3785
▁ప్రత్యేకించి	-10.3787
ీకృత	-10.3787
గలవు	-10.3787
▁పరిమిత	-10.3791
▁సర్వే	-10.3797
▁మొదటిసారిగా	-10.3798
▁మార్గాల	-10.38
కారుల	-10.3805
▁ఎందుకు	-10.3808
▁300	-10.3809
▁కంద	-10.3809
▁పంచాయతీ	-10.3812
▁గ్రంథాలయ	-10.3814
రణం	-10.3817
జిల్	-10.3819
▁గ్రహించ	-10.382
టెక్	-10.3823
▁నగర్లో	-10.3824
▁ఉపయోగించారు	-10.3824
▁ప్రసారం	-10.383
▁మందు	-10.3832
సాయి	-10.3834
యిడ్	-10.3835
ావళి	-10.3836
▁పరికరాల	-10.3836
act	-10.3841
▁మ్యూజియం	-10.3842
one	-10.3843
▁డిస్	-10.3843
▁సహాయంతో	-10.385
▁కప్ప	-10.385
▁గుజరాత్	-10.3853
భాగంలో	-10.3855
▁మాస	-10.3856
▁కిందకు	-10.3858
▁దారితీసింది	-10.3859
బోధ	-10.3862
పొంద	-10.3863
▁మిగిలి	-10.3868
ందరి	-10.3873
▁స్థాపించిన	-10.3873
▁శర	-10.3875
▁పెరుగుతుంది	-10.3878
▁రాష్ట్రపతి	-10.3886
టమే	-10.3889
▁49	-10.3892
▁ముప్ప	-10.3893
బర్గ్	-10.3894
▁బుద్ధ	-10.3894
ఘ్	-10.3897
▁చిత్రాల	-10.3899
▁ఉత్తర్వులు	-10.3903
▁అనువాద	-10.3905
▁పరు	-10.3909
▁సంభవ	-10.391
ాయన	-10.3914
▁ముహమ్మద్	-10.3915
పట	-10.3916
▁శాస్త్రము	-10.3917
ated	-10.3931
▁can	-10.3933
▁బీజ	-10.3933
▁బావులు	-10.3938
▁కాదని	-10.3939
▁నేడు	-10.394
▁చేసుకోవ	-10.3943
▁వెన్న	-10.3947
పత్	-10.3948
▁స్కా	-10.3951
▁థియేటర్	-10.3952
▁రంగుల	-10.3956
ింపబడ	-10.3958
ుకునేందుకు	-10.3964
▁నాటకాల	-10.3964
సహ	-10.3964
▁సినిమాలలో	-10.3965
▁ప్రపంచం	-10.3969
మ్మా	-10.397
▁వాక్య	-10.3972
▁రాముడు	-10.3975
▁మొహ	-10.3978
▁ఆనాటి	-10.3981
▁మొగ	-10.3987
▁రమణ	-10.3987
ణ్య	-10.3991
పేట్లో	-10.3994
▁అంతర	-10.3995
▁అల్యూమినియం	-10.3996
▁స్టూడియో	-10.3996
▁ఎదుర్కొన్న	-10.3999
▁భూత	-10.4
▁చేస్తా	-10.4
▁150	-10.4001
దానం	-10.4004
▁మొదట్లో	-10.4004
▁హోటల్	-10.4004
▁షేక్	-10.4004
▁2013,	-10.4013
▁వెలుపల	-10.4013
▁జీవించ	-10.4014
▁బ్లూ	-10.402
▁విస్తృత	-10.4023
▁నర	-10.4025
డైన	-10.4028
▁జనసంఖ్య	-10.4029
▁ఒలింపిక్	-10.4034
▁కలవ	-10.4035
▁ఆమోద	-10.404
▁హిమ	-10.4043
▁జీర్ణ	-10.4047
▁తమ్మ	-10.4048
త్తా	-10.4052
▁విడిచి	-10.4052
▁విధాన	-10.4053
జిల్లా	-10.4056
▁గోపాల	-10.4057
▁నాయకత్వం	-10.4058
▁ఆగష్టు	-10.4059
▁పగ	-10.406
▁ప్రజలలో	-10.406
ten	-10.4067
▁కవిత్వం	-10.4071
వారిని	-10.4076
రగ	-10.4079
▁నిలిపి	-10.4086
▁చేరింది	-10.4087
▁ట్రాన్స్	-10.4087
▁నొప్పి	-10.4088
▁చేపల	-10.4089
ెర	-10.409
▁అసోసియేషన్	-10.4091
▁who	-10.4092
▁ఇక్కడికి	-10.4094
▁వారీ	-10.4095
mi	-10.4104
్యము	-10.4108
▁పరిష్కార	-10.411
▁వ్యాప్తంగా	-10.411
▁అడ్	-10.4111
యున్న	-10.4112
▁మాయ	-10.4113
▁పుట్టి	-10.4116
▁పశ్చిమాన	-10.4119
బెర్	-10.412
▁వస్తు	-10.4121
▁శర్మ	-10.4124
నెల్	-10.4125
ాంశం	-10.4128
▁దీర్ఘ	-10.413
మహ	-10.4133
▁ఉనికి	-10.4134
కుండ	-10.4135
స్తున్నారు	-10.4138
▁స్థాపించాడు	-10.4138
ుడే	-10.4142
▁5310	-10.4149
కార్య	-10.415
▁తెలుప	-10.4152
▁un	-10.4153
ోంది	-10.4154
▁తానే	-10.4155
యీ	-10.4155
▁అంటు	-10.4157
▁అయ్యే	-10.4157
క్రియ	-10.4161
▁మరికొన్ని	-10.4167
▁ట్రై	-10.4171
ance	-10.4173
▁1940	-10.4175
▁నివసిస్తున్న	-10.418
▁పేర్కొన్న	-10.4188
▁ఉంటూ	-10.4188
▁స్వి	-10.4188
▁సంప్రదాయం	-10.4189
▁ప్రభుత్వానికి	-10.4189
దర్శన	-10.4191
▁పాల్వంచ	-10.4193
▁జరుగు	-10.4194
▁ప్రసాద	-10.42
▁రచించారు	-10.4201
▁ఐర్లాండ్	-10.4205
▁ఉమ్మడి	-10.4205
పుచ్చ	-10.4205
ంటో	-10.4207
వున్న	-10.4207
▁మరు	-10.4208
▁మనస్సు	-10.421
▁అవసరమ	-10.421
▁ఇరాన్	-10.4211
▁పురాణాల	-10.4211
▁తల్లిదండ్రులు	-10.4212
▁కార్యదర్శి	-10.4214
▁ఏనుగు	-10.4216
▁సుమారుగా	-10.4217
▁కార్యాలయ	-10.4219
▁సాయం	-10.4223
▁పరిశోధనా	-10.4223
▁అండ	-10.4224
▁వుండే	-10.4228
ాలున్నాయి	-10.4228
▁అధికారుల	-10.4231
వర్తి	-10.4231
▁కాశ్మీరు	-10.4237
▁అసాధారణ	-10.4237
లియో	-10.4239
▁అనుకూలంగా	-10.4244
▁నర్	-10.4248
వంతు	-10.4251
ొచ్చ	-10.4253
ాసుర	-10.4254
ార్థం	-10.4254
కణ	-10.4256
▁స్నేహ	-10.4259
ప్పటికి	-10.4262
▁మాధవ	-10.4262
యొ	-10.4263
▁పట్టణంలో	-10.4265
▁చేయాలి	-10.4265
▁కమల	-10.4266
వాయి	-10.4268
▁గ్రూప్	-10.427
▁వృత్తులు	-10.4274
▁చక్కగా	-10.4276
▁An	-10.4277
▁ఆకులు	-10.428
▁మాల్	-10.428
స్తి	-10.4282
▁కూరగాయలు	-10.4282
▁ఐస్	-10.4289
తులను	-10.429
▁ఎదురు	-10.4295
▁పెట్టిన	-10.4295
▁శివుని	-10.4297
▁లాటిన్	-10.4302
ఖి	-10.4305
▁ఇష్ట	-10.4306
సిల్	-10.4307
▁ముస్లింల	-10.431
▁క్రో	-10.4311
▁సరిగా	-10.4312
ుతుంటారు	-10.4312
టికల్	-10.4313
▁బుద్ధి	-10.4318
ue	-10.4319
పిల్ల	-10.432
ముద్ర	-10.4321
▁చూడవచ్చు	-10.4323
ినది	-10.4324
▁దళ	-10.4325
▁స్వేచ్ఛ	-10.4327
▁శంఖ	-10.4329
▁ఆంగ్లంలో	-10.433
▁మనో	-10.4332
▁లాభ	-10.4335
వంతంగా	-10.4338
▁చేసేవారు	-10.4339
▁మహిళలు	-10.4341
▁కాంగ్రెసు	-10.4347
▁గుర్తించిన	-10.4348
▁పాల్గొన్నారు	-10.4349
హర్	-10.4351
▁చిన	-10.4351
▁పార్టీకి	-10.4352
ke	-10.4355
▁చర్యల	-10.4356
▁పొగ	-10.436
▁గం	-10.4363
▁ప్రే	-10.4366
▁వ్యాధుల	-10.4367
▁చేసుకుంది	-10.4367
▁నిర్మించాడు	-10.4368
చక్ర	-10.4369
▁వీటికి	-10.4371
▁ప్రొఫెసర్	-10.4373
▁బంగ్లాదేశ్	-10.4373
▁ముద్రించ	-10.4374
▁హెక్టారులు	-10.438
▁శ్రద్ధ	-10.438
▁చేరారు	-10.4387
కంఠ	-10.4388
▁బానిస	-10.439
▁పెం	-10.4391
▁దోష	-10.4392
▁విషయము	-10.4392
శ్చ	-10.4393
▁విజయవంతంగా	-10.4397
▁Ch	-10.4398
▁యూనివర్శిటీ	-10.4399
▁సింధు	-10.44
▁కామారెడ్డి	-10.4401
▁?	-10.4406
ాల్ని	-10.4406
▁సౌందర్య	-10.4406
▁నడుప	-10.441
భూమి	-10.4411
▁దాట	-10.4411
▁ఆఫ్రికన్	-10.4412
▁ఎత్తులో	-10.4418
ాలజీ	-10.4421
నిష్	-10.4422
ంపల్లి	-10.4423
▁సూర్యుని	-10.4425
▁pa	-10.4427
▁కోర్	-10.4432
యుడు	-10.4436
శాడు	-10.4439
▁వసంత	-10.444
ఠా	-10.4448
యిల్	-10.4449
▁ఒకదాని	-10.445
▁సమానంగా	-10.4451
▁ఎముక	-10.4451
▁రాయల్	-10.4454
▁కోస	-10.446
▁విద్వాంసు	-10.4465
▁ముని	-10.4466
oc	-10.4467
▁దేవుని	-10.4471
▁గ్రే	-10.4472
ంజి	-10.4472
మెంటు	-10.4473
లాంటి	-10.4476
▁ఏమీ	-10.4477
▁పరస్పర	-10.4478
బద్ద	-10.448
min	-10.448
బన్	-10.4483
▁దుర్గ	-10.4484
adj	-10.4489
▁మీటర్లు	-10.449
▁ఏది	-10.4491
▁ప్రోత్సాహ	-10.4492
▁మెడ	-10.4493
బడినవి	-10.4495
▁బస్	-10.4497
ఫు	-10.4498
పాలన	-10.4499
▁వ్యయం	-10.4503
ునకు	-10.4507
▁రెడ్	-10.4507
▁సాధ్య	-10.4508
▁విజయవంతమైన	-10.4509
జాన్	-10.451
▁ప్రారంభించిన	-10.4514
▁షె	-10.4514
▁కావడంతో	-10.4516
▁అర్చ	-10.4518
▁డ్రా	-10.4521
▁వాహన	-10.4522
▁చర్మ	-10.4526
1-	-10.4527
భీ	-10.453
▁గంట	-10.4531
మున్న	-10.4533
▁అంబ	-10.4533
▁నిర్వహిస్తారు	-10.4533
ana	-10.4533
▁వైరస్	-10.4534
▁ముక్క	-10.4539
pi	-10.4539
▁శక్తివంతమైన	-10.454
▁నింప	-10.454
▁దంత	-10.4543
▁పెను	-10.4544
రంగంలో	-10.4544
వుతుంది	-10.4545
▁విర	-10.4545
▁దక్షిణాన	-10.4545
▁అన్	-10.4547
▁పండ్లు	-10.4549
▁నిషేధ	-10.455
▁అరేబియా	-10.4551
ింపబడిన	-10.4551
▁నిషేధించ	-10.4552
▁కాంగ్	-10.4554
ప్రాంత	-10.4555
భూషణ	-10.4555
ాచార	-10.4556
▁సంభాషణ	-10.4557
చ్చారు	-10.4559
▁అభివృద్ధికి	-10.4559
▁హాని	-10.4571
▁ముద్రణ	-10.4579
▁క్రా	-10.4579
▁శాన్	-10.4581
య్యాడు	-10.4584
▁రంగులో	-10.4586
ుకోవటం	-10.4586
▁ఇండో	-10.4588
▁రంధ్రము	-10.459
▁నిర్ధారించ	-10.4591
▁దీనితో	-10.4594
తీర	-10.4594
▁1952	-10.4595
▁నాటకాలు	-10.4598
▁పండిత	-10.46
మిని	-10.46
బల్	-10.4601
▁గోప	-10.4606
మందు	-10.4606
నాటికి	-10.4607
▁పోయింది	-10.4611
జై	-10.4613
రంగు	-10.4618
▁యాగ	-10.462
▁పేట	-10.4621
▁నిర్ణయం	-10.4622
▁సుర	-10.4625
▁దానితో	-10.4629
▁సమ్మేళన	-10.4629
▁వారితో	-10.463
▁అటవీ	-10.4631
▁నారాయణ్	-10.4631
షియన్	-10.4633
tal	-10.4636
చెంద	-10.4636
ళా	-10.4636
స్తోంది	-10.4637
▁సాంద్రత	-10.4637
ting	-10.4638
▁ఎవరు	-10.4649
▁పిలువబడే	-10.4651
▁పూర్ణ	-10.4651
▁ముస్లింలు	-10.4652
▁చేస్తోంది	-10.4653
▁యుద్ధానికి	-10.4656
▁కొద్దిగా	-10.4662
▁లభించిన	-10.4662
▁ఊహ	-10.4664
▁అడిగాడు	-10.4666
▁విధానాలు	-10.4668
ture	-10.4668
▁ఉత్సవాల	-10.4672
ినపుడు	-10.4672
▁యందు	-10.4674
స్తులు	-10.4675
▁దశాబ్దాల	-10.4676
▁వస్తువులను	-10.4679
▁శ్రమ	-10.468
▁చేరుకుంది	-10.4683
▁ఇవ్వడం	-10.4684
ew	-10.4697
K	-10.47
▁విధానాల	-10.4701
▁కవుల	-10.4706
▁ప్రదర్శనలు	-10.4706
▁పరిశ్రమల	-10.4709
▁కర్ర	-10.471
రియో	-10.4711
▁క్వా	-10.4713
గలిగిన	-10.4713
▁నైట్	-10.4718
▁స్ట్రా	-10.4723
▁అరటి	-10.4733
▁నేపథ్యంలో	-10.4733
ముందు	-10.4734
▁మార్క్	-10.4737
▁చక్కెర	-10.4738
▁వికీ	-10.4738
▁ఖగోళ	-10.4739
▁సేవల	-10.4741
▁నాగర్	-10.4741
జింగ్	-10.4743
▁గుర్తిస్తూ	-10.4747
▁any	-10.4752
మతి	-10.4757
▁లంక	-10.4758
▁అనునది	-10.4758
▁also	-10.4758
▁పునః	-10.4758
▁మామూలు	-10.4759
రేఖ	-10.476
▁విద్యాలయ	-10.476
▁సమయానికి	-10.4764
నేట్	-10.4766
▁సంతకం	-10.4775
▁చొ	-10.4778
కపోయినా	-10.4786
▁మధుర	-10.4787
▁మొదలైంది	-10.4788
▁అరి	-10.4789
▁po	-10.4791
పడ్డ	-10.4792
పూరిత	-10.4796
▁ఆదర్శ	-10.4803
▁గూడ	-10.4804
▁క్యూ	-10.4805
▁గెలిచి	-10.4806
హె	-10.4807
▁నిధుల	-10.4811
ప్స్	-10.4812
▁అత్యున్నత	-10.4813
▁గ్రంధ	-10.4813
▁ప్రధానమైన	-10.4814
▁ఉంచి	-10.4815
▁పూజా	-10.4817
▁తెలుసు	-10.4818
జీవిత	-10.4818
ళీ	-10.4819
▁ధ్రువ	-10.4819
pr	-10.4819
▁పురాణం	-10.4825
▁స్థితిలో	-10.4827
▁ఇందు	-10.4829
కెట్	-10.483
▁మైసూరు	-10.4833
▁దండయాత్ర	-10.4834
▁పట్టి	-10.4838
లిపి	-10.4838
ical	-10.484
▁సాధించారు	-10.484
▁ఆదిలాబాద్	-10.484
▁భూభాగంలో	-10.4844
▁రామ్	-10.4845
▁ఎన్నికల్లో	-10.4847
ధం	-10.4848
to	-10.4849
▁ఖు	-10.4851
▁భగవ	-10.4856
▁చేరుకున్న	-10.4857
▁చీర	-10.4859
▁ఉపరితల	-10.4859
▁గూర్చి	-10.4861
▁వ్యవహార	-10.4862
▁ప్రదేశాల	-10.4863
▁ముఖ్యమైనవి	-10.4863
▁బండ	-10.4866
▁నవంబర్	-10.4868
▁రజ	-10.487
▁సుదీర్ఘ	-10.4874
▁పరిషత్తు	-10.4875
చ్చాడు	-10.4878
▁ఎగువ	-10.4881
▁పొడవైన	-10.4888
▁గోల్	-10.4888
▁రాజ్యాంగం	-10.4891
▁నివసించే	-10.4893
మార్గ	-10.4894
▁కొంచెం	-10.4895
ంఛ	-10.4896
▁అశోక	-10.4897
▁లభించాయి	-10.49
▁సుప్రసిద్ధ	-10.4901
▁ఫ్లా	-10.4902
▁వినాయక	-10.4902
కారుడు	-10.4904
mon	-10.4904
వేసి	-10.4904
▁ఏట	-10.4905
▁చమురు	-10.4909
▁ఆర్య	-10.4912
▁డిసెంబర్	-10.4915
▁వృ	-10.4916
▁అతన్ని	-10.4917
గలదు	-10.4924
కపోతే	-10.4928
▁మినహా	-10.4929
▁శు	-10.493
ధన	-10.4932
▁పరిచయ	-10.4932
పార్	-10.4933
▁మరీ	-10.494
▁ఉదయ	-10.4941
▁పోర్	-10.4945
▁కళాకారులు	-10.4946
▁మార్పుల	-10.4952
▁సామ	-10.4954
▁ఓడించి	-10.4954
▁అక్బరు	-10.4956
▁అనుకున్న	-10.4959
▁లేఖ	-10.496
▁పార్కు	-10.496
▁నిలువ	-10.4962
▁విశ్లేషణ	-10.4963
▁టాప్	-10.4963
కుమారి	-10.4964
▁ఇతడి	-10.4965
దర్శి	-10.4967
▁వారసత్వ	-10.497
▁మాటల	-10.4972
▁వలయ	-10.4978
▁నేతృత్వంలో	-10.4979
షే	-10.4981
▁అవకాశాలు	-10.4984
▁అత్యుత్తమ	-10.4984
▁రచించాడు	-10.4985
▁ఉపయోగించడం	-10.4987
▁జగ	-10.4987
rn	-10.4989
▁ఫిల్మ్	-10.4989
సియన్	-10.499
▁నీల	-10.4991
▁తీర్మాన	-10.4991
▁స్థాన	-10.4992
▁సముద్రతీర	-10.4993
▁సభలో	-10.4994
పురుష	-10.4994
▁పద్ధతులు	-10.4998
▁అడ్డు	-10.4999
▁అప్పగించ	-10.5
ాదేవి	-10.5002
▁నిర్మించబడింది	-10.5005
ts	-10.5006
చెరువు	-10.5008
▁రూపొందించిన	-10.501
mp	-10.501
సిక్	-10.5012
ang	-10.5012
▁అక్ష	-10.5015
▁టెస్ట్	-10.5017
▁బాహ్య	-10.5019
▁తమకు	-10.5019
▁శోభ	-10.502
కరంగా	-10.502
వరు	-10.5021
▁నివసిస్తున్నారు	-10.5023
▁హిల్	-10.5026
▁రచయితలు	-10.5027
▁64	-10.5027
▁కోర్సు	-10.5031
▁పిల్లలకు	-10.5032
▁లలిత	-10.5033
▁దత్త	-10.5033
నీటి	-10.5035
▁ఫెర్	-10.5036
▁హనుమ	-10.5036
▁ఆశ్రమ	-10.5038
▁పరిశ్రమలు	-10.5038
పోతాయి	-10.5041
▁పాల్గొన్న	-10.5043
▁లాస్	-10.5043
▁కల్గి	-10.5044
తరం	-10.5051
▁చో	-10.5053
పాలు	-10.5053
▁అక్టోబర్	-10.5054
▁ఇంగ్లీష్	-10.5054
▁రెవెన్యూ	-10.5054
ాము	-10.5054
▁సంగ్రహ	-10.506
▁గట్టి	-10.506
ుకుంటే	-10.5065
▁సంగారెడ్డి	-10.5066
▁త్వరగా	-10.5068
ach	-10.5071
స్తుంటారు	-10.5073
▁కూర్చ	-10.5076
ాచార్యులు	-10.5076
▁రంగారెడ్డి	-10.5078
▁అనా	-10.5078
▁నగరాన్ని	-10.5078
జెర్	-10.5079
▁చుట్టు	-10.5079
ధర్	-10.508
క్య	-10.5081
▁వెడల్పు	-10.5082
▁అందరు	-10.5083
▁గణపతి	-10.5083
▁మూర్తి	-10.5083
▁నిర్వాహక	-10.5084
▁నువ్వు	-10.5087
▁ఇరవై	-10.5089
▁నాణ్యత	-10.5089
▁నిండి	-10.5091
▁శరీరంలో	-10.5091
▁నడుమ	-10.5092
దై	-10.5093
▁మహిళ	-10.5098
▁చెట్లు	-10.5101
ala	-10.5101
▁కొల్ల	-10.5104
▁ఐదుగురు	-10.5104
▁తెలుపు	-10.5107
▁II	-10.5107
▁ఉద్యానవన	-10.511
▁ప్రాంతాలను	-10.5112
▁ఊరు	-10.5114
▁పిండి	-10.5118
▁సాక్ష్య	-10.512
టూరు	-10.5121
▁డేటా	-10.5123
▁పోలిస్తే	-10.5125
స్థానం	-10.5126
▁తీరు	-10.5129
టీఎం	-10.513
▁శుభ్ర	-10.5131
▁వుంటాయి	-10.5132
▁రోడ్డుతో	-10.5132
▁ఫైనల్	-10.5134
▁సంధి	-10.5138
▁విజయవంత	-10.5142
▁ఆదరణ	-10.5152
▁స్నాన	-10.5154
▁రామాయణ	-10.5155
▁ఓపెన్	-10.5159
▁నివారణ	-10.5159
శారు	-10.5164
▁కార్పొరేషన్	-10.5166
▁ఆధీనంలో	-10.5166
▁ద్వీపం	-10.5167
▁గ్రంథాలు	-10.5167
▁సంవత్సరములో	-10.5173
co	-10.5179
▁రావడం	-10.518
▁ఆయుధ	-10.5185
ess	-10.5187
▁వెళ్ళిన	-10.5189
▁5%	-10.5193
వెంట్	-10.5198
▁రాష్ట్రాలలో	-10.5199
▁శ్రీమతి	-10.52
సీమ	-10.5201
▁పాయింట్	-10.5201
క్యూ	-10.5202
▁ధరించి	-10.5203
ట్రిక్	-10.5207
▁మఠ	-10.5209
▁బియ్యం	-10.521
శో	-10.5211
up	-10.5213
▁గాజు	-10.5215
▁కమిషన్	-10.5215
if	-10.5222
మిష	-10.5223
▁సాఫ్ట్	-10.5226
వర్త	-10.5228
శోధ	-10.5228
ట్లే	-10.523
▁భవిష్యత్తు	-10.5231
▁మంగ	-10.5231
నిర్మాణ	-10.5238
5,000	-10.524
▁స్ట్ర	-10.5243
▁క్వి	-10.5243
▁సుల్తాన్	-10.5244
▁తై	-10.5245
ోత్సవ	-10.5246
▁నచ్చ	-10.5246
▁ఎక్క	-10.5247
కూడ	-10.5249
▁వ్యవహారాల	-10.5249
▁పొద	-10.525
▁స్థాపించి	-10.5251
ులై	-10.5251
ఫ్ట్	-10.526
▁వ్యాపించి	-10.526
tor	-10.5261
ధాన్య	-10.5262
▁భద్రత	-10.5262
▁రాశారు	-10.5262
▁తాగ	-10.5263
▁నవ్వ	-10.5265
▁పద్ధతిని	-10.5267
ుచున్నారు	-10.5268
▁పల్లిలో	-10.5269
▁1983	-10.5271
స్థానంలో	-10.5276
ేశ్వరరావు	-10.5278
▁దుఃఖ	-10.5279
▁ఉచిత	-10.5281
వత్	-10.5284
బండ	-10.529
▁మేఘ	-10.5294
▁పోషక	-10.5295
▁స్పా	-10.5297
▁తోడు	-10.5298
వీడు	-10.5298
over	-10.5299
▁లేకపోవడం	-10.5301
▁అనుసంధానమై	-10.5302
▁దిక్కు	-10.5303
సమూహ	-10.5303
థో	-10.5316
▁నెలలో	-10.5318
▁మాస్టర్	-10.5324
▁సినిమాకు	-10.5325
no	-10.5327
కాక	-10.5329
టాన్ని	-10.533
▁ఫ్రాం	-10.5332
రోధ	-10.5334
▁బ్లా	-10.5336
▁పరుగులు	-10.5337
▁సులభంగా	-10.5339
▁కనిపెట్ట	-10.534
▁62	-10.534
▁మతపరమైన	-10.5341
▁lo	-10.5342
▁గాథ	-10.5342
▁కార్యక్రమంలో	-10.5343
▁అర్హత	-10.5348
ట్రి	-10.5353
గ్రీ	-10.5358
▁అలంకరించ	-10.5358
▁మసీదు	-10.5358
కళా	-10.5358
పర్తి	-10.5361
▁పెర్	-10.5361
బాబు	-10.5363
▁గుర్త	-10.5363
▁దిశలో	-10.5364
స్పష్ట	-10.5365
▁రాష్ట్రాలు	-10.5365
▁అందుకున్నారు	-10.5369
▁మినుము	-10.5372
▁దశాబ్ద	-10.5374
▁సభ్యుడు	-10.5376
▁పండించ	-10.5377
ండో	-10.5383
▁1962	-10.5385
▁వర్షపాతం	-10.5387
▁శతక	-10.5387
▁ఎర్	-10.539
▁పడుతుంది	-10.5401
▁పొరుగు	-10.5405
యందు	-10.5407
tic	-10.5408
▁పరిగణ	-10.541
▁పల్	-10.5412
▁స్థాపన	-10.5413
▁అంచు	-10.5413
సభ	-10.5415
Sub	-10.5416
▁ఈజిప్టు	-10.5416
▁మొఘల్	-10.5416
▁ప్రాంతంలోని	-10.5417
▁సైట్	-10.5417
▁జంతువులు	-10.5418
▁వుండి	-10.5419
▁మీడియా	-10.5422
▁గణనీయమైన	-10.5423
▁have	-10.5431
▁నందు	-10.5431
▁అరకులోయలో	-10.5431
▁రాక్	-10.5432
▁ప్రేరణ	-10.5432
▁పాలించ	-10.5432
▁అందమైన	-10.5433
ari	-10.5434
▁పెసర	-10.5435
▁విధి	-10.5435
▁హస్త	-10.5435
మింగ్	-10.5443
▁1985	-10.5445
సియ	-10.5445
లాడ	-10.5447
▁పరిశీలించ	-10.5449
▁భౌగోళిక	-10.5449
▁ఒప్ప	-10.5451
▁sp	-10.5453
▁సంపన్న	-10.5456
▁గెలుచుకున్న	-10.5458
▁ఆచరణ	-10.5458
హరి	-10.5459
▁శాస్త్రవేత్తలు	-10.546
నాగ	-10.5463
▁హిందువులు	-10.5464
ణ్ణ	-10.5465
ోదయ	-10.5467
-4	-10.5469
▁బలం	-10.5469
▁సంభవించ	-10.5471
ాలైన	-10.5472
▁పాఠ	-10.5473
▁ఆర్మేనియా	-10.5474
ుంటాయి	-10.5479
▁1971	-10.5479
బాల	-10.5479
▁అనేవి	-10.5479
్యాల	-10.5484
▁పనికి	-10.5486
▁సేకరించ	-10.5488
ేశాడు	-10.5488
▁నిరాకరించ	-10.5488
▁చేతులు	-10.5491
పుత్ర	-10.5498
▁సంవత్సరాలలో	-10.5501
▁జగిత్యాల	-10.5503
▁వంగ	-10.5505
▁గణన	-10.5507
లన్నీ	-10.5508
ిస్తోంది	-10.5508
▁శాసనం	-10.5514
▁వడ	-10.5514
▁లాగా	-10.5517
▁శిష్యుల	-10.5518
▁పనిచేసి	-10.5518
▁ట్యా	-10.552
▁1920	-10.5522
▁అంజ	-10.5524
▁మాడుగుల	-10.5525
▁రాష్ట్రములోని	-10.5527
▁పరిషత్	-10.5528
▁యువత	-10.5528
ack	-10.5529
▁తెచ్చి	-10.5529
▁మాదిరిగా	-10.5531
▁నష్టం	-10.5532
▁మేక	-10.5535
▁సమస్త	-10.5535
నాయుడు	-10.5536
▁సులభ	-10.5538
▁బర్మా	-10.5543
ాచార్య	-10.5543
ాదుల	-10.5554
▁కేటాయించ	-10.5554
▁అజ	-10.5557
▁నిమ్మ	-10.5558
ద్దా	-10.556
డుతుంది	-10.5567
సెల్	-10.5571
ుదురు	-10.5572
▁విక్రయ	-10.5572
రియల్	-10.5574
▁భోగ	-10.5574
▁చోట్ల	-10.5575
▁బెంగాలీ	-10.5576
▁ఆర	-10.5579
▁అచ్చ	-10.5583
▁బిందువు	-10.5585
భో	-10.5589
▁ప్రశాంత	-10.559
▁కాలేజ్	-10.5591
▁ఊర	-10.5593
▁శత	-10.5599
▁పోలీస్	-10.5605
▁మంత్రిగా	-10.5611
▁శైవ	-10.5613
టొ	-10.5614
▁నిర్మాణంలో	-10.5615
▁హిందువుల	-10.5615
క్లి	-10.5617
రెన్	-10.5618
▁రోగి	-10.5618
▁సూత్రాల	-10.5618
▁జరుగుతాయి	-10.5622
▁తీరంలో	-10.5624
▁నిబంధన	-10.5625
▁అందించిన	-10.5626
ev	-10.5627
▁సందేహ	-10.5629
క్కా	-10.5631
▁వీజీ	-10.5634
దొ	-10.5635
బ్రి	-10.5637
▁నిర్వహిస్తున్న	-10.5638
▁శ్రీకృష్ణ	-10.5639
▁మండలంతో	-10.564
▁గుండ	-10.5641
▁ఉత్సవాలు	-10.5642
▁అనారోగ్య	-10.5642
▁సముద్రమట్టానిక	-10.5642
▁పోయిన	-10.5644
ard	-10.5649
మగు	-10.5649
▁పరిస్థితులు	-10.5651
ుంటారు	-10.5655
▁రాజ్యాన్ని	-10.5657
▁అద్భుతమైన	-10.5658
▁రంధ్రం	-10.5659
జూ	-10.5663
యుక్త	-10.5667
▁రైతులు	-10.5668
రకాల	-10.5671
పర్చ	-10.5674
▁దిశగా	-10.5678
▁ఎడారి	-10.5679
▁పరిశోధకులు	-10.5684
▁ఐరోపాలో	-10.5684
▁దిశ	-10.5688
యిన్	-10.569
▁నాయిక	-10.5692
ినీ	-10.5698
▁విమానాశ్రయ	-10.57
▁ప్రాజెక్ట్	-10.5702
▁అబ్	-10.5703
▁శ్వాస	-10.5704
▁నోబెల్	-10.571
▁శనగ	-10.571
మాత	-10.5712
▁bo	-10.5719
▁వహించారు	-10.5721
▁కాలము	-10.5721
▁లక్ష్మి	-10.5722
▁ఐక్య	-10.5725
త్వము	-10.5726
వలెను	-10.5727
▁గుడివాడ	-10.5727
▁1984	-10.5731
▁నమ్మక	-10.5731
రాణి	-10.5732
▁ఓట్ల	-10.5733
▁టర్కీ	-10.5735
▁నిరంతర	-10.5736
▁పరిశీలన	-10.5739
▁1956	-10.5745
▁నగరాలలో	-10.5746
▁1993	-10.5746
షియా	-10.5748
▁వీరిని	-10.575
▁అందరికీ	-10.5752
▁1967	-10.5752
▁శిథిల	-10.5754
▁కావున	-10.5758
▁భద్రాచలం	-10.5761
▁pl	-10.5762
కూర్	-10.5764
▁బాగు	-10.577
▁కొందరి	-10.5774
▁రుణ	-10.5774
mu	-10.5775
కారణ	-10.5776
▁చేపట్టిన	-10.5781
ితమైన	-10.5782
▁1000	-10.5783
ానని	-10.5786
▁తరహా	-10.5789
▁స్థాయికి	-10.5791
ట్టే	-10.5793
▁వాటర్	-10.5798
▁వేలాది	-10.5803
▁పేరిట	-10.5806
బెట్టి	-10.5808
▁India	-10.5809
▁ఆఖరి	-10.5814
బడినది	-10.5815
▁ప్రవేశించి	-10.5816
▁కవులు	-10.5821
▁స్మారక	-10.5821
▁సమీక్ష	-10.5821
▁భోజన	-10.5824
▁సిక్కు	-10.5825
▁భారతీయుల	-10.5828
▁చాట	-10.5828
ial	-10.5829
హారం	-10.5829
గృహ	-10.5831
▁నిర్మించి	-10.5832
▁చేయటానికి	-10.5833
కోశ	-10.5834
▁పేర్కొంది	-10.5836
ాలే	-10.5837
▁స్థిరపడ	-10.5839
డియం	-10.5843
▁ఆదేశ	-10.5843
▁బాంబు	-10.5844
▁సరిపో	-10.5845
▁నిర్బంధ	-10.5845
red	-10.5849
▁పొందాయి	-10.585
ేటట్లు	-10.5853
▁పట్టణాల	-10.5855
▁పవర్	-10.5855
▁2017	-10.5856
▁పిలిచే	-10.5856
▁కలయిక	-10.5859
▁చతుర్	-10.5859
▁వైభవంగా	-10.5862
▁వహిస్త	-10.5862
▁నుండే	-10.5865
▁ఇస్తుంది	-10.5869
rit	-10.5871
నారాయణ	-10.5871
▁ప్రస్తావన	-10.5874
▁గ్రూపు	-10.5874
▁నిమిషాల	-10.5876
▁అంతేకాకుండా	-10.5882
▁అప్	-10.5887
పడింది	-10.5889
▁క్రిస్ట	-10.5891
▁కృష్ణుడు	-10.5893
▁సమూహాల	-10.5894
▁ధైర్య	-10.5897
▁ఒడిషా	-10.5898
▁పండ్ల	-10.5898
▁ఉద	-10.5898
▁కన్య	-10.5898
▁ఉపయోగం	-10.5899
▁క్షయ	-10.5902
▁విక్రమ	-10.5904
▁ప్రభువు	-10.5905
▁నివారించ	-10.5905
పరిచ	-10.591
▁సమయ	-10.5912
▁వేగం	-10.5914
▁విద్యార్థులకు	-10.5916
▁భక్తులకు	-10.5916
విక్	-10.5919
మియా	-10.5921
▁కవితా	-10.5922
మోద	-10.5924
▁1972	-10.5925
▁క్షత్రియ	-10.5927
▁అమృత	-10.5933
▁అగ్నిపర్వత	-10.5935
▁గిరి	-10.5937
▁రాళ్ళ	-10.5937
ుచుండ	-10.5937
▁వెంకటేశ్వర	-10.5938
వృ	-10.5939
▁అధ్యాపక	-10.5942
▁జ్ఞాపక	-10.5942
ార్ధం	-10.5948
▁అనుమాన	-10.595
▁ఉన్నాయని	-10.5952
▁మేళ	-10.5956
▁అగ	-10.5957
▁విరమణ	-10.5961
▁పాత్రలో	-10.5961
▁ప్రత్యర్థి	-10.5965
▁బయలుదేర	-10.5967
ec	-10.5973
▁కొత్తగూడెం	-10.5974
▁పఠ	-10.5976
▁పదవ	-10.5977
▁ఎన్ని	-10.5979
▁ఆరుగురు	-10.5983
▁ప్రవాహం	-10.5984
▁గిరిజన	-10.5984
క్ష్య	-10.5985
str	-10.5988
స్తుల	-10.599
▁పరమాణు	-10.5994
ust	-10.5996
▁ప్రయోజనాల	-10.5997
▁పదము	-10.5998
▁చేపలు	-10.601
గూడెంలో	-10.6011
ఎన్	-10.6011
▁పాస్	-10.6016
▁ప్రమాణం	-10.6018
గించ	-10.6019
▁అన్నమయ్య	-10.6027
▁ప్రచురించారు	-10.6027
దార	-10.603
▁ఆలయానికి	-10.6032
▁కీర్తన	-10.6034
▁సమర్ధ	-10.6035
తీయ	-10.6036
▁యూనిట్	-10.6037
▁తాళ	-10.6038
▁ఘంటసాల	-10.6042
▁సమకాలీన	-10.6042
▁1975	-10.6048
▁దక్షిణాఫ్రికా	-10.605
▁మెడికల్	-10.605
▁పుష్కర	-10.605
▁వ్యతిరేకించ	-10.6051
▁గడ్డ	-10.6056
ous	-10.6056
▁బ్యాండ్	-10.6061
ండ్లు	-10.6062
▁పడవ	-10.6066
▁అవమాన	-10.6068
▁పరిమితం	-10.607
▁గుప్త	-10.6074
▁హౌ	-10.6075
థె	-10.6075
టెల్	-10.608
▁చక్కని	-10.6081
దనం	-10.6085
▁ప్రభావిత	-10.6087
▁కత్తి	-10.6087
▁వాడకం	-10.6091
▁విజయాన్ని	-10.6091
▁ఆధిపత్యం	-10.6094
ులయ్యారు	-10.6095
ంటున్న	-10.6096
▁మూసి	-10.6097
స్థుల	-10.6099
సింది	-10.6101
▁వార్త	-10.6102
▁400	-10.6106
తాను	-10.6111
▁వడ్డ	-10.6111
▁విస్తరించింది	-10.6112
శివ	-10.6112
▁జన్యు	-10.6112
▁జరిపిన	-10.6117
▁ధ్యాన	-10.6118
▁ఛాంపియన్	-10.6119
▁రైతుల	-10.6121
▁తీసుకురా	-10.6124
▁స్టె	-10.6126
▁ఆధారపడ	-10.6128
శేష	-10.6128
▁జింక	-10.613
ight	-10.6131
సాన్	-10.6134
▁వ్రత	-10.6135
▁ప్రజాస్వామ్య	-10.6135
▁సంతాన	-10.614
▁తులసి	-10.6143
రైడ్	-10.6144
▁గ్రంథము	-10.6144
▁హెర్	-10.6146
▁రాకెట్	-10.6148
▁అనేకమంది	-10.6151
ానంతరం	-10.6153
ధిక	-10.6154
▁కుంభ	-10.6154
▁ఇటీవలి	-10.6154
▁చిత్రాన్ని	-10.6155
▁అల్లాహ్	-10.6158
▁సాయంత్రం	-10.6158
▁పెన్	-10.616
▁వేదాంత	-10.6164
ుకోవాలని	-10.6165
▁1977	-10.6166
▁క్లో	-10.6167
▁చేయబడ	-10.6167
▁శ్రీనివాస	-10.6171
సముద్రం	-10.6171
తెలంగాణ	-10.6173
▁విటమిన్	-10.6174
▁పండితులు	-10.6181
▁శస్త్రచికిత్స	-10.6181
▁మిస్	-10.6183
▁మార్పిడి	-10.6184
▁భాషను	-10.6184
మెట్	-10.6189
▁తలెత్త	-10.6192
▁పంపించ	-10.6197
▁హిట్	-10.6201
▁గుర్తించి	-10.6202
▁స్ఫూర్తి	-10.6211
▁గ్రహించి	-10.6212
పత్తి	-10.6217
▁ఎవరైనా	-10.6221
▁మౌలిక	-10.6222
యుండ	-10.6222
▁తెలియజేస	-10.6223
8%	-10.6223
▁పక్కన	-10.6224
▁మూలం	-10.6224
▁ఆధారం	-10.6226
ara	-10.6227
▁సిరీస్	-10.6229
ాన్నే	-10.6233
▁article	-10.6236
స్ట్రో	-10.6236
▁సిద్ధిపేట	-10.6236
▁పసిఫిక్	-10.6236
▁ఎరుపు	-10.6236
▁నిజమైన	-10.6239
▁ఫ్లో	-10.624
రేషన్	-10.6243
వంటి	-10.6246
▁విలువైన	-10.6247
▁నిర్వహించే	-10.6248
▁పాండవుల	-10.625
▁సల్	-10.6255
▁72	-10.6255
▁78	-10.6255
▁భు	-10.6257
ee	-10.6258
ip	-10.6264
▁క్షిపణి	-10.6268
▁స్థూల	-10.6268
output	-10.6268
భు	-10.6269
దగ్గ	-10.627
▁ప్రదేశాలలో	-10.6273
▁తొలిసారిగా	-10.6273
ఇతర	-10.6274
▁కష్టం	-10.6275
పట్ల	-10.6279
▁సౌత్	-10.6283
▁కళాకారుల	-10.6283
▁పోర్చుగీసు	-10.6283
కట్టు	-10.6285
భక్త	-10.6288
▁బ్రిటీషు	-10.6291
▁యాజమాన్య	-10.6291
▁రంపచోడవరం	-10.6291
▁సైనికులు	-10.6291
పూజ	-10.6293
▁అధిగమించ	-10.6299
▁ఏమిటంటే	-10.6299
▁సహకారంతో	-10.6301
▁చిట్ట	-10.6302
▁క్షీణ	-10.6305
సౌ	-10.6317
▁చేశా	-10.6317
▁హీరో	-10.6317
▁దళిత	-10.632
▁దె	-10.632
▁కోవ	-10.6328
▁మస్జిద్	-10.6331
ాధికారి	-10.6337
▁పుట్టుక	-10.6338
▁దుర	-10.6343
▁into	-10.6344
▁తిరగ	-10.6345
▁పేర్ల	-10.6346
▁సరాసరి	-10.6347
▁నాగేశ్వరరావు	-10.6348
▁ఎడి	-10.6349
లేఖ	-10.635
▁అగు	-10.635
▁జిల్లాల్లో	-10.6354
ral	-10.6354
లాల్	-10.6362
▁బెంగుళూరు	-10.6363
▁మిక్కిలి	-10.6363
▁తెలిపారు	-10.6363
▁వ్యూహ	-10.6363
▁బ్రాడ్	-10.6369
▁స్వీయ	-10.6369
▁ప్రారంభించి	-10.637
▁రోగుల	-10.6371
ాధిపతి	-10.6372
▁సహకరించ	-10.6372
ంచాడు	-10.6374
మరియు	-10.6375
▁ప్రయాణీకుల	-10.6379
▁అంక	-10.6382
▁other	-10.6383
▁To	-10.6383
▁నుంచే	-10.6387
▁సాల్	-10.6388
▁టర్	-10.639
ign	-10.6392
▁విశాల	-10.6393
▁అరుదుగా	-10.6394
▁పౌరులు	-10.6399
▁గెలుపొంద	-10.64
▁కోడ	-10.6401
▁ఆల్బమ్	-10.6402
▁మెక్సికో	-10.641
▁మెదడు	-10.641
▁రూపాల	-10.6411
▁చైనాలో	-10.6412
▁నదులు	-10.6413
▁విషయాలను	-10.6414
▁అత్త	-10.6418
▁విశ్వవిద్యాలయము	-10.6421
▁చెందుతున్న	-10.6424
▁పాలక	-10.6425
▁తీర్పు	-10.6427
యింగ్	-10.6428
▁చిత్రాలను	-10.643
ునితో	-10.6432
▁చిన్నతనం	-10.6434
▁శతాబ్దపు	-10.6434
▁స్వీకరించి	-10.6434
ాంక	-10.6435
▁చెప్పబడింది	-10.6435
జాతీయ	-10.6436
▁నర్స	-10.6437
▁అధికారాన్ని	-10.6437
న్నింటి	-10.6439
▁mw	-10.6441
పడ్డాయి	-10.6442
▁ఆయుర్వేద	-10.6442
▁పోయ	-10.6445
▁ఓడించ	-10.6447
2)	-10.6451
▁పదానికి	-10.6451
తిక	-10.6452
మిడి	-10.6453
▁కర్నూల్	-10.6458
▁లక్షణ	-10.6459
▁కనక	-10.6459
▁we	-10.6462
▁ఇక్కడే	-10.6462
▁dis	-10.6463
▁తరపున	-10.6467
▁ద్వితీయ	-10.6467
రంగం	-10.6467
bl	-10.6469
▁కర్మాగార	-10.6478
▁తరంగ	-10.6479
వాసులు	-10.6479
▁వేళ	-10.648
▁నదుల	-10.648
▁హొ	-10.6483
▁పడిన	-10.6489
వహ	-10.6489
ానిక	-10.6495
▁కార్మిక	-10.6498
▁టైటిల్	-10.65
▁పరికరం	-10.65
▁ఒడ్డున	-10.6501
రూపం	-10.6501
▁దళాల	-10.6501
▁ఉపయోగించిన	-10.6504
▁మొదటిసారి	-10.6509
గ్రంథ	-10.6512
▁ఉపాధి	-10.6513
parser	-10.6515
▁బ్రెజిల్	-10.6515
▁బ్యాటరీ	-10.6516
▁భాషగా	-10.6516
▁కలిగే	-10.6518
▁ఉండేవాడు	-10.6521
ాంతం	-10.6522
ెన్స్	-10.6526
ళిక	-10.6531
▁తొలగి	-10.6533
మంటే	-10.6534
పోయ	-10.6537
▁విశాఖ	-10.6537
▁సిద్ధాంతాల	-10.6539
స్తుంటాయి	-10.6541
ప్పుడే	-10.6542
▁మార్గాలు	-10.6542
▁పురుగు	-10.6545
▁సంబ	-10.6546
▁క్యాన్సర్	-10.6547
▁సింహాసన	-10.6547
amu	-10.6553
ong	-10.6554
▁ఆదివారం	-10.6556
▁ఏర్పడి	-10.6558
▁పురస్కార	-10.6559
బియా	-10.6559
▁పూజించ	-10.656
▁ఒంటరి	-10.6563
క్రమం	-10.6564
ty	-10.6566
▁గుడ్	-10.6567
తోనూ	-10.6569
సమీప	-10.6572
▁వర్గీకరించ	-10.6573
der	-10.6579
▁బొంబాయి	-10.6579
▁శాస్త్రంలో	-10.658
▁నిర్వహిస్తుంది	-10.658
▁ఉద్యమంలో	-10.6582
▁ధరించిన	-10.6582
కెక్క	-10.6583
▁చేశాయి	-10.6585
▁1974	-10.6585
▁వ్యవస్థాపక	-10.6585
▁సమా	-10.659
▁కథానాయక	-10.6597
▁త్రాగ	-10.6601
▁మరాఠీ	-10.6604
▁సరస్వతి	-10.6604
▁గడ	-10.661
▁పర్వ	-10.6612
▁సమర్థ	-10.6614
▁నిరసన	-10.6621
▁ఏర్పడుతుంది	-10.6624
▁శృంగార	-10.6628
▁చలి	-10.6628
దర్శ	-10.6631
▁పత్రికలో	-10.6631
▁పాల్గొని	-10.6632
▁వ్యవసాయాధారిత	-10.6636
▁విద్యాభ్యాసం	-10.6637
▁ఎందరో	-10.6637
▁will	-10.6638
▁యాదవ	-10.6639
▁ఉప్ప	-10.664
లాండు	-10.6649
▁వ్ర	-10.6649
mit	-10.6652
▁ప్రతినిధి	-10.6653
▁నగరంలోని	-10.6657
▁విక్రయించ	-10.6657
▁నిర్వచించ	-10.6658
జార్	-10.6659
▁బోర్	-10.6661
▁వ్యత్యాస	-10.6661
▁నిష్పత్తి	-10.6661
▁తరగతుల	-10.6662
▁---	-10.667
▁శ్రీరంగ	-10.6672
▁నాటిక	-10.6673
▁కార	-10.6675
▁మలేషియా	-10.6677
ింపజేస	-10.6677
▁జరుపుకుంటారు	-10.668
ాదులు	-10.6681
▁వినిపించ	-10.6688
▁1955	-10.6693
▁ప్రఖ్యాతి	-10.6694
▁వాదించ	-10.6698
har	-10.6703
▁ఉత్సవం	-10.6709
ేశ్వరం	-10.6711
▁ఉత్సవ	-10.6711
▁బ్ల	-10.6711
జేయ	-10.6713
▁1946	-10.6716
▁రంధ్ర	-10.6717
పయోగ	-10.6719
▁అప్పటికి	-10.672
1)	-10.672
ట్టుగా	-10.6721
tt	-10.6726
ాన్నీ	-10.6726
▁కరువు	-10.6727
ప్రియ	-10.6728
▁వ్యవహరిస్తారు	-10.6728
▁you	-10.6736
▁సెట్	-10.6737
▁అమె	-10.6739
ite	-10.6739
▁అహ	-10.6742
▁పెరుగుతున్న	-10.6744
▁జూలైలో	-10.6746
▁మాల	-10.6746
ప్రో	-10.6749
▁1988	-10.675
▁నోటి	-10.6751
▁ప్రతినిధుల	-10.6752
▁ఓట్లు	-10.6754
▁అరు	-10.6758
▁ఇద్దరూ	-10.676
▁ఓటమి	-10.676
▁ఆసియాలో	-10.6765
▁గ్రాండ్	-10.6765
gen	-10.6767
-5	-10.6768
▁భూముల	-10.6769
▁ఉదాహరణలు	-10.6771
▁అన్నా	-10.6775
ub	-10.6775
▁కచ్చితంగా	-10.6776
▁ఎన్నికయ్యాడు	-10.6777
▁పురస్కారాన్ని	-10.6779
▁తెలుసుకున్న	-10.6781
▁బంగారం	-10.6787
▁67	-10.6791
▁ఇష్టం	-10.6792
▁మతము	-10.6796
▁వరంగల్లో	-10.68
▁మందిరం	-10.6802
లాట	-10.6806
▁మక్కా	-10.6806
▁పోషించారు	-10.6808
▁చారిత్రిక	-10.6809
▁అధికం	-10.6811
▁రూపాయలు	-10.6812
▁కదలిక	-10.6812
mo	-10.6814
▁ఉపన్యాస	-10.6815
▁సుల్తాను	-10.6818
▁ప్రభావాన్ని	-10.6819
▁ఎంచ	-10.6824
▁డిజిటల్	-10.6826
▁లైంగిక	-10.6826
▁పురావస్తు	-10.6826
▁కిలోమీటర్లు	-10.6831
▁ప్రతీక	-10.6833
▁tr	-10.6838
గొట్టపు	-10.6842
▁తమిళం	-10.6842
▁వాడుతారు	-10.6848
జెన్	-10.6849
▁కథనం	-10.6853
▁63	-10.6856
▁సముద్రంలో	-10.6857
▁రామాయణం	-10.6857
▁శంకర్	-10.686
▁vi	-10.6861
▁భూకంప	-10.6869
▁మూలకం	-10.6869
▁పెరిగే	-10.6876
3)	-10.6878
▁కుండ	-10.6878
▁దగ్గరి	-10.6882
▁వహిస్తున్న	-10.6883
స్థాయిలో	-10.6887
▁పొందు	-10.689
▁భూభాగాల	-10.6893
▁చేయబడుతుంది	-10.6893
▁సంస్కరణ	-10.6895
ప్రాయ	-10.6897
▁ఇతనికి	-10.6897
ల్యాండ్	-10.6901
▁సహస్ర	-10.6903
▁సాహస	-10.6903
వాళ్ళు	-10.6909
స్టన్	-10.6911
▁చేయగల	-10.6916
▁ఎత్తున	-10.6916
▁ఒంగోలు	-10.6918
▁సైనికుల	-10.6918
▁పదార్థాలు	-10.6919
▁కట్టి	-10.6921
ob	-10.6923
▁ఆవిరి	-10.6923
▁గ్లా	-10.6925
▁దాచ	-10.6928
▁ఇస్లామీయ	-10.6928
▁ఇంద్రుడు	-10.693
▁బాయిలరు	-10.6935
▁ఆనకట్ట	-10.6935
▁సిరి	-10.6936
▁సోదరుడు	-10.6937
▁కారణాలు	-10.6937
▁ఆర్ట్	-10.6937
కపోవడం	-10.6938
▁1978	-10.6941
▁1964	-10.6941
▁భాగస్వామ్యం	-10.6951
▁యజమాని	-10.6952
దండ	-10.6953
ava	-10.6956
రాత్రి	-10.6958
▁నైపుణ్య	-10.6959
▁such	-10.696
▁పాల్గొంట	-10.696
▁సూర్యుడు	-10.6965
▁వికీపీడియా	-10.6969
▁గలవాడు	-10.6977
▁ఉత్	-10.6981
▁విమానాల	-10.6982
పిస్తుంది	-10.6987
low	-10.6988
▁ప్రయోజన	-10.6991
▁దృఢ	-10.6994
▁ధార్మిక	-10.7002
▁థాయ్	-10.7002
▁ఆక్రమణ	-10.7004
▁నొ	-10.7005
▁భీష్మ	-10.7007
వాణి	-10.7008
▁కలిగించే	-10.701
▁శారీరక	-10.7011
చోట	-10.7017
సెం	-10.7018
sion	-10.7018
▁వెళ్ళారు	-10.7024
▁గడ్డి	-10.7024
▁ప్రీ	-10.7024
▁పెరిగిన	-10.7024
▁స్నేహితు	-10.7027
▁తిరువ	-10.7032
▁పెరగ	-10.7033
▁1979	-10.7035
▁54	-10.7035
▁కడుపు	-10.7037
▁పర్షియన్	-10.7037
▁ప్రపంచంలోనే	-10.7039
▁086	-10.7042
లూరి	-10.7044
▁తప	-10.7045
ృష్ట	-10.7051
ens	-10.7054
▁సౌర	-10.7058
▁ప్రవహించ	-10.7063
కూర	-10.7066
▁రచయితగా	-10.7066
గంటి	-10.7069
ెల్ల	-10.707
▁రాయలసీమ	-10.707
▁జార్జ్	-10.7071
▁ఏకీకృత	-10.7072
▁నివాసం	-10.7072
▁కౌరవ	-10.7074
▁సౌదీ	-10.7075
▁బహుశా	-10.7076
▁ద్వారం	-10.7077
▁వ్యక్తం	-10.7083
▁కావలి	-10.7085
▁పిలువబడ	-10.7088
▁ప్రక్కన	-10.709
వైద్య	-10.7093
▁సంస్కృతుల	-10.7095
▁భిన్నంగా	-10.7096
▁కౌంటీ	-10.7096
▁సన్నిహిత	-10.7096
▁డైరెక్టర్	-10.7096
▁ముద్ద	-10.7097
▁దేశాలకు	-10.7098
▁రాముని	-10.7099
▁వుంట	-10.7102
▁వైఎస్	-10.7103
▁ప్రోగ్రామ్	-10.7105
పీఠ	-10.7105
▁వినియోగదారుల	-10.711
క్రమణ	-10.7113
▁గరి	-10.7116
ధారి	-10.7118
బ్యూ	-10.7119
చేసింది	-10.7119
ుకొన్నాడు	-10.712
▁ప్రబల	-10.7121
▁మద్రాసులో	-10.7123
వర్గ	-10.7124
▁పరీక్షించ	-10.7125
▁చెప్పింది	-10.7127
▁పురాతనమైన	-10.7129
▁కవిత్వ	-10.7129
▁పరికరాలు	-10.713
▁all	-10.713
▁సాయి	-10.7132
▁అరబ్	-10.7136
▁సంవత్సరముల	-10.7137
విజయ	-10.7138
go	-10.7139
▁భిన్న	-10.7139
▁భయపడ	-10.7141
▁శివలింగ	-10.7143
సంఖ్య	-10.7144
లూరులో	-10.7144
▁1965	-10.7146
▁ఖ్యాతి	-10.7148
▁నిరోధించ	-10.7154
▁సెన్	-10.7155
▁సముదాయ	-10.7157
▁దాడుల	-10.7158
▁చంపి	-10.7158
మృగ	-10.716
▁లభించే	-10.7161
▁నగరము	-10.7165
▁శిల	-10.7165
▁మర్రి	-10.7165
▁అపరాలు	-10.7167
▁తయారుచేయ	-10.7168
భరిత	-10.7171
▁లక్షణాల	-10.7172
▁వాహక	-10.7172
▁no	-10.7172
▁తాక	-10.7175
▁రంగారావు	-10.7175
▁పరిష్కరించ	-10.7179
▁మహాత్మా	-10.7181
నగర	-10.7183
షర్	-10.7183
ారణ్య	-10.7185
▁లోనికి	-10.7188
▁ఆప్	-10.7189
▁సాగింది	-10.719
▁కృ	-10.7193
▁ఎవరూ	-10.7195
the	-10.7197
▁భాషల్లో	-10.72
▁సామంత	-10.7201
▁ధర్మం	-10.7203
▁భీమవరం	-10.7206
నీరు	-10.7207
▁కాలుష్య	-10.7208
బార్	-10.7208
▁వాసన	-10.7208
▁73	-10.7214
▁కలదు	-10.7216
▁గై	-10.7216
▁నీతి	-10.7217
▁సంగీతాన్ని	-10.7218
▁ఉండాలని	-10.7223
▁అప్పు	-10.7225
▁జేమ్స్	-10.7227
నగరం	-10.7227
ాధి	-10.7228
▁ఉద్దేశించి	-10.7228
▁కణాల	-10.7229
▁నారద	-10.723
▁యుక్త	-10.7231
▁హర్	-10.7232
▁కళ్ళ	-10.7233
▁నివాసగృహాలు	-10.7234
▁నంద్యాల	-10.7234
పల్లిలోనూ	-10.7235
▁భీష్ముడు	-10.7238
▁తాజా	-10.724
▁ఇల్లు	-10.724
▁ఎదురుగా	-10.7242
▁చిత్రాలకు	-10.7242
స్టిక్	-10.7243
▁మెక్	-10.7247
▁సగ	-10.7248
▁అత్యవసర	-10.7251
▁నాల్గవ	-10.7251
లంక	-10.7251
స్థాన్	-10.7255
▁1945	-10.7258
▁నగరాలు	-10.7261
▁అక్రమ	-10.7262
▁ఫ్యా	-10.7262
▁కనపడ	-10.7264
▁తీసుకున్నారు	-10.7265
ult	-10.7265
▁మునిగి	-10.7266
▁కరిగి	-10.7269
▁విముక్తి	-10.727
▁సతీ	-10.7271
▁డాలర్ల	-10.7272
▁శుక్ర	-10.7272
▁చర్మం	-10.7273
▁ఉత్పత్తులు	-10.7273
ib	-10.7274
▁పరిణామ	-10.7276
▁రాజ్యాల	-10.7276
▁కాథలిక్	-10.7277
▁pre	-10.7277
▁మాతృ	-10.7279
▁పరిమాణంలో	-10.7283
▁1987	-10.7285
▁చారిత్రాత్మక	-10.7286
▁మోహన్	-10.7286
▁కేంద్రము	-10.729
▁గంగరాజు	-10.7292
భాగ్య	-10.7292
▁జాతర	-10.7293
▁మూలకాల	-10.7295
man	-10.7303
బ్లి	-10.7303
▁మైక్రో	-10.7304
▁శైలిలో	-10.7305
కాలము	-10.7305
▁మైళ్ళ	-10.7307
hy	-10.7308
ాబాదు	-10.7309
▁టెలి	-10.7313
▁బాధపడ	-10.7314
ించుట	-10.7314
▁టిబెట్	-10.7315
▁శరణ	-10.7316
▁120	-10.7317
▁గేయ	-10.7319
▁నీళ్ళ	-10.7323
▁ధ్వని	-10.7325
▁ఎన్నికలు	-10.7325
మునందు	-10.733
▁పరిపాలనా	-10.7333
సాగర్	-10.7338
ఉపయోగిస్తున్నారు	-10.7339
▁జన్మించింది	-10.734
▁భోజనం	-10.7342
▁1982	-10.7343
▁లైట్	-10.7347
నందున	-10.7349
▁గట్టిగా	-10.735
▁వూ	-10.7351
▁దళం	-10.7351
ల్యూ	-10.7352
▁ప్రదేశాలు	-10.7352
old	-10.7352
ian	-10.7362
హార్	-10.7365
ురాలిగా	-10.7366
ీయులు	-10.7367
కారము	-10.7368
▁అంశాలను	-10.7369
▁కొలత	-10.7369
▁కాశ్మీర్	-10.7374
▁కొండల	-10.7377
పెద్ద	-10.7378
ఘోష	-10.7379
▁రేవు	-10.7383
▁పడమర	-10.7386
రూపంలో	-10.7388
▁సంస్కృతం	-10.739
▁ఇష్టపడ	-10.7395
▁ఉద్భవించ	-10.7401
eg	-10.7402
▁అధ్యక్షుడిగా	-10.7403
▁న్యాయవాది	-10.7403
▁కన్ను	-10.7403
▁పులుల	-10.7403
▁పంచాయతీకి	-10.7405
సమయంలో	-10.7406
మెర్	-10.7407
▁తగినంత	-10.7408
▁1969	-10.7408
వాసుల	-10.7409
▁దర్శనం	-10.7412
ుకుంటాయి	-10.7413
▁పోటీలలో	-10.7414
▁తీరం	-10.7415
▁పునరుద్ధరించ	-10.7418
▁పిలుపు	-10.7419
దేవ్	-10.7419
▁బోధన్	-10.7419
▁ఆయిల్	-10.7421
▁ప్రకటించాడు	-10.7422
గిలి	-10.7425
బట్టి	-10.7426
▁ఋ	-10.7428
కర్మ	-10.7428
▁పాఠ్య	-10.7429
▁అక్షరాల	-10.743
▁సర్ప	-10.7433
ba	-10.7435
చేశాడు	-10.744
▁గర్	-10.7442
▁హోమ	-10.7443
land	-10.7444
▁కోల	-10.7444
▁కూలి	-10.7448
▁మేరీ	-10.7459
▁ఆలయాన్ని	-10.7459
▁రవీంద్ర	-10.7462
▁మత్స్య	-10.7462
▁డేవిడ్	-10.7462
▁2018	-10.7463
▁దగ్గరలో	-10.7464
▁రికార్డ్	-10.7469
ుకోవటానికి	-10.747
▁రాష్ట్రానికి	-10.7473
▁దీర్ఘకాల	-10.7474
▁వాద్య	-10.7474
ally	-10.7476
▁బోయ	-10.7482
▁గుట్ట	-10.7485
▁దృష్టిలో	-10.7492
మూర్తుల	-10.7492
త్రో	-10.7493
▁అంతస్తు	-10.7494
▁వర్ణన	-10.7496
▁టూ	-10.7497
▁ఏర్పాట	-10.7498
▁వాతావరణంలో	-10.7498
రియం	-10.75
▁పెంపకం	-10.7503
▁రకరకాల	-10.7506
▁కథను	-10.7508
▁పిలిచేవారు	-10.751
▁పడే	-10.7517
▁He	-10.7521
▁రాబర్ట్	-10.7524
▁విప్లవం	-10.7525
ld	-10.7527
▁వచన	-10.7528
▁శివాలయ	-10.7529
▁విగ్రహాలు	-10.7531
▁మధు	-10.7532
▁ఆవిష్కరణ	-10.7533
న్నర	-10.7534
▁524	-10.7534
▁విజయవాడలో	-10.7535
▁66	-10.7537
▁తవ్వ	-10.754
▁అప్పుడే	-10.754
▁శ్రీకాకుళంలో	-10.7541
ప్రాంతాల	-10.7544
▁మహారాజా	-10.7544
▁ఉద్యోగుల	-10.7546
▁దుస్తుల	-10.7547
▁ఆరంభించ	-10.7547
▁కాకతీయ	-10.755
కొండలో	-10.755
▁రీసెర్చ్	-10.7551
▁ఎత్తి	-10.7551
▁used	-10.7553
▁ఖమ్మంలో	-10.7554
▁నిరంతరం	-10.7555
▁ఆధిక్యత	-10.7555
▁దుస్తులు	-10.7559
▁గమన	-10.7568
▁పద్యం	-10.757
వలస	-10.757
జియా	-10.757
ice	-10.7571
మద్	-10.7571
▁రాశాడు	-10.7575
▁స్థిరమైన	-10.7579
▁గుర్రాల	-10.758
ేటప్పుడు	-10.7581
▁జాగ్రత్త	-10.7581
రోజుల	-10.7582
▁cs	-10.7584
▁కరీంనగర్లో	-10.7587
▁అధిపతి	-10.7589
▁విక్	-10.7591
▁చేర్చి	-10.7593
▁250	-10.7595
▁కాయగూరలు	-10.7596
▁ద్వీపాల	-10.7596
▁మనుషుల	-10.7596
▁ఇవ్వబడింది	-10.7596
ఎల్	-10.7597
▁చిత్రీకరణ	-10.7599
▁అయ్యారు	-10.7601
▁చెడు	-10.7603
▁రాజ్యంలో	-10.7604
▁ఎలక్ట్రానిక్	-10.7605
▁ఆరోపణల	-10.7605
▁పెట్టె	-10.7607
▁ఆత్మకూరు	-10.7607
▁సాయుధ	-10.7608
శేఖర	-10.7612
▁విక్టోరియా	-10.7614
▁శీర్షిక	-10.7614
▁క్షీణించ	-10.7616
▁తమ్ముడు	-10.7622
▁మారిన	-10.7623
▁ముగించ	-10.7627
▁తేమ	-10.7634
▁డ్రై	-10.7638
యానా	-10.7644
▁1957	-10.7647
▁కార్యక్రమాలను	-10.7653
▁యమ	-10.7656
▁కనుగొన్న	-10.7663
▁సదుపాయాల	-10.7665
▁శ్రీకృష్ణుడు	-10.7665
india	-10.7666
▁ఇంకొక	-10.7673
సంగ	-10.7675
▁చెప్పడం	-10.7675
▁ఇన్స్టిట్యూట్	-10.7677
▁పెడ	-10.7681
ంగళ	-10.7682
▁మొత్త	-10.7686
దేవుని	-10.7686
▁ఆరవ	-10.769
▁సంగీతంలో	-10.7691
fer	-10.7695
▁విజేత	-10.7695
▁సమస్యలను	-10.7695
▁నిరోధక	-10.7697
▁నిన్ను	-10.7699
ణువు	-10.77
▁బంతి	-10.7704
▁కాకినాడలో	-10.7704
▁సాంకేతికత	-10.7707
▁వ్యాఖ్యాన	-10.7707
ies	-10.7709
▁పర్యాటకుల	-10.7711
లాగే	-10.7711
▁నిపుణులు	-10.7713
▁విలియం	-10.7714
సాగర	-10.772
▁దళాలు	-10.7724
ప్రదేశ	-10.7724
▁వేంకటేశ్వర	-10.7729
▁యేసు	-10.7732
▁ఆంజనేయ	-10.7737
▁బాట	-10.774
▁ఒకవేళ	-10.7743
రీత్యా	-10.7745
▁గేమ్	-10.7747
▁అయిదు	-10.7749
భక్తి	-10.7749
▁మార్గదర్శక	-10.775
▁డీఏ	-10.7753
▁భీముడు	-10.7758
▁were	-10.7761
▁తెలియదు	-10.7763
రాజా	-10.7765
జన్మ	-10.7766
▁సాగర్	-10.7766
టికీ	-10.7768
▁కాళ్ళ	-10.7768
▁ద్రవ్యరాశి	-10.7768
▁నిర్వహించెదరు	-10.777
row	-10.7772
▁కలుగుతుంది	-10.7781
▁నిధులు	-10.7786
▁కాలిఫోర్నియా	-10.7786
ుడని	-10.7791
▁చెయ్యడం	-10.7792
వారని	-10.7794
▁దిగుమతి	-10.7795
▁ఇవన్నీ	-10.7795
▁తీవ్రత	-10.7798
▁మండలాల	-10.7801
▁ప్రత్య	-10.7805
▁ఖురాన్	-10.7805
▁బిలియన్ల	-10.7807
▁జీవి	-10.7808
▁వెంకటగిరి	-10.781
మరణ	-10.781
▁తల్లిదండ్రుల	-10.7814
▁వ్రాత	-10.7814
▁శాంత	-10.7815
sc	-10.7819
లెన్	-10.7826
▁మూత్ర	-10.7828
▁వయస్సులో	-10.783
▁వదల	-10.7832
▁ఘర్షణ	-10.7832
▁అడుగుపెట్ట	-10.7836
విధానం	-10.7838
▁ఐదవ	-10.7842
▁పెరి	-10.7845
▁నిరోధ	-10.7845
▁సైన్యాన్ని	-10.7847
▁క్రైస్తవులు	-10.7849
▁వాషింగ్టన్	-10.7851
▁అగ్రహారం	-10.7851
▁కనుగొన్నారు	-10.7856
4)	-10.786
▁గొంతు	-10.786
గ్గి	-10.7863
▁దార	-10.7865
▁1954	-10.7867
▁విశ్వవిద్యాలయాల	-10.7868
▁క్లోరైడ్	-10.7869
▁పంద	-10.787
▁సంగమ	-10.787
బడలేదు	-10.7872
▁విడిచిపెట్ట	-10.7872
▁పెట్టింది	-10.7872
▁ఏర్పడును	-10.7873
ng	-10.7873
▁బిలియన్	-10.7873
▁పక్షి	-10.7876
▁నామం	-10.7877
▁వెల్డింగు	-10.7878
బంద	-10.7879
▁కార్తీక	-10.7881
▁సీఆర్	-10.7882
rt	-10.7883
▁ఆవరణ	-10.7884
▁వెలువరించ	-10.7888
▁విడిగా	-10.7888
▁నిలబెట్ట	-10.7889
aw	-10.7892
పాట	-10.7894
▁కచ్చితమైన	-10.7897
జిత్	-10.7897
పాలి	-10.7897
tra	-10.7898
ప్రభుత్వ	-10.7899
రచన	-10.79
▁ప్రయోజనం	-10.79
▁మ్యూజిక్	-10.7906
▁ఉపరితలం	-10.7907
▁లక్షణం	-10.7907
▁ధ్యానం	-10.7911
▁కోటి	-10.7915
▁పదార్థ	-10.7917
▁part	-10.7918
పడుతున్న	-10.7923
▁అందించింది	-10.7924
▁రచయితల	-10.7924
▁1986	-10.7924
▁భార	-10.7924
▁యాంత్రిక	-10.7925
▁కులం	-10.7925
▁సినిమాలకు	-10.7928
▁ఆహ్వానించ	-10.7929
▁క్రియాశీల	-10.7934
▁సత్యాగ్రహ	-10.7934
▁తుఫాను	-10.7934
మార్గం	-10.7935
▁కార్యకలాపాలు	-10.7936
▁ఘనంగా	-10.7937
▁ప్రై	-10.7937
▁కోల్పో	-10.7937
▁ఆహ్వాన	-10.7938
▁తగ	-10.794
స్టె	-10.7941
క్రో	-10.7943
▁నడిపించ	-10.7943
▁వసూలు	-10.7943
▁మతాల	-10.7945
బట్ట	-10.7946
▁పర్వతాల	-10.7948
▁ఇనుము	-10.7949
-6	-10.7949
▁ఫార్మ	-10.7949
▁ఆఫ్ఘనిస్తాన్	-10.7953
▁పొలాల	-10.7955
▁రాసి	-10.7956
▁కొట్టి	-10.7957
▁1966	-10.7959
▁వ్యాపించ	-10.796
వెళ్ళ	-10.796
▁చేయబడి	-10.7961
ెడి	-10.7962
▁సహాయపడ	-10.7962
▁జ్యోతి	-10.7963
▁UK	-10.7963
▁మారే	-10.7966
మండలి	-10.7967
▁స్క్	-10.7967
dy	-10.797
▁రెట్లు	-10.7973
▁నిర్మించబడిన	-10.7976
▁రోజులలో	-10.7982
▁నెదర్లాండ్స్	-10.7988
▁వశ	-10.7989
▁డౌన్	-10.799
▁వ్యాధులు	-10.7991
▁స్వభావ	-10.7991
▁నడిచే	-10.7992
▁It	-10.7994
▁స్నానం	-10.7996
▁మార్చారు	-10.7996
▁రంగాలలో	-10.7996
▁డాలర్లు	-10.7996
▁ఇస్తారు	-10.7998
ide	-10.8001
▁తాళ్ళ	-10.8002
▁అట్లాంటిక్	-10.8003
▁పండితుల	-10.8006
▁చక్రం	-10.8006
ోద్	-10.8007
▁వక్ర	-10.8007
▁ఆలయాలు	-10.8008
▁కాలములో	-10.8008
▁స్తోత్ర	-10.8009
▁స్వేచ్ఛా	-10.8009
▁శత్రు	-10.801
▁గణనీయంగా	-10.8018
▁కాలేజి	-10.8018
▁ఉంద	-10.8018
▁ఆపరేషన్	-10.8019
▁వైట్	-10.802
▁74	-10.8023
▁హైడ్రో	-10.8026
▁వెచ్చ	-10.8027
▁స్వాతి	-10.8029
▁అవతరించ	-10.803
▁విస్తారమైన	-10.8031
▁ఆకారంలో	-10.8031
▁ద్వార	-10.8034
▁యుద్ధము	-10.8034
▁మచిలీపట్నం	-10.8037
▁సామ్రాజ్యంలో	-10.8038
▁అనువర్తన	-10.8041
త్రీ	-10.8042
▁జీవులు	-10.8043
ram	-10.8044
▁సాంప్రదాయిక	-10.8046
▁పెద్దది	-10.8047
▁ఫలితం	-10.8051
BS	-10.8055
▁కావు	-10.8056
▁తెలియని	-10.8057
ిస్తున్నా	-10.806
▁మహాసముద్రం	-10.8062
▁నెమ్మదిగా	-10.8065
▁ఆగ్రహ	-10.8068
▁దీవి	-10.8068
▁పరమేశ్వర	-10.8069
మిత్ర	-10.8071
▁వున్నది	-10.8074
▁సింగిల్	-10.8076
▁సంగారెడ్డిలోను	-10.8077
▁చనిపోయిన	-10.8079
▁రావట్లేదు	-10.8084
▁క్యాలెండర్	-10.8093
రాశి	-10.8094
▁1953	-10.81
▁ఆవిర్భవించ	-10.8103
▁person	-10.8103
▁గిల్	-10.8103
▁వాళ్ల	-10.8104
▁పోలాండ్	-10.8109
pur	-10.8109
▁రావి	-10.8111
▁స్తంభాల	-10.8112
▁నిర్మిత	-10.8113
ావతార	-10.8115
▁దక్ష	-10.8118
ప్రధాన	-10.8118
▁పోరు	-10.8119
▁అంతగా	-10.812
▁అతడిని	-10.8122
▁స్ట్రీట్	-10.8122
▁పోలీసులు	-10.8124
▁చుక్క	-10.8124
▁పడింది	-10.8125
▁పతనం	-10.8131
▁శతాబ్దము	-10.8132
▁బ్రె	-10.8138
▁అవకాశ	-10.814
▁పట్టణానికి	-10.8141
▁మారుతుంది	-10.8141
▁ప్రదేశము	-10.8145
షె	-10.8153
మయ్యింది	-10.8158
▁తేనె	-10.8159
▁ప్రమాణాల	-10.8162
fe	-10.8164
బ్రా	-10.8165
▁ఆకృతి	-10.8165
▁అంతరించి	-10.8166
▁బంధించ	-10.8166
▁71	-10.8167
▁నిర్మాణాలు	-10.8169
▁తుమ్మ	-10.817
tri	-10.8177
right	-10.8178
చై	-10.8178
▁వివాదాస్పద	-10.8179
-10	-10.8185
fi	-10.8185
▁ముక్కలు	-10.8185
▁ఉస్మానియా	-10.8188
▁నౌకాశ్రయ	-10.8188
▁ఇతరులు	-10.8189
▁ఉపగ్రహం	-10.819
▁పనిచేసారు	-10.819
డియన్	-10.819
▁విస్తారంగా	-10.8199
6)	-10.8199
▁విమర్శించ	-10.8199
▁ఆకర్ష	-10.82
ుఁడు	-10.8201
▁కఠిన	-10.8202
▁రకాలుగా	-10.8203
▁జరప	-10.8213
▁హ్యా	-10.8215
▁)	-10.8217
▁చీకటి	-10.8217
▁గనుల	-10.8218
▁ప్రచురిత	-10.8221
▁వోల్	-10.8224
▁అనుభవం	-10.8226
▁తొలగించి	-10.8227
▁నియోజకవర్గాల	-10.8227
▁man	-10.8229
▁ప్రతిష్ఠించ	-10.823
▁డాన్	-10.8231
▁1973	-10.8233
ood	-10.8234
▁Al	-10.8235
▁అలవాటు	-10.8236
▁తెలుస్తోంది	-10.8236
▁బలవంత	-10.8243
▁ఒడి	-10.8243
కెన్	-10.8244
▁జాతికి	-10.8245
▁ఇటాలియన్	-10.8246
▁పంజాబీ	-10.8246
▁తడి	-10.8247
▁ఇంజన్	-10.8248
▁82	-10.8249
▁టెర్	-10.8257
ధేయ	-10.8258
▁అరెస్టు	-10.8261
▁దానం	-10.8263
▁1942	-10.8264
col	-10.8264
▁అయస్కాంత	-10.8265
▁సహచర	-10.8269
▁కలుపు	-10.8271
▁మాంసం	-10.8274
▁నైపుణ్యం	-10.8275
▁రోజూ	-10.8277
▁జోడించ	-10.8278
▁ప్రముఖులు	-10.828
▁చెందాయి	-10.8281
▁1981	-10.8283
▁పెట్టుబడుల	-10.8284
ట్లయితే	-10.8289
▁గుండ్ర	-10.829
▁గోత్ర	-10.8293
▁హాంగ్	-10.8294
ుణ్ణి	-10.8297
▁ఘనత	-10.8298
▁వాస్తవానికి	-10.8298
▁గుంపు	-10.8303
▁అన్నింటి	-10.8303
▁నియంత్ర	-10.8305
▁ల్యాండ్	-10.8305
ుండగా	-10.8306
▁వ్రాశాడు	-10.8313
▁కావాలని	-10.8313
▁ఆలోచించ	-10.8314
▁పురస్కారాలు	-10.8316
▁ఓటు	-10.8319
ాంశాల	-10.832
▁1949	-10.832
▁అక్షాంశ	-10.8321
శర్మ	-10.8321
pu	-10.8323
▁మోడల్	-10.8323
▁రూపొందించారు	-10.8324
▁తరం	-10.8325
▁వాయువ్య	-10.8326
▁గౌరవించ	-10.8326
▁కాకతీయుల	-10.8326
▁నకు	-10.8333
▁వహిస్తుంది	-10.8333
▁అందుకున్నాడు	-10.8334
▁సంభవించిన	-10.8337
▁పూత	-10.8342
▁ఉండవు	-10.8342
▁తోడ్పడ	-10.8343
▁వచ్చును	-10.8348
▁నాయ	-10.8348
▁1951	-10.8349
▁నరసరావుపేట	-10.8352
▁గూ	-10.8354
▁అందుకున్న	-10.836
▁క్యూబా	-10.8362
▁మిషన్	-10.8364
▁వారే	-10.8364
7)	-10.8369
▁వసు	-10.8371
క్కడ	-10.8371
▁సంక్షిప్త	-10.8371
▁కళల	-10.8373
pos	-10.8375
▁ఉదాహరణకి	-10.8381
▁బెంగళూరు	-10.8381
▁సురక్షిత	-10.8381
▁వత్తిడి	-10.8381
▁ఖాతా	-10.8382
▁పరీక్షలు	-10.8382
▁సమ్మేళనం	-10.8383
▁gov	-10.8384
▁పర్వతం	-10.8384
▁దోహదపడ	-10.8385
▁ప్రశంస	-10.8386
▁పిలవబడే	-10.8392
గావ్	-10.8395
▁బొమ్మలు	-10.8396
5)	-10.8398
▁నీళ్ల	-10.8403
రెట్	-10.8407
▁వికెట్	-10.8408
▁పద్ధతులను	-10.8409
▁నిర్వహిస్త	-10.8409
▁అభ్యాస	-10.8409
స్తుంద	-10.841
▁రాజస్థాన్	-10.8413
▁సంకలనం	-10.8417
▁ఎద్దు	-10.8418
▁అంతటి	-10.8418
▁కృత్రిమ	-10.842
▁వేరొక	-10.842
▁మూలాలు	-10.8421
▁కాస్త	-10.8424
శతాబ్ద	-10.8428
8)	-10.8431
▁ప్రయోగం	-10.8436
▁వాహనాల	-10.8436
▁మునుపటి	-10.8439
▁స్వీడన్	-10.8439
గుర్తించబడుతుంది	-10.8443
▁లక్షణాలను	-10.8447
▁స్టే	-10.8448
▁స్థాపించబడిన	-10.8449
▁కార్యక్రమ	-10.8449
▁కలిగివున్న	-10.8451
▁నియమిత	-10.8452
▁బెల్లంపల్లిలో	-10.8453
▁అబ్దుల్	-10.8456
ja	-10.8457
▁బల్ల	-10.8457
మీటర్	-10.8459
మెయిల్	-10.8459
▁గరిష్ఠ	-10.8459
▁నింద	-10.8464
▁సోదర	-10.8465
టింగు	-10.8467
▁కేశవ	-10.8474
▁పరిశోధనల	-10.8476
▁ఇబ్బంది	-10.8478
ough	-10.8479
▁పద్యాలు	-10.8483
సేపు	-10.8486
▁బయో	-10.8488
▁పర్యాయ	-10.8489
▁ఆక్సైడ్	-10.849
▁వ్యాకరణ	-10.8491
bu	-10.8492
బాహు	-10.8494
▁సమగ్ర	-10.8495
▁వ్రాశారు	-10.8498
▁భ్రమ	-10.85
▁సముద్రపు	-10.8502
ుతుంటాయి	-10.8502
▁నారాయణపేట	-10.8505
▁రూపము	-10.8505
గలుగుత	-10.8509
▁చర్చించ	-10.851
▁కార్యదర్శిగా	-10.8516
▁ఐతే	-10.8516
▁నిఘంటువు	-10.8518
9)	-10.8525
▁వైవిధ్య	-10.8528
census	-10.8528
▁ఇంగ్లాండు	-10.8528
▁మచ్చ	-10.8534
▁కాఫీ	-10.8537
ిద్దరూ	-10.854
సొ	-10.8542
▁వీని	-10.8546
sp	-10.8547
▁చేసుకోవడం	-10.8547
▁కమ్యూనిటీ	-10.8547
▁నేపాల్	-10.8548
▁హెడ్	-10.8548
▁చేప	-10.855
హైడ్ర	-10.855
ాహార	-10.8558
▁సంప్రదాయాల	-10.8558
ain	-10.8558
▁ద్వారక	-10.8559
శాసన	-10.8562
▁ఘట	-10.8562
శాయి	-10.8562
▁పలికి	-10.8563
▁ఏర్పడే	-10.8566
▁కొలంబియా	-10.8567
▁నాట	-10.857
▁పర్యవేక్షణ	-10.8572
▁లిమిటెడ్	-10.8577
గుడి	-10.8582
,00,000	-10.8587
ాడట	-10.8588
ారాధన	-10.8589
▁విస్తర	-10.8589
▁సభ్యునిగా	-10.8589
సాగాడు	-10.8597
▁ఊరేగింపు	-10.8597
▁కండ	-10.8599
ron	-10.8602
పీడన	-10.8603
ie	-10.8603
▁డిజైన్	-10.8607
▁గానూ	-10.8607
▁ముంద	-10.8609
▁జీడి	-10.861
▁అనువాదం	-10.8612
▁పనితీరు	-10.8617
▁మరణశిక్ష	-10.8617
▁మక్	-10.8619
పెట్టి	-10.8619
▁రాజవంశం	-10.8625
▁దీనినే	-10.8626
▁aspx	-10.8627
▁సమావేశం	-10.8629
సంవత్సర	-10.863
పదార్ధ	-10.8633
▁అనుగ్రహ	-10.8634
▁1961	-10.8637
▁చైనీయుల	-10.8637
అద్దంకి	-10.8639
▁మామ	-10.8639
▁దొరక	-10.864
▁సమయములో	-10.864
య్యింది	-10.8641
▁కరుణ	-10.8641
▁హక్కులు	-10.8642
▁చేరాయి	-10.8642
యోధ	-10.8643
▁టవర్	-10.8643
▁జ్ఞానం	-10.8644
▁తీవ్రవాద	-10.8644
▁బ్రాహ్మణుల	-10.8644
▁విరివిగా	-10.8647
▁నిర్వచ	-10.8647
▁గింజల	-10.8649
▁up	-10.865
▁హార్డ్	-10.8653
▁కట్టడాల	-10.8653
▁తగిలి	-10.8656
▁విశ్వామిత్ర	-10.8657
▁లక్నో	-10.8657
చెప్ప	-10.8659
▁తెలుసుకో	-10.866
▁పరిశ్రమలో	-10.8662
▁may	-10.8664
▁పత్తి	-10.8666
▁మానవులు	-10.8667
les	-10.8668
▁ఇటు	-10.867
▁స్పె	-10.8676
▁బేరియం	-10.8678
ever	-10.8679
ai	-10.8683
▁హ్యూ	-10.8687
▁అదుపు	-10.8687
▁వెల్లడించ	-10.8688
▁ప్రేమించ	-10.869
▁నామకరణం	-10.8697
▁పంతులు	-10.8697
▁చూచి	-10.8702
▁అక్కినేని	-10.8707
▁బలంగా	-10.871
▁చరిత్రకారులు	-10.8717
▁ఉపయోగపడుతుంది	-10.8718
▁వార్తల	-10.8724
▁మహాభారతం	-10.8724
▁ఇందిరా	-10.8726
▁trans	-10.8727
▁నూజివీడు	-10.8727
▁స్పందన	-10.8728
▁సత్కరించ	-10.8729
నియం	-10.8735
ple	-10.8736
▁ఉన్నందున	-10.8738
▁శుక్ల	-10.8738
▁వార్తా	-10.8741
యినా	-10.8743
▁న్యూస్	-10.8744
▁భాగాలుగా	-10.8747
▁ఫలితాలు	-10.8747
▁విమానం	-10.8753
ప్రాంతంలో	-10.8753
▁కొర	-10.8757
▁సంచిక	-10.8758
▁గానం	-10.8763
▁కాపర్	-10.8765
▁అవధాన	-10.8765
cul	-10.8765
వాళ్లు	-10.877
▁తుది	-10.8772
▁సమూహాలు	-10.8774
▁పొందే	-10.8776
▁స్వచ్ఛంద	-10.8777
▁నుంచీ	-10.8778
కాదు	-10.8778
▁ముగ్గు	-10.8779
▁చిత్రాల్లో	-10.8779
▁నాలుగవ	-10.8779
▁వ్యాప	-10.878
▁టీవీ	-10.8786
▁రామానుజ	-10.8788
▁హిమాలయ	-10.879
కొట్ట	-10.8793
▁అత్య	-10.8794
me	-10.8797
▁పప్పు	-10.8797
▁తొక్క	-10.8799
టిక్స్	-10.88
▁హోల్	-10.8801
▁శరీరము	-10.8802
కుడిగా	-10.8805
▁ఆర్థికంగా	-10.881
▁వైపున	-10.8811
▁మైసూర్	-10.8818
భాషా	-10.8818
▁ఖైదు	-10.8818
బోయే	-10.8819
▁మృత	-10.882
▁మౌర్య	-10.8822
▁ఆకలి	-10.8822
tain	-10.8822
▁ప్రసాదించ	-10.8826
▁విగ్రహాల	-10.8826
▁తొలుత	-10.8829
▁చెల్లింపు	-10.8829
▁పెట్టాడు	-10.883
▁సూత్రం	-10.8832
▁మురుగు	-10.8832
కుటుంబ	-10.8832
రీతి	-10.8833
▁శ్రీశైల	-10.8838
▁వ్రాసి	-10.8843
be	-10.8845
▁వుంచ	-10.8846
han	-10.8848
▁ముత్త	-10.8848
▁ముల్	-10.8848
▁యూరో	-10.8851
▁ఉక్కు	-10.8853
▁ఖలీఫా	-10.8859
▁హనుమంతుడు	-10.8859
▁చలికాలం	-10.8861
ah	-10.8861
▁కావ్యం	-10.8862
▁మార్గాన్ని	-10.8866
▁బుద్ధుని	-10.8867
మాంబ	-10.8867
▁ఫ్రా	-10.8867
మౌత	-10.8877
▁కాలంలోనే	-10.8877
▁వివరాల	-10.8878
bo	-10.8879
ిచారు	-10.888
▁అనుసంధానించ	-10.8885
▁నిర్దేశ	-10.8886
▁జబ్బు	-10.8891
ran	-10.8892
దన్న	-10.8892
▁పాలకులు	-10.8895
▁గర్వ	-10.8896
▁రెండ	-10.8898
▁పిల్లలను	-10.8899
▁అవినీతి	-10.89
▁పెద్దాపురం	-10.8902
▁ప్రమాదకర	-10.8905
ness	-10.8906
▁జీవనం	-10.8909
మెంట	-10.891
▁జనగామ	-10.891
కృత్	-10.8911
▁సజ్జ	-10.8912
▁మొదటగా	-10.8913
▁దీన	-10.8916
▁లక్ష్యంగా	-10.8918
▁చెందినవారు	-10.8918
▁నడప	-10.8919
▁చొప్పున	-10.892
▁మోతాదు	-10.892
▁ఎప్పుడు	-10.8922
▁పాడిన	-10.8925
▁2019	-10.8926
▁ఇస్తా	-10.8929
మల్ల	-10.8932
▁కలవాడు	-10.8933
▁వీసా	-10.8935
▁వంటకాల	-10.8935
▁పాల్గొన్నాడు	-10.8937
ఁడు	-10.8937
▁గాత్ర	-10.8938
▁1959	-10.8938
▁మహల్	-10.8939
Population	-10.8941
▁శ్రామిక	-10.8941
▁దేశాన్ని	-10.8944
gr	-10.8944
▁మంచిది	-10.8949
▁టాక్సీ	-10.8951
▁హిప్	-10.8953
Districts	-10.8954
▁జాగ	-10.8954
▁బ్రాండ్	-10.8955
గట్ట	-10.8956
▁విగ్రహాన్ని	-10.8958
AT	-10.896
▁సంజీవ	-10.8961
▁సదాశివ	-10.8961
▁చలనచిత్రం	-10.8963
▁వుంది	-10.8964
▁ఆక్సిజన్	-10.8972
▁శతాబ్ధ	-10.8972
ఘర్	-10.8973
కాలనీ	-10.8978
▁నిర్వహించి	-10.8979
▁వుడ్	-10.8979
Master	-10.8982
రక్షణ	-10.8983
▁సాధ్యం	-10.8983
▁కొన్న	-10.8983
ఘాత	-10.8984
▁మంగళగిరి	-10.8984
భంగ	-10.8989
▁అబ్బ	-10.8992
గూడలో	-10.8996
▁వేగంతో	-10.8997
మంతటా	-10.8999
ుకున్నాయి	-10.9002
▁పన్నెండు	-10.9003
▁మహమ్మద్	-10.9003
▁వస్తే	-10.9004
▁పూస	-10.9014
▁ఉరి	-10.9014
▁ట్రాక్	-10.9015
▁పోల్చ	-10.9016
port	-10.9021
,500	-10.9021
ome	-10.9022
▁ముద్దు	-10.9023
▁ఇంధనం	-10.9024
▁మాత్ర	-10.9024
థీ	-10.9025
ఉండ	-10.9026
దుర్గ	-10.9029
ook	-10.9029
▁రాజాం	-10.903
▁శాప	-10.9032
▁రెండవది	-10.9033
▁పులులు	-10.9033
▁జంతువు	-10.904
▁గుడ్డ	-10.9042
శ్రుత	-10.9044
▁ఉంటా	-10.9046
▁1976	-10.9053
▁ఫౌండేషన్	-10.9054
▁సంక్లిష్ట	-10.9054
కుమార్	-10.9057
▁ప్రచారంలో	-10.9057
▁సమావేశంలో	-10.9061
▁నార్త్	-10.9063
▁వారాల	-10.9065
clusion	-10.9065
▁కెరీర్	-10.9065
ex	-10.9065
ef	-10.9067
ింపబడింది	-10.9072
▁భారతదేశపు	-10.9072
▁జన్మించ	-10.9073
చెయ్య	-10.9085
▁రూపొందించబడింది	-10.9089
పోర్ట్	-10.9094
▁పునర	-10.9095
పరిచారు	-10.9096
▁ఆకుపచ్చ	-10.9096
▁అరుదైన	-10.9097
ఫోన్	-10.9099
యుగ	-10.9099
మర్రి	-10.91
కాలిక	-10.9106
▁సిరియస్	-10.9107
▁దృశ్యం	-10.9108
▁ఫిన్లాండ్	-10.9117
▁తైవాన్	-10.9118
▁బండి	-10.912
▁its	-10.912
▁వివాద	-10.9122
▁అవ్వ	-10.9124
▁గ్యా	-10.9124
▁గోడల	-10.9126
▁డ్రైనేజీ	-10.9127
▁చార్లెస్	-10.9128
▁సమాధానం	-10.9131
▁యువకుల	-10.9132
▁భూములు	-10.9135
▁పక్షులు	-10.9137
▁ఆరాధన	-10.9138
▁అంతరకృషి	-10.9138
▁చంద్రగుప్త	-10.9139
▁నిర్ధారణ	-10.914
▁బావి	-10.9142
▁దీవుల	-10.9144
వాదులు	-10.9145
▁క్రీడాకారుల	-10.9145
▁చూస్త	-10.9149
▁but	-10.9151
▁గుర్తించబడింది	-10.9155
▁కార్మికుల	-10.9158
Find	-10.9161
▁యున్న	-10.9162
▁రాజవంశ	-10.9166
▁ఆశ్రయ	-10.9169
▁దేశవ్యాప్తంగా	-10.9169
▁హైడ్రోజన్	-10.917
▁వర్గాలు	-10.9171
▁per	-10.9173
▁విధానము	-10.9174
న్యాస	-10.9179
గలరు	-10.9179
▁జారీచేసింది	-10.9181
▁పావు	-10.9187
▁బోర్డ్	-10.9188
▁చదివాడు	-10.9191
▁ప్రతికూల	-10.9191
వతేదీ	-10.9193
=28	-10.9194
ాపక	-10.9197
▁బాలబడులు	-10.9201
▁అభిషేక	-10.9201
▁అభిమానుల	-10.9201
▁పరిరక్షణ	-10.9203
▁మోహ	-10.9204
కాలపు	-10.9206
▁సెక్	-10.9206
▁మంజూరు	-10.9214
▁మరొకటి	-10.9215
▁సభకు	-10.9215
ిస్తాను	-10.9216
▁పాలించిన	-10.9216
▁సందర్భాల్లో	-10.9216
మంచి	-10.922
▁మిగిలినవి	-10.9222
చెట్టు	-10.9226
పోతాడు	-10.9227
▁భారం	-10.9229
▁సివిల్	-10.9234
▁బంధువుల	-10.9234
▁ఫీల్డ్	-10.9234
▁బ్రో	-10.9236
▁చదువుకున్న	-10.9238
గంట	-10.9239
▁As	-10.924
మేనేజ్మెంట్	-10.9241
▁శిశువు	-10.9241
▁అధికరించ	-10.9241
మంత్రి	-10.9243
▁Ra	-10.9243
▁భగవంతుని	-10.9243
▁కుట్ర	-10.9245
wiki	-10.9245
▁సంస్థలకు	-10.9246
టప్పుడు	-10.9246
▁సారిగా	-10.9248
▁సవరణ	-10.9249
▁తయారీలో	-10.9249
పూడిలో	-10.925
మోహన్	-10.9251
ory	-10.9252
▁ద్రాక్ష	-10.9254
▁కీలకమైన	-10.9254
▁తట్ట	-10.9254
▁ఘోర	-10.9255
▁ఆదేశించ	-10.9257
▁నిలబడి	-10.9259
యుగం	-10.9265
▁స్టీము	-10.9266
సత్య	-10.9266
▁వ్యాఖ్య	-10.9266
▁సంవత్సరాల్లో	-10.9267
టైల్	-10.927
ick	-10.9274
▁అనుబంధం	-10.9274
▁విశ్రాంతి	-10.9275
▁వెనక	-10.9277
▁దహన	-10.9278
▁ఎలి	-10.9282
▁విధుల	-10.9282
▁ముక్కు	-10.9283
▁గొర్రె	-10.9286
▁పొట్ట	-10.9288
▁నన్నయ	-10.929
▁దాస్	-10.9292
▁నాలుగ	-10.9293
▁వివరించారు	-10.9295
▁లయ	-10.9295
▁ఇంకో	-10.9301
ాభిమాన	-10.9302
▁అవుత	-10.9303
▁చిహ్నం	-10.9304
▁రాజేంద్ర	-10.9305
▁పచ్చి	-10.9306
సూత్ర	-10.9311
▁ఫైల్	-10.9312
శైలి	-10.9317
▁పర్యటించ	-10.9318
▁డిమాండ్	-10.9318
బస్తీ	-10.9318
▁app	-10.9321
▁లొంగ	-10.9327
▁వెర్	-10.9328
▁ఏదేమైనా	-10.9329
▁పౌరాణిక	-10.9329
▁అసమాన	-10.9332
▁వేటాడ	-10.9333
▁x	-10.9334
▁సింగపూర్	-10.9334
పోవడంతో	-10.934
▁అంతర్జాతీయంగా	-10.9344
▁కక్ష్యలో	-10.9344
▁కోడి	-10.9346
▁కదల	-10.9347
▁చౌదరి	-10.935
ధుల	-10.935
▁భద్రతా	-10.9351
▁రీతిలో	-10.9352
▁కార్తె	-10.9358
▁డివిజను	-10.9361
▁పత్రికా	-10.9361
జులై	-10.9362
▁సంపర్క	-10.9362
నెట్	-10.9365
బొమ్మ	-10.9369
▁దశకంలో	-10.937
▁4%	-10.937
▁ఎన్టీఆర్	-10.9371
▁వీలుగా	-10.9373
ount	-10.9373
▁ఏడవ	-10.938
▁నర్సీపట్నం	-10.9382
స్థులు	-10.9389
▁ba	-10.9392
▁పరిసరాల	-10.9394
▁రాష్ట్రాల్లో	-10.9394
కుప్పం	-10.9396
▁గ్రాములు	-10.9397
▁అమరిక	-10.9402
▁పోర్చుగల్	-10.9404
▁సమయంలోనే	-10.9404
▁కావాలి	-10.9406
▁ప్రతాప	-10.941
జూన్	-10.9412
▁నెట్వర్క్	-10.9414
▁పంచాంగం	-10.9414
▁కపిల	-10.9414
▁బృహ	-10.9414
▁పసి	-10.9416
▁సాంప్రదాయక	-10.9418
▁రావణ	-10.942
▁బదులు	-10.9426
▁సమావేశాల	-10.9431
▁కృప	-10.9433
▁చూసే	-10.9434
sk	-10.9434
▁కాయలు	-10.9435
▁హెన్రీ	-10.9436
శాంతి	-10.9436
శెట్టి	-10.9436
▁వదలి	-10.9437
▁ఇంగ్లీషులో	-10.9445
▁సరిగ్గా	-10.9447
▁బొమ్మల	-10.9447
▁విలాస	-10.9447
▁చర్చలు	-10.9448
ందరికీ	-10.9448
లిటీ	-10.9449
▁క్రమం	-10.945
కావ్య	-10.945
▁పుస్తకంలో	-10.9452
▁లవణ	-10.9453
▁భావాల	-10.9455
▁time	-10.9458
▁కోపం	-10.9463
▁కమలా	-10.9464
▁పర్వతాలు	-10.9467
▁నిలుప	-10.9467
▁సెర్	-10.9471
▁ఫాల్	-10.9473
▁విశాలమైన	-10.9473
▁త్రవ్వకాల	-10.9475
▁పోతు	-10.9475
▁త్రవ్వ	-10.9477
▁జవహర్	-10.9479
▁వివాదం	-10.9484
పడే	-10.9487
▁వేశారు	-10.9487
శంకర	-10.9487
▁మాలి	-10.9487
▁ఫిలిప్	-10.9491
▁స్థిరంగా	-10.9495
▁అంకిత	-10.9499
▁ఐక్యరాజ్యసమితి	-10.9501
▁గలదు	-10.9501
ినందుకు	-10.9502
▁లార్డ్	-10.9502
rd	-10.9502
ui	-10.9505
▁ప్రయోగాలు	-10.9505
▁మార్చబడింది	-10.9506
▁ఉద్దేశం	-10.9507
▁స్టాక్	-10.9507
▁గుర్తించింది	-10.9509
nu	-10.951
▁గ్యాస్	-10.9516
▁వెదురు	-10.9517
▁కళలు	-10.9517
నూనె	-10.9517
▁సంఘటనలు	-10.9518
▁దిగి	-10.952
▁1958	-10.952
▁521	-10.9522
▁వర్గీకరణ	-10.9526
ual	-10.9533
▁ఏర్పడతాయి	-10.9536
▁సంవత్సరాలుగా	-10.9545
వాసం	-10.9545
▁గవర్నరు	-10.9546
▁రాజ్యాలు	-10.9546
శ్లేష	-10.9547
▁పీటర్	-10.955
ేంద్రియ	-10.9551
▁నెలలు	-10.9553
▁వ్యవహర	-10.9554
▁రద్దీ	-10.9556
ెుక్క	-10.9556
▁1,2	-10.9557
▁ప్రాప్తి	-10.9559
▁పంది	-10.9564
▁భవనాలు	-10.9568
▁అడుగులు	-10.9569
▁వదుల	-10.957
సెంట్	-10.9572
▁Re	-10.9572
▁మాంస	-10.9576
▁కూచిపూడి	-10.9577
▁సుగ్రీవ	-10.9578
▁గ్రహీత	-10.9578
▁600	-10.958
▁సమానమైన	-10.9582
▁దిద్ద	-10.9583
వలసలో	-10.9584
▁ముఖ్యమంత్రిగా	-10.9584
▁పొటాషియం	-10.9588
ata	-10.9589
▁చేసాయి	-10.9593
▁వర్మ	-10.9595
న్యూ	-10.9599
▁కార్యక్రమాన్ని	-10.96
▁శీతాకాల	-10.96
▁ప్లాస్టిక్	-10.96
▁ఎడ	-10.96
▁తిరుగుతూ	-10.9601
▁భజన	-10.9602
ేశ్వర్	-10.9603
▁సమాధాన	-10.9607
cu	-10.9608
▁బ్రౌన్	-10.961
▁విస్తృతమైన	-10.961
▁ఎన్నికయ్యారు	-10.9611
▁పరిమితమైన	-10.9615
▁పక్షుల	-10.9617
▁వాల్వు	-10.9618
▁1931	-10.962
▁Wiktionary	-10.9621
▁కలిగింది	-10.9624
▁బాపు	-10.9624
▁సన్మాన	-10.9625
▁వాయిద్య	-10.9626
▁వాహనం	-10.963
ix	-10.963
▁ఆమ్లాల	-10.9631
▁భూమిపై	-10.9633
▁మేయర్	-10.9633
▁మూడ	-10.9641
▁1936	-10.9641
▁సమర	-10.9642
▁భీముని	-10.9642
▁ప్రతిపక్ష	-10.9642
ర్చు	-10.9646
వాహన	-10.9648
▁పోగొట్ట	-10.965
▁పండితుడు	-10.9653
హరణ	-10.9654
▁name	-10.9655
▁చదివే	-10.9655
▁బ్రా	-10.9656
▁their	-10.9656
▁గాయకుడు	-10.9658
▁మరోవైపు	-10.9661
▁అరుణ	-10.9665
▁షియా	-10.9667
wa	-10.9668
రెన్స్	-10.9671
▁ఇటుకల	-10.9673
▁విరాట	-10.9676
వర్మ	-10.9679
జరు	-10.9682
▁బయటపడ	-10.9682
▁తదనంతర	-10.9688
▁పాండవులు	-10.9691
▁ముఖ్యమైనది	-10.9695
▁వెయ్యి	-10.9699
▁స్నేహితుల	-10.97
▁విరామ	-10.9701
స్తుండగా	-10.9702
▁సహజంగా	-10.9703
టూరి	-10.9705
▁ప్రగతి	-10.9708
▁కచేరీ	-10.971
▁వివాదాల	-10.9716
▁జీత	-10.9716
▁రావడానికి	-10.9717
▁పార్వతీ	-10.9718
▁ఫిల్	-10.9721
▁హిట్లర్	-10.9722
hu	-10.9723
▁క్రీడలలో	-10.9724
▁అందించాడు	-10.9725
▁విచిత్ర	-10.9726
▁మంజ	-10.9729
ారంభ	-10.9729
▁1968	-10.9731
▁కట్టు	-10.9733
▁అలంకార	-10.9733
ప్రభ	-10.9736
▁చాళుక్యుల	-10.9739
▁1939	-10.9741
▁1963	-10.9741
▁భర్తీ	-10.9742
వైశాల్య	-10.9743
▁పంచాయితీ	-10.9743
▁కారణము	-10.9748
▁బానిసత్వ	-10.9752
ించువాడు	-10.9753
▁బతుకమ్మ	-10.9754
▁534	-10.9758
▁యూరోప్	-10.9761
▁2%	-10.9762
▁జొ	-10.9763
▁బుట్ట	-10.9765
▁దేశపు	-10.9766
===	-10.9771
ఫిక్	-10.9771
▁ఇళ్ళ	-10.9772
▁లేత	-10.9776
▁ఆవిష్కరించ	-10.9777
▁ఇస్లామిక్	-10.9777
▁ఏటియం	-10.9777
▁స్కూలు	-10.9777
కొన్న	-10.9777
ey	-10.9778
▁యాక్	-10.9779
▁నియమాల	-10.9779
▁స్వభావం	-10.978
▁ఏర్పడ్డాయి	-10.9781
▁ఏటా	-10.9784
చేసారు	-10.9786
▁ఉపనిషత్తు	-10.9788
▁గులాబీ	-10.9788
▁సమైక్య	-10.9788
▁లింగం	-10.9789
▁అందంగా	-10.9792
▁వచ్చినప్పుడు	-10.9794
ప్రజల	-10.9796
సామర్ధ్య	-10.9796
మిల్లి	-10.9797
▁యుద్ధాలు	-10.9798
▁చైనీస్	-10.9799
▁మరుగుదొడ్ల	-10.9799
▁సంసార	-10.9799
▁గురై	-10.98
text	-10.9801
▁గుర్రం	-10.9803
ark	-10.9804
ెయిన్	-10.9804
్యమైన	-10.9805
▁యుద్ధాల	-10.9805
▁నిర్వహించాడు	-10.9807
▁అల్ప	-10.981
▁సరుకు	-10.981
▁ఘటన	-10.9811
▁ఉంటున్న	-10.9815
▁తరంగాల	-10.9819
▁వెలువడిన	-10.982
▁ఇంగ్లండ్	-10.9822
▁చిరంజీవి	-10.9822
▁థామస్	-10.9822
▁అఖిల	-10.9824
▁ఏనుగుల	-10.9827
▁ఆజ్ఞ	-10.9827
▁నీడ	-10.9828
▁అనబడే	-10.9829
▁మిత్రుల	-10.9832
▁పదార్ధాల	-10.9833
▁విధానాలను	-10.9833
▁పరమాణువు	-10.9835
▁దేవాలయాల	-10.9837
▁తాటి	-10.9839
gar	-10.9843
▁కోణం	-10.9843
▁ఆదిలాబాదు	-10.9844
▁రాశి	-10.9847
▁కృష్ణమూర్తి	-10.9851
ations	-10.9853
▁మాట్లాడుతూ	-10.9853
▁తీర్చిదిద్ద	-10.9855
▁అంధ	-10.9857
▁ఒకరోజు	-10.9859
▁ఉత్తీర్ణ	-10.9863
▁గాంధార	-10.9864
▁St	-10.9864
▁పోలిష్	-10.9866
▁నటుడిగా	-10.9869
▁ప్రశంసలు	-10.987
▁ఢిల్లీలో	-10.9876
▁పార్లమెంట్	-10.9878
▁మనుగడ	-10.9878
med	-10.988
ప్రసాద్	-10.9881
-7	-10.9881
-18	-10.9883
TV	-10.9883
▁పూర్వపు	-10.9884
▁యేట	-10.9887
దీప	-10.9888
▁కోతలు	-10.9888
▁వృద్ధ	-10.9889
▁తగు	-10.9889
శిఖర	-10.9892
ాపన	-10.9894
▁ఆస్థాన	-10.9897
▁భూభాగ	-10.9899
▁జ్వర	-10.9903
▁సమేత	-10.9903
▁పోషించాడు	-10.9905
cc	-10.9907
▁వేతన	-10.9911
▁సార్వత్రిక	-10.9912
▁వ్యతిరేకత	-10.9912
▁నిజం	-10.9912
▁కోయ	-10.9915
▁ఉందో	-10.9915
జ్ఞా	-10.9916
ాత్మకంగా	-10.9917
▁అర్జునుడి	-10.9925
▁పట్టణము	-10.9925
▁ఉద్యమాల	-10.9926
పోతూ	-10.9927
▁సూచిక	-10.9928
▁పాలకుల	-10.9928
mar	-10.9933
▁కింగ్డం	-10.9933
▁సిరిసిల్ల	-10.9934
▁రూపాంతరం	-10.9935
▁తప్పనిసరిగా	-10.9935
▁సంస్థానం	-10.9937
▁ఇనుప	-10.9938
▁సభా	-10.9944
▁1%	-10.9945
▁పరుగుల	-10.9949
▁పేర్లతో	-10.9949
1,000	-10.9949
మాత్ర	-10.995
▁గింజలు	-10.9953
▁సదా	-10.9953
▁దుష్	-10.9961
▁రకము	-10.9964
▁ప్రిన్స్	-10.9965
యున్నది	-10.9969
▁పొద్దుతిరుగుడు	-10.9969
▁స్పేస్	-10.9969
▁శతాబ్దానికి	-10.9969
▁కాగితం	-10.9969
▁భావం	-10.9969
లైన్	-10.9972
▁గుమ్మడి	-10.9976
▁గన్నవరం	-10.998
▁పునాది	-10.998
▁అంతిమ	-10.998
కలిగి	-10.9982
దారి	-10.9983
▁మాగ్	-10.9985
▁నిండిన	-10.9986
▁యంత్రం	-10.9987
ug	-10.9989
చేయడం	-10.9989
▁యీ	-10.999
▁వెనక్కి	-10.9991
పరిచి	-10.9998
▁చేపట్టారు	-10.9998
▁ఆభరణాల	-11.0003
▁సంహరించ	-11.0004
మాసం	-11.0006
▁కేవలము	-11.0014
▁శివాజీ	-11.0014
▁ఆయుధాల	-11.0015
▁ఇల్ల	-11.0015
దుర్తి	-11.0016
▁పాలించారు	-11.0017
▁పుస్తకము	-11.0017
దశలో	-11.0022
ave	-11.0024
▁చూపిస్తుంది	-11.0024
▁ఇద్దరి	-11.0026
▁దినోత్సవం	-11.0027
▁సాంప్రదాయం	-11.0028
▁నిపుణ	-11.003
▁నోట్	-11.0034
▁Sh	-11.0039
తత్వ	-11.004
▁నిధి	-11.004
▁కొలువు	-11.004
ith	-11.0041
▁గోళ	-11.0041
ేశ్వరి	-11.0042
▁వివాహమాడ	-11.005
▁తెల్లని	-11.0055
విశ్వాస	-11.0055
వాలా	-11.0059
▁కర్నాటక	-11.006
tro	-11.0063
దాకా	-11.0066
▁బోరు	-11.0066
చిహ్న	-11.0068
లక్ష్మీ	-11.0068
▁మానవుడు	-11.0073
వర్గం	-11.0073
▁పతాక	-11.0074
▁వేసింది	-11.0074
-12	-11.0074
త్తూరు	-11.0075
▁సైన్యాల	-11.0076
▁అనిపించ	-11.008
▁Co	-11.008
కొరకు	-11.0081
▁సమీకరణ	-11.0082
▁గర్భాశయ	-11.0083
ుకొన్నారు	-11.0084
ism	-11.0084
యై	-11.0085
▁గంధ	-11.0085
▁టైమ్స్	-11.0086
▁కార్బో	-11.0089
▁వస్తారు	-11.0089
వర్ధన	-11.009
▁దేవాలయాలు	-11.0091
▁1941	-11.0092
వరణ	-11.0092
ప్లా	-11.0094
▁ఆంగ్లేయుల	-11.0095
▁సభ్యత్వం	-11.0096
▁తోటల	-11.0097
▁పతన	-11.01
▁బౌద్ధమత	-11.01
▁కొమర	-11.0102
au	-11.0104
▁ద్వీపంలో	-11.0105
▁వృష	-11.0105
▁నాగయ్య	-11.0106
▁ముట్టడి	-11.0108
▁జోస్	-11.0112
డాన్	-11.0114
▁గూడా	-11.0118
▁విత్తనం	-11.0118
ాదిత్య	-11.012
ాచార్యుడు	-11.0124
▁నివసిస్త	-11.0125
▁మోర్	-11.0127
▁సదస్సు	-11.0129
థ్య	-11.013
▁అవుట్	-11.0131
▁విడుదలైంది	-11.0134
▁రాజ్యానికి	-11.0135
▁గమ్య	-11.0138
స్ట్రీ	-11.014
▁అతుక	-11.0141
king	-11.0141
▁భాగాలను	-11.0144
ber	-11.0145
వాళ్ళ	-11.0146
▁మెట్ల	-11.0147
కర్ణ	-11.0148
▁ఆమదాలవలస	-11.0153
▁ఉండటంతో	-11.0154
▁గుంటూరులోను	-11.0159
▁భరించ	-11.016
స్త్రీ	-11.016
▁ఆవశ్యక	-11.0164
▁తెలుసుకొన	-11.0167
▁దృ	-11.0167
ali	-11.0168
▁వెలుపలి	-11.0168
ుందని	-11.0173
pan	-11.0174
▁ఉద్దేశంతో	-11.0177
ition	-11.0185
▁సామ్రాజ్యాన్ని	-11.0187
▁స్వీకరించారు	-11.0189
హస్త	-11.0191
ాలన్నీ	-11.0195
▁అభ్యర్థిగా	-11.0197
▁ఆస్తుల	-11.0198
▁ఓవర్	-11.0202
శాతం	-11.0203
▁క్రీడలు	-11.0205
▁మందులు	-11.0206
▁వారసుల	-11.0206
▁పునరుద్ధరణ	-11.0211
▁మహిమ	-11.0214
▁కోత	-11.0215
▁కార్మికులు	-11.0218
▁నౌకా	-11.0219
▁మార్కాపురం	-11.0223
▁మాత్రము	-11.0223
▁నరేంద్ర	-11.0224
ful	-11.0224
▁సికింద్రాబాద్	-11.0234
▁మృదు	-11.0234
▁సెలవు	-11.0235
నాళ	-11.0236
▁కర్ణుడు	-11.0237
▁దాల్చ	-11.0243
SA	-11.0243
యితే	-11.0244
▁ముత్యాల	-11.0249
యోగ్య	-11.025
▁కొనసాగుతున్న	-11.0253
▁అవలంబించ	-11.0258
▁దరఖాస్తు	-11.0258
▁సమన్వయ	-11.0258
▁బయటికి	-11.0258
▁రాలేదు	-11.0259
▁కాపీ	-11.026
▁పార్వతి	-11.026
మైలవరం	-11.026
▁హార్మోన	-11.0266
▁భద్రపరచ	-11.0269
▁కుతుబ్	-11.0269
▁స్పష్టమైన	-11.027
▁నరస	-11.0273
▁మాసంలో	-11.0275
▁స్లా	-11.0279
▁కనిపించింది	-11.0279
▁అభివర్ణించ	-11.0281
▁అమృత్	-11.0282
▁పాండవ	-11.0283
▁పంపాడు	-11.0285
▁జయించ	-11.0289
▁ప్రకట	-11.029
▁దాడులు	-11.0294
▁చంద్రుడు	-11.0296
▁భావించబడుతుంది	-11.03
gi	-11.0304
▁పోవు	-11.0307
▁పుస్తకాన్ని	-11.0309
cent	-11.0309
▁కొద్దీ	-11.031
▁అనుసంధాన	-11.0313
▁పోషిస్త	-11.0316
▁థియ	-11.0317
▁ఉనికిలో	-11.0319
మడుగు	-11.0321
▁బయటి	-11.0325
▁ఉపవాస	-11.0326
▁బంగార	-11.0327
▁దానిపై	-11.0328
▁బీడీలు	-11.0328
పరచి	-11.033
▁518	-11.0332
▁అమిత	-11.0334
▁బుద్ధుడు	-11.034
▁అంగీకర	-11.0341
వేసింది	-11.0342
ార్కట్	-11.0342
సెన్	-11.0343
▁శిల్పాలు	-11.0347
▁లోతైన	-11.0353
▁సాగిన	-11.0355
▁తీసుకునే	-11.0358
▁సంస్కృతంలో	-11.0359
▁మరియూ	-11.037
▁వెడ	-11.0373
ాయణ	-11.0374
▁మహాభారత	-11.0374
▁హామ్	-11.0377
▁కణాలు	-11.0379
శిక్ష	-11.0379
▁మనుమ	-11.0382
యెల్	-11.0382
▁సమయాన్ని	-11.0383
▁శకం	-11.0385
▁నిరుద్యోగ	-11.0387
▁నిశ్చయించ	-11.0389
▁ఆలయాల	-11.0392
▁పద్యాల	-11.0393
▁నూతనంగా	-11.0393
▁రచనా	-11.0395
▁రసం	-11.0398
▁విత్తుట	-11.04
▁వెర్షన్	-11.0401
▁బీహార్	-11.0401
▁నాటకంలో	-11.0401
▁నియోజకవర్గ	-11.0404
▁కూటమి	-11.0411
▁మధ్యయుగ	-11.0412
▁పొడు	-11.0412
▁విహార	-11.0414
-9	-11.0417
▁1937	-11.0421
▁అద్దె	-11.0421
▁కలుస	-11.0422
▁సిస్టమ్	-11.0423
▁ఆకాశవాణి	-11.0424
▁బ్యాక్	-11.0429
▁తారక	-11.0432
▁మెట్రో	-11.0432
▁చీలి	-11.0434
▁ధారావాహిక	-11.0435
▁సరస్వతీ	-11.0435
చింత	-11.0435
తరువాత	-11.0437
▁అనుచరుల	-11.0437
▁ఛార్	-11.0438
NA	-11.0442
▁మరే	-11.0443
▁జీవించి	-11.0443
మూడి	-11.0445
▁సందర్శకుల	-11.0447
▁అచ్చు	-11.045
▁మహాసభ	-11.0451
సర్వ	-11.0453
▁మాయా	-11.0455
▁మంత్రివర్గ	-11.0456
▁ఆర్మేనియన్	-11.0459
గఢ్	-11.0462
▁అహింస	-11.0465
▁టాటా	-11.0476
▁దుర్గా	-11.0483
▁గర్భం	-11.0487
యంత్ర	-11.0488
▁గ్రె	-11.0494
▁చురుకుగా	-11.0495
▁మధ్యాహ్న	-11.0495
▁గోల్కొండ	-11.0498
▁తెలిసింది	-11.0503
▁ఎన్నుకో	-11.0504
▁విభజించబడింది	-11.0505
▁ప్రవేశపెట్టారు	-11.0507
▁ఇంజిన్	-11.0507
▁1933	-11.0507
ాశ్రమ	-11.0508
▁వైవిధ్యం	-11.0509
son	-11.051
▁ఎక్స	-11.0514
▁విరుద్ధంగా	-11.0519
▁సాత్యకి	-11.0519
▁వానర	-11.0523
▁కొత్తపల్లి	-11.0525
▁పరిజ్ఞానం	-11.0527
▁నిత్యం	-11.053
▁శంకరులు	-11.0531
▁ఆడపిల్ల	-11.0534
లేదా	-11.0537
con	-11.0539
▁చేయుటకు	-11.054
▁మెచ్చ	-11.054
వారే	-11.0541
▁ఉపయోగపడ	-11.0542
▁బీమా	-11.0543
▁హైవే	-11.0543
▁గ్రామపంచాయతి	-11.0543
▁కామర్సు	-11.0543
▁ఆండ్ర	-11.0544
▁భాస్కర	-11.0545
vo	-11.0547
▁తేదీలు	-11.0547
▁ఇంక	-11.0557
వేసిన	-11.0562
మంత్ర	-11.0562
ail	-11.0563
▁రథం	-11.0564
▁కార్బను	-11.0564
▁ప్రొడక్షన్	-11.0567
▁హైకోర్టు	-11.0567
▁నైతిక	-11.0568
▁వీరభద్ర	-11.057
పత్రిక	-11.0571
▁శాసనాలు	-11.0572
▁ప్రాంగణ	-11.0575
▁విమర్శకుల	-11.0578
▁అవశేషాల	-11.0581
▁కాల్పుల	-11.0581
dh	-11.0583
▁some	-11.0585
▁శల్య	-11.0586
▁కళాకారుడ	-11.0586
దేవర	-11.0588
▁కార్యాచరణ	-11.0592
▁ప్రవర్తించ	-11.0592
▁కలిగ	-11.0592
▁కొరత	-11.0594
▁తిక్కన	-11.0595
▁బాలికల	-11.0596
▁తిన్న	-11.0597
▁హేమ	-11.06
▁వర్షం	-11.06
▁ద్వ	-11.0601
▁పనిచేసాడు	-11.0605
▁యాత్రికుల	-11.0607
▁పీడనం	-11.0607
▁3%	-11.0609
▁కమాండ	-11.0609
ుకుంటా	-11.061
▁వ్యాఖ్యానించ	-11.061
▁ఏమిటి	-11.0611
▁మంగోల	-11.0612
▁1938	-11.0613
▁వాడిన	-11.0614
▁ధోరణి	-11.0616
▁వైదిక	-11.0621
▁బాగ్	-11.0624
bi	-11.0628
▁జవాబు	-11.0628
▁పునర్నిర్మాణ	-11.0629
▁ఫేస్	-11.0629
▁నిర్మాణాన్ని	-11.0633
▁నేత్ర	-11.0635
▁De	-11.0638
బెల్	-11.0639
సాహెబ్	-11.064
▁సంఘాలు	-11.0642
▁నిబంధనల	-11.0644
▁లెక్కించ	-11.0644
▁దేవస్థానం	-11.0645
మయింది	-11.0647
▁నక్షత్రాల	-11.0649
ోన్నత	-11.0652
▁ఇంజనీర్	-11.0652
▁పంజాబు	-11.0652
ft	-11.0653
▁కక్ష్య	-11.0658
▁జైపూర్	-11.0664
▁ఛైర్మన్	-11.0665
▁నందిగామ	-11.0665
▁జ్యూ	-11.0665
▁స్థానము	-11.0666
▁సామర్థ్యాన్ని	-11.0667
▁గడప	-11.0667
పాణి	-11.0667
▁లభిస్తున్న	-11.0668
▁ప్రాంగణంలో	-11.0669
PA	-11.067
▁సౌకర్యము	-11.067
▁రూపుదిద్ద	-11.0677
▁సుగంధ	-11.0677
▁బానిసల	-11.0683
దత్త	-11.0683
▁స్మృతి	-11.0689
▁ఆల్బం	-11.0689
▁ఆశ్రమం	-11.0692
▁జ్యోతిష	-11.0698
▁బలవంతంగా	-11.07
▁అధీనంలో	-11.0701
▁ఎలక్ట్రాన్	-11.0701
▁స్క్రీన్	-11.0701
ుతుండగా	-11.0702
▁నీలం	-11.0703
▁గేట్	-11.0703
▁అక్కడికి	-11.0705
కపోవడంతో	-11.0705
▁లక్క	-11.0709
▁చట్టాలు	-11.071
▁110	-11.0714
చేస్తుంది	-11.0717
▁సాయంతో	-11.072
▁నిలువు	-11.072
▁నిలబడ	-11.072
▁1934	-11.0722
▁ప్రతిభా	-11.0723
భోజ	-11.0726
▁ఫ్రాంక్	-11.073
▁పక్షం	-11.0733
▁1944	-11.0735
CO	-11.0738
▁ముగిసింది	-11.0738
▁రెవిన్యూ	-11.0738
▁మాధ్యమం	-11.0738
▁స్థూప	-11.0738
▁నటనకు	-11.0742
▁No	-11.0742
▁తేజ	-11.0749
▁నారాయణరావు	-11.0751
▁ట్రాఫిక్	-11.0751
▁గౌర	-11.0751
▁been	-11.0756
▁రాకుండా	-11.076
▁ఫెడరల్	-11.0763
▁ఒకటైన	-11.0765
▁పరిగణిస్తారు	-11.0767
▁ఇంద్రియ	-11.0771
▁ఫోర్స్	-11.0772
▁ఇతిహాస	-11.0775
▁నిజామాబాదు	-11.0775
▁br	-11.078
▁రికో	-11.0782
మవుతాయి	-11.0786
▁పిఠాపురం	-11.0788
▁రిచర్డ్	-11.0788
ాస్త్ర	-11.079
▁హీరోగా	-11.0796
▁కండరాల	-11.0797
▁కానోపస్	-11.08
▁ముగిసిన	-11.08
▁ఎగుమతుల	-11.08
▁అలంకరణ	-11.08
▁మొట్టమొదట	-11.0801
▁న్యాయమూర్తి	-11.0804
▁సోదరి	-11.0808
2,000	-11.0809
▁అడుగ	-11.0811
▁సామూహిక	-11.0812
▁తెలిపింది	-11.0812
ved	-11.0815
▁క్రూర	-11.0816
▁ఖర	-11.0818
▁కప్పు	-11.082
▁హైదరాబాదులోనూ	-11.082
▁పెదబయలు	-11.0825
▁బూడిద	-11.0825
▁విశ్వసించ	-11.0828
▁సంకలన	-11.0829
▁స్పి	-11.0834
ప్రాంతం	-11.0834
▁మినహాయింపు	-11.0837
▁సుదూర	-11.0837
▁సర్వీస్	-11.0838
▁పరిమితి	-11.0838
▁స్థిరపడ్డారు	-11.0839
▁నిర్మాణాల	-11.0848
▁బడ్జెట్	-11.085
▁రామగుండం	-11.085
▁రాజీవ్	-11.085
▁కల్యాణ	-11.085
▁పిమ్మట	-11.085
▁చేసుకొన	-11.0853
▁పరమాత్మ	-11.0853
▁కల్పన	-11.0854
lic	-11.0859
▁దక్షణాన	-11.0862
▁కుండల	-11.0862
▁వివరించాడు	-11.0862
సంఘ	-11.0863
▁పెట్టే	-11.0863
▁కూడలి	-11.0864
▁రావణుడు	-11.0864
▁వేప	-11.0865
రాయ్	-11.0865
▁దాత	-11.0867
డెంట్	-11.0871
ుకొను	-11.0872
లేవు	-11.0874
▁డైరెక్ట	-11.0874
వినియోగ	-11.0875
▁నియమాలు	-11.0877
▁స్థాపక	-11.0882
▁అందిస్తున్న	-11.0885
▁1932	-11.0886
▁శ్రీకాళహస్తి	-11.0887
▁శీతల	-11.0887
▁అయోధ్య	-11.0887
▁తలసరి	-11.0891
▁పెంట	-11.0897
▁చింతపల్లిలో	-11.0898
▁ఎదుట	-11.0899
▁వైభవ	-11.0903
్యాలు	-11.0906
పోవడానికి	-11.0906
▁సంతృప్తి	-11.0907
జాతుల	-11.0908
కలాప	-11.091
▁1921	-11.0912
▁వ్యయ	-11.0914
▁క్రోధ	-11.0915
▁అధ్యక్షత	-11.0915
▁సంప్రదాయాలు	-11.0921
ినట్టు	-11.0924
▁పటేల్	-11.0925
▁సృష్టించిన	-11.0925
▁గాంధీజీ	-11.093
కిరణాల	-11.0932
▁గిరిజనుల	-11.0934
వ్రత	-11.0934
▁రాజ్యము	-11.0935
▁కాల్చి	-11.0936
▁మిర్యాలగూడ	-11.0937
▁ప్యాలెస్	-11.0938
▁వ్యవహరించారు	-11.0942
▁1935	-11.0948
▁బసవ	-11.0952
▁sub	-11.0952
▁అలె	-11.0953
▁ఆదేశాల	-11.0955
▁నిపుణుల	-11.0958
▁1928	-11.0961
▁లోపం	-11.0961
▁ధ్వంసం	-11.0962
▁టెన్నిస్	-11.0962
▁తాండూరు	-11.0962
చుకొని	-11.0963
▁అతిథి	-11.0963
▁గమనించి	-11.0963
▁ఇబ్బందులు	-11.0965
▁ప్రశ్నించ	-11.0967
▁6%	-11.0967
న్నట్లు	-11.0969
▁చిలక	-11.0973
;---	-11.0975
▁టోర్నమెంట్	-11.0975
▁క్లిష్టమైన	-11.0978
▁హైదర్	-11.0979
చూప	-11.0983
▁మూత	-11.0984
▁పదార్థము	-11.0984
జీవన	-11.0985
▁సంబంధమైన	-11.0986
▁చాలావరకు	-11.0991
▁ఆరాధించ	-11.1
▁పరాజయం	-11.1
▁పరిపూర్ణ	-11.1002
▁ప్రధానమైనవి	-11.1005
▁విశాఖపట్నంలోనూ	-11.1006
▁మంచ	-11.101
▁ఫెస్టివల్	-11.1013
▁గనుక	-11.1016
▁పారిస్	-11.1016
▁గుర్	-11.1018
▁use	-11.1018
▁కేంద్రాల్లో	-11.1019
▁ఉద్దేశ	-11.1019
▁సిద్ధాంతాన్ని	-11.1021
▁సంస్కరణలు	-11.1025
▁ఎలక్ట్రో	-11.1026
▁తీరప్రాంత	-11.1026
▁కళింగ	-11.1026
▁మెట్ట	-11.103
▁గోల్డ్	-11.1031
▁తెచ్చిన	-11.1033
▁పనిచేస్తున్నారు	-11.1033
eng	-11.1034
నట్లయితే	-11.1037
▁ముస్లిములు	-11.1041
AM	-11.1041
▁మోటార్	-11.1043
▁జాగ్రత్తగా	-11.1045
▁క్రూ	-11.1048
met	-11.1048
▁1929	-11.1049
▁ట్రేడ్	-11.1051
చెన్	-11.1052
▁రాయబార	-11.1053
▁ఆర్మీ	-11.1057
▁సోదరులు	-11.1061
డొ	-11.1062
▁కుదుర్చ	-11.1071
▁కొండపై	-11.1073
▁సంగతి	-11.1074
▁7%	-11.1075
పూర్ణ	-11.1076
సాగారు	-11.1078
▁ప్రహ్లాద	-11.1079
ame	-11.108
fa	-11.1085
▁పీపుల్స్	-11.1089
▁మునగ	-11.109
▁సేకరించి	-11.1096
do	-11.1097
▁పెళ్ళ	-11.1099
▁పెరగడం	-11.1099
▁తలుపు	-11.1099
స్తుంటాడు	-11.11
▁జలపాతం	-11.1101
▁నిర్వహించింది	-11.1102
▁స్టేడియం	-11.1102
ik	-11.1103
▁చేపట్టాడు	-11.1105
▁ఆత్మహత్య	-11.1114
▁చుట్టుపక్కల	-11.1114
▁చెవి	-11.1116
పూర్వకంగా	-11.1118
▁బాండ్	-11.1119
పరిచే	-11.1119
▁కోరాడు	-11.1119
▁బీదర్	-11.112
▁లోహాల	-11.112
భుజ	-11.1121
▁ఆచారం	-11.1122
▁బిగించ	-11.1128
▁సీస	-11.113
▁కేప్	-11.113
▁జగ్గ	-11.1131
▁పీల్చ	-11.1131
మౌతుంది	-11.1135
▁పాక్షిక	-11.1136
▁ఫలితాలను	-11.114
▁గొలుసు	-11.114
▁కూడి	-11.1145
▁టీకా	-11.1146
ఋ	-11.1151
▁సముదాయం	-11.1152
▁డిస్నీ	-11.1152
▁అశ్వత్థామ	-11.1153
▁ఉత్తేజ	-11.1153
▁హనుమాన్	-11.1153
▁కాగిత	-11.1153
▁క్రీడల	-11.1153
▁ఘాట్	-11.1155
▁ప్రాణాలు	-11.1155
▁వ్యక్తిత్వ	-11.1157
ాచారి	-11.1157
▁డయా	-11.1158
▁సమర్ప	-11.1158
▁బలగాల	-11.116
▁స్వీకర	-11.1162
▁ప్రవేశించిన	-11.1164
▁నడవ	-11.1165
▁వేషం	-11.1165
▁ఇబ్రహీంపట్నం	-11.1166
మండ్	-11.1166
▁పదవిని	-11.1167
▁130	-11.1168
▁టెస్టు	-11.1169
▁చెరుకు	-11.1171
త్వానికి	-11.1173
▁సూచించారు	-11.1173
▁మలి	-11.1174
వెల్లి	-11.1174
▁బయలుదేరి	-11.1175
▁సార్వభౌమ	-11.1179
వృక్ష	-11.1181
▁మరలా	-11.1183
▁సగటున	-11.1184
▁పొందడానికి	-11.1185
▁నేటికీ	-11.1187
మయ్యారు	-11.1188
▁వ్యవధి	-11.1191
▁పరిజ్ఞాన	-11.1192
▁శత్రువుల	-11.1195
▁నాయకత్వ	-11.1196
▁మారుతూ	-11.1196
▁పరిశీలించి	-11.1196
▁ప్రస్తుతము	-11.1197
▁they	-11.1198
cal	-11.1198
▁వాయిస్	-11.1199
▁ధర్మము	-11.1202
జ్యోతి	-11.1206
గోపాల	-11.1207
▁ప్రదానం	-11.1212
మామిడి	-11.1213
▁విమర్శకులు	-11.1214
▁పేదరికం	-11.1217
ward	-11.122
▁పాదరస	-11.1221
ేశ్వరస్వామి	-11.1224
కైనా	-11.1224
▁పరిణామం	-11.1225
▁జెండా	-11.1227
▁pri	-11.1229
▁శనివారం	-11.123
ఉత్తర	-11.123
▁వదిలే	-11.1231
గ్రాడ్యుయేట్	-11.1243
▁స్పియర్	-11.1244
▁తీసుకోవడం	-11.1249
▁ద్రవీభవన	-11.1256
▁కుడా	-11.1258
క్సైడ్	-11.1265
▁స్కే	-11.1268
▁ప్రాబల్య	-11.1269
▁దర్శకుడిగా	-11.1271
-8	-11.1275
▁అంకె	-11.1277
▁ఆంధ్రదేశ	-11.1278
▁చర్చ్	-11.1279
▁పెంపొందించ	-11.1282
▁చెబుతుంది	-11.1284
ుకోకుండా	-11.1284
way	-11.1285
▁ప్రభావాల	-11.1292
▁పెక్కు	-11.1293
▁బొబ్బిలి	-11.1295
▁పరీక్షల	-11.1297
▁1919	-11.1299
▁పరివర్తన	-11.1299
▁చాళుక్య	-11.1299
▁కంచి	-11.1303
▁కేశ	-11.1308
▁ప్రార్థించ	-11.1309
ినేని	-11.1313
▁పాదాల	-11.1315
▁1900	-11.1318
▁పోల్చి	-11.132
cl	-11.1321
▁This	-11.1322
-15	-11.1331
▁సంఘాల	-11.1332
▁నక్షత్రాలు	-11.1334
▁సాపేక్ష	-11.1334
▁నైరుతి	-11.1334
▁పరంపర	-11.1335
▁సిద్దాంత	-11.1335
▁దేవతా	-11.1338
గుట్ట	-11.134
▁నాటకరంగ	-11.1343
▁సన్నిధి	-11.1347
▁ప్రదేశాన్ని	-11.1347
▁వెంబడి	-11.1348
ific	-11.135
▁బ్రాహ్మణులు	-11.1354
▁సంబంధాల	-11.1358
పింగ్	-11.1358
సాహిత్య	-11.136
▁దినపత్రిక	-11.1361
▁శ్లోకాల	-11.1361
▁భగవంతుడ	-11.1362
▁పోలిక	-11.1362
▁సభ్యుడిగా	-11.1363
▁అంబా	-11.1363
▁పరాక్రమ	-11.1367
పట్టు	-11.137
▁వన్డే	-11.1374
▁దేవాలయము	-11.1377
▁అదేవిధంగా	-11.1378
▁కలిగిస్తుంది	-11.1379
▁there	-11.1381
▁గెలుచుకుంది	-11.1387
▁క్రిస్టియన్	-11.1387
ku	-11.1391
▁పవిత్రమైన	-11.1396
▁పదార్ధాలు	-11.1398
ions	-11.14
▁మెరుగైన	-11.14
▁దౌత్య	-11.14
▁చేసుకోవడానికి	-11.1401
▁పనిచేసింది	-11.1409
▁సంబంధాలను	-11.141
ుకునేవారు	-11.1412
▁ఋగ్వేద	-11.1413
▁విస్తీర్ణము	-11.1413
అవనిగడ్డ	-11.1413
▁నరసింహారావు	-11.1414
▁5311	-11.1416
▁పెద్దపల్లి	-11.142
▁ప్రీమియర్	-11.1426
▁పట్టభద్ర	-11.1429
▁విధముగా	-11.1432
ద్రవ్య	-11.1432
న్నిటి	-11.1434
వ్యవసాయ	-11.144
▁వేస్తారు	-11.1442
▁అంకితం	-11.1443
▁హూ	-11.1443
▁జంగ్	-11.1444
▁శరీరాన్ని	-11.1445
▁జరిపి	-11.1447
▁హార్ట్	-11.1451
▁అండర్	-11.1452
▁ఏకాదశి	-11.1452
▁దొరుకుత	-11.1453
▁ఉంటుంద	-11.146
form	-11.1461
ore	-11.1462
▁అన్వేషణ	-11.1466
▁బహిష్కరించ	-11.1466
▁చూస్తున్న	-11.1469
తెలుగు	-11.1469
▁చేరుకున్నారు	-11.147
▁వేల్స్	-11.147
▁చింతపల్లి	-11.1475
▁form	-11.1476
▁స్విట్జర్లాండ్	-11.1479
ారట	-11.1479
▁జరిపించ	-11.1481
▁ఆహారాన్ని	-11.1481
▁గెలుపొందిన	-11.1482
ps	-11.1484
▁శిఖరం	-11.1484
▁సంక్షోభం	-11.1485
ుకోలే	-11.1485
లేకపోయింది	-11.1486
▁గదులు	-11.1486
▁ఉద్యోగులు	-11.1487
AD	-11.1489
▁నిర్మించబడ్డాయి	-11.1491
▁చూస్తూ	-11.1491
▁కట్టడం	-11.1492
హాస	-11.1493
▁వస్త్రాల	-11.1495
ావసరాల	-11.1498
▁రకాలైన	-11.1499
▁పెట్టడం	-11.15
▁అయన	-11.1502
▁జాతీయవాద	-11.1502
▁దోహదం	-11.1505
▁తీసుకువచ్చి	-11.1507
▁స్థావరం	-11.1508
▁ఇంట	-11.1511
ప్రభావ	-11.1512
▁జయించి	-11.1515
▁నిరాశ	-11.1515
▁చున్న	-11.1517
▁నరక	-11.1519
▁కవరేజి	-11.1519
▁వ్యాయామ	-11.1519
▁ధృవ	-11.1519
▁ఉపకరణాల	-11.152
▁గరుడ	-11.1523
▁ఎక్కి	-11.1528
▁ఉల్లి	-11.1528
▁జగన్	-11.1529
▁ప్రారంభమై	-11.1532
▁అమలాపురం	-11.1532
పితామహ	-11.1533
▁విత్తనాలు	-11.1534
▁యంత్రాల	-11.1535
▁జయంతి	-11.1535
▁తప్పకుండా	-11.1539
ోద్యమంలో	-11.1539
▁పాఠకుల	-11.154
▁ముందుగానే	-11.1542
▁తప్పనిసరి	-11.1544
చ్చె	-11.1544
ాలనుకున్న	-11.1547
round	-11.1551
▁కుమారుని	-11.1552
▁కట్టిన	-11.1552
▁కమ్యూనిస్ట్	-11.1559
▁హరిశ్చంద్ర	-11.1559
▁నగదు	-11.1559
▁చేసేవాడు	-11.1559
ుడూ	-11.1562
▁1,1	-11.1564
▁అందించడం	-11.1569
▁హుస్సేన్	-11.1572
పబ్లిక్	-11.1572
▁నాణేల	-11.1572
▁మొత్తాన్ని	-11.1573
▁సంరక్ష	-11.1575
▁దేవుడి	-11.1576
▁అధ్యయనాలు	-11.1579
▁నిజంగా	-11.1584
▁పిండ	-11.1585
▁సరికొత్త	-11.1585
▁లఘు	-11.1586
▁కళ్ళు	-11.1586
▁శిల్పకళ	-11.1588
▁ప్రభాకర	-11.1588
▁సమయము	-11.1591
ందువలన	-11.1594
▁1857	-11.1596
▁ఆశించ	-11.1596
▁అందుకుంది	-11.1597
▁ఉద్యోగాల	-11.1598
▁చిత్రించ	-11.1599
▁తెలుస్తున్నది	-11.1599
▁ముంబాయి	-11.1599
▁పంపిన	-11.1601
భ్యాస	-11.1601
ోత్సవాలు	-11.1604
విషయ	-11.1604
▁లూయిస్	-11.1612
▁కనీస	-11.1614
▁కుమారుడైన	-11.1617
▁1,0	-11.162
▁సంకీర్ణ	-11.1626
▁పనిచేస్తూ	-11.1626
▁క్వీన్	-11.1626
▁నీలి	-11.1626
▁డిస్క్	-11.163
▁ఉత్పన్న	-11.163
▁ఉచితంగా	-11.1631
▁త్రిపుర	-11.1631
మయ్యాడు	-11.1637
▁గురైన	-11.164
▁అడవులు	-11.1643
▁మొదలుపెట్టి	-11.1644
వారిపాలెం	-11.1647
▁రామలింగ	-11.1647
ార్ద	-11.1651
▁అహ్మద్	-11.1653
▁శ్రేణుల	-11.1653
▁జగ్గయ్యపేట	-11.1653
▁నిలిచారు	-11.1653
▁పోసి	-11.1655
▁సూచిస్తారు	-11.1655
▁ముక్తి	-11.1661
▁కోస్తా	-11.1664
cle	-11.1666
▁సంఘర్షణ	-11.1666
▁హామీ	-11.1669
▁Indian	-11.1674
ure	-11.1676
పోతు	-11.1677
▁ఆదరించ	-11.1679
▁అక్బర్	-11.168
▁ఖడ్గ	-11.1681
▁విభజించారు	-11.1682
▁మహాత్మ	-11.1683
వాయువు	-11.1683
న్నింటినీ	-11.1686
▁న్యాయస్థానం	-11.1689
▁దేని	-11.1698
▁అనువైన	-11.1703
▁BBC	-11.1707
▁నిలిచాడు	-11.1707
II	-11.1707
భిక్ష	-11.1712
▁దుర్యోధన	-11.172
▁యోగి	-11.1721
▁సోడియం	-11.1723
▁కష్టాల	-11.1723
▁బీచ్	-11.1723
మోహన	-11.1727
▁కోర్ట్	-11.1728
▁5071	-11.1729
▁పాత్రికేయ	-11.1734
▁త్వరలో	-11.1734
గుప్త	-11.1734
▁ఆధిపత్య	-11.1736
▁అభయ	-11.1739
und	-11.174
బియన్	-11.1741
▁ఉంట	-11.1742
▁పత్రికలలో	-11.1747
▁మొదలై	-11.1747
▁అంబేద్కర్	-11.1747
ాయుధ	-11.1753
కొచ్చి	-11.1757
▁నడిపి	-11.176
▁two	-11.1761
▁సువాసన	-11.1761
other	-11.1765
▁ట్రె	-11.1765
▁గోవా	-11.1772
▁విధాలుగా	-11.1778
’’	-11.1778
▁5082	-11.1782
▁ఎప్పుడ	-11.1783
▁తారా	-11.1786
▁తర్క	-11.1788
▁శ్వేత	-11.1788
▁సూచించే	-11.1789
▁అంగీకార	-11.1789
▁సూఫీ	-11.1791
▁బహిర్గత	-11.1802
▁ఇబ్న్	-11.1802
▁మోనో	-11.1803
▁గార్డెన్	-11.1803
▁కవచ	-11.1804
▁తెరిచి	-11.1808
▁రక్షక	-11.1809
▁అవతరించింది	-11.1814
▁చూపిన	-11.1814
▁మరణానికి	-11.1816
▁ఎల్లప్పుడూ	-11.1816
▁మద్రాస్	-11.1816
టేషన్	-11.1817
▁భావించాడు	-11.182
▁గావించ	-11.1821
పూర్వక	-11.1824
▁Ar	-11.1826
▁అందిస్తున్నాయి	-11.1828
▁వైమానిక	-11.1829
▁ఎంచుకున్న	-11.183
▁ఆధారాల	-11.1833
▁ప్రచుర	-11.1835
▁తీసుకున్నాడు	-11.1835
▁దున్న	-11.1837
▁వాగ్	-11.1838
▁పాడేరు	-11.1839
ావస్థ	-11.1842
▁రోడ్దురవాణా	-11.1843
▁గ్రెగొర	-11.1844
▁ఇంటిపేరు	-11.1846
▁చేస్తుంటారు	-11.1848
▁సౌకర్య	-11.1848
▁అనంతగిరి	-11.1848
ani	-11.1849
▁తరచు	-11.1852
▁సంస్కరణల	-11.1854
▁ప్రమాణాలు	-11.1856
▁బెజవాడ	-11.1857
▁మార్టిన్	-11.1857
▁నివేదించ	-11.1859
▁మాసాల	-11.1862
▁యూదులు	-11.1863
▁రోమ్	-11.1863
▁ప్రయత్నాల	-11.1866
▁దుష్ట	-11.1866
▁అమ్మోనియం	-11.1871
▁రూపాన్ని	-11.1871
▁భౌగోళికంగా	-11.1875
ake	-11.1879
▁సృష్టించింది	-11.1881
పురాణం	-11.1881
▁Mo	-11.1882
▁విత్తనాల	-11.1883
▁జోసెఫ్	-11.1885
▁ధృతరాష్ట్ర	-11.1885
▁ఖైదీ	-11.1885
ుద్దీన్	-11.1885
▁స్కాట్లాండ్	-11.1885
▁వినుకొండ	-11.1885
▁రావడంతో	-11.1887
▁నలుపు	-11.1887
▁గుర్తించబడ	-11.1894
▁దుంప	-11.1894
▁ఎదిగి	-11.1901
▁వీణ	-11.1901
టైన్	-11.1903
▁సంప్రదించ	-11.1912
▁వేయించ	-11.1912
ఖాన్	-11.1913
లోపల	-11.1914
▁అన్నపూర్ణ	-11.1915
▁వెంక	-11.1917
▁గ్రేడ్	-11.1918
▁ప్రత్యక్షంగా	-11.1919
ీంద్ర	-11.1922
ోత్తర	-11.1926
▁బహదూర్	-11.1926
▁పొందడం	-11.1927
▁మైదాన	-11.1928
▁కణజాల	-11.1929
స్వామ్య	-11.193
▁Th	-11.1931
▁భూభాగాన్ని	-11.1936
▁అప్పుడప్పుడు	-11.194
▁వాల్మీకి	-11.194
అలోపతీ	-11.194
▁కాగజ్	-11.194
▁పిదప	-11.194
▁రాక్షసుల	-11.1941
▁సమాధుల	-11.1942
▁సన్యాసి	-11.1942
▁శ్రీనివాస్	-11.1945
వుంటుంది	-11.1945
ఉన్నాయి	-11.1948
▁ఫౌ	-11.1951
ాభిషేక	-11.1953
స్వరూప	-11.1954
▁అస్థిర	-11.1954
▁నిర్మూలన	-11.1954
▁భద్రాద్రి	-11.1955
▁వైఎస్ఆర్	-11.1955
▁సమ్మత	-11.1956
▁ఊరికి	-11.1961
▁అమలులోకి	-11.1966
మెత్త	-11.1967
▁అభ్యర్థుల	-11.1968
▁ఐరిష్	-11.1968
▁లోకసభ	-11.1969
▁మ్యూ	-11.1969
▁పగటి	-11.1971
▁అవకాశము	-11.1979
▁మనుషులు	-11.1981
▁కలెక్టర్	-11.1982
▁ద్రౌపది	-11.1982
▁కార్టూన్	-11.1982
ఖై	-11.1982
దొడ్డి	-11.1985
▁పయన	-11.1985
▁వేయడం	-11.1993
▁ప్రబంధ	-11.1993
ాకారంలో	-11.1993
▁ఇండోనేషియా	-11.1996
▁చక్కటి	-11.1996
▁మరణానంతరం	-11.1997
▁మృత్యు	-11.1997
▁ఉద్యోగి	-11.2001
▁ఆడిన	-11.2002
▁ప్రాముఖ్య	-11.2004
▁మహాయాన	-11.2006
▁అగస్త్య	-11.201
▁నడుస్తుంది	-11.201
▁ఆటంక	-11.201
▁నేర్చుకున్న	-11.2011
సాక్షాత్	-11.2012
▁యాచ	-11.2013
బౌ	-11.2017
ఫిబ్రవరి	-11.2017
▁చిల్ల	-11.202
mm	-11.2021
▁పరిణామాల	-11.2022
షియల్	-11.2023
▁ఉభయ	-11.2024
ప్రారంభించబడింది	-11.2024
▁పొరపాటు	-11.2026
▁డ్రైవర్	-11.2026
▁మానవుని	-11.2031
▁ఇస్లామ	-11.2035
▁తిరిగే	-11.2037
▁ప్రెసిడెన్సీ	-11.2038
▁సంవత్సరాంతమున	-11.2038
▁చిలుక	-11.2038
▁గీస	-11.2039
▁సాక్షి	-11.2039
▁కట్టించ	-11.204
▁పతకాల	-11.2046
▁జన్యువు	-11.2046
ప్రతిష్ఠ	-11.2047
▁వాహనాలు	-11.2047
▁శ్యామ	-11.2054
▁పొంగ	-11.206
▁ప్రముఖుల	-11.2061
▁ప్రవేశపెట్టిన	-11.2063
▁ఒకానొక	-11.2066
▁సన్నివేశ	-11.2066
▁గూఢ	-11.2067
▁ఇప్పటికి	-11.2067
▁చిహ్నంగా	-11.2072
▁నాలుగో	-11.2073
▁క్రాస్	-11.2073
▁కపూర్	-11.2076
ుకోలేదు	-11.208
గలిగారు	-11.2082
▁తక్షణ	-11.2088
▁ఇప్పటికే	-11.2088
▁విందు	-11.2091
▁హెక్టార్లు	-11.2093
▁చికాగో	-11.2094
▁ఖచ్చిత	-11.2094
▁స్కోరు	-11.2094
▁గండ	-11.2094
▁లంబ	-11.2098
arch	-11.2098
మాంస	-11.2099
ండేది	-11.21
▁మండపం	-11.2101
▁జరుగుతూ	-11.2101
▁అచ్యుత	-11.2108
వరపు	-11.211
▁BC	-11.211
▁వివక్ష	-11.211
▁చేసుకొన్న	-11.211
రైన్	-11.2114
▁పాలకుడు	-11.2116
ావధాన	-11.2118
▁ఆంగ్లో	-11.212
▁సిక్ఖు	-11.2122
▁మొదలగునవి	-11.2122
ందన్న	-11.2123
mer	-11.2125
▁మిశ్ర	-11.2129
▁ఎవర	-11.2132
▁లైఫ్	-11.2134
▁మరుసటి	-11.2136
▁ఎదుర్కో	-11.2136
▁లాంగ్	-11.214
▁పర్యాటకులు	-11.2141
▁సౌకర్యాల	-11.2142
▁గడుప	-11.2143
ుటకై	-11.2145
▁చెబుతాడు	-11.2146
▁ఉత్సాహ	-11.2148
పదార్థం	-11.2149
▁ఆర్గనైజేషన్	-11.215
▁కాల్షియం	-11.215
ేషను	-11.2151
▁ఛానల్	-11.2155
▁ప్రజ్ఞ	-11.2158
▁చెప్పాలంటే	-11.2159
▁పదున	-11.216
▁శ్రీకృష్ణుని	-11.2161
హెచ్	-11.2161
▁నిప్పు	-11.2163
▁స్థానానికి	-11.2164
▁లేచి	-11.2165
▁తీర్ధ	-11.2167
▁రాళ్ల	-11.2167
▁కుమారుల	-11.2168
▁ఇస్తున్న	-11.2168
▁నిర్దేశించ	-11.2176
గలిగి	-11.2178
▁Windows	-11.2179
▁వియత్నాం	-11.2179
▁ఎంతగానో	-11.2179
▁ఇండి	-11.2182
▁బహుమతులు	-11.2187
▁సలహాదారు	-11.2188
▁సిరియా	-11.219
▁చట్టాల	-11.2191
ేటివ్	-11.2191
గర్భ	-11.2192
▁కెప్టెన్	-11.2193
గలిగాడు	-11.2193
▁సేవలందించ	-11.2193
▁ఉండటానికి	-11.2198
▁వెంకటేశ్వరరావు	-11.2199
▁బ్రాహ్మణుడు	-11.22
▁కేంద్రీకరించ	-11.2202
▁నైవేద్య	-11.2207
▁జోక్యం	-11.2207
▁త్రిభుజ	-11.2208
వేశారు	-11.221
▁రైల్	-11.2215
▁వాటితోపాటు	-11.2219
▁ఇతివృత్త	-11.2221
▁హాస్పిటల్	-11.2221
▁మధ్యప్రదేశ్	-11.2221
▁ఇంజను	-11.2222
▁తెలియకుండా	-11.2223
▁సజీవ	-11.2229
▁OS	-11.2231
▁గీతాలు	-11.2237
▁దోమ	-11.2238
▁స్థావర	-11.2239
▁వెలుగులోకి	-11.224
▁ఉపయోగించవచ్చు	-11.2241
▁ఆకాశంలో	-11.2244
▁నెల్లూరులోనూ	-11.2246
▁first	-11.225
▁పిక్చర్స్	-11.225
▁ఫ్రాన్సు	-11.225
▁వెలసిన	-11.2252
శ్వాస	-11.2255
▁సవాలు	-11.2259
▁భవనాల	-11.2259
▁మెల్ల	-11.2263
▁అంతర్భాగ	-11.2273
ాక్షర	-11.2274
కూట	-11.2276
▁జాంబ	-11.2279
▁ప్రతిస్పందన	-11.2279
▁వెనుకబడిన	-11.2286
▁నిలయం	-11.2287
▁వడ్డీ	-11.2289
lat	-11.2293
▁మేనమామ	-11.2293
▁గణతంత్ర	-11.2294
▁మారాయి	-11.23
▁180	-11.2305
ుడనే	-11.2306
▁హోమ్	-11.2307
▁వార్షికోత్సవ	-11.2307
▁గూగుల్	-11.2307
▁సృష్టించాడు	-11.2308
▁ఎగుర	-11.231
▁వేదాల	-11.2313
▁వివరిస్తుంది	-11.2315
IT	-11.2317
▁ప్రయోగశాల	-11.2325
▁car	-11.2329
▁సేనా	-11.2334
▁యంత్రాలు	-11.2335
▁దుగ్గిరాల	-11.2336
▁ఋతువు	-11.2336
▁ఆరోపించ	-11.2336
▁పతకం	-11.2337
▁దసరా	-11.2337
▁విస్తార	-11.2345
సంపద	-11.2345
▁మనోహర	-11.2346
▁Com	-11.2347
▁క్రెడిట్	-11.2351
▁స్టిట్యూట్	-11.2351
▁మదీనా	-11.2351
రోహణ	-11.2352
▁పిలిచి	-11.2353
▁తాలూకాలోని	-11.2354
▁తేల్చ	-11.2355
దేహ	-11.2356
▁శత్రువు	-11.236
▁కొయ్య	-11.2361
▁నటులు	-11.2364
వచ్చిన	-11.2366
▁గోపురం	-11.2372
▁స్పందించ	-11.2372
ఆంధ్ర	-11.2378
▁సుయోధనుడు	-11.238
▁పండగ	-11.2382
▁వుండేది	-11.2383
ఘట్ట	-11.2384
▁ప్రయాణికుల	-11.2384
▁తెలిపాడు	-11.2385
▁శతకము	-11.2385
▁కావడానికి	-11.2386
▁కొనసాగిన	-11.2386
▁హిందు	-11.2389
ina	-11.239
కృత్య	-11.2393
▁దోపిడీ	-11.2394
▁విపరీతమైన	-11.2403
▁బ్రాం	-11.2408
▁రహదారులు	-11.2409
▁ఫార్ములా	-11.2409
▁అప్పారావు	-11.241
▁కర్బన	-11.241
▁1,3	-11.2416
▁inter	-11.2416
▁ట్రీ	-11.2418
పెట్టిన	-11.2418
▁అజర్	-11.242
ాగ్ని	-11.2421
▁దీవులు	-11.2425
▁మూడింట	-11.2426
▁సరసన	-11.243
ప్రసాద	-11.2434
శ్రేణి	-11.2437
▁బాలీవుడ్	-11.2438
▁కలిపే	-11.2438
ానుసారం	-11.244
▁కోల్పోయిన	-11.2448
▁ముదురు	-11.245
IA	-11.245
▁1922	-11.2452
▁వ్యంగ్య	-11.2452
▁లభిస్తాయి	-11.2453
▁తయారైన	-11.2453
▁dr	-11.246
▁మహానగర	-11.2464
▁గడించ	-11.2465
ries	-11.2466
▁శుక్రవారం	-11.2468
▁ప్రీతి	-11.2472
శారద	-11.2474
▁తదితరులు	-11.2479
బడటం	-11.248
▁ఎలుక	-11.2482
▁ద్వీపకల్పం	-11.2482
▁under	-11.2482
▁అధ్యక్షునిగా	-11.2487
వూరు	-11.2487
▁work	-11.2496
▁పడమటి	-11.2497
▁ద్వేష	-11.2497
▁వంశీ	-11.2498
▁కానుక	-11.2498
▁కార్యాలయాలు	-11.2499
స్తుంటే	-11.2499
TT	-11.25
డౌ	-11.2502
▁చిరుత	-11.2505
▁వస్త్రాలు	-11.2507
▁వాస్తు	-11.251
▁చేయమని	-11.2511
▁ఆదోని	-11.2512
▁జీన్	-11.2516
ound	-11.2522
▁ఎడ్వర్డ్	-11.2526
▁ఐఐటీ	-11.2526
▁రహదారుల	-11.2526
ోపాధ్యాయ	-11.2526
▁ఇస్రో	-11.2526
▁గుమ్మ	-11.2527
▁గొడవ	-11.2527
▁ఉత్సాహం	-11.2528
▁న్యాయస్థాన	-11.2529
▁దంపతులు	-11.2537
▁ఆక్రమించి	-11.254
▁అలెగ్జాండర్	-11.254
▁పోర్చుగీస్	-11.254
▁ప్రేరేపించ	-11.254
▁వైఫల్య	-11.2541
emb	-11.2541
▁అన్యాయ	-11.2541
▁విషాద	-11.2542
▁స్టోన్	-11.2543
సత్వ	-11.2543
▁ముక్త	-11.2547
▁మలుపు	-11.2547
▁ఉద్గార	-11.2548
ాచార్యుల	-11.2549
▁కదిలి	-11.2562
▁మహావీర	-11.2564
▁ప్రచురించిన	-11.2565
▁జలాశయ	-11.257
▁దట్టమైన	-11.257
▁మురికి	-11.2576
ాయపాలెం	-11.2578
▁చేసుకోవచ్చు	-11.2579
▁హసన్	-11.2581
side	-11.2586
▁సోమవారం	-11.2587
▁చంద్రబాబు	-11.2587
▁పొందవచ్చు	-11.2588
▁ప్రదక్షిణ	-11.2588
pec	-11.2593
▁చిహ్నాలు	-11.2597
▁బైబిల్	-11.26
▁ఫండ్	-11.2601
▁పరిశీలిస్త	-11.2603
▁సంబంధము	-11.2603
హ్లాద	-11.2612
▁బిజినెస్	-11.2614
▁లాభాల	-11.2616
▁గోపాల్	-11.2616
▁భాగస్వామ్య	-11.2617
▁వ్యాసము	-11.2617
▁నిర్మింప	-11.262
▁సముద్రాల	-11.262
▁బాపట్ల	-11.2622
▁నివాసితుల	-11.2623
దీప్	-11.2625
▁బాధపడుతున్న	-11.2626
▁రౌండ్	-11.2627
▁పౌర్ణమి	-11.2629
▁పైకప్పు	-11.2629
▁మహాసముద్ర	-11.2639
▁విధ్వంస	-11.2644
▁ఋషి	-11.2646
▁సామర్ధ్యం	-11.2649
_{	-11.2649
ింపబడి	-11.265
▁ప్రాకృత	-11.265
పార్టీ	-11.2651
▁కాల్చ	-11.2654
ాధిపత	-11.2657
▁వైఖరి	-11.2659
▁సొమ్ము	-11.2662
▁ప్రతీతి	-11.2664
▁షెల్	-11.2666
▁కవాట	-11.2668
▁అందజేస	-11.2669
▁అందరినీ	-11.2673
ముక్కల	-11.2673
▁విచ్ఛిన్న	-11.2674
▁జరిమానా	-11.2674
▁ఆతిథ్య	-11.2674
▁భంగిమ	-11.2674
▁ఆయుధాలు	-11.2679
▁యూదుల	-11.2681
▁సంకీర్తన	-11.2689
▁గుర్తించడం	-11.2689
▁ప్రతిష్ఠాత్మక	-11.269
▁గాంచిన	-11.2691
మంగళ	-11.2702
▁term	-11.2703
మవుతున్న	-11.2704
▁డెవలప్	-11.2704
▁పంచాయతి	-11.2704
▁ధరిస్తారు	-11.2706
బడుతూ	-11.2707
▁సాంగ్	-11.2712
▁ఇవ్వడానికి	-11.2714
▁జగన్నాథ	-11.2715
▁సంక్రాంతి	-11.2719
▁సంబంధాన్ని	-11.2721
▁ఇరాక్	-11.2721
▁చేసినట్లు	-11.2725
▁భారతదేశములో	-11.2728
▁స్వదేశీ	-11.2732
▁వైకుంఠ	-11.2734
▁ట్యూబు	-11.2734
ుచున్నవి	-11.2734
▁కనిపిస్తున్న	-11.2735
▁దర్శకులు	-11.2741
వేళ	-11.2743
▁పెడన	-11.2744
▁తగ్గింది	-11.2751
ద్రోహ	-11.2751
సైట్	-11.2752
▁వస్తూ	-11.2753
▁తెలుసుకుని	-11.2756
▁తయారుచేసిన	-11.2757
▁బజార్	-11.2759
▁అవార్డ్	-11.2761
▁బళ్ళారి	-11.2764
▁సౌలభ్య	-11.2764
▁ముఖర్జీ	-11.2764
▁గ్రామస్థులు	-11.2769
ానికై	-11.2775
▁తాడేపల్లి	-11.2777
▁కొనసాగుతుంది	-11.2777
చిత్త	-11.2778
▁నియోజక	-11.2779
▁హనుమంతుని	-11.2779
▁యాంటీ	-11.2779
ద్రావణ	-11.2793
▁ఇండోర్	-11.2793
▁సర్వసాధారణ	-11.2794
▁temple	-11.2794
▁జోర్డాన్	-11.2794
▁మహమ్మదు	-11.2794
▁సంచలన	-11.2794
▁సయ్యద్	-11.2794
▁రాజ్యసభ	-11.2796
▁సవరించ	-11.2797
▁అధికరణ	-11.2799
▁దంపతుల	-11.2804
▁తగ్గుతుంది	-11.2805
▁వాస్తవిక	-11.2807
▁శస్త్ర	-11.2808
▁సైన్సు	-11.2809
▁మహోత్సవ	-11.2812
▁నమ్ముతారు	-11.2815
aj	-11.2821
▁పూర్వీకులు	-11.2825
పియన్	-11.2826
▁సన్యాస	-11.2828
▁చరిత్రకారుడు	-11.2829
▁పోషించిన	-11.2837
▁విలసిల్ల	-11.284
ుకొంది	-11.2845
ative	-11.2855
▁బ్రతుక	-11.2855
▁సంఘటనల	-11.2859
▁వారసుడ	-11.2863
▁తీసుకుంటే	-11.2865
▁కిరీట	-11.2865
▁వుంటారు	-11.2869
▁నీటిపారుదల	-11.287
▁ధాతువు	-11.2871
▁తాప	-11.2873
▁సాధించడం	-11.2875
▁తొలిసారి	-11.2883
▁రేపల్లె	-11.2884
మార్చి	-11.2885
▁ముగుస్తుంది	-11.2885
▁దొరికిన	-11.2886
▁గోల్డెన్	-11.2886
▁పిలువ	-11.2888
ణీయ	-11.2893
▁సరిపడ	-11.2895
lar	-11.2896
▁gra	-11.2897
▁పురోగతి	-11.2901
▁దక్షిణాసియా	-11.2901
▁నడుస్తున్న	-11.2905
▁నొక	-11.2911
▁త్వరిత	-11.2916
▁రాధాకృష్ణ	-11.2916
▁అణిచి	-11.2916
▁స్మిత్	-11.2916
▁తీయుట	-11.2925
▁సేకరించిన	-11.2926
▁ప్రతిఫల	-11.2931
▁మేడ్చల్	-11.2931
▁క్వార్టర్	-11.2931
▁ఏర్పాట్లు	-11.2931
▁హిందూపురం	-11.2932
▁5324	-11.2934
రాశుల	-11.2934
▁గాఢ	-11.2934
▁శూన్య	-11.2947
▁నార్వేజియన్	-11.2947
▁పట్టుకుని	-11.2949
▁గట్టు	-11.295
భైరవ	-11.2957
▁హెల్త్	-11.2962
lect	-11.2962
▁విడిపోయి	-11.2963
▁నాస్తిక	-11.2963
air	-11.2966
▁వైవిధ్యమైన	-11.2975
▁మళ్ళి	-11.2976
▁లైబ్రరీ	-11.2977
▁జిన్నా	-11.2982
మాధ్యమిక	-11.2983
పరిషత్	-11.2985
ond	-11.2985
డూరు	-11.2987
▁గుత్తి	-11.2988
▁క్లై	-11.2995
సరోవర	-11.2997
▁వధించ	-11.2998
▁పుట్టింది	-11.3004
▁హంస	-11.3004
▁శీతాకాలంలో	-11.3007
క్సైడు	-11.3009
▁తీసింది	-11.3012
▁==	-11.3012
▁కొండూరు	-11.3015
▁వనరు	-11.3017
4,000	-11.3018
▁స్వాధీన	-11.3021
▁అత్యల్ప	-11.3024
▁కొల్లూరు	-11.3025
స్థాపన	-11.303
▁నొక్కి	-11.303
▁అంతకంటే	-11.303
▁బండ్ల	-11.3038
▁సల్ఫేట్	-11.3039
▁సుపరిచిత	-11.3039
▁గంధర్వ	-11.304
▁గదుల	-11.304
▁more	-11.3046
▁పలాస	-11.3047
▁నివసించిన	-11.3052
▁పురుషుడు	-11.3054
▁యాదాద్రి	-11.3055
▁అరబిక్	-11.3055
▁ఓడరేవు	-11.3055
▁చంద్రశేఖర్	-11.3061
జియన్	-11.3061
▁మాదిరిగానే	-11.3065
▁విద్యుద	-11.3066
▁అద్వైత	-11.307
▁చుట్టుప్రక్కల	-11.307
▁క్షార	-11.3072
చరణ	-11.3076
▁తొందర	-11.3081
▁విశ్లేష	-11.3084
www	-11.3086
▁భగవద్గీత	-11.3086
▁మునుపు	-11.3089
left	-11.3089
▁మెజారిటీ	-11.3093
▁మెజారిటీతో	-11.3094
▁సున్నీ	-11.3097
▁Po	-11.3098
▁బాస్కెట్	-11.3101
▁చెప్తారు	-11.3101
▁నటుల	-11.3103
సంపన్న	-11.3108
▁అర్జెంటీనా	-11.3117
▁క్షిపణుల	-11.3117
▁మాండలిక	-11.3117
▁place	-11.3117
▁వేగవంతమైన	-11.3118
▁టెట్రా	-11.312
వ్యాధి	-11.3123
▁అవుతాయి	-11.3125
▁అర్హ	-11.3126
▁తీసుకుంది	-11.3127
▁1943	-11.313
▁అందుచేత	-11.313
▁అందుకని	-11.3133
▁వాయించ	-11.3138
▁ఆటగాళ్ళ	-11.3141
AN	-11.3141
▁చేపట్టింది	-11.3141
▁see	-11.3142
lla	-11.3143
▁ఈస్టిండియా	-11.3148
▁మహేష్	-11.3148
▁వారసత్వం	-11.3149
▁జార్జి	-11.3154
rm	-11.3159
▁తయారీదారు	-11.3164
▁పద్మనాభ	-11.3164
▁రబ్బరు	-11.3164
▁చిత్రలేఖన	-11.3164
▁తీసుకువెళ్ళ	-11.3165
ద్దీన్	-11.3166
ring	-11.3169
▁గూడూరులోనూ	-11.3171
▁భాగమైన	-11.3171
కెళ్ళ	-11.3173
▁మొత్తము	-11.3175
▁వికాస	-11.3178
▁కొన్నాళ్ళ	-11.3181
▁found	-11.3181
▁ప్రవేశించింది	-11.3183
▁శాసనాల	-11.3187
▁km	-11.3189
▁కంప్యూటరు	-11.3195
▁ప్రెసిడెంట్	-11.3195
▁శ్రవణ	-11.3195
▁జమీందారు	-11.3195
CA	-11.3196
▁బయలు	-11.3197
▁ప్రకటించిన	-11.3197
▁కనుగొన్నాడు	-11.3199
▁ప్రదేశాల్లో	-11.3206
▁పథ	-11.3209
▁రాచరిక	-11.3211
▁రుసుము	-11.3212
▁కుంకుమ	-11.3214
▁మృతి	-11.3217
▁1,4	-11.322
▁10,000	-11.3226
▁IBM	-11.3227
▁వెనుజులా	-11.3227
▁జమ్మూ	-11.3227
▁వ్యర్థ	-11.3237
▁1927	-11.324
▁సుప్రీం	-11.3243
▁కాల్సియం	-11.3243
గోపుర	-11.3243
వెళ్తు	-11.3246
▁భాగస్వామి	-11.3248
▁పుంజ	-11.3248
▁కార్యక్రమానికి	-11.3249
▁మరియొక	-11.3257
▁ఒప్పించ	-11.3258
▁జర్నల్	-11.3259
▁ఋషుల	-11.326
కూడదని	-11.3264
▁కూతుర	-11.3269
జన్య	-11.3271
▁పునర్నిర్మించ	-11.3274
▁మిషనరీ	-11.3274
▁రిజర్వ్	-11.3274
▁అనుకూలమైన	-11.3278
▁స్వదేశ	-11.328
▁had	-11.3283
▁యూదు	-11.329
పట్టి	-11.3291
▁తిలక్	-11.3291
▁చెందుతుంది	-11.3291
war	-11.3294
ాధ్యక్ష	-11.33
▁ఉపయోగపడే	-11.3303
▁చేబ్రోలు	-11.3306
▁నవాబ్	-11.3306
గూర్	-11.3307
▁ఉష్ణమండల	-11.3307
▁అంతర్జాల	-11.3308
నిచ్చింది	-11.331
▁ఫాస్ట్	-11.3311
▁స్కాట్	-11.3314
▁కఠినమైన	-11.3315
▁పిచ్చి	-11.3316
▁వాస్కో	-11.3317
▁నమస్కరించ	-11.3322
▁అస్సాం	-11.3323
▁పాక్షికంగా	-11.3327
▁ఎవరో	-11.3327
▁సాగే	-11.3337
▁ఎలిజబెత్	-11.3338
▁తల్లితండ్రుల	-11.3338
▁కథానాయిక	-11.3338
▁గాయక	-11.3338
▁ద్రావిడ	-11.3338
▁like	-11.3339
▁విడాకుల	-11.3347
▁కూర్చుని	-11.3347
▁వహించింది	-11.3353
▁డెన్మార్క్	-11.3354
▁పెంపుడు	-11.3356
ise	-11.3359
లేడు	-11.3363
▁ఆటగాడు	-11.337
▁1917	-11.3371
▁హరికథ	-11.3374
వ్యాస	-11.3375
వ్యాపారాత్మక	-11.3378
▁ఉంటాయని	-11.3387
▁అబ్దుల్లా	-11.3391
▁స్వరాజ్య	-11.3391
▁చిత్రకళ	-11.3394
▁విపరీతంగా	-11.3394
▁కొంతవరకు	-11.3396
▁రంగాల్లో	-11.3397
▁మక్కువ	-11.3402
▁వందలాది	-11.3405
▁ఒక్కసారి	-11.3408
▁విలీన	-11.3409
సుందర	-11.3409
▁రెక్కల	-11.3412
▁అందజేస్త	-11.3414
▁తెలిపే	-11.3415
▁జమ్ము	-11.3417
▁after	-11.3418
▁most	-11.342
▁అనుమతిస్తుంది	-11.3424
▁వెంకయ్య	-11.3424
▁రావణుని	-11.3427
▁కైలాస	-11.3437
▁స్నేహితుడు	-11.3447
▁కృష్ణుని	-11.3451
▁పోటీచేసి	-11.3453
▁అసలైన	-11.3454
గమనం	-11.3456
▁అసమ	-11.3464
▁ఆలోచ	-11.3466
▁నవీన	-11.3468
▁వూరి	-11.3468
▁హెచ్చు	-11.3475
▁సహకరిస్త	-11.3476
▁పరిస్థితుల్లో	-11.3479
▁మేజర్	-11.3481
బడతారు	-11.3482
▁టెక్కలి	-11.3483
▁సేవించ	-11.3483
▁బేగం	-11.3484
▁షేర్	-11.3485
▁శాతవాహనుల	-11.3488
cur	-11.3488
▁ఒక్కటే	-11.3497
▁కావటం	-11.3497
▁ఉపశమన	-11.3499
▁మొఘలు	-11.3499
▁స్థిరపడిన	-11.35
▁లభి	-11.3505
▁ఒకేసారి	-11.3506
▁నందమూరి	-11.3515
ైజేషన్	-11.3517
▁శాతవాహన	-11.3526
▁కీర్తించ	-11.3527
▁శ్రీహరి	-11.3527
▁నడిపే	-11.354
▁shall	-11.3548
▁సావిత్రి	-11.3548
▁డెల్టా	-11.3548
▁పరోక్ష	-11.3548
▁పాండిత్య	-11.3548
▁దారుణ	-11.3549
▁విభాగానికి	-11.3553
▁తిరిగ	-11.3554
▁ప్రబోధ	-11.3557
▁కోచ్	-11.3557
▁భట్ట	-11.3561
▁వికారాబాదు	-11.3564
▁ఆముదం	-11.3564
ities	-11.3567
▁పాతాళ	-11.3569
ందువల్ల	-11.357
▁రాజపుత్ర	-11.357
▁Vi	-11.3571
▁1,5	-11.3574
▁ల్యా	-11.3575
▁ప్రవహించే	-11.3578
▁ట్రెంచ్	-11.358
▁వార్డు	-11.358
▁బేసిన్	-11.358
▁సెర్బియా	-11.3581
▁బైజాన్	-11.3582
వార్డ్	-11.3582
▁తేలింది	-11.3584
ప్రపంచ	-11.3584
▁సర్వస్వ	-11.3585
ధ్వజ	-11.3586
▁విశ్లేషించ	-11.3586
వర్ష	-11.3589
▁సామర్థ్య	-11.3592
▁ఉద్భవించింది	-11.3595
▁ఉద్దేశించ	-11.3595
▁ఫిర్యాదు	-11.3597
▁ఉత్తరప్రదేశ్	-11.3597
▁తటస్థ	-11.3597
▁నెలకొని	-11.36
bha	-11.3608
▁సిఫార్సు	-11.3613
▁పర్షియా	-11.3614
ling	-11.3619
▁being	-11.3623
▁అందుచే	-11.3623
సహాయ	-11.3623
▁పథకాల	-11.3627
భాయ్	-11.3627
▁ముఖ్యముగా	-11.3628
▁సుంక	-11.3631
▁ప్రశంసించ	-11.3634
పండిత	-11.364
▁పాల్పడ	-11.3642
▁ట్రాన్స	-11.3643
నొప్పి	-11.3644
▁కదులు	-11.3645
▁CPU	-11.3646
▁ఉపసంహరించ	-11.3646
▁ఏర్పరుస్త	-11.3646
▁1923	-11.3647
▁కోస్ట్	-11.3649
▁దాసరి	-11.3651
▁కోడూరు	-11.3657
▁కొమరంభీం	-11.3662
▁మరాఠా	-11.3662
fin	-11.3665
▁నెలకొన్న	-11.3665
▁బాధితుల	-11.3666
▁పోలీసుల	-11.3672
▁చేరుకుని	-11.3673
వృత్త	-11.3678
▁సృజనాత్మక	-11.3679
▁సిడ్నీ	-11.3679
▁ఈవిడ	-11.3681
చిత్తూరు	-11.3683
▁అవక్షేప	-11.3684
▁వేమన	-11.369
▁నిశ్చయ	-11.3693
వాహిక	-11.3695
▁years	-11.3695
▁కీటకాల	-11.3697
uk	-11.3701
▁జలపాత	-11.3707
▁ఉత్తర్వు	-11.371
▁నిరంకుశ	-11.3712
▁లాహోర్	-11.3712
▁స్వచ్ఛమైన	-11.3712
▁ప్రచురించాడు	-11.3713
▁సదుపాయం	-11.3714
▁శ్రీనాథ	-11.3715
స్కోప్	-11.3716
భట్టు	-11.3717
▁than	-11.3718
▁పార్వతీపురం	-11.372
▁అసంతృప్తి	-11.3726
▁డబ్బింగ్	-11.3728
▁పెట్రోలియం	-11.3728
▁పేరొందిన	-11.3728
▁సెకండరీ	-11.3728
▁సోమాలియా	-11.3728
▁అమ్మవారు	-11.3735
▁వచ్చిందని	-11.374
ద్విబంధ	-11.3741
▁దీనివల్ల	-11.3744
▁జయశంకర్	-11.3745
▁సాయిబాబా	-11.3745
▁డిపార్ట్	-11.3745
▁సమక్షంలో	-11.3745
▁నిర్మూలించ	-11.3745
▁అలాస్కా	-11.3745
▁జగద	-11.3752
▁అదృశ్య	-11.3753
ెన్నో	-11.3759
▁గ్లూకోజ్	-11.3762
▁గ్లోబల్	-11.3762
▁విరాళాల	-11.3762
▁యెడల	-11.3762
▁యార్క్	-11.3763
▁భిన్నమైన	-11.3763
▁ప్రయోగాత్మక	-11.3766
▁ప్రావిన్సు	-11.3778
▁అవకాశాల	-11.3783
▁మౌంట్	-11.3784
▁లభ్యమవ	-11.3788
▁స్తూప	-11.379
▁కొమ్ము	-11.3791
▁తొండ	-11.3793
▁1926	-11.3794
▁మైనారిటీ	-11.3795
▁యురేపియన్	-11.3795
▁మదనపల్లె	-11.3795
▁సైకిల్	-11.3796
▁మొదలవుతుంది	-11.3796
▁సంపుటి	-11.3796
▁1914	-11.3798
▁సంస్కార	-11.3799
less	-11.38
▁40%	-11.3801
పాలక	-11.3802
3,000	-11.3802
▁యుద్ద	-11.3804
▁వినియోగిస్తున్న	-11.3807
▁బాక్టీరియా	-11.3812
▁అశ్వమేధ	-11.3812
▁ఎలక్ట్రిక్	-11.3812
▁సరోజ	-11.3815
▁తట్టుకో	-11.3816
▁చూచ	-11.3817
▁హింసాత్మక	-11.3821
▁భాగస్వాముల	-11.3829
▁సుమతీ	-11.3829
▁కేంద్రీకృతమై	-11.3829
▁ఉపయోగించేవారు	-11.3831
▁శిలాజ	-11.384
▁చేరుతుంది	-11.384
▁సారంగ	-11.384
▁చదువుతున్న	-11.3842
▁గొట్టం	-11.3843
▁ఒంటి	-11.3844
▁1918	-11.3845
▁information	-11.3845
▁ఇంటర్వ్యూ	-11.3845
▁సోయాబీన్	-11.3845
▁పరశురామ	-11.3845
▁సైప్రస్	-11.3845
▁ఇప్పటివరకు	-11.3848
▁పెరుగుతాయి	-11.3849
▁నాటకాల్లో	-11.3849
▁విభజ	-11.3854
▁మద్ది	-11.3858
▁తేలి	-11.3861
▁అదృష్ట	-11.3862
ank	-11.3863
▁తెచ్చుకున్న	-11.3863
▁కాలేయ	-11.3864
బలిజ	-11.3865
▁ఇంకనూ	-11.3866
▁పూర్తిచేసి	-11.3867
ందరినీ	-11.3878
▁మున్నగు	-11.3879
▁నావికా	-11.3879
▁ఉచ్ఛ	-11.388
కీర్తి	-11.388
ద్వీప	-11.388
▁ప్రాకార	-11.3881
కపోవచ్చు	-11.3883
▁ఇంతవరకు	-11.3884
▁1910	-11.3885
▁UN	-11.3886
▁స్పష్టం	-11.389
▁విచ్చేస	-11.3895
▁ఛాయాచిత్ర	-11.3896
▁షూటింగ్	-11.3896
▁వ్యూహాత్మక	-11.3913
▁బ్రహ్మాండ	-11.3913
▁బలరామ	-11.3914
▁దశకం	-11.3915
▁వెంకటాపురం	-11.3915
▁ట్రస్ట్	-11.3922
▁మొదలుపెట్టారు	-11.393
ox	-11.3931
▁వాడుతున్నారు	-11.3938
▁స్థావరాల	-11.394
▁భూలోక	-11.3946
▁విషయమై	-11.3949
▁వరాహ	-11.3949
ration	-11.3949
▁తత్వవేత్త	-11.395
▁హరిజన	-11.3961
▁నిర్వర్తించ	-11.3964
▁టిప్పు	-11.397
▁కల్పిస్తుంది	-11.3972
▁నడక	-11.3975
▁అబ్బాయి	-11.3977
▁సంభవించాయి	-11.398
▁ఐసోటోపు	-11.3981
▁భైంసా	-11.3981
▁గ్రీక్	-11.3981
▁వస్తాడు	-11.3991
గ్రాఫిక్	-11.3997
▁ఇవ్వబడిన	-11.3999
▁స్థాపించింది	-11.4001
▁నశించ	-11.4002
▁తీసుకుంటారు	-11.4005
ార్జున	-11.4006
▁వేయబడింది	-11.4008
స్వామివారి	-11.4014
▁విండోస్	-11.4015
▁భస్మ	-11.4015
▁పీఠభూమి	-11.4016
▁ప్రసన్న	-11.4019
ములందు	-11.4021
▁అందిస్తాయి	-11.4029
ju	-11.4029
▁అసిస్టెంట్	-11.4032
▁మాంచెస్టర్	-11.4032
▁వ్యాఖ్యాత	-11.4034
▁గవర్న	-11.4038
సైన్య	-11.404
కుంట్ల	-11.4042
▁జమీందార	-11.4049
▁కర్తవ్య	-11.4049
▁రాబోయే	-11.4056
▁యువరాజు	-11.4063
▁ఊపిరితిత్తుల	-11.4066
▁అమాయక	-11.4066
▁పెరూ	-11.4068
▁తండా	-11.4069
▁భైర	-11.4075
▁రబీ	-11.4076
▁ఆకర్షిత	-11.4076
▁సమాంతరంగా	-11.4081
▁కాంక్రీటు	-11.4083
▁కాలక్రమేణా	-11.4083
▁చిలకలూరిపేట	-11.4083
▁రిజిస్ట్రేషన్	-11.4083
▁లౌకిక	-11.4083
▁స్పటిక	-11.4083
▁మర్యాద	-11.4083
▁అంతేకాదు	-11.4084
▁పట్టాభిషేక	-11.4085
▁అడగ	-11.4085
పోకుండా	-11.4085
▁ఒప్పందాల	-11.4086
Di	-11.4093
▁శిఖరాల	-11.4094
చేసుకున్న	-11.4095
▁స్వాగత	-11.4096
▁క్రమశిక్షణ	-11.41
▁చెలరేగ	-11.41
▁యూరప్	-11.41
పాళ	-11.4101
▁గౌడ	-11.4111
▁అధినేత	-11.4114
▁మనస్తత్వ	-11.4115
▁ఆక్సీకరణ	-11.4118
రాబాద్	-11.4118
▁పాడుతూ	-11.4121
▁ఫస్ట్	-11.4124
మిచ్చి	-11.4125
సాధన	-11.4135
▁కాళిదాసు	-11.4135
▁రచయిత్రి	-11.4135
▁సుదర్శన	-11.4145
▁వుండటం	-11.4149
▁ఆవిర్భావ	-11.4152
▁తృప్తి	-11.4152
▁ఆర్మూర్	-11.4152
చంద	-11.4155
▁చట్టపరమైన	-11.4156
మొత్తం	-11.4156
▁బ్రతికి	-11.4157
ఫార్మ	-11.4157
▁ప్రవహిస్త	-11.4162
లేకపోయాడు	-11.4169
పరిమాణ	-11.4171
రెండు	-11.4173
స్పంద	-11.4175
▁దీర్ఘకాలిక	-11.4176
▁ప్రవేశపెట్టింది	-11.4182
ఖ్యాత	-11.4185
▁వినాశ	-11.4188
▁యోధుల	-11.4188
▁వీక్షించ	-11.4189
▁పద్మశ్రీ	-11.419
డెడ్	-11.4193
▁న్యాయవాద	-11.4199
▁స్వాతంత్య్ర	-11.42
tre	-11.4202
▁topic	-11.4204
▁సరసు	-11.4207
▁సఫల	-11.4208
నక్షత్ర	-11.4212
▁అంగుళాల	-11.4215
▁సామ్యవాద	-11.4222
▁సమ్మె	-11.4222
▁నగరాల్లో	-11.4229
▁ఇబ్బందుల	-11.4236
▁సియాటెల్	-11.4239
సైడ్	-11.424
▁గాఢత	-11.4242
▁సాధిస్త	-11.4244
▁ఆరుద్ర	-11.425
▁ఏడుగురు	-11.426
▁1911	-11.4262
▁మూవీ	-11.4271
bit	-11.4274
▁ఐస్లాండ్	-11.4275
▁కలిసే	-11.4276
ium	-11.4278
పదార్థాల	-11.4279
vel	-11.4281
▁నిర్వహించబడుతు	-11.4287
▁అసాధ్య	-11.4292
▁చోదక	-11.4293
▁బందీ	-11.4293
దక్షిణ	-11.4293
▁శివరాత్రి	-11.4295
men	-11.4299
▁ముఖ్యపాత్ర	-11.4299
▁కూలీల	-11.4306
▁విభజింప	-11.4314
press	-11.4317
▁సంతతికి	-11.4324
▁పునరుజ్జీవ	-11.4327
▁డాక్టరేట్	-11.4327
▁వివేకానంద	-11.4327
▁నియామక	-11.4327
మండప	-11.4336
▁కాశ్మీర	-11.4337
▁వాజపేయి	-11.4345
▁అజ్ఞాత	-11.4345
▁దిగుబడి	-11.4345
▁గల్ఫ్	-11.4345
సాధక	-11.4346
▁మరణించింది	-11.4346
▁వదిలివేయ	-11.4349
▁పెట్రో	-11.4352
వేగం	-11.4363
▁క్షీర	-11.4363
▁బాలకృష్ణ	-11.4384
▁మంత్రిత్వ	-11.4392
చేసాడు	-11.4394
▁చాంపియన్	-11.4398
▁వాయవ్య	-11.4398
▁ఏమాత్రం	-11.4398
▁తణుకు	-11.4398
▁నేర్చుకున్నాడు	-11.4399
▁కొలువై	-11.4402
▁ఆశ్రయించ	-11.4403
▁గింజ	-11.4405
▁సందర్శన	-11.4408
రావుపేట	-11.4425
adv	-11.4429
పద్మ	-11.4432
▁కిర్గిజిస్తాన్	-11.4433
▁జహీరాబాద్	-11.4433
▁శాస్త్రజ్ఞులు	-11.4434
▁మోటారు	-11.4434
▁కెన్యా	-11.4434
▁గడియార	-11.4434
▁కలిగివుండ	-11.4436
▁కట్టుబడి	-11.4437
▁పొందుతున్న	-11.4449
▁1925	-11.4452
ాన్సీ	-11.4458
▁చెప్పుకోవచ్చు	-11.446
▁ప్రావీణ్య	-11.4469
▁పూర్తిస్థాయి	-11.4472
▁ఉపాధ్యక్ష	-11.4477
▁భూగోళ	-11.4481
▁సేలం	-11.4483
▁5022	-11.4484
▁జనసాంద్రత	-11.4487
▁సెంచరీ	-11.4487
▁భగత్	-11.4487
▁అనువుగా	-11.4488
▁1916	-11.4488
▁స్కోర్	-11.4489
▁ఇవ్వబడ్డాయి	-11.4503
▁నెరవేర్చ	-11.4505
▁నెయ్యి	-11.4505
▁సూర్యనారాయణ	-11.4507
▁తెలియజేయ	-11.4507
▁వర్షాకాల	-11.4511
ship	-11.4515
▁గాయకులు	-11.452
▁నరసాపురం	-11.4521
▁సోషల్	-11.4523
▁గుర్తించవచ్చు	-11.4523
▁విరమించ	-11.4524
▁పెరుగుతూ	-11.4526
▁కుమారస్వామి	-11.4527
▁అరబ్బు	-11.4529
▁పేపర్	-11.4535
▁సెక్యూరిటీ	-11.4541
▁కూర్పు	-11.4541
ానంతర	-11.4549
▁ముడిపడి	-11.455
▁చేనేత	-11.4559
▁made	-11.456
ిస్టులు	-11.4561
గలిగింది	-11.4563
తానని	-11.4564
ttle	-11.4565
చేస్తున్న	-11.4565
▁ద్రావణం	-11.4566
▁ఐరన్	-11.4574
▁పార్లమెంటరీ	-11.4577
▁స్టీఫెన్	-11.4577
▁మధుమేహ	-11.4577
▁వాహకనౌక	-11.4577
▁షరతు	-11.4578
▁శివుడి	-11.4578
▁గురువారం	-11.4579
▁పొడిగించ	-11.458
▁మలచ	-11.4584
▁ఉత్ప	-11.4584
▁పర్యవేక్ష	-11.4586
▁ఈజిప్ట్	-11.4595
▁ముంబయి	-11.4595
ఆధారిత	-11.4604
light	-11.4605
▁సాగుతుంది	-11.4608
▁ద్రావ	-11.4608
▁ఉంగుటూరు	-11.4613
▁మహబూబాబాద్	-11.4613
▁వారణాసి	-11.4613
▁శ్మశాన	-11.4613
పెనమలూరు	-11.4613
▁ప్రోగ్రాం	-11.4613
▁మమ్మీ	-11.4613
put	-11.4614
ుడవు	-11.462
background	-11.4631
▁space	-11.4631
▁శ్లోకం	-11.4631
▁ఆస్ట్రియా	-11.4631
▁రికార్డింగ్	-11.4631
▁సెకన్ల	-11.4634
▁పాలియోలిథికు	-11.4649
▁క్షేమ	-11.4649
▁house	-11.4649
▁జగన్నాధ	-11.465
శిల్ప	-11.465
▁ఎదుర్కొంటున్న	-11.465
▁నిలవ	-11.4667
▁cause	-11.4667
▁హయాంలో	-11.4668
▁ఎదుగ	-11.4669
జేశారు	-11.4675
▁ఉగ్ర	-11.4681
position	-11.4686
సంబంధిత	-11.469
▁మిగిల	-11.4697
▁సంరక్షించ	-11.47
▁1,6	-11.4702
ప్రథమ	-11.4704
▁క్రీడాకారుడు	-11.4705
▁ముఖద్వార	-11.4705
▁నేరాల	-11.4706
▁పరిమితుల	-11.4706
▁1912	-11.4706
▁పొలం	-11.4708
▁గెలుచ	-11.4712
▁తిథి	-11.4715
ింపజేయ	-11.4719
లేకపోయారు	-11.4721
పురాణ	-11.4722
▁సంభవించింది	-11.4727
▁పోస్టు	-11.474
▁water	-11.4741
▁బాంబే	-11.4741
▁తరిమి	-11.4741
▁తీసుకోవాలి	-11.4742
వారిపల్లె	-11.4747
▁రాయితీ	-11.4747
▁సోదరుల	-11.4748
▁ఉండుట	-11.4753
▁భవిష్యత్	-11.4755
ock	-11.4759
▁కలిగివుంది	-11.4759
▁అభినయ	-11.4761
నౌక	-11.4764
నిరోధక	-11.4772
▁1924	-11.4777
▁వేగవంతం	-11.4777
▁పట్టించుకో	-11.4777
▁పేర్కొంటారు	-11.4777
▁గాంచింది	-11.4778
▁పట్టుకొని	-11.4782
▁మరోసారి	-11.4786
▁స్తుత	-11.4788
▁యెక్క	-11.4788
▁రాణించ	-11.4791
▁when	-11.4796
▁భూపాలపల్లి	-11.4796
▁మొదలయిన	-11.48
▁రోజులపాటు	-11.48
com	-11.4809
▁చంద్రశేఖర	-11.481
▁number	-11.4814
▁ప్రాచ్య	-11.4815
▁వర్తించ	-11.4816
▁నిర్వచనము	-11.4816
▁వాసుదేవ	-11.4816
▁అరబ్బీ	-11.4817
▁శ్రీనివాసరావు	-11.4819
▁దేవేంద్ర	-11.4825
▁ప్రతిపత్తి	-11.4825
తక్కువ	-11.4827
▁సమృద్ధి	-11.4833
▁టెక్సాస్	-11.4833
▁ప్రోటీన్	-11.4833
▁బందరు	-11.4833
▁సారవంతమైన	-11.4835
▁నిదర్శనం	-11.4836
చోట్ల	-11.4838
▁పొందుపరచ	-11.4841
ోత్సవాల	-11.4841
▁కోల్పోయింది	-11.4841
▁అభ్యుదయ	-11.4851
▁గమనార్హం	-11.4851
▁రాజమహేంద్రవరం	-11.4851
▁శ్రావణ	-11.4851
▁మేనేజర్	-11.4851
▁అంతకుముందు	-11.4852
uth	-11.4852
▁కిరణాలు	-11.4855
తీర్థ	-11.4859
▁అణచ	-11.4863
▁ప్యూర్టో	-11.487
▁దశరథ	-11.487
▁సీరియల్	-11.4874
▁రూరల్	-11.4875
స్థాప	-11.4876
▁సమయాలలో	-11.4879
▁ఖరీదైన	-11.4889
▁ధ్వజస్తంభ	-11.4889
▁హంగేరి	-11.4889
▁సంభోగ	-11.4889
▁గంభీర	-11.489
▁కారాగార	-11.4894
వృద్ధి	-11.49
బ్రాహ్మణ	-11.4901
▁పొందుతారు	-11.4904
▁చీఫ్	-11.4906
▁కలుషిత	-11.4907
▁ప్రతిరోజూ	-11.4907
▁విస్ఫోట	-11.4907
▁తాడికొండ	-11.4907
▁చక్రవర్తుల	-11.4908
▁పండిట్	-11.4908
▁అన్వయ	-11.4909
▁లేకపోతే	-11.4913
సాగింది	-11.492
▁గజపతి	-11.4931
ko	-11.4933
ుకొంటారు	-11.4934
▁అధికారంలోకి	-11.4935
▁రామదాసు	-11.4935
SI	-11.4939
▁కమ్యూనికేషన్	-11.4945
▁లావాదేవీ	-11.4945
▁చదివారు	-11.4945
▁హెచ్చరించ	-11.4945
▁సున్నితమైన	-11.4946
▁5334	-11.4947
▁శారదా	-11.4948
▁ఫ్యాక్టరీ	-11.4964
▁about	-11.4964
▁మట్టానికి	-11.4964
▁తగ్గిస్తుంది	-11.4966
▁ప్రవాస	-11.4968
▁బారిన	-11.497
▁బుధ	-11.4971
ఊ	-11.4976
▁గెలాక్సీ	-11.4982
▁ఫోటోగ్రఫీ	-11.4982
▁ధర్మనందనా	-11.4982
▁బృహత్తర	-11.4982
▁శూద్ర	-11.4982
▁ప్రదేశానికి	-11.4983
▁మెయిన్	-11.4983
▁మెరుపు	-11.4983
▁విష్ణుమూర్తి	-11.4986
▁కూర్చో	-11.4993
▁ఏర్పడ్డ	-11.4998
పర్వత	-11.4999
▁రంగాల	-11.5
▁గర్భగుడి	-11.5002
▁కదిరి	-11.5003
▁వలసదారుల	-11.5005
▁him	-11.5006
న్నిటినీ	-11.5014
▁కథనాలు	-11.5015
▁ఇంచుమించు	-11.502
▁మిగుల	-11.5021
▁పడగొట్ట	-11.5026
▁ల్యాప్	-11.5029
NS	-11.503
ink	-11.5031
ెక్కడ	-11.5034
▁మునిసిపల్	-11.5039
▁మైక్రోసాఫ్ట్	-11.5039
▁ఆస్ట్రేలియన్	-11.5039
▁కెనడియన్	-11.5039
▁ఎదిరించ	-11.5039
▁మంగోలియా	-11.504
▁నిలయ	-11.505
▁హుకుంపేట	-11.5058
▁తాత్విక	-11.5058
▁మల్టీ	-11.5067
▁అభిరుచి	-11.5077
▁కంట్రోల్	-11.5077
avi	-11.5079
▁కనుమల	-11.5086
▁మెరుగుపరచ	-11.5087
▁మాతృభాష	-11.5089
▁గుంతకల్లు	-11.5096
▁appears	-11.5096
▁కార్యనిర్వాహక	-11.5096
▁ఫుడ్	-11.5098
▁నిర్వచనం	-11.5102
మహిష	-11.5105
▁సమాంతర	-11.5106
ull	-11.5111
వాడైన	-11.5112
▁జనాదరణ	-11.5115
▁డయాక్సైడ్	-11.5115
▁కళాత్మక	-11.5115
▁కోయిల	-11.5124
▁నైజీరియా	-11.5134
▁గంగాధర	-11.5135
▁సాధ్యపడ	-11.5135
▁ఫ్రాన్సిస్కో	-11.5137
▁దెబ్బతిన్న	-11.5138
▁మగధ	-11.5146
▁ఇథియోపియా	-11.5153
▁లిథువేనియా	-11.5153
▁సంతరించుకుంది	-11.5153
▁హనుమంతరావు	-11.5153
▁బృహస్పతి	-11.5153
▁గద్య	-11.5156
▁సన్యాసుల	-11.5157
గ్రహణం	-11.5157
▁క్లిష్ట	-11.5167
▁period	-11.5172
▁అచ్చంపేట	-11.5174
▁పెడతారు	-11.5175
vid	-11.5191
ిద్దరి	-11.5194
వెంట	-11.5206
▁1905	-11.5207
▁between	-11.5211
▁తెలియజేస్తుంది	-11.5211
▁high	-11.5211
▁సారూప్య	-11.5211
▁శ్రేయ	-11.5211
పహాడ్	-11.5212
▁గోచర	-11.5214
▁జార్జియా	-11.5218
▁హ్యారీ	-11.5222
▁ఖండించ	-11.5222
హృద	-11.5223
dent	-11.5228
▁క్లోరిన్	-11.5231
▁నియమించబడ్డాడు	-11.5233
▁పల్లవుల	-11.524
▁చేయుదురు	-11.5241
•	-11.5247
▁ఇండస్ట్రీ	-11.5249
▁హెచ్చరిక	-11.5249
▁ప్రకాష్	-11.5249
▁ఉదహరించ	-11.5249
▁5332	-11.5253
▁విశ్వనాధ	-11.5254
▁విద్యార్ధుల	-11.5255
▁హర్ష	-11.5257
నాట్య	-11.5262
షైర్	-11.5265
▁కనిష్ఠ	-11.5269
▁స్థితిగతుల	-11.527
▁dec	-11.5271
▁కూర్చున్న	-11.5272
▁ద్రవిడ	-11.5275
▁కోణాల	-11.5278
▁ఎవరికీ	-11.528
▁శీతోష్ణ	-11.5288
▁ఆసుపత్రుల	-11.5288
▁యాభై	-11.5288
▁వేణుగోపాల	-11.5288
▁కంభం	-11.5288
శుద్ధి	-11.5294
బోతున్న	-11.5298
బృంద	-11.5304
▁వేశ్య	-11.5305
▁తయారుచేస్తారు	-11.5307
▁ఇన్నింగ్స్	-11.5307
▁సువార్త	-11.5308
▁స్వప్న	-11.5309
బడుచున్న	-11.531
▁లిబియా	-11.5311
▁సారథి	-11.5312
▁గంగానది	-11.5313
▁మిసిసిపీ	-11.5327
▁పూర్తయిన	-11.5327
▁ఢీ	-11.5328
▁వేణు	-11.5329
ుతుంటే	-11.5346
▁people	-11.5346
▁అల్పసంఖ్యాక	-11.5346
▁దృక్పథ	-11.5346
▁రెస్టారెంట్	-11.5346
ననుసరించి	-11.5346
▁give	-11.5351
▁లక్ష్మీదేవి	-11.5351
▁పురస్కారాల	-11.5352
▁నిర్ణయించుకున్న	-11.5352
ోత్తమ	-11.5354
బెర్గ్	-11.5361
▁సన్నివేశాల	-11.5366
▁విక్షనరీ	-11.5366
▁ఉదయగిరి	-11.5369
▁వెతుక	-11.5383
▁శంకరాచార్య	-11.5383
▁ఇబ్రహీం	-11.5385
▁ఫెడరేషన్	-11.5385
▁ప్రసిద్ధిచెందిన	-11.5385
▁large	-11.5385
▁వధువు	-11.5386
▁అనుభూతి	-11.5386
ఉంటుంది	-11.539
atch	-11.5399
▁మెటల్	-11.5399
app	-11.5403
గురించి	-11.5405
▁అడ్డతీగల	-11.5405
▁బద్వేలు	-11.5405
▁దూరదర్శన్	-11.5405
▁తెప్పించ	-11.5407
▁క్రమబద్ధ	-11.5409
▁విశ్వసిస్తున్న	-11.5409
▁తుర్క	-11.5411
lass	-11.5416
▁అలహాబాద్	-11.5425
▁గురుత్వాకర్షణ	-11.5425
▁కనుమరుగ	-11.5425
▁ఫుల్	-11.5426
ోద్యోగ	-11.5426
▁ఫొటో	-11.5428
▁కాంస్య	-11.5432
6,000	-11.5433
0°	-11.5435
▁పక్షము	-11.5444
▁కొల్లిపర	-11.5444
▁బ్యాంకింగ్	-11.5444
▁ప్రవచన	-11.5444
▁సీరీస్	-11.5445
రోహిణి	-11.5445
రచయిత	-11.5446
▁long	-11.5447
▁వేమూరు	-11.5453
▁ప్రళయ	-11.5465
▁సంక్రమించ	-11.5465
▁ట్యాంకు	-11.5466
▁పదమూడ	-11.5469
▁ఉగ్రవాద	-11.5472
▁కలుపుతూ	-11.5474
ేసరికి	-11.5475
▁పుష్పించే	-11.5478
▁శిబిరాల	-11.5484
▁సరియైన	-11.5486
▁సెకండ్	-11.5486
▁పట్టుదల	-11.5492
▁సొరంగ	-11.5494
▁కుమారుడి	-11.5497
▁సుభాష్	-11.5504
▁దేవరకొండ	-11.5504
▁అరవింద	-11.5504
వ్యాధుల	-11.5505
దృష్టి	-11.5505
▁many	-11.551
▁గమనిక	-11.5514
▁తామర	-11.5517
▁మహావిష్ణువు	-11.5523
▁లంబాడీ	-11.5524
▁మార్షల్	-11.5524
▁పిలువబడుతుంది	-11.5529
▁శోధన	-11.5542
▁called	-11.5543
▁పొన్నూరు	-11.5543
▁హర్యానా	-11.5544
▁ఇదొక	-11.556
▁జోగులాంబ	-11.5563
▁తాడిపత్రి	-11.5563
▁మిలిటరీ	-11.5563
▁మధ్యధరా	-11.5564
▁దండెత్తి	-11.5565
▁కప్పబడి	-11.557
▁ఐశ్వర్య	-11.5583
▁నలభై	-11.5583
▁సత్తెనపల్లి	-11.5583
for	-11.5583
▁నిరాకరణ	-11.5583
▁వీర్య	-11.5584
error	-11.5585
▁వృషణ	-11.559
గోళం	-11.559
▁సత్కార	-11.5596
▁ఎన్నికై	-11.5597
▁కజకస్తాన్	-11.5603
▁రమేష్	-11.5603
ాగారం	-11.5609
▁భేదం	-11.5619
▁సర్పంచ్	-11.5623
▁గువేరా	-11.5623
▁విచారించ	-11.563
▁పక్షాల	-11.5633
▁మాదిరి	-11.5633
FS	-11.5635
▁ఉద్దేశ్య	-11.5642
▁ఏజెన్సీ	-11.5643
▁నిమగ్న	-11.5643
▁ముంచింగిపుట్టు	-11.5643
▁ఆళ్వారు	-11.5643
▁ఎస్టేట్	-11.5644
▁తెలియజేస్తున్న	-11.5644
▁‘‘	-11.5644
▁జరిగిందని	-11.5646
▁బతిక	-11.5653
▁దురదృష్ట	-11.5663
▁ఊపిరి	-11.5664
▁తోడేళ్ళ	-11.5665
▁వ్యర్ధ	-11.5666
▁వైశ్య	-11.5672
▁భాగాన	-11.5683
▁స్క్వేర్	-11.5684
▁పృథ	-11.5684
▁ధనవంత	-11.5693
▁ద్వాదశ	-11.5704
▁డిస్ట్రిక్	-11.5705
▁ముస్లిముల	-11.572
▁సికింద్రాబాదు	-11.5724
▁పారదర్శక	-11.5724
▁యక్షగాన	-11.5724
▁రొట్టె	-11.5724
▁ఆస్పత్రి	-11.5724
▁సామగ్రి	-11.5724
సమాజ	-11.5724
▁తొలగింపు	-11.5726
▁same	-11.5728
▁మల్లికార్జున	-11.5744
▁మురళీ	-11.5744
▁పింగళి	-11.5744
ోత్పత్తి	-11.5745
aga	-11.5753
▁జరిగ	-11.5753
▁సార్వ	-11.5759
ెక్కి	-11.576
▁కంబోడియా	-11.5765
▁ఫ్యూర్టో	-11.5765
▁మైఖేల్	-11.5765
▁చవిచూ	-11.5765
లాజికల్	-11.5765
▁బుధవారం	-11.5765
▁చతురస్ర	-11.5765
▁అధిష్టించ	-11.5765
▁తీసుకెళ్ల	-11.5766
▁కశ్యప	-11.5766
▁కల్పిత	-11.5783
▁ధూళి	-11.5785
▁ఫ్లోరైడ్	-11.5786
▁విత్తిన	-11.5786
▁కత్తిరించ	-11.5789
▁టైగర్	-11.5791
▁ఎడిటర్	-11.5791
▁కొయ్యూరు	-11.5792
▁ఒకరైన	-11.5793
ంటుందని	-11.5796
▁గుండెపోటు	-11.5805
▁న్యూఢిల్లీ	-11.5805
▁పెదకాకాని	-11.5805
▁ఉయ్యాలో	-11.5806
▁కదిలే	-11.5806
▁known	-11.5809
▁new	-11.581
భారతదేశ	-11.5815
బడిందని	-11.5823
▁పాలకొల్లు	-11.5826
▁ప్రతాపరుద్ర	-11.5826
ease	-11.583
వాహక	-11.5844
▁word	-11.5846
▁గ్రౌండ్	-11.5846
▁కింగ్డమ్	-11.5846
▁తపాలా	-11.5847
▁మెప్పించ	-11.5854
దలచ	-11.5862
▁సైన్సెస్	-11.5867
ేసారు	-11.5869
▁కళాఖండాల	-11.5869
▁అనురాగ	-11.5873
▁చేరుకుంటుంది	-11.5874
నాటికీ	-11.5879
▁1,8	-11.5881
పరిగణించబడుతుంది	-11.5886
▁రైల్వేస్టేషను	-11.5888
▁పటిష్ఠ	-11.5888
▁హేతువాద	-11.5888
▁ఉగాది	-11.589
▁ఉదజని	-11.5908
ిస్తానని	-11.5911
▁వేళ్ళ	-11.5911
▁గడిపాడు	-11.5915
▁చీల్చ	-11.592
▁హతమార్చ	-11.5929
▁కురుక్షేత్ర	-11.593
▁చోటుచేసుకు	-11.5931
▁కలుగజేస	-11.5932
▁స్వలింగ	-11.5934
▁పనిముట్ల	-11.5938
ఉపయోగించబడుతుంది	-11.5944
పాదిస్తున్నారు	-11.5948
▁సులువుగా	-11.595
▁అన్నదమ్ముల	-11.595
▁ఇత్తడి	-11.595
▁నౌకాదళ	-11.595
▁ఏమైనా	-11.5952
ప్రకాశ	-11.5958
HTML	-11.597
▁చిరునామా	-11.597
▁భాజపా	-11.597
▁సనాతన	-11.597
▁బ్యూరో	-11.597
▁సిల్వర్	-11.597
▁అపూర్వ	-11.5971
పరీక్ష	-11.5977
kara	-11.5978
▁తుంగభద్ర	-11.5991
▁ప్రాదేశిక	-11.5991
▁ఎనర్జీ	-11.5991
▁నలుమూలల	-11.5991
▁అతీత	-11.5992
▁5322	-11.5995
తర్వాత	-11.5997
డిసెంబరు	-11.5998
▁కాన్సర్	-11.5999
rain	-11.6
▁వ్యాపారవేత్త	-11.6003
ుకోవాల్సి	-11.6006
▁మైదానాల	-11.6007
సంహార	-11.6012
▁అధిరోహించ	-11.6012
▁రిజర్వేషన్	-11.6012
▁విమోచన	-11.6012
▁కరాచీ	-11.6012
▁తెలప	-11.6012
▁పిలిపించ	-11.6012
▁అహంకార	-11.6014
▁జానకి	-11.6014
▁కుమ్మరి	-11.6029
▁ఫ్లోరిడా	-11.6033
విద్యుత్	-11.6037
ేశ్వరాలయం	-11.6047
▁మాధ్యమాల	-11.6054
▁మంత్రిత్వశాఖ	-11.6054
▁సూచిస్తాయి	-11.6057
▁సెక్రటరీ	-11.6075
▁రక్తపోటు	-11.6075
▁స్కాటిష్	-11.6075
▁ప్రాధమిక	-11.6075
▁పరమపదించ	-11.6075
▁పేటెంట్	-11.6076
▁జగత్తు	-11.6079
▁సమయాల్లో	-11.6081
వయసు	-11.6085
▁సెక్షన్	-11.6087
▁ఇంగ్లండు	-11.6096
▁లెబనాన్	-11.6096
▁పురాతత్వ	-11.6096
ల్యూషన్	-11.6099
▁బ్యాట్స్	-11.6101
Cl	-11.6103
సృష్టి	-11.6104
▁తిరుగుబాటుదారుల	-11.6106
▁పనిచేస్తాయి	-11.6117
▁తీశారు	-11.6119
ాశ్రయ	-11.6121
▁చరిత్రకారుల	-11.6131
▁గీతాల	-11.6132
▁కాల్పనిక	-11.6138
▁గడువు	-11.6138
▁చుట్టుముట్ట	-11.6139
▁సల్ఫైడ్	-11.6159
▁తీసుకెళ్ళ	-11.6159
▁హీరోయిన్	-11.616
▁మహేంద్ర	-11.6165
▁బురుజు	-11.618
▁పదకొండు	-11.618
▁గుజ్జు	-11.618
▁where	-11.6201
▁పరిశుభ్ర	-11.6201
▁శైలుల	-11.6202
▁మహాదేవ	-11.6202
▁డైరక్ట	-11.6202
▁బెర్లిన్	-11.6204
సరిహద్దు	-11.6211
▁మొదలుపెట్టాడు	-11.6223
▁దృష్ట్యా	-11.6223
▁పర్యవేక్షించ	-11.6224
▁నాగేంద్ర	-11.6231
▁criteria	-11.6244
▁కామన్వెల్త్	-11.6244
▁ఏర్పరుచు	-11.6244
▁formatt	-11.6244
▁copie	-11.6246
▁వినియోగదారులకూ	-11.6247
ుకొనుటకు	-11.6248
▁విద్యావంతుల	-11.6249
▁చుండూరు	-11.6265
▁భృగు	-11.6265
▁శ్రోతల	-11.6265
▁పదిహేను	-11.6265
▁గుర్రపు	-11.6265
▁రుజువు	-11.6265
▁మాసపత్రిక	-11.6266
▁మూసివేయ	-11.6268
▁అమృతలూరు	-11.627
▁వెన్నెల	-11.6276
వస్తువు	-11.6277
▁కనబడుతుంది	-11.6277
▁గుర్తింప	-11.628
▁చురుకైన	-11.6287
▁కాంగ్రేసు	-11.6287
▁సమర్థవంతంగా	-11.6288
ింగ్టన్	-11.6296
▁suited	-11.6308
▁రిపబ్లికన్	-11.6308
▁హైస్కూల్	-11.6308
▁meets	-11.6308
పౌర	-11.6319
▁both	-11.6323
▁హైడ్రాక్సైడ్	-11.633
▁మరికొంత	-11.633
▁విసిరి	-11.6331
▁విఠల	-11.6344
▁ఫిరంగి	-11.6351
▁నాయకుడిగా	-11.6357
▁కుళాయి	-11.637
▁మరికొందరు	-11.6373
▁రీతుల	-11.6381
బుచ్చ	-11.6383
▁విపుల	-11.639
క్రింద	-11.6392
▁through	-11.6395
▁డిప్యూటీ	-11.6395
▁పుష్కలంగా	-11.6395
▁లైసెన్స్	-11.6395
▁యవ్వన	-11.6395
▁పారాయణ	-11.6396
▁ఓటర్ల	-11.6396
▁ఫ్యాషన్	-11.6398
▁చిత్రకారుడు	-11.6401
కొద్దీ	-11.6407
హెక్ట	-11.6416
▁dictionary	-11.6416
▁లిఖిత	-11.6416
▁స్వస్థలం	-11.6416
▁చైర్మన్	-11.6417
▁లక్ష్మీనారాయణ	-11.6418
భరణి	-11.6423
స్తుంటుంది	-11.6436
ology	-11.6438
▁ఇంజినీరింగ్	-11.6438
▁న్యూజిలాండ్	-11.6438
▁శివరావుగారి	-11.6438
▁బురద	-11.6438
▁ఎక్కించ	-11.644
▁కోల్పోయారు	-11.6442
▁వాయిద్యాల	-11.645
▁టెర్మినల్	-11.646
▁వీరేశలింగం	-11.646
▁సంతానోత్పత్తి	-11.646
▁పరిశోధించ	-11.646
▁నామమాత్ర	-11.6461
▁ఉసిరి	-11.6462
▁భంగం	-11.6463
▁మద్యపాన	-11.6464
▁అంత్యక్రియల	-11.6482
▁మేడికొండూరు	-11.6482
▁రెహమాన్	-11.6482
▁ఆనవాయితీ	-11.6482
▁పొదిలి	-11.6482
▁ఆఫీస్	-11.6482
పోరాట	-11.6485
▁గెలవ	-11.6487
▁వంశీయుల	-11.6493
ప్రమాణ	-11.6494
▁extend	-11.6503
▁నిలిచాయి	-11.6503
ోగ్రఫీ	-11.6509
▁దొరికే	-11.6513
▁బతుకు	-11.6519
భూముల	-11.6525
▁appropriately	-11.6525
▁కంచికచర్ల	-11.6525
▁మెమోరియల్	-11.6525
▁అమ్మోనియా	-11.6525
▁పరిగణనలోకి	-11.6525
▁చైత్ర	-11.6525
▁లక్ష్మీనరసింహ	-11.6526
▁తేజస్సు	-11.6526
▁పేలుడు	-11.6527
▁సృష్టికర్త	-11.653
ాల్సిందే	-11.653
▁కేదార	-11.6535
▁follow	-11.6547
▁ప్రొఫెషనల్	-11.6547
▁రుగ్మత	-11.6547
▁వామపక్ష	-11.6547
▁బెంగాలు	-11.6549
▁కుబేర	-11.655
▁లక్ష్మ	-11.6571
▁రెండేళ్ళ	-11.6571
▁ప్రవహిస్తున్న	-11.6575
▁ఉపదేశించ	-11.6575
▁రక్షిస్త	-11.6586
▁దాఖలు	-11.6592
▁నైట్రేట్	-11.6593
▁రామచంద్రపురం	-11.6593
▁వెలిగించ	-11.6596
▁చదరంగ	-11.6597
gree	-11.6609
▁ఔత్సాహిక	-11.6614
▁నామవాచక	-11.6614
▁నిర్ణీత	-11.6614
▁సరిదిద్ద	-11.6614
పట్న	-11.6624
▁క్రమేణా	-11.6636
▁అసంతృప్త	-11.6639
▁అనవసర	-11.6655
▁ప్రాణాల	-11.6657
▁విధముల	-11.6658
▁యునెస్కో	-11.6658
▁శాస్త్రజ్ఞుడు	-11.6658
▁కమీషన్	-11.6658
ఆషాఢ	-11.6659
▁విప్లవాత్మక	-11.666
▁నర్సాపూర్	-11.6665
lock	-11.6675
▁భీం	-11.6676
▁వికిరణ	-11.6679
▁నరసన్నపేట	-11.668
▁వెదజల్ల	-11.668
▁అపురూప	-11.6681
▁హ్యూస్టన్	-11.6681
▁త్రిమూర్తుల	-11.6682
▁వారణాశి	-11.6703
▁అంటరాని	-11.6703
▁ఆఖరు	-11.6703
▁చెవుల	-11.6722
▁స్క్రిప్ట్	-11.6725
▁నారింజ	-11.6725
▁వారపత్రిక	-11.6727
▁ముందస్తు	-11.6727
▁సంతృప్త	-11.6733
▁విదేశీయుల	-11.6733
నిర్వహణ	-11.6742
▁ఎగ్జిక్యూటివ్	-11.6747
▁ఎడ్యుకేషన్	-11.6747
▁తంజావూరు	-11.6747
▁ఈజిప్షియన్	-11.6747
▁ఛేదించ	-11.6747
▁వర్తమాన	-11.6747
▁జస్టిస్	-11.6747
▁లినక్స్	-11.6748
▁ప్రకాశవంతమైన	-11.6749
▁పార్శ్వ	-11.675
▁పరిపాలక	-11.6752
▁నావికుల	-11.6768
▁తుపాకీ	-11.677
▁నాణ్యమైన	-11.677
▁పౌరసత్వం	-11.677
▁నక్సల	-11.6771
▁ఇందిర	-11.6773
▁జీవితాంతం	-11.6774
▁ముచ్చట	-11.6776
▁నాలుక	-11.6788
▁would	-11.6792
▁ఎనిమిదవ	-11.6792
▁మిలన్	-11.6795
▁అలహాబాదు	-11.6815
▁చెప్పుకోదగ్గ	-11.6815
▁వ్యభిచార	-11.6815
▁human	-11.6815
▁స్పెషల్	-11.6815
▁మిలటరీ	-11.6815
▁షాపింగ్	-11.6818
ుతుంటుంది	-11.6818
శాస్త్రజ్ఞుల	-11.6819
▁order	-11.6819
▁యిచ్చ	-11.6827
▁కుడ్య	-11.683
వలసిందిగా	-11.6836
▁మార్కండేయ	-11.6838
▁వితంతు	-11.6838
▁లభ్యం	-11.6838
▁మిడిల్	-11.6839
▁నడుపుతున్న	-11.6846
▁imp	-11.6857
▁అధ్యాయం	-11.686
▁తారీఖు	-11.686
▁టిబెటన్	-11.686
▁నిజాయితీ	-11.686
▁1,7	-11.6861
శృంగ	-11.6862
▁వారిద్దరి	-11.6862
▁image	-11.6864
▁సూక్త	-11.6865
▁పానీయాల	-11.6869
▁ప్రజాభిప్రాయ	-11.6883
▁ఇండెక్స్	-11.6883
▁కేన్సర్	-11.6883
▁Hindu	-11.6883
▁పోలవరం	-11.6884
▁అధునాతన	-11.6906
▁అభ్యంతర	-11.6906
▁పులివెందుల	-11.6906
▁హాలీవుడ్	-11.6906
▁ఛాంపియన్షిప్	-11.6906
▁వేడెక్క	-11.6906
▁కోనేరు	-11.6906
▁టేబుల్	-11.691
▁ఆకృతుల	-11.6925
▁విరాళం	-11.6929
▁తెలుసుకోవడానికి	-11.6932
తాత్పర్యం	-11.6951
▁వట్టిచెరుకూరు	-11.6951
థెరపీ	-11.6951
▁మటుకు	-11.6952
▁గోపాలకృష్ణ	-11.6953
సంతనూతలపాడు	-11.6974
▁విద్యుదయస్కాంత	-11.6974
▁ఎమ్మెల్యే	-11.6974
▁ఉపఖండంలో	-11.6975
▁కలియుగ	-11.6977
లోకెల్లా	-11.6987
▁కలుసుకున్న	-11.6988
▁జపనీస్	-11.6997
▁చోడవరం	-11.6997
▁ఫిన్నిష్	-11.6997
▁అయోమయ	-11.6997
▁మనుష్యుల	-11.6997
మేరకు	-11.6998
▁సమర్థవంతమైన	-11.6998
▁సంపాదకత్వం	-11.7004
▁దెబ్బతిన	-11.7004
▁స్టోర్	-11.7005
▁ఇనిస్టిట్యూట్	-11.702
▁న్యూక్లియర్	-11.702
▁శోక	-11.7039
ురాలైన	-11.7042
చేసుకో	-11.7043
▁యురేనియం	-11.7044
▁బ్రయంట్	-11.7044
▁ఇమామ్	-11.7044
▁ఉపయోగపడతాయి	-11.7045
ాస్పద	-11.7048
▁సమర్ధించ	-11.7048
▁ఆంజనేయస్వామి	-11.7053
▁పంచదార	-11.7056
▁తెల్లవార	-11.7058
▁కాడ్మియం	-11.7067
▁వెన్నెముక	-11.7067
▁South	-11.7067
▁తక్కిన	-11.7067
▁take	-11.7068
పాఠశాల	-11.7088
▁ఔరంగజేబు	-11.709
▁LED	-11.709
▁కందుకూరి	-11.709
▁నైట్రోజన్	-11.709
▁సారస్వత	-11.709
▁ఆస్టిన్	-11.709
▁దేవుళ్ళ	-11.7105
▁షెడ్యూల్	-11.7113
▁century	-11.7113
▁either	-11.7113
▁అమితాబ్	-11.7113
▁స్పోర్ట్స్	-11.7113
▁ట్యూబ్	-11.7113
▁వ్యవహరిస్తున్న	-11.7119
▁డాక్యుమెంటరీ	-11.7136
▁పునరుత్పత్తి	-11.7136
▁ఇక్ష్వాకు	-11.7136
▁కంకిపాడు	-11.7136
▁కొలిచే	-11.7137
▁ధ్రువీకరించ	-11.7139
▁డబ్ల్యు	-11.716
▁భట్టిప్రోలు	-11.716
▁కరెన్సీ	-11.716
▁వయోజన	-11.716
సాగాయి	-11.7163
▁అరెస్ట	-11.7166
▁బొల్ల	-11.7167
▁గడిపే	-11.7175
▁కోరుకున్న	-11.7177
▁నమః	-11.7183
▁వర్తిస్తుంది	-11.7183
▁పరిమళ	-11.7184
▁రాజభవన	-11.7184
గింజల	-11.7195
▁క్రీస్తుపూర్వం	-11.7207
▁యురోపియన్	-11.7207
▁చిహ్నాల	-11.7212
▁ఘట్టం	-11.7218
▁పరిశుద్ధ	-11.7221
గౌరవ	-11.7229
|-|	-11.7234
▁world	-11.7254
▁విశ్వసనీయ	-11.7254
▁బైబిలు	-11.7254
దృక్	-11.7255
▁ఒక్కోసారి	-11.7256
▁కళారూపాల	-11.7259
▁State	-11.7261
▁వరుణ	-11.7265
▁విముక్త	-11.7274
▁ఎలక్	-11.7277
▁అప్లికేషన్	-11.7277
▁సామాగ్రి	-11.7277
▁శిరస్సు	-11.7277
▁వైజ్ఞానిక	-11.7277
▁వేరువేరు	-11.7278
▁స్టెయిన్	-11.7278
▁పాండ్య	-11.7278
▁నెంబరు	-11.7301
▁లెనిన్	-11.7302
విధానాల	-11.7302
▁స్తుతించ	-11.7319
▁జాతక	-11.7325
ాంజనేయ	-11.7325
▁శృంగవరపుకోట	-11.7325
▁సంస్థానాధీశుల	-11.7325
ాతీత	-11.7326
▁గణేశ	-11.7327
భూపాల	-11.7341
▁గుజరాతీ	-11.7349
▁మున్సిపల్	-11.7349
▁రాజశేఖరరెడ్డి	-11.7349
▁ముగిసే	-11.7349
▁గణాంక	-11.7353
స్వాతంత్ర్యోద్యమ	-11.7358
వల్సిన	-11.737
▁చైర్	-11.7372
▁ఒడంబడిక	-11.7373
▁కొత్తవీధి	-11.7373
▁ఆఫీసర్	-11.7373
▁కలిగివుంటాయి	-11.7373
రెక్ట	-11.7376
రమణ	-11.7376
సదుపాయ	-11.7379
▁పయనించ	-11.7387
▁ఉక్రెయిన్	-11.7396
▁స్పర్శ	-11.7397
▁విభేదాలు	-11.7397
self	-11.7398
graph	-11.74
రసాయన	-11.7417
Telugu	-11.742
▁తైమూర్	-11.742
▁వేములవాడ	-11.742
పరిశ్రమ	-11.7422
▁సౌమ్య	-11.7423
▁కలెక్టరు	-11.7445
▁స్పృహ	-11.7445
▁ప్రత్యర్థుల	-11.7445
ఏప్రిల్	-11.7447
గ్రాహక	-11.745
▁ఘట్టాల	-11.7455
▁బిరుద	-11.7458
కలహాల	-11.7462
Google	-11.7469
▁సమరయోధుడు	-11.7469
▁పామర్రు	-11.7469
▁ఎవరైతే	-11.747
▁ఆలపించ	-11.747
▁good	-11.7471
▁రాత్రుల	-11.7477
▁పిలుచ	-11.748
ుకుందాం	-11.7492
▁బెరీలియం	-11.7493
▁సేవలందిస్త	-11.7516
▁great	-11.7517
▁క్లుప్తంగా	-11.7517
▁వగైరా	-11.7517
▁శ్రీకృష్ణదేవరాయ	-11.7517
▁మేధావుల	-11.7517
▁కొనియాడ	-11.7518
▁అపరాధ	-11.7518
▁రొమ్ము	-11.752
ాధీశ	-11.7527
▁ఇచట	-11.7532
▁సర్క్యూట్	-11.7541
▁మాంసాహార	-11.7542
▁సల్ఫర్	-11.7543
ious	-11.756
ుకోవలసి	-11.756
▁బాలుర	-11.7564
▁అసంఖ్యాక	-11.7566
▁స్వయంప్రతిపత్తి	-11.7566
▁పిలిచారు	-11.7566
▁group	-11.759
▁వెలువడ్డాయి	-11.759
▁అడ్డంకుల	-11.7605
▁సభ్యత్వ	-11.761
▁వారందరి	-11.7612
▁నెరవేర	-11.7614
▁పెనుగంచిప్రోలు	-11.7614
▁బెల్జియం	-11.7614
▁సురేష్	-11.7614
▁దత్తాంశ	-11.7635
▁సమూహము	-11.7638
▁ఇంజనీరు	-11.7639
▁బాష్పీభవన	-11.7639
పద్ధతి	-11.7644
▁నిలిప	-11.7646
▁రప్పించ	-11.7646
▁ఆపాదించ	-11.7647
జెంట	-11.7659
▁సంపుటాల	-11.7661
▁బహిష్కరణ	-11.7663
▁during	-11.7663
▁ఆస్కార్	-11.7664
▁సృజ	-11.7665
▁కుంతీ	-11.7665
▁దర్శకత్వ	-11.7673
▁వర్ధిల్ల	-11.7688
శీర్ష	-11.7689
▁వెంకటరమణ	-11.7689
▁భేదాలు	-11.7693
▁పూరించ	-11.7697
ుతుందో	-11.7708
▁నెపోలియన్	-11.7713
▁అధ్యాయాల	-11.7713
▁అభయారణ్యం	-11.7713
▁క్రమేపీ	-11.7713
▁పలుమార్లు	-11.7713
▁పరిశోధకుడు	-11.7738
▁యూనివర్స	-11.7738
▁ఆజాద్	-11.7738
▁శేఖర్	-11.7738
▁మూలికల	-11.7752
▁దుర్మార్గ	-11.7756
▁పెరిగాయి	-11.7762
▁చేకూర్చ	-11.7763
▁అనుసరిస్తున్న	-11.7763
హైడ్రేట్	-11.7763
వైకల్య	-11.7768
▁ఆసిఫాబాద్	-11.7787
▁లాట్వియా	-11.7787
▁యంత్రాంగం	-11.7787
▁లబ్ధ	-11.7795
▁ఒప్పుకో	-11.7797
▁చెన్నకేశవ	-11.7812
▁డొమినికన్	-11.7812
ఫికేషన్	-11.7812
▁show	-11.7812
▁పెరుమాళ్	-11.7812
▁మసాలా	-11.7813
▁ఐవరీ	-11.7813
కార్బను	-11.7819
బడుతుంటాయి	-11.782
▁స్వాతంత్ర	-11.783
▁క్షితిజ	-11.7837
▁పెనాంగ్	-11.7837
▁బ్రాహ్మ	-11.7842
సూచక	-11.7849
▁small	-11.7862
▁అభ్యర్థన	-11.7862
▁పరీవాహక	-11.7862
▁తృతీయ	-11.7862
▁కలుస్తుంది	-11.7863
▁life	-11.7863
▁లియోనె	-11.7863
▁ఆవిర	-11.7864
▁ప్రసిద్ద	-11.7865
‘	-11.7868
మహర్షి	-11.787
▁ఏంజలెస్	-11.7887
▁కృతజ్ఞత	-11.7887
▁ఫిలిప్పీన్స్	-11.7887
▁వశిష్ఠ	-11.7887
కృత్తిక	-11.7896
▁క్షమించ	-11.7913
▁చేసుకొంట	-11.7913
▁పతాకంపై	-11.7914
▁అలవాట్ల	-11.7916
▁ఆటగాళ్ల	-11.7918
▁సుజాత	-11.7925
దృశ్య	-11.7933
▁సూళ్ళూరుపేట	-11.7938
▁ఆజ్ఞాపించ	-11.7938
▁బంతుల	-11.794
▁చెపుతారు	-11.7963
▁బెరడు	-11.7963
▁ఉంటోంది	-11.7964
▁ఓడిపోయాడు	-11.7965
▁అచట	-11.7966
▁మిరియాల	-11.7983
▁ఫిలింఫేర్	-11.7989
▁సారథ్యం	-11.7989
▁center	-11.7989
ఆగస్టు	-11.7998
7,000	-11.8004
▁కర్పూర	-11.8014
▁సత్యభామ	-11.8015
▁రమ్మని	-11.8015
పెడతాడు	-11.8021
▁వడ్ల	-11.8031
▁పురోహిత	-11.8039
▁ముగ్ధ	-11.804
▁ఆర్జించ	-11.8059
▁తనిఖీ	-11.8065
▁గురజాడ	-11.8065
▁చైల్డ్	-11.8065
▁ఖతార్	-11.8065
▁ప్రసరణ	-11.8065
▁స్కంద	-11.8067
మొట్టమొదటిసారిగా	-11.8068
వ్యతిరేక	-11.8075
▁నగ్న	-11.8076
▁కార్పోరేషన్	-11.8091
▁శృంగేరి	-11.8091
▁స్రవంతి	-11.8091
▁plant	-11.8092
8,000	-11.8096
▁ఉరుము	-11.811
▁పౌనఃపున్య	-11.8116
▁సంకల్పించ	-11.8118
లక్ష్మమ్మ	-11.8129
▁అప్పుడప్పుడూ	-11.8142
▁కళాకారిణి	-11.8142
▁శంకుస్థాపన	-11.8142
▁రాజనీతి	-11.8142
▁నిలకడ	-11.8143
▁నకిలీ	-11.8143
spect	-11.8145
ాధ్యయన	-11.8147
▁పక్షాన	-11.8158
▁పునరావృత	-11.8161
▁ఎకనామిక్	-11.8168
▁కల్వకుర్తి	-11.8168
▁ఇదంతా	-11.8168
▁భూస్వాముల	-11.8168
▁సంఘటిత	-11.8168
idae	-11.8169
▁క్షీరదాల	-11.8176
▁దుకాణాల	-11.8189
▁language	-11.8194
▁ఉల్లంఘన	-11.8194
▁మున్సిపాలిటీ	-11.8194
▁అనుయాయుల	-11.8194
▁బృందావన	-11.8194
▁పరిశోధకుల	-11.8205
▁స్వీడిష్	-11.822
▁విఫణి	-11.822
▁రిజర్వు	-11.822
▁నిడివి	-11.8221
▁తాడేపల్లిగూడెం	-11.8224
▁ఆసిడ్	-11.8225
▁లీటర్ల	-11.8232
▁జమ్మి	-11.8233
ఛత్తీస్	-11.8246
▁అథారిటీ	-11.8246
▁ద్రవ్యోల్బణ	-11.8246
▁రేడియోధార్మిక	-11.8246
▁సానుకూల	-11.8246
▁శిలీంధ్ర	-11.8246
▁అన్నమాచార్య	-11.8248
▁సెటిల	-11.8249
▁కత్తుల	-11.8251
హిందూ	-11.8259
▁సంక్షోభ	-11.8259
▁ప్రోత్సహిస్త	-11.8262
▁అహోబిల	-11.8272
▁సంప్రదింపుల	-11.8272
▁ఓజోన్	-11.8272
▁గ్రీసు	-11.8272
తూర్పు	-11.8285
▁వ్యావహారిక	-11.8298
▁చాంపియన్షిప్	-11.8298
▁మాంద్యం	-11.8298
▁జాయింట్	-11.8298
▁పేరుపొందిన	-11.8298
▁మొదలయ్యింది	-11.8299
▁ధాతు	-11.8324
▁హోరిజోన్	-11.8324
▁కొవ్వూరు	-11.8325
▁వెనక్కు	-11.8325
▁ఫార్మాట్	-11.8325
▁ప్రసవ	-11.8326
▁tree	-11.8328
స్తోంద	-11.8329
▁థ్ర	-11.8334
▁శ్రేష్ట	-11.8351
▁కృతవర్మ	-11.8351
▁అకౌంట	-11.8351
▁బురుండి	-11.8351
▁సక్రమంగా	-11.8351
▁చరణ్	-11.8352
▁సంచరించ	-11.8354
హింస	-11.8356
వనరుల	-11.8375
▁దుమ్ముగూడెం	-11.8377
▁చింతలపూడి	-11.8377
▁develop	-11.8404
▁మయన్మార్	-11.8404
▁సుప్రీంకోర్టు	-11.8404
▁స్ప్రింగ్స్టీన్	-11.8404
▁కొలుస్తారు	-11.8404
▁నేషన్స్	-11.8404
▁వచ్చేసరికి	-11.8404
▁భీకర	-11.8418
▁తంతు	-11.8419
▁గొట్టాల	-11.843
▁శతావధాన	-11.8431
▁వెలిబుచ్చ	-11.8431
▁సంపాదన	-11.8431
▁దర్శనమిచ్చ	-11.8438
▁పెంపక	-11.844
▁species	-11.8457
▁కొలెస్ట్రాల్	-11.8457
▁స్ఫటిక	-11.8457
▁విద్యనభ్యసించ	-11.8457
▁పనస	-11.8478
▁రగ్బీ	-11.8483
▁నిశ్చల	-11.8484
▁పురుషోత్తమ	-11.8484
▁పూర్ణిమ	-11.8486
▁స్థితుల	-11.8491
▁సర్కారు	-11.8494
▁జమ్మలమడుగు	-11.851
▁స్పీకర్	-11.851
▁సిగరెట్	-11.851
▁ట్రోఫీ	-11.851
అనూరాధ	-11.851
▁మెత్తగా	-11.8513
నిర్దేశ	-11.8518
▁include	-11.8537
▁public	-11.8537
▁హైస్కూలు	-11.8537
▁ఉధృత	-11.8537
▁అందుకనే	-11.8537
ాజీపేట	-11.8541
కొవ్వు	-11.8555
▁వెంట్రుకల	-11.8564
▁నమస్కార	-11.8564
▁నిడదవోలు	-11.8591
▁మూత్రపిండాల	-11.8591
▁విరాజిల్ల	-11.8591
▁వేధింపు	-11.8591
▁సూక్ష్మజీవుల	-11.8591
▁సంకల్పం	-11.8592
శరీర	-11.8604
▁ఎరుక	-11.8615
▁రామరాయల	-11.8615
▁జ్యేష్ట	-11.8618
▁ప్రొద్దుటూరు	-11.8618
▁ఓరుగల్లు	-11.8618
▁ర్యాంకు	-11.8618
▁ఖరీదు	-11.8618
▁ప్యూ	-11.8621
▁అసూయ	-11.8621
పశ్చిమ	-11.8635
▁తొమ్మిదవ	-11.8645
▁దారితీస్తుంది	-11.8645
పెడితే	-11.8649
సంపుట	-11.867
▁offence	-11.8672
▁డ్రెయినేజ	-11.8672
▁ఒట్టోమన్	-11.8672
▁సిఫారసు	-11.8672
▁అధికసంఖ్యలో	-11.8672
▁లభ్యత	-11.8672
▁పథకాన్ని	-11.8673
▁వంకాయ	-11.8673
▁పోకడ	-11.8685
▁పదార్ధము	-11.8685
▁అరకులోయ	-11.8694
▁హిరణ్య	-11.8699
▁స్వగ్రామం	-11.8707
నిర్జన	-11.8711
▁Muslim	-11.8727
▁చట్టవిరుద్ధ	-11.8727
▁ప్రిన్సిపాల్	-11.8727
▁భోపాల్	-11.8727
▁నమోదైన	-11.8727
▁బ్రదర్స్	-11.8727
▁గ్యాలరీ	-11.8727
▁రాకపోకల	-11.8727
▁దేశాయ్	-11.8727
▁సంతరించుకున్న	-11.8735
ఆక్స	-11.8736
▁రెట్టింపు	-11.8754
▁స్టడీస్	-11.8754
▁ఐర్లాండు	-11.8754
▁పక్షపాత	-11.8754
▁వశిష్ట	-11.8754
▁చనిపోయారు	-11.8754
▁సింధూ	-11.8754
విష్ణు	-11.8758
free	-11.8763
duct	-11.8767
మార్పిడి	-11.8774
సీనియర్	-11.8774
▁అట్లాంటా	-11.8782
▁ఉల్లంఘించ	-11.8782
▁థెరీసా	-11.8782
▁హరప్పా	-11.8782
▁ఆగ్నేయాసియా	-11.8782
▁మలేరియా	-11.8782
▁జనావాస	-11.8782
▁బచ్చన్	-11.8785
▁మునిసిపాలిటీ	-11.8809
▁షెంగెన్	-11.8809
▁ఇండీస్	-11.8809
▁సిద్దిపేట	-11.8809
వలయును	-11.8819
▁సేకరిస్త	-11.8824
▁క్రిస్మస్	-11.8837
▁క్రొయేషియా	-11.8837
▁నిష్ణాత	-11.8837
▁సుప్రభాత	-11.8837
▁ఉగాండా	-11.8837
▁కస్తూరి	-11.8837
▁family	-11.8864
▁షాజహాన్	-11.8864
▁సల్ఫ్యూరిక్	-11.8864
▁అరేబియన్	-11.8864
▁భానుమతి	-11.8864
▁ఫ్రెండ్	-11.8864
▁పర్లాకిమిడి	-11.8892
▁భేతాళ	-11.8892
▁వారాణసి	-11.8892
▁హిస్టరీ	-11.8892
▁ఆకర్షణీయమైన	-11.8892
▁ఉస్మాన్	-11.8892
▁సంకోచ	-11.8894
▁ఊరేగ	-11.8894
ఞ	-11.8903
▁చతుర	-11.8909
▁మెట్రోపాలిటన్	-11.892
▁మోతీలాల్	-11.892
▁citation	-11.892
▁ఎలాగైనా	-11.892
▁ద్వంద్వ	-11.892
▁పేరుగాంచిన	-11.892
▁తార్కిక	-11.892
=1/	-11.892
▁చంద్రబోస్	-11.892
▁వెంకటేష్	-11.892
▁సంజయ్	-11.892
▁స్మరించ	-11.8921
▁భిక్షు	-11.8921
▁రకపు	-11.8922
▁దామోదర	-11.8923
ఆమ్ల	-11.8928
▁నరసింగ	-11.893
తాండవ	-11.8939
▁అసుర	-11.8941
▁తల్లుల	-11.8947
▁భరద్వాజ	-11.8948
▁లోకోమోటివ్	-11.8948
▁ఇన్సులిన్	-11.8948
▁పూర్తయింది	-11.8948
▁కనెక్షన్	-11.8948
▁టర్కిష్	-11.8948
▁కైవసం	-11.8948
▁వెంకటరత్నం	-11.8948
▁ప్రత్యేకపూజలు	-11.8948
▁కొంకణ	-11.8949
▁సమ్మర్	-11.8951
▁ఇప్పించ	-11.8961
▁బంగాళాఖాతం	-11.8976
▁రజాకార్ల	-11.8976
▁భగవానుడు	-11.8976
▁very	-11.8976
▁రోబోట్	-11.8976
▁నెమలి	-11.8977
కాశీబుగ్గ	-11.9004
▁three	-11.9004
▁మెక్సికన్	-11.9004
▁లిథియం	-11.9004
▁మహర్షుల	-11.9004
సంప్రదాయ	-11.9026
అమెరికన్	-11.9027
▁imprisonment	-11.9032
▁అతిశయోక్తి	-11.9032
▁ఫిలడెల్ఫియా	-11.9032
▁ఆత్రేయ	-11.9032
▁గడిపారు	-11.9032
▁యోధుడు	-11.9033
లిథువేనియన్	-11.906
▁అక్కడక్కడా	-11.9061
▁లాంఛన	-11.9061
▁పదహారు	-11.9061
▁విభేదించ	-11.9066
▁సాయపడ	-11.9076
▁ఆకాంక్ష	-11.9089
▁మౌఖిక	-11.9089
▁ఉయ్యూరు	-11.9089
▁బిషప్	-11.9089
▁నేతృత్వం	-11.911
▁బుర్కినా	-11.9117
▁వృద్ధాప్య	-11.9117
▁సాహిబ్	-11.9117
▁గాడిద	-11.912
పుస్తక	-11.9121
▁పాట్నా	-11.9123
ఛార్జ్	-11.9129
▁అనిశ్చిత	-11.9146
▁ఆరాధిస్త	-11.9152
▁శ్రీవైష్ణవ	-11.9174
▁శరణార్ధుల	-11.9175
▁ఫ్రేమ్	-11.9175
▁కమిషనర్	-11.9203
▁క్షమాపణ	-11.9203
▁పాకిస్తానీ	-11.9203
▁ధృష్టద్యుమ్న	-11.9203
▁మాణిక్య	-11.9203
▁కురిపించ	-11.9203
▁భవంతి	-11.9203
▁ఫరూఖ	-11.9203
▁చవితి	-11.9203
▁గ్లోబ్	-11.9204
▁చందమామ	-11.9204
▁know	-11.9226
▁బంగాళాదుంప	-11.9232
▁నామినేట్	-11.9232
▁మదురై	-11.9232
▁సుస్థిర	-11.9232
▁population	-11.9261
▁should	-11.9261
▁గందరగోళ	-11.9261
▁భువనేశ్వర్	-11.9261
▁మెల్బోర్న్	-11.9261
▁విచక్షణ	-11.9261
▁సమతుల్య	-11.9261
▁ఊరగాయ	-11.9261
▁డెస్క్	-11.9261
▁వియోగం	-11.9261
▁పరిశీలక	-11.9262
▁జన్మదిన	-11.9264
నవంబరు	-11.9287
▁అనూహ్య	-11.9289
▁అణచివేత	-11.9289
▁అమావాస్య	-11.9289
▁శాటిలైట్	-11.9289
▁మరమ్మత్తు	-11.9289
▁విన్యాసాల	-11.9299
▁Coordinates	-11.9318
▁ఆల్కహాల్	-11.9318
▁కాంప్లెక్స్	-11.9318
▁వీరాస్వామయ్య	-11.9318
▁ఆల్బర్ట్	-11.9318
▁పరిణమించ	-11.9318
▁వాస్తుశిల్ప	-11.9319
▁ఫిలిప్పైన్	-11.9319
▁యాపిల్	-11.9319
▁పుష్యమి	-11.9319
▁మేనేజ్	-11.9326
▁అంతేగాక	-11.9329
▁రిలయన్స్	-11.9347
▁రేడియేషన్	-11.9347
▁సియెర్రా	-11.9347
▁అధ్యాయము	-11.9347
▁ఆళ్వార్	-11.9347
▁నిముషాల	-11.9348
▁సర్కిల్	-11.935
▁స్థాపి	-11.9364
▁బంజారా	-11.9377
▁కౌంసిల్	-11.9377
▁యాసిడ్	-11.9377
▁ప్రాచుర్య	-11.9381
▁system	-11.9406
▁ప్రతిఘటన	-11.9406
▁మణుగూరు	-11.9406
▁ఆఫ్ఘన్	-11.9406
▁సంస్కర్త	-11.9406
▁రామలక్ష్మణుల	-11.9406
▁మధిర	-11.9406
{2}	-11.9408
గుంట్ల	-11.9418
అండమాన్	-11.9424
▁శిఖరాగ్ర	-11.9435
▁మైకేల్	-11.9435
▁వితరణ	-11.9436
▁ధనుర	-11.9443
▁PHP	-11.9465
▁ఎప్పటికప్పుడు	-11.9465
▁కమీషనర్	-11.9465
▁పర్యవసాన	-11.9465
▁మృగశిర	-11.9465
చండీగఢ్	-11.9465
▁సర్వీసెస్	-11.9465
▁త్యజించ	-11.9465
▁కంట్రీ	-11.9465
▁అమూల్య	-11.9465
యెత్తున	-11.9471
▁అతికించ	-11.9478
▁కందుకూరు	-11.9494
▁కూర్చొని	-11.9494
▁కూనవరం	-11.9495
▁బహుమతుల	-11.9507
ద్భుత	-11.9511
▁తుళ్లూరు	-11.9524
▁నర్మదా	-11.9524
▁పెరిగాడు	-11.9524
నరసింహ	-11.9524
▁మ్యూజియ	-11.9549
▁woman	-11.9553
▁వెనువెంటనే	-11.9553
రాజకీయ	-11.9554
▁ఏకగ్రీవంగా	-11.9583
▁బ్యాక్టీరియా	-11.9583
▁లాభదాయక	-11.9583
▁సభ్యదేశంగా	-11.9583
▁హుసేన్	-11.9583
▁సైంధవ	-11.9583
▁అంగుళ	-11.9596
▁టార్గెట్	-11.9613
ావకాశ	-11.963
▁చిగుర	-11.964
Whoever	-11.9643
▁కామెడీ	-11.9643
frac	-11.9654
▁ఉదహరింపు	-11.9673
▁మధుసూదన	-11.9673
▁అనుసరిస్తూ	-11.9673
▁కాలిక్యులేటర్	-11.9673
▁ప్రంపంచ	-11.9673
▁తిరునాళ్ళ	-11.9675
దైర్ఘ్య	-11.9703
▁అనధికారిక	-11.9703
▁జనమేజయ	-11.9703
▁మాద్యమము	-11.9703
▁శీఘ్ర	-11.9703
▁శ్రేష్ఠ	-11.9703
▁తిరోగమన	-11.9703
▁పితామహుడు	-11.9703
▁విసుగు	-11.9703
▁నిశిత	-11.9705
▁బలూచ	-11.9719
▁సుయోధనుడి	-11.9733
▁సైద్ధాంతిక	-11.9733
▁ఓట్టమన్	-11.9733
▁కాస్పియన్	-11.9733
▁ఇరానియన్	-11.9733
▁గెలుపు	-11.9734
▁హారతి	-11.9734
▁కృష్ణదేవరాయల	-11.9764
▁అంగీరస	-11.9764
▁అన్వేషించ	-11.9764
▁హవేలీ	-11.9764
▁సంస్థాగత	-11.9764
▁elements	-11.9794
▁సిండ్రోమ్	-11.9794
▁ఆపరేటర్	-11.9794
▁క్రితమే	-11.9794
ఇంజనీరింగ్	-11.9798
▁సందర్శిస్త	-11.9799
▁ఆధిక్య	-11.9811
▁ఆకస్మిక	-11.9824
▁అకాడెమీ	-11.9824
▁మాకవరపాలెం	-11.9824
▁ఉత్పాదన	-11.9824
▁నైజాం	-11.9825
Wiki	-11.9827
▁pass	-11.9829
▁కుటీర	-11.9831
▁తప్పించుకో	-11.9836
▁విస్పోట	-11.9855
▁అహమ్మద్	-11.9855
▁చాణక్య	-11.9855
▁ఏమైనప్పటికీ	-11.9855
▁కడ్డీ	-11.9855
▁వాయిదా	-11.9856
▁వీటన్నిటి	-11.9856
▁రేణువుల	-11.9862
▁example	-11.9886
▁మహమ్మదీయ	-11.9886
▁త్రివిక్రమ	-11.9886
▁ఉజ్వల	-11.9886
▁నిదానంగా	-11.9886
▁ఆతిధ్య	-11.9886
▁ఖానాపూర్	-11.9887
▁మనదేశంలో	-11.9887
ఆంధ్రప్రదేశ్	-11.9891
▁కుదించ	-11.9896
▁ఆవరించి	-11.9897
▁జర్నలిస్టు	-11.9916
▁మాయాబజార్	-11.9916
▁ప్రోగ్రాము	-11.9917
ఇండియన్	-11.9922
▁Wikipedia	-11.9947
▁ఉజ్జయిని	-11.9947
▁బాలసుబ్రహ్మణ్యం	-11.9947
▁ఫారెస్ట్	-11.9947
ఔ	-12.9139
·	-13.8601
