<unk>	0
<s>	0
</s>	0
.	-2.72789
,	-3.38997
▁	-3.72643
亥	-4.60385
▁佅伭	-4.77474
▁什	-4.80281
仓	-4.8484
▁仢俷佳	-4.98208
亰	-5.0341
▁伊	-5.0458
亶	-5.07492
▁亲仇	-5.07569
▁仿亵	-5.14992
亚	-5.16194
仅	-5.16509
▁偙亮亥	-5.21642
二	-5.22191
▁10	-5.32178
▁互	-5.35586
亾	-5.36628
▁亽	-5.48421
▁仿亵亥	-5.48638
亡	-5.56707
予	-5.56775
▁亖	-5.61519
▁佋仦佌	-5.62642
▁5	-5.65759
争	-5.71134
仌	-5.74423
▁伡傢	-5.79264
亜	-5.82186
▁亓伊亃	-5.85667
▁亇予	-5.86432
亳	-5.91304
余	-5.93298
亭	-5.98698
什	-6.01361
仍	-6.01795
仦	-6.0578
亃	-6.05859
仇	-6.06114
▁仩仪	-6.06409
佋	-6.0797
亏	-6.09824
▁佰亣	-6.12639
▁仐	-6.1424
事	-6.15839
仅亰	-6.18105
亣	-6.202
亱	-6.2164
▁予	-6.22301
▁会予傲	-6.22642
-	-6.24646
仠	-6.27001
伙	-6.2812
▁佸位伭二	-6.30459
▁亍倩	-6.31578
伭	-6.35884
侻	-6.3702
亞	-6.38014
:	-6.38253
▁亂	-6.38825
▁予傜俉仅	-6.39079
▁估侒	-6.40234
仐	-6.41094
▁"	-6.41648
代	-6.41808
企	-6.42682
亢	-6.43954
▁伸傘俉仅	-6.44413
亩	-6.46477
▁仌	-6.47859
▁仔伢俱	-6.50815
▁亥	-6.50821
▁亘亙	-6.51071
▁侺仌個	-6.53144
亓	-6.54319
仼	-6.56049
▁仿亩亚什	-6.56281
亂	-6.57121
佚	-6.57401
▁享仚	-6.57461
▁争伥亐仦	-6.57551
▁亃	-6.58699
伻	-6.58726
▁仈仇	-6.58901
▁亓争侚亣	-6.61387
▁亓	-6.65278
伫	-6.65898
侐	-6.65973
▁亚	-6.66063
▁佋	-6.66299
▁19	-6.66463
仂	-6.66575
从	-6.6987
佼	-6.69947
▁仢付	-6.73049
伹	-6.73471
▁以	-6.73772
▁侎优众予	-6.73875
▁亍	-6.74121
▁仔	-6.76979
仅亾	-6.77395
佳	-6.78995
仞	-6.79663
▁亽侨傥	-6.79881
仅亥	-6.80349
令	-6.804
▁亩	-6.80948
▁亊亩估予	-6.80964
▁伸	-6.81259
▁亣	-6.81985
仚	-6.82314
▁仈	-6.82798
仄	-6.84118
仛	-6.84893
亠	-6.85651
保二	-6.86117
▁亢	-6.86364
▁亥仼	-6.87683
s	-6.88101
▁二	-6.88462
"	-6.88749
仰	-6.89032
但	-6.89161
伸	-6.90552
▁傻侏佧	-6.91628
产	-6.92144
▁偁仇	-6.92492
众	-6.94084
▁亜二	-6.94111
付	-6.94314
亯	-6.9578
伎	-6.9632
▁倦傠	-6.96677
亐	-6.97505
▁以偏仌	-6.97632
仯	-6.97719
;	-6.98699
▁伸佧	-6.98986
▁亖亚	-7.00521
▁仐俗	-7.03015
仗	-7.06757
▁亼亡	-7.07261
▁伙	-7.07643
亚什	-7.07748
▁但亚亩	-7.07749
▁佃伅	-7.07881
▁亜	-7.08137
▁/	-7.10248
伿	-7.10979
▁仢	-7.12113
亼	-7.12697
▁仈亜争	-7.13234
▁-	-7.13662
亊	-7.13718
▁伒仇二	-7.14415
偞	-7.14524
▁侺仌亊事	-7.14579
偿	-7.14644
亮	-7.14801
伥	-7.15309
佝	-7.15386
▁仔仲二	-7.17271
▁亖伻	-7.17337
▁佒	-7.17665
▁仍	-7.17687
▁1	-7.19204
位	-7.19679
▁僇亾	-7.19729
▁俢了	-7.1993
▁仢俷亡	-7.20375
▁伓	-7.20553
▁亜亡亢亜	-7.20754
▁亊	-7.20771
佸	-7.21519
▁仐侭侑	-7.21606
▁令二亏仳二	-7.22663
▁亢亮	-7.22984
▁亽任亃俌	-7.23221
▁亇予仂	-7.23577
▁们	-7.23725
任	-7.2374
▁亃偾伿	-7.23755
▁亃优佃	-7.24942
▁享亐	-7.25513
▁仔亂亮	-7.25746
伟	-7.25875
▁傕傖侵	-7.2601
了	-7.26038
佶	-7.26212
▁倦傠俉仅	-7.26412
▁亢佉僆	-7.26741
▁傸亭	-7.27117
▁亍個	-7.27777
▁亾	-7.27798
亥亚	-7.27913
仭	-7.2826
▁侏	-7.28907
▁仢亃	-7.29046
▁亽傷任	-7.29727
▁俢亍	-7.30124
▁伕侻仅	-7.30165
▁仁亳	-7.30207
俢	-7.30534
仪	-7.30724
仧亡	-7.30848
▁位	-7.30972
▁传傶傷任	-7.3112
▁俢	-7.31236
▁2	-7.3214
侏	-7.32466
▁7	-7.32479
▁介争亜	-7.33229
▁亖伳俎俣	-7.34173
交	-7.35083
▁亽事二	-7.35331
▁亻	-7.35889
▁僁佤亭	-7.35945
▁哏	-7.35955
▁令	-7.3616
亥亰	-7.37323
佭	-7.37677
▁僓	-7.3811
仅余	-7.38745
▁亏	-7.39051
▁侺仌亊伹亚什	-7.39657
▁3	-7.3978
▁传	-7.41007
佃	-7.41475
▁但	-7.41984
▁侨僃	-7.42105
▁亢仦	-7.4218
▁伭傞	-7.42759
▁亖亰	-7.42879
亍	-7.42882
▁the	-7.43202
▁侧	-7.43315
亥傒	-7.43526
侨	-7.4371
▁任	-7.44938
▁佋侹	-7.45458
佧	-7.45589
仒	-7.45624
▁仼	-7.45799
偉	-7.46886
▁产仦交	-7.47352
▁佅仞	-7.47945
來	-7.48147
▁仛	-7.48882
佌	-7.49265
佀	-7.4942
▁仒信事	-7.49869
仧亳	-7.50216
▁凁	-7.50612
n	-7.50925
伓	-7.51456
侳	-7.52069
享	-7.52419
▁仔产	-7.52468
仲	-7.52731
▁仔傤予	-7.52809
亸	-7.53257
▁18	-7.53961
▁仐依亶	-7.54127
▁亲俅仇	-7.54735
亭佼	-7.54939
▁予亱交	-7.55035
▁亣僂	-7.55254
▁仧伫	-7.55271
傒	-7.55311
▁仙	-7.5535
▁亅僀	-7.55595
仳	-7.56122
仉	-7.56322
▁4	-7.5638
伌	-7.56485
▁令亡亯傫仇	-7.57152
俑	-7.57409
佤	-7.57566
/	-7.57934
▁亻从	-7.59422
▁亶	-7.59533
佈	-7.59806
亙	-7.60321
于	-7.60568
估	-7.61408
仞二	-7.61653
▁仢你佡	-7.62122
▁伱	-7.62145
▁佒仪仇	-7.62322
仪亚什	-7.62397
介	-7.62715
▁亼仂	-7.62813
俪仇	-7.62864
▁仂	-7.63007
▁倲件	-7.63359
▁伜仂	-7.63376
▁亯	-7.63566
俰仇	-7.64067
▁佚	-7.64438
俉	-7.64823
o	-7.65383
▁亷	-7.65401
e	-7.65519
▁倐亡	-7.65756
▁佭	-7.66048
▁亖伻予	-7.66177
佲	-7.66235
'	-7.66303
偖	-7.67285
▁仍亡亯亼仂	-7.67383
亞佼	-7.67446
▁争	-7.67469
▁仙仚伖仇	-7.67613
俵	-7.68537
▁俙亳亯伙	-7.69481
▁仇	-7.6954
▁仌争亾	-7.69939
▁6	-7.6995
y	-7.69968
传	-7.70468
佗	-7.70636
些	-7.70734
▁僯	-7.70883
六	-7.7128
▁倎	-7.72112
偩	-7.72116
儢	-7.72389
▁位傼	-7.72842
▁代	-7.74598
▁今伟	-7.74708
t	-7.75093
倠	-7.75162
▁亵仇	-7.75616
▁侳	-7.76298
▁of	-7.76324
▁2011	-7.76772
▁亢亡	-7.76904
▁俎佡	-7.77155
▁俆仓亯	-7.77383
▁众	-7.77544
亯仅	-7.78067
▁似代仂	-7.78622
亵	-7.79287
▁亍亜	-7.79301
▁仙了	-7.79534
俷亡	-7.79967
伕	-7.80104
▁令亡亯伖仇	-7.80332
▁亾俅位	-7.80636
▁倲	-7.80678
▁亍僈	-7.80908
佉	-7.81049
▁亽伱	-7.81069
▁佨佲仳	-7.81292
▁亃仦	-7.81323
亢亡	-7.81461
▁亻争亾	-7.81695
▁二伀仚	-7.82617
▁仐俖侍仞	-7.82652
▁仔仌偩俰仇	-7.82675
▁争亢伤	-7.82722
▁俑	-7.82953
▁亥亚	-7.82983
▁亃例	-7.83322
▁'	-7.83525
▁亩侹众予	-7.83572
侬	-7.83701
▁亂仓仌仅	-7.83769
▁仪倣傿	-7.84199
▁8	-7.84324
▁仞	-7.84529
佥	-7.84571
▁仍亡亯亼亡	-7.8506
▁僄亝	-7.85375
▁僅争	-7.85744
▁亵仠仅	-7.86023
俯	-7.86134
▁亏傓亂仅	-7.86241
▁伡佇仓	-7.86649
倇	-7.86867
偨	-7.87073
▁亂倂仅伟	-7.8709
侕亡	-7.88576
▁仐亚于伕	-7.88767
▁亊亩亪	-7.88969
▁亂亶	-7.89029
亢亳	-7.89122
▁僊倡倏	-7.89388
▁偕亢	-7.89453
▁佨例	-7.89545
▁偙亮	-7.89702
▁似代住二	-7.89712
▁亾伫仅	-7.90427
▁仯	-7.90445
▁伊代	-7.90812
▁仞付	-7.90963
俬	-7.91024
▁亍侞傯	-7.91167
▁倡佂	-7.91398
▁亽仜	-7.914
▁俆亏仅	-7.91455
▁储佤佶	-7.91472
▁侎优众俢付亜	-7.91672
▁保亐伎	-7.91704
▁亓伥亂争	-7.92181
▁僎像仅伟	-7.92521
▁亂佛予侟	-7.92653
▁亚众傆	-7.92853
▁伓仅仅	-7.92876
▁倎侻傺亠	-7.93081
▁亍争佲仳	-7.93086
▁亢僋亃俌予	-7.9309
▁佋佗	-7.93173
▁似傹企	-7.93596
▁令伙介	-7.93644
▁亽侻仅	-7.93676
▁亓佗事予	-7.93812
▁伬	-7.93826
▁仹佭僌	-7.93953
▁亽傝	-7.93998
仍仓	-7.94047
▁亩僉傳倠	-7.94096
▁侞	-7.94099
▁亍伵佋	-7.94231
▁傗些佤亭	-7.94253
▁--	-7.94263
▁仔傦傧事	-7.94275
▁佋亏亢仦	-7.9465
俺	-7.9466
▁令伙介余	-7.9473
休	-7.94791
▁令二二	-7.94857
▁亽俉	-7.9492
▁佸	-7.94955
a	-7.94986
▁伸亣伱伭予企	-7.95099
▁亽仠亢仦	-7.951
▁亍仧争	-7.95142
▁仛但二	-7.9528
▁偿俠倠	-7.95302
倪	-7.95322
▁佭亭	-7.95357
▁僐	-7.95429
▁値伮偘亥	-7.95434
▁传借倠	-7.95505
▁佋争伤仅	-7.95591
▁仈傔余	-7.95673
▁侎	-7.95678
▁傛亚事亞	-7.95739
▁亓債	-7.95789
偝	-7.95832
▁仮仯仅	-7.96411
▁亩仯	-7.96427
u	-7.96454
▁伸仦例侹	-7.96535
▁住亭	-7.96571
亻	-7.966
▁亢倿	-7.96621
▁仙亏亭	-7.96644
仔	-7.96671
▁伦亱傸亭	-7.96875
▁传倢	-7.97145
▁仢侸代予	-7.97595
▁亓争侚亣仅	-7.97733
亝	-7.97924
▁俄伨	-7.97939
井	-7.97979
p	-7.98067
▁仛俶俷亡	-7.98251
伀	-7.98378
▁亜佋	-7.98428
▁僑佗仌亓亣仅	-7.98579
▁信	-7.98665
▁伋佫仅	-7.9868
▁传佤亂佗争	-7.98711
▁亃亙伻	-7.98739
▁佗仓	-7.98981
▁亥亰	-7.9915
▁偕予侍仛	-7.99151
▁亻仦事亞	-7.99288
▁倎傳仂	-7.99339
▁伭	-7.9935
▁佃予争	-7.99377
▁侺侀仅	-7.99404
▁仌俶仄仓	-7.99542
▁仌件	-7.99551
▁亃争亃产	-7.99592
▁仒	-7.99617
▁亖亚事亜	-7.99686
▁伫	-7.99691
伊	-7.99781
▁亓伊仕亜	-7.99786
▁in	-7.99971
▁亖亜亚	-8.00021
▁位于傴侐	-8.00067
作	-8.00099
▁佋亡亯傰傱	-8.00206
▁亩僉亠	-8.00243
▁仇傣	-8.00258
▁佒倏以倪	-8.00377
▁伭傩傪偿	-8.00387
▁亖亥亃产	-8.00425
伅	-8.00477
▁亷俬亰	-8.0081
▁伦亱仿倭	-8.01146
▁亃偝仳保二	-8.01264
▁伸争催侕	-8.01282
▁俊了	-8.01306
▁亖仌亓亣仅	-8.01365
▁倦	-8.01849
仓亶	-8.02173
▁俤	-8.02241
▁伡伈保二	-8.02563
侑	-8.02608
▁侳伻估傟佧	-8.02682
▁俜亳	-8.02783
▁亐亚	-8.03114
亖	-8.03151
▁伓仅位伭	-8.03227
▁仌二亡仅	-8.03757
▁侨停亾	-8.03901
▁仿亩仅	-8.03961
候	-8.04082
▁亐	-8.04208
▁伥	-8.04416
▁亖佋仅仄傫仇	-8.04494
▁亜儈亜	-8.04668
信	-8.04759
▁9	-8.05003
▁仌仅二	-8.05123
▁倇亚	-8.05407
▁15	-8.05705
▁亲偉佳	-8.05955
▁仛事	-8.06144
亃倌	-8.06666
低	-8.06914
企佼	-8.06966
俔	-8.07244
僝	-8.07261
▁佌	-8.07444
▁亾傜佳仅	-8.07558
▁亖伉働	-8.07668
倨	-8.07902
al	-8.08063
▁催	-8.08164
侰	-8.08166
伶	-8.08173
ed	-8.08542
▁12	-8.08577
伜	-8.08631
▁佗	-8.09017
▁A	-8.09054
00	-8.09204
▁a	-8.09288
▁仌仦	-8.09602
A	-8.09664
▁伸傘俉仅仓	-8.09688
位俠仇	-8.09875
▁亖佳倨	-8.09892
▁俜	-8.10019
▁位傼仓	-8.10107
er	-8.10161
▁伀	-8.10667
▁侨停亢偿	-8.10693
佨	-8.10698
▁仙亜	-8.10732
▁偱仪	-8.1082
▁仛产仹仼仅	-8.10868
们	-8.11181
俤	-8.113
▁亓佋	-8.11392
偎	-8.1141
▁佃	-8.11518
們	-8.11559
▁亇	-8.11647
▁仹	-8.11791
i	-8.11858
▁亯侍仞	-8.11889
▁今	-8.12171
亣仄	-8.12435
▁亽倭	-8.12468
▁侣	-8.12548
▁亂亼	-8.12677
▁亖仄來俷佳	-8.12716
偕	-8.12903
偏	-8.13227
仌侤	-8.13303
▁什亥伊侻偘	-8.13304
▁偙亮亥傒	-8.13594
伧	-8.13698
侕	-8.13865
ar	-8.13878
▁偆	-8.14028
伖仇	-8.14109
▁仛但	-8.14117
▁亖佳二	-8.14357
俷	-8.14593
c	-8.14668
伪	-8.14717
▁亵仠仭	-8.14738
▁似傆	-8.14744
d	-8.14926
▁倎令亼侍倠	-8.15251
▁亼	-8.15265
%	-8.15501
事亭	-8.15527
▁侨	-8.15962
伈	-8.16066
ing	-8.16218
▁倫	-8.16219
▁伌	-8.16397
▁令仅	-8.16753
▁仅	-8.16853
▁侺仌亊伟	-8.17192
▁仚	-8.17219
▁S	-8.17993
佯	-8.18395
位伭	-8.18441
▁亻俬	-8.18536
僵	-8.18671
▁倈仚	-8.18727
▁伸伶	-8.19053
▁仙偉亡	-8.19253
▁亓佋伟亥	-8.19898
▁但儶仇	-8.20135
伋	-8.20167
▁亖仇	-8.20544
倌	-8.21027
佋亚	-8.21069
偘	-8.21079
佼亥	-8.211
▁会予倂仓	-8.21101
▁侁	-8.21624
享仚	-8.22022
▁仈亙仠	-8.2211
2	-8.22289
俀	-8.22505
▁余	-8.22535
▁享亚	-8.22628
僷	-8.23159
▁伻	-8.23246
仧	-8.23266
倏	-8.23493
▁似代住二仐	-8.23505
冓	-8.23832
▁亂亚	-8.23926
▁仯亡	-8.24117
▁享亡	-8.24491
▁俙	-8.24618
仹	-8.2465
位伭二	-8.24726
亾仓	-8.24793
▁20	-8.24983
▁介佤	-8.25265
傿	-8.25745
俁	-8.25968
▁令仦交二	-8.261
▁伻亡亶	-8.26101
▁仔伢俍	-8.26363
b	-8.26616
偗	-8.26716
佚佝	-8.26802
俜	-8.26807
▁亣傐	-8.27025
代亚	-8.27229
▁亩伶侳	-8.27281
▁伸募	-8.27293
▁仿佋	-8.27489
侒	-8.27506
m	-8.27551
傔	-8.27951
▁伋	-8.28279
▁俆仭亶仳	-8.2876
▁0	-8.2879
借	-8.28878
r	-8.28935
俶	-8.28946
▁to	-8.28969
▁似	-8.29033
▁候	-8.29102
▁俲佪	-8.29595
▁c	-8.29611
兎	-8.2979
▁俄	-8.3009
▁亖从	-8.30371
做	-8.30648
冰	-8.30694
▁介	-8.30703
倮	-8.30785
▁亖亜亰	-8.30851
▁and	-8.30991
兵	-8.31053
▁位偩亮亏	-8.31151
▁s	-8.31243
保	-8.31379
▁16	-8.31445
▁17	-8.31734
▁亖产	-8.3184
僟	-8.31956
▁伹	-8.31993
▁亂仭亥	-8.32656
偀	-8.32776
▁产	-8.32852
or	-8.32924
▁例俣	-8.32956
亻亚	-8.33019
)	-8.33185
▁14	-8.33226
▁亣停	-8.3356
▁俉仅	-8.33755
▁予仅	-8.34071
仩	-8.343
亽	-8.344
C	-8.3452
▁产亡亯來俷佳	-8.34739
▁仛偕	-8.34772
伛	-8.34949
▁仈件亡	-8.35131
佂	-8.35201
▁11	-8.35606
仃	-8.35682
▁予优	-8.3569
▁亵仞亼仂	-8.36035
住二	-8.36135
偂	-8.3631
儊	-8.3665
件	-8.36757
1	-8.37108
佄	-8.37174
▁:	-8.37289
▁争佢亜	-8.37733
偉亚什	-8.38237
伸亳	-8.38335
佤亭	-8.3863
▁仌倚二	-8.3875
▁亲	-8.38854
俄	-8.389
仜	-8.38905
仍亥	-8.3896
g	-8.38983
▁亃仓	-8.39113
侕佳	-8.39129
▁亵仠伫亚什	-8.39275
倢	-8.39306
佫	-8.39459
伱	-8.39528
▁亖仌	-8.39571
▁俈	-8.40298
▁倇亚亚	-8.40485
亣仓	-8.4049
k	-8.4053
▁亣令	-8.4056
▁仧	-8.40624
倘仪	-8.4071
▁凍	-8.40878
仌二亡仰什	-8.40988
▁享	-8.41119
▁亜伹亡	-8.41164
倐	-8.41271
▁佀	-8.41504
仯佳	-8.4151
▁代佢仳	-8.41681
來付	-8.41862
▁倎仚亥	-8.41866
亷	-8.41992
▁亲仉	-8.42048
▁仙仚伓佧亥	-8.4249
▁仔仹佚	-8.42837
f	-8.4291
▁亍仌冂亣仅	-8.43093
▁仐仐佶	-8.43357
债	-8.43475
仑	-8.43511
倿	-8.43715
in	-8.43883
▁傾倣傿俷佳	-8.43892
▁仛俉亡	-8.44041
亠佼	-8.44047
侐佼	-8.44307
re	-8.44411
▁仈仐	-8.44439
S	-8.44481
偗亳	-8.44581
亂仅	-8.44611
仄仓	-8.44907
3	-8.45433
▁仢俬争	-8.45483
亣停	-8.45575
▁仌仚仓來	-8.45631
僺	-8.45731
h	-8.45741
仼亮	-8.45747
▁亢傽仚	-8.46042
▁仩	-8.46445
▁亵仞	-8.46478
俖	-8.46511
兼	-8.46897
▁佋二	-8.47188
▁亇予亡	-8.47293
▁仌伧	-8.47357
佡	-8.47477
僮	-8.47611
偒	-8.47615
M	-8.47631
侧	-8.47792
an	-8.47847
▁佨	-8.47888
ri	-8.47947
侞	-8.48031
▁13	-8.48159
▁俆	-8.48281
▁偶	-8.48366
优	-8.48636
l	-8.48714
伳	-8.49037
▁亥傒	-8.49121
停	-8.49235
係	-8.49367
來仓	-8.49578
仸	-8.49619
▁仁仠仌	-8.50059
俐	-8.50105
▁仔仍仑	-8.50266
側	-8.50503
俶付	-8.5054
▁50	-8.5057
侦	-8.50611
▁亏仅	-8.50636
伤	-8.50862
位亳伖仇	-8.51124
▁予亱交二	-8.51263
le	-8.51312
几	-8.51563
亏仅	-8.51646
伙仓	-8.51966
▁亖伻仇	-8.52078
亾付	-8.52324
侞亞	-8.5253
▁俺	-8.52544
▁値	-8.52596
凭	-8.52774
亢仦	-8.5285
住	-8.53013
▁侞倷	-8.53148
俠	-8.53317
▁伙仓亯	-8.53336
予争仳	-8.53494
▁仔令仓	-8.53525
▁亍仌冂亮	-8.53784
▁僓众	-8.53855
ra	-8.53926
▁亂争伪亶	-8.53952
▁亢仂	-8.54124
▁亵	-8.5443
仯亡	-8.54448
亥什	-8.54491
▁亖俵予	-8.54504
俌	-8.5453
▁仦	-8.54573
▁佒冸佧	-8.54592
▁俉	-8.54857
侮	-8.54916
争仳	-8.54927
th	-8.55024
▁們傌	-8.55094
仍亰	-8.55115
▁偖仌	-8.5539
兙	-8.55396
▁以侐	-8.55442
偼	-8.55488
二仍	-8.5572
▁仍儵亡	-8.56322
▁倐	-8.56444
▁仿佋仍	-8.56504
▁佁	-8.56697
佢	-8.56753
▁些	-8.56977
倲	-8.57036
0	-8.57047
佅伭	-8.57323
偆	-8.57592
▁亰	-8.57665
▁亖付	-8.57811
▁亖仐	-8.57835
咭	-8.57902
▁伸傘俉仅佼仓	-8.57943
仍仅	-8.58082
▁亖偖	-8.58121
▁冓	-8.58228
▁伋亡	-8.58519
▁伋仦	-8.58522
伦	-8.58625
僻	-8.58693
▁僬	-8.58951
偢	-8.59632
▁亃亚	-8.59944
▁佚仦伶	-8.59984
▁伜	-8.60134
侍	-8.60135
▁仛傂仇	-8.60203
▁C	-8.60215
佃亶	-8.60579
▁亣佋	-8.6067
▁亃亚仛	-8.60941
伭亶	-8.60981
亥伻	-8.61251
▁亊仲争伪亶	-8.61274
兜	-8.613
▁仙伅	-8.61439
▁仮佈亥	-8.61635
催	-8.61678
▁仮佈	-8.61685
俹	-8.61789
党	-8.6181
傦	-8.62044
▁侚	-8.62146
二仇	-8.62153
亜争	-8.62189
▁令仦佄仇	-8.62312
▁佈僠	-8.62486
▁伃代亣伓仚	-8.62493
俴	-8.62646
▁倡	-8.6277
▁亷亡仄	-8.62932
▁亖兩亜	-8.63048
ic	-8.63143
▁以偏仌亶	-8.63193
▁俿	-8.63246
▁p	-8.63267
▁亽俦予	-8.63614
▁估	-8.63932
仵	-8.64179
交仦	-8.64331
亦	-8.64563
亾亳	-8.64612
亴	-8.64684
I	-8.64693
▁伓仄仅	-8.64759
伵	-8.64976
▁佶	-8.64989
亊仦	-8.652
▁佒体	-8.65207
以	-8.65305
▁仈伫	-8.65418
偀傱	-8.6555
亃倌亥	-8.65607
▁亜偏仌	-8.6564
▁事	-8.6578
▁亍偰亜	-8.65983
▁介争信事	-8.66448
▁仔令仅	-8.66474
伣	-8.66527
俱	-8.66545
▁仞俹	-8.66545
?	-8.66574
it	-8.67231
T	-8.6741
俼	-8.67444
俍	-8.67728
▁位偩亮伕亶	-8.67851
佈亶	-8.67947
en	-8.67999
偰	-8.68052
▁亵仠仭亥亚	-8.68097
叀	-8.68124
▁伦	-8.68445
▁f	-8.68508
位俫佳	-8.68845
▁偀	-8.69015
僜	-8.69019
4	-8.69092
促	-8.69666
侲	-8.69742
▁倨	-8.69786
▁亓伥	-8.69819
5	-8.69945
倚	-8.69987
▁予亱	-8.70483
▁w	-8.70494
▁予亱但	-8.70545
!	-8.70776
es	-8.71114
亣仅	-8.71284
偔	-8.71402
▁仌兝仇	-8.71536
D	-8.71557
仅亚	-8.71564
倂	-8.71577
▁任亩亡	-8.71629
▁亖伫係	-8.71834
▁仪倣亡	-8.71933
▁仔俶佈	-8.71933
▁偕	-8.72076
at	-8.72176
亂仓	-8.72201
▁催亡伓仄仅	-8.72313
亿	-8.72339
侚	-8.72677
▁偩	-8.72686
▁傂	-8.72845
佷	-8.7297
侕亳	-8.72971
▁伸休伦傡伿	-8.73003
▁予傭	-8.73029
伂二	-8.73053
傷	-8.73155
▁传倏	-8.73642
俪	-8.73643
亂亮	-8.73776
卨	-8.74228
叼	-8.74268
伿佼	-8.74447
▁仛任	-8.74463
▁俓	-8.74463
▁僩	-8.74576
▁P	-8.7477
▁亹	-8.75044
仍亶	-8.75295
▁俑俒	-8.75343
▁予俷	-8.75712
倘	-8.75727
▁侺俒	-8.75818
▁俕亱	-8.75921
册	-8.76051
俶俷亡	-8.76056
ch	-8.76123
▁亂倘仪	-8.76246
▁亖亙仠	-8.76489
ur	-8.76507
▁亖二亶	-8.76933
▁M	-8.76968
▁亣令偞事	-8.77035
▁來	-8.7723
▁傋亜	-8.77236
▁仑	-8.77283
▁偖	-8.77405
▁倃	-8.77414
▁传傫仇	-8.77463
債	-8.77785
亾仅	-8.77836
▁B	-8.77845
佚仪亚什	-8.78123
▁僻	-8.78163
倐侻	-8.78191
▁偷	-8.78576
▁57	-8.78729
▁仐傠	-8.78802
▁倎亂	-8.79001
傂仇	-8.79214
亡亯	-8.79266
▁亂仭	-8.7927
▁信任亾	-8.7932
▁侮偙	-8.79564
▁亐亐仼	-8.79605
▁亖伱仦亂	-8.79617
▁佺	-8.79716
侫	-8.79731
傠	-8.79742
▁倇	-8.79763
仚仓	-8.80166
亾俷亳	-8.8021
傜	-8.80222
儃	-8.80521
來仅	-8.8056
充	-8.80677
▁亖争	-8.8074
▁佻	-8.80956
▁亖伳	-8.81032
刭	-8.81115
争仍	-8.81426
▁伃	-8.81439
▁仌儗	-8.81491
▁匣伙	-8.81888
▁偕仌	-8.82099
佛	-8.82302
併	-8.82368
▁伡傢亥	-8.82383
偖仐	-8.8253
仿亵亥	-8.8261
▁伓亶	-8.82619
▁仛亡	-8.8268
▁仌倚	-8.8269
亹	-8.82762
▁仞伶	-8.82846
仏众	-8.82863
凍	-8.8308
▁佋争	-8.83104
▁亢亳	-8.83211
倷	-8.83211
▁亃亐	-8.83556
仅佸	-8.8357
▁亂仚	-8.83719
亾俷亡	-8.83817
偈	-8.83987
侤	-8.84023
▁偖俑	-8.84082
仯亳	-8.84118
▁代儯争	-8.84124
▁互事二	-8.8415
代俇	-8.84273
倀	-8.84522
亅	-8.84598
▁倇亚什	-8.84821
▁亃匯佋	-8.84843
P	-8.85019
▁仛事佝	-8.85063
▁仔偖凈	-8.85146
▁享予	-8.85322
▁争佚佳亜	-8.85363
▁be	-8.85676
▁亢仦什	-8.85677
▁30	-8.85953
la	-8.8598
▁亜倌	-8.86071
伙从	-8.86166
▁仍倩保二	-8.86169
▁倐亡余	-8.86442
▁俲	-8.86653
▁2001	-8.86747
仧佳	-8.86764
▁償	-8.86779
亮亶	-8.86859
▁亖俵	-8.86936
▁偖债	-8.87081
事仍	-8.87095
仆	-8.87142
▁25	-8.87336
▁佋侨	-8.87387
▁亷偂	-8.87463
公	-8.87636
▁俜仅	-8.87644
仌亮	-8.87752
E	-8.87762
佚位俠仇	-8.87786
▁伝	-8.87805
了佼	-8.88016
▁冓仅	-8.88417
▁二亏亮	-8.88439
▁仙仚	-8.88469
▁伸仅	-8.88533
▁二仇	-8.88633
冢	-8.88755
▁以冰	-8.89326
倹	-8.89666
侻亞	-8.89736
▁亍偶俥仞二	-8.89821
偁	-8.90021
傚	-8.90067
儈	-8.90189
准	-8.90289
侁	-8.90545
▁侦	-8.90585
偓	-8.90646
6	-8.90673
倃	-8.9079
侴	-8.90796
▁亓亩	-8.90949
▁伸侻	-8.90965
20	-8.91077
on	-8.91408
▁仪	-8.91461
▁仛俉亳	-8.91575
▁H	-8.91698
▁亮亯	-8.91842
▁俉亓二亓伌	-8.91889
▁劼	-8.91936
▁侨停	-8.91955
冂	-8.92079
仠亚	-8.92291
▁仕农	-8.92297
▁仅伳俰仇	-8.92307
▁亖偂仂	-8.92532
▁会	-8.92546
亃产	-8.92642
▁仍倩	-8.92688
▁仈傏	-8.92812
傏	-8.9291
▁亅仓	-8.92951
傯	-8.93305
▁介争亜偖债亥	-8.93426
▁予仐	-8.93581
▁亇些	-8.93899
▁佋儜予	-8.93986
勝	-8.94034
▁仐俉仑亃儴	-8.94046
il	-8.94089
▁亂予	-8.941
佇	-8.94214
▁偱偔亡	-8.94472
仦伹	-8.9451
▁仐俐	-8.94623
倭	-8.94668
▁is	-8.94725
▁b	-8.94746
俊	-8.94805
▁傋仠	-8.9505
争亚	-8.9521
亪	-8.95236
▁亩俹	-8.95287
▁亃仦冯佶二	-8.95344
▁亂仅	-8.95359
▁伍	-8.95478
侹	-8.95489
us	-8.95666
仚亾	-8.95722
▁吁	-8.95988
▁亃俌予	-8.96064
▁何	-8.96121
▁仼亡冎仅	-8.96159
▁仏众	-8.96196
▁刻	-8.96231
▁佌偣	-8.96356
▁=	-8.96477
▁俉仑	-8.96808
▁俎	-8.96847
▁介伕亶	-8.96914
▁仸	-8.96991
am	-8.97036
▁僬咄侐	-8.97123
li	-8.97315
儮	-8.97337
传做仇	-8.97425
倔	-8.97486
▁倬	-8.97538
▁I	-8.97553
ol	-8.97566
▁仐亳代仅	-8.97576
伙事亾	-8.97642
俶俷佳	-8.97747
例	-8.97853
v	-8.97888
ro	-8.97909
侺	-8.97919
亃仦	-8.98271
共	-8.9845
僓	-8.98478
▁侫偂	-8.98559
50	-8.98594
▁or	-8.9867
▁佨仌	-8.98811
佻	-8.98872
仢	-8.98923
亶伻	-8.99006
▁仕僾	-8.99036
▁佚佛	-8.99069
▁亊仲争仳	-8.99202
傋仠	-8.9935
▁倘	-8.99513
仄仅	-8.99555
ad	-8.99587
亣从	-8.99697
佼亰	-8.99829
▁仞仌仦	-8.9983
亨	-8.999
▁倄	-8.99931
▁俀	-9.00057
▁亩侻	-9.00074
▁伸亡代仅	-9.00135
▁亜仅	-9.00272
▁仙亜咁信事	-9.004
兂	-9.00562
▁亲仠	-9.00598
▁傾倣亡	-9.00614
倥	-9.00955
▁俆仓任	-9.00983
▁信任	-9.01026
▁傮亠佼亥	-9.01032
▁冿净	-9.01051
佘	-9.0107
N	-9.01138
▁仹佭俶俷亡	-9.0119
▁亱	-9.01222
刄	-9.01348
▁58	-9.01938
▁保	-9.0197
ha	-9.0212
▁N	-9.02358
傰	-9.02444
▁亲仉仇	-9.02647
▁n	-9.02766
▁亯侙佚	-9.0287
傂	-9.02912
倪佼	-9.02921
▁偒	-9.03165
傊	-9.03254
▁介佛	-9.03259
亜仓	-9.03285
倦	-9.03372
僬	-9.03457
▁儂	-9.03474
劽	-9.03516
10	-9.03535
▁例	-9.03668
▁亇亙	-9.03691
亜亰	-9.03958
俩	-9.04101
▁仔代俇二	-9.04102
▁俛	-9.04137
▁予亰予	-9.04158
价	-9.04191
冪	-9.04214
▁T	-9.0439
▁佶儊	-9.04485
▁亥倐	-9.04572
儠	-9.04587
▁侧克	-9.04604
仈	-9.0465
▁伍佳	-9.04673
st	-9.04681
伙亳	-9.04743
倘仇	-9.04996
▁D	-9.05016
仿	-9.05122
▁亢仂亚	-9.05122
▁亃争	-9.05277
▁仔佡	-9.05387
ation	-9.05482
▁介伕	-9.0557
亱予	-9.05588
勚	-9.05844
佝余	-9.05887
▁侫	-9.05958
▁伙仂	-9.05986
▁冓區亡	-9.05997
▁亓仦伥儮	-9.06205
▁!	-9.06507
▁亃仦偈佋	-9.06526
伹仓	-9.0668
事亚	-9.06727
▁亣令仲亚	-9.06796
便	-9.06929
倬	-9.06984
像	-9.07059
▁些仌仭	-9.07105
予仅	-9.0713
19	-9.07145
▁众交亱二	-9.07206
▁仔仒	-9.07296
▁倦仼	-9.07307
▁佋侍亜	-9.07389
▁亓仍伈	-9.07471
▁互伱	-9.07601
二亚	-9.07611
42	-9.07625
侗	-9.07712
亮亥	-9.07803
▁伙仂什	-9.07889
▁仚亂伪	-9.08149
▁The	-9.08248
▁仍咯	-9.08249
▁佃倲亼	-9.08409
11	-9.0853
▁仐俐仐俗仅伟	-9.08628
亂争	-9.08637
▁冿	-9.08791
▁伡伈	-9.09016
偶	-9.09044
伂	-9.09077
▁俤亐仌仦	-9.09081
▁亽仅伟	-9.09525
亚伹	-9.09525
▁仐令事亢仠	-9.0954
佼亾	-9.09625
内	-9.09743
仦什	-9.09809
▁仿	-9.09886
俐争	-9.09888
▁予亚	-9.09985
▁亣事	-9.10014
▁佚仚仄	-9.10064
18	-9.10147
▁俉仅亥	-9.1016
八	-9.10522
傳	-9.1066
到	-9.10662
▁仯亰	-9.10668
▁佷事	-9.10715
亓仍	-9.10752
▁仄付	-9.10893
▁亖伫	-9.11041
ul	-9.1113
▁仆仇二	-9.11378
位亳	-9.11393
▁仍卫亶	-9.11547
▁佋亜	-9.11575
傋	-9.11814
▁仢付亜	-9.11873
et	-9.11946
▁估侒亥	-9.12088
▁亩兂	-9.12113
▁予傜	-9.12125
侪	-9.12165
▁59	-9.12205
O	-9.12286
但二	-9.12304
▁二亏争	-9.12322
▁U	-9.12446
俜倷	-9.12454
▁亃代	-9.12652
34	-9.1266
儑	-9.1271
▁24	-9.12728
僩	-9.12757
▁亓仦	-9.12759
仼亮亥	-9.1276
侍仞	-9.12795
佺	-9.12928
伸仅	-9.12959
▁互伙亳	-9.13001
保二仇	-9.13011
▁以儰	-9.13019
▁亂仓仌	-9.13265
▁冐仂僟	-9.13354
▁亽佫亚予	-9.13383
伍	-9.13406
▁亽仲亮亶	-9.13568
ter	-9.13579
俥	-9.1359
▁亯侙仼	-9.13671
▁俆亱事	-9.13703
▁会予倂仓俷佳	-9.13725
▁21	-9.13912
二偗亳	-9.13976
▁h	-9.14007
▁俢侻	-9.14122
ce	-9.14127
叢	-9.14205
予争	-9.14221
▁g	-9.1425
▁侔	-9.1426
勮仚亾	-9.14279
佌亳	-9.1432
伙仂	-9.14486
▁亲伭	-9.14519
伖	-9.14625
▁佋低侨	-9.14665
仦予	-9.14692
7	-9.14728
▁傛住	-9.14732
▁伍伎亥	-9.1497
刻	-9.14971
36	-9.15136
俉亡	-9.15148
伭亚	-9.15237
刲	-9.15372
8	-9.15391
▁亖俵佃亶	-9.15411
伹仅	-9.15452
▁仔但俣	-9.15503
un	-9.15604
▁伬仚	-9.15631
俢仌佝	-9.15653
▁俺仌	-9.16095
▁伻亰	-9.16145
▁仯亯亼亡	-9.16224
劇	-9.16358
令二	-9.16359
▁亚伣伪	-9.16417
亐亡	-9.16478
▁仛事亚	-9.16552
▁传來俷佳	-9.16694
=	-9.16804
俈	-9.16811
俉仅	-9.16826
侞傚	-9.16916
▁伋仂	-9.16952
x	-9.17012
▁伷争	-9.17063
ly	-9.17189
▁亻侌	-9.17281
冟	-9.17431
仸亃	-9.1744
▁偖债亥	-9.17464
仕	-9.17465
仍二亾	-9.17557
_	-9.17641
予仍	-9.17908
亃仠	-9.17912
▁享倘仪	-9.17915
▁仹侻	-9.18006
se	-9.18236
亜仍	-9.18242
80	-9.18255
000	-9.1831
▁仐令伟	-9.18348
凶	-9.18361
傍	-9.18436
偉亡	-9.18447
▁亐亚亚	-9.18653
w	-9.18823
▁偉	-9.18966
付仇	-9.18985
▁亵俌	-9.19006
▁兾	-9.19198
俷佳	-9.1931
▁G	-9.19364
▁位仅	-9.19379
▁凓	-9.19437
▁伸休伦傡伿佼仓	-9.19447
▁仼亣亜二	-9.19637
B	-9.19655
儱	-9.19666
▁仛亜	-9.19694
▁仛侕亡	-9.19779
▁仠	-9.20057
▁亓佋倽	-9.2008
▁亢仠	-9.20109
▁但儶	-9.20164
▁俉佈	-9.20256
呜	-9.20297
▁22	-9.20314
亵仇	-9.20333
56	-9.20336
享予	-9.20352
冷	-9.20373
個	-9.20399
▁倃伈	-9.2045
伸叟	-9.20464
伌伈	-9.20599
▁亩二仌	-9.20785
▁仒们仯	-9.20884
▁仌仅亓	-9.20986
亜保二	-9.21026
12	-9.21032
▁俌	-9.21033
▁刌	-9.21122
37	-9.21222
▁兟	-9.21307
▁L	-9.21326
▁仔侔事	-9.21334
44	-9.21372
▁倫余	-9.21395
倗	-9.21443
佁	-9.21459
75	-9.21513
▁2009	-9.21525
▁侰	-9.21531
伎代	-9.21646
ta	-9.21707
▁僽	-9.2179
41	-9.21823
儆亡	-9.2185
份	-9.21958
俉亳	-9.22086
65	-9.22132
▁儨偍	-9.22183
事亞	-9.22228
55	-9.22235
▁m	-9.22262
▁for	-9.22277
▁E	-9.2236
▁俭	-9.22421
▁2014	-9.22438
▁伕	-9.22439
仼亳	-9.22496
▁亖仄傫仇	-9.22652
▁亓亨	-9.22784
伤仓	-9.22807
▁价	-9.22895
偧	-9.2291
佳二	-9.22961
▁亃仠	-9.23011
▁仙仚亥	-9.23056
位仉	-9.23148
冯	-9.23148
71	-9.23193
▁倈	-9.23248
▁伍亚予	-9.23316
▁仈偗亳	-9.23426
43	-9.23453
儆	-9.2347
傉	-9.2352
仵伥	-9.23552
仌争亾	-9.23557
▁俊仂	-9.23588
▁佌偧	-9.23664
▁僁佤亰	-9.23711
▁亽侻	-9.23728
亢伥	-9.23754
亃兤	-9.23765
▁佋仦	-9.23862
▁僙	-9.23866
70	-9.23946
仌侟	-9.23994
养	-9.24011
▁侺	-9.24053
▁佌仌	-9.24122
享亚	-9.24247
▁啓	-9.24265
▁仌俶仄	-9.24383
R	-9.24438
倠佼	-9.24484
▁仐仲伎	-9.24496
▁侎亮他	-9.245
▁侎亮伌	-9.24514
▁re	-9.24573
▁侨凼	-9.24588
儖	-9.24761
▁亃侬	-9.2489
▁亍偰佈	-9.24897
▁亖佋	-9.24914
伹从	-9.24987
46	-9.25114
▁令二	-9.25136
▁亂佛	-9.25143
冢冣	-9.25226
▁俕	-9.25261
▁亽亞	-9.25283
▁亂争伪	-9.25427
▁僧	-9.25548
▁仙佚伙	-9.25563
▁仌俀	-9.2561
▁23	-9.25617
▁二亏亮亥	-9.25618
▁亓伊仹亥	-9.25626
侎	-9.25645
円	-9.2565
予仓	-9.25734
▁佌佻伦了	-9.25804
38	-9.2586
39	-9.25977
▁亩剜	-9.26078
▁仛亃	-9.2608
▁侞倷亶	-9.2609
▁亖仌亂债	-9.2613
▁俀亙仅	-9.26212
ent	-9.26215
▁伋仂亥	-9.26222
▁仢亃于交侕亡	-9.26273
▁傒冓	-9.2646
▁仛事仪亚什	-9.2667
▁亖云	-9.26873
佒	-9.26902
兊	-9.27014
86	-9.27032
85	-9.2726
22	-9.27435
僼	-9.27724
▁位冟	-9.27949
▁僫	-9.28011
▁R	-9.28111
▁2007	-9.28249
亣佳	-9.28366
▁倗	-9.28401
▁争亂仅	-9.28406
62	-9.2841
▁伬侨伸	-9.28524
俉允	-9.2855
亮伕	-9.28559
仌亞	-9.28616
▁亢仦亚	-9.28734
▁亊偩俴	-9.28943
佅	-9.28981
仍二	-9.28989
▁代俑	-9.29088
▁仈亜亚	-9.29153
▁侞亨	-9.29199
▁倎仂	-9.29294
▁凊予侻	-9.29302
▁亖产倲件	-9.29347
▁以从予	-9.29347
▁俆亱	-9.29348
30	-9.29407
仳仍	-9.29573
▁仛亊亡	-9.29648
▁伥仦	-9.29709
▁倎伭伹	-9.2984
伴	-9.29904
创	-9.29964
▁亃仦俵亥	-9.30045
▁似代仓	-9.30078
64	-9.30164
勼	-9.30174
仌争	-9.30178
▁俉冨	-9.30222
14	-9.30269
|	-9.30294
▁伓侹亜	-9.30381
▁介亏	-9.30435
▁仈亙伭	-9.30455
劄	-9.30499
▁2008	-9.30507
仅伟	-9.30615
侵	-9.30618
伎亜	-9.30625
▁产亡	-9.30762
▁令二仌仦	-9.30893
偟	-9.30913
伌仌	-9.30942
▁亽亡	-9.30946
▁l	-9.30963
仚亡	-9.30992
偅仇	-9.31031
72	-9.31037
▁二亳	-9.31088
ir	-9.31095
侙	-9.31107
傘	-9.31184
伸仓	-9.31237
▁仔仗侍	-9.31275
何	-9.31329
伭什	-9.3136
唖	-9.31459
▁t	-9.31539
刋	-9.31613
亣佋	-9.31656
▁亖偗亳	-9.31711
佑	-9.31855
ss	-9.3189
凚	-9.31961
49	-9.31996
21	-9.32126
▁儤仅	-9.32222
▁仈偖	-9.32319
剑	-9.32375
▁伨	-9.32465
亢代	-9.3274
67	-9.3275
▁偖俉仅	-9.32786
亂仭	-9.32794
L	-9.32802
▁俑仯佴	-9.32917
凓	-9.32981
仛事	-9.33008
二六	-9.33024
▁伋仂亚	-9.3303
▁仞俁仅	-9.33041
▁偱	-9.33045
77	-9.33162
伍伎	-9.33204
冎	-9.33329
▁偞	-9.33332
▁俸	-9.33366
偖仄	-9.33375
▁亷佥	-9.33407
▁2013	-9.33449
仧争	-9.3347
传佳	-9.33512
▁53	-9.33579
▁W	-9.33609
予企	-9.33686
▁予亱佭	-9.33737
▁亜偂	-9.33752
▁40	-9.33762
▁交	-9.33781
▁F	-9.33882
亐仓	-9.34033
亣事	-9.34074
▁似偝似代仂	-9.34092
24	-9.3412
▁亩傌	-9.34125
俒	-9.34152
9	-9.3416
▁俭修	-9.34169
28	-9.34454
兾	-9.34459
di	-9.34478
▁仔仹倃亥	-9.34552
▁仒产	-9.34577
▁仢亃于佄佚	-9.34578
▁亓佗	-9.34759
傪	-9.34802
▁僣	-9.34815
▁仢俬佋	-9.34891
▁伙亣事仳	-9.34921
15	-9.3497
▁仕倮	-9.35069
sh	-9.3508
▁儍	-9.35206
▁亖仫	-9.35271
争亓	-9.35295
僝佼	-9.35362
▁亚亨伥仳	-9.35427
▁亚亢亓	-9.35427
亣亚什	-9.35441
偬	-9.35444
▁仛俰仇	-9.35554
▁亖佋仓	-9.35603
偙	-9.35703
▁26	-9.35704
▁二伭	-9.35705
倳	-9.35741
伜來	-9.35886
▁介争亜偖债	-9.35922
位仠	-9.35922
as	-9.36028
仍仅亰	-9.36254
▁儤	-9.36255
90	-9.36261
▁伷产	-9.36318
▁侁俵	-9.36323
▁亍冲产	-9.36399
仸仹	-9.36454
▁亅	-9.36478
仛但	-9.36537
83	-9.36601
13	-9.36611
▁侏亡	-9.36638
▁仿亩仓	-9.36658
▁以伫	-9.36694
▁亚伣仳	-9.36707
侍佚	-9.36787
82	-9.36839
69	-9.36867
侯	-9.3687
▁亃亝	-9.36883
54	-9.36922
▁仔介伜	-9.36922
▁于	-9.3694
仭亶	-9.36967
▁亖俴俵予	-9.37052
61	-9.37163
23	-9.37197
传佳二	-9.37205
32	-9.3724
▁住	-9.37399
▁亝	-9.3742
▁倫亜	-9.37524
伙亚什	-9.37655
侨停	-9.37665
▁仐亢亦	-9.37691
▁亃偿佲	-9.3771
▁以从予仅亥	-9.37821
▁伇	-9.37832
▁傛亭	-9.37839
代争	-9.3803
似	-9.38049
17	-9.38062
▁亃偧产	-9.38143
▁伇些产予	-9.38187
▁亖二	-9.38261
84	-9.38278
▁亚仅	-9.38391
63	-9.38404
j	-9.38409
33	-9.38417
is	-9.38505
▁侣但	-9.38521
▁亚亢	-9.38597
坷	-9.38702
▁亮亶	-9.38741
▁仢仴仵亜	-9.3887
▁亖亢僰	-9.38926
全	-9.38963
▁以亭	-9.38979
▁亍仌冂亮亥	-9.39085
傁	-9.39157
佫仓	-9.3922
te	-9.39242
▁争佚二	-9.39335
亗	-9.3944
ver	-9.39469
僌	-9.39478
亜仅	-9.39512
侟	-9.39644
▁倲克	-9.39688
▁27	-9.39742
仌侤亰	-9.39779
74	-9.39791
78	-9.39868
儿	-9.3988
▁凁亂亾儠	-9.39932
仸伸	-9.40068
▁俑仯佴亥	-9.40119
侞伭	-9.40177
凰	-9.40213
▁侣仠	-9.40257
▁亾亩亡亳	-9.40327
▁倝	-9.40393
▁亐亚什	-9.40399
▁仔俶亜	-9.40443
▁伙亏	-9.40538
▁亩亡	-9.40546
16	-9.40556
▁伂	-9.4057
▁偀傱	-9.40588
剹	-9.40664
▁仈亜亳	-9.40733
倞	-9.40741
93	-9.40803
▁亽侂	-9.40812
▁傋	-9.40837
▁仆代	-9.40847
▁亚亨侮佚	-9.40856
侂予	-9.40862
刢	-9.40872
來俷亡	-9.40906
勆	-9.40911
▁d	-9.40986
俰	-9.4105
40	-9.41088
入	-9.41118
倒	-9.41133
兩	-9.41156
▁亓匉	-9.41277
偷	-9.41421
48	-9.41445
倘偉亡	-9.41513
▁佸亶	-9.41528
▁亣仒	-9.41681
倦仼	-9.41745
▁仐仌侍	-9.41882
▁佋伥	-9.41898
▁刅	-9.4205
亂从	-9.42058
66	-9.42078
佚位伭二	-9.42149
▁仌争仩	-9.42165
▁仏	-9.42183
▁亖亸	-9.42257
▁傸	-9.42538
▁仔仌	-9.42542
▁as	-9.42597
▁伍伎	-9.42712
▁亓伌	-9.42771
刜	-9.4286
▁侶	-9.42928
▁傶	-9.43007
▁亍仌冂亣仓	-9.4313
侣	-9.43249
▁僢	-9.4325
▁亾俅偶	-9.43266
▁佋佇任	-9.43266
刦	-9.43324
▁28	-9.4334
▁亽但伹	-9.43447
▁亃仇	-9.43496
▁仮仯仅亥	-9.43735
▁ma	-9.43752
倣	-9.4383
F	-9.43843
25	-9.43875
▁侁伸争	-9.43968
前	-9.43998
im	-9.44039
▁俲佪仔偖凈	-9.44083
▁亖佳二偂仂偞	-9.44117
仌倐俺	-9.44122
▁亃偝伪	-9.44181
81	-9.44193
▁仆俔仇	-9.44278
▁佋伥冄債	-9.44285
▁仐佤	-9.44329
亇予	-9.44539
▁似代侻	-9.44652
予侟	-9.44687
兹	-9.4469
▁俜仠仌	-9.44693
▁亶亚	-9.44737
今	-9.44749
侏俬	-9.44777
▁仛亊亳	-9.44909
▁勼	-9.45005
匴	-9.45084
俅	-9.45127
侻亾	-9.4518
▁偁代	-9.45249
▁仐佤伟	-9.45349
{	-9.45519
87	-9.45558
信事	-9.45576
▁with	-9.45578
V	-9.45599
体	-9.45601
▁以仚	-9.45626
亜伎	-9.45716
代仦	-9.45853
剼	-9.45876
▁仐仓仌	-9.45892
▁亶亱	-9.45908
亮亏	-9.45931
▁亖仌亓亮	-9.45996
▁倏	-9.46107
亃亮亶	-9.46125
▁2006	-9.46148
儏	-9.46175
偍	-9.46188
▁仛仦	-9.46199
▁亖佳	-9.4621
▁仌俰仇	-9.46355
▁仑关	-9.46357
47	-9.4637
76	-9.4638
▁傋代亡	-9.46415
▁俺仐亜	-9.46499
叱	-9.46614
▁佭伧仅	-9.46627
▁亷偗	-9.46678
兤	-9.46704
▁伍作	-9.46706
▁亜伹偿	-9.46716
▁介争亜偖俑	-9.4672
▁偙	-9.46813
H	-9.46845
68	-9.46923
▁2010	-9.46936
▁储	-9.46941
▁K	-9.46964
57	-9.47051
厳	-9.47056
▁仢亐伥争仳	-9.47072
▁亊单劊	-9.47096
介伕	-9.47331
45	-9.47539
▁亓佗事	-9.4755
亢亝	-9.47563
亳亯	-9.47588
▁亖仅	-9.47722
呬	-9.47763
▁伓仅	-9.47794
兟	-9.47838
傳倠	-9.47873
88	-9.47878
▁亩仦	-9.47966
▁仙代	-9.48035
▁k	-9.48099
伶仍	-9.48112
73	-9.48229
▁争佲仳	-9.48242
▁亯亡	-9.48273
偺	-9.48321
▁债予	-9.48356
▁係	-9.48402
▁伋争	-9.48423
▁仔予傳	-9.48482
傟	-9.48518
▁亩侍仇	-9.48536
79	-9.48623
▁佒僢企	-9.487
▁仢俷	-9.4872
伤仅	-9.4874
31	-9.48806
依	-9.48821
▁仞凷亡	-9.48883
▁偖俉仅亥	-9.48913
▁傒亜二	-9.48945
亃伭	-9.48972
儍	-9.49113
▁俏予侍	-9.49116
▁亲仠儢	-9.49156
▁亢仂亥	-9.49214
仿亩亚什	-9.49282
儾	-9.49294
傲	-9.49417
兖	-9.49458
▁亐伭	-9.49477
侌	-9.49559
▁仔偖债	-9.49593
▁亖亳亯	-9.49602
争伪	-9.49609
偂仂偞	-9.49713
剸	-9.49727
▁偯	-9.49773
el	-9.49788
lo	-9.49816
▁冐倏僟	-9.4983
▁二仌仅	-9.5009
仔亊	-9.50232
▁俪亜	-9.50277
▁亵仚仅	-9.50301
▁侎兟二	-9.50432
▁亖亜伭	-9.50473
伭伹	-9.50614
产亚	-9.50626
代仅	-9.507
0,000	-9.50754
▁佋件來	-9.50849
侜	-9.50981
▁予井	-9.50992
偖债	-9.5101
▁位低	-9.51077
勸	-9.51142
▁円	-9.51156
ct	-9.51261
剤	-9.51268
▁仔侏俑	-9.51559
60	-9.51569
佲仳	-9.51635
傾	-9.51649
仠侳	-9.5166
▁侚亱佈亶	-9.51762
▁仐佋俇	-9.51815
▁by	-9.51987
▁亵仠	-9.51998
▁介偿	-9.52029
傻侏佧	-9.52038
▁偭	-9.5205
僒	-9.52068
▁倡亚予	-9.52095
▁傾	-9.52108
亜亮	-9.52246
▁倲侬	-9.52432
▁亖伱仦予亭	-9.52471
俅仇	-9.52579
▁de	-9.52589
儯	-9.52625
▁冺	-9.52628
▁儡	-9.52664
▁令仦係	-9.52727
▁亖亜亳	-9.52809
伊代	-9.52844
▁信刾	-9.52858
▁二伧	-9.52892
厲	-9.52934
01	-9.53084
佊	-9.5311
▁仸仹亥	-9.53158
伸仂	-9.53175
▁休	-9.53195
26	-9.53223
um	-9.53285
▁亖做仇	-9.53431
亡仄	-9.53463
亊亡	-9.53477
▁2015	-9.53614
▁亣劊	-9.53646
凭亡	-9.53736
om	-9.53782
倡	-9.53853
▁亍個仓	-9.539
▁亶事	-9.53937
俷亳	-9.54236
▁侺产佀佃亶	-9.5426
▁儖	-9.54271
▁圫兆	-9.54315
仌仅但二	-9.54396
▁令亏	-9.54545
▁予傑仓	-9.54618
▁侨停仅	-9.54745
▁仞什冂	-9.54748
▁佋偩井仅	-9.5476
▁享仄	-9.54818
▁佺冿仌仦	-9.5493
僁	-9.54986
▁僬产	-9.55027
▁傹	-9.55037
▁佭仓侕亡	-9.55142
▁亣僆	-9.55167
29	-9.55187
▁亂争仳	-9.55218
凗	-9.55293
亏产	-9.55364
倰	-9.5538
仏	-9.55447
倐侻亥	-9.55463
em	-9.55471
▁党	-9.55499
▁亽仅事	-9.55541
俎	-9.5559
刌	-9.55656
▁侏亡俑二亏	-9.55665
▁俙仠仄	-9.55666
倓	-9.55741
儗	-9.5579
俢仌仪亚什	-9.55833
伨	-9.55855
▁佀伭于	-9.55951
亂仭亥	-9.56009
▁亚亨侮仧亡	-9.56048
侀	-9.56077
▁佯	-9.561
▁侏但	-9.56258
51	-9.56261
▁伙侻予	-9.56293
all	-9.56351
俰偉亡	-9.56359
▁儫	-9.56362
凉	-9.56435
▁佒体伭二	-9.5652
伟亶	-9.56522
倸	-9.56568
▁伸休伦傡伿佼	-9.56597
▁侢代	-9.56701
刡	-9.56767
亩亡	-9.56782
▁仅匛	-9.56845
刖	-9.56923
倲兙亡	-9.56932
▁仗剰	-9.56945
▁似亙僔付	-9.57078
伸佧	-9.57086
35	-9.57098
仺	-9.57167
二亏亞佼	-9.57195
偣	-9.57206
佄仇	-9.57273
ot	-9.57294
▁产亡亯伓佧	-9.57326
▁侮倇	-9.57482
08	-9.57564
亃倌亥亰	-9.57596
▁仔亂债	-9.57614
▁倲亡亯	-9.57631
▁亊偩兩	-9.57703
勇	-9.57748
▁仢亃于佄仞	-9.57797
▁亚冾佚	-9.57838
id	-9.57838
剻	-9.57927
▁仩伭二	-9.57998
▁伸仦	-9.58026
▁仐伭	-9.58039
刔	-9.58106
▁仐偖刭	-9.58107
▁亶亡	-9.58214
ti	-9.58297
▁亅來	-9.58409
▁v	-9.58498
▁伻佤二企	-9.58602
▁倡匑	-9.58707
儭	-9.5876
來俷佳	-9.58774
▁亓佗伟	-9.58848
27	-9.58949
佋亭	-9.58992
▁51	-9.59033
傛	-9.59038
▁亽仇	-9.59136
剢	-9.59186
▁仐伌兊	-9.59236
呺	-9.59259
ne	-9.59314
噃	-9.5933
▁介偒	-9.59338
▁侞令	-9.59375
代亞	-9.59385
啁	-9.594
▁52	-9.59434
▁亃伭	-9.59441
勡	-9.59487
▁仅佲	-9.59497
僘	-9.59623
▁仙仇	-9.59665
▁令侬	-9.59689
53	-9.5974
仕僾	-9.59772
価	-9.59829
▁仆仚	-9.59857
ow	-9.59857
▁伌侟	-9.59957
仠仍	-9.5998
▁仢亃于亏	-9.5999
▁佒亳	-9.60028
卲	-9.60126
傶	-9.60136
儘	-9.60149
▁亚于令予仌剜	-9.60149
▁con	-9.60405
▁仔仲伎亶	-9.60425
▁佒予	-9.60462
▁冠	-9.60501
▁2004	-9.60512
▁令冤仧亳	-9.60563
▁伸亜	-9.60621
▁勺偧	-9.60757
仧仅亚	-9.60807
剉	-9.6084
伎仚	-9.60843
▁倲低	-9.60846
俆	-9.60914
58	-9.6092
亡亳	-9.6098
▁佸二	-9.61
亴佋	-9.61168
▁仛事位俠仇	-9.6117
傼	-9.61188
▁价二	-9.61334
▁伓佶	-9.61353
▁产亡亃产	-9.61368
▁俉勦	-9.61377
▁俸佋	-9.61491
合	-9.61512
▁倎亜	-9.61558
▁亷侬	-9.61563
亩伎	-9.61575
▁侧仓仌	-9.61582
▁伸仅二	-9.61596
0%	-9.61707
▁29	-9.6174
▁仔信	-9.61765
▁亢仯仌争伪	-9.61884
ve	-9.61984
亢仠	-9.61993
僵佼	-9.62081
▁亍仌冂争仍	-9.62131
假	-9.62165
▁令亡亯	-9.62171
▁偿	-9.62208
剐	-9.62258
佪	-9.62264
偶佶	-9.62319
仩亡	-9.62327
俉仑	-9.62362
▁亖俷亳	-9.62377
事劽	-9.62396
▁凊予	-9.62396
ma	-9.62476
余伸佧	-9.62476
▁亖僥位亡	-9.62493
▁仢亃于佄	-9.62515
傭	-9.62582
▁亊亯	-9.62631
佋佉	-9.62646
▁亃亨仍	-9.63044
冮	-9.63091
▁亯亡仄	-9.63159
剜	-9.63184
偂仂	-9.632
凮	-9.63258
啀	-9.63271
▁亓伥令	-9.63285
▁僜	-9.63382
na	-9.63413
伆	-9.63508
▁亽亏冷	-9.63509
▁僑佗仓	-9.63579
事企	-9.63609
▁予偝	-9.63622
▁仛俯	-9.63639
and	-9.637
▁侧亰予	-9.63744
▁亍仔亐事	-9.63841
借亏	-9.63906
仅伻	-9.6392
▁V	-9.64006
59	-9.6403
▁亃仦伷产	-9.64101
▁俈佛	-9.64106
▁亶仦	-9.64141
▁亲伅	-9.64172
划	-9.64174
傸	-9.64187
▁仢亐伥争仳亾	-9.64227
偖仌	-9.64257
▁兕产	-9.64332
俙	-9.64505
伷	-9.64529
▁亍偶依	-9.64602
亣令	-9.64655
▁伒	-9.64665
▁亜二亾	-9.64674
仲二	-9.64679
ment	-9.64682
▁亃偎	-9.64718
▁亣俌	-9.64804
▁亚冾仞二	-9.64927
▁亾亩刊	-9.65013
▁仿佋仍亥	-9.65028
▁亽事二亾	-9.65037
▁冟	-9.65044
▁亚亣	-9.65086
▁停	-9.65201
優	-9.65224
劏	-9.65461
▁亽匐亂	-9.65568
▁亇凹亝	-9.65592
代二	-9.656
▁伸侻仓	-9.65658
▁仐介伕	-9.65662
ig	-9.65666
▁仙代仦	-9.65712
▁亓俴	-9.65719
▁亜众井	-9.6575
亓争	-9.65771
▁O	-9.6578
▁亽仠	-9.6584
▁勺	-9.65878
凅	-9.65885
▁伝仠	-9.65914
伍佳	-9.65955
▁俆伧	-9.66003
卧	-9.66054
▁佚凿	-9.66072
▁亐仦	-9.6609
▁亍代僤亶	-9.66127
▁儨	-9.6621
▁31	-9.66273
▁倫仚佃伅	-9.66297
▁仙仚亾	-9.66337
▁僜來	-9.66342
▁亮	-9.66375
07	-9.66422
hi	-9.66424
99	-9.66432
▁佈	-9.66448
her	-9.66557
亱伹	-9.66588
傞	-9.66611
▁以亙	-9.66768
兒	-9.66811
▁亣傇仅	-9.66838
仂伿	-9.66941
于亶	-9.66964
▁僓介伕	-9.67059
仌仅但	-9.67149
▁亢佌	-9.67159
偤	-9.67179
▁争儱	-9.67193
▁st	-9.67223
▁僔付	-9.67279
偖俉仅	-9.67381
冞	-9.67499
充亞	-9.67646
仯从	-9.67649
ci	-9.67713
▁佤	-9.67748
05	-9.6776
亃俠仇	-9.67765
兆	-9.67796
▁100	-9.67864
▁仔仕产	-9.68052
▁亽亓俒	-9.6807
▁争亊事二	-9.68093
▁仐令事	-9.68129
▁亂佛亴亵	-9.68251
▁仈偂仂偞	-9.68252
伏	-9.68257
▁亯偛	-9.68271
▁俉冨侏俬	-9.68304
▁今佈伶	-9.68318
▁伭伉位亡	-9.68367
▁亂位低	-9.68393
▁仔侏前	-9.68424
▁亃偝仳	-9.68452
ru	-9.68458
仧亱	-9.68487
▁但亼	-9.68499
▁亍冲亜	-9.68542
▁倲代	-9.68563
儲	-9.68598
▁on	-9.68627
伓僺	-9.68643
仌亮亥	-9.68745
▁侁亍	-9.68753
▁亖亜亚什	-9.68778
▁亯伭	-9.68823
亂亡仓	-9.68879
▁介佤亥	-9.68973
▁2005	-9.68978
03	-9.69005
▁亷刋亳	-9.69092
06	-9.69122
▁仁几	-9.69132
▁传亱	-9.6916
争伤	-9.69326
▁亲偉亡	-9.69347
啖	-9.69402
▁偖亢仅伟	-9.69418
ac	-9.6942
产什	-9.69652
兓	-9.69847
僎	-9.69871
亯仓	-9.6994
位仠仯佳	-9.69945
▁伇冲产予	-9.69973
云	-9.69973
▁伍佳亥	-9.70066
▁代佢伤	-9.701
▁that	-9.70101
▁凊侻伻	-9.70121
冶	-9.70125
▁亖仄	-9.70216
▁亽佗争	-9.70225
98	-9.7024
勉	-9.70252
刘	-9.70277
冱	-9.70292
ut	-9.70342
ap	-9.7037
▁亖亰佋产	-9.70434
仠亞	-9.70459
匋	-9.70506
剀	-9.70534
伙亡	-9.70685
02	-9.70695
09	-9.70816
▁侺仌	-9.70831
▁仈偂仂	-9.70851
▁僧亸	-9.70871
伜亜保二	-9.70895
劷	-9.70982
▁亚傯做	-9.71011
▁勨	-9.71019
▁仹亳亏	-9.71021
▁偆勴位亡	-9.71067
儨	-9.711
▁亊佋	-9.712
▁亷候	-9.71251
▁仢傠亵	-9.71272
▁亚亨偩	-9.71274
▁仐令伹	-9.71325
仌佝	-9.71411
偁倠	-9.71423
▁予二	-9.71431
▁仔但偧	-9.71477
亃亳伖仇	-9.71511
▁俲俳	-9.7161
▁伸什伍亭	-9.71632
ka	-9.71681
▁傂倠	-9.71749
亂事	-9.71773
95	-9.71783
▁儥	-9.71802
▁伜侻	-9.71844
争伤仓	-9.71851
▁伎仇	-9.71874
亵仠	-9.71919
俏	-9.7206
▁佋傠	-9.72069
侍仧亡	-9.72153
▁侏代	-9.72153
▁二伜位亡	-9.72173
vi	-9.7226
享代亚	-9.72272
▁亖亙伭	-9.7228
偮	-9.72297
亳們	-9.7239
▁伉	-9.7242
▁仕	-9.72538
仛亢亡	-9.72552
凁	-9.72631
儵	-9.72668
ion	-9.72676
▁亣但二	-9.72755
剨仂	-9.72828
▁俈仞	-9.72841
俶俷	-9.72855
▁com	-9.72858
侍仛	-9.72881
▁|	-9.72935
▁35	-9.73155
▁二仓亯亡	-9.73161
▁佚亴仌倷	-9.73163
傱	-9.73224
▁亓亩僜	-9.73278
佄仞	-9.73278
▁仢付仇	-9.73368
96	-9.73419
來亳	-9.73454
亐从	-9.73518
伫仓	-9.73543
91	-9.7357
ca	-9.73616
▁亓佋伟	-9.73825
▁偄亱	-9.73904
▁亖佳伙	-9.73905
功	-9.73921
}	-9.73937
二偂仂偞	-9.73987
冿	-9.73996
俉勦	-9.74066
佚二	-9.74067
-1	-9.74072
▁2016	-9.74143
则	-9.74155
伤从	-9.74158
▁佚偝	-9.74173
做仇	-9.74196
▁仼俖佃	-9.74212
▁仙偰	-9.7425
▁仢俷亳	-9.74291
▁仹伭	-9.74303
▁伒仚	-9.74359
▁伃代亣伓僺	-9.74475
伹伶	-9.74483
元	-9.74502
予争保二	-9.74618
▁仹佚	-9.74664
▁an	-9.74671
仁	-9.74676
仌伧	-9.74696
▁亮亏	-9.7481
▁倫佭予	-9.74848
儕	-9.74915
ist	-9.75014
婨	-9.75033
pe	-9.75225
92	-9.7525
▁60	-9.75334
▁倇从	-9.75426
▁亢佌仄	-9.75432
▁伢	-9.75453
▁亷儿二	-9.75497
▁伻仅	-9.75527
▁亖伎亜仼亮	-9.75543
▁仔令仅亾	-9.75555
俢侻	-9.75564
作仞	-9.75622
▁仧仅	-9.75662
▁仔伤偢予	-9.75673
亐亡仓	-9.75766
吁	-9.75768
▁俆仓亯亥	-9.75783
▁亽佗亮	-9.75794
▁俢刽	-9.75837
da	-9.76026
伙优	-9.76038
仮	-9.76062
▁伙佋	-9.7607
▁亷偂仌侤	-9.76071
厔	-9.76103
04	-9.76108
予仐	-9.76128
▁侏亓仐	-9.76187
▁亜争仗亶	-9.76238
▁仮仯仓	-9.76264
▁函产予	-9.76264
仵亦	-9.76289
▁二俜伙	-9.76294
偖仄亳	-9.76321
▁俢亡	-9.76331
偊	-9.76342
吴	-9.76399
▁亚冾仧亡	-9.76403
▁侏仅	-9.76405
▁俈南	-9.76406
▁佋佈	-9.76462
▁二仌	-9.76515
▁匣	-9.76529
傴	-9.76588
▁佨亢	-9.7659
▁予傜俉仅佼仓	-9.76617
厹	-9.76679
▁仐佤伹仅	-9.76716
ga	-9.76808
▁仐令事二亏亮	-9.76835
仦事亭	-9.7687
ab	-9.76908
▁呕	-9.76979
▁仐亳代住二	-9.77103
▁亓伊	-9.77126
▁亃任仼	-9.77148
▁位事侻	-9.77184
▁亓匉仓	-9.77186
▁亃兙	-9.77208
▁亍价侻二	-9.77213
▁侎亮他仧亡	-9.77217
事侐	-9.77295
▁予傜亂亡	-9.77306
▁伸什侕亭	-9.7743
冂伜	-9.77448
▁2000	-9.77478
俭	-9.77542
89	-9.77547
亢仅亚	-9.77555
▁亍佌儱	-9.77594
▁产亡亯	-9.77616
▁仦亂僰	-9.77621
▁侢仇	-9.77622
▁争俪仞二	-9.77624
仅减	-9.7768
制	-9.7773
▁俑偿亮	-9.77732
▁仞俹亥	-9.77733
仍仅亥	-9.77762
冢仠	-9.77767
传伹亡	-9.77769
剃	-9.7784
▁仅亥	-9.77852
▁亏伭	-9.77868
op	-9.78008
▁令利	-9.78044
▁仸仆	-9.78056
偉亳	-9.78087
兡仇	-9.78112
佌仓	-9.78123
▁it	-9.78164
97	-9.78179
俑俒	-9.78186
+	-9.78196
儺	-9.78196
▁亖亰亓侍仞	-9.78197
▁伜仂仐	-9.78232
▁仢伸	-9.78251
du	-9.7829
age	-9.78304
der	-9.78359
▁僳	-9.78464
亓亭	-9.78525
▁予仅但	-9.78529
▁倨倇	-9.78573
▁凊	-9.78609
佃伅	-9.78628
倲低	-9.7863
勷	-9.78664
亃兤亥	-9.78672
▁亚伟伶仳	-9.7883
亃争保二	-9.78839
凂	-9.78909
▁亃亣	-9.78933
▁介仐俶俷亡	-9.7894
亶傒	-9.78991
佯仞	-9.79016
冫	-9.79023
▁亂仌佝	-9.79036
▁亜偏仌亶	-9.7906
仌仅二	-9.79103
▁伸借	-9.79212
亃仉	-9.79239
▁争冚	-9.79259
倽	-9.79345
▁侏事	-9.79353
▁二亏亞	-9.79451
▁伝仪	-9.7947
▁二凴仠	-9.79496
剶	-9.79551
冄	-9.79576
▁偼亭	-9.79667
仭伅	-9.79745
▁亻亳亾	-9.79775
介佤	-9.79875
▁倈仚亶	-9.7989
one	-9.7992
仛但二	-9.79939
俗	-9.79992
▁仛争	-9.80057
剮	-9.80082
候企	-9.80096
卩	-9.8011
94	-9.80125
▁伻侜	-9.80178
▁俺仐佈	-9.80237
叧	-9.80278
▁亻二亊佄	-9.80297
▁仈予	-9.80304
俔仞	-9.80398
▁亽仲争亃伭	-9.8048
县	-9.80502
偱	-9.80549
▁伌剢仓	-9.8057
▁仐亚于亏亐亡	-9.80615
仌俀	-9.80628
亊佳	-9.80701
兰	-9.80713
▁予亚佭俰仇	-9.80784
▁亷俾	-9.80831
ted	-9.80939
▁仮亜	-9.81059
▁J	-9.81074
匑	-9.81076
▁仄付仐	-9.81087
▁令儊亼	-9.81095
仪从	-9.81111
▁亣傐亥	-9.81182
▁亖伎亜亮	-9.81223
▁亃仦佚伟	-9.81237
▁侨停仓	-9.81269
▁伒俔仇	-9.81293
亊亳	-9.81326
倦二	-9.81347
刷	-9.81349
▁佋伎	-9.81379
▁予勵侻予	-9.81406
▁传休任	-9.81435
▁僊	-9.81436
倅	-9.81491
仼亣	-9.81604
佂佼	-9.81609
res	-9.81645
匵	-9.81671
▁佌偣亥	-9.81676
▁亴佋	-9.81742
▁侏伭	-9.81758
▁倿	-9.81794
X	-9.81804
僙	-9.81883
勨	-9.81926
二仼亳	-9.8193
▁倇亚亥	-9.81956
▁佁佋	-9.81994
▁伥偏	-9.82057
俢亍	-9.82063
佼亶	-9.82077
▁倐俺	-9.82161
僃	-9.82171
▁亓亏佧	-9.82235
伹亚什	-9.82286
▁仔予侻二	-9.82289
▁仌傯	-9.82396
▁伙亳	-9.82435
偉佳	-9.82585
佰	-9.8261
▁侁亊仓	-9.82611
劈	-9.82633
▁代俇予俍	-9.82667
亅二	-9.82718
佟	-9.82748
亐伎	-9.82828
冦	-9.82832
▁仔仧亮	-9.82863
▁was	-9.82863
▁亖侹事伎	-9.82892
▁仌仇亱	-9.82963
▁亜争亏产	-9.83008
▁似亙	-9.83081
▁令伸亭	-9.83096
▁佋佫	-9.8313
▁pro	-9.83172
令亞	-9.83182
▁亖亓仓	-9.83199
▁亜亡亢产	-9.83325
俊了	-9.8337
▁亚啖	-9.83401
▁are	-9.83429
▁仅佲仅	-9.83494
▁亽亥佚二	-9.83503
de	-9.83586
刔净仃	-9.83586
▁亚亨	-9.83586
▁介伕亥	-9.83599
▁from	-9.83614
▁偶亶亡	-9.83624
呝	-9.83643
▁伌俒	-9.83692
凹	-9.83701
僩円	-9.83782
佗亣	-9.83968
ine	-9.84007
侊	-9.8405
传伹亳	-9.84138
偖俑	-9.84144
ant	-9.84248
▁亦	-9.84306
▁仮仯仰	-9.84342
伸亳亥	-9.84351
▁亲仠仌侤	-9.84354
▁亜內	-9.84374
▁以凪	-9.84401
▁倲偝	-9.84485
仓俷佳	-9.84578
來俷	-9.84583
倘偔	-9.84607
倈	-9.84643
凿	-9.84759
剋	-9.84786
ho	-9.8479
▁仞俁仓	-9.84813
亢仦什	-9.84961
W	-9.84967
▁伌剢仅	-9.84996
側佼	-9.85013
▁亃亨亜	-9.85054
冝	-9.85088
▁吁亚事亭	-9.85222
佦	-9.85251
佐	-9.8534
▁似代仅亯	-9.85429
▁仐偊	-9.85432
▁佚兂	-9.85548
亴亵	-9.8567
▁亊傿	-9.85682
占	-9.85695
▁仛产	-9.85727
▁傛	-9.85736
ge	-9.85765
wa	-9.85823
▁亩倳	-9.85883
侍俪仇	-9.85977
▁冓厁	-9.85991
▁僎像仅	-9.86151
▁仐切	-9.86158
ni	-9.86196
▁予优仓	-9.86271
▁亂佛亴亩仅	-9.8629
做仞	-9.86307
▁mo	-9.86336
侻偿	-9.86348
仯亚什	-9.86377
凋	-9.86467
▁亂什伙仠	-9.86706
侍仗	-9.86783
▁亮伕亥	-9.86961
ate	-9.86994
▁ex	-9.87018
▁仙俉仅	-9.87088
伖代亚	-9.87091
ive	-9.87103
▁倡佷	-9.87243
▁仌事傼	-9.87277
▁侧亱	-9.87306
卥	-9.87306
▁亓仍傢	-9.87359
俉冨	-9.87415
▁侺仌伥侍	-9.87434
亃儴	-9.87438
▁俆争	-9.87478
up	-9.8749
▁勿	-9.87521
▁仙倨	-9.87532
▁俉儤事	-9.87577
佼亥亚	-9.87604
吪	-9.87608
▁亃兀	-9.87629
匃	-9.87638
▁亖亗亭	-9.8764
▁佚仦伶亥	-9.87737
▁俙争	-9.87754
侽	-9.87759
▁亃代仐	-9.87786
伫从	-9.8779
▁仆亐亡	-9.8785
▁仒偿	-9.87934
▁at	-9.87939
倚二	-9.88196
互	-9.88213
U	-9.88213
▁1990	-9.88216
▁32	-9.8825
▁伙事予俍	-9.88304
保二仐	-9.88375
▁俙伭	-9.88401
▁佶争	-9.88403
ia	-9.88458
傟亠	-9.88574
▁仞仌争	-9.88668
▁介争侑	-9.88677
▁仛佌	-9.88737
▁佨佲	-9.8874
▁侴	-9.88819
伸叟亥	-9.88935
倛	-9.88975
▁仈唸	-9.88981
予亞	-9.89007
匂	-9.89097
man	-9.8912
吏	-9.89189
▁以佳亞	-9.89205
ity	-9.89214
▁仅他俪仇	-9.8922
哳	-9.89251
▁仢亃于佄仛	-9.89267
亢亯	-9.89269
▁佋偩井	-9.89296
qu	-9.89326
▁以企	-9.89327
▁佚仇仐二	-9.89342
▁刄	-9.89349
仌产	-9.89351
▁令冤仧亡	-9.89373
▁亲仪亱	-9.89374
▁亖仌亓争	-9.8938
億	-9.89435
厕	-9.89435
▁亼仄	-9.89444
▁俆亱事侴	-9.89587
▁亃仦亩伪	-9.89589
亢佳	-9.89589
▁令事	-9.89633
▁侧偨	-9.89671
▁r	-9.89724
传伖仇	-9.89793
▁令亡仼	-9.89804
▁亽亴促	-9.89812
▁便	-9.89927
▁se	-9.89967
▁仐俗俘仅	-9.89969
▁亖仄伖仇	-9.90009
▁佋亚倮	-9.90151
儼从	-9.90156
▁e	-9.90178
侍仞二	-9.90213
est	-9.90229
啁二	-9.90232
▁me	-9.90265
▁仙俔仧	-9.90293
介亶从	-9.90296
介伜	-9.90405
▁亃偝	-9.90558
亏仠	-9.90565
▁仛事位伭二	-9.90567
▁亲仠亶	-9.90567
亂亚什	-9.90603
52	-9.90622
佞	-9.90672
亃亚佤冰	-9.90672
▁仢代	-9.90679
刺	-9.90859
▁亖仌亓争保二	-9.9086
剖	-9.9089
倎	-9.90924
▁亓冘任	-9.90953
ke	-9.90974
伬	-9.90989
凵	-9.91046
侑佼	-9.91052
▁亽仅伟亥	-9.91092
▁仑侜	-9.91101
哵	-9.91109
▁俑偿争	-9.9115
倩	-9.91179
凧	-9.91202
亃伭二	-9.91217
偖俉亚什	-9.91276
▁仛任俢	-9.91294
修	-9.91412
▁亊俥佚	-9.91413
于伕	-9.91428
ec	-9.91456
予争伪	-9.91463
▁佭伧仓	-9.91511
▁估侒亥亚	-9.91526
▁亖伎亜	-9.91585
刉	-9.91607
傒亡	-9.91632
▁予众倏	-9.91705
▁俛但二	-9.91861
▁予儊	-9.91897
▁俢仦予	-9.91902
▁仛俶付	-9.91946
▁俑亜	-9.91968
▁伓亚亓	-9.91969
儅	-9.91975
▁仌剜	-9.91982
G	-9.91985
▁亖俵亂亮	-9.92067
si	-9.92079
僧	-9.92082
侹刣	-9.92094
众偟	-9.92108
兝仇	-9.92108
▁亽仲争	-9.92117
▁he	-9.92219
▁亽吊亱伹	-9.9224
▁偱侦	-9.92246
▁伕亶	-9.92296
sa	-9.92607
传兵	-9.92803
▁仍仑	-9.92859
▁仙仯	-9.9287
▁倇勎	-9.92876
亂亡亳	-9.92891
▁伕亏	-9.92957
傅	-9.93038
俫	-9.93052
卅	-9.93057
ea	-9.93083
位俫亳	-9.93162
办	-9.93192
▁亏佈亥	-9.93237
佗仓	-9.9325
▁亖偡	-9.93259
刣	-9.93321
▁亷儿	-9.93358
▁亊俥俪仇	-9.93385
▁亾仅	-9.93415
倘伅	-9.93479
▁二亏亣仅	-9.93483
▁亃仐伶	-9.93516
凢	-9.93545
▁傋亜亵仇	-9.93545
▁亚伣亜	-9.93612
俢仌侤	-9.93661
▁仔傤佃亶	-9.93705
僑	-9.93799
吅	-9.93801
▁仌亮亏企	-9.93836
▁侣佭	-9.93866
z	-9.93869
亃代	-9.93886
▁伋仓	-9.93963
▁2017	-9.93976
佋佳二	-9.93976
▁倾	-9.93978
啵	-9.93994
▁以凚	-9.94055
▁争伥	-9.94071
▁仼争劇亣	-9.94091
▁佒众	-9.94117
仠仯亡	-9.94138
▁佚仅二	-9.94164
▁亖付仇	-9.94178
▁亓亩二	-9.9419
▁代俇亾亳	-9.94281
初	-9.94284
咉	-9.94284
▁争佚二仓	-9.94384
▁亣仄	-9.94399
仧仦	-9.94492
▁仇亯仌	-9.94515
▁儤仓	-9.94537
▁亃亚仛俉亳	-9.94581
傥	-9.94607
▁佭伧	-9.94629
▁亃亨仯	-9.94656
▁偙争仍亥	-9.94666
▁侞凲	-9.94693
▁侎倬冈	-9.94704
lu	-9.94742
▁佁代亡	-9.94746
▁亣亩	-9.94803
▁予仓仼	-9.94824
▁伊侻偘	-9.94867
tion	-9.95001
劘	-9.95029
▁亢伭	-9.9516
▁仆亐亳	-9.95257
偽	-9.95387
▁佃俞侻亞	-9.95411
▁侺产佀予	-9.95467
▁仐俖侍	-9.95543
▁介佯佚	-9.95564
亐亚什	-9.95619
▁仍倩亵俌	-9.95714
佮	-9.95714
價	-9.95718
ers	-9.95754
▁亖俵亂争	-9.95795
▁佒体俠仇	-9.95824
▁&	-9.95867
▁仐亢伥	-9.95906
佗争	-9.95935
匍	-9.95942
▁僎优	-9.95944
▁仼争劇亮	-9.96009
▁仙俔佚	-9.96093
▁剻凰	-9.96108
▁二亏傚	-9.96108
▁仔事偐	-9.9614
▁仐佤伟亥	-9.96165
▁亂仅亼	-9.9618
▁亷争亾	-9.96189
▁亲仉仐	-9.96215
▁亃侗	-9.96225
亵亜	-9.9627
▁亼仂亚	-9.96331
倮伹	-9.96396
▁佚亚传	-9.96403
▁亖佋亣仌产	-9.96437
ak	-9.9649
▁仮仯从	-9.96602
僠	-9.9666
▁which	-9.96734
仦交	-9.96813
▁仈俊仂	-9.96866
▁卅	-9.96899
匪	-9.96932
亐亡仅	-9.96942
亓伊亃	-9.96955
▁仙仚仌仅二	-9.96982
侏事	-9.96998
▁亷冗	-9.97042
亃争佚	-9.97083
▁亽伱亰	-9.97116
倉	-9.97131
倱	-9.97131
予侍佚	-9.97189
侮仞	-9.97222
nd	-9.97326
儡	-9.97358
▁1980	-9.97446
▁2012	-9.97521
▁二佧亳	-9.97535
俣	-9.97546
▁倲仦交	-9.97573
厖	-9.97597
▁佒仦伹	-9.97616
伯	-9.97764
▁亍偶佶	-9.97767
▁亲代亚	-9.97794
冣	-9.97884
倐亡	-9.97921
叟	-9.97947
倘俅仇	-9.98104
傃	-9.98126
▁仈倚二	-9.98153
倊	-9.98266
侍仧亳	-9.9827
亐任	-9.983
僾	-9.98337
▁仈亜亰	-9.98388
儢余	-9.98423
▁亖仃	-9.98439
▁二佧	-9.98465
▁亊争	-9.98507
▁俑仯	-9.9852
▁二仂	-9.98531
勑	-9.98535
▁似代仅	-9.98548
▁亖侹刣亳	-9.9857
▁亖刲	-9.98633
佲亭	-9.98685
▁仼低二	-9.98715
▁亽侅	-9.98724
▁亃亚仛俉亡	-9.9876
▁亍伸代	-9.98914
▁亃亐云	-9.98959
亻付	-9.98998
▁亜偗	-9.99031
▁伇儸予	-9.99075
▁仛产亥	-9.99118
俉亓	-9.9914
▁仆仇	-9.99158
▁佨刼	-9.99216
▁佶伣	-9.99249
來仅亰	-9.9926
吩	-9.99278
▁众亱事侪	-9.99448
▁剥修	-9.99448
▁偙争	-9.9946
▁倐傿	-9.99492
呮	-9.99552
▁仒亭	-9.99685
▁仮信事	-9.9972
仕亜	-9.99744
bo	-9.99745
▁争亂仓	-9.99773
▁信任俢	-9.99794
ish	-9.99859
▁亻二	-9.9986
▁以仚亡	-9.99924
▁僁儑	-9.99925
▁亚侏仇予	-9.99959
冧	-9.99983
倵	-10.0006
卡	-10.0013
凷	-10.002
僺佼	-10.004
▁倎匦冎	-10.004
▁予仠亃	-10.0042
▁俿仦	-10.0045
▁佋二任	-10.0058
兺	-10.0064
傫仇	-10.0067
▁亂事	-10.0067
▁代俇亾	-10.0068
▁45	-10.0068
▁仞仌争亾	-10.0071
▁亖冦俦	-10.0075
喋	-10.0075
▁予像	-10.0075
刏	-10.0078
▁产亡佋仅	-10.008
享仑	-10.0082
▁侔俄亠	-10.0089
▁偖俉	-10.0096
▁位亡仄	-10.0097
▁以仌仦	-10.0097
▁以仚值	-10.0099
▁倨仪	-10.0101
▁仅南	-10.0104
▁仔亙	-10.011
▁仔伢儼	-10.0111
叁	-10.0113
喲	-10.0116
呎	-10.0123
ight	-10.0123
伉	-10.0132
▁兽倥	-10.0137
▁In	-10.0147
▁仐儲佤	-10.0161
▁仦亃偾伿	-10.0163
▁伜俑	-10.0166
▁仍伈	-10.0169
位亞	-10.0171
▁些任	-10.0173
剺	-10.0175
▁代俑亥	-10.0178
刹	-10.0185
▁亍偶俵亜	-10.0187
勘	-10.0196
▁亽伱亾	-10.0198
位俫亡	-10.02
▁亯侙仞	-10.02
伡	-10.021
▁佋亏	-10.0213
伢	-10.0214
匌	-10.0224
▁予亚作仛	-10.0224
▁佚倳	-10.0237
▁亐从	-10.0237
▁僙仓	-10.0239
▁余侻	-10.024
▁仸仆俔佚	-10.0242
▁僎像	-10.0245
▁仈倚	-10.0251
▁亃争佋	-10.0252
仙	-10.0254
▁介仌二	-10.0257
仕产	-10.0261
▁亜交二	-10.0262
▁侧兯	-10.0265
侎优众予	-10.0275
▁仁	-10.0278
▁亖仠仐	-10.0282
▁亂佛亴亩仓	-10.0301
me	-10.0306
傌	-10.0307
▁僻仯	-10.0308
he	-10.0311
▁僓亏兪	-10.0315
伙卋	-10.0317
▁伇仔亐事	-10.0319
▁亩众伭	-10.0319
▁俛事	-10.0331
▁亓仅佗	-10.0335
▁亊俥仞二	-10.0337
▁俓仗	-10.0337
台	-10.035
▁亃兤	-10.0357
▁偖俉仓	-10.0368
卂	-10.037
兲	-10.0375
▁吁亚	-10.0379
卺	-10.0393
博	-10.0419
嗼	-10.0429
僦	-10.0432
咴	-10.0439
▁佋低	-10.0447
▁亃仅予	-10.0454
▁$	-10.0455
▁仈儗	-10.0457
位亳來付	-10.0461
佋仄伖仇	-10.0464
凊	-10.0468
俥佚	-10.0468
▁佋僪	-10.0476
▁亩傌仓	-10.0476
▁侎仲亪亜	-10.0479
伜佈亶	-10.0485
亂亡仅	-10.0487
俰代亚	-10.0491
▁伸亱	-10.0492
▁偞仅予	-10.0497
仔亐	-10.0501
ction	-10.0514
▁仙仚些	-10.0515
儹	-10.0525
咍	-10.0525
亘	-10.0549
▁俢厾	-10.0549
倃刢	-10.0551
▁亚剋	-10.0561
out	-10.0561
▁众亱事亭	-10.0569
▁令仦亶佳	-10.0572
▁佚伧	-10.0578
▁傞亾	-10.0579
儔	-10.0583
▁仌事任	-10.0585
其	-10.0587
▁仹仧事信	-10.0594
▁亊伱亜	-10.0594
▁俢偎	-10.0598
▁2003	-10.06
▁俺仐	-10.0602
▁33	-10.0604
▁儜	-10.0607
▁儛	-10.061
▁伏	-10.061
▁仌亡亓	-10.0617
仔产	-10.062
▁佁仐事亠	-10.0623
▁俎俣	-10.0628
仗侻	-10.0633
亻伻	-10.0639
凄	-10.0641
▁仌傭佳	-10.0645
▁侺俒亏亜	-10.0645
▁偕仌仓	-10.065
▁令争亏	-10.0657
▁亖勝	-10.0659
▁令二争企	-10.0665
▁亩俺	-10.0692
亴亩	-10.0696
▁佋二亾	-10.0696
値	-10.0698
▁代俇予俍亥	-10.0703
▁仔仌儱	-10.0705
▁倎伭事亭	-10.0711
▁俉亓二	-10.0715
兕	-10.072
*	-10.0725
▁仿伊仳	-10.0725
▁仭仠亭	-10.0725
per	-10.0726
▁仔产伸俔	-10.0729
亾俷	-10.0731
偯	-10.0735
亃俫亡	-10.0741
▁値倥	-10.0744
勵	-10.0755
▁亓亩仧亮	-10.0756
▁偋偩來	-10.0766
僚	-10.0766
偱侻	-10.0773
▁仅俚	-10.0779
冴	-10.0781
▁||	-10.0783
刕	-10.0792
▁亖俵亂仦予	-10.0796
▁信但	-10.0797
▁僎其	-10.0799
倲倒仇	-10.0799
伝	-10.08
▁傕	-10.0807
▁俜亓	-10.0809
传仌佝	-10.081
▁信争	-10.0813
佗从	-10.0815
▁this	-10.0822
变	-10.0829
▁先	-10.0836
▁伋仦什	-10.0838
▁凓亳亰	-10.0844
冨	-10.0848
俉博	-10.085
▁1970	-10.0851
▁仏佈	-10.0853
▁仛佌侻	-10.0854
▁伻仂	-10.0856
▁信任亾亚	-10.0867
▁仌争侵	-10.0877
▁仢僾	-10.089
▁介亶仓	-10.0891
▁以倭	-10.0892
僸	-10.0892
佅仞	-10.0895
▁亻二亊亯	-10.0899
ous	-10.09
凼	-10.0905
▁俤仠	-10.0907
▁位冟佋产	-10.0907
仼亡冎	-10.0911
▁儍仓仗	-10.0913
▁傸仜	-10.0919
ies	-10.092
勞	-10.0922
▁侎亮傍亥	-10.0931
▁冄	-10.0934
▁凍剀	-10.0936
代俑	-10.0937
仵佗仅	-10.094
▁亃仦伸仅二	-10.0941
▁咪	-10.0945
名	-10.0948
▁俙低	-10.0953
ence	-10.0957
優二	-10.0963
勜	-10.0963
冡	-10.0967
▁亃亰仓	-10.0981
▁伙侻佃	-10.0983
▁伸仦占众予	-10.099
▁sp	-10.099
▁仐侭冰	-10.0992
▁介仌	-10.0992
▁仔偖俉仅	-10.0996
▁伸仅二亥	-10.0998
mu	-10.1007
▁亖亳亯仅	-10.1008
▁佋争伪	-10.1013
刃	-10.1016
▁佃仇	-10.1017
▁亜众井伙亳	-10.1018
俢亢亱	-10.1024
典	-10.1039
ya	-10.1046
儀	-10.105
▁亲仠佝	-10.1052
▁以佧伜仂	-10.1053
倖	-10.1054
咲	-10.1058
▁仼冮	-10.1064
▁侁亊仅	-10.1076
劌	-10.1077
||	-10.108
凱	-10.108
our	-10.1081
▁仐伭仞	-10.1083
ill	-10.1093
喳	-10.1096
▁佭仅仌	-10.1099
▁倗佧	-10.1102
mp	-10.1103
劎	-10.1103
▁亃佛	-10.1106
剘	-10.1115
▁俄二仪	-10.1115
▁伙事亾亳	-10.1117
▁予付仠	-10.112
▁呮企	-10.1122
侔事	-10.1123
仦侕亡	-10.1124
予优	-10.1126
▁亖休	-10.1127
▁仒來仅	-10.1138
剝	-10.1142
▁亃亿	-10.1146
▁亖伱仦亂亥	-10.1149
▁仈傭亡	-10.1152
▁亢亳予亥	-10.116
▁亍亃代	-10.1165
傭亡	-10.1165
伤亚什	-10.117
K	-10.1174
▁亵仚	-10.1175
倲兙亳	-10.1181
▁亍刜争仳	-10.1188
▁亽匋傲亥	-10.1188
▁仐俗俘仓	-10.1192
▁亍价	-10.1192
仐依亶	-10.1195
叺	-10.1195
▁仢付六	-10.1209
▁厬	-10.1211
佚偘	-10.1217
▁众争亃	-10.1227
▁亖倭	-10.1229
▁亚仼仃	-10.123
▁佶侍仞	-10.1232
▁但倏	-10.1233
▁冐	-10.1235
代交二	-10.1236
▁亃仦俵亥什	-10.1245
偖俉仓	-10.1247
仧亣	-10.1248
▁亓亅二	-10.1248
唉	-10.1249
▁仢付偂仂偞	-10.1256
勍	-10.1257
▁仌傭亡	-10.1258
以侐佼	-10.1258
▁侏仇予	-10.1267
▁亚亨侮仞二	-10.1271
列	-10.1276
▁亂佛代匰	-10.1281
▁伋伭于	-10.1292
圀	-10.1296
-2	-10.1297
▁凁仭予	-10.13
▁兕	-10.1303
▁二傳仞二	-10.1308
▁侺产佀	-10.1308
佤仳	-10.1315
▁俺仐佈亥	-10.1317
▁俺仌二	-10.1319
▁僜來仄仅	-10.1323
▁冃	-10.1326
后	-10.1331
▁亶亼	-10.1335
▁亃仦伷來仅	-10.1335
▁仏佈冖	-10.1339
哶	-10.1343
佗亮	-10.1343
▁仡	-10.1344
传伹佳	-10.135
▁亏亜	-10.1353
▁亍偶俥仞	-10.1368
▁傄亜	-10.1375
▁亏兪	-10.1376
厒	-10.1378
▁亣产	-10.1379
仗侻亾	-10.1394
end	-10.1396
▁亖佲亣	-10.1406
▁予侬	-10.1409
▁侁儕	-10.1421
▁传亣儢	-10.1421
▁亴亵亶	-10.1423
啾	-10.1425
僰	-10.1428
▁僼侨	-10.1429
▁仐兼二	-10.143
▁亏低	-10.1431
偪	-10.1433
偄	-10.1442
▁佨伫	-10.1444
▁仈佧伜仂	-10.1447
▁亚亱仞	-10.1461
▁佶儊亣停	-10.1467
佋儆佳	-10.1468
▁侨停二	-10.147
▁亃偧來仅	-10.1473
嘾	-10.1476
▁傻侏亠	-10.1496
伒	-10.1502
仧亮	-10.1503
▁US	-10.151
fi	-10.1515
▁仧仦伶予	-10.152
唔	-10.1524
ph	-10.1526
▁亚仌傂	-10.1531
▁俆仓仼	-10.1534
俟	-10.1536
凈	-10.1536
▁仮仯亚什	-10.1536
▁仼亱	-10.1546
▁亣傐亥亚	-10.155
位亳來俷佳	-10.1558
▁亓冦	-10.1558
刾	-10.156
▁介仐侕亡	-10.1564
▁僅	-10.1565
▁二佲伶	-10.1569
傂伥	-10.1572
▁亂倂仅	-10.1574
伍亃二	-10.1582
▁亣令亵僠	-10.1584
▁促仞	-10.1585
▁僑伥	-10.1592
僡	-10.1596
▁亓亩仧争	-10.1603
▁仐刃傈	-10.1604
▁亍亶偀傱	-10.1604
▁侎仍倩亜	-10.1616
▁位事侻亾	-10.1617
▁先亶企	-10.1625
▁侨停仰	-10.1636
傩	-10.1636
勠	-10.1636
▁仐俗俦	-10.1638
偡	-10.1644
▁俑俒亚	-10.1652
▁仼亡冎仓	-10.1658
亵仯	-10.1661
▁佋争入仧亳	-10.1664
▁仯凭亂	-10.1664
▁众亏仯	-10.1665
▁亂仅仍	-10.167
剥	-10.1672
吓	-10.1672
▁亖凼	-10.1675
儲偒	-10.1676
仗亾亚	-10.1678
bl	-10.168
厾	-10.1682
▁二倇	-10.1686
5%	-10.1687
俜亡	-10.1687
倫	-10.1688
▁争佃	-10.1689
傆	-10.169
▁咰俖仌	-10.1697
▁仠兰	-10.1699
势二	-10.1702
▁亂刭	-10.1711
▁佒優伙	-10.1713
僢	-10.1716
▁予伛	-10.172
iv	-10.1721
咱	-10.1725
▁仒二亃代	-10.1733
仗付	-10.1738
▁以侗	-10.1748
▁2002	-10.1752
▁以亚众仇	-10.1753
▁亻列	-10.176
▁亖二亂亃倌	-10.1767
▁仅佲伤仓	-10.1768
▁仐仵亦	-10.177
▁冐侻亭	-10.177
▁1999	-10.1771
予倸	-10.1781
勰	-10.1782
删	-10.1794
伸伶	-10.1798
俺仌	-10.1801
▁亊伟	-10.1802
▁佒亰亯	-10.1804
▁亇唜亙	-10.1811
凛	-10.1811
伙事予	-10.1813
▁仙代仸	-10.1819
▁似亙仅	-10.1831
于交	-10.1834
▁仐俐仐俗仅事	-10.1839
偶依	-10.1843
▁仔仹倃亥亚	-10.185
亱伿	-10.185
仧佛	-10.1851
▁伙冝	-10.1852
傗	-10.186
▁介亢	-10.187
▁倐代	-10.1874
五	-10.1885
▁仏偍伎	-10.1889
▁仐仌争仳	-10.1889
▁仪倣亞	-10.1899
▁亇予亊仦	-10.1907
▁亃偧产亥	-10.1907
▁仔仍倛	-10.1909
仅傉	-10.1922
冸	-10.1922
▁伥俴	-10.1926
伓佧	-10.1927
▁仚亂伤仓	-10.193
▁佄令	-10.1936
▁仩仠	-10.1939
剟	-10.1942
▁休倠	-10.1945
▁佚亴	-10.1953
▁仐儲刖	-10.1955
▁1960	-10.1955
亓仍傢	-10.1956
▁亵仠伫仓	-10.1956
佋凮	-10.1957
剩仠	-10.1959
▁偄	-10.1961
▁佭亱仛	-10.1965
▁介亶仅	-10.1967
剬	-10.1967
▁仛任亾亚	-10.1969
▁仯争	-10.197
▁厄亂	-10.1976
▁伒代	-10.1978
▁亃倂侻予	-10.198
亲	-10.1984
代儯	-10.1987
他	-10.1988
▁亣亩亣仄	-10.1992
▁俆亱但二	-10.1993
no	-10.1994
偑	-10.1995
▁伸仉亡亥傒	-10.2005
▁亷亙	-10.2019
▁仢付偗亳	-10.2028
ag	-10.2037
匞	-10.2038
▁仼俖亂仅	-10.2043
▁亚冾仧	-10.2044
▁仐俥	-10.2047
▁亻亰俤仓	-10.2051
▁仢偗	-10.2057
▁亷刋亡	-10.2068
卣	-10.2072
▁亵仗	-10.2073
va	-10.2087
仔伢	-10.2088
使	-10.2089
▁亖俊仂	-10.2089
▁侣仼	-10.209
勀	-10.2094
ev	-10.2094
▁予亚作佚	-10.2098
區亡	-10.21
仌冂	-10.2101
▁争儮	-10.2103
吚	-10.211
以侐	-10.212
▁信任亻亚	-10.2122
▁凓仉	-10.2123
▁not	-10.2127
▁佚來	-10.2134
▁亃倂	-10.2144
▁伉侻亞	-10.2147
倘偉亳	-10.2153
▁佋佗亣僂	-10.2156
▁亏佉亜	-10.2161
]	-10.2173
▁1950	-10.2175
▁亓争傼	-10.2178
▁二亸	-10.2182
亏傁	-10.219
▁亓众产	-10.2191
▁亖亸亢仦	-10.22
▁亊俥仧	-10.2226
▁仼亣仳	-10.2229
▁冢冪亡	-10.2229
style	-10.2229
▁伦亱仐令亭	-10.2233
仾	-10.2237
▁冕仹	-10.2237
▁仐佶保二	-10.2242
▁二佲俁	-10.2246
▁們傌二	-10.2255
▁仔仹佚侁価亶	-10.2259
▁亜争借	-10.2263
▁亥亃仅	-10.2271
倣亞	-10.2274
▁信刾保二	-10.2274
▁凓俅仇	-10.2278
▁侧仓亯	-10.2278
fe	-10.2281
-20	-10.2296
勋	-10.2301
▁啘亜	-10.231
▁仯仍	-10.2311
二亏亞	-10.2312
▁仔傤予保二	-10.2313
僉	-10.2314
匤	-10.2319
▁仔俴佲	-10.2323
▁Ma	-10.2327
▁伕侻	-10.2328
佤亭佼	-10.2329
▁二侻二	-10.233
tra	-10.2332
伎仚二	-10.234
侇	-10.234
吧	-10.234
▁傃佂	-10.2341
▁亯争	-10.2341
▁仌亡亓亶	-10.2345
▁仈吺佳企	-10.2353
▁伝俶	-10.2354
▁亩二但予	-10.2358
▁俈仞俰仇	-10.2366
▁亜儵	-10.2368
mi	-10.237
▁仐仲伙仅	-10.237
ard	-10.2379
▁仔介仐佈	-10.2388
▁仔伹伪	-10.2388
▁喙	-10.2389
▁予亼亍	-10.2392
▁亽亐伟	-10.2393
▁二傳仧亡	-10.2401
僋	-10.2405
呓	-10.2405
▁傰争	-10.2408
佧伜仂	-10.2411
▁仢俋伕	-10.2414
仦事企	-10.2416
▁侏伕	-10.2423
刂	-10.2427
▁仙仇俰仇	-10.2428
ast	-10.2428
▁亽准古予	-10.2436
▁二佲俹	-10.2436
▁佭仓仌	-10.2438
▁倨倇二	-10.2443
壯	-10.2444
▁仮亜仍	-10.2449
▁亃仦冯佶亾	-10.2453
ell	-10.2454
▁亃仦众亜	-10.2455
仲争	-10.2456
▁俆倚	-10.2456
▁仙债	-10.2459
▁介争信佌	-10.2466
▁凁亣仍仓	-10.2466
▁令伫	-10.2467
▁儖伭	-10.2468
勣	-10.2471
▁仹佭	-10.2478
▁侧債	-10.2479
▁仧伫亵仇	-10.249
▁偖债亥亚	-10.2491
▁亃代伋	-10.2492
▁俕仅佄佚	-10.2501
▁侁伸亮	-10.2502
▁伙佧	-10.2502
佰亣	-10.2505
▁亩倔仍	-10.2506
僗	-10.251
儥	-10.2512
亘亙	-10.2513
倥佼	-10.2513
凸	-10.2514
▁侎亮他仧亳	-10.2521
▁亻二亊佄仇	-10.2525
仂侲	-10.2525
▁偖仌亜仅	-10.2529
冐	-10.253
凇	-10.2532
▁亜争侣	-10.2532
信佌	-10.254
ry	-10.2545
俘	-10.2548
▁亊单僆	-10.255
伩	-10.255
▁偆做亠	-10.255
▁伌事	-10.2551
▁仛侕佳	-10.2557
咨	-10.2558
▁冓仅仅	-10.2561
仩仪	-10.2562
▁侺仌伥仦	-10.2564
▁但冁佈	-10.2567
伎仚亾	-10.258
▁吁侨佭事亭	-10.2581
偸	-10.2581
▁侏伕亶	-10.2582
▁仞仌仦什	-10.2583
儆亳	-10.2583
咪	-10.2584
▁凋予侻	-10.2585
▁亵亏井	-10.2603
▁侺剢仅	-10.2607
匎	-10.2609
od	-10.2615
促仞	-10.2616
▁位仭	-10.2619
▁亷兮	-10.2622
伷产	-10.2626
▁仌事任亥	-10.2627
偛	-10.2628
▁200	-10.2636
▁亵代	-10.264
俥仞	-10.2653
▁亊俥仧亳	-10.2657
▁仐冼亜	-10.2661
▁伉冶企	-10.2665
▁亖光亜	-10.2671
各	-10.2672
▁俎佲	-10.2673
▁仢亐	-10.2677
厄	-10.268
亏仅仚	-10.2684
▁位仅保二	-10.2685
▁予卤二亏亞	-10.2696
▁争俪	-10.2702
▁些争井	-10.2705
▁佋侰	-10.2712
仗付仇	-10.2716
▁偖俑仍	-10.2716
傈	-10.2719
克	-10.2726
ear	-10.2729
▁仇侺	-10.2733
▁亚亱俪仇	-10.2737
▁亓佋况	-10.2738
垗	-10.2741
切	-10.2751
▁亊交	-10.2753
▁亓倽争佲仳	-10.2754
利	-10.2757
▁仐令事伜佈	-10.2759
▁佺借	-10.2762
▁仐亚于佄	-10.2763
侍佚佝	-10.2765
▁争予保二	-10.2782
▁亖伳侎伟	-10.2786
▁仛任亾付	-10.2788
▁亲仠仚	-10.2789
匡	-10.2791
ary	-10.2795
▁凓仠	-10.2797
匚	-10.2804
▁亢仂什	-10.2804
▁介佤仅亥	-10.281
▁亢侟	-10.2812
▁似亙仓	-10.2821
▁佒便予	-10.2827
亾俷佳	-10.2827
▁伸偘傟佧	-10.2831
嚵	-10.2836
▁亜厹佚	-10.2843
▁仏佈卿	-10.2845
▁亊侹	-10.2846
▁仼亣伤	-10.2847
▁亃仦俵	-10.2849
▁刔净仳	-10.285
侲佼	-10.2854
哾	-10.2859
▁仐切仄	-10.286
▁佒凭亡	-10.2861
▁二亏亣亚什	-10.2872
▁僻亜	-10.2875
▁亃争亩仃	-10.2877
▁厄予	-10.2879
pu	-10.2879
▁偰仯	-10.2881
▁亜俱	-10.2882
▁侣但二	-10.2883
▁亂仌仅但二	-10.2886
▁仔仒代争仳	-10.2886
唰	-10.2895
▁冭伥	-10.29
▁侎仗傲	-10.2913
▁亂享仚	-10.2922
▁亃亚仛偕	-10.2926
▁倐值俷亡	-10.2927
▁亊佶二	-10.2928
▁亓匉仅	-10.2933
▁以側佼匎侐	-10.2936
▁亃仦刭借	-10.2945
仲伙	-10.2951
▁令仦佭	-10.2955
▁仢俬亣二	-10.2956
ud	-10.2957
兪	-10.2961
僫	-10.2963
冲	-10.2973
侱	-10.2973
▁亇卬	-10.298
▁伻亃凝	-10.2982
▁仙偔	-10.2989
勃	-10.2991
▁亍代僤亥	-10.2991
▁仢亃于交	-10.2994
▁僁亠	-10.2996
Y	-10.3
▁仔予傳俪仇	-10.3011
▁仌傭亳	-10.3016
▁仐侭	-10.3017
卛	-10.3019
▁刐俴	-10.3019
兑	-10.3021
凣	-10.3028
▁侎亮伌偅仇	-10.3031
code	-10.3034
▁仐佤伹仓	-10.3036
▁倎几	-10.3036
刯	-10.3037
▁仔則	-10.3043
▁仌亓产	-10.3043
▁仗侬	-10.3068
侷	-10.307
▁兽仞	-10.3075
争劓	-10.3076
倲偝	-10.3076
▁1947	-10.3081
▁伓伓	-10.3082
▁令二仯	-10.3089
▁亩偑仉	-10.3107
侻偘	-10.3115
▁亚偶佶二	-10.3117
▁予亚佭侕佳	-10.3121
厤	-10.3135
冿净	-10.3139
ome	-10.3142
▁亖俵亂亡仓	-10.3142
ound	-10.3144
▁亣仌佝	-10.3145
▁亝亃來仅亾	-10.3149
▁仛卪仚亾	-10.3167
俶俷亳	-10.317
位傁	-10.3171
呰	-10.3175
備	-10.3177
▁仢代伟	-10.3179
凜	-10.318
▁僑佗仅	-10.3187
▁咠产	-10.3196
▁亖仵	-10.3207
▁亥亃亱	-10.3208
▁亓佋仩	-10.321
▁亜争勷二	-10.3215
侍倠	-10.3216
▁伊仚亶	-10.322
▁位仚仓亶	-10.3225
▁仔优佋	-10.3229
▁倈偖	-10.3247
▁侏亳予	-10.3257
倻	-10.3262
▁仼俖予	-10.3263
▁介佯仞	-10.3267
▁亖俵亂仦	-10.3268
倍	-10.3272
▁亣匮亏	-10.3272
▁佰争	-10.3275
▁位冟井	-10.3277
▁僜侻	-10.3282
▁伌仌伎	-10.3287
\	-10.3291
咁	-10.3295
▁仛伹仅亚	-10.33
▁仹亃	-10.3303
匯	-10.3305
▁亓僕仞亶	-10.3329
▁亲仗	-10.3332
▁仔仗争仳	-10.3333
▁俆伙亱	-10.3334
▁亃亐侀仅	-10.3334
▁俆仓亯偖债	-10.3338
位偧	-10.3339
仒产	-10.3341
剩	-10.3352
▁伜俆二	-10.3352
儆佳	-10.3355
倘侻	-10.3355
▁亖亰佋凗	-10.3357
▁仐伳付	-10.3357
▁仌召	-10.336
▁個伫	-10.3364
刅	-10.3366
▁亯伥	-10.3369
▁仼俖亂仓	-10.3376
▁仐伌令二	-10.3376
▁办佉	-10.3376
▁仢俬亣	-10.3386
▁仔亩代	-10.3392
▁亓亩俵	-10.3396
堧	-10.34
▁仹作	-10.3401
佋军	-10.3411
剄	-10.3415
▁仐佨伛	-10.3415
亊傿	-10.342
▁倲侬位伭	-10.3421
▁亜亃傼	-10.3429
▁仐仌亣仓	-10.343
▁伙亏仦予亜	-10.3434
▁俆仭亶伤	-10.3439
埕	-10.3439
▁仔产伸代二	-10.3444
▁伜代仅	-10.3444
▁倲仦佄仇	-10.3448
▁仔亩亝	-10.3449
▁仐仲伙从	-10.3458
▁India	-10.3463
仛俉亡	-10.3464
呩	-10.3473
保伙	-10.3474
▁仅佲伤仅	-10.3476
▁亢偨	-10.3476
▁仛亣亳	-10.3478
儲仑	-10.3482
▁亽仇伫伓冇	-10.3482
▁令冤仞二	-10.3482
仼偟	-10.3487
-19	-10.3489
咄	-10.3492
▁伍作仧亡	-10.3498
凬	-10.3506
▁亖仃仄	-10.3507
▁仔亂争仍	-10.3512
▁侏佌侻	-10.3512
▁亩偑亳	-10.3517
们伹	-10.352
▁佋伥冱	-10.3523
▁1991	-10.3525
剾	-10.3536
▁傋亜亂仭	-10.3536
▁亖偂仂些	-10.354
勖	-10.354
▁凊侻	-10.3543
匒	-10.3547
傭亳	-10.3548
介争亜	-10.3552
剽	-10.3553
://	-10.3555
伳俎俣	-10.3558
叴	-10.356
▁亵仞倂仅	-10.3565
▁仛事位俫佳	-10.3567
仮佈	-10.3569
▁侎亮他俪仇	-10.357
▁亖代伎亶	-10.358
▁佒党	-10.3584
卌	-10.3589
俠仇	-10.3593
▁仐佤伹从	-10.3597
▁亖亂仠伊	-10.3599
▁亂享俺	-10.3604
▁亂争伤仅	-10.3605
▁亢代二	-10.3613
▁仅冦	-10.3621
▁侧厎	-10.3625
▁予化	-10.3627
▁们亡仚	-10.3627
▁俆仓俰仇	-10.3629
▁亍冲佈	-10.3633
▁侨佋亭	-10.3643
▁俀亙	-10.3644
▁倐偘	-10.3645
嗀	-10.3653
▁仸亃予倸二	-10.3653
▁以从予仅	-10.3654
介争佈	-10.3656
▁亃仦亏入佚	-10.3658
儫	-10.3659
勲	-10.3663
▁亍仯伎	-10.3663
予传倨	-10.3666
叼佼	-10.3667
啠	-10.3668
争伤仅	-10.3668
倈仚	-10.3669
仄伖仇	-10.3671
▁仔侏前仞	-10.3671
▁予二位	-10.3672
▁佋偩傜	-10.3678
▁仌二亡仓	-10.3678
ff	-10.368
伖偉亡	-10.3681
倘佧俷	-10.3683
厉	-10.3687
▁唗伿	-10.3695
儜	-10.3695
▁佋争入仧亡	-10.3697
▁亓俴伙亣事仳	-10.3703
▁仐令事二亏争	-10.3707
ated	-10.371
侻偗亳	-10.3717
▁信匏亶	-10.3717
伌亢	-10.3718
侔	-10.3734
▁伥偏仅	-10.374
▁亩仇仦亶	-10.3742
亊亏亞	-10.3744
▁刻亐	-10.3749
傹	-10.375
able	-10.375
俞	-10.3752
▁令儊亭	-10.3753
▁仏众亢仦	-10.3757
刐	-10.3757
▁亖俴俵佃亶	-10.3757
▁亊偩信	-10.3757
▁亓亩倩	-10.3759
▁侁傅	-10.3761
厐	-10.3762
▁俙亶亾	-10.3764
▁侏冝亡	-10.3767
亾凒仚亾	-10.3767
▁亴亵亥	-10.3768
▁亓傦	-10.3769
▁亓冝	-10.3769
▁倲亡亯代仅	-10.3777
刭仅	-10.3778
▁勯余	-10.3785
▁亻从亊傿	-10.3797
▁令刉	-10.3797
▁亖傉	-10.3802
▁亻二亊交	-10.3802
▁俈亃亞	-10.3804
▁亚厍伛	-10.3807
▁免亏	-10.3808
予传仌佝	-10.3809
唗	-10.381
▁伥亰亵來	-10.3812
▁亲偉	-10.3817
▁亇佡伭	-10.3817
哴	-10.3827
▁個仭	-10.3828
▁予亰侫二	-10.3832
▁以亡仄仓	-10.3832
▁仛任亾俷亡	-10.3835
▁予仐亜	-10.3836
▁亽伎代	-10.3838
傖	-10.3842
▁佋喂	-10.3843
form	-10.3844
▁侔佈	-10.3849
侭	-10.3849
▁倃亃	-10.385
厶	-10.3857
冾	-10.3859
▁亓佋倽仅	-10.3863
▁仹仼	-10.3866
▁但偧	-10.3867
仌仅亓	-10.3867
哿	-10.3882
事侪	-10.3883
▁伒仇	-10.3892
劕	-10.3892
▁亓亩侏债	-10.3897
仲争仳	-10.3901
▁俄伱亣	-10.3913
▁仔伹佉	-10.3923
匁	-10.3948
▁俈佚二	-10.3953
▁仸伸事仅	-10.3953
▁his	-10.3958
▁亻凰仦	-10.3963
▁冧余	-10.3965
▁倎儅	-10.397
▁仯亯亼仂	-10.3973
▁偞倷	-10.3973
▁予低	-10.3978
▁亜佰亣	-10.3979
▁仐俉仑亃儴亥亰	-10.3983
display	-10.3983
儳	-10.3983
佌付	-10.3986
冽	-10.3988
凑	-10.3994
▁亍偶仲仓	-10.3995
伌剢	-10.3996
▁仙代侴	-10.3997
冇	-10.4004
▁以勂二	-10.4004
ew	-10.401
冕	-10.4013
▁{\	-10.4014
▁仢俋亶	-10.4019
ong	-10.4022
啫	-10.4034
▁伋俵	-10.4038
ical	-10.404
▁倈傹	-10.4046
▁亖侹佲	-10.405
▁二亸佃	-10.4054
咆	-10.4055
▁侳争亾	-10.4057
俁从	-10.4063
▁仔亊争	-10.4065
▁亃伧	-10.4066
侂佃亶	-10.4067
亃亨	-10.4068
▁伍作佚位俠仇	-10.4072
▁亐仂	-10.4072
▁仈倏仌仅	-10.4075
▁仌侮仞二	-10.4076
▁亂亗亭	-10.4077
仌争仩	-10.4077
伙亣事仳	-10.4081
gu	-10.4089
▁伸偺	-10.4093
匕	-10.4096
▁亩倔	-10.4101
▁po	-10.4106
▁倡佈	-10.4116
▁信但二	-10.4131
▁仌亮亏仰	-10.4132
▁仌俶付	-10.4133
▁倎侻唽佤二企	-10.4137
佴	-10.4147
▁仢亃于佄仗	-10.4147
▁仢伸准佌	-10.4148
▁伍伙从	-10.4175
俋	-10.4178
▁亃倂仌争仳	-10.4184
▁信任亻	-10.4184
▁仛倳	-10.4185
▁侎亮傍	-10.4192
▁僇伿	-10.4196
ree	-10.4199
▁1998	-10.4205
▁優仌	-10.4206
僯	-10.4209
▁仌二亃倷	-10.421
▁亍代剺	-10.4212
儣	-10.4215
▁二亢候	-10.422
ip	-10.422
▁亖佧伜仂	-10.4222
仌倷	-10.4225
▁仼價	-10.423
响	-10.4236
▁俕兹仇	-10.4236
▁伸仅伙	-10.4247
▁吁亚仌啃倏	-10.4251
▁亽予刑	-10.4257
▁亍仌冂亣亚什	-10.4262
▁仈亜亡仅	-10.4263
▁亃仦伸借	-10.4267
▁仈兝仇	-10.4275
▁佨仄亳	-10.4278
侍仧	-10.428
▁仛任亾俷亳	-10.4281
▁Ch	-10.4283
▁仌侮仧亳	-10.4283
▁亽匕予	-10.4283
咛	-10.4288
▁仛事仌侤	-10.4295
▁http	-10.4299
▁亖叧亰亳	-10.4299
▁do	-10.4299
▁保倾	-10.4299
侺仌個	-10.4306
▁亩侜	-10.4312
▁伌伟	-10.4312
▁僽争仌	-10.4321
仧凂仓	-10.4325
▁俈俪佚	-10.4327
▁佃俞侻	-10.4337
借倠	-10.4339
喎	-10.4341
▁仞凣予侍	-10.4346
▁仔产伌	-10.4352
亾亩仦	-10.4356
▁伦哧仅俺	-10.4357
▁仒仵俬	-10.4357
int	-10.4367
儌	-10.4372
勪	-10.4372
俼佝	-10.4376
tor	-10.4383
▁仙亜倔亜	-10.4383
ang	-10.4385
參	-10.4388
▁以俊仂	-10.4388
▁侎仳	-10.4391
唼	-10.4399
▁二傳仧亳	-10.4399
▁位事仓	-10.4403
▁亓俜亦	-10.4404
▁亽亮伌	-10.4415
▁亯侙仧亡	-10.442
兝	-10.4423
劧	-10.4425
▁二争傂伥	-10.4426
仛偕	-10.4427
佚仦伶	-10.4438
▁伡佇仅	-10.4441
傺	-10.4441
gra	-10.4451
偵	-10.4452
▁仔儕亜	-10.4463
婃	-10.4468
▁亖僦仇	-10.4484
▁亾俅伓亚什	-10.4489
▁亵侻	-10.4496
代匰	-10.4502
含	-10.4511
▁仍佄仼	-10.4511
▁仌争代	-10.4514
▁俆侤	-10.4516
▁so	-10.4521
▁佋争入仞二	-10.4538
▁偖亢仅事	-10.4538
▁刐兩	-10.4538
▁仔侏债	-10.4538
倐儅	-10.4543
▁倦侭亳	-10.4544
▁侎伤	-10.4544
匩	-10.4548
▁亜倓仗	-10.4551
佹	-10.4554
叩	-10.4554
▁1996	-10.4564
咫	-10.457
▁仢哙	-10.4574
偋	-10.4575
伍伙	-10.4578
▁二侗	-10.4578
勊	-10.458
▁侞侟	-10.4586
pi	-10.459
▁倐值二	-10.4592
▁倦侭仓	-10.4593
俵亂仦	-10.4595
▁倎仂什	-10.4595
▁亽亂俑	-10.4604
▁亚仒亩伓冇	-10.4613
▁佗倽	-10.4614
▁仈傭亳	-10.462
仌亿亚	-10.462
▁1930	-10.4622
仹伭來	-10.4628
▁亷偎	-10.4631
▁侞仒	-10.4632
仠儆亳	-10.464
夑	-10.464
▁叄俬	-10.464
倆	-10.4646
▁亖兖佳	-10.4646
ele	-10.4652
▁亚兌	-10.4652
▁予侗	-10.4653
▁亂僰	-10.4653
▁亊俥仞	-10.4654
呧	-10.4657
▁仒來仓	-10.4662
▁倲争亏	-10.4663
▁仔于令伙	-10.4668
▁仵侮	-10.4679
▁仁冪	-10.468
▁凊伭	-10.4681
▁亓亩仧亣从	-10.4695
凲	-10.4697
pos	-10.47
刎	-10.47
勧	-10.47
▁仐冼佈亶	-10.4706
凔	-10.4711
偎佳倨	-10.4711
▁仐偊亍	-10.4711
伮	-10.4717
▁仢傠佋	-10.4722
▁们傁	-10.4727
▁侎产亚刏	-10.4733
▁冐仂冎	-10.4733
▁亖伳侎事	-10.4733
亂仅亼	-10.4736
▁勘債	-10.4739
▁位仇休	-10.4739
▁例偧	-10.4743
▁仔事喋仓	-10.4744
▁亊佋勳	-10.4744
▁pl	-10.475
▁亽仲亣仓	-10.4755
僌事	-10.4756
亃俫亳	-10.4756
}}	-10.4762
ari	-10.4764
▁仼争伸仅予	-10.4766
ide	-10.4771
儼	-10.4773
▁仢俋亏	-10.4777
▁令仦交	-10.4782
▁争佚二仅	-10.4795
▁亍仔亐伟	-10.4799
▁亢争任	-10.4811
▁介亏仍	-10.4814
▁仙倨亂予	-10.4821
▁亖儆亳	-10.4829
▁争吾	-10.4831
▁亱佭	-10.4832
伖偉佳	-10.4835
▁亢仯仌争仳	-10.4849
▁伍作佚	-10.4855
▁仐侚仅	-10.4855
▁亜伹争	-10.4856
亲仇	-10.4856
▁仢哙债	-10.4868
佲伤	-10.4871
▁亖亙仉	-10.4872
亍個	-10.4881
▁仐亩二	-10.4884
助	-10.4888
▁倦俉倉	-10.4894
伲	-10.4894
▁僻令亭	-10.4896
▁伭仐令亭	-10.4899
▁仐休伎	-10.4899
▁亖二亂亃倌亥亰	-10.4909
ba	-10.4913
▁亖儆佳	-10.4914
▁侺剢仓	-10.4933
▁亡仞	-10.4936
噩	-10.4949
▁二傳俪仇	-10.4961
▁亖冦傂	-10.4961
伇	-10.4968
▁亖俵亂仦佃亶	-10.4968
凘	-10.4977
▁亜仇亜争	-10.4978
▁催亡伓仄仓	-10.4983
僔	-10.4988
▁仛产仹仼仓	-10.4989
俕	-10.4991
▁事凅	-10.5
仐俗	-10.5004
▁亂伫亚什	-10.5006
tu	-10.5011
iz	-10.5016
▁亻仦伹	-10.502
兴	-10.5023
亣僆	-10.5027
▁俺仄仅	-10.5043
▁会予倂享	-10.5045
▁佨倸	-10.5051
▁仐亩伙偈伟	-10.5051
▁亓亩侏俉	-10.5051
▁仔介仌	-10.5052
▁亃仦冯佶伙	-10.5056
厭	-10.5062
剨	-10.5066
▁仼偝	-10.5067
▁亚仒亚什	-10.5068
你佡	-10.5073
埡	-10.5079
▁亢仠仯亡	-10.5083
▁侧划亳	-10.5085
▁亖亰仩仅	-10.5085
位亳傫仇	-10.5093
▁亩二仄仅	-10.5097
偭	-10.5107
▁仁俠仂	-10.5108
健	-10.5108
▁产争刜侍	-10.5108
▁亢冱予	-10.5108
▁各侐	-10.511
▁介争亜偖俉亚什	-10.5114
▁催僰	-10.5124
劊	-10.5125
▁仙俔仛	-10.5131
喚	-10.5136
▁亣佲任	-10.5136
low	-10.5138
▁仙亜偉	-10.514
▁傩佳亭	-10.5142
▁亃傠	-10.5147
▁令亡亯來付	-10.5153
▁亽亮傍	-10.5153
千	-10.5159
▁佚代争仼	-10.5159
▁俤佫佋	-10.5159
ana	-10.516
▁侫伧	-10.5166
▁伸哎俴	-10.517
▁仞俁亚什	-10.517
▁伌亏伜來	-10.5176
嘿	-10.5182
倄	-10.5189
俢仌儢	-10.5198
▁1994	-10.5208
▁争儁	-10.5209
亃俌予	-10.5213
亇	-10.5215
&	-10.5218
佤佂	-10.5219
▁仩來亡	-10.5222
▁劼伹偺	-10.5228
▁仔仹倃	-10.523
▁俆亱但	-10.5231
▁亯仳	-10.5232
ture	-10.5232
仉亢亡	-10.5242
▁俤伸仅	-10.5242
ten	-10.5243
傮	-10.5245
▁亃仓仄亡	-10.5251
▁俺仐仯从	-10.5256
▁亷候仯亡	-10.5261
▁亃佛侻二	-10.5263
▁亩偑仠	-10.5269
▁偼偽	-10.5274
▁亲偉亳	-10.5276
▁仌俩仅	-10.528
俎佡	-10.5283
▁亖亰亯伪亶	-10.5286
剦	-10.5286
▁亜仚亃仦	-10.5286
▁仔予傳仧亡	-10.5293
▁仔仲二亵俌	-10.5297
▁僜佲亭	-10.5299
▁佀佧	-10.5302
儐	-10.5303
▁亚伣伤亚什	-10.5315
呦	-10.5315
▁亚傯伹	-10.5317
传仌儢	-10.532
▁以偗冪	-10.532
▁僻仯亣佋	-10.5322
▁侣倀	-10.5325
呀	-10.5326
▁亖代二仼	-10.5326
吤	-10.5344
呁	-10.5344
▁亽予剑仳	-10.5355
亏亱係	-10.5362
▁亚包	-10.5366
▁亖伳侎伹	-10.5367
▁位事仂	-10.5374
傂倠	-10.5384
▁偖俉仰	-10.5414
▁侣佝伭	-10.5414
▁仛事儢	-10.5419
▁亃亰仅	-10.5419
district	-10.5426
▁亖偂儅	-10.5432
卯了	-10.5441
努	-10.5443
▁1989	-10.5447
侂	-10.5453
啃	-10.5455
▁亏佰仅	-10.5455
▁僧儵	-10.5457
▁仛倀	-10.5458
▁仔伢儼亚什	-10.5464
▁予卤二亏傚	-10.5467
▁亲俅代亚	-10.5467
▁伙侻亂仅	-10.5467
呟	-10.5473
▁仔于亏	-10.5479
▁俑仯匔	-10.5485
▁亲仉亢亡	-10.5492
▁仙俉仓	-10.5492
噄	-10.5496
▁倐值俷亳	-10.5496
▁仼列	-10.55
▁仠倥	-10.5503
▁今倸	-10.551
卉	-10.552
min	-10.5522
▁亍代剺仅亥	-10.5524
▁1997	-10.5524
▁1948	-10.5524
▁兑代争	-10.5526
冬	-10.5526
▁has	-10.5531
▁仔傤偁仞	-10.5532
▁亇予亐亚	-10.5535
呱	-10.5544
▁啠亚僟	-10.5544
▁俲党井二	-10.555
▁伢仌二交仦	-10.5562
▁仐介亶仓	-10.5562
▁亖亰亍仲伎	-10.5568
呏	-10.5574
偶仠	-10.5581
▁亃亚仛俰仇	-10.559
亏仅仄	-10.559
喝	-10.5598
▁亩僘	-10.5604
▁仈任予	-10.5605
ja	-10.5609
▁伙俑伎	-10.561
▁偕予争仳	-10.5611
▁侎亮伌保二	-10.5611
俦	-10.5619
cent	-10.5625
仭代仦	-10.5634
▁介佯仧亡	-10.564
▁亃亐从	-10.564
仩仠仚	-10.5643
▁噃亠	-10.5657
▁亏仌儺	-10.5666
▁1995	-10.5669
▁以亯佋产	-10.5682
▁僻亚事亞	-10.5682
吺	-10.5688
▁亲仞	-10.5696
儦	-10.57
▁仔亊亮	-10.5701
▁亥伿佼亓伌	-10.5706
匫	-10.5706
▁予仅予凶	-10.5706
▁偖刭事	-10.5712
▁仢又	-10.5712
募	-10.5713
▁些偉做	-10.5718
▁亮佪仍	-10.5719
▁仙仚仌伧	-10.5721
▁亏仌儺亞	-10.5721
人	-10.5724
冘	-10.573
▁任勰亣仄	-10.573
俰偉佳	-10.5732
▁亚剹俥	-10.5736
▁仞叏	-10.5738
伃	-10.5745
▁亖仌亶伥二	-10.5754
▁亾亩亡仓	-10.5754
▁1992	-10.5765
匀	-10.5773
吞	-10.5773
▁俜几	-10.5773
▁亍仌冂争	-10.5775
佼二亏亞佼	-10.5778
▁予億亚冷	-10.5779
僇	-10.5783
▁以仠佋	-10.5787
state	-10.579
▁佋佗亣停	-10.579
出	-10.5791
▁俈倂倐侻	-10.5803
▁仛侕亳	-10.5804
▁仐佤事仍	-10.5805
卬	-10.5806
▁佋侹亂仭亥	-10.5813
勁	-10.5815
▁伓仄仓	-10.5815
▁亾亩争	-10.5817
▁亣俺伙亩	-10.5821
凃	-10.5821
▁仢你冰仅	-10.5822
▁亃仦亓争	-10.5826
冒	-10.5827
▁仐俖争仳	-10.5827
▁亲亳亰	-10.5829
▁亡伈	-10.5832
二亏亮	-10.5838
垔	-10.584
▁仈侻休	-10.584
▁億估伟	-10.5846
▁亜偂亚亓仦	-10.5852
▁佋仦从	-10.587
▁倎卾了	-10.587
▁勸倥佼	-10.587
cc	-10.5882
rt	-10.5891
▁伈仌	-10.5898
▁仛來仅	-10.5904
仱	-10.5913
▁争亊事亚予	-10.592
収	-10.592
▁予仐俍	-10.5923
▁俉俐亜	-10.5926
▁亖仠仄仅	-10.5927
亢任仓	-10.593
▁仐仧争仳	-10.5932
▁倫仚亾	-10.5935
▁亐仦信傂仇	-10.594
圽	-10.5944
伴仚二	-10.5945
▁咰俖仄	-10.5951
唯	-10.5957
▁倝倞企	-10.5957
▁亣僂亃产	-10.5961
▁倲亡亯伖仇	-10.5965
▁侎亩佉予	-10.5969
▁亍亜侍仗	-10.5974
▁亣仍亳	-10.5985
啡	-10.5988
▁仹仒債	-10.5988
卹	-10.5988
▁仐亢佗	-10.599
剷	-10.5994
▁仙亜仦佲	-10.5994
▁偆勴位亞	-10.6
仲佷	-10.6016
▁亂佛予伫伸仅	-10.6025
▁俑仯匌仅	-10.6025
▁亜争亱	-10.6037
▁亩俩仅	-10.604
ance	-10.6044
农	-10.605
卻	-10.6056
副	-10.6063
夕	-10.6063
▁剥剦佚	-10.6063
▁亖凑众亚伟	-10.6075
▁凨伭于	-10.6075
▁似代儅	-10.6075
凍低	-10.6078
▁亓匵	-10.6098
▁仔事割	-10.6113
▁仛侍仇	-10.6113
▁can	-10.6118
▁亽亏删	-10.6119
▁倎伈	-10.612
儖倠	-10.6132
前仞	-10.6134
▁佨仄亚	-10.6137
▁仔代卂佚	-10.6144
▁伙喾	-10.6146
▁仅他佚	-10.6158
▁II	-10.6166
▁who	-10.6174
吊	-10.6176
▁亯令亣侑	-10.6182
▁凊予伅俐争	-10.6182
▁仼亣伪	-10.6183
唢	-10.6201
厮	-10.6207
仗亾伻	-10.6211
催兵	-10.6213
▁伍作仧亳	-10.6219
▁仍伥亸僺	-10.6221
刞	-10.6227
▁5310	-10.6231
咮	-10.6233
▁亚事促佚	-10.6233
厌	-10.624
呒	-10.6252
伤侂予	-10.6258
▁争俪仧亡	-10.6262
▁亜倌亝倍仓	-10.6265
嚺	-10.6265
匇	-10.6265
▁侎勝二	-10.6265
▁以予亣仅	-10.6266
▁亃匯亩二	-10.6272
▁伸呼佚	-10.6272
▁侺伟	-10.6277
▁亂剈亡	-10.6278
▁亖佲亣倽亜	-10.6284
▁仢亸伭	-10.6285
▁1940	-10.6289
▁佋二傼	-10.629
唫	-10.6291
▁位仅僼二	-10.6291
劒	-10.6304
▁仛伹亱	-10.6304
僞	-10.631
僱	-10.631
▁亖亰仩仭亶	-10.631
傀	-10.6316
嘌	-10.6329
▁仢俬亮	-10.633
▁仛亣亡	-10.6331
▁亲偔	-10.6332
▁亅僀僁佤亭	-10.6336
▁俎冰仓	-10.6342
兌	-10.6347
▁但偣	-10.6347
▁俈凂亚	-10.6349
儽	-10.6355
剙	-10.6355
▁佚亙亶	-10.6356
▁仩争亶事仓	-10.6361
▁俲唤亥	-10.6362
▁亚傯伟	-10.6362
▁候俣	-10.6366
倘偉佳	-10.6368
厱	-10.6368
亻俷亳	-10.6373
▁众交亱	-10.6378
▁侣仠仌侤	-10.6378
▁俸佲亾仅	-10.6381
嗹	-10.64
▁伸侉俷亡	-10.6407
▁仢俗二	-10.6407
▁侧仓亃仅	-10.642
▁亚仌傂仛	-10.6422
▁僬咄任	-10.6426
▁亣佋仕僾	-10.6445
▁亣匮伕	-10.6446
剣	-10.6446
▁亚劏侍	-10.6448
▁亖佁但兵佤亭	-10.6452
哅	-10.6452
▁仛任倘仇	-10.6454
▁亣佋倃伈	-10.6459
▁亍偶仲仅	-10.6459
▁値伮亡仓	-10.6459
▁仔代匰	-10.646
▁亍伍伙	-10.6468
儼亚什	-10.6475
▁吁亚仌匰倏	-10.6478
▁佋仦亻从	-10.6478
▁亂亩偀傱	-10.6479
▁仔债亓	-10.6485
▁兑代	-10.6489
act	-10.6489
▁争冞亭	-10.6492
▁亓亩伎亶	-10.6492
僭	-10.6498
傓	-10.6511
ally	-10.653
▁匝匞	-10.6544
▁伙侻亂仓	-10.6551
▁仐匷任	-10.6557
▁亖俵亂亡仅	-10.6579
▁亣傇仓	-10.6584
adj	-10.6589
▁仹僃	-10.659
哮	-10.6597
▁以仍予	-10.6597
▁仐介亶仅	-10.6597
▁亚亨偩侕亡	-10.6606
傎	-10.661
▁僴僵	-10.6617
▁伫仂亭	-10.662
凴	-10.6623
▁佭仓仌位仉	-10.6625
▁亖佀们伹	-10.663
▁仈亣亭	-10.6634
▁仢亃于伕	-10.6638
京	-10.6643
亃仦仞	-10.6647
喽	-10.665
▁俑俒伜亜保二	-10.6654
亽亃佀	-10.6655
圤	-10.6655
哫	-10.6656
堛	-10.6656
▁卅儿	-10.6658
▁傂佫	-10.6659
▁伸亨信	-10.6663
▁仼倒	-10.6664
▁伳付	-10.6672
劯	-10.6676
▁佌则亚什	-10.6676
▁仙偰予侍佚	-10.6678
▁仐令事伜亜保二	-10.6678
倘佧付	-10.669
▁1952	-10.6697
▁仐仲伙仓	-10.6703
▁亖侻伋	-10.671
▁佇仌	-10.6714
▁仔仌侟二	-10.6723
▁亖伭亶亳	-10.673
▁剥剦仧	-10.6736
▁亖偂佄	-10.6739
▁仛兡仇	-10.6744
嗿	-10.6763
▁仛亡倘仇	-10.6764
▁以仌亡	-10.6769
▁冕亃	-10.6784
br	-10.6786
▁伇伈亜	-10.681
▁亓仦传	-10.6826
▁any	-10.6836
▁also	-10.6837
▁亓佋伹亚什	-10.6838
▁亩俜仓	-10.684
▁仼供	-10.6841
俓	-10.6848
▁亯倷俯	-10.6851
亷偘	-10.6855
叡	-10.6858
▁似代啈仇	-10.6864
▁俑偟仄	-10.6865
予传佳伙	-10.6867
劬	-10.6871
▁亐仦信	-10.6876
▁众偈佋	-10.6885
▁個仅	-10.6891
▁伻僘俍亥	-10.6898
嘕	-10.6898
▁保俈亡	-10.6898
▁亃仦予亣仅	-10.6899
位仠享仚	-10.6903
▁冢兂	-10.6905
ood	-10.6917
▁Ra	-10.692
▁僯俠仞	-10.6926
傽仚亾	-10.6929
凒	-10.6939
▁令二亍倩	-10.694
俵亂争	-10.6943
嚅	-10.6944
介争产	-10.6945
塐	-10.6946
▁亃仦佤冰	-10.6946
▁仐儐仌	-10.6953
▁仅他仧佳	-10.6967
▁俙仠倦二	-10.6967
▁冺仳	-10.6971
▁亵仠伫仅	-10.6971
啣	-10.6974
吖	-10.6974
▁佚吮争	-10.6974
▁傋伒	-10.6975
▁亝仠伹伶	-10.698
厸	-10.698
▁亚亨侮仛	-10.6981
8%	-10.6986
▁佚仍亡	-10.6989
▁pre	-10.699
▁亃偧來仓	-10.6994
▁亽予冱	-10.6995
▁以亯仌	-10.6996
仫	-10.6999
▁偶儌偖凈	-10.7008
▁众二佗	-10.7008
▁亖亜从	-10.7014
哙	-10.7027
哓	-10.7029
▁亖仭予侍	-10.7033
▁亽侨句	-10.7036
▁亖反亡	-10.7036
▁伍伙仅	-10.704
ava	-10.7043
军	-10.7047
兊倠	-10.705
▁二伜位亞	-10.7056
▁二亏亣从	-10.7056
▁争俪仧亳	-10.7058
亷亡仄	-10.7059
▁俉亓伎	-10.7064
▁仈亜伭	-10.7069
厦	-10.707
▁仸仆俔仞二	-10.707
▁仔亂俑	-10.707
佣佤	-10.7072
▁亚冾佚位俠仇	-10.708
卄	-10.7091
▁亍介佤仳	-10.7091
▁伱代伿	-10.7094
▁享予传仌佝	-10.7097
你	-10.7102
净	-10.7103
▁亖争亾亥事亥	-10.7105
夫	-10.7105
▁亖仌亂俉仓	-10.7105
▁亚仌但俶俷亡	-10.7106
▁仑俤井	-10.7119
▁伙亣事僒	-10.7126
▁侶伨亓亞	-10.7126
▁侧劷	-10.7128
呕	-10.713
▁伸侉二	-10.7133
▁偀侧劼	-10.714
俾	-10.7142
▁俢呰	-10.7143
▁俱争亶	-10.7147
▁偕予侍仞	-10.7148
▁仇俑亥	-10.7158
▁亮亶偀傱	-10.716
▁亖倵付亜	-10.7161
▁仈争倦	-10.7168
▁仵侮仞	-10.7175
▁亰列	-10.7181
▁仢冂亢仅	-10.7182
▁伬仚亯亡	-10.7182
▁亚亨侮仧	-10.7193
哤	-10.7195
▁亏仳亃产	-10.7196
▁凓偉佳	-10.7198
▁传亱倀	-10.7207
倏倫	-10.7209
亍倩	-10.7214
▁仉偉	-10.722
▁亖僥位亞	-10.7231
▁伭伉位亞	-10.7231
凟	-10.7231
仛任亾	-10.7241
▁今傯	-10.7242
偐	-10.7245
▁倎匦僟	-10.7245
▁亽偍伎亥	-10.7245
冯佶	-10.7248
▁伦倢	-10.7249
▁今佈俹	-10.7259
port	-10.7262
▁俺仐仯	-10.7263
▁亍于亏	-10.7267
▁凁佋产	-10.7274
同	-10.728
▁亚亨侮仞	-10.7284
▁们凫	-10.7293
▁侧仠凇	-10.7301
倦侭	-10.7314
▁亵伶	-10.7314
▁伌仐冞冰	-10.7316
▁仔亩伪	-10.7316
刊	-10.7323
▁亣令偞伹仅	-10.7323
▁任倇勎	-10.733
▁仐佶仍	-10.733
▁僯倲亭	-10.7331
傻	-10.7344
咀	-10.7344
▁仅他仞二	-10.7358
▁亚冾仞	-10.737
亚侨佶予	-10.7373
▁亃亡亯仓	-10.7373
▁dis	-10.7379
5,000	-10.738
▁亃仦众佈	-10.7381
▁任仅傍亶	-10.7401
Sub	-10.7423
▁偈偧	-10.743
▁亖亰亍仲二保	-10.7437
▁佋亜亃争保二	-10.744
mon	-10.7441
▁仙仚亾俷亡	-10.7444
▁亚于令予仌俩	-10.7451
▁佋僻仚	-10.7452
▁亚傯做仗	-10.7453
▁众亰仍	-10.7454
司	-10.7459
▁以从便伙亡	-10.7459
▁仌剑伸佈	-10.7466
听	-10.7466
吠	-10.7473
▁侮仚仄仓	-10.7482
▁亜众儠	-10.7487
ition	-10.7491
圪	-10.7495
▁傞亭	-10.7499
▁俙亡亯	-10.7499
▁互估圄	-10.7502
僂	-10.7505
▁have	-10.7509
冥	-10.7516
光	-10.7521
▁亏仳亼事保二	-10.7524
▁亽代争仳	-10.7524
▁侁佫仅	-10.7543
▁佚仅二仞伶	-10.7545
俢仌偉亚什	-10.7548
▁亽哒亚伹	-10.7553
▁凋予伅俐	-10.7553
介亶亚什	-10.7555
▁似价企	-10.7567
凾	-10.7574
商	-10.7574
塏	-10.7596
▁任口亭	-10.7597
▁亣僂仍亥亚	-10.7597
儰	-10.7599
卮	-10.7604
▁亮哼	-10.7604
▁亩亳亯仅	-10.7605
咧	-10.7611
▁令交傦仅	-10.7611
▁伌仌二	-10.7618
ack	-10.762
喅	-10.7626
夤	-10.7626
▁亖务亜	-10.7626
偃	-10.7633
▁剉仚仄	-10.764
▁俸争仳	-10.7648
▁先亶休	-10.7655
▁仢冂亢仓	-10.7662
亻亰侻	-10.7668
▁亓仍伈佋兙亚	-10.767
▁亚儊企	-10.7671
▁亖倵俬佋	-10.7677
噡	-10.7677
▁亣剤从	-10.7677
▁但冁亜	-10.7677
▁以从便	-10.7684
▁仔亢亦	-10.7699
▁令亡亯仯佳	-10.7706
▁仇俑亶	-10.7707
亢任仅	-10.7709
▁侧兗	-10.771
啮	-10.7729
▁倦争侐	-10.7734
兛	-10.7736
卍	-10.7736
▁倲亓争	-10.7742
▁亃仦伷來仓	-10.7743
俐亡亳	-10.7753
▁仌侮仧亡	-10.7758
▁佚仇仐	-10.7759
▁以仪仦	-10.776
▁仢你	-10.7764
仭代仸	-10.7781
▁传休侐	-10.7782
▁亃亚仛俶付	-10.7783
▁亂享僝	-10.779
▁俑二亏	-10.7791
亊亶亳	-10.7795
▁亽匐予亭	-10.7795
▁侻哖	-10.7811
▁侰凍企	-10.7811
▁伃侄	-10.7812
▁亚亨俪	-10.7812
▁亯伭亢仠	-10.782
儤	-10.7832
▁伌佇佚仭	-10.7833
▁伙亶叧二	-10.7833
▁亖佲争	-10.7835
▁仔伹仳	-10.7843
圢	-10.7848
▁佶剽	-10.7851
▁俑冀	-10.7851
▁傋代仦	-10.7852
▁仩侜	-10.7856
勻	-10.7863
▁仙俔仞二	-10.7863
▁亂仄二	-10.7868
▁亜争佗	-10.7872
▁侏伫仇	-10.7879
▁予众佤亭	-10.788
咔	-10.7885
▁侻侗仅	-10.7885
▁仕切亳	-10.7893
▁亽仑仦	-10.7895
▁仔仗仦	-10.7902
▁二争傂	-10.7908
▁伙冮亜	-10.7908
▁匍候	-10.7908
▁倐刂仇	-10.7915
俲	-10.7917
▁倦伌伜亶	-10.793
兇	-10.793
匄	-10.793
啞	-10.7946
僥	-10.7953
▁僴仼	-10.7953
▁仙倨亂倘仪	-10.7961
▁倐值付	-10.7961
佖	-10.7968
▁佺僖	-10.7969
▁亚亢争仳	-10.7969
▁俢企佼予亜	-10.7976
▁亇伭偒	-10.7976
▁伬嗼了	-10.7976
匉	-10.7978
冤	-10.7983
▁仔伢仄	-10.7987
嗐	-10.7991
▁劌入	-10.7991
▁仢俷事亚	-10.7996
儇	-10.7999
单	-10.7999
▁仛任亾伻	-10.8
▁倎仇亣	-10.8
▁僅亡仓	-10.8007
卪仚亾	-10.8009
傝	-10.801
亊单剤	-10.8014
▁倐仦侻	-10.8029
▁哨亭	-10.8033
▁仔俴俦	-10.8044
唋	-10.8052
▁亽仅伹亚什	-10.806
▁亽亡亯亡	-10.8061
▁亽仲亮	-10.8062
▁函俤偢予	-10.8067
▁仐佣佤仳	-10.8067
冁	-10.8083
▁亽俵亃兩	-10.8083
▁亽亮他	-10.8083
▁仞俁从	-10.8089
吲	-10.809
俚	-10.8109
▁予仅佳予	-10.8114
▁仐俖侍俪仇	-10.8117
▁代傜仅	-10.8119
▁僈侻亊仅	-10.8121
▁代佢伤匐亂	-10.8129
侃	-10.8129
▁予冽二	-10.8144
吼	-10.8152
▁伱伭予企	-10.8152
▁仐亴做	-10.8152
▁仐争佋仳	-10.816
▁佚亙亚	-10.816
叄	-10.8175
▁侮仚	-10.8181
▁仈倏仌亱	-10.8183
▁來仅但	-10.8185
厴	-10.8191
▁互俉亪	-10.8191
吾	-10.8215
▁仹伭來仓	-10.8217
▁倡亚亾仓	-10.8222
厡	-10.8229
▁仔侕仌二	-10.8237
▁伱仒仦倏	-10.8237
剭	-10.8237
▁亊伟俹	-10.8241
▁仌勗予侍	-10.8245
▁part	-10.8245
▁伶傏	-10.8245
ugh	-10.8261
▁倶倷	-10.8268
▁亖亊仲争仳	-10.8268
化	-10.8271
ount	-10.8271
俆仭亶仳	-10.8279
▁亖付佋佥	-10.8284
▁亂唻佀佤亭	-10.8289
▁亽兌佛	-10.8292
▁以仌亅伙	-10.83
▁凁亚亢亓	-10.83
▁仈亙仉	-10.83
▁伙佳予	-10.8302
▁刻侻企	-10.831
▁article	-10.8315
僽	-10.8319
▁仐仓倦二	-10.8324
▁侁作仞	-10.8324
▁亖亰亓仦	-10.8329
▁剥剦仞	-10.8331
▁俕亱亊仦亶	-10.8331
▁以亡仼	-10.8338
output	-10.8347
▁佢亃佉	-10.8347
▁侎倬伩	-10.8355
▁传侜偰任	-10.8362
吜	-10.8362
▁侚亱仯仅	-10.8363
▁冐倏冎	-10.837
偖仌亣事	-10.8376
▁佒众儢伅	-10.8378
▁偞侟二	-10.8386
▁亏仳二	-10.8387
▁亃但佺伿	-10.8394
▁other	-10.8394
▁代儯仦	-10.84
噗	-10.8402
▁倗偎	-10.8409
偾	-10.841
▁亩俩仓	-10.8412
▁亖侒啵	-10.8418
▁into	-10.8419
▁亚仌但俶付	-10.842
▁亓亣亓仦	-10.8426
▁伙係俐争亣仄	-10.8426
圇	-10.8426
▁亚儊仰	-10.8426
▁先亯兘亡	-10.8442
Q	-10.8442
▁但俣倐侻	-10.8442
▁众八亱	-10.8442
▁俆亱伸亡	-10.8442
▁亖俵亂亣从	-10.845
▁仐佋卂	-10.845
▁仄俷	-10.845
▁佅仛	-10.8451
友	-10.8457
▁什亥伊侻傿	-10.8458
▁予仓任	-10.8464
▁亖亡仚亶	-10.8474
▁信傌	-10.8489
▁伱佦俢	-10.8489
▁伱代亳	-10.8491
▁亍仔亐伹仅	-10.8497
▁亾俅伓仅	-10.8497
▁党伥代	-10.8497
▁亣亩事伪	-10.8505
▁gov	-10.8507
創	-10.8513
▁俑仯冀仼	-10.8513
▁亖仌亓亣	-10.8517
▁mw	-10.852
▁令亢伥亞佼伫企	-10.8521
▁仢仞亜	-10.8532
傡	-10.8545
嗗	-10.8545
▁亮亏個仅	-10.8545
▁侮仚仄仅	-10.8548
▁佋堷僺	-10.8553
▁僁佤劽	-10.8553
▁亃仦予亮	-10.8556
啳	-10.8586
▁亓俜佗仅	-10.8586
▁亜争仼二	-10.8586
parser	-10.8594
▁冠侻偿	-10.8596
▁儫仠仄仅	-10.861
▁予凄佚	-10.8611
圡	-10.8634
▁伸侉亚	-10.8634
▁亽仇亢亮	-10.8634
▁偶亶亮	-10.8636
▁凘侻仦	-10.8642
▁代佢伪	-10.8642
▁仐亚作	-10.8649
▁偶佫仄	-10.8651
▁喱伓佳	-10.8658
吮	-10.8667
▁仔儕产	-10.8667
会	-10.8671
▁佋亣冏	-10.8683
▁亚亮亜亮	-10.8683
唤	-10.8691
▁亓争今产	-10.8691
噉	-10.8699
厇	-10.8699
▁佒体亳伖仇	-10.8699
墼	-10.8707
剆	-10.8707
▁倫代侨	-10.8716
▁will	-10.8719
厊	-10.8724
啗	-10.8724
▁仐俗凬亍	-10.8724
儙	-10.8732
▁仔产亚俵	-10.8733
▁亚儳佡	-10.874
▁侺仌亊伹仲仦亜	-10.874
▁亚争亓二	-10.874
▁亖儡亜	-10.8741
劢	-10.8748
▁佋享倮伹	-10.8756
▁令亡仼倘偉亡	-10.8759
▁亣仍亚	-10.8768
▁亚仌但	-10.8772
儁	-10.8776
▁仮亏伪	-10.8781
▁仌勀佚	-10.8788
儷	-10.8789
侩	-10.8789
厗	-10.8814
伡傢	-10.8822
▁亃仦伸仅伙	-10.8831
▁仸伸事仓	-10.8839
▁仈件仸	-10.8839
▁传养仧亡	-10.8847
劼	-10.8847
▁予倚佈亶	-10.8855
▁仢哙前仞	-10.8856
▁以从予儆亳	-10.8857
偠	-10.8864
▁介亏仏卓	-10.888
▁僯侻众	-10.8889
向	-10.8897
▁任口亰	-10.8897
冀	-10.8901
▁仼亣仌俶	-10.8905
侫偝仼	-10.8906
▁佰亮	-10.8907
▁予亱佄仛	-10.8913
內	-10.8921
囋	-10.893
▁予代亱予	-10.893
佋仦佌	-10.8935
唍	-10.8938
亃俫佳	-10.8939
堿	-10.8947
具	-10.8947
劜	-10.8947
匛	-10.8959
▁伭估侻企	-10.8972
▁佒体争仗	-10.8978
▁you	-10.8979
哞	-10.898
▁倎刢亳	-10.898
▁俤佯代	-10.898
▁二傳佚	-10.8989
凐	-10.8989
▁亽厉倪	-10.899
兯	-10.8991
▁凘俤仓	-10.8997
壛	-10.9005
▁伓佳仅亡	-10.9014
圆	-10.9014
▁亽仐仦	-10.9016
▁俕仅佄仞	-10.9022
▁予佋伫	-10.9027
▁事令亩亚	-10.9031
▁侺吾	-10.9032
仡	-10.9035
▁such	-10.9039
▁仐偞亹伭伹	-10.9056
▁亽二予偝	-10.9065
▁二亏亣仓	-10.9065
▁匒了	-10.9079
▁倡亚亾仅	-10.9082
▁俈凂亳	-10.909
刳	-10.9098
▁亷倓仇	-10.9107
况	-10.9112
哒	-10.9115
▁亍偰仯从	-10.9115
▁仅他仛	-10.9124
▁但偿侐	-10.9129
佣	-10.913
券	-10.9132
▁亽亴佋仳	-10.9132
侄	-10.9139
▁亣傇亚什	-10.9141
▁亢俖仌	-10.9141
▁予亳仼	-10.9145
▁伳伴亶	-10.9158
▁儥令伎	-10.9158
▁亩倔代俇	-10.916
▁俑冨仞什冂	-10.9166
▁亂仌亱	-10.9173
▁仯冒亱予	-10.9175
埴	-10.9175
▁亽友事	-10.9175
▁亽亂债	-10.9176
▁亃仦佚事	-10.9178
▁仼二亡偧侍	-10.9184
▁亇凼二	-10.9184
▁仔侏俑倲偝	-10.9185
傇	-10.9191
▁亣事仅僻佋	-10.9192
▁亽創儖	-10.9192
▁儍亱仞	-10.9196
▁噄倏	-10.9201
▁仢亃于交俶俷亡	-10.9204
▁亃仦予亣仓	-10.9235
僕	-10.9244
▁仛亃低二	-10.9244
▁儕产	-10.9247
▁刅佋仌亮	-10.9252
妄	-10.9261
▁倦仐侹	-10.9261
▁亍伸俔仞	-10.9261
▁仐儐伜	-10.927
▁以仌仸	-10.927
▁亲仪仅亚	-10.9278
▁亏佋儖佚	-10.9278
▁伸侉付	-10.9278
▁仈变伊事	-10.9287
▁仢你冰仓	-10.9287
▁侮亓	-10.9299
▁刅分亳	-10.9304
▁代俇伎	-10.9306
▁亚亢亓僑佗仓	-10.9313
▁匣亜亪	-10.9313
▁仔仲亚	-10.9316
哨	-10.9317
▁伙吐仌	-10.9321
▁亍伌仐	-10.9322
▁侴偮	-10.9323
俇	-10.9325
冋	-10.933
垏	-10.933
▁仐仍俒	-10.933
僛	-10.9339
匘	-10.9348
勽	-10.9356
▁争伥倽	-10.9358
即	-10.9374
啜	-10.9374
▁伎俗仅	-10.94
亓佋伟亥	-10.9405
▁令冤俪仇	-10.9409
▁亣价仌	-10.9409
吉	-10.9426
▁卮估企	-10.9435
仧凂亳	-10.9435
▁佷事亢仇	-10.9435
仮仯仅	-10.9436
僈	-10.9441
▁亍伸俔仧	-10.9444
▁仪仅偘	-10.9444
坶	-10.9452
▁仐仵佗仓	-10.9452
▁倲仦係	-10.9453
▁佨仑亣	-10.9462
▁亽仅伹从	-10.9463
▁亓佋亂休二	-10.947
叠	-10.947
免	-10.9477
▁亖侹刣伭亶	-10.9479
▁亜交伎亜	-10.9479
▁仢亃仦亜仭	-10.9488
▁二仚仅	-10.9491
▁傦亏	-10.9493
▁匎侐	-10.9494
喨	-10.9497
▁佭仓仼	-10.95
伌亏亢	-10.95
▁亃仦伤亩	-10.9505
▁俓亃佃	-10.9506
▁亃仠佋争	-10.9506
刬	-10.9514
卷	-10.9514
▁亚于令予	-10.9523
仿劾兵	-10.9523
▁仔亩伤仅	-10.9523
▁僽争亢	-10.9524
▁仍亚交	-10.9525
▁仔亊俔	-10.9531
吰	-10.9576
匭	-10.9603
侸	-10.9621
傧	-10.963
偦	-10.963
哂	-10.9639
媲	-10.9639
卫	-10.9684
厩	-10.9684
匟	-10.9702
唸	-10.9709
嗚	-10.9711
哃	-10.972
僀	-10.9728
偹	-10.9729
傄	-10.9736
勓	-10.9747
咰	-10.9747
凙	-10.9765
労	-10.9765
唽	-10.9792
俳	-10.9818
伽	-10.982
口	-10.9828
喐	-10.9838
伺	-10.9838
剕	-10.9838
哌	-10.9847
压	-10.9911
區	-10.9928
哊	-10.9939
刈	-10.9957
咠	-10.9966
匐	-10.9966
叆	-10.9985
坉	-10.9985
剈	-11.0022
圴	-11.006
凝	-11.0078
凞	-11.0088
哽	-11.0088
唬	-11.0088
哭	-11.0097
喱	-11.0097
叽	-11.0125
倾	-11.0129
劾	-11.0144
哕	-11.0153
員	-11.0172
僲	-11.0172
嚭	-11.022
伞	-11.0239
兠	-11.0267
叭	-11.0277
唙	-11.0277
匣	-11.0285
僊	-11.0305
兏	-11.0353
卶	-11.0353
凫	-11.0356
函	-11.0363
媕	-11.0363
圓	-11.0373
僨	-11.0392
廲	-11.0402
卋	-11.0416
唳	-11.0421
叫	-11.0489
厍	-11.0528
匊	-11.0538
嘇	-11.0567
呾	-11.0577
南	-11.058
塤	-11.0597
啛	-11.0617
啙	-11.0646
噝	-11.0676
垜	-11.0706
勦	-11.0719
圫	-11.0756
凕	-11.0756
刴	-11.0766
剫	-11.0766
唄	-11.0776
勬	-11.0786
呸	-11.0796
劓	-11.0834
刨	-11.0856
勐	-11.0856
去	-11.0897
卓	-11.0928
圯	-11.0928
卒	-11.0948
坣	-11.0968
兣	-11.0999
命	-11.1009
喖	-11.1009
势	-11.1088
呲	-11.1144
啊	-11.1175
唴	-11.1186
埽	-11.1186
亟	-11.1227
励	-11.1238
咶	-11.1238
儚	-11.1248
厪	-11.1259
兦	-11.127
匠	-11.127
壘	-11.127
兔	-11.1291
匢	-11.1301
冈	-11.1365
嗾	-11.1365
咣	-11.1376
哱	-11.1386
哲	-11.1408
啈	-11.1429
剌	-11.144
勛	-11.1472
堣	-11.1472
嚂	-11.1515
危	-11.1526
厅	-11.1537
冚	-11.1564
動	-11.158
坵	-11.1602
儂	-11.1624
壷	-11.1667
咹	-11.1689
呞	-11.1689
圹	-11.1722
吨	-11.1756
值	-11.1777
佔	-11.1822
哰	-11.1845
刁	-11.1867
勌	-11.1878
婞	-11.1878
嗋	-11.1901
偲	-11.1912
夦	-11.1923
嗙	-11.1934
反	-11.1991
匶	-11.1991
夣	-11.2025
傕	-11.2035
墶	-11.2036
勢	-11.2059
唝	-11.207
善	-11.207
圃	-11.2139
偻	-11.2151
坻	-11.2174
咅	-11.2197
q	-11.2238
咖	-11.2255
厚	-11.2255
國	-11.2266
匹	-11.2278
侾	-11.2278
咇	-11.229
埿	-11.229
寳	-11.229
坪	-11.2301
供	-11.2307
塁	-11.2313
噢	-11.236
尵	-11.2372
儶	-11.2401
叙	-11.2406
圖	-11.2407
J	-11.2428
唜	-11.2431
唚	-11.2443
匓	-11.2455
伄	-11.2466
囓	-11.2478
劤	-11.2514
侠	-11.255
娙	-11.2562
#	-11.2634
兘	-11.2646
坤	-11.2658
墤	-11.2695
壙	-11.2707
刧	-11.2719
坞	-11.2719
傢	-11.273
刵	-11.2731
啉	-11.2731
勹	-11.2744
劳	-11.2756
厰	-11.2768
塌	-11.2768
剰	-11.278
劃	-11.278
厽	-11.2817
喜	-11.2842
嗖	-11.2867
^	-11.2867
判	-11.2879
句	-11.2891
堳	-11.2891
吻	-11.2916
务	-11.2928
凖	-11.2941
墯	-11.2954
`	-11.2979
嚙	-11.3029
冺	-11.3053
嚁	-11.3092
嘐	-11.3104
墰	-11.3219
坄	-11.3232
嗫	-11.327
嘅	-11.3283
叏	-11.3292
嗊	-11.3296
冩	-11.3309
关	-11.332
吐	-11.3348
剒	-11.3348
匦	-11.3348
剂	-11.3361
嘤	-11.3387
儛	-11.3422
劻	-11.3426
哻	-11.3465
兗	-11.3473
叾	-11.3479
勺	-11.3502
兮	-11.3513
倧	-11.3518
傤	-11.3531
儎	-11.3545
匝	-11.3558
噋	-11.3584
劭	-11.3584
厬	-11.3597
咑	-11.3598
启	-11.3611
哹	-11.3611
佩	-11.3624
侉	-11.3637
别	-11.3638
吒	-11.3651
刼	-11.3689
咾	-11.3704
唾	-11.3705
堻	-11.3705
卪	-11.3717
侖	-11.3732
婕	-11.3732
囏	-11.3745
劸	-11.3772
儝	-11.3772
勄	-11.3799
劋	-11.3813
嘯	-11.3826
堄	-11.384
啭	-11.3854
咩	-11.3881
刀	-11.3895
塝	-11.3922
圗	-11.3936
侘	-11.3991
堲	-11.4005
喤	-11.4019
另	-11.4075
吕	-11.4089
嗽	-11.4103
呋	-11.4159
刚	-11.4173
偅	-11.4192
圍	-11.4215
儬	-11.4229
婠	-11.4272
働	-11.4286
奺	-11.4286
匰	-11.4291
坨	-11.43
块	-11.4315
僳	-11.4333
吳	-11.4343
夨	-11.4343
圉	-11.4358
儻	-11.4372
勱	-11.4401
圷	-11.4401
冻	-11.4444
印	-11.4502
噽	-11.4517
奬	-11.4517
侢	-11.4589
刱	-11.459
僅	-11.463
劖	-11.4634
壖	-11.4634
勗	-11.4664
却	-11.4664
哉	-11.4664
堇	-11.4693
媁	-11.4693
剁	-11.4708
咬	-11.4738
唺	-11.4753
呈	-11.4798
圞	-11.4813
医	-11.4828
匔	-11.4843
哎	-11.4919
儸	-11.4934
厵	-11.4934
凥	-11.4964
劣	-11.501
嘠	-11.501
協	-11.5026
坏	-11.5026
垚	-11.5026
囱	-11.5056
僆	-11.5071
伔	-11.5087
吶	-11.5103
儋	-11.5149
勔	-11.5165
俧	-11.518
参	-11.518
嶒	-11.5196
宊	-11.5211
哷	-11.5259
圳	-11.5259
堼	-11.5259
塭	-11.5274
圵	-11.5274
冗	-11.5285
吱	-11.5306
唕	-11.5306
分	-11.5322
喓	-11.5322
佱	-11.5337
夂	-11.5353
墑	-11.5401
唛	-11.5449
喁	-11.5465
卯	-11.5488
勩	-11.5497
坦	-11.5497
呻	-11.5513
嘦	-11.5545
囫	-11.5545
嗝	-11.5578
唿	-11.5594
啯	-11.5659
妠	-11.5659
包	-11.5661
冃	-11.5665
坽	-11.5692
嚹	-11.5725
吔	-11.5758
厎	-11.5768
嗰	-11.5774
堤	-11.5824
墲	-11.5824
壡	-11.5824
式	-11.5857
嚑	-11.5874
在	-11.5874
嗅	-11.5891
堍	-11.5891
塱	-11.5891
剠	-11.5908
剎	-11.5924
嗷	-11.5975
嘰	-11.6009
劆	-11.6026
噅	-11.6043
噛	-11.6043
嗂	-11.606
塍	-11.606
嗮	-11.6077
噂	-11.6077
俸	-11.6093
>	-11.6111
妍	-11.6162
嚠	-11.6197
咚	-11.6197
坝	-11.6214
墀	-11.6214
僶	-11.6249
坚	-11.6249
刓	-11.6318
厈	-11.6318
單	-11.6318
僣	-11.6323
侈	-11.6336
垈	-11.6336
喺	-11.6388
埑	-11.6388
堎	-11.6388
决	-11.6406
厛	-11.6406
啒	-11.6424
刿	-11.6459
倝	-11.6467
傫	-11.6471
剳	-11.6477
堌	-11.6477
厯	-11.6512
伐	-11.6548
嚱	-11.6548
嚌	-11.6566
坱	-11.6566
嬮	-11.6584
勮	-11.66
俿	-11.6632
坢	-11.6638
址	-11.6656
垐	-11.6656
噥	-11.6674
周	-11.6765
啄	-11.6765
噏	-11.6801
屇	-11.6801
偳	-11.682
坯	-11.6838
兽	-11.6874
儓	-11.6893
割	-11.693
嚿	-11.6968
墚	-11.6986
墋	-11.7024
剅	-11.7043
塔	-11.7043
削	-11.7043
夽	-11.708
啲	-11.7137
嗴	-11.7137
啔	-11.7156
堝	-11.7175
婴	-11.7194
償	-11.7202
冠	-11.7222
古	-11.7232
唠	-11.7232
嘚	-11.7232
尞	-11.7232
啥	-11.727
児	-11.727
嬓	-11.7309
垠	-11.7367
坿	-11.7367
姰	-11.7445
囬	-11.7464
劗	-11.7464
唌	-11.7464
姯	-11.7504
啧	-11.7504
先	-11.752
呖	-11.7523
墔	-11.7543
厼	-11.7563
呹	-11.7563
喫	-11.7563
墐	-11.7622
嚎	-11.7642
堈	-11.7682
嚜	-11.7702
孊	-11.7722
堁	-11.7722
夳	-11.7722
妓	-11.7722
嘍	-11.7743
嚴	-11.7783
劂	-11.7803
卑	-11.7844
岵	-11.7844
塪	-11.7864
俻	-11.7885
匱	-11.7905
別	-11.7946
喴	-11.7946
喌	-11.7967
兀	-11.7973
哚	-11.7987
培	-11.7987
墛	-11.8029
圊	-11.8049
奯	-11.807
劺	-11.8112
匮	-11.8133
嚫	-11.8154
唑	-11.8175
娬	-11.8175
僿	-11.8217
吃	-11.8217
咙	-11.8217
嵹	-11.8217
娪	-11.8259
力	-11.828
尿	-11.8302
唎	-11.8323
喵	-11.8344
宩	-11.8344
妦	-11.8344
姸	-11.8366
唏	-11.8387
噌	-11.8387
叅	-11.8409
圠	-11.843
兡	-11.8494
品	-11.8495
噷	-11.8517
実	-11.8517
嗛	-11.8539
冏	-11.8561
刟	-11.8604
呌	-11.8604
哆	-11.8604
啦	-11.8626
吀	-11.8759
哗	-11.8782
@	-11.8849
售	-11.8849
嗄	-11.8871
噳	-11.8871
劔	-11.8894
倁	-11.8917
劁	-11.8917
咼	-11.8917
嚋	-11.8917
嘙	-11.8939
凩	-11.8962
婟	-11.8962
壐	-11.8985
奷	-11.9008
呄	-11.9076
仟	-11.9123
剏	-11.9169
壩	-11.9169
嚐	-11.9192
剞	-11.9215
子	-11.9215
必	-11.9215
圱	-11.9215
崠	-11.9239
垉	-11.9262
嫄	-11.9309
再	-11.9333
园	-11.9356
噶	-11.938
妨	-11.9452
兞	-11.9476
喘	-11.9476
喗	-11.9524
噍	-11.9524
孁	-11.9524
啍	-11.962
嘥	-11.962
嗦	-11.962
唨	-11.9645
啐	-11.9645
召	-11.9677
匙	-11.9693
帆	-11.9718
哖	-11.9742
兄	-11.9743
咃	-11.9767
墻	-11.9767
偫	-11.9792
域	-11.9792
凨	-11.9841
墓	-11.9841
埵	-11.9866
呪	-11.9891
坠	-11.9891
囍	-11.9916
妔	-11.9916
劝	-11.9941
僴	-11.9965
嚪	-11.9966
屆	-11.9992
侶	-12.0004
唅	-12.0017
妉	-12.0042
啘	-12.0064
噆	-12.0068
孌	-12.0068
婌	-12.0119
勎	-12.0142
埼	-12.0144
$	-12.0161
壦	-12.0195
囎	-12.0221
哔	-12.0247
伾	-12.0247
侅	-12.0257
呿	-12.0273
嘑	-12.0299
仴	-12.0325
啩	-12.0325
嚓	-12.0325
墟	-12.0351
媡	-12.0351
和	-12.0403
咯	-12.0422
匽	-12.043
垢	-12.043
喩	-12.0456
囿	-12.0456
哺	-12.0483
帧	-12.0483
哼	-12.0508
喭	-12.0509
吆	-12.0536
婸	-12.0536
冑	-12.0562
壿	-12.0562
倯	-12.0562
墱	-12.0589
忯	-12.0589
右	-12.0616
厝	-12.0643
啇	-12.0643
垆	-12.067
俨	-12.0697
唥	-12.0751
嫡	-12.0751
填	-12.0778
妢	-12.0778
嚚	-12.0806
傣	-12.0828
傑	-12.086
勴	-12.0861
告	-12.0861
囩	-12.0861
奋	-12.0888
囊	-12.0888
君	-12.0943
匸	-12.0971
嗌	-12.0971
墏	-12.0999
妴	-12.0999
媒	-12.1027
咒	-12.1027
寝	-12.1027
奴	-12.1027
儴	-12.1045
喹	-12.1055
奀	-12.1055
哛	-12.1055
嘽	-12.1083
垝	-12.1083
咞	-12.1111
唡	-12.1111
埛	-12.1111
嗩	-12.114
孫	-12.114
嫆	-12.1168
奱	-12.1168
尴	-12.1225
匥	-12.1253
劵	-12.1253
壌	-12.1253
媾	-12.1253
兢	-12.1282
嗸	-12.1282
妌	-12.1282
埙	-12.1311
妺	-12.1311
坮	-12.134
婘	-12.1368
匆	-12.1426
俛	-12.1479
噧	-12.1485
契	-12.1485
宧	-12.1485
夥	-12.1485
囇	-12.1514
圬	-12.1514
岅	-12.1514
峹	-12.1514
唒	-12.1573
夯	-12.1573
孪	-12.1573
尢	-12.1573
嵆	-12.1573
亄	-12.1603
坖	-12.1603
巗	-12.1603
囶	-12.1632
埥	-12.1632
妖	-12.1632
嫳	-12.1632
劑	-12.1662
夹	-12.1662
嫿	-12.1662
哟	-12.1692
崐	-12.1692
妃	-12.1692
坛	-12.1722
嵺	-12.1722
嘲	-12.1752
奪	-12.1752
墂	-12.1752
傽	-12.1781
倕	-12.1782
史	-12.1782
场	-12.1782
孞	-12.1782
卤	-12.1812
圄	-12.1812
噿	-12.1812
囷	-12.1843
呇	-12.1843
圭	-12.1873
儉	-12.1873
卟	-12.1873
匬	-12.1873
哧	-12.1903
岜	-12.1934
仝	-12.1965
土	-12.1965
幏	-12.1996
僖	-12.2025
巚	-12.2026
奙	-12.2057
営	-12.2088
喷	-12.212
始	-12.212
嗏	-12.2151
奦	-12.2182
尸	-12.2214
卐	-12.2245
問	-12.2245
喾	-12.2268
嫒	-12.2277
寨	-12.2309
~	-12.2372
奫	-12.2372
冼	-12.2403
嬋	-12.2404
岢	-12.2404
少	-12.2437
头	-12.2469
嬢	-12.2469
厏	-12.2501
嗤	-12.2501
圁	-12.2501
啴	-12.2566
嘪	-12.2698
堡	-12.2698
婥	-12.2698
囮	-12.2698
彠	-12.2731
嘊	-12.2764
呫	-12.2764
媔	-12.2764
卽	-12.2797
姙	-12.2797
唣	-12.2831
妥	-12.2831
娺	-12.2831
佬	-12.2864
劚	-12.2898
哝	-12.2898
嗻	-12.2898
夘	-12.2898
喏	-12.2898
垃	-12.2898
哐	-12.2898
味	-12.2932
卵	-12.2932
吥	-12.2932
垟	-12.2932
孟	-12.2932
卦	-12.2966
嚢	-12.2966
凤	-12.3033
塜	-12.3034
娆	-12.3034
寣	-12.3034
刪	-12.3068
噙	-12.3068
嚳	-12.3068
峜	-12.3068
儒	-12.3102
堾	-12.3102
圿	-12.3137
塠	-12.3137
垽	-12.3171
媅	-12.3171
嘢	-12.3206
埶	-12.3206
孲	-12.3241
冊	-12.3276
囻	-12.3276
埰	-12.3276
婔	-12.3276
崖	-12.3276
奤	-12.3311
嶟	-12.3311
凯	-12.3346
壼	-12.3346
嶞	-12.3346
奄	-12.3346
傐	-12.337
吝	-12.3417
呍	-12.3417
儧	-12.3453
呛	-12.3453
喼	-12.3453
埆	-12.3488
奂	-12.3488
囜	-12.3524
嫐	-12.3524
屛	-12.3524
嬵	-12.356
娾	-12.3596
尯	-12.3632
嵿	-12.3632
澨	-12.3632
姒	-12.3632
叛	-12.3669
劉	-12.3705
哜	-12.3705
噰	-12.3705
吇	-12.3742
喯	-12.3742
嗠	-12.3742
尻	-12.3742
嬻	-12.3779
媴	-12.3816
孯	-12.3816
寇	-12.3816
囉	-12.3816
佾	-12.3853
噖	-12.3853
噺	-12.3853
埩	-12.389
墮	-12.389
塰	-12.389
壗	-12.3927
抆	-12.3927
堬	-12.3927
囯	-12.3965
坈	-12.4002
嫺	-12.4002
唧	-12.404
可	-12.4078
加	-12.4116
嶑	-12.4116
剓	-12.4154
刮	-12.4154
倶	-12.4192
岀	-12.4192
抹	-12.4192
噠	-12.4231
劅	-12.4231
嬫	-12.4231
凌	-12.4269
尛	-12.4269
婜	-12.4308
坥	-12.4308
勫	-12.4347
導	-12.4347
堯	-12.4347
墷	-12.4347
勿	-12.4381
嬾	-12.4386
嚞	-12.4425
漡	-12.4425
噟	-12.4425
坃	-12.4425
度	-12.4465
嘞	-12.4504
囸	-12.4504
埅	-12.4544
墬	-12.4544
姻	-12.4544
审	-12.4544
壤	-12.4584
媟	-12.4584
堙	-12.4624
奲	-12.4624
勯	-12.4642
呢	-12.4664
娩	-12.4664
噀	-12.4704
墁	-12.4704
叜	-12.4745
嗬	-12.4745
堊	-12.4745
媬	-12.4745
帐	-12.4785
忒	-12.4785
囀	-12.4826
唇	-12.4867
对	-12.4867
奝	-12.4908
執	-12.4908
姆	-12.4908
尬	-12.4908
十	-12.495
垵	-12.495
妗	-12.495
叒	-12.4991
哈	-12.4991
墝	-12.5033
嫘	-12.5033
孏	-12.5075
器	-12.5117
刍	-12.5159
嬉	-12.5159
単	-12.5201
匼	-12.5244
嵏	-12.5244
吷	-12.5329
奧	-12.5329
娜	-12.5329
孷	-12.5329
弁	-12.5459
囐	-12.5459
圅	-12.5503
儞	-12.5547
嚻	-12.5547
(	-12.5591
嗞	-12.5591
峁	-12.5591
巖	-12.5591
忨	-12.5591
冭	-12.5635
喡	-12.5635
幰	-12.5635
卾	-12.568
堪	-12.568
密	-12.568
椿	-12.568
圲	-12.5724
坫	-12.5724
嬙	-12.5724
惄	-12.5724
劥	-12.5769
妙	-12.5769
基	-12.5814
尶	-12.5814
嗎	-12.5859
媊	-12.5859
唞	-12.5905
姅	-12.5905
喪	-12.5905
埘	-12.5905
壮	-12.595
婳	-12.595
州	-12.595
叕	-12.5996
冉	-12.5996
哀	-12.5996
嘓	-12.5996
嚶	-12.5996
図	-12.6042
寄	-12.6089
寺	-12.6089
媀	-12.6135
嫧	-12.6135
岹	-12.6135
処	-12.6182
匨	-12.6182
夲	-12.6182
勅	-12.6229
帊	-12.6229
嘜	-12.6276
噕	-12.6276
喛	-12.6323
夌	-12.6323
幍	-12.6323
凎	-12.6419
士	-12.6467
刑	-12.6515
夛	-12.6515
剡	-12.6515
嚔	-12.6564
墢	-12.6564
峐	-12.6564
勂	-12.6613
夢	-12.6613
妕	-12.6613
塖	-12.6662
娇	-12.6662
峰	-12.6662
婺	-12.6662
僪	-12.6698
埧	-12.6711
孴	-12.6711
喃	-12.6711
嚬	-12.6711
姱	-12.6711
娝	-12.6711
屣	-12.6711
姇	-12.676
孥	-12.676
媍	-12.681
堘	-12.681
巠	-12.691
涊	-12.691
吭	-12.691
呵	-12.6961
囧	-12.6961
庩	-12.6961
楳	-12.7012
厷	-12.7012
嘄	-12.7012
墵	-12.7012
壚	-12.7012
娦	-12.7012
堷	-12.7063
埍	-12.7063
嬠	-12.7063
屸	-12.7063
妮	-12.7063
媪	-12.7063
姽	-12.7114
嫙	-12.7114
徔	-12.7114
嗭	-12.7166
埝	-12.7166
墊	-12.7166
多	-12.7166
嬇	-12.7166
勈	-12.7217
媮	-12.7217
嚃	-12.7269
巿	-12.7269
娟	-12.7269
堢	-12.7322
堺	-12.7322
咿	-12.7322
壶	-12.7322
官	-12.7322
怽	-12.7374
孓	-12.7427
婋	-12.7427
叶	-12.7481
宵	-12.7481
劐	-12.7534
咸	-12.7534
孭	-12.7534
寮	-12.7534
垇	-12.7588
奥	-12.7588
姝	-12.7588
[	-12.7642
嬕	-12.7642
困	-12.7696
囹	-12.7696
坎	-12.7696
堑	-12.7751
嗨	-12.7806
娨	-12.7806
媨	-12.7806
峱	-12.7806
呴	-12.7861
嫸	-12.7861
宔	-12.7861
垯	-12.7917
备	-12.7917
奒	-12.7917
婻	-12.7917
媞	-12.7917
咳	-12.7972
坺	-12.7972
噴	-12.8029
姑	-12.8029
忑	-12.8029
吡	-12.8029
嚗	-12.8029
巳	-12.8029
巊	-12.8085
唐	-12.8142
咏	-12.8142
堖	-12.8142
昭	-12.8142
囄	-12.8199
够	-12.8199
尤	-12.8199
屾	-12.8199
孺	-12.8257
墳	-12.8257
婱	-12.8257
奉	-12.8314
唆	-12.8314
墡	-12.8314
娧	-12.8373
嬬	-12.8373
岁	-12.8373
埳	-12.8373
岲	-12.8431
垬	-12.8431
埪	-12.8431
廖	-12.8431
劍	-12.849
垣	-12.849
尙	-12.849
嶗	-12.849
哩	-12.8549
剚	-12.8549
咢	-12.8549
壈	-12.8549
尌	-12.8549
帢	-12.8549
庚	-12.8549
滐	-12.8549
屵	-12.8608
妭	-12.8609
帋	-12.8609
孙	-12.8668
喟	-12.8668
噱	-12.8668
夝	-12.8668
夷	-12.8668
威	-12.8668
寪	-12.8668
寲	-12.8668
娋	-12.8668
愉	-12.8668
唶	-12.8729
吵	-12.8729
啱	-12.8729
埓	-12.8729
埣	-12.8729
姞	-12.8729
孠	-12.8729
宨	-12.8729
寞	-12.8729
尣	-12.8729
姥	-12.8789
嶥	-12.8789
剿	-12.885
棽	-12.885
嬎	-12.8912
庄	-12.8912
咥	-12.8912
壇	-12.8912
庑	-12.8912
呷	-12.8973
惆	-12.8973
抻	-12.8973
媓	-12.8973
巓	-12.9035
塚	-12.9035
寧	-12.9098
外	-12.9098
奏	-12.9098
圮	-12.9161
囈	-12.9161
垊	-12.9161
塾	-12.9161
坑	-12.9161
啚	-12.9224
圛	-12.9224
弎	-12.9224
动	-12.9288
店	-12.9288
岙	-12.9352
堞	-12.9352
娴	-12.9352
寱	-12.9352
崧	-12.9352
悏	-12.9352
垥	-12.9416
往	-12.9416
垖	-12.9416
壪	-12.9416
嗥	-12.9416
慬	-12.9481
孅	-12.9481
塅	-12.9481
娭	-12.9481
婊	-12.9481
嫱	-12.9481
曈	-12.9481
墆	-12.9547
懼	-12.9547
奟	-12.9547
勶	-12.9612
卙	-12.9612
埦	-12.9612
卿	-12.9678
唪	-12.9679
咤	-12.9679
嫁	-12.9679
宏	-12.9679
愭	-12.9679
呼	-12.9745
峵	-12.9745
胏	-12.9745
唀	-12.9745
剔	-12.9812
志	-12.988
咕	-12.988
嘆	-12.988
埾	-12.988
恄	-12.988
彁	-12.9948
取	-12.9948
嗕	-12.9948
嵤	-12.9948
废	-12.9948
恥	-12.9948
岬	-13.0017
忁	-13.0017
怎	-13.0017
忔	-13.0017
哠	-13.0086
嚖	-13.0086
嚦	-13.0086
塮	-13.0086
娉	-13.0086
娑	-13.0086
屡	-13.0086
匜	-13.0086
冖	-13.0155
愂	-13.0155
劀	-13.0225
啟	-13.0225
坸	-13.0225
塼	-13.0225
搁	-13.0225
嚡	-13.0295
奅	-13.0295
帬	-13.0295
允	-13.0327
則	-13.0355
宪	-13.0366
夓	-13.0366
嬹	-13.0366
巭	-13.0366
孱	-13.0438
圎	-13.051
怶	-13.051
懵	-13.051
协	-13.051
囼	-13.0582
妞	-13.0582
婄	-13.0582
凡	-13.0582
卸	-13.0582
吟	-13.0582
圈	-13.0582
坟	-13.0582
垼	-13.0582
堔	-13.0582
堥	-13.0582
嫃	-13.0582
嬂	-13.0582
尨	-13.0582
囝	-13.0655
娅	-13.0655
娽	-13.0655
储	-13.071
喇	-13.0729
唵	-13.0729
嘘	-13.0729
堜	-13.0729
嶴	-13.0729
彭	-13.0729
啅	-13.0803
巯	-13.0877
唟	-13.0877
嘮	-13.0877
孰	-13.0877
峼	-13.0877
崬	-13.0877
喂	-13.0939
媃	-13.0953
嬞	-13.0953
嶛	-13.0953
庡	-13.0953
喈	-13.1028
噇	-13.1028
埐	-13.1028
奆	-13.1028
婏	-13.1028
媧	-13.1028
岖	-13.1028
壄	-13.1105
嗔	-13.1105
妡	-13.1105
妣	-13.1105
挢	-13.1105
柧	-13.1105
射	-13.1105
帯	-13.1105
嬴	-13.1182
弮	-13.1182
孛	-13.1182
嶻	-13.1182
庎	-13.1182
弥	-13.1182
媦	-13.1259
塯	-13.1259
岞	-13.1259
幺	-13.1259
庶	-13.1259
很	-13.1259
得	-13.1259
憀	-13.1259
巡	-13.1259
又	-13.1329
塓	-13.1337
婤	-13.1337
岡	-13.1337
廵	-13.1337
撖	-13.1337
刽	-13.1409
嘩	-13.1416
妇	-13.1416
岶	-13.1416
攰	-13.1416
墘	-13.1416
嫼	-13.1416
唲	-13.1495
圝	-13.1495
墹	-13.1495
娤	-13.1495
啋	-13.1495
唦	-13.1575
卜	-13.1575
埏	-13.1575
峮	-13.1575
峷	-13.1575
劰	-13.1656
尼	-13.1656
幪	-13.1656
坓	-13.1656
卖	-13.1737
埜	-13.1737
塨	-13.1737
宲	-13.1737
巢	-13.1737
擟	-13.1737
吙	-13.1737
嗺	-13.1819
尫	-13.1819
弄	-13.1819
悐	-13.1819
怓	-13.1819
唻	-13.1902
厃	-13.1902
嫣	-13.1902
崫	-13.1902
姂	-13.1902
忢	-13.1902
妲	-13.1985
姃	-13.1985
崗	-13.1985
喣	-13.2069
坡	-13.2069
嫖	-13.2069
寕	-13.2069
欝	-13.2069
庢	-13.2154
姠	-13.2154
嫲	-13.2154
宍	-13.2154
慴	-13.2154
埸	-13.2154
嬖	-13.2154
憿	-13.2154
極	-13.2239
<	-13.2239
嘶	-13.2239
失	-13.2239
婈	-13.2239
媭	-13.2239
嬿	-13.2239
慮	-13.2326
寉	-13.2326
嶕	-13.2326
怸	-13.2326
剪	-13.2326
塆	-13.2326
壟	-13.2326
娹	-13.2326
嫕	-13.2326
岋	-13.2326
湠	-13.2326
年	-13.2413
咓	-13.2413
幹	-13.2413
唘	-13.2413
嗓	-13.2413
孿	-13.2413
岾	-13.2413
忩	-13.2413
怋	-13.2413
怖	-13.2413
戞	-13.2413
搈	-13.2413
喕	-13.2413
匈	-13.25
半	-13.25
圌	-13.25
埚	-13.25
婹	-13.25
嬊	-13.25
寜	-13.25
嵧	-13.25
懹	-13.25
楸	-13.2589
屔	-13.2589
嗡	-13.2589
宐	-13.2589
待	-13.2589
愅	-13.2589
啓	-13.2616
嫝	-13.2678
寙	-13.2678
嵪	-13.2678
嶍	-13.2678
廝	-13.2678
啢	-13.2678
宂	-13.2678
滘	-13.2768
妶	-13.2768
叔	-13.2768
垑	-13.2768
堒	-13.2768
庽	-13.2768
宗	-13.2768
希	-13.2859
嶪	-13.2859
堩	-13.2859
姖	-13.2859
媫	-13.2859
廞	-13.2859
囆	-13.2951
埲	-13.2951
嬁	-13.2951
寛	-13.2951
巇	-13.2951
帍	-13.2951
幁	-13.2951
揕	-13.2951
噲	-13.2951
囗	-13.2951
塘	-13.2951
忪	-13.2951
埃	-13.3043
噸	-13.3043
夞	-13.3043
娄	-13.3043
廣	-13.3043
宮	-13.3043
徚	-13.3043
忺	-13.3043
嬒	-13.3043
忏	-13.3043
劦	-13.3137
呯	-13.3137
塕	-13.3137
妳	-13.3137
宿	-13.3137
庪	-13.3137
廠	-13.3137
槤	-13.3137
墺	-13.3137
巒	-13.3137
慩	-13.3231
娃	-13.3231
孹	-13.3231
喠	-13.3231
塴	-13.3231
姕	-13.3231
崳	-13.3231
嵽	-13.3231
廱	-13.3231
摾	-13.3231
号	-13.3326
嘒	-13.3326
坁	-13.3326
堦	-13.3326
墴	-13.3326
婛	-13.3326
寅	-13.3326
尉	-13.3326
崀	-13.3326
喬	-13.3423
嚄	-13.3423
垻	-13.3423
廉	-13.3423
忙	-13.3423
斜	-13.3423
吘	-13.3423
壽	-13.3423
媝	-13.3423
嶈	-13.3423
嶝	-13.3423
厧	-13.352
噜	-13.352
处	-13.352
夗	-13.352
岭	-13.352
彞	-13.352
怩	-13.352
嗲	-13.3618
嘹	-13.3618
岯	-13.3618
幟	-13.3618
廰	-13.3618
廸	-13.3618
悤	-13.3618
挭	-13.3618
哬	-13.3717
垁	-13.3717
墦	-13.3717
峾	-13.3717
嶡	-13.3717
廽	-13.3717
径	-13.3717
彙	-13.3817
囃	-13.3817
嬯	-13.3817
嬷	-13.3817
庀	-13.3817
彇	-13.3817
孈	-13.3918
性	-13.3918
楱	-13.3918
恙	-13.3918
壣	-13.402
姏	-13.402
媄	-13.402
弜	-13.402
弞	-13.402
徟	-13.402
扠	-13.402
堵	-13.4123
姁	-13.4123
嫽	-13.4123
尝	-13.4123
幇	-13.4123
楔	-13.4123
倜	-13.4123
唷	-13.4227
垌	-13.4227
垿	-13.4227
壕	-13.4227
寂	-13.4227
慠	-13.4227
嗵	-13.4227
慳	-13.4332
婍	-13.4332
弆	-13.4332
咘	-13.4332
垎	-13.4332
墖	-13.4332
墭	-13.4332
媎	-13.4332
媿	-13.4332
岓	-13.4332
徝	-13.4332
悿	-13.4332
坐	-13.4332
叓	-13.4439
咜	-13.4439
囡	-13.4439
孂	-13.4439
噫	-13.4439
坂	-13.4439
報	-13.4439
塒	-13.4439
带	-13.4439
抶	-13.4439
廋	-13.4439
堠	-13.4546
塧	-13.4546
孆	-13.4546
彨	-13.4546
奠	-13.4546
巼	-13.4546
弃	-13.4546
復	-13.4546
忉	-13.4546
围	-13.4655
奘	-13.4655
嬐	-13.4655
察	-13.4655
岨	-13.4655
巸	-13.4655
庲	-13.4655
徣	-13.4655
怿	-13.4655
喙	-13.4745
寋	-13.4765
喀	-13.4765
坕	-13.4765
妐	-13.4765
娖	-13.4765
帺	-13.4765
彡	-13.4765
攍	-13.4765
抯	-13.4765
娞	-13.4876
哘	-13.4876
嚏	-13.4876
埨	-13.4876
巟	-13.4876
帩	-13.4876
恨	-13.4876
崯	-13.4988
圐	-13.4988
愯	-13.4988
团	-13.4988
尐	-13.4988
怚	-13.4988
捽	-13.4988
嘸	-13.5102
姲	-13.5102
居	-13.5102
巎	-13.5102
廯	-13.5102
洈	-13.5102
狎	-13.5102
慰	-13.5217
帑	-13.5217
挸	-13.5217
妟	-13.5217
岰	-13.5217
奖	-13.5217
婚	-13.5217
嬅	-13.5217
崹	-13.5217
掭	-13.5217
岔	-13.5333
晳	-13.5333
嗶	-13.5333
孡	-13.5333
崡	-13.5333
嗉	-13.5333
嘻	-13.5333
娼	-13.5333
崆	-13.5333
彂	-13.5333
揿	-13.5333
搲	-13.5333
昀	-13.5333
朖	-13.5333
孖	-13.5333
怉	-13.5451
噞	-13.5451
嫜	-13.5451
園	-13.5451
姺	-13.5451
寓	-13.5451
尋	-13.5451
崻	-13.5451
徏	-13.5451
悞	-13.5451
搎	-13.5451
楼	-13.557
噼	-13.557
壢	-13.557
妹	-13.557
夾	-13.557
嫈	-13.557
尊	-13.557
恃	-13.557
披	-13.557
摥	-13.557
击	-13.569
壍	-13.569
娯	-13.569
巏	-13.569
惑	-13.569
攇	-13.569
呑	-13.569
夒	-13.569
坲	-13.569
匷	-13.5812
吣	-13.5812
埊	-13.5812
壨	-13.5812
弝	-13.5812
恆	-13.5812
惽	-13.5812
囪	-13.5936
妧	-13.5936
愷	-13.5936
効	-13.5936
勏	-13.5936
囥	-13.5936
塿	-13.5936
幤	-13.5936
弅	-13.5936
弼	-13.5936
抢	-13.5936
摕	-13.5936
厥	-13.5936
否	-13.5936
慭	-13.6061
巂	-13.6061
历	-13.6061
央	-13.6061
孬	-13.6061
崢	-13.6061
嶣	-13.6061
惘	-13.6061
啬	-13.6061
慂	-13.6061
奌	-13.6187
嘟	-13.6187
城	-13.6187
委	-13.6187
帪	-13.6187
椒	-13.6187
墣	-13.6187
嫑	-13.6187
慃	-13.6187
帣	-13.6187
双	-13.6316
呡	-13.6316
搃	-13.6316
坆	-13.6316
幨	-13.6316
怏	-13.6316
总	-13.6316
择	-13.6316
撜	-13.6316
擏	-13.6316
拁	-13.6445
剧	-13.6445
婪	-13.6445
嶵	-13.6445
弘	-13.6445
德	-13.6445
咺	-13.6445
塞	-13.6445
媥	-13.6445
寗	-13.6445
帤	-13.6445
怂	-13.6445
戠	-13.6445
旍	-13.6445
忓	-13.6445
嘵	-13.6577
悆	-13.6577
戇	-13.6577
擑	-13.6577
渼	-13.6577
坋	-13.6577
好	-13.6577
峑	-13.6577
崔	-13.6577
嵣	-13.6577
怡	-13.6577
昚	-13.6577
桶	-13.6577
忎	-13.671
晦	-13.671
嘔	-13.671
坔	-13.671
塡	-13.671
嬦	-13.671
屢	-13.671
崄	-13.671
彰	-13.671
抃	-13.671
抜	-13.671
榟	-13.671
厁	-13.6843
垂	-13.6845
埉	-13.6845
嗧	-13.6845
喔	-13.6845
妱	-13.6845
嫢	-13.6845
嫻	-13.6845
嶤	-13.6845
布	-13.6845
徢	-13.6845
掝	-13.6845
撄	-13.6845
呅	-13.6845
徑	-13.6982
怹	-13.6982
撿	-13.6982
啪	-13.6982
囑	-13.6982
塬	-13.6982
夬	-13.6982
嵃	-13.6982
忌	-13.6982
愪	-13.6982
抾	-13.6982
棦	-13.6982
槲	-13.6982
洚	-13.6982
组	-13.7121
尗	-13.7121
嵓	-13.7121
愱	-13.7121
慹	-13.7121
桀	-13.7121
囵	-13.7121
帟	-13.7121
楹	-13.7262
妆	-13.7262
宾	-13.7262
哢	-13.7262
堓	-13.7262
奇	-13.7262
妿	-13.7262
娢	-13.7262
媈	-13.7262
崃	-13.7262
彲	-13.7262
恣	-13.7262
惈	-13.7262
惜	-13.7262
椷	-13.7405
娸	-13.7405
彬	-13.7405
喦	-13.7405
囖	-13.7405
圻	-13.7405
場	-13.7405
妝	-13.7405
姀	-13.7405
孇	-13.7405
專	-13.7405
怷	-13.7405
叿	-13.755
坼	-13.755
孢	-13.755
宼	-13.755
嵞	-13.755
忽	-13.755
暹	-13.755
柔	-13.755
庈	-13.755
忳	-13.755
悝	-13.755
槪	-13.755
楴	-13.7697
姷	-13.7697
媯	-13.7697
屙	-13.7697
崩	-13.7697
恠	-13.7697
洑	-13.7697
叻	-13.7697
呥	-13.7697
埱	-13.7697
塎	-13.7697
壋	-13.7697
孕	-13.7697
宦	-13.7697
崕	-13.7697
帻	-13.7697
煥	-13.7697
勳	-13.7846
惗	-13.7846
愕	-13.7846
嚽	-13.7846
复	-13.7846
媣	-13.7846
嫞	-13.7846
孜	-13.7846
局	-13.7846
庤	-13.7846
弰	-13.7846
徆	-13.7846
戊	-13.7846
撎	-13.7846
攤	-13.7846
昧	-13.7846
炎	-13.7846
墒	-13.7846
婦	-13.7846
摎	-13.7846
桿	-13.7846
埋	-13.7998
嚼	-13.7998
圑	-13.7998
墥	-13.7998
墩	-13.7998
宒	-13.7998
戕	-13.7998
摝	-13.7998
旤	-13.7998
梃	-13.7998
尧	-13.7998
尩	-13.7998
崑	-13.7998
桪	-13.7998
娕	-13.7998
婵	-13.7998
墌	-13.8152
婾	-13.8152
媱	-13.8152
嶓	-13.8152
怔	-13.8152
懈	-13.8152
栭	-13.8152
烪	-13.8152
夻	-13.8152
宴	-13.8152
梘	-13.8308
匾	-13.8308
厀	-13.8308
壁	-13.8308
婉	-13.8308
嬃	-13.8308
寊	-13.8308
岆	-13.8308
峓	-13.8308
帜	-13.8308
序	-13.8308
徻	-13.8308
棷	-13.8308
堏	-13.8308
壞	-13.8308
崞	-13.8308
暨	-13.8308
叵	-13.8467
呤	-13.8467
嘀	-13.8467
婡	-13.8467
幣	-13.8467
未	-13.8467
咦	-13.8467
妀	-13.8467
忷	-13.8467
及	-13.8628
咂	-13.8628
岱	-13.8628
堐	-13.8628
妽	-13.8628
峙	-13.8628
嵁	-13.8628
惮	-13.8628
敘	-13.8628
檷	-13.8628
崝	-13.8628
榶	-13.8628
囁	-13.8792
堨	-13.8792
夀	-13.8792
娒	-13.8792
富	-13.8792
泜	-13.8792
團	-13.8792
夎	-13.8792
娏	-13.8792
嬧	-13.8792
孵	-13.8792
宣	-13.8792
幠	-13.8792
彐	-13.8792
惻	-13.8792
捛	-13.8792
剱	-13.8958
吂	-13.8958
尀	-13.8958
嵔	-13.8958
帄	-13.8958
嘫	-13.8958
堀	-13.8958
妜	-13.8958
寏	-13.8958
峏	-13.8958
嵾	-13.8958
巴	-13.8958
帏	-13.8958
帱	-13.8958
悘	-13.8958
懭	-13.8958
揗	-13.8958
擶	-13.8958
斞	-13.8958
崈	-13.8958
剴	-13.9128
妤	-13.9128
嬗	-13.9128
峉	-13.9128
幆	-13.9128
廦	-13.9128
敄	-13.9128
机	-13.9128
橩	-13.9128
墅	-13.9128
巬	-13.9128
幬	-13.9128
忖	-13.9128
扇	-13.93
孧	-13.93
庝	-13.93
打	-13.93
囟	-13.93
囨	-13.93
塗	-13.93
崵	-13.93
嶠	-13.93
师	-13.93
引	-13.93
征	-13.93
徜	-13.93
忬	-13.93
恹	-13.93
愧	-13.93
控	-13.93
搐	-13.93
旜	-13.93
昛	-13.93
槳	-13.93
姍	-13.93
嬳	-13.93
庹	-13.93
怬	-13.93
摗	-13.93
彔	-13.93
楻	-13.9476
婮	-13.9476
婑	-13.9476
岿	-13.9476
崘	-13.9476
嵈	-13.9476
憝	-13.9476
懊	-13.9476
呃	-13.9476
嘳	-13.9476
団	-13.9476
撍	-13.9476
擐	-13.9476
杛	-13.9476
夠	-13.9654
妬	-13.9654
旆	-13.9654
暿	-13.9654
唁	-13.9654
嘧	-13.9654
囒	-13.9654
巺	-13.9654
恝	-13.9654
懿	-13.9654
挼	-13.9654
昲	-13.9654
晓	-13.9654
櫌	-13.9654
沓	-13.9654
孾	-13.9654
嵇	-13.9836
徿	-13.9836
噪	-13.9836
埖	-13.9836
奎	-13.9836
媠	-13.9836
容	-13.9836
岘	-13.9836
心	-13.9836
惩	-13.9836
挪	-13.9836
掆	-13.9836
掶	-13.9836
棖	-13.9836
歼	-13.9836
媹	-13.9836
抲	-14.0021
廙	-14.0021
斥	-14.0021
咊	-14.0021
坊	-14.0021
崺	-14.0021
巕	-14.0021
幸	-14.0021
庯	-14.0021
恾	-14.0021
戍	-14.0021
揓	-14.0021
昫	-14.0021
榈	-14.0021
歾	-14.0021
恴	-14.0021
旀	-14.0021
檪	-14.0021
増	-14.0021
恼	-14.0021
愋	-14.021
摰	-14.021
吿	-14.021
岤	-14.021
嵷	-14.021
帒	-14.021
幧	-14.021
弙	-14.021
弣	-14.021
弪	-14.021
悢	-14.021
擛	-14.021
滄	-14.021
四	-14.021
地	-14.021
坘	-14.021
奞	-14.021
娐	-14.021
峄	-14.021
庫	-14.021
怦	-14.021
搽	-14.021
煅	-14.021
埄	-14.0402
庮	-14.0402
墕	-14.0402
媉	-14.0402
尭	-14.0402
尳	-14.0402
岥	-14.0402
峦	-14.0402
庼	-14.0402
搧	-14.0402
敎	-14.0402
橅	-14.0402
殮	-14.0402
嘷	-14.0402
囘	-14.0402
垫	-14.0402
媛	-14.0402
嬭	-14.0402
嵗	-14.0402
哏	-14.0556
哯	-14.0598
嚣	-14.0598
嬸	-14.0598
樭	-14.0598
唱	-14.0598
图	-14.0598
嶏	-14.0598
幭	-14.0598
幵	-14.0598
戃	-14.0598
拦	-14.0598
捕	-14.0598
楢	-14.0798
孋	-14.0798
尹	-14.0798
屚	-14.0798
岚	-14.0798
崣	-14.0798
嵅	-14.0798
嵉	-14.0798
帨	-14.0798
彝	-14.0798
愆	-14.0798
慔	-14.0798
技	-14.0798
晒	-14.0798
暮	-14.0798
垲	-14.0798
垶	-14.0798
寃	-14.0798
晤	-14.0798
漃	-14.0798
抱	-14.1003
壜	-14.1003
戉	-14.1003
淗	-14.1003
写	-14.1003
劮	-14.1003
勥	-14.1003
坒	-14.1003
堸	-14.1003
媙	-14.1003
孔	-14.1003
就	-14.1003
崦	-14.1003
崭	-14.1003
恻	-14.1003
懻	-14.1003
扝	-14.1003
擖	-14.1003
涁	-14.1003
奍	-14.1003
屿	-14.1211
忍	-14.1211
啼	-14.1211
囅	-14.1211
壳	-14.1211
奵	-14.1211
娎	-14.1211
婯	-14.1211
媽	-14.1211
嫨	-14.1211
屨	-14.1211
岟	-14.1211
巃	-14.1211
弊	-14.1211
弨	-14.1211
忞	-14.1211
忭	-14.1211
曻	-14.1211
喞	-14.1211
噑	-14.1211
忿	-14.1211
慎	-14.1211
绂	-14.1424
帉	-14.1424
染	-14.1424
嚊	-14.1424
嚤	-14.1424
姾	-14.1424
婅	-14.1424
婭	-14.1424
寬	-14.1424
嵑	-14.1424
帵	-14.1424
想	-14.1424
投	-14.1424
揅	-14.1424
擬	-14.1424
枷	-14.1424
奛	-14.1424
弹	-14.1424
忱	-14.1424
娗	-14.1641
嵎	-14.1641
撲	-14.1641
坰	-14.1641
媋	-14.1641
嬱	-14.1641
峋	-14.1641
廫	-14.1641
拄	-14.1641
攝	-14.1641
哄	-14.1641
嚩	-14.1641
塂	-14.1641
怇	-14.1641
悰	-14.1641
挮	-14.1641
掻	-14.1641
叐	-14.1863
奡	-14.1863
嚇	-14.1863
固	-14.1863
垛	-14.1863
垪	-14.1863
塀	-14.1863
墈	-14.1863
妚	-14.1863
宱	-14.1863
寐	-14.1863
屈	-14.1863
峘	-14.1863
弚	-14.1863
嫇	-14.1863
嫉	-14.1863
夸	-14.1863
屴	-14.1863
僐	-14.3332
凪	-15.0101
噬	-15.1783
幱	-15.2813
洗	-15.2814
暎	-15.2815
嵚	-15.2816
婂	-15.2817
恎	-15.2818
曩	-15.2819
崉	-15.282
娌	-15.2821
怨	-15.2822
底	-15.2823
婽	-15.2824
佽	-15.2825
榇	-15.2826
揾	-15.2827
庵	-15.2828
干	-15.2829
涚	-15.283
懥	-15.2831
憡	-15.2832
岩	-15.2833
窿	-15.2834
橸	-15.2835
朸	-15.2836
弓	-15.2837
婷	-15.2838
寭	-15.2839
晫	-15.284
增	-15.2841
橂	-15.2842
娂	-15.2843
济	-15.2844
扴	-15.2845
哇	-15.2846
应	-15.2847
椆	-15.2848
彽	-15.2849
彟	-15.285
毲	-15.2851
屼	-15.2852
恌	-15.2853
嶨	-15.2854
嬌	-15.2855
嘉	-15.2856
崤	-15.2857
婢	-15.2858
啎	-15.2859
唭	-15.286
急	-15.2861
嘨	-15.2862
所	-15.2863
娚	-15.2864
夡	-15.2865
惃	-15.2866
擮	-15.2867
圦	-15.2868
巷	-15.2869
柈	-15.287
堟	-15.2871
唹	-15.2872
坭	-15.2873
坴	-15.2874
姼	-15.2875
夙	-15.2876
囕	-15.2877
晲	-15.2878
崿	-15.2879
徃	-15.288
扷	-15.2881
濠	-15.2882
勒	-15.2883
已	-15.2884
嚝	-15.2885
娘	-15.2886
圜	-15.2887
巣	-15.2888
巙	-15.2889
喊	-15.289
墸	-15.2891
堚	-15.2892
尰	-15.2893
婶	-15.2894
惞	-15.2895
壭	-15.2896
娫	-15.2897
姟	-15.2898
嘗	-15.2899
撟	-15.29
圧	-15.2901
圙	-15.2902
恒	-15.2903
嘬	-15.2904
塄	-15.2905
府	-15.2906
張	-15.2907
妒	-15.2908
擗	-15.2909
嶔	-15.291
埻	-15.2911
寷	-15.2912
嘈	-15.2913
婇	-15.2914
均	-15.2915
哦	-15.2916
帡	-15.2917
垹	-15.2918
嫔	-15.2919
婓	-15.292
宸	-15.2921
媳	-15.2922
塉	-15.2923
埞	-15.2924
損	-15.2925
形	-15.2926
侓	-15.2927
媌	-15.2928
啨	-15.2929
屃	-15.293
嘴	-15.2931
腳	-15.2932
崴	-15.2933
奸	-15.2934
唊	-15.2935
哸	-15.2936
壴	-15.2937
妾	-15.2938
嗃	-15.2939
卼	-15.294
咟	-15.2941
垞	-15.2942
劲	-15.2943
嗘	-15.2944
婩	-15.2945
卭	-15.2946
垾	-15.2947
宄	-15.2948
华	-15.2949
厺	-15.295
叉	-15.2951
匳	-15.2952
哑	-15.2953
匏	-15.2954
吗	-15.2955
倴	-15.2956
僤	-15.2957
僄	-15.2958
减	-15.2958
