<unk>	0
<s>	0
</s>	0
.	-3.03636
▁	-3.39864
,	-3.69543
ం	-4.10586
ర్	-4.55302
ల	-4.55744
న	-4.63367
వ	-4.69983
ర	-4.74759
లో	-4.81529
లు	-4.85644
క	-4.86898
ని	-4.8734
ా	-4.89226
▁అ	-4.94494
త	-4.95309
య	-5.02391
ప	-5.03765
మ	-5.05875
▁నుండి	-5.08332
▁కి	-5.10174
ు	-5.12251
స్	-5.14887
రి	-5.23489
న్	-5.24218
ి	-5.24373
గా	-5.26338
ను	-5.26688
▁ఉన్నాయి	-5.29171
ల్	-5.32822
▁మీ	-5.34746
▁ఉంది	-5.38505
కు	-5.40242
▁ఆ	-5.41635
ీ	-5.43056
స	-5.45553
▁గ్రామం	-5.46243
గ	-5.47622
▁క	-5.48775
క్	-5.50259
డ	-5.50725
▁దూరంలో	-5.52565
రు	-5.53682
ము	-5.54358
ే	-5.56904
▁ఈ	-5.57968
▁10	-5.6198
ట	-5.62042
▁ప	-5.62875
్	-5.63141
ారు	-5.66484
▁మ	-5.67866
లి	-5.68966
ద	-5.69115
ె	-5.70681
ంగా	-5.73736
ణ	-5.75056
ై	-5.76049
కి	-5.76443
▁గ్రామంలో	-5.79344
▁5	-5.80859
▁వ	-5.8329
తి	-5.85074
డి	-5.86441
ది	-5.86759
ో	-5.87091
▁వి	-5.87492
రా	-5.87884
జ	-5.88163
ూ	-5.89201
▁ప్ర	-5.90736
ంలో	-5.91068
▁స	-5.91729
▁కా	-5.92377
ధ	-5.92999
▁మరియు	-5.93545
▁ఎ	-5.93885
వి	-5.95111
హ	-5.99336
▁ఇ	-6.0201
▁ఒక	-6.02652
టి	-6.0401
▁జ	-6.04521
భ	-6.05606
▁కేంద్రం	-6.0577
▁న	-6.07346
ాలు	-6.07737
డు	-6.08772
ట్	-6.09391
యా	-6.12065
▁సమీప	-6.12733
శ	-6.15137
▁బ	-6.19139
1	-6.20169
ాడు	-6.20203
న్న	-6.21888
లా	-6.22995
తో	-6.24645
నా	-6.25303
వా	-6.25388
ొ	-6.26072
ష	-6.26975
▁గ	-6.27578
e	-6.29294
సి	-6.30017
ాన్ని	-6.33092
డ్	-6.34328
మా	-6.35147
9	-6.35225
▁లో	-6.36688
దు	-6.37236
▁కూడా	-6.37304
కా	-6.37822
ాల	-6.38031
3	-6.38769
బ	-6.39047
a	-6.39149
▁చే	-6.41073
ులు	-6.43201
▁ద్వారా	-6.43505
-	-6.45711
6	-6.45722
చ	-6.45788
వు	-6.46254
మైన	-6.46835
ించ	-6.4686
▁చ	-6.47657
7	-6.48097
5	-6.48108
పు	-6.48256
8	-6.48283
▁పాఠశాల	-6.48293
▁ని	-6.48578
2	-6.49214
ానికి	-6.50356
క్ష	-6.51164
i	-6.51191
ంద	-6.53314
▁సౌకర్యం	-6.53567
t	-6.5412
0	-6.5429
గు	-6.5448
నే	-6.54874
ిన	-6.55005
:	-6.55065
ుల	-6.5626
మి	-6.57645
o	-6.57692
▁19	-6.58071
▁త	-6.58452
▁1	-6.58984
్య	-6.59736
▁పైబడిన	-6.61383
▁ప్రభుత్వ	-6.61419
▁సంఖ్య	-6.61553
▁జిల్లా	-6.61997
తు	-6.63662
ృ	-6.63691
▁ర	-6.63824
4	-6.64428
▁హ	-6.6501
▁కళాశాల	-6.66573
ాయి	-6.66963
సు	-6.67428
▁పా	-6.67799
▁ద	-6.68146
ుడు	-6.69658
▁ఉన్న	-6.69994
l	-6.71929
▁వా	-6.72009
▁నా	-6.72245
త్	-6.72746
▁"	-6.72869
ంది	-6.73379
ళ	-6.73988
రణ	-6.745
త్ర	-6.75695
యం	-6.77021
రో	-6.77398
ండ	-6.7821
▁ఉ	-6.78342
d	-6.78407
▁మా	-6.78408
ల్ల	-6.7941
లను	-6.80208
ట్ట	-6.80504
ంగ	-6.81547
▁యొక్క	-6.81865
▁వ్యవస్థ	-6.81866
పా	-6.82107
▁భ	-6.82185
్యా	-6.82479
▁వే	-6.82723
ంట	-6.82842
నీ	-6.83204
మ్మ	-6.83216
సా	-6.84696
రం	-6.85305
▁రా	-6.87041
▁గ్రామానికి	-6.87123
ౌ	-6.87363
s	-6.87728
m	-6.87938
ింది	-6.88329
▁సం	-6.8844
▁రహదారి	-6.88475
u	-6.88643
▁సా	-6.88644
▁లేదు	-6.88838
ష్	-6.8925
h	-6.89807
▁ఏ	-6.90034
రీ	-6.90232
▁ఇది	-6.90317
ప్	-6.90959
చి	-6.91537
▁సరఫరా	-6.91875
క్క	-6.92906
గ్	-6.93277
గి	-6.93803
▁ఫ	-6.9531
లలో	-6.95563
ంచ	-6.95614
టు	-6.96207
యు	-6.96297
▁2	-6.96591
▁బా	-6.97922
ద్	-6.98086
వే	-6.9827
లోను	-6.98532
▁స్	-7.00843
ంగ్	-7.01437
ిక	-7.03609
▁ప్రాథమిక	-7.03841
య్య	-7.03925
థ	-7.04377
▁వె	-7.05657
ఖ	-7.05726
తా	-7.06281
▁శ	-7.06331
▁సి	-7.07114
▁ఆరోగ్య	-7.07814
డం	-7.07949
ంత	-7.07964
▁వీ	-7.08184
యి	-7.08781
త్త	-7.08932
ైన	-7.09005
చే	-7.0908
▁పో	-7.0924
దా	-7.09665
▁ఎక్కువ	-7.10089
▁కు	-7.10156
c	-7.10262
నం	-7.10663
▁వ్యవసాయ	-7.11414
▁సామాజిక	-7.11565
ఫ	-7.12034
n	-7.12409
▁20	-7.12423
మ్	-7.13308
▁చేయ	-7.15443
▁కో	-7.15896
▁రాష్ట్ర	-7.1655
▁తన	-7.16819
▁పరి	-7.16901
p	-7.17058
▁వైద్య	-7.18008
▁లోపు	-7.18795
లోనూ	-7.18873
"	-7.19209
▁కొ	-7.19469
▁పె	-7.19593
లే	-7.19775
▁ము	-7.20264
▁గు	-7.20609
జా	-7.21637
రే	-7.22428
▁ప్రైవేటు	-7.22621
బ్	-7.22812
ాలను	-7.22941
టీ	-7.23224
చ్చ	-7.23236
▁ల	-7.23269
ఘ	-7.24003
▁గా	-7.24384
▁కింది	-7.25129
y	-7.2569
ందు	-7.26396
పో	-7.26596
జ్	-7.27437
▁అనే	-7.27842
▁విద్యా	-7.2787
▁భూ	-7.28159
;	-7.2857
ించి	-7.2879
ళ్ళ	-7.28821
▁చె	-7.28885
దే	-7.29386
▁3	-7.29573
▁పాటు	-7.29845
▁ప్రధాన	-7.31531
జి	-7.32715
▁పు	-7.32832
ంతో	-7.33407
▁రాజ	-7.33407
ద్ర	-7.33744
▁ఇం	-7.34086
లకు	-7.34277
ించిన	-7.34281
స్తా	-7.34505
చు	-7.34873
ధి	-7.34977
▁లే	-7.35545
ూరు	-7.36738
▁అని	-7.37369
g	-7.37784
▁ఇతర	-7.37935
▁బి	-7.37978
వర్	-7.38043
▁నీరు	-7.3805
▁సినిమా	-7.38678
▁కంటే	-7.38934
▁తె	-7.39734
పై	-7.39778
లోని	-7.39841
కొ	-7.39892
er	-7.40011
కో	-7.40273
టా	-7.40331
▁వారి	-7.40371
పి	-7.40591
ష్ట	-7.4061
్యూ	-7.40866
లీ	-7.40872
00	-7.41465
▁/	-7.41912
ప్ప	-7.42093
డా	-7.42557
▁కలిగి	-7.42751
తే	-7.42865
▁సంస్థ	-7.43235
డానికి	-7.43758
ండ్	-7.44058
▁దేశ	-7.44259
▁తరువాత	-7.44406
▁చి	-7.44569
▁చెందిన	-7.44706
▁-	-7.44751
▁ఉప	-7.45092
ద్ధ	-7.45393
యో	-7.45814
w	-7.45949
▁సమ	-7.46446
▁విద్యుత్	-7.46458
త్య	-7.46577
▁మండల	-7.46735
దేశ	-7.47389
ాన	-7.47431
▁7	-7.47764
తీ	-7.47966
ియన్	-7.48638
ాలలో	-7.49676
లతో	-7.49978
▁కోడ్	-7.50317
▁బ్యాంకు	-7.50625
ద్ద	-7.51121
f	-7.51481
▁దీని	-7.51749
▁సు	-7.51811
▁ఉన్నారు	-7.52001
▁తా	-7.52377
ండి	-7.52425
▁అంద	-7.52446
త్రి	-7.52584
▁భారత	-7.5275
▁జనగణన	-7.53571
ించారు	-7.53765
▁ఆయన	-7.53951
▁శ్రీ	-7.54007
▁వారం	-7.54109
▁ఆసుపత్రి	-7.54147
▁వాణిజ్య	-7.54478
▁పబ్లిక్	-7.5463
b	-7.54807
▁అను	-7.54858
హా	-7.54976
▁ఒకటి	-7.55087
మీ	-7.55474
ంబ	-7.55859
▁పథకం	-7.55867
▁మి	-7.56178
▁ఫోన్	-7.56412
▁లేదా	-7.56547
▁ప్రకారం	-7.56651
జీ	-7.56687
▁షెడ్యూల్డ	-7.56691
సం	-7.5681
కాల	-7.56873
▁4	-7.57154
▁వైద్యశాల	-7.57324
దీ	-7.57366
ిత	-7.58021
లె	-7.58279
▁గంటల	-7.58621
▁పి	-7.58935
ట్టి	-7.59175
▁ప్రతి	-7.59309
▁ఖ	-7.59775
▁ఆఫీసు	-7.60646
▁కోసం	-7.60881
▁రెండు	-7.61072
స్థ	-7.61269
▁స్టేషన్	-7.6131
ప్ర	-7.61505
షి	-7.61588
▁పోస్టాఫీసు	-7.62045
▁చిత్ర	-7.62094
కార	-7.6228
శా	-7.63256
ల్లో	-7.63491
పల్లి	-7.63588
▁ప్రత్యేక	-7.64031
▁స్వ	-7.64973
▁శా	-7.6507
▁అభివృద్ధి	-7.65081
డే	-7.65221
▁తీ	-7.65234
an	-7.65728
▁నగర	-7.65857
▁ఉండ	-7.66008
దర్శ	-7.66175
▁మధ్య	-7.66565
v	-7.66795
▁·	-7.6694
▁నే	-7.68046
స్తు	-7.68079
గ్ర	-7.68282
కే	-7.68292
▁మె	-7.68426
▁పద	-7.68803
▁ప్రా	-7.68913
టర్	-7.69204
▁పేరు	-7.70055
A	-7.70172
▁వ్యవసాయానికి	-7.70851
ar	-7.71261
▁మూ	-7.71451
▁పొ	-7.71852
on	-7.72095
▁రోడ్లు	-7.72968
ంటే	-7.73652
కర	-7.73676
▁డిగ్రీ	-7.7368
వచ్చు	-7.74078
▁the	-7.74138
ప్పుడు	-7.7455
▁అంత	-7.74794
▁జాతీయ	-7.75049
మే	-7.75082
కూ	-7.75422
బు	-7.76033
/	-7.76086
or	-7.76134
టె	-7.76178
▁చెప్ప	-7.76188
బా	-7.76544
ించాడు	-7.76668
▁జా	-7.76892
మో	-7.7711
ట్టు	-7.77537
▁వై	-7.77657
ంటి	-7.77863
▁తిరిగి	-7.77929
▁భాగ	-7.77953
▁దా	-7.78409
▁నుంచి	-7.78646
▁కుటుంబ	-7.79261
ిస్తున్న	-7.79272
బడింది	-7.79289
▁ఐ	-7.79547
▁చాలా	-7.79549
ద్య	-7.79646
ళ్ల	-7.798
ుకున్న	-7.80068
S	-7.80418
ధ్య	-7.80719
ట్లు	-7.81145
k	-7.81294
▁18	-7.81379
▁రైల్వే	-7.82015
▁నీటి	-7.82571
▁కొన్ని	-7.82633
▁పని	-7.83015
ణి	-7.83313
▁వంటి	-7.83361
న్నాయి	-7.83666
ఫ్	-7.83735
ఠ	-7.83756
▁ది	-7.83756
▁పొంద	-7.84348
▁ప్రాంతాల	-7.84418
చ్	-7.84763
▁విధంగా	-7.84876
కీ	-7.8532
▁ఓ	-7.85667
▁ఉంటుంది	-7.85688
నూ	-7.85738
▁6	-7.86277
▁వ్యా	-7.86972
▁మొ	-7.87038
▁సంత	-7.87697
తాయి	-7.8799
చ్చి	-7.88022
శ్ర	-7.88027
▁జరుగుతోంది	-7.88077
▁పెద్ద	-7.88129
▁తెలుగు	-7.88847
al	-7.88912
మె	-7.89011
స్ట	-7.89126
టం	-7.89631
వ్వ	-7.89672
▁ఒ	-7.89871
కుండా	-7.90178
is	-7.9041
ుకో	-7.90514
▁నె	-7.90775
▁ఆమె	-7.91955
ించే	-7.92376
ులను	-7.92477
క్రమ	-7.92497
మూ	-7.92691
▁ఉత్పత్తి	-7.93029
at	-7.93171
▁ఏడాది	-7.93248
▁8	-7.94078
▁అనేక	-7.94099
▁సూ	-7.94125
▁కాల	-7.94552
త్తు	-7.94828
పూర్	-7.9483
ుతుంది	-7.95224
మాన	-7.95582
C	-7.95613
వ్య	-7.96327
▁లా	-7.9669
▁పై	-7.9709
ుని	-7.98099
▁గో	-7.9816
స్ట్	-7.98214
▁మురుగునీటి	-7.98309
▁అందుతుంది	-7.98589
▁c	-7.98596
▁లోని	-7.98722
▁పౌర	-7.98987
'	-7.99146
ములు	-7.99602
రావు	-7.99719
బడ	-7.99764
సే	-7.99798
ట్ల	-7.99851
స్తుంది	-8.00053
▁వరకు	-8.00094
▁మే	-8.00302
▁ముఖ్య	-8.00394
▁పొడుగునా	-8.00406
▁నిర్	-8.00416
కృష్ణ	-8.00519
ించింది	-8.00588
▁దాని	-8.00738
▁సె	-8.01306
వాడు	-8.01351
ుతున్న	-8.01643
▁భాష	-8.0182
▁మహా	-8.02518
నో	-8.02911
హ్	-8.03033
ed	-8.03267
▁ప్రజల	-8.03377
▁పే	-8.03571
చార	-8.03799
▁బస్సు	-8.03836
చేసి	-8.03984
re	-8.0403
I	-8.04286
▁అయిన	-8.04748
▁కాలువల	-8.05651
పురం	-8.05682
ిస్తారు	-8.05771
▁స్వయం	-8.05774
త్తి	-8.06094
▁ప్రపంచ	-8.064
M	-8.06416
గ్రహ	-8.06541
▁s	-8.07003
▁మంది	-8.07169
th	-8.07238
▁of	-8.07245
భాగ	-8.07359
▁2011	-8.07695
▁దేవ	-8.07745
▁భావ	-8.07807
▁వృత్తి	-8.07919
▁బె	-8.08163
టో	-8.0824
▁విస్తరించి	-8.08389
▁గ్రామ	-8.08513
▁వాటి	-8.0857
బడిన	-8.08623
▁వారు	-8.08786
▁ఆఫ్	-8.09104
▁బహిరంగ	-8.0935
▁మొదటి	-8.09548
▁శిక్షణ	-8.09559
▁అన్న	-8.09575
%	-8.09689
డె	-8.0976
r	-8.09965
▁పూ	-8.1038
వంత	-8.10477
రె	-8.10601
త్వ	-8.10612
ఛ	-8.10651
రుగు	-8.10828
▁సహకార	-8.10865
▁సంబంధ	-8.11015
▁జరుగుతుంది	-8.11253
▁అండ్	-8.11356
▁సంఘం	-8.11828
in	-8.11937
ాలకు	-8.11963
▁'	-8.12288
రాజు	-8.12366
బ్బ	-8.12371
▁కొరకు	-8.12632
es	-8.12969
▁తర	-8.13196
▁నమోదు	-8.13543
▁ప్రవహిస్తుంది	-8.13601
▁రవాణా	-8.13632
▁యు	-8.1367
▁అతని	-8.14062
▁విజయ	-8.14202
▁పశు	-8.14218
▁p	-8.14363
▁మాధ్యమిక	-8.14401
▁సామాన్య	-8.14429
▁గణాంకాల	-8.14456
▁కూ	-8.15013
▁డాక్టర్లు	-8.15125
ులకు	-8.15404
బి	-8.1572
▁మురుగునీరు	-8.15985
▁ఉండే	-8.1626
▁బృందం	-8.16284
▁హా	-8.1703
▁శి	-8.17059
it	-8.1708
▁చిన్న	-8.17253
▁ఇక్కడ	-8.17552
▁ఔషధ	-8.17566
ాంత	-8.17702
▁కేంద్రాలు	-8.17707
▁చేసిన	-8.17808
గో	-8.17851
▁చా	-8.17921
▁కార్యాలయం	-8.18008
▁రామ	-8.18073
▁సౌకర్యాలు	-8.18627
50	-8.18686
▁గ్రామాల	-8.18958
▁రూప	-8.19006
యోగ	-8.19508
▁సంరక్షణ	-8.19561
▁కులాల	-8.19618
▁ఆటల	-8.19673
▁వినియోగం	-8.19688
st	-8.19821
సీ	-8.19838
▁తెగల	-8.20013
అ	-8.20201
▁సొసైటీ	-8.20256
▁సంపూర్ణ	-8.20335
▁మొదలైన	-8.20367
▁శిశు	-8.20465
▁లైన్	-8.20667
▁జనన	-8.20745
▁దూరం	-8.20761
▁సేవా	-8.20766
▁in	-8.21027
క్షణ	-8.21088
▁సహాయక	-8.21101
▁పాల	-8.21106
ాల్లో	-8.21217
▁మీద	-8.21467
▁ప్రత్యామ్నాయ	-8.21544
▁కాగా	-8.2181
▁కథ	-8.22063
▁సైన్స్	-8.22224
▁సబ్	-8.22531
▁ప్రాథమికోన్నత	-8.2258
▁ఆటో	-8.22606
▁మైదానం	-8.22627
▁బాలల	-8.22856
స్థాన	-8.23088
శి	-8.2324
le	-8.23429
▁గ్రంథాలయం	-8.23435
▁కార్యకర్త	-8.23568
▁ప్రాంతం	-8.23631
▁ఇంటర్నెట్	-8.23748
▁నిమిత్తం	-8.23778
▁సంక్షేమ	-8.23851
▁వార్తాపత్రిక	-8.23942
▁జనాభా	-8.24148
పేట	-8.24165
▁మొబైల్	-8.24443
▁బ్ర	-8.24503
▁మరణాల	-8.24535
▁పిన్	-8.24755
▁ఆర్ట్స్	-8.248
▁పంపిణీ	-8.24878
▁సంచార	-8.24903
ic	-8.24937
▁మార్కెటింగ్	-8.25008
▁వనరుల	-8.25033
▁లొకేషన్	-8.25043
▁ఉత్తర	-8.25536
▁మగవారి	-8.25573
▁జనాభాతో	-8.25587
▁ఆడవారి	-8.26022
▁పారామెడికల్	-8.26024
▁యుద్ధ	-8.26028
▁ఆశా	-8.2605
▁రీడింగ్	-8.26201
▁రూం	-8.26333
▁హెక్టార్లలో	-8.26359
as	-8.2639
▁మార్కెట్	-8.26408
▁పోలింగ్	-8.26427
▁జూనియర్	-8.26443
▁లాండ్	-8.26494
▁రె	-8.26497
▁ఇళ్లతో	-8.26599
లేదు	-8.26981
రెడ్డి	-8.26985
▁పారిశుధ్య	-8.27082
▁వీధుల	-8.27132
▁శాస్త్ర	-8.27264
▁టెలిఫోన్	-8.27305
థి	-8.27314
▁అంగన్	-8.27331
▁వాడీ	-8.2734
▁మాతా	-8.27494
▁వద్ద	-8.27935
▁పోస్ట్	-8.27976
▁ఉత్పాదక	-8.28115
▁బో	-8.28401
▁కొరియర్	-8.28796
▁కెఫె	-8.28859
▁చేస్తున్నారు	-8.2915
త్వం	-8.29155
▁పోషకాహార	-8.29168
▁రోజు	-8.29375
ింప	-8.29397
▁గృహావసరాల	-8.29473
en	-8.29614
▁పక్కనే	-8.29667
▁తర్వాత	-8.29683
▁సేకరించే	-8.2977
▁ముందు	-8.29853
▁తమ	-8.30188
▁వస్తువులు	-8.30218
▁కంకర	-8.30298
▁ఇంటింటిక	-8.30375
▁సరఫరాల	-8.30381
▁పరపతి	-8.30513
▁అవసరాల	-8.30539
▁అనియత	-8.30539
ప్పు	-8.30622
▁సమీకృత	-8.30656
▁వ్యర్థాలను	-8.30678
వాద	-8.30754
▁బయోగ్యాస్	-8.30992
▁హాలు	-8.31063
▁మరుగుదొడ్డి	-8.31131
▁దివ్యాంగ	-8.31266
▁ఏటీఎమ్	-8.31303
▁డిస్పెన్సరీ	-8.31312
▁అలోపతి	-8.3135
ేషన్	-8.31458
వారి	-8.31525
▁పాలీటెక్నిక్	-8.31526
సె	-8.31712
▁చెత్తను	-8.31727
▁12	-8.31805
▁అధిక	-8.3202
▁టెలిగ్రాఫ్	-8.32053
▁భారతదేశ	-8.3208
▁పట్టణమైన	-8.32146
▁పారబోస్త	-8.32193
స్తున్న	-8.32244
▁చేతిపంపుల	-8.33025
ెంట్	-8.33204
▁కేంద్రమైన	-8.33513
P	-8.3357
▁మేనేజిమెంటు	-8.33603
▁దక్షిణ	-8.33632
▁మూడు	-8.33867
▁వలన	-8.33932
గే	-8.33937
▁బాలబడి	-8.34147
▁క్రి	-8.34944
▁రోజుకు	-8.35107
▁అమలవుతోంది	-8.35419
▁పెట్ట	-8.35811
జె	-8.35834
▁విషయ	-8.36277
ిస్తుంది	-8.36398
▁సాధారణ	-8.36587
ప్పటికీ	-8.36733
▁ఉంటాయి	-8.36966
▁యూ	-8.37376
▁కిలోమీటర్ల	-8.37718
ాలని	-8.3776
▁శాల	-8.37884
▁సంవత్సరాల	-8.38427
▁కుళాయిల	-8.38428
▁వ్యక్త	-8.38588
కొండ	-8.38803
▁సీ	-8.39457
T	-8.39642
▁అసెంబ్లీ	-8.40026
30	-8.40101
స్వామి	-8.4026
▁--	-8.40437
▁సంగీత	-8.40467
▁ఆలయ	-8.40494
▁ఆధార	-8.40695
▁అయితే	-8.4081
▁కార్య	-8.40878
▁బస్సులు	-8.40914
ించడం	-8.41418
▁రోజువారీ	-8.41618
▁గుండా	-8.41746
▁నిర్వహించ	-8.41825
▁నిర్మించ	-8.41858
ro	-8.4201
ఎ	-8.42013
|	-8.42057
ఆ	-8.42305
▁గురించి	-8.42651
▁క్రీ	-8.42664
▁జీవ	-8.42928
▁ప్రారంభ	-8.43176
D	-8.43284
▁అవుతున్నాయి	-8.4364
▁దూరంలోనూ	-8.4433
▁పంప	-8.44384
▁కానీ	-8.44541
పాద	-8.44722
▁పూర్తి	-8.44727
▁పాత్ర	-8.44852
▁వెళ్ళ	-8.45231
▁అధికార	-8.45233
▁మొత్తం	-8.45677
▁కొత్త	-8.4586
డో	-8.45963
▁ఇంజనీరింగ్	-8.46063
B	-8.46134
ri	-8.46291
ing	-8.4693
▁తెలంగాణ	-8.47335
ార్థ	-8.47445
ేశ్వర	-8.47739
శీ	-8.4791
▁ఉపయోగ	-8.48094
బడి	-8.48535
▁ఆంధ్ర	-8.49409
▁సంవత్సరం	-8.49435
▁ఫ్ర	-8.49643
ఊ	-8.49901
ప్రాంత	-8.50134
▁అంటారు	-8.50161
▁సమయంలో	-8.50236
!	-8.5076
▁ఉపయోగించ	-8.50925
▁సిబ్బంది	-8.51178
శ్వ	-8.51561
బంధ	-8.51811
ధార	-8.51822
=	-8.52042
▁ఎన్నిక	-8.52211
▁నిర్మాణ	-8.52237
ఖ్య	-8.52479
▁అన్ని	-8.53305
▁హె	-8.53769
▁ఏర్పడ	-8.53856
ీకరించ	-8.54135
కృత	-8.54509
▁మొదలైనవి	-8.54558
▁14	-8.54599
▁జరిగిన	-8.5468
10	-8.54989
స్తూ	-8.55124
పెట్ట	-8.55742
▁సహ	-8.56102
▁లేరు	-8.5647
చె	-8.56638
ేందుకు	-8.56933
▁నేరుగా	-8.57029
ుతూ	-8.57135
▁తీసుకు	-8.57379
ేవారు	-8.57565
▁తిరు	-8.5764
▁గ్రామము	-8.57843
▁సాధించ	-8.58013
▁పార్టీ	-8.58127
▁మాత్రమే	-8.58207
▁క్ర	-8.58487
▁to	-8.58648
▁మార్గ	-8.59167
▁ప్రస్తుత	-8.59468
▁ప్రముఖ	-8.59601
▁జన్మ	-8.59724
ra	-8.60531
▁అక్కడ	-8.61081
▁ప్రవేశ	-8.61108
▁and	-8.61275
us	-8.61407
▁వచ్చిన	-8.61475
▁అతను	-8.61705
▁కాలంలో	-8.62048
దో	-8.62238
▁చేసే	-8.62595
▁శివ	-8.6265
▁ఉంట	-8.62792
▁వ్ర	-8.63018
▁మార్చ	-8.63132
▁మంచి	-8.63222
N	-8.63277
ుకొని	-8.63575
▁శుద్ధి	-8.63879
)	-8.64124
▁చరిత్ర	-8.64162
E	-8.65179
▁తక్కువ	-8.6548
▁తిరుగుతున్నాయి	-8.65663
▁ఇద్దరు	-8.66033
▁కొంత	-8.66289
▁గుర్తించ	-8.66409
చంద్ర	-8.66788
▁మంచినీటి	-8.6696
గూడ	-8.67204
24	-8.67247
▁మొదల	-8.67859
40	-8.68139
▁ట్ర	-8.6821
▁జీవిత	-8.68296
▁రక్షిత	-8.68484
▁తూర్పు	-8.68834
▁విశ్వ	-8.68938
▁సర్వ	-8.69053
▁ధర్మ	-8.69203
ur	-8.69425
▁విధాన	-8.69723
▁మండలానికి	-8.70714
21	-8.71278
▁స్త్రీ	-8.71376
▁సముద్ర	-8.71745
25	-8.71905
వనరుల్లోకి	-8.71913
▁తయారు	-8.72119
ాబాద్	-8.72538
▁శక్తి	-8.72542
▁ఇందులో	-8.72735
▁అందుబాటులో	-8.73415
▁సేవ	-8.73518
▁వివిధ	-8.73791
▁కేంద్ర	-8.74144
ిస్తూ	-8.74229
am	-8.74279
▁ట్రాక్టర్లు	-8.74481
▁చేశారు	-8.74591
▁వాడేందుక	-8.74613
చూ	-8.74733
▁వివర	-8.76127
▁సభ్య	-8.76159
▁సంస్కృత	-8.76503
▁వదులుతున్న	-8.76532
R	-8.76555
H	-8.77125
జ్ఞ	-8.77342
జ్ఞాన	-8.77431
▁తప్ప	-8.78167
ుకుని	-8.78266
▁భారతీయ	-8.78284
U	-8.78469
60	-8.79002
▁తగ్గ	-8.79572
▁విడుదల	-8.79998
▁చెంద	-8.80146
▁రాజకీయ	-8.80348
ent	-8.80391
▁రెండవ	-8.80895
▁బావుల	-8.81989
బడుతుంది	-8.82035
బడ్డాయి	-8.82579
▁ఆర్థిక	-8.82708
▁చూప	-8.83189
పల్లె	-8.8378
▁నాలుగు	-8.84194
నారాయణ	-8.84731
▁నాటక	-8.85221
▁ఏర్పాటు	-8.85517
▁ఒక్క	-8.85596
▁స్థాపించ	-8.86616
▁అమెరికా	-8.86778
▁అవసర	-8.86868
▁గ్రంథ	-8.86972
▁ముగ్గురు	-8.87207
▁కొనసాగ	-8.87329
▁బోరుబావుల	-8.8754
నగర	-8.87544
ఉ	-8.8765
▁వున్న	-8.885
L	-8.88506
▁మానవ	-8.88641
57	-8.88824
▁స్థానం	-8.89594
▁సాహిత్య	-8.89622
శాస్త్ర	-8.89994
▁విశ్వవిద్యాలయ	-8.90181
x	-8.90323
▁పూర్వ	-8.90584
చో	-8.9063
▁చేసింది	-8.9108
▁ప్రసిద్ధ	-8.91488
▁పుస్తక	-8.91783
F	-8.91901
కరించ	-8.91956
▁పశ్చిమ	-8.92524
▁స్థాయి	-8.92772
▁ప్రయత్న	-8.9311
▁జరిగింది	-8.93237
ధ్ర	-8.93301
▁తండ్రి	-8.93414
▁హైదరాబాదు	-8.93419
ాత్మక	-8.93433
▁చెరువు	-8.93483
▁అత్యంత	-8.93664
▁బహు	-8.94042
▁దగ్గర	-8.94505
▁తొలి	-8.94836
▁రచన	-8.97022
▁బ్రహ్మ	-8.97027
O	-8.97104
?	-8.97661
▁పురుషుల	-8.98159
W	-8.98314
▁శతాబ్దం	-8.98494
▁ప్రారంభించ	-8.98828
▁మండలంలోని	-8.98909
▁నటించ	-8.99429
▁కలిసి	-8.99549
▁అభి	-9.00221
▁వెంకట	-9.00648
▁సందర్భ	-9.00857
ఇ	-9.01132
▁వ్యాపార	-9.01211
పరచ	-9.01573
▁అప్పటి	-9.02188
▁వచ్చింది	-9.02473
▁సుమారు	-9.02532
▁అలాగే	-9.02748
▁డాక్టరు	-9.02858
శేష	-9.0383
▁కచ్చా	-9.03889
▁వివాహ	-9.03964
▁విశాఖపట్నం	-9.04042
▁చూడ	-9.04538
ుడైన	-9.04697
▁వర్గ	-9.04925
ుతారు	-9.05113
▁సూర్య	-9.05765
సంవత్సర	-9.05813
▁వ్యతిరేక	-9.06198
పోయిన	-9.06425
▁కళా	-9.06469
▁పరిశోధన	-9.06552
ేంద్ర	-9.06559
G	-9.0665
▁ప్రయాణ	-9.06657
ుడిగా	-9.0819
▁పోతోంది	-9.08362
▁be	-9.08421
గ్రామంలో	-9.08501
▁రచయిత	-9.08735
ంటుంది	-9.08916
▁మహిళ	-9.09085
▁నియమ	-9.09171
▁అర్థ	-9.09226
▁హిందూ	-9.10499
▁దాదాపు	-9.1051
పాలెం	-9.10521
ుకుంది	-9.10911
▁లభించ	-9.10943
▁చుట్ట	-9.11132
’	-9.11446
▁వచ్చే	-9.11564
•	-9.12089
▁ప్రదేశ్	-9.12261
▁చైనా	-9.12741
▁నిర్ణయ	-9.12743
ః	-9.12768
▁శాసనసభ	-9.12831
ఢ	-9.12905
ation	-9.12979
▁వుండ	-9.13058
▁పిల్లల	-9.13713
టువంటి	-9.14347
▁ఆహార	-9.14634
▁సామ్రాజ్య	-9.14801
▁సంప్రదాయ	-9.15359
▁న్యాయ	-9.1539
▁మరణించ	-9.15948
V	-9.15985
▁సహాయ	-9.16537
▁ఉదాహరణ	-9.16614
▁తెలుస	-9.16786
▁తీవ్ర	-9.1738
▁2001	-9.17647
బడ్డ	-9.19257
▁అంతర్జాతీయ	-9.19655
▁అధ్యక్ష	-9.20076
▁ప్లాంట్	-9.20637
పోయింది	-9.2086
ుకునే	-9.20861
▁ఉద్యోగ	-9.20967
ద్వార	-9.21179
▁సమస్య	-9.21183
▁తమిళ	-9.21233
▁సైన్య	-9.22109
▁శరీర	-9.2218
▁ప్రకటించ	-9.22355
▁చేశాడు	-9.22465
▁కాంగ్రెస్	-9.22468
j	-9.23093
‘	-9.2314
▁మరొక	-9.23207
▁లభిస్తుంది	-9.23233
▁దేవాలయ	-9.23336
▁పరిధిలో	-9.23364
▁రైలు	-9.23366
▁చర్చ	-9.23416
▁ఉద్యమ	-9.23564
▁రచించ	-9.23834
▁కనిపించ	-9.24067
పరిచ	-9.24121
వ్యాప్త	-9.24185
▁మార్పు	-9.24919
▁గుంటూరు	-9.25398
▁పునర	-9.25441
▁మాత్రం	-9.26088
▁భార్య	-9.26754
▁స్థిర	-9.27245
శతాబ్ద	-9.2743
▁గొప్ప	-9.27917
▁సైనిక	-9.28398
▁వహించ	-9.28813
▁ప్రదర్శన	-9.29361
▁కనిపిస్త	-9.30056
▁చూసి	-9.30098
▁స్థానిక	-9.30413
▁అత్యధిక	-9.30734
▁పారుదల	-9.31061
▁ట్రాక్టరు	-9.31489
▁పద్ధతి	-9.32054
క్షేత్ర	-9.32271
▁పాల్గొన	-9.32568
ఋ	-9.34856
K	-9.35802
}	-9.37693
ఒ	-9.42056
{	-9.43635
ఁ	-9.44093
°	-9.4656
_	-9.48563
”	-9.51223
ఏ	-9.57916
ఔ	-9.90003
ఐ	-10.0882
ఈ	-10.2405
ఓ	-10.6511
ఞ	-12.4084
·	-14.3557
