<unk>	0
<s>	0
</s>	0
.	-2.60296
,	-3.26847
▁	-4.38317
▁నుండి	-4.64392
▁కి	-4.66619
లో	-4.77887
▁ఉన్నాయి	-4.85181
▁మీ	-4.92757
▁ఉంది	-4.9497
▁గ్రామం	-5.02138
ం	-5.07378
▁దూరంలో	-5.08615
▁10	-5.1953
▁ఈ	-5.24571
ను	-5.28447
▁గ్రామంలో	-5.35349
లు	-5.35992
ని	-5.46953
▁మరియు	-5.49586
▁5	-5.55283
గా	-5.57972
కు	-5.61951
ల	-5.66771
▁కేంద్రం	-5.67786
▁సమీప	-5.72205
▁ఒక	-5.76512
ు	-5.81026
న	-5.82425
స్	-5.86897
▁కూడా	-5.93349
ి	-5.95373
▁ఆ	-5.95879
▁ద్వారా	-5.99541
ము	-6.05885
్	-6.07703
ా	-6.09354
▁సౌకర్యం	-6.09605
వ	-6.11362
తో	-6.11611
▁లో	-6.14918
▁పైబడిన	-6.17413
ారు	-6.17683
▁సంఖ్య	-6.19724
కి	-6.2037
▁పాఠశాల	-6.20383
▁కళాశాల	-6.24405
-	-6.27249
▁"	-6.27612
క	-6.29823
న్	-6.32253
▁ప్రభుత్వ	-6.33026
ాన్ని	-6.33321
ర్	-6.33689
▁జిల్లా	-6.33704
ాలు	-6.35861
▁యొక్క	-6.37929
▁వ్యవస్థ	-6.39218
▁గ్రామానికి	-6.43207
▁లేదు	-6.44177
▁రహదారి	-6.4451
▁ఇది	-6.4571
ే	-6.46712
ంగా	-6.4731
▁సరఫరా	-6.48591
:	-6.54748
త	-6.55147
▁ఉన్న	-6.56537
ల్	-6.56751
▁ప్రాథమిక	-6.59919
▁ఆరోగ్య	-6.63849
▁సామాజిక	-6.67604
ర	-6.68088
▁అ	-6.69607
మ	-6.69945
ానికి	-6.7011
ీ	-6.74083
క్	-6.7414
▁లోపు	-6.74549
ది	-6.77232
"	-6.77333
లను	-6.77451
ుడు	-6.78392
▁ప్రైవేటు	-6.785
ట్	-6.79069
▁వైద్య	-6.79507
▁కింది	-6.7977
వి	-6.79908
▁తన	-6.80368
▁ఎక్కువ	-6.83636
నే	-6.84069
రి	-6.85445
▁పాటు	-6.85833
;	-6.85933
ాడు	-6.87557
▁అని	-6.88511
ుల	-6.91569
మైన	-6.93035
▁నీరు	-6.94097
▁కంటే	-6.94737
▁విద్యా	-6.95975
▁/	-6.96385
▁-	-6.96434
రా	-6.97286
▁వి	-6.97594
▁ఇతర	-6.98318
▁వ్యవసాయ	-6.98528
s	-7.00729
▁ప్రధాన	-7.0281
గ	-7.0557
స	-7.05863
▁కోడ్	-7.06119
▁బ్యాంకు	-7.06659
▁చెందిన	-7.06686
రు	-7.06872
▁తరువాత	-7.07175
▁ఉన్నారు	-7.07598
▁విద్యుత్	-7.07892
▁కు	-7.0797
లా	-7.08967
▁అనే	-7.09359
▁జనగణన	-7.09606
ప	-7.10072
▁ఆసుపత్రి	-7.10181
డ్	-7.10471
▁వాణిజ్య	-7.10512
▁పబ్లిక్	-7.10685
▁వారం	-7.11476
ట	-7.11859
▁పథకం	-7.11909
ాల	-7.11939
నా	-7.12083
▁ఫోన్	-7.1248
▁లేదా	-7.12503
▁ప్రకారం	-7.12683
ద	-7.12783
▁షెడ్యూల్డ	-7.13057
డం	-7.13253
▁వ	-7.13292
ిన	-7.13407
▁గంటల	-7.14814
య	-7.15024
▁న	-7.15755
▁భారత	-7.15819
డ	-7.16249
▁ఒకటి	-7.16276
▁ఆఫీసు	-7.1668
▁కోసం	-7.16945
లోనూ	-7.17019
▁రెండు	-7.17131
లోను	-7.17151
▁స్టేషన్	-7.17345
▁పోస్టాఫీసు	-7.18079
▁సినిమా	-7.18491
▁బి	-7.18791
లి	-7.19889
పు	-7.20222
ులు	-7.20489
ింది	-7.20585
▁వైద్యశాల	-7.21039
ంలో	-7.21416
▁సంస్థ	-7.22314
▁·	-7.22972
▁ఆయన	-7.23434
▁అభివృద్ధి	-7.24807
▁7	-7.25126
▁వ్యవసాయానికి	-7.26778
సి	-7.27353
▁2	-7.27877
పై	-7.28323
▁రోడ్లు	-7.29031
డు	-7.31361
ాయి	-7.32233
ాలను	-7.33306
▁జాతీయ	-7.3349
▁తిరిగి	-7.33987
▁లు	-7.34537
▁డిగ్రీ	-7.34625
లలో	-7.34695
టి	-7.3472
▁నుంచి	-7.34784
▁ను	-7.3517
▁1	-7.36107
డి	-7.3663
▁the	-7.36798
▁రాష్ట్ర	-7.36952
▁ఉప	-7.37026
మ్	-7.37948
▁కా	-7.3885
▁గా	-7.39142
మా	-7.40014
▁ఏ	-7.40182
డానికి	-7.40826
▁విధంగా	-7.40979
▁క	-7.41331
▁ఉంటుంది	-7.41716
▁3	-7.41947
▁వారి	-7.42486
▁18	-7.43238
లోని	-7.43267
లకు	-7.43301
జ్	-7.43739
▁ఎ	-7.43795
మి	-7.43832
▁మధ్య	-7.43879
▁జరుగుతోంది	-7.44112
▁రైల్వే	-7.44236
▁చాలా	-7.44373
▁కొన్ని	-7.44684
వా	-7.44809
▁ప్రత్యేక	-7.46209
/	-7.47365
▁టి	-7.47788
▁ని	-7.48923
▁ఉత్పత్తి	-7.49063
▁ఏడాది	-7.49282
ూ	-7.49508
▁ఇ	-7.49817
▁వంటి	-7.50164
▁మ	-7.51342
▁లోని	-7.51526
▁కలిగి	-7.51901
▁భూ	-7.52705
▁పెద్ద	-7.52945
▁అనేక	-7.53354
కా	-7.54235
▁మురుగునీటి	-7.54343
▁అందుతుంది	-7.54569
▁కుటుంబ	-7.55916
▁వరకు	-7.56299
▁పొడుగునా	-7.5644
▁నీటి	-7.56458
నీ	-7.57062
'	-7.57266
న్న	-7.58763
▁నా	-7.5934
రీ	-7.59765
▁బస్సు	-7.60185
త్	-7.60482
▁వారు	-7.60802
▁స	-7.61001
▁ప	-7.61153
n	-7.61752
▁4	-7.62215
▁పేరు	-7.63356
▁2011	-7.63734
▁వృత్తి	-7.64063
▁తెలుగు	-7.64328
▁of	-7.64626
▁శ్రీ	-7.65244
▁శిక్షణ	-7.65582
ప్	-7.65969
▁'	-7.65996
▁అండ్	-7.66012
▁మండల	-7.66038
▁పౌర	-7.66755
సు	-7.67114
▁జరుగుతుంది	-7.67289
:.	-7.67359
▁సంఘం	-7.67998
▁ఆమె	-7.68148
తి	-7.68181
▁కొరకు	-7.68713
▁విస్తరించి	-7.69477
▁సంత	-7.69485
▁నమోదు	-7.69577
▁ప్రవహిస్తుంది	-7.69635
▁రవాణా	-7.69666
▁6	-7.6967
ల్లో	-7.6997
▁కాలువల	-7.70159
▁సి	-7.70406
▁మా	-7.7042
▁మాధ్యమిక	-7.70467
▁సామాన్య	-7.70478
▁గణాంకాల	-7.70526
చ	-7.7091
▁డాక్టర్లు	-7.71206
యా	-7.71522
▁సహకార	-7.71806
▁మురుగునీరు	-7.7202
▁స్వయం	-7.72236
మ్మ	-7.72286
▁బృందం	-7.72401
▁బ	-7.72492
▁మంది	-7.73237
▁కాగా	-7.73476
మే	-7.73528
▁ఔషధ	-7.73601
▁కేంద్రాలు	-7.73696
▁కార్యాలయం	-7.74101
▁మీద	-7.74141
▁8	-7.74334
జ	-7.75407
▁సంరక్షణ	-7.756
▁కులాల	-7.75732
▁పి	-7.75734
▁వినియోగం	-7.75774
▁ప్రతి	-7.76177
▁సొసైటీ	-7.7629
▁సంపూర్ణ	-7.7637
▁తెగల	-7.76442
▁మొదలైన	-7.7652
▁సేవా	-7.7655
▁లైన్	-7.76773
▁జనన	-7.76925
▁మొదటి	-7.76956
▁సహాయక	-7.77128
దు	-7.77579
▁ప్రత్యామ్నాయ	-7.77589
▁ఆటల	-7.77887
▁చిన్న	-7.78089
▁పశు	-7.78102
▁సబ్	-7.78115
▁సైన్స్	-7.78262
▁ప్రాథమికోన్నత	-7.78619
▁మైదానం	-7.78688
హ	-7.78792
▁చేసిన	-7.7911
▁బాలల	-7.79156
▁ఆటో	-7.79435
▁గ్రంథాలయం	-7.79526
▁పిన్	-7.79568
▁కార్యకర్త	-7.79604
▁ఇంటర్నెట్	-7.79796
▁నిమిత్తం	-7.79813
▁సంక్షేమ	-7.79886
▁వార్తాపత్రిక	-7.79976
▁మొబైల్	-7.80478
▁శిశు	-7.80524
▁మరణాల	-7.80704
▁సంచార	-7.8081
▁ఆర్ట్స్	-7.80855
▁పంపిణీ	-7.80912
▁మార్కెటింగ్	-7.81043
▁లొకేషన్	-7.81078
▁లోను	-7.81092
గ్	-7.81292
▁ఆశా	-7.81346
▁మగవారి	-7.81609
▁జనాభాతో	-7.81627
య్య	-7.81867
▁పారామెడికల్	-7.82059
▁ఆడవారి	-7.82062
▁రీడింగ్	-7.82236
▁హెక్టార్లలో	-7.82404
వే	-7.82409
▁మార్కెట్	-7.82443
▁పోలింగ్	-7.82466
▁జూనియర్	-7.82478
▁రూం	-7.82493
▁లాండ్	-7.82562
▁ఇళ్లతో	-7.82633
▁పారిశుధ్య	-7.83116
▁మాతా	-7.83121
▁వీధుల	-7.83162
▁తో	-7.83229
▁టెలిఫోన్	-7.83348
▁అంగన్	-7.83419
▁వాడీ	-7.83436
▁సరఫరాల	-7.83737
టం	-7.83854
▁పోస్ట్	-7.83902
వు	-7.83973
▁ఉత్పాదక	-7.84149
లే	-7.84821
▁కొరియర్	-7.84831
▁కెఫె	-7.84899
▁హాలు	-7.85127
▁పోషకాహార	-7.85202
▁చేస్తున్నారు	-7.85232
▁గృహావసరాల	-7.85507
▁దూరం	-7.8565
ో	-7.85664
▁పక్కనే	-7.85719
▁తర్వాత	-7.85744
▁అవసరాల	-7.85821
▁సేకరించే	-7.85855
▁కంకర	-7.86322
▁వస్తువులు	-7.86343
▁ఇంటింటిక	-7.86412
▁పై	-7.86417
▁పరపతి	-7.8655
▁అనియత	-7.86561
▁సమీకృత	-7.86691
▁వ్యర్థాలను	-7.86715
కో	-7.86843
న్నాయి	-7.86905
▁బయోగ్యాస్	-7.87027
▁మరుగుదొడ్డి	-7.87166
▁దివ్యాంగ	-7.87316
▁ఏటీఎమ్	-7.87337
▁డిస్పెన్సరీ	-7.87347
▁అలోపతి	-7.87384
ములు	-7.87543
▁పాలీటెక్నిక్	-7.87577
▁చెత్తను	-7.87761
▁రా	-7.87765
▁టెలిగ్రాఫ్	-7.88087
▁పట్టణమైన	-7.88202
▁పారబోస్త	-7.88228
▁ల	-7.89281
▁కేంద్రమైన	-7.89482
▁మూడు	-7.89487
▁జనాభా	-7.89575
▁బా	-7.89631
▁మేనేజిమెంటు	-7.89638
అ	-7.89693
లీ	-7.89695
▁వలన	-7.89913
▁వనరుల	-7.90044
▁బాలబడి	-7.90187
▁తమ	-7.902
ద్	-7.90441
▁రోజుకు	-7.90808
▁ది	-7.91065
▁అమలవుతోంది	-7.91454
▁జల	-7.91617
గు	-7.91787
ుని	-7.9245
రో	-7.92847
▁ఉంటాయి	-7.92908
▁in	-7.9331
▁15	-7.93538
▁కుళాయిల	-7.94473
పి	-7.94648
▁వద్ద	-7.95075
▁a	-7.95078
▁ఆఫ్	-7.95088
▁వరి	-7.95098
ణ	-7.95157
▁పాఠశాలలు	-7.9519
▁ప్ర	-7.95252
▁ము	-7.95527
▁9	-7.95771
▁అసెంబ్లీ	-7.9607
▁12	-7.96097
బడింది	-7.96161
▁బస్సులు	-7.96497
జి	-7.96628
▁అయితే	-7.96852
▁గ్రామాల	-7.96892
చే	-7.969
▁అతని	-7.9706
▁చేతిపంపుల	-7.97536
▁రోజువారీ	-7.97653
చి	-7.97873
▁గుండా	-7.9789
▁అయిన	-7.98178
రే	-7.98397
▁ప్రాంతాల	-7.98411
లతో	-7.98549
తా	-7.98744
▁జ	-7.98932
▁కానీ	-7.99274
▁పా	-7.99384
▁గ్రామ	-7.99645
▁అవుతున్నాయి	-7.99677
▁కిలోమీటర్ల	-7.99921
▁చేయ	-7.99959
▁దూరంలోనూ	-8.00048
▁శ	-8.00556
▁సా	-8.00878
▁సం	-8.01046
▁మె	-8.01533
▁మొత్తం	-8.01908
▁దాని	-8.02007
▁ఇంజనీరింగ్	-8.02119
2	-8.02944
▁--	-8.03239
▁అది	-8.0483
▁ఓ	-8.04878
▁చేసి	-8.05897
యి	-8.06222
▁అంటారు	-8.06229
▁వ్యవసాయం	-8.06371
బ్	-8.06997
▁మే	-8.07113
▁ఇక్కడ	-8.07115
▁సిబ్బంది	-8.07125
▁త	-8.07588
▁దక్షిణ	-8.07682
▁డి	-8.07746
▁ఉత్తర	-8.07922
▁సౌకర్యాలు	-8.08009
▁కాని	-8.08098
▁లేని	-8.08843
శ	-8.09131
ాలలో	-8.09174
▁దీని	-8.09191
▁గురించి	-8.09225
సా	-8.09285
▁తారు	-8.09441
బ	-8.09635
▁ఆర్	-8.09849
▁ఆంధ్ర	-8.09869
ె	-8.1013
ాలి	-8.10188
▁మొదలైనవి	-8.10376
▁జరిగిన	-8.11043
▁సు	-8.11059
▁మండలం	-8.11184
▁లేరు	-8.1134
లేదు	-8.11668
▁స్	-8.11682
పా	-8.11879
▁సమయంలో	-8.12056
బా	-8.12303
▁నేరుగా	-8.13062
▁వా	-8.13091
▁చ	-8.13212
▁హ	-8.13746
యు	-8.13989
ed	-8.14185
▁మాత్రమే	-8.14244
దా	-8.14259
▁ఉ	-8.14783
టు	-8.14867
▁తెలంగాణ	-8.15114
కే	-8.15236
ంది	-8.15305
▁17	-8.15434
మని	-8.15443
▁16	-8.15732
ిక	-8.16033
▁అన్ని	-8.16567
▁:	-8.16865
▁14	-8.17082
▁శాల	-8.17139
▁ఎస్	-8.17541
ఫ్	-8.17551
▁and	-8.1757
▁అతను	-8.17694
▁రాష్ట్రం	-8.17714
▁బహిరంగ	-8.1781
▁ఐ	-8.18456
ంత	-8.18484
▁ప్రపంచ	-8.19071
▁కొ	-8.19157
ళ్ళ	-8.19289
ంతో	-8.19505
▁ముందు	-8.1961
▁to	-8.19942
▁శుద్ధి	-8.1999
▁0	-8.20303
▁11	-8.20669
▁ప్రభుత్వం	-8.20921
ై	-8.20934
er	-8.21406
▁తిరుగుతున్నాయి	-8.21697
ప్ర	-8.21854
▁S	-8.21961
▁ఇద్దరు	-8.22064
క్ష	-8.22133
ించ	-8.22224
▁కో	-8.22254
ష్	-8.22894
▁మంచినీటి	-8.22997
ౌ	-8.23124
y	-8.2328
▁పార్టీ	-8.24039
బి	-8.24127
▁రక్షిత	-8.24519
ధ	-8.24621
▁20	-8.24631
▁చె	-8.24683
▁వల్ల	-8.24962
▁కాలంలో	-8.25346
▁వచ్చిన	-8.25736
ాలని	-8.25762
సీ	-8.25763
మో	-8.25821
▁మి	-8.26427
▁మండలానికి	-8.26459
▁పలు	-8.2693
▁ప్రముఖ	-8.27031
▁దీనిని	-8.27198
నో	-8.272
▁గ	-8.27268
▁కె	-8.27291
▁మన	-8.2733
జా	-8.27815
తు	-8.27821
టీ	-8.27931
వనరుల్లోకి	-8.27948
యో	-8.2796
వారు	-8.27961
▁ఇందులో	-8.28933
బడిన	-8.29077
1	-8.29382
ట్లు	-8.29415
▁అందుబాటులో	-8.29449
యం	-8.29531
కీ	-8.29677
▁వివిధ	-8.29834
▁లోనూ	-8.29908
్లో	-8.30119
ష	-8.30131
▁ఒకరు	-8.30319
▁ట్రాక్టర్లు	-8.30515
▁అతి	-8.3054
▁ఇవి	-8.30792
▁చేశారు	-8.30811
ించి	-8.31212
▁రాజ	-8.31744
ండ	-8.31901
పో	-8.31904
▁పో	-8.31996
ిత	-8.32233
రం	-8.3224
▁కొత్త	-8.32243
ప్ప	-8.32463
▁వదులుతున్న	-8.32704
▁13	-8.32973
▁అను	-8.33109
▁చెప్ప	-8.33145
ళ్ల	-8.33416
ాలకు	-8.33992
నూ	-8.34044
▁య	-8.34106
జీ	-8.34411
గి	-8.34423
మీ	-8.347
వచ్చు	-8.35196
భ	-8.35418
▁A	-8.35434
ంద	-8.35562
▁రాజకీయ	-8.36412
▁వే	-8.36694
▁కలిగిన	-8.36785
వ్	-8.37028
3	-8.37216
▁వాడేందుక	-8.3727
▁మహా	-8.37428
▁లా	-8.37499
ing	-8.37946
▁చేసే	-8.38257
▁అనేది	-8.38553
ండి	-8.38703
C	-8.38792
▁ఉండే	-8.38802
al	-8.39101
▁గో	-8.39293
ేందుకు	-8.3934
కొ	-8.3962
▁సంవత్సరాల	-8.39789
కం	-8.39852
టా	-8.3993
%	-8.39994
▁19	-8.4006
▁నాలుగు	-8.40248
A	-8.40701
▁ప్రజలు	-8.40738
టానికి	-8.40794
▁మంచి	-8.40844
▁కారణంగా	-8.40873
▁సంవత్సరం	-8.41006
▁అన్న	-8.4115
▁రామ	-8.41424
▁ఏర్పాటు	-8.41593
ైన	-8.41714
▁కాల	-8.41726
మును	-8.41729
▁సంగీత	-8.42007
▁గల	-8.4259
ములో	-8.42711
ంచ	-8.42978
ిస్తారు	-8.43001
▁ఒ	-8.43125
▁ముగ్గురు	-8.43248
▁జా	-8.43398
00	-8.43625
▁గ్రామము	-8.43719
▁ర	-8.44474
▁రెండవ	-8.44622
▁ద	-8.44779
▁అవి	-8.44851
▁తూర్పు	-8.44869
▁భారతీయ	-8.4497
గల	-8.45973
రాజు	-8.45997
▁తయారు	-8.46033
▁యు	-8.4618
ంగ	-8.46579
పల్లి	-8.46616
▁ఆర్థిక	-8.46712
▁వాటి	-8.46732
▁పని	-8.46987
టర్	-8.47254
▁చేసింది	-8.47284
e	-8.47305
ాల్లో	-8.47557
వాడు	-8.47616
ిస్తూ	-8.47674
M	-8.47933
▁వీరు	-8.48207
▁సాధారణంగా	-8.4835
▁అంటే	-8.48392
o	-8.48395
a	-8.48455
▁తక్కువ	-8.48603
▁ఎక్కువగా	-8.4898
క్క	-8.49126
▁లే	-8.49224
▁జరిగింది	-8.49279
▁తండ్రి	-8.49444
▁జి	-8.49609
▁అత్యంత	-8.49699
బడి	-8.49751
కుండా	-8.49809
▁అదే	-8.49843
▁పూర్తి	-8.499
ట్ట	-8.50129
▁కథ	-8.50188
▁ప్రాంతం	-8.50687
ళ	-8.50793
▁బావుల	-8.50813
నుండి	-8.50862
ిస్తుంది	-8.51588
టో	-8.51756
▁అధిక	-8.52044
▁ఇలా	-8.52181
▁రి	-8.52294
డా	-8.52334
త్త	-8.52381
ంగ్	-8.52566
▁పూ	-8.52606
▁వాడ	-8.52622
సం	-8.53437
u	-8.53465
▁50	-8.53696
▁s	-8.53699
కర	-8.53836
▁రాజు	-8.5386
▁భాష	-8.54028
స్ట్	-8.54075
d	-8.54618
▁వై	-8.54807
▁మో	-8.54964
▁బహిరంగంగా	-8.55036
▁మండలంలోని	-8.55048
▁పాత్ర	-8.5511
▁కలిసి	-8.55627
నం	-8.55677
రె	-8.55937
▁ఎం	-8.56041
మై	-8.5637
▁చిత్రం	-8.56429
ించిన	-8.56791
ముగా	-8.57193
▁చే	-8.57643
▁అవ	-8.57889
▁వచ్చింది	-8.58546
▁బ్రహ్మ	-8.58729
▁అలాగే	-8.58797
▁డాక్టరు	-8.58893
▁బోరుబావుల	-8.58925
▁కల	-8.59164
▁ప్రస్తుతం	-8.59193
▁కచ్చా	-8.59904
▁ప్రాంతంలో	-8.60148
▁చా	-8.60551
దీ	-8.6081
నె	-8.60924
రావు	-8.61124
4	-8.61133
▁కన్నా	-8.61669
!	-8.61729
▁శక్తి	-8.61988
ేవారు	-8.62562
▁దేవ	-8.62673
▁అక్కడ	-8.62733
థ	-8.62843
▁కాకుండా	-8.63032
▁చిత్ర	-8.63044
ుతుంది	-8.63269
▁57	-8.63525
ప్పుడు	-8.63671
▁బె	-8.63711
▁చరిత్ర	-8.63782
▁అనగా	-8.63872
▁పు	-8.64052
▁లోకి	-8.64055
▁భూమి	-8.64081
▁మత	-8.64104
▁గు	-8.64335
▁పోతోంది	-8.64396
t	-8.64705
▁దేశ	-8.64884
▁లేక	-8.65093
లుగా	-8.65357
▁ఉండ	-8.65467
▁ఇంకా	-8.65606
▁పశ్చిమ	-8.65688
ష్ట	-8.65779
▁పరి	-8.65809
▁కేంద్రంలో	-8.65862
▁C	-8.66088
ముల	-8.661
▁అమెరికా	-8.66136
▁నీ	-8.66139
▁కార్	-8.66171
▁ధర్మ	-8.6697
▁బాగా	-8.67036
ఆ	-8.67128
గో	-8.67166
▁చి	-8.67267
▁ఈయన	-8.67299
▁కాలం	-8.67445
S	-8.67546
గ్రామంలో	-8.67616
ుడి	-8.67792
చ్	-8.68089
▁ప్రదేశ్	-8.68291
?	-8.68484
ుతూ	-8.68785
▁శాసనసభ	-8.68867
▁తల	-8.69001
▁తొలి	-8.69381
▁P	-8.69396
r	-8.69459
ులకు	-8.69556
తీ	-8.69702
దే	-8.69725
▁కాదు	-8.69732
▁మొ	-8.6979
▁కొంత	-8.69808
ar	-8.69874
క్స్	-8.69932
▁కే	-8.69972
▁తా	-8.70013
వ్వ	-8.70263
▁వె	-8.70342
▁M	-8.70419
వీ	-8.70577
▁చేర	-8.70625
▁మూల	-8.70862
▁వారికి	-8.71223
▁దీనికి	-8.7144
ట్టు	-8.71465
వారి	-8.71955
▁నది	-8.72067
పల్లిలో	-8.72176
ళ్ళు	-8.72219
▁చేయడం	-8.72407
▁వచ్చే	-8.72727
▁శాఖ	-8.72943
▁చెరువు	-8.7299
▁పేరుతో	-8.73393
▁30	-8.73419
▁క్రీ	-8.7349
▁హిందూ	-8.7351
వర్	-8.73629
ుకో	-8.73651
▁•	-8.73671
▁2001	-8.7371
ధి	-8.7394
▁ప్రజల	-8.74038
g	-8.74161
ాలతో	-8.74219
తే	-8.74222
▁వచ్చి	-8.74296
▁25	-8.74303
i	-8.7444
▁సుమారు	-8.74553
లోనే	-8.74702
▁రో	-8.74796
▁తు	-8.74798
▁పె	-8.74909
ద్ద	-8.75037
బడ్డాయి	-8.75098
▁సంబంధించిన	-8.75738
▁శివ	-8.75794
or	-8.75799
▁విద్య	-8.76288
▁ముఖ్య	-8.76574
▁ప్లాంట్	-8.76676
మె	-8.76729
ుడైన	-8.76846
పూర్	-8.77083
హ్	-8.77346
▁సె	-8.77377
▁వ్యక్తి	-8.77384
an	-8.77391
▁రే	-8.77403
5	-8.77416
▁సాధారణ	-8.77676
▁B	-8.77703
హా	-8.77997
▁డా	-8.78195
▁కాంగ్రెస్	-8.78502
ుకొని	-8.78652
▁చేశాడు	-8.78671
▁పాట	-8.78723
▁విడుదల	-8.78767
▁భ	-8.78835
▁అంద	-8.7895
▁పోటీ	-8.79051
▁లభిస్తుంది	-8.79268
▁పురుషుల	-8.79424
▁రైలు	-8.79625
వె	-8.79637
▁f	-8.79699
▁నగరం	-8.79763
సె	-8.80173
▁కృష్ణ	-8.80632
▁is	-8.80673
▁కోట	-8.80719
▁స్వామి	-8.80806
▁తల్లి	-8.81334
▁ఎన్	-8.81404
▁నగర్	-8.81417
▁చూప	-8.81558
ంబ	-8.81811
▁హా	-8.82119
▁మాత్రం	-8.82187
ండ్	-8.82263
యే	-8.8256
▁పంప	-8.82573
▁చైనా	-8.82908
▁అన	-8.83272
సన్	-8.8337
▁కేంద్ర	-8.8345
ఇ	-8.8365
▁పొ	-8.83651
లోకి	-8.83736
▁భాగంగా	-8.83751
▁c	-8.83876
’	-8.8392
th	-8.83965
▁గొప్ప	-8.83967
డే	-8.8425
న్స్	-8.8425
▁రోజు	-8.84299
▁యుద్ధం	-8.84435
▁పాల	-8.84522
▁డ	-8.85028
▁కనుక	-8.85125
▁దాదాపు	-8.85254
▁కొండ	-8.85322
▁కృష్ణా	-8.85452
k	-8.8548
▁భార్య	-8.8554
▁ప్రా	-8.85549
ుకుని	-8.85551
6	-8.85636
▁కాక	-8.85778
▁యా	-8.85923
p	-8.86044
బు	-8.86235
▁నె	-8.863
▁స్థానిక	-8.86428
ొ	-8.86627
▁అంతర్జాతీయ	-8.86788
▁కోర	-8.86793
పె	-8.86797
ాయ	-8.86813
▁58	-8.86857
▁చివరి	-8.87017
▁పారుదల	-8.87095
▁దా	-8.87282
▁పెంచ	-8.87368
▁ట్రాక్టరు	-8.87524
డో	-8.87718
లె	-8.87764
▁అంత	-8.88078
బడుతుంది	-8.88092
ీయ	-8.88092
▁పంపిస్తున్నారు	-8.88152
చు	-8.8819
h	-8.8828
▁ఉన్నత	-8.88463
ండు	-8.88516
ూరు	-8.88554
b	-8.8856
▁వ్యాపార	-8.88687
▁n	-8.88708
▁జీవ	-8.88851
బో	-8.89061
డీ	-8.89115
▁వీరి	-8.89145
▁షా	-8.89193
c	-8.89198
in	-8.89344
▁జె	-8.89375
▁ఉండేది	-8.89381
▁బో	-8.89461
▁పొందిన	-8.89483
▁or	-8.89972
ట్ల	-8.89987
E	-8.90167
కాల	-8.90427
▁ఖ	-8.90444
▁సాహిత్య	-8.90668
▁నివాస	-8.90792
▁విశాఖపట్నం	-8.90851
ులను	-8.91154
ఖ	-8.91311
డంతో	-8.91328
▁లోపే	-8.91342
▁మరో	-8.91346
▁పెట్ట	-8.91583
▁వాటిని	-8.91772
ాను	-8.91801
▁భాగం	-8.91956
▁తప్ప	-8.91972
D	-8.92024
▁మరొక	-8.92144
▁ప్రత్తి	-8.92184
▁గుంటూరు	-8.92245
▁=	-8.92266
ంచి	-8.92296
▁జన	-8.9239
▁వున్న	-8.92788
▁!	-8.92916
▁తి	-8.92984
ింప	-8.93039
ాన	-8.93062
▁నగర	-8.93251
షన్	-8.93324
పాడు	-8.93426
▁మానవ	-8.93628
▁సో	-8.93736
▁ఒకే	-8.93752
▁వీ	-8.93926
P	-8.93986
య్	-8.94034
▁సర్వ	-8.94068
▁అమ్మ	-8.94114
▁కేవలం	-8.94132
▁విజయ	-8.94197
▁మరింత	-8.94336
▁ఈమె	-8.94376
కల్	-8.94667
▁ఆధునిక	-8.94687
▁అప్పటి	-8.94794
మన్	-8.94804
I	-8.9481
▁నాటికి	-8.94985
ంటే	-8.95084
▁దుకాణం	-8.95109
▁దగ్గర	-8.95138
కె	-8.95154
▁The	-8.95287
▁కంపెనీ	-8.95341
▁దేశం	-8.9554
ుతున్న	-8.95612
ంటి	-8.95859
ీకరణ	-8.96037
▁గోదావరి	-8.9604
▁24	-8.96041
▁జిల్లాలో	-8.96111
▁ఉపయోగించ	-8.96114
ఎ	-8.96156
▁తాను	-8.96292
▁ఇన్	-8.96299
▁నాగ	-8.96424
జన	-8.96429
్య	-8.96445
▁ఆలయం	-8.96704
▁హైదరాబాదు	-8.96733
▁శాలలో	-8.96762
నది	-8.96786
▁విశ్వవిద్యాలయం	-8.96834
▁‘	-8.96868
త్తు	-8.96898
re	-8.97093
స్తూ	-8.97138
▁ఆడ	-8.97185
దని	-8.97191
సే	-8.97285
▁ప్రారంభ	-8.97353
▁21	-8.97378
▁59	-8.97415
▁మార్చి	-8.97562
ారని	-8.976
సో	-8.97625
ుకున్న	-8.97985
▁పంచ	-8.98082
హి	-8.98084
రణ	-8.98238
కర్	-8.98289
▁చూడ	-8.98594
▁ముఖ్యంగా	-8.987
కులు	-8.98901
ుట	-8.98918
m	-8.99021
మున	-8.99706
▁ఉంచ	-8.99801
▁ఈనాడు	-8.99813
ra	-8.99956
▁ఎన్నో	-9
▁బ్రిటిష్	-9.00099
గానే	-9.00119
▁చేత	-9.00145
▁చెయ్య	-9.00245
జు	-9.0034
స్త	-9.00354
▁ఆధారంగా	-9.00538
▁గుర్తింపు	-9.00709
▁సౌకర్యాలున్నాయి	-9.00757
ును	-9.0081
ిస్తున్న	-9.01138
▁సీ	-9.01343
▁పడ	-9.01385
▁నేను	-9.01574
▁మట్టిరోడ్ల	-9.01615
▁వీర	-9.01818
▁ముఖ్యమైన	-9.0183
▁పూర్వ	-9.02016
టే	-9.02184
▁అలా	-9.02229
▁ఐదు	-9.02311
▁స్థానంలో	-9.02577
▁బు	-9.0259
కార	-9.02596
▁ఉండి	-9.02651
▁అధికంగా	-9.0267
▁నెల్లూరు	-9.02783
▁చేయని	-9.02877
▁ఒక్క	-9.02883
▁తాగునీరు	-9.03184
బ్బ	-9.03422
▁రె	-9.03553
▁పోతున్నాయి	-9.03614
ించే	-9.03676
▁22	-9.03743
ట్టి	-9.03768
l	-9.03883
▁ఫ	-9.04008
ly	-9.04105
▁యుద్ధ	-9.043
▁for	-9.04409
▁లలో	-9.04419
▁దేశంలో	-9.04509
es	-9.04685
▁లేకుండా	-9.0483
▁జీవిత	-9.0489
▁దానిని	-9.04969
▁భారతదేశంలో	-9.04991
▁లెక్కల	-9.05358
▁సముద్ర	-9.05496
▁భావ	-9.05504
▁I	-9.05583
మునకు	-9.05692
▁p	-9.05914
le	-9.05959
▁పొంద	-9.05998
▁డె	-9.06012
▁అందులో	-9.06124
▁ప్రదర్శన	-9.06158
ెను	-9.06171
7	-9.06232
▁సమ	-9.06295
ందుకు	-9.06351
▁వైపు	-9.06522
▁చేస్తారు	-9.06556
ri	-9.06604
▁సై	-9.06789
▁లి	-9.06809
▁శాతం	-9.0714
20	-9.07163
▁ప్రక్రియ	-9.07173
▁విజయం	-9.07196
T	-9.07203
ించారు	-9.07229
”	-9.07257
పురం	-9.07318
▁మిగిలిన	-9.07435
ుటకు	-9.07454
▁బాల	-9.07483
ల్లా	-9.07555
▁సిబ్బంద	-9.07586
▁లను	-9.07735
▁N	-9.07948
▁మార్చ	-9.08074
ించాడు	-9.0811
▁ఎంతో	-9.0815
▁23	-9.082
ేశ్వర	-9.0827
▁బీ	-9.08288
▁చెంద	-9.08289
▁be	-9.08384
▁నిర్మాణ	-9.08531
▁2009	-9.08546
▁పే	-9.08704
పద	-9.0892
▁వెళ్ళ	-9.08938
లం	-9.09001
ధా	-9.09034
▁నాటి	-9.09035
రియా	-9.09065
త్వం	-9.09263
వో	-9.09539
▁అవుతోంది	-9.09616
ధ్య	-9.0966
8	-9.09854
▁స్థాయి	-9.09926
కూ	-9.10084
▁స్టేషను	-9.10115
▁ఇప్పుడు	-9.10171
▁ఉత్తమ	-9.10207
▁పట్ట	-9.10245
▁లాంటి	-9.10332
▁G	-9.10492
▁నిర్వహణ	-9.10599
ఘ	-9.10817
షి	-9.10891
నియా	-9.10959
కుడు	-9.11085
త్ర	-9.11296
పీ	-9.11485
మూ	-9.11521
ల్ల	-9.11521
▁D	-9.11583
పతి	-9.11664
▁వెళ్ళి	-9.11807
▁పీ	-9.1202
▁ఆరు	-9.12099
▁ఎత్తు	-9.12327
చ్చ	-9.12395
▁యునైటెడ్	-9.1252
▁అంచనా	-9.1252
▁పూర్తిగా	-9.12531
R	-9.12608
▁నే	-9.12638
▁రకాల	-9.12786
▁ప్రజా	-9.1279
▁వీటిలో	-9.12832
▁వలె	-9.12856
వరం	-9.12951
▁నూనె	-9.12983
▁పద	-9.13058
▁అవకాశం	-9.13089
O	-9.13109
▁వలస	-9.13141
▁ఉపయోగిస్తారు	-9.13238
▁కారణం	-9.13251
▁కవి	-9.13253
▁ఏక	-9.13261
శి	-9.13334
ాడని	-9.13341
▁విజయవాడ	-9.13385
కుల	-9.13482
మైనది	-9.13484
am	-9.13555
జర్	-9.13578
▁చేయడానికి	-9.13637
▁హో	-9.13843
▁ఫా	-9.13967
▁m	-9.1414
▁రంగ	-9.14195
షా	-9.14339
▁అర్థం	-9.14394
▁సేవ	-9.1448
▁వారిని	-9.1453
లేని	-9.14637
లూ	-9.14676
మాన	-9.147
యర్	-9.14801
at	-9.15027
▁స్త్రీల	-9.15155
_	-9.15207
స్వామి	-9.15228
▁ష	-9.15241
▁2007	-9.15258
▁నిర్వహించ	-9.15345
▁ప్రసిద్ధి	-9.15421
గిరి	-9.15643
▁అత్యధిక	-9.1568
▁హై	-9.15777
జె	-9.15788
ంట్	-9.15867
▁H	-9.15934
▁ప్రేమ	-9.16055
en	-9.16112
▁అతిపెద్ద	-9.16278
▁చంద్ర	-9.16364
▁ఇండియా	-9.16542
▁సంప్రదాయ	-9.16548
50	-9.16663
▁రెడ్డి	-9.167
▁చేసారు	-9.16836
▁స్వతంత్ర	-9.16884
ad	-9.16946
▁ఎల్	-9.17014
ుకునే	-9.17319
▁2008	-9.17469
▁మై	-9.1769
▁జనవరి	-9.17856
▁పరిశోధన	-9.17871
▁తె	-9.17898
▁వేద	-9.17957
▁అప్పుడు	-9.17972
▁26	-9.18016
నని	-9.18107
పోయింది	-9.18116
▁పాడ	-9.18177
▁కలిపి	-9.18196
▁అల	-9.18261
టింగ్	-9.18272
ంజ	-9.183
▁ఇదే	-9.18339
0	-9.18457
▁న్యూ	-9.18475
ణి	-9.18475
నగర్	-9.1857
▁మహబూబ్	-9.18919
▁అల్	-9.18925
▁దశ	-9.18988
చేయ	-9.19
▁శా	-9.191
▁బొ	-9.19133
టన్	-9.19293
స్తా	-9.19475
ుకున్నారు	-9.19499
మైంది	-9.19567
▁విశ్వ	-9.19596
▁వీటిని	-9.19644
ఫి	-9.19797
తం	-9.19835
ందు	-9.19887
బడ	-9.19909
▁శతాబ్దం	-9.20052
కొండ	-9.20071
)	-9.20088
▁సర్	-9.20133
▁F	-9.20218
ic	-9.20286
▁సైనిక	-9.20325
▁వెంకట	-9.20425
▁E	-9.20745
తారు	-9.20783
లై	-9.20863
▁గాంధీ	-9.20958
▁సత్య	-9.20965
ంట	-9.21098
▁రచయిత	-9.21139
▁జూలై	-9.21175
▁కీ	-9.21272
ృ	-9.21353
▁రాజధాని	-9.2138
ములను	-9.21387
▁L	-9.2144
ur	-9.21458
ళ్లు	-9.21522
▁27	-9.2157
▁జో	-9.21755
B	-9.21826
మీద	-9.21884
▁దు	-9.21932
▁కృషి	-9.22064
▁వేల	-9.22071
▁b	-9.22226
రామ	-9.22266
త్య	-9.22314
et	-9.22325
▁చేస్తుంది	-9.22335
▁బ్ర	-9.22407
v	-9.22523
f	-9.22554
ిస్తాడు	-9.2263
▁నాటక	-9.22797
10	-9.22818
▁వ్యాధి	-9.22918
ిని	-9.22955
ః	-9.23014
▁జూన్	-9.23095
▁స్వ	-9.23167
▁సిద్ధ	-9.23269
తులు	-9.23397
బీ	-9.23881
▁నవల	-9.23905
▁ప్రభావం	-9.23949
ల్లి	-9.2396
చ్చి	-9.24091
▁శాస్త్ర	-9.24111
▁రూ	-9.24152
స్తుంది	-9.24281
▁పత్రిక	-9.24351
ంగి	-9.24354
▁ఫి	-9.24357
▁సంస్కృతి	-9.24359
▁re	-9.2445
▁రూప	-9.24464
▁40	-9.24512
ుతారు	-9.24563
▁పాత	-9.24733
▁ఉష్ణోగ్రత	-9.24737
▁ఎన్నికలలో	-9.2476
9	-9.24947
30	-9.25011
11	-9.2506
▁దానికి	-9.25255
▁28	-9.25264
▁భారతదేశం	-9.25297
డె	-9.25301
▁వివాహం	-9.25306
us	-9.25407
▁ఇవ్వ	-9.25429
▁పురాతన	-9.25454
▁పదం	-9.25585
▁మార	-9.25653
▁రంగు	-9.2576
▁సంవత్సరంలో	-9.25842
▁అమెరికన్	-9.26153
▁గ్రామాలు	-9.26162
మర్	-9.26384
19	-9.26522
ునిగా	-9.2653
40	-9.26605
▁పెళ్ళి	-9.26711
▁చూసి	-9.26846
ించింది	-9.26846
▁శతాబ్దంలో	-9.26891
13	-9.26929
▁స్త్రీ	-9.27029
రూప	-9.27033
రూ	-9.27094
N	-9.27105
▁పైగా	-9.27254
▁స్థానం	-9.27272
▁కుమారుడు	-9.27311
▁బౌద్ధ	-9.27339
▁ఊ	-9.27349
సర్	-9.27369
వాడ	-9.27406
▁నిర్మించ	-9.27458
▁బే	-9.27466
▁మాట	-9.27481
▁ఇంటి	-9.27613
▁నిర్మాణం	-9.27642
▁ఇతడు	-9.27683
▁సరిహద్దు	-9.27693
స్థ	-9.27735
▁R	-9.27747
▁మహ	-9.27762
▁గుర్తించ	-9.27783
▁తెలియ	-9.28122
▁మొట్టమొదటి	-9.28242
▁ఆహార	-9.2825
▁వేరు	-9.28298
ుగా	-9.28396
▁దారి	-9.28506
▁వరకూ	-9.28673
▁ఎలా	-9.28709
మంది	-9.28714
▁గి	-9.2872
▁ఆంధ్రప్రదేశ్	-9.28727
▁ఎక్స్	-9.28852
▁కట్ట	-9.29155
▁పంట	-9.29219
▁న్యాయ	-9.29258
చె	-9.29302
▁రక్షణ	-9.29414
▁కొద్ది	-9.29449
▁లె	-9.2959
▁చికిత్స	-9.29762
▁ప్రాంతాలలో	-9.29787
ఒక	-9.29867
రాజ	-9.3011
▁గాని	-9.30168
▁ఖండ	-9.30259
ఉ	-9.30287
▁as	-9.30309
▁వీటి	-9.30437
▁గాలి	-9.30453
రై	-9.30459
లపై	-9.30558
ులైన	-9.30586
ుకున్నాడు	-9.30597
▁రసాయన	-9.307
▁కళా	-9.30772
ప్పటికీ	-9.30906
▁అయినప్పటికీ	-9.31081
వపేజీ	-9.31082
▁చంప	-9.31217
il	-9.31265
▁విలువ	-9.31315
▁పొందింది	-9.31345
ఫ	-9.31421
పే	-9.31427
పాలెం	-9.31448
▁సంస్కృత	-9.31606
▁మూడవ	-9.31655
శా	-9.31689
భా	-9.31739
▁రాయ	-9.31765
దర	-9.31779
▁నగరంలో	-9.31795
▁హె	-9.3196
|	-9.31962
▁చేసాడు	-9.32015
▁ఆలయ	-9.32175
ంప	-9.32204
▁టా	-9.32296
గ్రామానికి	-9.32404
▁కాం	-9.32406
▁వస్తుంది	-9.3242
▁నూతన	-9.3253
▁with	-9.32559
తాయి	-9.32595
▁పర	-9.32795
on	-9.32846
జం	-9.32884
పడ	-9.32887
▁ఉపయోగ	-9.32919
▁నల్ల	-9.33002
ిస్తాయి	-9.33096
▁వార	-9.33113
▁ఎంత	-9.33125
▁2006	-9.33128
▁విషయం	-9.33128
ంగు	-9.33171
L	-9.33216
▁ప్రసిద్ధ	-9.33363
▁కొందరు	-9.33374
▁ఆంగ్ల	-9.33401
14	-9.33421
▁అవసరం	-9.33488
కల	-9.33508
తుల	-9.33582
స్తారు	-9.33597
లర్	-9.33702
▁దాడి	-9.33833
▁ప్రస్తుత	-9.33844
▁2010	-9.33885
ూర్	-9.33911
▁కొనసాగ	-9.33915
▁కార్య	-9.33976
▁ప్రాచీన	-9.33996
▁రచన	-9.34072
▁దేశాల	-9.34156
ent	-9.34179
▁ఏప్రిల్	-9.3418
ట్స్	-9.34226
▁అగ్ని	-9.34302
ఁ	-9.34343
▁వంశ	-9.34439
ఫా	-9.34487
▁సహా	-9.34577
▁మందుల	-9.34667
ch	-9.34673
ుకోవడం	-9.34866
▁సంగీతం	-9.35002
▁తమిళ	-9.35008
▁కనిపించ	-9.35123
▁నిర్	-9.35137
▁వేయ	-9.35142
శ్	-9.35206
లేక	-9.35251
▁మహిళల	-9.35265
▁అమలు	-9.35324
▁పది	-9.35346
▁చేస్తున్న	-9.35419
సర	-9.35467
▁సాంకేతిక	-9.35489
▁పాప	-9.35578
▁మారింది	-9.35601
▁మార్	-9.35645
▁ఆనంద	-9.35712
▁దేశాలలో	-9.3585
పొ	-9.35897
▁వాటిలో	-9.35938
▁రోడ్డు	-9.35998
▁చిత్తూరు	-9.3601
నాడు	-9.36072
▁తీర	-9.36181
ులుగా	-9.36292
పర్	-9.36401
▁బ్రిటీష్	-9.3646
న్నా	-9.36489
▁ఆది	-9.36512
▁ఆత్మ	-9.36779
▁వర్ణ	-9.36888
బుల్	-9.36914
▁చర్య	-9.37112
ల్స్	-9.37184
పెట్ట	-9.37229
▁సంస్థలు	-9.3723
కరణ	-9.37269
తర	-9.37285
వచ్చును	-9.37357
కాలం	-9.37361
వాద	-9.37383
తాడు	-9.37392
▁కం	-9.37623
ation	-9.37782
▁మద్దతు	-9.37788
బె	-9.37872
నల్	-9.38027
▁ఫల	-9.38069
ాలుగా	-9.3812
▁గాయ	-9.38129
్యం	-9.38162
60	-9.38164
▁ఇతని	-9.38218
▁బట్టి	-9.38223
▁K	-9.38236
నై	-9.38349
▁రాజా	-9.38434
వై	-9.38445
▁ధర	-9.38615
▁జాతి	-9.38665
▁ఫలితంగా	-9.38671
▁భారీ	-9.38777
న్ని	-9.38844
▁by	-9.38893
▁చేర్చ	-9.3892
▁w	-9.39048
▁పైన	-9.39174
ుడిగా	-9.39332
▁జాబితా	-9.39346
15	-9.39372
▁గౌరవ	-9.39472
ha	-9.39485
▁కాలువ	-9.39582
ించడం	-9.39673
▁జరిగే	-9.39673
▁అతడు	-9.39735
▁నారాయణ	-9.3976
వ్య	-9.39917
▁పరీక్ష	-9.39925
శాల	-9.39984
ేవాడు	-9.39998
త్వ	-9.40047
=	-9.40125
▁అయింది	-9.40152
ప్రైవేటు	-9.4016
▁పొడవు	-9.4022
ాత్మక	-9.40335
దో	-9.40601
ద్ర	-9.40628
బర్	-9.40751
తను	-9.40787
రక	-9.40976
▁కుల	-9.41034
▁ఐరోపా	-9.41079
▁కర్నూలు	-9.41166
యిన	-9.41181
కారం	-9.41216
▁W	-9.41234
▁కాంతి	-9.41279
▁వ్యతిరేకంగా	-9.41281
12	-9.4129
▁సభ	-9.41312
▁లీ	-9.41314
ర్స్	-9.41394
వలసిన	-9.41542
▁క్రింద	-9.41566
్యు	-9.41591
▁పట్టణ	-9.41646
వార	-9.41701
▁ఫిబ్రవరి	-9.41705
▁లేవు	-9.41709
గే	-9.41774
▁సహజ	-9.41804
23	-9.42051
▁పిలుస్తారు	-9.421
▁T	-9.42176
▁అల్ల	-9.42243
17	-9.42378
▁ఏర్పడిన	-9.42417
▁పాలన	-9.42435
▁తీసుకు	-9.42455
▁ప్రాణ	-9.42481
▁రూపంలో	-9.42574
స్తాయి	-9.42614
▁వేరుశనగ	-9.42625
వర	-9.42673
▁మూ	-9.42729
▁గురు	-9.42739
▁భర్త	-9.42801
టిక్	-9.42818
▁ధన	-9.42859
స్టర్	-9.42871
ాక	-9.42964
పల్లె	-9.43043
▁సూర్య	-9.43148
▁నిర్వహించారు	-9.43157
▁నిర్ణయించ	-9.43234
▁దృష్టి	-9.43297
▁అవార్డు	-9.43455
▁గారు	-9.43474
▁బల	-9.43571
▁రై	-9.43628
ార	-9.43689
16	-9.43748
▁పూజ	-9.43775
▁ప్రదర్శించ	-9.43783
▁విధానం	-9.43849
▁చుట్టూ	-9.43931
▁ఆట	-9.4406
▁మొక్కజొన్న	-9.44098
▁పూర్	-9.44121
ుతాయి	-9.44193
థా	-9.44272
▁హిందీ	-9.44372
01	-9.44446
ro	-9.4451
▁కూడిన	-9.44588
కర్త	-9.44615
రాయ	-9.44646
క్కు	-9.44663
▁చేస్తూ	-9.44671
▁వర	-9.44671
▁నేషనల్	-9.4473
శాస్త్ర	-9.448
▁అర్ధ	-9.44877
▁ప్రకాశం	-9.44899
▁టై	-9.4501
H	-9.45021
రిక	-9.45056
85	-9.45403
ాడ	-9.45433
పుడు	-9.45468
▁29	-9.45471
ముఖ	-9.45546
la	-9.45628
▁చాల	-9.45639
▁సహ	-9.45684
ంబు	-9.45861
చేసి	-9.46173
▁నో	-9.46341
▁బహు	-9.46389
▁జట్టు	-9.46428
▁U	-9.46475
▁కారణ	-9.46515
పోయిన	-9.46643
ుకుంది	-9.46666
▁ప్రపంచంలో	-9.46697
▁తగ్గించ	-9.46701
▁విశేష	-9.46736
భవ	-9.46868
దేవి	-9.46884
▁సాధించ	-9.46924
▁యూ	-9.46944
▁గుర్తు	-9.46961
▁కౌ	-9.47018
▁చింత	-9.47034
▁గారి	-9.47158
రెడ్డి	-9.47217
▁లక్షల	-9.47473
▁31	-9.47485
ద్య	-9.47504
▁జన్మించాడు	-9.47556
▁2004	-9.47634
25	-9.47645
▁సైన్యం	-9.47665
రవ	-9.47704
▁సింగ్	-9.47724
ుడిని	-9.47751
se	-9.47784
▁ఘన	-9.48044
▁చేయబడింది	-9.48051
క్షణ	-9.48082
0,000	-9.48094
▁సంపాదించ	-9.48172
▁పర్వత	-9.4819
▁అధికార	-9.48243
▁ధ	-9.48273
▁వాడు	-9.48274
▁తిరుపతి	-9.48318
33	-9.48413
▁కూ	-9.48503
▁తెర	-9.48541
ంటు	-9.48546
ర్ల	-9.48554
▁అయ్య	-9.48577
▁చెట్టు	-9.48657
పరచ	-9.48719
▁జ్ఞాన	-9.48803
కోట	-9.48882
ండ్ల	-9.48912
▁ముస్లిం	-9.48922
08	-9.48939
▁రక్త	-9.48968
▁ఎంపిక	-9.49055
▁అర్	-9.49129
▁తొలగించ	-9.49171
▁ప్రధానంగా	-9.4919
▁సమీపంలో	-9.49234
▁గొ	-9.49252
▁జయ	-9.49262
▁అన్నాడు	-9.49326
వైపు	-9.49537
▁అక్టోబరు	-9.49541
▁d	-9.49573
▁గురువు	-9.49631
తన	-9.49756
▁ఇక్కడి	-9.49889
61	-9.49902
▁పట్ల	-9.49958
77	-9.50134
▁ఆయనకు	-9.50229
▁గ్రా	-9.50253
నర్	-9.50254
▁పర్వము	-9.50301
▁నిర్మించిన	-9.5034
▁ప్రణాళిక	-9.50373
▁సంవత్సరాలు	-9.50421
▁కంప్యూటర్	-9.50444
▁శ్రీకాకుళం	-9.50477
మత	-9.50515
కాయ	-9.50545
▁ఆగస్టు	-9.50583
▁గుణ	-9.50658
▁g	-9.50716
▁మంత్ర	-9.50723
▁టీ	-9.50745
▁తనకు	-9.50752
▁ఇంత	-9.50791
▁మార్పు	-9.50864
▁ఉదాహరణకు	-9.5087
▁ప్రవేశ	-9.50879
▁గృహాలు	-9.50889
▁అప	-9.50897
▁మొదట	-9.50934
▁పరిస్థితి	-9.51024
▁శాంతి	-9.51064
కాలంలో	-9.51065
▁ఉంటే	-9.51188
▁పాటలు	-9.51273
జో	-9.51279
99	-9.51361
▁సూచించ	-9.5143
ున్న	-9.5167
▁రేడియో	-9.51794
70	-9.5186
▁ఏడు	-9.51862
▁పరిధిలో	-9.51932
లూరు	-9.51938
▁కుమార్తె	-9.51976
▁భాషా	-9.52002
▁గ్రామములో	-9.52032
▁మూస	-9.52068
▁సంయుక్త	-9.52104
▁సంబంధం	-9.52212
▁నవ	-9.52276
▁వరంగల్	-9.52353
▁మద్య	-9.52379
▁సాంస్కృతిక	-9.52407
పేట	-9.52421
▁హైదరాబాద్	-9.52431
దేశ	-9.52444
డుగు	-9.52486
▁కల్పించ	-9.52549
▁రాజ్య	-9.52563
▁జన్మ	-9.52571
ఏ	-9.52588
▁వివాహ	-9.52616
▁బాధ్యత	-9.52705
▁కొల	-9.52734
ఠ	-9.5285
స్తు	-9.52909
వలసి	-9.52936
పరి	-9.5305
చర	-9.53142
▁సందర్భంగా	-9.53156
▁ఆల్	-9.53202
▁ఎందుకంటే	-9.53259
▁35	-9.53269
▁గుడి	-9.5339
▁హరి	-9.53422
టరు	-9.53444
▁జొన్న	-9.53492
▁2013	-9.53526
▁on	-9.5353
▁ఒప్పందం	-9.53538
▁మార్గం	-9.53634
▁ఇం	-9.53665
▁సాధన	-9.53668
ండే	-9.53709
సూ	-9.53808
గం	-9.53955
▁భావించ	-9.53963
▁లింగ	-9.54028
▁అయి	-9.54065
▁శి	-9.54115
ాది	-9.54145
21	-9.54193
▁నియోజకవర్గం	-9.54227
▁డై	-9.5424
▁నెల	-9.54327
▁51	-9.54533
▁తే	-9.5464
▁భాషలో	-9.54691
▁పడి	-9.54694
దం	-9.54786
▁సోమ	-9.5479
▁l	-9.54823
▁చట్టం	-9.54858
▁నేల	-9.54865
▁ముఖ	-9.54877
▁ప్రకృతి	-9.54925
▁సినీ	-9.54962
▁ఆసక్తి	-9.55029
98	-9.55034
▁ఉండటం	-9.55056
▁ఇప్పటికీ	-9.55086
డమే	-9.55098
▁త్రి	-9.55116
▁మొక్క	-9.55156
▁రు	-9.55163
▁తగ్గ	-9.55181
▁ఆలోచన	-9.55217
li	-9.55347
w	-9.55365
▁కాబట్టి	-9.55369
▁అతనికి	-9.55371
▁100	-9.554
ద్ధ	-9.55435
▁పుట్ట	-9.55441
▁డిసెంబరు	-9.55475
కై	-9.55476
▁పద్ధతి	-9.55499
▁అంగీకరించ	-9.55549
it	-9.55567
ప్పు	-9.5558
▁2014	-9.55583
▁విదేశీ	-9.55646
ఫె	-9.55805
▁భారతదేశ	-9.55898
▁మద్రాసు	-9.55929
▁ప్రాంత	-9.55968
▁కామ	-9.56006
▁2005	-9.56007
▁రెండో	-9.56065
90	-9.56069
▁ఉంటారు	-9.56159
▁మాట్లాడ	-9.56315
▁సమస్య	-9.56318
▁చెప్పిన	-9.56331
▁తొ	-9.56342
07	-9.5635
డర్	-9.56352
95	-9.56354
el	-9.56416
మెంట్	-9.56431
గొ	-9.56509
F	-9.56551
▁చెప్పాడు	-9.56556
▁పండుగ	-9.56639
▁ఖాన్	-9.56656
చా	-9.5666
▁రాసిన	-9.56667
ఎస్	-9.56692
▁బాల్	-9.56721
▁భౌతిక	-9.56765
్యా	-9.56879
x	-9.56891
▁స్థాయిలో	-9.56917
▁వెంటనే	-9.57026
పాటి	-9.57044
▁that	-9.5706
ంలోని	-9.57077
▁ప్రయాణ	-9.57132
▁గృహ	-9.57323
▁రాత్రి	-9.57404
▁డీ	-9.57415
▁ఆసియా	-9.57437
▁పాకిస్థాన్	-9.57466
93	-9.57492
24	-9.57504
ce	-9.57656
▁k	-9.57679
▁దేవాలయం	-9.57781
69	-9.57797
▁మారి	-9.57865
▁h	-9.57891
లైన	-9.57964
96	-9.57969
68	-9.57988
▁జు	-9.58
▁ఉన్నది	-9.58004
18	-9.58018
మొ	-9.58108
▁సెప్టెంబరు	-9.58124
▁వ్యాసం	-9.58148
థి	-9.58213
un	-9.58314
st	-9.58343
0%	-9.58394
వేయ	-9.58433
22	-9.58478
చన	-9.58528
▁తిరుగుబాటు	-9.58558
▁ఖమ్మం	-9.5856
యూ	-9.58674
ీకరించ	-9.58708
91	-9.58862
▁వృక్ష	-9.58875
తె	-9.58876
▁de	-9.58892
▁చెక్క	-9.58893
▁హి	-9.58945
▁పాకిస్తాన్	-9.59133
80	-9.59141
▁నవంబరు	-9.59218
74	-9.59257
▁ఉద్యమ	-9.5933
కవి	-9.5936
జ్ఞ	-9.59413
▁ఎయిర్	-9.59419
▁ఇక	-9.59458
▁చివర	-9.59501
న్నె	-9.59562
మన	-9.59623
ంక	-9.59703
▁చల్ల	-9.5978
76	-9.59796
▁అందించ	-9.59823
వంత	-9.59859
పోయి	-9.59884
▁చక్రవర్తి	-9.59889
▁అర్థ	-9.59939
▁60	-9.59978
టై	-9.60012
టె	-9.60023
▁నలుగురు	-9.60042
▁కల్	-9.60122
యాన్	-9.60137
్యూ	-9.60171
▁పత్ర	-9.60192
ంతా	-9.60194
06	-9.60209
తుంది	-9.60276
▁సామ్రాజ్యం	-9.60323
▁సహాయ	-9.60425
▁వెళ్ల	-9.60455
26	-9.60481
▁కాలనీ	-9.60663
ol	-9.60678
ంపై	-9.60799
▁com	-9.60809
ారెడ్డి	-9.60935
నాటి	-9.60948
▁మరి	-9.6107
▁2016	-9.61149
03	-9.61158
as	-9.61162
▁విమర్శ	-9.61226
ిస్తున్నారు	-9.61301
ిస్తే	-9.61325
▁స్వాతంత్ర్య	-9.61347
ార్థ	-9.61371
▁బాధ	-9.61408
▁సమయం	-9.61419
ృత	-9.61443
ితే	-9.61451
▁జాన్	-9.61478
▁an	-9.61494
84	-9.61622
▁స్థల	-9.61709
87	-9.61715
ినట్లు	-9.61735
▁వేడి	-9.61741
▁ప్రజలకు	-9.61742
▁v	-9.61743
తల	-9.61745
▁యోగ	-9.61761
92	-9.61779
▁చదువు	-9.61786
09	-9.61863
పాటు	-9.61872
▁శిక్ష	-9.61885
81	-9.61912
▁వాయువు	-9.61913
▁సూ	-9.61952
▁దీన్ని	-9.61973
▁యూనియన్	-9.62051
▁నియంత్రణ	-9.62072
97	-9.62114
83	-9.6221
▁t	-9.62229
▁అతడి	-9.62267
86	-9.62281
▁సభ్యులు	-9.62306
is	-9.62396
ధు	-9.62397
ూరి	-9.62405
▁ప్రెస్	-9.62423
చార	-9.62424
▁విడుదలైన	-9.6244
▁అనంతపురం	-9.62468
▁రావు	-9.62479
▁ఢిల్లీ	-9.62607
▁చట్ట	-9.62609
ంపు	-9.62617
ళి	-9.62675
▁వెనుక	-9.6269
గారు	-9.62817
42	-9.62834
31	-9.62932
32	-9.62957
▁ఉన్నాడు	-9.63058
▁రచించిన	-9.63068
▁రీ	-9.63108
బడే	-9.63126
▁తెలుగులో	-9.63133
▁తీ	-9.63174
▁వేసవి	-9.63241
హం	-9.63247
▁నమూనా	-9.6327
▁తరచుగా	-9.63272
ుకుంటారు	-9.6331
▁నాడు	-9.6332
▁చెప్పవచ్చు	-9.63362
▁జరుప	-9.63395
▁నిర్మించారు	-9.63418
▁క్రి	-9.6354
రంగ	-9.63618
చిన	-9.63635
▁మొదలు	-9.63672
నాథ	-9.63684
▁ఫర్	-9.63785
న్నీ	-9.6384
55	-9.63884
తూ	-9.63886
ment	-9.63917
పూడి	-9.64154
స్ట	-9.6418
బడతాయి	-9.64206
▁ప్రారంభించారు	-9.64222
యె	-9.64248
▁అనుసరించి	-9.64329
లియ	-9.64416
▁తిరు	-9.64429
▁దూ	-9.64441
వతి	-9.64466
▁2000	-9.64484
కాలు	-9.64539
▁విజయనగరం	-9.64611
▁బ్రాహ్మణ	-9.64617
▁వంటివి	-9.64698
భాష	-9.64742
94	-9.64759
గల్	-9.64801
▁చక్ర	-9.64895
▁సూక్ష్మ	-9.64963
▁విజ్ఞాన	-9.64981
▁పసుపు	-9.64991
▁రికార్డు	-9.65126
▁చిత్రంలో	-9.65152
▁కలసి	-9.65155
▁జపాన్	-9.65212
▁ఆధారపడి	-9.65216
శక్తి	-9.6524
▁క్రింది	-9.65291
ణం	-9.65366
▁నేర	-9.6545
▁తక్కువగా	-9.65556
}	-9.65637
భాగ	-9.65751
ti	-9.65762
▁భావిస్తున్నారు	-9.65912
పం	-9.66009
▁సంఘ	-9.66084
హో	-9.66087
▁ఎక్కడ	-9.66092
వరకు	-9.66174
▁రష్యా	-9.66205
▁నమ్మ	-9.6628
▁గత	-9.6629
డము	-9.66308
▁సామ్రాజ్య	-9.66373
▁సాగ	-9.66426
▁నల్గొండ	-9.66455
▁గీత	-9.66498
88	-9.66545
చ్ఛ	-9.66682
▁కొడుకు	-9.66701
▁ప్రాంతాలు	-9.66738
▁ద్రవ	-9.66801
▁స్థితి	-9.66812
▁శాస్త్రీయ	-9.66923
మూర్తి	-9.66964
▁e	-9.66973
▁నియమించ	-9.67051
▁అయినా	-9.67092
గ్గ	-9.67157
89	-9.67179
▁పరిశ్రమ	-9.67195
▁కర్ణాటక	-9.67213
మం	-9.67219
▁రోజులు	-9.67272
▁ప్రకటన	-9.67278
02	-9.67313
▁ఫై	-9.67326
um	-9.67371
▁దీనిలో	-9.67483
మాన్	-9.67493
బే	-9.67497
▁డే	-9.67526
28	-9.67575
త్తి	-9.67601
▁con	-9.67603
ుడ	-9.67659
ువు	-9.67661
▁కనిపిస్తుంది	-9.67747
▁భక్తులు	-9.678
వాస	-9.67827
▁st	-9.67943
▁వున్నవి	-9.67953
▁దూర	-9.67975
▁జర్మనీ	-9.67998
▁అనంతరం	-9.68133
చీ	-9.68158
04	-9.68159
ండా	-9.68195
వాగు	-9.68261
▁చెందింది	-9.68285
ాం	-9.68294
▁పేజీ	-9.68325
▁యుద్ధంలో	-9.68509
▁కోట్ల	-9.6851
▁కొట్ట	-9.68511
▁V	-9.68543
ునికి	-9.68567
▁పరిచయం	-9.68591
▁హు	-9.6862
▁గ్	-9.68663
▁రాష్ట్రంలో	-9.68697
27	-9.68709
పోతుంది	-9.68748
▁జీవితం	-9.68769
▁మతం	-9.68928
తోపాటు	-9.68945
కము	-9.68985
▁భా	-9.68991
▁కన్	-9.69009
▁కర్మ	-9.69141
లింగ్	-9.69145
29	-9.69178
▁రూపొందించ	-9.69191
రికి	-9.69206
▁జిల్లాకు	-9.69274
▁32	-9.69342
79	-9.69388
▁బై	-9.69399
స్తే	-9.69427
te	-9.69482
ార్	-9.69506
45	-9.69511
°	-9.69552
▁సృష్టించ	-9.69575
ాపురం	-9.69648
గె	-9.69673
▁సమాన	-9.6968
▁was	-9.69797
▁{	-9.69826
గుణ	-9.69832
▁దర్శకత్వం	-9.69847
48	-9.69885
ణా	-9.69911
▁తరగతి	-9.69971
▁పట్టణం	-9.70001
కోసం	-9.70036
▁వ్యాసాలు	-9.7005
▁క్రైస్తవ	-9.70061
▁కథలు	-9.70071
▁గ్రహ	-9.70074
▁పిల్లల	-9.70135
▁క్షేత్ర	-9.70145
65	-9.70197
▁నిజాం	-9.70213
▁క్యా	-9.7022
శాస్త్రి	-9.70224
▁అసలు	-9.7038
వులు	-9.70397
▁కోల్	-9.70432
35	-9.70464
ల్లె	-9.70505
▁తీసుకో	-9.7051
▁జీవన	-9.70511
▁సమాజ	-9.70564
▁from	-9.70574
43	-9.70589
▁బంగారు	-9.70654
ర్డ్	-9.7066
▁సినిమాలో	-9.7066
▁బంధ	-9.70713
▁కావ	-9.70717
గ్ర	-9.70744
బీయెస్	-9.70748
▁కష్ట	-9.70755
▁తయారీ	-9.70761
క్త	-9.7084
▁మల్ల	-9.7087
ల్లు	-9.70883
▁అధ్యయనం	-9.70912
▁చేతి	-9.71014
ేంద్ర	-9.71023
▁సొంత	-9.71078
గారి	-9.71082
పరు	-9.71187
దేవ	-9.71203
న్నది	-9.71217
ములలో	-9.71232
శాస్త్రం	-9.71303
భావ	-9.71334
▁కళ	-9.71337
-1	-9.71342
▁ఎమ్బీ	-9.71366
▁భాగంలో	-9.71438
స్టు	-9.7157
▁యువ	-9.71592
▁ప్రాంతాల్లో	-9.71598
▁మంద	-9.71603
▁సార్లు	-9.71608
నప్పుడు	-9.71608
▁ఉండవచ్చు	-9.71612
ter	-9.71833
▁వ్రాయ	-9.71874
▁మనం	-9.71879
▁అర	-9.71967
▁నక్షత్ర	-9.71977
ాయని	-9.71998
▁ఔ	-9.7214
▁వ్రాసిన	-9.72176
▁వ్యతిరేక	-9.72264
రోజు	-9.72272
నిక్	-9.72354
▁క్ర	-9.72404
▁అందుకు	-9.72442
▁|	-9.72482
▁చిత్రాలు	-9.725
యన్	-9.72509
▁సే	-9.72536
▁జరగ	-9.72559
47	-9.72574
▁చదివిన	-9.72588
పరంగా	-9.72626
▁తిరుమల	-9.72647
▁r	-9.72659
▁అభిప్రాయ	-9.72669
▁రాగ	-9.72677
ma	-9.72725
▁నెహ్రూ	-9.72832
ల్డ్	-9.72871
▁ఎర్ర	-9.72949
వారికి	-9.73017
▁కింద	-9.73073
ంచు	-9.73086
and	-9.73199
రాల	-9.73276
▁రోజుల	-9.73294
05	-9.73344
ాపూర్లో	-9.73438
▁అనుమతి	-9.73511
56	-9.73599
▁are	-9.73601
▁శరీర	-9.73764
▁ఆహారం	-9.73782
రియ	-9.73819
▁తరువాతి	-9.73907
▁వైద్యశాలలో	-9.73946
54	-9.73954
▁వర్	-9.73965
ందని	-9.74077
▁చరిత్రలో	-9.74131
▁మంత్రి	-9.74222
75	-9.74268
▁వ్యక్తిగత	-9.74278
▁గె	-9.74339
▁కర	-9.74357
▁పిల్ల	-9.74475
▁అర్బన్	-9.74541
పురంలో	-9.74541
▁జూ	-9.74559
ర్ర	-9.74573
▁ప్రసార	-9.7474
▁దిన	-9.74776
▁చర్చి	-9.74778
▁అవసరమైన	-9.748
గ్రా	-9.74872
దేశాల	-9.74944
▁1990	-9.75018
ాపూర్	-9.75069
ాలనే	-9.7521
▁పొందారు	-9.75225
రియన్	-9.75233
జ్జ	-9.75239
ద్దు	-9.75248
▁యె	-9.75251
▁అధ్యక్ష	-9.75261
▁మిలియన్	-9.75277
ఢ	-9.75368
▁వ్యాస	-9.75415
▁వదిలి	-9.75423
▁O	-9.75444
▁ప్లా	-9.75475
గడ	-9.75485
డంలో	-9.7551
▁రాజ్యం	-9.7554
మల	-9.75609
ta	-9.75648
వాన్	-9.75651
వార్	-9.75731
జే	-9.75765
▁ఛా	-9.75782
సేన	-9.75838
▁చేయబడిన	-9.75877
▁నీవు	-9.75887
▁ఇస్లాం	-9.75904
ుంది	-9.75964
కార్	-9.75975
లక	-9.75998
▁ఆఫ్రికా	-9.76033
జాల	-9.7604
రస	-9.7604
ికి	-9.76159
▁వివరించ	-9.76218
▁లభించింది	-9.76233
U	-9.76357
భాగం	-9.7638
▁జన్మించారు	-9.76409
▁పట్టు	-9.76428
▁భక్తి	-9.76438
మయిన	-9.76512
పాల	-9.76627
▁he	-9.76643
63	-9.76697
▁కాపాడ	-9.76729
దన	-9.76732
▁ఉండాలి	-9.76766
ంటారు	-9.76816
▁అవుతుంది	-9.76819
id	-9.76953
▁ఉద్యోగ	-9.76953
64	-9.76959
▁సార	-9.76968
37	-9.76982
▁వెల్	-9.77075
▁శబ్ద	-9.77106
▁మనిషి	-9.77137
▁రంగంలో	-9.77205
ాధికార	-9.77229
చర్	-9.77253
▁తర	-9.77392
▁దిగువ	-9.77416
▁ఉపయోగించి	-9.77419
▁పద్మ	-9.77465
▁సర్వీసు	-9.77601
▁జే	-9.77622
▁జిల్లాలోని	-9.77661
ాంత	-9.7767
51	-9.77684
▁పురాణ	-9.77697
డ్డ	-9.77731
కరమైన	-9.77809
41	-9.77841
▁భారత్	-9.77849
నీయ	-9.7785
డాన్ని	-9.77868
44	-9.7788
▁చేరి	-9.77974
▁ఉండగా	-9.77983
▁కోరిక	-9.77999
▁నృత్య	-9.78062
▁భీమ	-9.78076
▁ఖర్చు	-9.78104
▁టె	-9.78119
▁ఆస్ట్రేలియా	-9.78194
▁45	-9.78246
▁పరమ	-9.78257
▁వారిలో	-9.7826
▁ప్రదేశం	-9.78276
▁కమిటీ	-9.7835
▁పిల్లలు	-9.7841
ాలయ	-9.78459
▁పారి	-9.78477
58	-9.78499
▁మధ్యలో	-9.78563
▁దైవ	-9.78597
▁ప్రొ	-9.78598
శ్ర	-9.78654
36	-9.7871
▁ఇచ్చిన	-9.78713
▁అభి	-9.78723
▁రిపబ్లిక్	-9.78795
▁అనంత	-9.78796
▁లకు	-9.78852
▁స్కూల్	-9.78853
శ్రీ	-9.7889
ినప్పుడు	-9.78965
▁ఆలయంలో	-9.78975
▁సరి	-9.79002
ంటుంది	-9.79025
▁దుర్	-9.7912
▁జీ	-9.79156
▁స్థిర	-9.79293
సిన	-9.79295
▁ప్రశ్న	-9.79337
దర్	-9.79355
▁శిల్ప	-9.79421
వలన	-9.79449
39	-9.79449
67	-9.79455
ాలయం	-9.79467
▁వేస	-9.79479
▁నిర్మాత	-9.7949
▁ఉపగ్రహ	-9.79543
రాన్	-9.79639
ఖా	-9.79712
sh	-9.79719
▁పుష్ప	-9.79722
పల్లెలో	-9.79787
బద్ధ	-9.798
కుంట	-9.79848
▁సుందర	-9.79923
▁52	-9.79931
▁పుట్టిన	-9.79933
▁సభ్యుల	-9.79951
▁మీటర్ల	-9.79952
▁ప్లే	-9.79988
పూ	-9.80037
▁అన్నది	-9.80052
G	-9.80128
▁ప్రాంతీయ	-9.80202
▁స్వర	-9.80207
46	-9.80226
పుర	-9.80232
▁సాధించింది	-9.80271
▁పుణ్య	-9.80322
▁గతంలో	-9.80345
ాంతర	-9.8036
49	-9.80383
▁అందువలన	-9.80474
▁కొంతమంది	-9.80501
▁ఫె	-9.80556
ఫో	-9.80626
▁వాతావరణం	-9.8066
▁మిలియన్ల	-9.80669
రిక్	-9.80683
పాడులో	-9.80766
▁సాంఘిక	-9.80825
▁నియమ	-9.80833
పాద	-9.80863
▁ముందుగా	-9.8087
▁క్రికెట్	-9.80893
▁రచనలు	-9.80942
ినా	-9.81008
▁స్వంత	-9.81028
▁దర్శకుడు	-9.81052
చూ	-9.81073
సిస్	-9.81092
62	-9.81195
▁at	-9.81205
ir	-9.81218
▁విష	-9.81232
▁వర్గం	-9.81345
▁నాకు	-9.81362
ూరులో	-9.81373
ానంద	-9.81438
▁నీటిని	-9.81444
▁లాల్	-9.81497
▁పనిచేశాడు	-9.8151
▁స్త్రీలు	-9.8155
▁ప్రాజెక్టు	-9.81599
▁దూరములో	-9.81635
▁సాగు	-9.81702
▁అర్ధం	-9.81796
▁లక్ష్మీ	-9.81826
ిగా	-9.81879
ాల్సి	-9.81896
డూ	-9.81966
ందే	-9.81991
పర	-9.82098
72	-9.82151
V	-9.82151
ఈ	-9.82185
శు	-9.8219
▁గంగ	-9.82222
▁కణ	-9.8223
్ని	-9.82236
విద్య	-9.82238
సారి	-9.82275
▁అంతా	-9.82289
▁ప్రత్యేకంగా	-9.82295
▁నామ	-9.8232
హిత	-9.82337
▁పొందాడు	-9.82439
రుగు	-9.82439
▁అఫ్	-9.8246
▁ప్రో	-9.82495
జన్	-9.82501
▁స్టా	-9.82642
సియా	-9.82769
▁ఆమెను	-9.82815
38	-9.82816
▁ఏర్పడింది	-9.82848
ేది	-9.82866
ల్ని	-9.82877
▁ఉండేవి	-9.82886
▁పన్ను	-9.82897
▁హెచ్	-9.8293
▁పెద	-9.82943
క్రమ	-9.82984
కూరు	-9.83112
▁చెరకు	-9.83135
▁గణిత	-9.83184
▁పూర్వం	-9.83219
▁భూగర్భ	-9.83277
▁వాయు	-9.83343
▁స్టేట్స్	-9.8335
ంధ	-9.8335
▁అమరావతి	-9.83396
ంటా	-9.8366
పోయే	-9.83683
▁విషయంలో	-9.83691
▁which	-9.83693
▁ప్రాంతాన్ని	-9.83759
నప్పటికీ	-9.83767
▁శాస్త్రం	-9.83773
▁నంది	-9.83784
ate	-9.83789
hi	-9.83827
▁చేసుకున్న	-9.83842
▁ఇలాంటి	-9.83903
స్తున్న	-9.83905
52	-9.83934
▁చెన్నై	-9.84008
▁పురస్కారం	-9.84042
రాయి	-9.8406
దె	-9.84087
▁లోహ	-9.84104
రాజ్య	-9.84149
ర్య	-9.84162
పరమైన	-9.84168
53	-9.84179
▁1980	-9.84186
ఖ్	-9.84239
ist	-9.84315
చో	-9.84317
▁నటుడు	-9.84324
▁నై	-9.8438
▁భాగ	-9.84388
▁33	-9.84391
▁2012	-9.84464
▁నిర్ణయ	-9.84485
▁ఏరియా	-9.84488
▁కన్నడ	-9.84571
ముతో	-9.8461
▁పల్లె	-9.84626
▁ఉన్నా	-9.84659
న్య	-9.84722
▁చారిత్రక	-9.84724
▁వంట	-9.84789
లిక	-9.84804
▁ఉందని	-9.84815
▁ప్రకటించ	-9.84904
క్షి	-9.84945
న్నారు	-9.8497
▁మరణ	-9.85035
▁అక్కడి	-9.85104
▁నిర్వహించిన	-9.85104
▁ఇతను	-9.85118
వని	-9.85141
▁బరువు	-9.85141
71	-9.85142
దారు	-9.85158
▁శాసన	-9.85196
▁భావన	-9.8533
వల	-9.8543
▁అక్షర	-9.85568
▁మార్గ	-9.85586
▁చలన	-9.85608
▁మారు	-9.85608
▁లండన్	-9.8563
▁బర్	-9.8564
▁అధ్యక్షుడు	-9.85654
పించ	-9.85656
▁పనిచేశారు	-9.85678
▁ప్రవేశించ	-9.85747
59	-9.85864
▁దాన్ని	-9.85879
▁సాధించిన	-9.85922
▁చేతిలో	-9.85933
స్టా	-9.8595
▁అడ్డ	-9.86018
▁పారిశ్రామిక	-9.86018
▁పేర్లు	-9.86059
34	-9.86089
లియా	-9.86127
నాయక	-9.86134
▁చీ	-9.8623
లిన్	-9.86269
▁ఆమ్లం	-9.86297
▁క్రమ	-9.86346
▁ప్రయత్న	-9.86351
ుడికి	-9.86392
షీ	-9.86422
ఫీ	-9.86493
▁గ్రామీణ	-9.86646
నామ	-9.86758
▁నివేదిక	-9.86782
▁విన	-9.86899
ay	-9.86987
ఆర్	-9.87014
దిగా	-9.87086
▁కడప	-9.87122
▁పర్యాటక	-9.87177
షు	-9.87266
స్య	-9.87339
రువు	-9.87379
▁ప్రయత్నం	-9.87423
▁మనసు	-9.87429
▁మగ	-9.87435
▁పదార్థం	-9.8752
na	-9.8754
▁ఆమెకు	-9.87589
▁చివరకు	-9.8759
ర్లు	-9.87601
▁ఫ్రెంచ్	-9.87742
▁సంబంధిత	-9.87774
▁తేడా	-9.87778
66	-9.87826
మణి	-9.87872
▁జైలు	-9.87977
▁కలిగించ	-9.88003
ప్రా	-9.88137
ac	-9.88143
ia	-9.88147
di	-9.88188
▁ఇండియన్	-9.88195
ియన్	-9.88217
▁కేసు	-9.88223
▁పలక	-9.88239
పడి	-9.88272
▁36	-9.88286
▁బాణ	-9.88314
ఐ	-9.88336
బడ్డ	-9.88348
దల	-9.88381
వడం	-9.88444
ాంగ	-9.88452
స్తాడు	-9.88546
భ్య	-9.88569
భి	-9.88626
▁బయట	-9.88653
కలు	-9.88718
▁మర	-9.88775
▁it	-9.88918
▁దేశాలు	-9.8894
▁చూస	-9.88989
▁విడి	-9.89075
బడ్డారు	-9.89131
▁దశలో	-9.89221
ైనా	-9.89266
గర్	-9.893
▁తయార	-9.89402
▁పొడి	-9.89547
▁దక్క	-9.89552
▁గాను	-9.89596
ంతి	-9.89649
▁తగిన	-9.89654
▁జై	-9.89667
▁కావ్య	-9.89751
▁అడవి	-9.89761
▁దీప	-9.89762
▁వర్ణించ	-9.89808
▁మామిడి	-9.89834
▁మ్యాచ్	-9.89876
మార్	-9.89892
▁అస	-9.89984
▁కొనసాగించ	-9.89986
▁డో	-9.89987
op	-9.89993
వెన్	-9.90004
▁సీత	-9.90041
▁సమాచార	-9.90044
▁కార్యక్రమాలు	-9.90071
▁నూ	-9.90134
▁ఏర్పరచ	-9.90146
▁80	-9.9019
▁అనుభవ	-9.90255
▁తిన	-9.90264
ప్రాథమిక	-9.90286
▁హత్య	-9.90287
వల్ల	-9.90304
ers	-9.90354
▁మిశ్రమ	-9.90396
▁వేసి	-9.90405
▁ప్రాధాన్యత	-9.90464
▁మార్పులు	-9.90502
కంటే	-9.90532
▁కరీంనగర్	-9.90586
▁కుటుంబం	-9.90627
▁మట్టి	-9.90669
78	-9.90674
▁నరసింహ	-9.90682
ట్రా	-9.90726
▁సోవియట్	-9.90783
మయ	-9.90825
▁టో	-9.90898
▁యాత్ర	-9.90926
▁పుస్తకం	-9.90943
▁వీలు	-9.90962
▁°	-9.90991
▁పచ్చ	-9.91078
ించు	-9.91095
▁జనరల్	-9.91116
ారా	-9.9112
లిక్	-9.91121
▁In	-9.91158
▁కార్యక్రమాల	-9.91273
▁కన్న	-9.9128
▁జాతుల	-9.91286
▁ఎఫ్	-9.91294
▁పాలు	-9.9131
▁అగ్ర	-9.91327
▁వరల్డ్	-9.91363
వేత్త	-9.91391
▁దేవి	-9.91452
యల్	-9.9147
▁యజ్ఞ	-9.91474
రాలు	-9.91543
▁మళ్ళీ	-9.91567
ుతుందని	-9.91647
పులు	-9.91647
▁ప్రథమ	-9.91661
▁కోర్టు	-9.91692
▁వేంకట	-9.91693
▁ఛ	-9.91715
▁మాన్	-9.91824
▁సేవలు	-9.91914
▁రేఖ	-9.91955
▁అందుకే	-9.91988
కొన	-9.92018
శాఖ	-9.92038
▁వర్ష	-9.92046
▁నంద	-9.92048
సార	-9.92052
▁నిల్వ	-9.92074
▁పవిత్ర	-9.921
▁యి	-9.92127
ేషన్	-9.92136
▁విమాన	-9.92143
▁నిజామాబాద్	-9.92177
57	-9.92234
ారం	-9.92272
▁ప్రమాద	-9.92299
▁సింహ	-9.92309
▁ఉద్	-9.92319
▁తెచ్చ	-9.9232
ండర్	-9.92331
▁విష్ణు	-9.92349
ంటూ	-9.92352
▁బౌ	-9.92402
▁వయసు	-9.92434
▁సామెత	-9.92502
ంటె	-9.92505
000	-9.92521
బడుతున్న	-9.9258
▁పొర	-9.92606
రాం	-9.92631
▁గ్రీకు	-9.92688
▁వరుస	-9.92743
కింగ్	-9.92767
▁జరిగాయి	-9.92802
ందా	-9.92821
▁బార్	-9.92823
ధర్మ	-9.92844
▁ఇంద్ర	-9.92872
▁అధికారిక	-9.92897
▁ఇరు	-9.92908
▁కనిపించే	-9.92962
▁2003	-9.93028
▁బ్యా	-9.93033
▁వస్తువు	-9.93072
గుంట	-9.93084
▁మాజీ	-9.93157
తున్న	-9.9319
▁ప్రవక్త	-9.9319
స్టి	-9.93203
ుకుంటూ	-9.93223
▁మనకు	-9.93243
▁తెల్ల	-9.93285
హీ	-9.93289
గన్	-9.93289
▁అడుగుల	-9.93293
ైతే	-9.93323
▁పోలి	-9.9333
కంగా	-9.93349
▁జానపద	-9.93372
▁వచ్చాయి	-9.9346
▁పరిపాలన	-9.93464
వచ్చ	-9.93477
యస్	-9.93485
▁ఉదాహరణ	-9.93493
▁గ్రంథ	-9.93569
▁వృద్ధి	-9.93577
▁అలీ	-9.93795
▁దర్శకత్వంలో	-9.93834
▁అంగ	-9.93884
ేలా	-9.93896
▁చంద	-9.93903
ot	-9.93925
▁ఉపయోగించే	-9.93925
▁పెట్టి	-9.93934
డియా	-9.93948
ులతో	-9.93973
▁ప్రయత్నించ	-9.9401
▁లోక	-9.94166
▁ఉష్ణ	-9.94191
▁తగ్గి	-9.94218
est	-9.94222
▁తీసుకుని	-9.94256
హార	-9.94275
ధ్	-9.94342
▁సగటు	-9.94374
క్షన్	-9.94376
▁విస్తరించ	-9.94394
▁వెళ్లి	-9.94497
కట్ట	-9.94509
లని	-9.9453
ందో	-9.94615
▁వీరికి	-9.9468
ారంలో	-9.94702
em	-9.94732
ార్ధ	-9.94738
▁ఇచ్చే	-9.94785
ాల్సిన	-9.94826
ుకోవడానికి	-9.94832
తలు	-9.94839
▁ఒకటిగా	-9.94849
▁చూపించ	-9.94991
▁సుఖ	-9.94996
▁ప్రతిపాదించ	-9.95029
▁సెంటర్	-9.95041
▁ఓడ	-9.95072
▁పాద	-9.95106
కాంత	-9.95156
▁this	-9.95175
ru	-9.95237
సై	-9.95253
▁వుండును	-9.95264
▁1970	-9.95319
▁జైన	-9.95342
▁క్లా	-9.95434
▁సిటీ	-9.95492
▁వుండ	-9.95562
సమ	-9.95582
పోయాడు	-9.95632
▁సంబంధించి	-9.95646
రము	-9.95654
ity	-9.95654
▁రోగ	-9.95712
▁మొదలగు	-9.95727
నకు	-9.95809
▁వాతావరణ	-9.9584
▁వ్యాసాల	-9.95853
▁గుండె	-9.95888
▁ఇచ్చి	-9.95915
▁ఏర్పడ	-9.95929
▁చర్చ	-9.95953
▁భవన	-9.9596
▁సౌ	-9.95976
▁తీసి	-9.95979
▁నటి	-9.95994
▁మన్	-9.9601
▁ఘ	-9.96019
▁బహుమతి	-9.96034
▁కేంద్రంగా	-9.96164
▁ma	-9.96175
హర	-9.96176
▁కంది	-9.96195
▁క్ల	-9.96253
▁బెంగాల్	-9.96256
▁తీవ్ర	-9.96311
per	-9.9637
▁నాట్య	-9.96379
▁వివరణ	-9.96404
▁సమాచారం	-9.96409
▁పొట్టి	-9.96463
▁ప్రారంభంలో	-9.96471
▁హాస్య	-9.96513
▁తత్వ	-9.96668
▁రస	-9.96705
స్థాన	-9.96734
▁సంపద	-9.96735
▁పర్యావరణ	-9.96742
▁చెప్పి	-9.96782
▁పనులు	-9.96784
▁ఆయా	-9.96802
▁పాల్గొన	-9.96809
▁పాలనలో	-9.96815
▁స్వీకరించ	-9.96841
▁శాస్త్రవేత్త	-9.96865
▁శైలి	-9.96883
ష్ఠ	-9.96911
ుడై	-9.96933
▁తేదీన	-9.96953
▁ఖా	-9.96979
▁పరిస్థితుల	-9.9698
▁సహాయం	-9.97007
▁ప్రత్యక్ష	-9.97015
రన్	-9.97023
▁సంకేత	-9.97046
ci	-9.97109
▁తమిళనాడు	-9.97136
▁మానసిక	-9.97158
▁పోరాట	-9.9716
పాక	-9.97254
▁పార్	-9.97257
▁రోజున	-9.97306
▁విద్యుత్తు	-9.9732
▁37	-9.97363
▁రక్షించ	-9.97426
▁ఎటువంటి	-9.97436
పాలెంలో	-9.97449
▁వృత్త	-9.97495
▁జంతువుల	-9.97543
▁వేదిక	-9.97573
▁రాతి	-9.97605
▁పరా	-9.97607
▁నెట్	-9.97614
▁ప్రచురించ	-9.97732
▁వేర్	-9.97755
ొక్క	-9.97769
▁వెబ్	-9.9777
om	-9.97837
సింగ్	-9.97844
▁నటించిన	-9.97856
▁కార్యక్రమం	-9.97882
త్స	-9.97894
▁విషయాల	-9.97933
▁లోక్	-9.97935
▁శ్రీలంక	-9.97979
▁కెనడా	-9.9807
▁నాయకుడు	-9.98104
▁మండ	-9.98138
మ్స్	-9.98163
73	-9.98186
▁దివ్య	-9.98214
బడ్డాడు	-9.98217
ుకుంటున్న	-9.98259
▁మహారాష్ట్ర	-9.98281
▁అడుగు	-9.98292
డ్స్	-9.98315
▁pro	-9.98413
నుంచి	-9.98461
▁గర్భ	-9.98463
▁నిర్మల్	-9.98464
▁మొక్కల	-9.98493
పట్ట	-9.98506
స్వ	-9.98518
▁పనిచేయ	-9.98551
పోయాయి	-9.98558
▁ఇచ్చారు	-9.98565
▁వెళ	-9.98579
▁రకం	-9.98588
▁వాస్తవ	-9.98652
వేశ	-9.98744
పేటలో	-9.98825
▁ఆధ్వర్యంలో	-9.98836
▁సరైన	-9.98892
▁ఉద్యమం	-9.98911
బల	-9.9893
▁బ్రిటన్	-9.9896
ka	-9.98989
వరంలో	-9.99044
▁సత్	-9.99068
గ్గు	-9.99075
▁మరణం	-9.99093
▁సాహిత్యం	-9.99125
▁సృష్టి	-9.99135
▁పరిధిలోకి	-9.99175
▁మిరప	-9.99183
▁ఉండడం	-9.99205
▁ఉపాధ్యాయ	-9.99229
▁విద్యార్థులు	-9.99252
▁గానీ	-9.9928
ca	-9.99294
టంతో	-9.99366
▁గుర	-9.99381
నూరు	-9.99443
▁ద్వీప	-9.99444
▁ఇంటర్	-9.99504
ర్తి	-9.99568
▁ఉన్నప్పటికీ	-9.9958
▁వచ్చారు	-9.99598
▁సెల్	-9.99646
age	-9.99652
▁తెలిసిన	-9.99765
▁ఉన్నట్లు	-9.99782
▁వాడుకలో	-9.99787
▁కనుగొన	-9.99793
▁వీడియో	-9.99819
సెస్	-9.99821
▁అమెరికాలో	-9.99837
▁తెలి	-9.99852
యోగ	-9.9986
▁నెలల	-9.99935
▁సొ	-9.99968
▁కథా	-9.99988
▁నిలిచి	-10.0001
▁విధించ	-10.0007
▁భూభాగం	-10.0007
చేత	-10.0012
వైన	-10.0015
▁లోపల	-10.0016
▁నట	-10.0019
ఫర్	-10.0025
▁డివిజన్	-10.0043
▁గ్రంథం	-10.0049
▁లై	-10.0054
ుకు	-10.0063
▁పులి	-10.0081
▁ఆక్రమించ	-10.0091
▁గడి	-10.0096
గ్రహ	-10.0101
▁ట	-10.0107
గూడ	-10.0114
స్తుందని	-10.0117
టల్	-10.0118
ణీ	-10.0121
▁ex	-10.0122
lu	-10.0122
▁కూడ	-10.0125
▁కై	-10.0133
▁ఇటువంటి	-10.0138
▁వివర	-10.0138
ాకార	-10.0139
▁రాజ్యాంగ	-10.014
▁జీవితంలో	-10.014
మంత	-10.0145
▁క్రమంగా	-10.0146
▁డాక్టర్	-10.0146
క్సి	-10.0147
పోయారు	-10.0149
సన	-10.0152
పల్లిలోను	-10.0152
ేరు	-10.016
నికి	-10.0161
▁ధర్మరాజు	-10.0165
▁పాత్రలు	-10.0166
▁అధికారం	-10.0168
▁తీయ	-10.017
▁యో	-10.0172
▁స్వరూప	-10.0176
end	-10.0177
▁ప్రైవేట్	-10.0184
ెం	-10.0192
▁సంస్థల	-10.0196
{	-10.0198
మవుతుంది	-10.0203
▁లీగ్	-10.0204
చ్చే	-10.0206
-2	-10.0208
▁కత	-10.0209
వేద	-10.0212
▁నేర్చ	-10.0214
▁పుస్తకాల	-10.0214
▁||	-10.0218
▁వాళ్ళ	-10.0219
▁రాష్ట్రంలోని	-10.0226
▁పోరాడ	-10.0227
▁పదవి	-10.023
▁34	-10.0236
మాల	-10.0239
ట్లుగా	-10.024
||	-10.0248
కథ	-10.025
▁ప్రాంతానికి	-10.0251
▁అందు	-10.0252
ంటాడు	-10.0253
▁భావిస్తారు	-10.0266
▁కళ్యాణ	-10.027
జ్ఞాన	-10.027
దూ	-10.0271
▁ఎనిమిది	-10.0272
▁ప్రాముఖ్యత	-10.0277
పైన	-10.0278
▁రాజమండ్రి	-10.028
▁బయటకు	-10.0286
▁శక్తిని	-10.0289
▁ప్రచారం	-10.0289
రొ	-10.0297
▁నదీ	-10.03
ంక్	-10.03
▁విస్తీర్ణం	-10.03
▁రోజుల్లో	-10.0303
గీ	-10.0304
▁ప్రి	-10.0308
▁సంఖ్యలో	-10.031
▁వస్తున్న	-10.0314
▁పేద	-10.032
▁లక్ష్మణ	-10.0324
▁విద్యార్థి	-10.0324
▁ట్ర	-10.0326
ంచే	-10.0327
గానూ	-10.0328
▁పోత	-10.0329
హు	-10.0331
▁స్టీ	-10.0332
ne	-10.0338
నున్న	-10.0339
▁అణు	-10.0344
▁రాజ్	-10.0344
▁దర్శించ	-10.0345
నియన్	-10.0345
యము	-10.0346
ప్త	-10.0354
▁వేడుక	-10.0357
▁మిగతా	-10.036
▁కాశీ	-10.0362
▁యూరోపియన్	-10.0363
▁డబ్బు	-10.0364
▁శాస్త్రి	-10.0367
▁మరణించాడు	-10.0371
గొండ	-10.0372
▁అభ్యర్థి	-10.0372
ధార	-10.0373
▁US	-10.0387
▁గుహ	-10.0395
పాత్ర	-10.0397
▁దిగ	-10.04
ిణి	-10.04
▁ప్రయోగ	-10.0402
▁ఏదైనా	-10.0413
▁లక్షణాలు	-10.0414
శ్వ	-10.0416
కొని	-10.0419
మంతా	-10.0428
▁వీరిలో	-10.043
ab	-10.0433
▁ఆధ్యాత్మిక	-10.0437
మర	-10.0442
▁వ్యక్తుల	-10.0443
▁వెంట	-10.0447
ైంది	-10.0448
రల్	-10.045
▁వద్దకు	-10.0453
▁2002	-10.0456
కృత	-10.046
▁కలి	-10.046
▁అనకాపల్లి	-10.0462
▁గే	-10.0468
▁పురుషులు	-10.0474
మయ్యాయి	-10.0477
లొ	-10.0478
▁1999	-10.0478
యన	-10.0479
▁ప్రపంచంలోని	-10.0482
▁పద్ధతిలో	-10.0487
▁ఒక్కొక్క	-10.0487
▁తేదీ	-10.0498
▁ఒకసారి	-10.051
▁వ్యా	-10.0514
శం	-10.0515
ఖ్య	-10.0518
▁సందర్శించ	-10.0519
▁రోమన్	-10.052
▁ప్రతీ	-10.0526
చర్ల	-10.0531
ఫే	-10.0531
రేట్	-10.0532
▁అందరూ	-10.0532
▁వహించ	-10.0538
▁జరుగుతున్న	-10.0543
▁రహస్య	-10.0543
▁పోరాటం	-10.0547
శీల	-10.0552
లపాడు	-10.0557
▁దేవతల	-10.0559
▁విగ్రహం	-10.0562
ow	-10.0562
▁అశ్వ	-10.0571
ాలంటే	-10.0573
గూడెం	-10.0586
he	-10.0587
▁సెయింట్	-10.0593
▁సైన్య	-10.0603
ున్నారు	-10.0603
▁ముందుకు	-10.0603
▁అమర్చ	-10.0604
▁అప్ప	-10.0604
▁ప్యా	-10.0609
పట్నం	-10.0612
▁స్వాధీనం	-10.0617
▁దుకాణాలు	-10.0622
▁స్వయంగా	-10.0626
▁ఆప	-10.0627
ak	-10.0629
▁దండ	-10.063
▁మౌ	-10.0631
ద్ది	-10.0632
ve	-10.0633
▁మిత్ర	-10.0636
▁లక్ష్య	-10.0645
▁అంశాల	-10.0656
▁మల	-10.0658
స్సు	-10.0659
▁1960	-10.066
▁చేసుకుని	-10.0661
▁చెరువులు	-10.0673
కన్	-10.0676
▁చౌ	-10.0678
▁రాస	-10.0681
▁ప్రారంభించ	-10.0683
ుతున్నారు	-10.0684
▁టెలివిజన్	-10.0684
▁రాక్షస	-10.0685
▁రామారావు	-10.0686
▁పురుష	-10.0687
▁ఫ్రాన్స్	-10.0689
▁ఆశ	-10.069
▁కలుగ	-10.0691
▁ఆరంభ	-10.0697
▁సందేశ	-10.0698
▁సాంప్రదాయ	-10.0699
▁పాడేరులోనూ	-10.0703
▁ఫో	-10.0706
▁చెబుత	-10.0707
▁ఉన్నప్పుడు	-10.0715
▁38	-10.0716
▁చూసిన	-10.0719
▁చూ	-10.0723
▁సేన	-10.0723
▁తిరుగు	-10.0726
▁ప్రోత్సహించ	-10.0726
▁చెల్లించ	-10.0727
▁మంచు	-10.0731
▁విభాగం	-10.0738
▁కొనుగోలు	-10.0747
▁దర్	-10.0748
▁ఉప్పు	-10.0748
▁విశిష్ట	-10.0751
▁లభించ	-10.0758
▁నాయక	-10.0767
▁వార్	-10.0767
▁సిద్ధాంత	-10.0767
తకు	-10.077
ఫై	-10.0771
శీ	-10.0773
ఖండ	-10.0776
బూ	-10.0777
▁రద్దు	-10.0779
▁మొదల	-10.0782
▁కావలసిన	-10.0789
▁పండ	-10.0789
▁అలాంటి	-10.0792
▁తీసుకొ	-10.0797
▁70	-10.08
దగిన	-10.0802
▁తీసుకొని	-10.0806
▁వన	-10.0809
▁తూర్పున	-10.081
▁not	-10.0817
బొ	-10.0817
▁లతో	-10.0821
▁క్లబ్	-10.0821
▁నిజ	-10.0824
భూత	-10.0825
▁1950	-10.0828
▁జారీ	-10.0832
▁తాము	-10.0833
▁చేస	-10.0837
▁అంతే	-10.0838
▁సమితి	-10.084
▁ట్రా	-10.084
లింగ	-10.0844
▁ముద్ర	-10.0846
▁విభిన్న	-10.0848
ిరెడ్డి	-10.0851
▁co	-10.0853
▁కొత్తగా	-10.0854
యాన	-10.0856
▁సరస్సు	-10.087
▁తీర్చ	-10.0871
చిత్ర	-10.0871
▁2014,	-10.0874
▁పర్	-10.0877
W	-10.0882
కృతి	-10.0883
▁చెప్పారు	-10.0883
▁వెలి	-10.0884
▁వాద	-10.0886
ంటాయి	-10.0887
▁శాశ్వత	-10.0891
▁కేరళ	-10.0895
▁42	-10.0902
ప్రపంచవ్యాప్తంగా	-10.0908
లుగు	-10.0909
▁ఇజ్రాయిల్	-10.092
style	-10.0925
రాష్ట్ర	-10.0926
▁విధమైన	-10.0927
▁గమనించ	-10.0927
▁2015,	-10.093
య్యే	-10.0931
▁ప్రత్యేకత	-10.0931
▁జవాహర్	-10.0933
▁మండలాలు	-10.0936
82	-10.0954
▁నటించ	-10.0955
ge	-10.0956
లాండ్	-10.0959
▁ప్రభ	-10.0959
▁తీవ్రమైన	-10.096
▁శంకర	-10.0961
▁సీతారామ	-10.0964
▁బొమ్మ	-10.0965
వన్	-10.0983
▁చిక్క	-10.0984
నాథ్	-10.0987
పోవ	-10.0988
▁అభిమాన	-10.099
ant	-10.0993
ుతోంది	-10.0993
▁స్వా	-10.0995
▁రాణి	-10.0998
▁తోట	-10.1003
ాపురంలో	-10.1004
ప్పటి	-10.1007
▁అవసర	-10.1007
పూరు	-10.1007
▁వుంటుంది	-10.1011
▁వరుసగా	-10.1012
భారత	-10.1016
▁ఊరి	-10.1017
ములకు	-10.1018
దారులు	-10.1025
ురాలు	-10.1026
-20	-10.1026
▁ప్రత్యేకమైన	-10.1031
లక్ష్మి	-10.1034
▁అమ్మవారి	-10.1039
▁స్టేట్	-10.1044
▁2015	-10.1049
▁నార్	-10.1049
▁దో	-10.1053
▁సూచిస్తుంది	-10.1054
దురు	-10.1059
▁భక్తుల	-10.1061
▁తెలుస	-10.107
▁సింగ	-10.1071
▁ఏమి	-10.1071
ండును	-10.1071
▁ఎన్న	-10.1074
▁విశ్వవిద్యాలయ	-10.1079
im	-10.1079
▁దృశ్య	-10.1083
▁ఇటీవల	-10.1084
గత	-10.1092
▁హౌస్	-10.1094
నింగ్	-10.1096
▁వ్యవహరించ	-10.1098
స్థాయి	-10.1098
▁నాయుడు	-10.111
ెన్	-10.1113
▁దేశంలోని	-10.1115
ట్రో	-10.1116
▁నటించారు	-10.1119
▁హే	-10.112
▁కనీసం	-10.1121
▁అందిస్తుంది	-10.1126
వెల్	-10.1127
▁ప్రభావితం	-10.1128
lo	-10.113
▁ప్రదర్శ	-10.1133
▁సీజన్	-10.1133
క్ర	-10.1136
▁శతాబ్దాల	-10.1136
టువంటి	-10.1141
▁ప్రేక్షకుల	-10.1141
▁రోడ్	-10.1143
గతి	-10.1143
▁రాష్ట్రాల	-10.1147
▁బూ	-10.1149
▁పనిచేసే	-10.1151
▁పుత్ర	-10.1156
గొట్ట	-10.1167
▁శ్రీరాములు	-10.117
▁సన్న	-10.1172
▁చేసుకుంట	-10.1175
▁చాలామంది	-10.1176
రస్	-10.1182
మూల	-10.1191
క్కి	-10.1192
▁విని	-10.1197
▁కొనసాగింది	-10.12
▁53	-10.1212
▁జర్మన్	-10.1215
▁ప్రారంభించాడు	-10.1216
ea	-10.1219
▁చేస్తాయి	-10.1221
ాత్మ	-10.1223
ill	-10.1227
▁తరచూ	-10.1229
▁చదువ	-10.1229
▁వాడి	-10.1231
▁హక్కు	-10.1235
యొక్క	-10.1236
▁మద	-10.1237
▁రామకృష్ణ	-10.1239
చ్చు	-10.1245
ంద్ర	-10.1249
▁వేగంగా	-10.1249
మ్మి	-10.125
నాలు	-10.1255
▁చివరికి	-10.1265
ుతాడు	-10.1267
పేరు	-10.1269
▁మరణించ	-10.1271
▁కాన్	-10.1271
▁ఆదాయం	-10.1272
▁పార	-10.1275
ధాన	-10.1275
ine	-10.1284
▁పైకి	-10.1286
▁హక్కుల	-10.1287
బడు	-10.1293
▁మించి	-10.1294
▁200	-10.1295
▁ఎన్నిక	-10.1297
ండ్ర	-10.13
▁రూపం	-10.1302
▁రుద్ర	-10.1303
తిని	-10.1303
▁కారు	-10.1307
▁దాన	-10.1311
▁కర్	-10.1312
▁కూర	-10.1312
▁పెడ	-10.1312
రిగి	-10.1317
▁బెల్	-10.1319
కూడా	-10.1323
no	-10.1326
వలె	-10.1328
▁వేట	-10.1332
త్రి	-10.1335
vi	-10.1338
▁కాకినాడ	-10.1338
▁హృదయ	-10.1339
ంపేట	-10.1342
▁మార్గము	-10.1342
▁సాధించాడు	-10.1345
▁సెంట్రల్	-10.1348
▁విజయనగర	-10.1348
ర్థ	-10.135
▁ఋణ	-10.1351
▁హార్	-10.1357
▁రచనల	-10.1366
▁బిల్	-10.1371
▁బలమైన	-10.1372
▁వయసులో	-10.1378
రావ	-10.1379
▁పేర్కొన	-10.1385
ియా	-10.1389
▁వయస్సు	-10.1396
ాబాద్	-10.1396
స్థితి	-10.1397
▁తదితర	-10.1398
క్షేత్ర	-10.14
ింపు	-10.1403
▁నౌక	-10.1407
▁ఎన్నికల	-10.1409
▁పరిగణించ	-10.1409
▁ఫోర్	-10.1409
▁తరలించ	-10.1411
▁ప్రచురణ	-10.1415
▁నష్ట	-10.1417
▁ప్రాంతము	-10.1419
పోతున్న	-10.1424
▁పొంది	-10.1427
▁శ్రీరామ	-10.1429
ాంధ్ర	-10.1429
▁వ్రాస	-10.1429
▁సంతోష	-10.1431
బడుతున్నాయి	-10.1432
▁రాజులు	-10.1433
▁నిలిచింది	-10.1436
▁దేవత	-10.1439
▁ఉద్యోగం	-10.1441
▁తిమ్మ	-10.1445
▁విషయ	-10.1449
▁ప్రయాణం	-10.145
ధారణ	-10.145
దార్	-10.145
▁సస్యరక్షణ	-10.145
▁బహుళ	-10.1456
▁ఉండదు	-10.1465
ెదరు	-10.1465
▁అంతరిక్ష	-10.1468
▁భక్త	-10.1471
ంచె	-10.1471
▁వాటికి	-10.1472
▁పెట్టారు	-10.1472
కాని	-10.1476
▁మొక్కలు	-10.1477
▁రకమైన	-10.1478
▁పక్క	-10.1484
ుచు	-10.1486
▁ఎండ	-10.1489
దారుల	-10.1489
దిన	-10.15
▁పేర	-10.15
▁ఏకైక	-10.15
▁మాన	-10.15
▁సిద్ధాంతం	-10.1503
▁బ్లాక్	-10.1505
▁విష్ణువు	-10.1507
▁నీకు	-10.1512
▁ఆధార	-10.1512
విన్	-10.1515
▁విభజించ	-10.1519
▁ప్ల	-10.152
▁పార్లమెంటు	-10.1527
ాలపై	-10.1528
▁కాలేదు	-10.153
▁సంఘటన	-10.154
ell	-10.1542
▁విధ	-10.1551
▁ఉత్తరాన	-10.1555
▁పద్య	-10.1558
ువాడు	-10.1563
▁ఉదా	-10.1566
▁మిల్	-10.1567
▁కింగ్	-10.157
▁ప్రతిష్ఠ	-10.1571
▁ప్రజాదరణ	-10.1573
▁దేశానికి	-10.1574
▁సంవత్సర	-10.1576
▁అంటూ	-10.1589
ుతున్నాయి	-10.159
ులలో	-10.1591
▁కాయ	-10.1594
▁నక్షత్రం	-10.1595
▁రాం	-10.1598
క్తి	-10.1606
sa	-10.1606
య్యారు	-10.1607
▁ఏలూరు	-10.1609
▁అంతర్గత	-10.161
▁నగరానికి	-10.161
భ్ర	-10.1626
బాటు	-10.1628
డెన్	-10.1631
▁ప్రఖ్యాత	-10.1631
▁స్వల్ప	-10.1632
▁పేర్కొన్నారు	-10.1638
▁ప్రాచుర్యం	-10.164
▁హీ	-10.1642
▁హాల్	-10.1648
▁56	-10.1654
▁సరిహద్దులో	-10.1656
▁స్థాపించ	-10.1658
▁భుజ	-10.166
▁సూపర్	-10.1666
ధీ	-10.1666
ish	-10.1671
▁స్వాతంత్ర్యం	-10.1673
▁కొవ్వు	-10.1677
▁విప్లవ	-10.1677
▁లోనే	-10.168
విధ	-10.1681
▁పేరును	-10.1684
▁అభిప్రాయం	-10.1692
▁ఆర్ధిక	-10.1694
ధ్ధ	-10.1698
▁సందర్భంలో	-10.1698
థ్	-10.17
ధ్వ	-10.1705
▁రావ	-10.1707
▁ప్రకటించింది	-10.1707
▁వచ్చాడు	-10.1712
▁శరీరం	-10.1719
▁బుక్	-10.172
గ్రామ	-10.1724
కేంద్ర	-10.1727
▁ప్రారంభమైంది	-10.1729
▁వర్గ	-10.173
ియ	-10.1732
▁నిర	-10.1735
ear	-10.1737
code	-10.1737
▁వసతి	-10.1738
▁పాల్	-10.1741
▁సమర్పించ	-10.1741
భేద	-10.1742
▁ప్రవేశపెట్ట	-10.1745
▁స్థానాల	-10.1748
▁షో	-10.1749
▁1947	-10.1751
గణ	-10.1755
ర్యా	-10.1764
res	-10.1765
▁వచ్చ	-10.1766
దైన	-10.1767
▁జనతా	-10.1769
నాధ	-10.1769
▁నాగరికత	-10.1771
▁ఫ్రెంచి	-10.1771
▁విద్యార్థుల	-10.1777
▁లేదని	-10.1779
▁పరిధి	-10.1783
▁విషయాలు	-10.179
▁కాలువలు	-10.1795
▁ప్రియ	-10.1795
▁అంశం	-10.1797
▁దేవాలయ	-10.1798
▁ఫ్ర	-10.18
▁అష్ట	-10.1803
▁కుమార్	-10.1803
▁తరఫున	-10.1808
▁పదార్థాల	-10.1812
బంధ	-10.1814
▁ధరించ	-10.1816
▁ముఖ్యమంత్రి	-10.1818
లెట్	-10.1821
j	-10.1823
▁కనిపిస్తాయి	-10.1823
జాతి	-10.1823
▁వినియోగించ	-10.1824
▁పరిమాణ	-10.1825
▁ఫోటో	-10.1833
▁సంపాదక	-10.1835
నట్లు	-10.1842
▁అంట	-10.1843
▁జన్మించిన	-10.185
నంద	-10.1854
ర్ధ	-10.1854
▁నాటు	-10.1855
▁నిర్దిష్ట	-10.1855
▁దంపతులకు	-10.1856
▁భాషలలో	-10.1858
▁చేసేందుకు	-10.186
▁గురి	-10.1866
సార్లు	-10.1871
▁జంట	-10.1875
▁సలహా	-10.188
యీ	-10.188
లియన్	-10.1881
వేష	-10.1881
▁గృహాల	-10.1884
▁అధికారులు	-10.1885
▁ఎవరి	-10.1889
ష్య	-10.1891
▁వార్షిక	-10.1897
▁అంతర్	-10.1898
▁మెదక్	-10.1902
▁కవిత	-10.1902
ొక	-10.1904
▁ఉదయం	-10.1913
న్నాడు	-10.1914
రాజ్	-10.1915
▁మీదుగా	-10.1916
▁బాబా	-10.1919
▁నడి	-10.1927
ap	-10.1928
▁ముందే	-10.1928
▁విభజన	-10.1935
▁యుగ	-10.1936
▁బదులుగా	-10.1938
మైనవి	-10.1941
▁తప్పు	-10.1941
▁ఆకర్షణ	-10.1952
▁పాలి	-10.1954
▁ద్రవ్య	-10.1957
వ్యవస్థ	-10.1963
ాభి	-10.1967
చేసిన	-10.1976
వద్ద	-10.198
▁ప్రార్థన	-10.1983
▁వందల	-10.1984
ికా	-10.1988
▁అనీ	-10.1989
▁సినిమాలు	-10.199
▁చలనచిత్ర	-10.1991
▁కావడం	-10.1992
▁రత్న	-10.1996
పోవడం	-10.1999
▁గణ	-10.2002
▁పార్క్	-10.2005
▁పట్టా	-10.2009
వాదం	-10.2014
▁తాత	-10.2014
▁39	-10.2014
దళ	-10.2014
▁లోపలి	-10.2018
సంబంధ	-10.2018
▁చేయాలని	-10.202
▁సర్పంచిగా	-10.2025
▁పదాల	-10.2025
▁శుద్ధ	-10.2027
పూర్లో	-10.2027
▁తెలుగుదేశం	-10.2029
▁వంతెన	-10.2029
▁పోషించ	-10.2031
▁స్టార్	-10.2034
▁కీలక	-10.2038
▁తెనాలి	-10.2039
▁కంప	-10.2039
▁అందరి	-10.2045
▁ప్రతిపాదన	-10.2048
▁తెగ	-10.2049
▁90	-10.2051
▁ఫ్ల	-10.2052
▁లెక్క	-10.2052
▁కలుప	-10.2055
▁దొ	-10.2055
▁రౌ	-10.2056
▁సంబంధ	-10.2058
▁సభ్య	-10.2059
మిక్	-10.206
va	-10.206
▁డ్ర	-10.2061
ంబర్	-10.2061
కరించ	-10.2064
చేశారు	-10.2067
ul	-10.2067
వల్	-10.2069
▁సమాధి	-10.2072
▁వివరాలు	-10.2075
▁అణువు	-10.2081
ోప	-10.2089
ళ్	-10.2092
ya	-10.2106
రహిత	-10.2116
▁తను	-10.2117
▁రాజుల	-10.212
▁శ్రేణి	-10.2123
▁ఎదుర్కొ	-10.2124
▁44	-10.2124
▁పుస్తకాలు	-10.2124
▁తపస్సు	-10.2125
▁గార్	-10.2129
▁జనాభాలో	-10.2132
పడ్డారు	-10.2137
డింగ్	-10.2146
▁పెరిగింది	-10.2147
▁వాదన	-10.215
టికి	-10.2163
▁వ్యాపారం	-10.2163
▁అక్క	-10.2164
▁విధానాన్ని	-10.2168
▁ఎదుర	-10.2172
▁సముద్రం	-10.2174
▁నం	-10.2178
▁వాల్	-10.2182
▁మంగళ	-10.2184
టరీ	-10.2185
▁పరిమాణం	-10.2187
ఘా	-10.2196
ుకొనే	-10.2198
▁స్థాపించారు	-10.22
▁దొంగ	-10.2202
▁1991	-10.2202
da	-10.2204
-19	-10.2205
▁అతనిని	-10.2208
▁ప్రకారము	-10.2209
▁ఆచార్య	-10.2216
▁వేయుట	-10.2218
నపుడు	-10.222
▁సమాజం	-10.222
▁చేరాడు	-10.2221
క్టర్	-10.2225
▁అప్పటికే	-10.2227
▁ఫీ	-10.2229
▁కొంతకాలం	-10.2232
▁విశ్వాస	-10.2233
▁మహర్షి	-10.2241
▁మంచిర్యాల	-10.2241
▁అనుమతించ	-10.2243
▁పనుల	-10.2245
://	-10.2251
▁ఏదో	-10.2252
వల్లి	-10.2254
▁చేయబడ్డాయి	-10.2261
వర్ణ	-10.2265
▁ప్రారంభించింది	-10.2265
▁కాలేజీ	-10.2271
▁రంగం	-10.2273
▁రూపకల్పన	-10.2275
▁అదనంగా	-10.2276
▁చేయు	-10.2279
▁విశేషం	-10.2283
▁ప్రసాద్	-10.2288
▁ఆచార	-10.229
▁రొ	-10.2293
▁అకాడమీ	-10.2295
▁బాబు	-10.2298
▁అనుసరించ	-10.2301
▁విషయాన్ని	-10.2306
▁చార్	-10.2306
▁మర్	-10.2307
▁ఆన్	-10.231
▁సత్యనారాయణ	-10.2311
▁అటు	-10.2313
▁బ్యాంక్	-10.2316
స్కో	-10.232
తనం	-10.232
ఓ	-10.2323
కున్న	-10.2324
▁తార	-10.2324
▁బృంద	-10.2324
▁కారణాల	-10.2324
▁తెలుస్తుంది	-10.2324
▁లూ	-10.2328
▁అమర	-10.2331
▁పాటల	-10.2331
బై	-10.2332
▁కీర్తి	-10.2338
▁దేశము	-10.2338
▁రూపాయల	-10.2339
ga	-10.2339
ందరూ	-10.234
▁సీతా	-10.2357
▁ప్రాంతాలకు	-10.2363
▁సమాఖ్య	-10.2364
చేసే	-10.2366
▁అధికారి	-10.2367
▁బిరుదు	-10.2369
యింది	-10.2373
▁కలప	-10.2375
రుగ	-10.238
▁జరుగ	-10.238
▁నెలకొల్ప	-10.2389
▁రథ	-10.2389
ంభ	-10.239
▁సూచన	-10.239
త్రా	-10.2394
▁దేశీయ	-10.2396
si	-10.2397
▁లిం	-10.2398
▁కుడి	-10.2399
▁భవనం	-10.24
ణ్	-10.24
ల్లీ	-10.2405
ాంశ	-10.2407
▁టెక్	-10.2408
ానికీ	-10.2408
▁మహిళా	-10.2408
▁వ్యాప్తి	-10.241
▁విల్	-10.2412
▁హోదా	-10.2413
▁ఎల్ల	-10.2417
▁తెలంగాణా	-10.2417
▁మరణించారు	-10.2418
▁తీవ్రంగా	-10.2419
▁లోయ	-10.2421
మయ్యే	-10.2421
▁ఒకరి	-10.2423
▁గ్రంథాల	-10.2433
▁యుగం	-10.2435
ంగో	-10.2441
మ్ము	-10.2443
▁వు	-10.2444
వాటి	-10.2449
▁చేతుల	-10.2449
▁సాహితీ	-10.2453
▁పెరుగుదల	-10.2454
▁కనబడ	-10.2457
▁పనిచేస్తున్న	-10.2458
▁పొగాకు	-10.2459
▁కుమార	-10.246
ందున	-10.2462
▁వేర్వేరు	-10.2463
▁ఎకరాల	-10.2464
ట్ర	-10.2473
▁అన్నీ	-10.248
దాన	-10.248
▁కోప	-10.2483
ద్వారా	-10.2485
మనే	-10.2485
▁వరద	-10.2485
▁దీంతో	-10.2486
స్సా	-10.2488
▁ప్రజలను	-10.2492
▁సన్	-10.2492
▁కొన్నిసార్లు	-10.2494
▁అత్యధికంగా	-10.2499
▁బలహీన	-10.2503
సేవ	-10.2507
▁ఒత్తిడి	-10.2513
▁ఇంట్లో	-10.2516
▁గజ	-10.2525
▁తీసిన	-10.2525
గురు	-10.2525
ధర	-10.2525
▁సంబంధాలు	-10.2526
▁ఎరువులు	-10.2528
ive	-10.2528
▁యే	-10.2528
▁పదవీ	-10.2537
▁మళ్లీ	-10.2538
డియ	-10.2539
▁బట్ట	-10.254
▁కళాశాలలు	-10.2542
▁క్రితం	-10.2545
▁విఫల	-10.2545
able	-10.2546
మధ్య	-10.2548
▁అడిగ	-10.2548
టక	-10.2548
హే	-10.2549
ిస్తున్నాయి	-10.2552
▁చేసుకున్నారు	-10.2556
▁వేసిన	-10.2558
▁చేపట్ట	-10.2558
▁దూరంగా	-10.256
ted	-10.256
▁సాగించ	-10.2561
▁ఇంగ్లీషు	-10.2562
ావు	-10.2562
పణ	-10.257
▁ఇచ్చ	-10.257
▁బ్రి	-10.2573
▁అరణ్య	-10.2579
టూ	-10.2589
ండీ	-10.2594
ఛ	-10.2594
▁పోర్ట్	-10.2595
▁భాషలు	-10.2596
▁క్రమంలో	-10.2599
వాడి	-10.26
య్యాయి	-10.2602
▁ప్రామాణిక	-10.2603
▁కార్బన్	-10.261
▁మంట	-10.2612
▁కెమెరా	-10.2613
▁స్వామివారి	-10.2616
▁పాశ్చాత్య	-10.2618
▁ప్రమాదం	-10.2622
▁చేయించ	-10.2626
నార్	-10.2627
▁చెందినది	-10.2627
రింగ్	-10.2628
▁విద్యను	-10.263
▁విడ	-10.2631
దాయ	-10.2641
iv	-10.2641
▁సూత్ర	-10.2648
▁41	-10.2649
ిందని	-10.2652
ion	-10.2652
▁పీఠ	-10.2655
ry	-10.2657
▁కొబ్బరి	-10.2659
▁ఎమ్	-10.2661
▁నిత్య	-10.2666
▁నీటిలో	-10.2666
▁తద్వారా	-10.2667
▁తాగునీటి	-10.2669
▁వహించిన	-10.2672
▁పరిసర	-10.2673
▁దాంతో	-10.2673
▁ఎత్తైన	-10.2674
కోణ	-10.2679
display	-10.2679
▁విశాఖపట్నంలోను	-10.268
ాలన్న	-10.2683
య్యా	-10.2691
▁సంతానం	-10.2694
▁షి	-10.2696
▁బాధ్యతలు	-10.2699
ుకొన్న	-10.2701
ఎం	-10.2701
▁వీధి	-10.2701
ast	-10.2703
▁మెరుగు	-10.2709
▁ద్వి	-10.2711
▁చేరు	-10.2712
▁సెం	-10.2716
ేతర	-10.2726
▁షిప్	-10.2731
▁క్రీడా	-10.2736
ప్రభావ	-10.2736
టెన్	-10.2738
▁మాట్లాడే	-10.274
▁ముంబై	-10.2741
▁నిద్ర	-10.2744
▁మార్గంలో	-10.2744
▁ఇంటర్నేషనల్	-10.2746
▁వస్తువుల	-10.2747
మూస	-10.2748
ములోని	-10.2757
▁di	-10.276
▁చర్యలు	-10.2761
చరిత్ర	-10.2761
▁సున్న	-10.2765
▁స్థాపించబడింది	-10.2765
జల	-10.2767
▁కదా	-10.2767
ver	-10.2772
▁his	-10.2773
▁వనరులు	-10.2773
▁మేరకు	-10.2779
▁భారతదేశంలోని	-10.2782
▁సైతం	-10.2786
ాద్రి	-10.2791
▁me	-10.2795
యైన	-10.2796
సులు	-10.2797
▁ఫుట్	-10.2802
▁అడవుల	-10.2807
▁సంయోగ	-10.2807
▁వికారాబాద్	-10.2807
▁సమస్యలు	-10.2808
▁ప్రకాశ	-10.2813
▁ప్రసంగ	-10.2821
▁కనిపిస్త	-10.2824
▁సిం	-10.2828
పక్ష	-10.2845
కృష్ణ	-10.2846
ence	-10.2846
▁చుట్ట	-10.2854
▁పాము	-10.2858
ేష్	-10.286
బ్రహ్మ	-10.286
▁దాటి	-10.2865
▁వో	-10.287
▁48	-10.2872
ందర్	-10.2877
▁స్థానాన్ని	-10.2878
▁ప్రతిభ	-10.2879
▁1998	-10.2879
▁మ్యా	-10.2882
▁గవర్నర్	-10.2884
▁పునర్	-10.2886
▁కప్	-10.2887
▁అటువంటి	-10.2889
వరకూ	-10.2891
▁నమ్మకం	-10.2897
▁శేష	-10.29
▁తొమ్మిది	-10.2901
నూర్	-10.2901
దాసు	-10.2905
▁నవాబు	-10.2906
▁వనపర్తి	-10.2906
మనీ	-10.2907
▁గురించిన	-10.291
జీవ	-10.2915
పురి	-10.2917
▁వ్య	-10.2917
▁వినియోగదారు	-10.2917
▁చెట్ల	-10.292
▁ఆమ్ల	-10.2922
▁గది	-10.2933
కాండ	-10.2944
▁యూనివర్సిటీ	-10.2947
▁అద్భుత	-10.2949
రత్న	-10.2956
▁ఇచ్చింది	-10.2965
▁సారి	-10.2966
సిద్ధ	-10.2969
▁క్రియ	-10.297
▁బోధన	-10.2971
▁సంవత్సరానికి	-10.2972
▁వేరే	-10.2977
▁పురపాలక	-10.2984
▁చేసుకున్నాడు	-10.2986
▁వహించాడు	-10.2992
▁కల్ప	-10.2992
చంద్ర	-10.2994
▁http	-10.2995
స్తంభ	-10.2999
▁నేటి	-10.3
▁జం	-10.3002
▁అర్జునుడు	-10.3006
▁చేయవచ్చు	-10.3009
▁స్పెయిన్	-10.301
▁శివుడు	-10.3016
▁క్రీడ	-10.3018
▁చోటు	-10.3019
ుకోవచ్చు	-10.3022
▁బాల్య	-10.3022
▁ఇప్పటి	-10.3022
▁ప్రతిబింబ	-10.3024
యాత్ర	-10.3025
▁వాడుక	-10.3031
ind	-10.304
పడ్డాడు	-10.3041
రాదు	-10.3042
▁నివసించ	-10.3044
▁టెక్నాలజీ	-10.3047
▁మరణించిన	-10.3047
▁గంగా	-10.3051
▁జత	-10.3052
▁కను	-10.3052
▁మెంట్	-10.3055
▁రుచి	-10.3055
▁ప్రచార	-10.3057
వంశ	-10.3059
▁విగ్రహ	-10.306
▁హైదరాబాదులో	-10.3061
▁కన	-10.3066
▁గోడ	-10.3067
▁46	-10.307
▁మోస	-10.307
▁బోధించ	-10.307
▁క్రీస్తు	-10.3072
ట్యూ	-10.3089
టిల్	-10.3091
▁ఎలాంటి	-10.3093
▁పాత్రను	-10.3094
▁నేర్ప	-10.3094
రుగా	-10.3095
పాయ	-10.3095
▁కారక	-10.3096
▁సమూహం	-10.3108
▁పెరిగి	-10.3109
▁నటించాడు	-10.3109
▁సూచి	-10.3112
పేట్	-10.3112
చిత	-10.3113
▁కుటుంబంలో	-10.3114
ష్టి	-10.3124
▁బిడ్డ	-10.3125
లేదని	-10.3126
▁చెన్న	-10.3129
కాశ	-10.3133
▁శుభ	-10.3135
లేరు	-10.3138
▁సంస్థాన	-10.3139
▁ప్రమాణ	-10.3145
▁రాఘవ	-10.3159
▁రచించ	-10.3161
▁కటక	-10.3161
▁రకాలు	-10.3166
▁నన్ను	-10.3167
ుకుంటుంది	-10.317
our	-10.3171
▁ప్రవాహ	-10.3172
▁సినిమాల్లో	-10.3173
డ్డు	-10.3175
▁పరిపాలించ	-10.3175
▁గుర్తించారు	-10.3175
▁విన్న	-10.3178
▁43	-10.3179
▁కార్డు	-10.3186
ింగ్	-10.3199
▁చేయుట	-10.3199
▁ఆమోదించ	-10.3201
▁500	-10.3201
▁అయ్యింది	-10.3203
▁రైతు	-10.3205
ag	-10.3205
▁ప్రయోగించ	-10.3206
▁అర్జున	-10.3207
▁ముగింపు	-10.3207
కన్నా	-10.3209
▁బోర్డు	-10.3217
▁అత	-10.3218
▁పోలీసు	-10.3224
▁Ma	-10.3226
▁మాటలు	-10.3228
▁ఆశ్చర్య	-10.3228
▁చైతన్య	-10.323
▁మణి	-10.3235
▁శిష్య	-10.3236
▁1996	-10.3238
▁జీవుల	-10.3245
▁బోధ	-10.3247
▁వెస్ట్	-10.3249
ఫల	-10.325
▁భయం	-10.3253
tion	-10.3261
▁పుర	-10.3264
▁ఇంటికి	-10.3266
▁వెండి	-10.3268
తంత్ర	-10.3269
ారావు	-10.3269
▁వజ్ర	-10.327
▁యంత్ర	-10.3271
గడ్డ	-10.3272
విగా	-10.3275
▁పట	-10.3275
▁మానవుల	-10.3276
od	-10.3276
▁ఏళ్ల	-10.3276
▁చిత్త	-10.3277
▁వంతు	-10.328
▁చిత్రీకరించ	-10.3281
▁1930	-10.3283
కుమార	-10.3285
చర్య	-10.3286
లెక్	-10.3286
భద్ర	-10.3287
▁దేవుడు	-10.3289
కారులు	-10.3297
▁j	-10.3297
ig	-10.33
▁do	-10.3301
▁ఆస్తి	-10.3307
ud	-10.3309
all	-10.3312
▁దర్శన	-10.3314
▁ఇచ్చాడు	-10.3319
▁వస్త్ర	-10.3323
ెంట్	-10.3323
▁ఖనిజ	-10.3327
ాచల	-10.3328
▁విభాగ	-10.3329
▁క్రొత్త	-10.3331
▁గౌతమ	-10.3333
▁సందర్భ	-10.3335
▁నాయకులు	-10.3337
▁పరచ	-10.3337
▁పూజలు	-10.3338
▁గొల్ల	-10.3349
ళ్ళలో	-10.3352
దాని	-10.3354
తోనే	-10.3357
▁డిగ్రీలు	-10.3359
▁పద్ధతుల	-10.336
▁వేగ	-10.3363
▁కుటుంబానికి	-10.3365
▁వాడే	-10.3366
▁రాయి	-10.3366
దేశం	-10.3368
▁అమ్మాయి	-10.3369
▁స్థలం	-10.337
థర్	-10.3376
ూర్లో	-10.3377
నాల్	-10.338
▁రెండూ	-10.3383
▁పరంగా	-10.3391
▁డచ్	-10.3392
▁జాతులు	-10.3392
కారి	-10.3395
▁అనువదించ	-10.3396
▁ఇంధన	-10.3398
▁ఫిలిం	-10.3398
ep	-10.3398
▁ఆకాశ	-10.3399
భూ	-10.3403
▁రూపొంద	-10.3408
▁అంతేకాక	-10.3409
▁mo	-10.3412
▁విస్తృతంగా	-10.3415
మెన్	-10.3415
తొ	-10.3416
▁65	-10.3417
▁సమాచారాన్ని	-10.3418
▁బ్రిటిషు	-10.3429
వచ్చని	-10.343
▁అధ్యయన	-10.343
వేల	-10.3432
▁కర్ణ	-10.3433
తీర్థ	-10.3438
▁బదిలీ	-10.344
▁ప్రాతినిధ్యం	-10.3441
▁భావించి	-10.3451
▁కొడ	-10.3452
▁జరిప	-10.3456
ెన	-10.3457
▁భాగము	-10.3458
▁వెల	-10.346
▁స్వర్ణ	-10.3461
లెస్	-10.3466
▁కాలి	-10.3468
▁ప్రారంభం	-10.3469
భో	-10.347
షణ	-10.3471
్యత	-10.3471
ho	-10.3473
▁లిపి	-10.3474
టివ్	-10.3474
జయ	-10.3474
▁వాళ్ళు	-10.3475
▁ఆకుల	-10.3479
సంస్థ	-10.3481
స్తున్నాయి	-10.3485
▁ప్రయత్నాలు	-10.3489
దేవత	-10.349
బాయి	-10.3491
▁చోట	-10.3492
▁నర	-10.3493
▁టౌన్	-10.3495
క్యు	-10.3496
▁దర్శక	-10.3497
ప్పి	-10.3504
ుచున్న	-10.3506
▁నేపథ్య	-10.3511
▁సామర్థ్యం	-10.3511
▁అయ్యాడు	-10.3513
సుకు	-10.3517
త్వాన్ని	-10.3517
▁దొర	-10.3521
▁ఒప్ప	-10.3522
తము	-10.3525
▁కాన	-10.3532
▁ఆధారాలు	-10.3543
▁ప్రవేశం	-10.3548
▁ఆధారిత	-10.355
▁నటన	-10.3567
గిన	-10.3569
▁రామచంద్ర	-10.3575
పత్ర	-10.3579
▁జంక్షన్	-10.3585
▁నాయకుల	-10.3589
▁వైశాల్యం	-10.3591
▁విశ్వాసం	-10.3591
▁రాజధానిగా	-10.3592
▁కాళ	-10.3592
▁అయ్యాయి	-10.3596
▁ఆచరించ	-10.3599
నైనా	-10.3601
▁2017,	-10.3603
▁బెర్	-10.3604
▁భాషల	-10.3604
▁ప్రక్క	-10.3605
▁పరిధిలోని	-10.3606
▁అనకాపల్లిలోను	-10.3606
▁సమావేశ	-10.3615
ర్చి	-10.3618
▁దగ్గరగా	-10.362
శయ	-10.3623
▁వెళ్ళే	-10.3623
ంకా	-10.3624
ఒ	-10.3625
▁గోవింద	-10.3626
▁దెబ్బ	-10.3627
▁పోయి	-10.363
▁విలీనం	-10.3631
▁75	-10.3631
విధంగా	-10.3633
▁వైద్యుడు	-10.3633
▁తాలూకా	-10.3633
ొచ్చు	-10.3635
▁దాకా	-10.3635
మూరు	-10.3639
▁అక్కడే	-10.364
▁సుబ్బ	-10.3641
పుల్	-10.3645
▁నృత్యం	-10.3658
ేశ	-10.366
▁నార్వే	-10.366
▁పల్ల	-10.3662
▁న్యూయార్క్	-10.3662
▁కొరియా	-10.3667
▁నటించింది	-10.3667
ఉంది	-10.3671
su	-10.3674
ut	-10.3675
▁అధికారికంగా	-10.3676
▁కురు	-10.3676
▁దే	-10.3679
▁అనుకూల	-10.3682
▁పనిచేసిన	-10.3684
▁వచ్చు	-10.3684
▁అధి	-10.3688
సింహ	-10.3693
ించడానికి	-10.3699
▁వ్యక్తులు	-10.3704
▁వైద్యులు	-10.3704
ేయ	-10.3708
▁se	-10.3713
వరి	-10.3716
▁కార్యకలాపాల	-10.3716
▁చెల్ల	-10.3717
▁నిర్మ	-10.3718
▁వ్యక్త	-10.3726
▁వెలువడ	-10.3732
▁పదాలు	-10.3736
దేవుడు	-10.374
▁అభ్యసించ	-10.3741
▁సౌకర్యాలేమ	-10.3742
▁మరల	-10.3742
▁బలి	-10.3743
▁రంగస్థల	-10.3748
చ్చిన	-10.3749
▁నేత	-10.3753
▁వర్గాల	-10.3754
▁బోస్	-10.3755
▁ఈశాన్య	-10.3758
▁వాడతారు	-10.3759
tu	-10.3761
ect	-10.3765
▁ఉత్పత్తుల	-10.3766
▁గద్వాల	-10.3769
▁టన్నుల	-10.3771
ోద్యమ	-10.3775
▁అంతటా	-10.378
దశ	-10.378
▁నిజానికి	-10.3781
-3	-10.3782
▁పెట్టుబడి	-10.3787
టెడ్	-10.3789
▁కాలానికి	-10.379
ుకోవాలి	-10.3796
ాభివృద్ధి	-10.3798
▁పండు	-10.3798
▁రాగి	-10.3801
▁చదివి	-10.3803
▁సాహిత్యంలో	-10.3804
ణు	-10.3805
రోగ	-10.3807
▁అవగాహన	-10.3809
▁రెండింటి	-10.3809
▁పురస్కార	-10.381
▁రష్యన్	-10.3815
ీశ్వర	-10.3817
▁వెళ్ళాడు	-10.3818
▁పాలనా	-10.3818
▁సమస్యల	-10.382
de	-10.3821
స్టో	-10.3824
int	-10.3825
▁వర్క్	-10.3825
▁భారతదేశానికి	-10.3826
స్త్ర	-10.3827
▁మీరు	-10.383
▁తీసుకున్న	-10.3837
▁గోధుమ	-10.3838
▁మన్న	-10.3838
▁చోళ	-10.3848
ిస్తుంటారు	-10.3849
▁అవతార	-10.3853
▁ఆవు	-10.3853
▁రసాయనిక	-10.3854
▁చదరపు	-10.3855
▁చిత్రాలలో	-10.3855
▁బోరుబావులు	-10.3858
▁ఒక్కో	-10.3859
చెర్ల	-10.3865
▁చదవ	-10.3871
▁అన్నారు	-10.3872
▁గం	-10.3874
▁కలగ	-10.3877
▁జాబితాలో	-10.3878
▁అనుభవించ	-10.3879
▁1994	-10.3883
టాన్	-10.3883
▁ప్రస్తావించ	-10.3884
▁పల్లి	-10.3888
▁సేవలను	-10.3892
ni	-10.3892
▁ఈస్ట్	-10.3892
▁తూ	-10.3896
▁భయ	-10.3898
▁so	-10.3899
క్ట్	-10.3899
▁మోక్ష	-10.3899
▁వంద	-10.39
▁చనిపో	-10.39
వ్యాప్త	-10.3902
▁దీ	-10.3902
pe	-10.3905
▁పర్యటన	-10.3907
▁కూతురు	-10.3916
▁రఘు	-10.3918
▁జిల్లాలలో	-10.392
▁ఉందిసమీప	-10.3922
▁ఆకర్షించ	-10.3922
▁తిరస్కరించ	-10.3924
▁పలువురు	-10.3924
ప్రె	-10.3925
ath	-10.3925
}}	-10.3925
డికి	-10.3929
▁i	-10.393
ous	-10.3932
▁ముడి	-10.3933
▁చిత్రానికి	-10.3938
మయ్య	-10.3939
▁దేశంగా	-10.394
తాయని	-10.394
▁రేటు	-10.3945
▁జోన్	-10.3947
▁ఉంటాడు	-10.3948
వర్తన	-10.3949
▁పరిశోధనలు	-10.395
ుచున్నది	-10.3952
పోవటం	-10.3954
▁తెలిసి	-10.3955
మల్	-10.3964
ానికే	-10.3965
▁సర	-10.3965
▁కౌన్సిల్	-10.397
▁ఖాళీ	-10.397
▁భాగాల	-10.3971
గలిగే	-10.3973
▁సమీపంలోని	-10.3974
▁స్వర్గ	-10.3975
పోత	-10.3975
▁దీక్ష	-10.3975
ండె	-10.3977
సరి	-10.398
▁చెబుతారు	-10.3982
▁తదుపరి	-10.3982
▁అనుగుణంగా	-10.3982
ూర	-10.3983
బాల్	-10.3984
ధో	-10.3989
దృ	-10.3989
▁తీగ	-10.3991
డ్యూ	-10.3993
లార్	-10.3994
▁ప్రధానమంత్రి	-10.3998
▁రవి	-10.4001
▁ప్రకటించారు	-10.4007
▁సాధించి	-10.4009
▁విమానాశ్రయం	-10.4009
▁జీవితాన్ని	-10.401
▁ఇంగ్లాండ్	-10.4011
▁చూస్తే	-10.4014
▁47	-10.4016
▁హింస	-10.4017
▁ఎప్పుడూ	-10.4019
క్షేప	-10.4021
▁అందువల్ల	-10.4022
▁రాక	-10.4022
▁చేతిపంపులు	-10.4022
▁అదనపు	-10.4022
ff	-10.4026
▁భూమిని	-10.4028
▁మందికి	-10.4032
▁యస్	-10.4036
▁కొన	-10.4038
▁టే	-10.4046
పాత	-10.4047
ph	-10.4049
▁చెప్పే	-10.4054
▁వాస	-10.4054
▁టు	-10.4055
▁నిర్మాణానికి	-10.4056
▁ప్రవర్తన	-10.4061
తృ	-10.4067
▁వినోద	-10.407
▁చేరిన	-10.4071
▁భాగాలు	-10.4075
▁అనుబంధ	-10.4076
పడిన	-10.4077
▁ఆయనను	-10.4078
రిన్	-10.4078
సాయి	-10.4081
▁పుస్తక	-10.4082
▁నాటకం	-10.4083
▁సకల	-10.4084
▁పశువుల	-10.4086
▁సీనియర్	-10.4089
త్యం	-10.409
▁మూలంగా	-10.4092
▁చేసుకో	-10.4093
ాళ్	-10.4093
వాల్	-10.4097
▁ఆందోళన	-10.4098
బ్ర	-10.4099
▁చేయటం	-10.41
▁తాత్కాలిక	-10.4104
▁గూడూరు	-10.4109
▁దేశాల్లో	-10.4109
గుల	-10.4111
మను	-10.4111
టార్	-10.4113
▁కమ్మ	-10.4116
పంచ	-10.4119
▁చూడండి	-10.412
▁one	-10.4121
district	-10.4122
యాగ	-10.4123
▁చేస్తే	-10.4126
▁1989	-10.4126
▁అప్పట్లో	-10.4128
కాన్	-10.4129
చింది	-10.4136
▁ఊహించ	-10.4136
ములతో	-10.4137
▁పాటించ	-10.4138
▁పువ్వు	-10.4141
▁బొగ్గు	-10.4141
▁అక్షరాస్యత	-10.4145
స్థల	-10.4148
▁భద్ర	-10.415
నంత	-10.4156
▁నాయకత్వంలో	-10.4164
డియో	-10.4168
ధ్ర	-10.4169
▁తరలి	-10.417
▁సేకరణ	-10.4171
▁గ్ర	-10.4171
▁పూల	-10.4171
▁త్ర	-10.4173
▁శతాబ్ది	-10.4181
▁ఉండేవారు	-10.4181
▁ఉంటుందని	-10.4183
▁1948	-10.4185
▁కథల	-10.4185
మహా	-10.4187
▁సప్త	-10.4189
కల్ప	-10.4194
▁విభాగంలో	-10.4196
5%	-10.4197
▁1997	-10.4197
చాడు	-10.4198
▁స్పానిష్	-10.4199
du	-10.42
▁చెంది	-10.4201
▁పేర్కొన్నాడు	-10.4202
▁జరిగి	-10.4205
▁ఈశ్వర	-10.4206
▁సందర్భాలలో	-10.4209
▁కేంద్రాల	-10.4218
▁has	-10.4222
▁లోతు	-10.4222
ముగ	-10.4228
▁అందించే	-10.4229
▁ఒప్పంద	-10.4232
కళ	-10.4233
▁విభాగాల	-10.4233
వృత్తి	-10.4234
▁వైష్ణవ	-10.4234
▁జంతు	-10.4241
డై	-10.4243
ుకుంటాడు	-10.4243
▁అందించారు	-10.4245
షియ	-10.4248
గలవు	-10.4251
▁భువనగిరి	-10.4252
▁పనిచేస్తుంది	-10.4253
▁భాగవత	-10.4254
▁సమాజంలో	-10.4256
▁సుబ్రహ్మణ్య	-10.4258
▁మండలి	-10.426
▁అంశాలు	-10.4262
లచే	-10.4262
▁తనను	-10.4264
▁ఇసుక	-10.4268
▁ట్రి	-10.4274
▁చేసుకొని	-10.4276
▁ఒకప్పుడు	-10.4286
ళు	-10.4288
సార్	-10.4291
▁కుక్క	-10.4299
▁గ్రేట్	-10.43
▁పదాన్ని	-10.4301
▁పంటలు	-10.4303
▁పిలవ	-10.4303
▁అంశ	-10.4304
▁నాశనం	-10.4306
▁ఆదాయ	-10.431
ఉన్న	-10.4311
▁క్షేత్రం	-10.4312
▁55	-10.4313
లోనికి	-10.4314
స్తాన్	-10.4314
▁బహ	-10.4314
▁తిప్ప	-10.4315
▁పుల్ల	-10.4316
▁ఫ్రీ	-10.4322
ేపల్లి	-10.4322
▁ఎడ్	-10.4322
కూడదు	-10.4326
వీర	-10.4327
▁విధానంలో	-10.4329
▁సిద్ద	-10.4331
▁విస్తరణ	-10.4334
▁దాదాపుగా	-10.434
▁ధాన్య	-10.434
▁1995	-10.4341
ke	-10.4343
ాలున్నాయి	-10.4343
▁విచారణ	-10.4348
▁తేలిక	-10.4349
▁ఆదిలాబాద్లో	-10.435
రగ	-10.4351
ష్క	-10.4352
▁పంజాబ్	-10.4354
▁హైదరాబాదులోను	-10.4355
▁దేహ	-10.436
▁భాగాన్ని	-10.4362
▁సంవత్సరము	-10.4362
▁ప్రదేశంలో	-10.4366
▁కాల్	-10.4367
▁పాత్రల	-10.4372
▁వాని	-10.4374
▁ఎగుమతి	-10.4378
▁సమకూర్చ	-10.4378
▁పట్టిక	-10.4379
▁li	-10.438
▁కంటి	-10.438
జిల్	-10.4383
▁ఎడమ	-10.4383
▁ఏళ్ళ	-10.4387
▁శిలా	-10.4388
స్థి	-10.4389
▁భావించారు	-10.4391
▁పౌ	-10.4391
▁నియంత్రించ	-10.4395
▁గౌ	-10.4396
వాని	-10.4396
▁విభాగాలు	-10.4396
▁కొమ్మ	-10.4399
▁కలకత్తా	-10.4402
▁అనుసంధానం	-10.4408
▁ఉర్దూ	-10.4408
కాన్ని	-10.441
▁దయ	-10.4412
▁ఇందుకు	-10.4414
ప్రతి	-10.4415
▁లక్ష	-10.4415
▁సరళ	-10.4417
ోత్సవం	-10.4419
ated	-10.4419
యార్	-10.4422
▁సుబ్బారావు	-10.4426
▁వస్తాయి	-10.4431
gu	-10.4431
యుత	-10.4432
▁భరత	-10.4435
యత్	-10.4436
▁లక్ష్యం	-10.4438
▁గ్రీన్	-10.4438
ary	-10.4443
▁1992	-10.4443
▁సగం	-10.4443
▁మలయాళ	-10.4444
▁సూర్యాపేట	-10.4444
▁ప్రారంభమైన	-10.4445
▁మూడో	-10.445
▁లాగ	-10.445
ోపనిషత్తు	-10.4456
▁గ్రామాలను	-10.4466
▁బెల్లం	-10.4467
▁మహారాజు	-10.4467
▁చేస్తాడు	-10.4472
మాట	-10.4472
శక్తుల	-10.4473
▁వర్తక	-10.4473
మండల	-10.4474
▁ఆగ్నేయ	-10.4475
▁కమ్యూనిస్టు	-10.4475
తికి	-10.4479
▁వినియోగ	-10.448
ష్ణ	-10.4483
▁సూర	-10.4487
▁ద్రోణ	-10.4487
▁నాగార్జున	-10.4487
బెట్ట	-10.4488
▁స్పష్టంగా	-10.4489
▁కుమారులు	-10.449
co	-10.4491
ెత్త	-10.4492
గీత	-10.4498
▁నగరాల	-10.4499
్యము	-10.4504
▁దేవతలు	-10.4505
▁మధ్యకాలంలో	-10.4508
▁రక్తం	-10.4511
▁రాయ్	-10.4511
▁విశ్వనాథ	-10.4515
▁రాజీనామా	-10.4517
state	-10.4518
▁కడ	-10.4519
నొ	-10.452
▁పరిమిత	-10.452
▁మరిన్ని	-10.452
▁నిరూపించ	-10.4524
▁కావచ్చు	-10.4527
one	-10.4528
▁ఆరంభం	-10.4528
మ్మా	-10.4528
▁డొ	-10.4532
ాధార	-10.4535
డైన	-10.4535
▁ఇటలీ	-10.4536
▁ఉండును	-10.4536
కారుల	-10.4541
▁సెప్టెంబర్	-10.4542
▁త్యాగ	-10.4542
▁నున్న	-10.4542
▁వెలుగు	-10.4545
▁అంతకు	-10.4546
▁రైల్వేస్టేషన్	-10.4554
▁వాటా	-10.4558
▁అద్ద	-10.4558
▁సర్వే	-10.4561
▁ప్రత్యేకించి	-10.4561
ీకృత	-10.4565
▁మొదటిసారిగా	-10.4571
రణం	-10.4572
▁వెల్ల	-10.4576
out	-10.4578
▁కంద	-10.4578
▁300	-10.4584
ుకునేందుకు	-10.4588
▁ఉపయోగించారు	-10.4589
▁పంచాయతీ	-10.4589
యిడ్	-10.4591
▁గ్రంథాలయ	-10.4593
act	-10.4595
▁ప్రసారం	-10.4596
▁ఎందుకు	-10.4596
ావళి	-10.4598
ాయన	-10.4598
పత్	-10.4603
బర్గ్	-10.4615
▁మందు	-10.4616
▁మ్యూజియం	-10.4616
భాగంలో	-10.4616
▁పరికరాల	-10.4619
▁సహాయంతో	-10.4621
▁మార్గాల	-10.4624
▁డిస్	-10.4625
▁కిందకు	-10.4627
▁గుజరాత్	-10.4628
పట	-10.4629
బోధ	-10.4631
టమే	-10.4632
ందరి	-10.4632
▁దారితీసింది	-10.4634
పొంద	-10.4635
▁స్థాపించిన	-10.4644
▁మిగిలి	-10.4645
▁బావులు	-10.4653
▁గ్రహించ	-10.4654
▁పెరుగుతుంది	-10.4654
▁కప్ప	-10.4659
▁రాష్ట్రపతి	-10.4659
▁హాజర	-10.4661
టెక్	-10.4664
▁సంభవ	-10.4671
ఘ్	-10.4675
▁ఉత్తర్వులు	-10.4677
యున్న	-10.4681
▁49	-10.4681
▁అనువాద	-10.4685
▁శాస్త్రము	-10.4688
▁ముహమ్మద్	-10.469
▁వస్తు	-10.4698
ింపబడ	-10.4698
▁నగర్లో	-10.47
▁can	-10.4703
▁2013,	-10.4705
▁ప్రపంచం	-10.4708
▁కాదని	-10.4712
▁నేడు	-10.4713
▁సినిమాలలో	-10.4716
శ్య	-10.4716
▁ముప్ప	-10.4716
▁బుద్ధ	-10.4724
▁థియేటర్	-10.4727
▁An	-10.4728
▁వెన్న	-10.4728
▁రమణ	-10.4731
▁సామ	-10.4734
▁స్కా	-10.4737
ten	-10.4739
▁రాముడు	-10.4742
▁ఆమోద	-10.4747
నెల్	-10.4747
▁చిత్రాల	-10.4751
▁ఆనాటి	-10.4751
▁భూత	-10.4756
పేట్లో	-10.4761
▁చేస్తా	-10.4761
▁శర	-10.4763
▁మొహ	-10.4764
▁వాక్య	-10.4766
దానం	-10.4768
▁మాస	-10.4769
▁రంగుల	-10.4771
▁అల్యూమినియం	-10.4771
▁స్టూడియో	-10.4771
▁నాటకాల	-10.4774
▁మొగ	-10.4777
పుచ్చ	-10.4777
▁మొదట్లో	-10.4778
కుండ	-10.4779
▁హిమ	-10.4779
▁150	-10.4779
▁షేక్	-10.4779
▁హోటల్	-10.4779
oc	-10.4781
ుడయ్యాడు	-10.4784
▁ప్రజలలో	-10.4789
▁వెలుపల	-10.4789
త్తా	-10.479
▁బీజ	-10.4794
▁బ్లూ	-10.4794
▁నిలిపి	-10.4794
av	-10.4798
▁విస్తృత	-10.4799
▁జనసంఖ్య	-10.4804
▁ఎదుర్కొన్న	-10.4804
ారో	-10.4807
▁ఒలింపిక్	-10.4809
వున్న	-10.4816
▁జీర్ణ	-10.4822
జిల్లా	-10.4824
▁విడిచి	-10.4827
వారిని	-10.4831
▁ఆగష్టు	-10.4834
▁విధాన	-10.4835
ద్వార	-10.4836
▁గోపాల	-10.4837
▁వెళ్	-10.4838
▁నాయకత్వం	-10.4839
▁కవిత్వం	-10.4843
ఖి	-10.4848
▁po	-10.4852
సిల్	-10.4857
▁చేరింది	-10.4858
▁చేపల	-10.486
మహ	-10.4861
▁ట్రాన్స్	-10.4861
▁జీవించ	-10.4863
▁వారీ	-10.4863
▁ఇక్కడికి	-10.4864
▁నొప్పి	-10.4865
▁అసోసియేషన్	-10.4866
▁మంగ	-10.4866
▁మాయ	-10.4866
▁who	-10.4867
హర్	-10.4872
▁అడ్	-10.4875
▁పుట్టి	-10.488
ంటో	-10.4881
▁పరిష్కార	-10.4885
బెర్	-10.4885
▁వ్యాప్తంగా	-10.4885
▁తమ్మ	-10.4891
▁పశ్చిమాన	-10.4894
▁ప్రభుత్వానికి	-10.4901
▁శర్మ	-10.4902
▁దీర్ఘ	-10.4905
ాంశం	-10.4909
▁స్థాపించాడు	-10.4912
వాయి	-10.4913
▁పగ	-10.4914
▁ఉనికి	-10.4916
వంతు	-10.4916
▁నర్	-10.4918
▁అయ్యే	-10.4919
▁అవసరమ	-10.4922
▁5310	-10.4924
▁తానే	-10.4925
స్తున్నారు	-10.4932
▁అజ	-10.4933
క్రియ	-10.4934
▁ప్రసాద	-10.4939
యుడు	-10.4941
▁నివసిస్తున్న	-10.4941
దర్శన	-10.4942
▁మరికొన్ని	-10.4942
▁ట్రై	-10.4946
ుడే	-10.4947
లియో	-10.4948
▁1940	-10.495
▁సంప్రదాయం	-10.4953
▁స్నాన	-10.4953
▁మాల్	-10.4958
ొచ్చ	-10.4962
▁ఉంటూ	-10.4963
▁ఏనుగు	-10.4966
▁పేర్కొన్న	-10.4966
▁పాల్వంచ	-10.4968
కార్య	-10.4971
స్తి	-10.4972
▁రచించారు	-10.4973
▁సుమారుగా	-10.4973
▁ఐర్లాండ్	-10.498
▁ఉమ్మడి	-10.498
▁తల్లిదండ్రులు	-10.4984
▁మనస్సు	-10.4985
▁ఇరాన్	-10.4985
▁పెట్టిన	-10.4987
▁పరిశోధనా	-10.4992
▁కార్యదర్శి	-10.4992
కణ	-10.4992
▁సాయం	-10.4992
వడానికి	-10.4995
వర్తి	-10.4999
యొ	-10.5
▁కార్యాలయ	-10.5002
▁అధికారుల	-10.5002
▁వుండే	-10.5003
తులను	-10.5007
▁కాశ్మీరు	-10.5011
▁అసాధారణ	-10.5012
▁అండ	-10.5015
▁జరుగు	-10.5015
▁అనుకూలంగా	-10.5017
ాసుర	-10.5018
▁పెం	-10.5019
▁పట్టణంలో	-10.5021
ార్థం	-10.5022
pa	-10.503
▁లాభ	-10.5031
ినది	-10.5032
▁స్నేహ	-10.5034
ప్పటికి	-10.5035
▁స్వి	-10.5035
▁మాధవ	-10.5036
▁ఆకులు	-10.5036
▁చేయాలి	-10.5037
▁ఐస్	-10.5042
▁గ్రూప్	-10.5045
▁పురాణాల	-10.5046
▁ఇష్ట	-10.5046
▁వృత్తులు	-10.5048
▁కమల	-10.5049
నారాయణ	-10.5051
▁చక్కగా	-10.5051
ుతుంటారు	-10.5057
▁కూరగాయలు	-10.5057
నిష్	-10.5074
▁లాటిన్	-10.5077
▁సరిగా	-10.5078
▁శివుని	-10.5081
తుండ	-10.5081
pi	-10.5082
టికల్	-10.5082
▁ముస్లింల	-10.5088
▁క్రో	-10.5089
▁బుద్ధి	-10.509
పిల్ల	-10.5092
▁తెలుప	-10.5096
▁మనో	-10.5098
▁మహిళలు	-10.5099
▁ఆంగ్లంలో	-10.5101
▁శంఖ	-10.5104
▁స్వేచ్ఛ	-10.5104
వంతంగా	-10.5106
▁గుర్తించిన	-10.5106
య్యాడు	-10.5109
▁పార్టీకి	-10.5111
▁ఎదురు	-10.5115
▁చేసేవారు	-10.5115
ముద్ర	-10.5115
▁దళ	-10.5117
▁చూడవచ్చు	-10.5117
▁బానిస	-10.5119
▁పాల్గొన్నారు	-10.5122
▁కాంగ్రెసు	-10.5122
▁చిన	-10.5122
▁ప్రే	-10.5125
▁చేసుకునే	-10.5132
మిని	-10.5136
▁చర్యల	-10.5139
▁నిర్మించాడు	-10.5139
▁వీటికి	-10.514
భీ	-10.5141
కంఠ	-10.5143
▁చేసుకుంది	-10.5143
▁కలవ	-10.5146
బద్ద	-10.5147
▁ప్రొఫెసర్	-10.5148
▁బంగ్లాదేశ్	-10.5148
▁వ్యాధుల	-10.515
ాలజీ	-10.5151
▁తప్పించ	-10.5151
▁చేరారు	-10.5153
▁హెక్టారులు	-10.5155
▁శ్రద్ధ	-10.5155
చక్ర	-10.5161
▁ఎత్తులో	-10.5161
శాడు	-10.5163
▁విషయము	-10.5168
▁పొగ	-10.5169
▁విజయవంతంగా	-10.517
▁యూనివర్శిటీ	-10.5174
▁సింధు	-10.5175
▁కామారెడ్డి	-10.5176
భూమి	-10.5179
ంబర	-10.518
▁సౌందర్య	-10.5181
▁నడుప	-10.5182
ంపల్లి	-10.5182
▁ఆఫ్రికన్	-10.5187
ance	-10.519
బన్	-10.5191
▁ch	-10.5194
యిల్	-10.5195
▁ముని	-10.5196
▁కోర్	-10.5198
▁సూర్యుని	-10.5199
▁దోష	-10.5199
ang	-10.5201
ana	-10.5207
ting	-10.5209
▁వసంత	-10.5215
▁ఒకదాని	-10.5216
▁దాట	-10.5216
▁రాయల్	-10.5216
▁?	-10.5216
▁బస్	-10.5217
ఠా	-10.5219
ోంది	-10.5222
▁సమానంగా	-10.5223
శ్చ	-10.5225
▁ఎముక	-10.5226
▁ఏది	-10.5231
ాచార	-10.5232
మెంటు	-10.524
▁విద్వాంసు	-10.524
min	-10.5244
▁మల్	-10.5246
▁దేవుని	-10.5247
▁ఏమీ	-10.5248
లాంటి	-10.5248
▁పరస్పర	-10.5253
▁మీటర్లు	-10.5256
జాన్	-10.5258
మున్న	-10.526
1-	-10.5261
▁ముద్రించ	-10.5261
ింపబడిన	-10.5262
▁దుర్గ	-10.5265
adj	-10.5266
▁ప్రోత్సాహ	-10.5267
పాలన	-10.5273
▁పెను	-10.5275
▁వ్యయం	-10.5279
▁ప్రారంభించిన	-10.528
ళా	-10.5281
▁రెడ్	-10.5281
▁విజయవంతమైన	-10.5284
▁సాధ్య	-10.5285
భూషణ	-10.5285
▁నిషేధ	-10.5285
▁నింప	-10.5286
▁కావడంతో	-10.5288
▁డ్రా	-10.5289
▁అభివృద్ధికి	-10.529
▁అంతర	-10.5291
ప్రాంత	-10.5298
▁వాహన	-10.53
రంగంలో	-10.5301
▁షె	-10.5303
▁చర్మ	-10.5305
▁నిర్వహిస్తారు	-10.5307
▁విర	-10.5307
▁Ch	-10.5309
▁వైరస్	-10.5309
▁అన్	-10.5314
▁శక్తివంతమైన	-10.5314
బల్	-10.5315
▁పెరుగు	-10.5318
▁దక్షిణాన	-10.5321
బ్రా	-10.5322
▁పండ్లు	-10.5325
▁అరేబియా	-10.5326
▁గ్రే	-10.5327
▁దంత	-10.5327
▁హాని	-10.5328
▁రంగులో	-10.5332
వుతుంది	-10.5332
▁సంభాషణ	-10.5332
చ్చారు	-10.5335
▁కోస	-10.534
▁గంట	-10.5341
▁రంధ్రము	-10.5343
▁దీనితో	-10.5347
▁శాన్	-10.5349
జై	-10.535
ts	-10.5354
mi	-10.5354
ళీ	-10.5355
▁ముద్రణ	-10.5355
▁ముక్క	-10.5356
▁మెడ	-10.5357
▁వారితో	-10.5362
pr	-10.5362
▁నాటకాలు	-10.5363
▁ఇండో	-10.5363
▁నిర్ధారించ	-10.5366
మందు	-10.5366
▁నిషేధించ	-10.5366
▁1952	-10.537
నాటికి	-10.5371
▁సుర	-10.5371
రంగు	-10.5376
తీర	-10.5378
▁పండిత	-10.5378
▁దానితో	-10.5379
ture	-10.5382
స్తులు	-10.5383
▁నిర్ణయం	-10.5389
▁యాగ	-10.539
ెర	-10.5394
▁నారాయణ్	-10.5399
జింగ్	-10.54
▁అటవీ	-10.5406
▁పోయింది	-10.5406
▁ముస్లింలు	-10.5408
షియన్	-10.5408
స్తోంది	-10.5409
to	-10.541
▁సాంద్రత	-10.5412
▁లభించిన	-10.5412
ue	-10.5416
▁సమ్మేళన	-10.542
▁ఎవరు	-10.5421
ాము	-10.5421
▁విధానాలు	-10.5425
▁కొద్దిగా	-10.5425
ev	-10.5426
▁ఊహ	-10.5426
▁యుద్ధానికి	-10.5427
▁పిలువబడే	-10.5427
▁చేస్తోంది	-10.5428
▁పూర్ణ	-10.5428
రియో	-10.5433
▁అడిగాడు	-10.5439
▁వస్తువులను	-10.5447
బడినవి	-10.545
▁క్రా	-10.5452
పడ్డ	-10.5453
▁ఉత్సవాల	-10.5453
▁యందు	-10.5454
▁కర్ర	-10.5454
▁శ్రమ	-10.5455
ాల్ని	-10.5456
▁చేరుకుంది	-10.5457
▁గోప	-10.5458
ునకు	-10.5458
▁ఇవ్వడం	-10.5459
▁ప్రదర్శనలు	-10.5461
చెంద	-10.5464
tal	-10.5465
K	-10.5469
షే	-10.5473
▁దశాబ్దాల	-10.5476
▁కవుల	-10.5478
▁క్వా	-10.5482
వేసి	-10.5484
గలిగిన	-10.5488
▁నైట్	-10.5488
▁సేవల	-10.5489
ముందు	-10.5493
థె	-10.5493
▁స్ట్రా	-10.5495
▁విధానాల	-10.5499
▁పరిశ్రమల	-10.5501
▁వికీ	-10.5504
▁అరటి	-10.5507
▁నేపథ్యంలో	-10.5507
▁అరి	-10.5512
మతి	-10.5512
▁చక్కెర	-10.5513
▁నాగర్	-10.5514
నేట్	-10.5515
▁ఖగోళ	-10.5515
▁మార్క్	-10.5515
ari	-10.552
▁గుర్తిస్తూ	-10.5522
▁చొ	-10.5522
రేఖ	-10.5524
▁any	-10.5527
▁విద్యాలయ	-10.553
▁అనునది	-10.5532
▁తెలుసు	-10.5532
▁also	-10.5533
▁పునః	-10.5533
▁మామూలు	-10.5534
▁పేట	-10.5535
▁సమయానికి	-10.5538
ప్స్	-10.5542
▁లంక	-10.5544
▁సంతకం	-10.5546
హె	-10.5546
కపోయినా	-10.5556
▁అంబ	-10.5557
ew	-10.556
▁మొదలైంది	-10.5563
▁మధుర	-10.5566
పూరిత	-10.557
▁ఉంచి	-10.5573
▁ఆదర్శ	-10.5576
art	-10.5579
▁పూజా	-10.5579
▁గెలిచి	-10.5581
▁స్థితిలో	-10.5582
జీవిత	-10.5587
▁ప్రధానమైన	-10.5587
▁అత్యున్నత	-10.5588
▁కాంగ్	-10.5588
▁గ్రంధ	-10.5588
▁ఖు	-10.5589
▁రామ్	-10.559
జెర్	-10.559
▁ధ్రువ	-10.5594
▁వ్యవహార	-10.5595
▁నిధుల	-10.5598
▁పురాణం	-10.5598
లిపి	-10.5598
▁క్యూ	-10.56
▁భూభాగంలో	-10.5604
డుతూ	-10.5605
▁పట్టి	-10.5606
▁మైసూరు	-10.5608
▁సాధించారు	-10.5608
కారుడు	-10.5608
▁దండయాత్ర	-10.5609
కెట్	-10.5609
▁ఇందు	-10.5614
▁ఆదిలాబాద్	-10.5619
▁ఎన్నికల్లో	-10.5621
వరు	-10.5625
వంతమైన	-10.5631
కుమారి	-10.5633
▁ముఖ్యమైనవి	-10.5633
▁రజ	-10.5634
▁గూర్చి	-10.5636
▁ఉపరితల	-10.5638
▁నవంబర్	-10.5643
▁గూడ	-10.5646
▁బండ	-10.5648
మార్గ	-10.5648
▁సుదీర్ఘ	-10.5649
పార్	-10.5649
ంఛ	-10.565
▁పరిషత్తు	-10.565
▁ఎగువ	-10.5656
▁pa	-10.5657
▁రాజ్యాంగం	-10.5659
ధన	-10.5661
▁ఆర్య	-10.5662
▁పొడవైన	-10.5663
▁శు	-10.5664
mp	-10.5668
▁చీర	-10.5669
▁నివసించే	-10.5669
▁కొంచెం	-10.567
▁ఏట	-10.5671
చ్చాడు	-10.5671
▁అశోక	-10.5671
ధం	-10.5673
▁ప్రదేశాల	-10.5673
▁లభించాయి	-10.5673
▁వినాయక	-10.5675
▁సుప్రసిద్ధ	-10.5676
▁చేసుకోవ	-10.5677
▁ఫ్లా	-10.5678
▁చేరుకున్న	-10.5679
ినపుడు	-10.5679
▁గోల్	-10.5682
rn	-10.5682
▁చమురు	-10.5684
గలదు	-10.5686
▁అవకాశాలు	-10.5688
పాలు	-10.5688
mu	-10.569
▁డిసెంబర్	-10.569
▁అతన్ని	-10.5691
mon	-10.5697
▁స్థాన	-10.5697
▁తెలుపు	-10.5698
▁మరీ	-10.5701
ala	-10.5702
▁వృ	-10.5702
కపోతే	-10.5703
▁మినహా	-10.5704
▁పోర్	-10.5709
▁నిలువ	-10.571
▁పరిచయ	-10.5712
▁కళాకారులు	-10.5713
రెం	-10.5714
దర్శి	-10.5718
▁ఉదయ	-10.5723
▁అనుకున్న	-10.5727
▁పద్ధతులు	-10.5729
▁పార్కు	-10.5731
▁అక్బరు	-10.5732
▁టాప్	-10.5736
సియన్	-10.5737
▁విశ్లేషణ	-10.5739
▁ఇతడి	-10.5739
▁మాటల	-10.574
▁లేఖ	-10.574
▁సభలో	-10.5743
▁వారసత్వ	-10.5745
▁ఓడించి	-10.5745
సిక్	-10.5747
▁ప్రయాణించ	-10.5748
▁తమకు	-10.5751
▁నేతృత్వంలో	-10.5753
▁వలయ	-10.5754
tor	-10.5754
▁జగ	-10.5757
▁ఉపయోగించడం	-10.5759
▁రచించాడు	-10.5759
▁అత్యుత్తమ	-10.5759
▁అంటు	-10.5763
పురుష	-10.5764
▁ఫిల్మ్	-10.5764
ధర్	-10.5765
▁తీర్మాన	-10.5766
ాదేవి	-10.5766
కరంగా	-10.5767
▁సముద్రతీర	-10.5768
▁రూపొందించిన	-10.5774
▁అప్పగించ	-10.5774
చెరువు	-10.5777
▁అక్ష	-10.5779
▁నిర్మించబడింది	-10.5779
▁పరిశ్రమలు	-10.5779
▁రచయితలు	-10.5781
్యాల	-10.5785
ical	-10.5787
▁టెస్ట్	-10.5791
నీటి	-10.5791
▁బాహ్య	-10.5794
▁శోభ	-10.5795
▁నివసిస్తున్నారు	-10.5796
▁హిల్	-10.5797
▁లాస్	-10.5799
▁పిల్లలకు	-10.5799
▁ఊరు	-10.58
▁నీల	-10.5806
▁హనుమ	-10.5806
▁ఫెర్	-10.5807
▁లలిత	-10.5808
దై	-10.5808
▁కోర్సు	-10.5808
▁ఆశ్రమ	-10.5815
▁64	-10.5817
▁కల్గి	-10.5819
▁ప్రాంతాలను	-10.582
▁పాల్గొన్న	-10.5821
పోతాయి	-10.5825
▁దత్త	-10.5827
▁అక్టోబర్	-10.5829
▁ఇంగ్లీష్	-10.5829
▁రెవెన్యూ	-10.5829
▁చో	-10.5832
▁సంగ్రహ	-10.5836
శారు	-10.5838
▁గట్టి	-10.5839
తరం	-10.5841
▁సంగారెడ్డి	-10.5842
▁త్వరగా	-10.5843
▁నగరాన్ని	-10.5844
▁అనా	-10.5846
ాచార్యులు	-10.585
▁అందరు	-10.5852
▁రంగారెడ్డి	-10.5852
▁శరీరంలో	-10.5855
▁వెడల్పు	-10.5857
▁గణపతి	-10.5858
టూరు	-10.5858
▁నిర్వాహక	-10.5859
▁కూర్చ	-10.586
▁నిండి	-10.5861
▁నువ్వు	-10.5862
▁ఇరవై	-10.5864
▁నాణ్యత	-10.5864
▁చెట్లు	-10.5865
▁నడుమ	-10.5866
▁మూర్తి	-10.5873
▁చు	-10.5875
స్తుంటారు	-10.5877
ణ్య	-10.5879
▁ఐదుగురు	-10.5879
▁ఉద్యానవన	-10.5885
▁మహిళ	-10.5886
▁పిండి	-10.5889
▁చుట్టు	-10.5889
వెంట్	-10.5894
▁సాక్ష్య	-10.5895
మిష	-10.5896
▁డేటా	-10.5898
స్థానం	-10.5898
వర్త	-10.59
▁పోలిస్తే	-10.59
▁రోడ్డుతో	-10.5901
▁కొల్ల	-10.5903
టీఎం	-10.5905
▁వుంటాయి	-10.5905
▁శుభ్ర	-10.5906
▁సంధి	-10.5907
▁ఫైనల్	-10.5909
▁II	-10.5913
▁మార్పుల	-10.5916
▁విజయవంత	-10.5918
▁గ్రంథాలు	-10.5918
ుకుంటే	-10.5927
▁ఆదరణ	-10.5927
▁రామాయణ	-10.5932
క్యూ	-10.5933
▁ఓపెన్	-10.5934
▁నివారణ	-10.5934
▁సంవత్సరములో	-10.5939
▁ఆధీనంలో	-10.5941
▁కార్పొరేషన్	-10.5941
▁ద్వీపం	-10.5943
▁5%	-10.5945
▁వెళ్ళిన	-10.5946
▁ఆయుధ	-10.5951
▁రావడం	-10.5953
▁రాష్ట్రాలలో	-10.5955
▁శ్రీమతి	-10.5974
▁ధరించి	-10.5976
▁పాయింట్	-10.5976
సీమ	-10.5977
ట్లే	-10.598
▁మఠ	-10.5981
ుతు	-10.5983
▁బియ్యం	-10.5985
▁గాజు	-10.5986
▁తీరు	-10.5989
5,000	-10.599
▁కమిషన్	-10.599
గ్రీ	-10.599
శోధ	-10.5991
▁సాఫ్ట్	-10.6001
▁భవిష్యత్తు	-10.6006
నిర్మాణ	-10.6008
▁సినిమాకు	-10.6009
▁తై	-10.601
ట్రి	-10.6014
థో	-10.6014
వత్	-10.6015
▁నచ్చ	-10.6017
ట్రిక్	-10.6017
ఫ్ట్	-10.6018
▁సుల్తాన్	-10.6019
ోత్సవ	-10.602
రోధ	-10.6022
▁స్థాపించి	-10.6023
▁వ్యాపించి	-10.6025
కూడ	-10.6026
▁అడ్డు	-10.6028
▁పద్ధతిని	-10.6032
బండ	-10.6033
▁నవ్వ	-10.6036
▁రాశారు	-10.6037
▁భద్రత	-10.6038
స్థానంలో	-10.6038
టాన్ని	-10.6039
ధాన్య	-10.6044
▁అంజ	-10.6044
▁1983	-10.6046
కాక	-10.6048
ేశ్వరరావు	-10.6052
▁తోడు	-10.6053
▁దుఃఖ	-10.6054
▁ఉచిత	-10.6057
▁నెలలో	-10.6064
▁తాగ	-10.6064
▁వ్యవహారాల	-10.6067
▁మేఘ	-10.6068
ుచున్నారు	-10.6069
tic	-10.6069
▁పోషక	-10.607
▁క్వి	-10.6074
▁దిక్కు	-10.6076
▁పొద	-10.6076
▁స్పా	-10.6076
సమూహ	-10.6076
▁అనుసంధానమై	-10.6077
▁ఫ్రాం	-10.6078
▁లేకపోవడం	-10.608
▁రాష్ట్రాలు	-10.6092
వీడు	-10.6092
▁గుర్త	-10.6095
ాలైన	-10.6095
▁కార్యక్రమంలో	-10.6097
▁మాస్టర్	-10.6098
▁పరుగులు	-10.611
▁స్ట్ర	-10.611
▁బ్లా	-10.611
▁సులభంగా	-10.6112
కళా	-10.6113
▁ఎర్	-10.6114
▁కనిపెట్ట	-10.6115
▁మతపరమైన	-10.6115
పర్తి	-10.6116
▁పెర్	-10.612
▁దశాబ్ద	-10.6122
▁అర్హత	-10.6122
▁62	-10.6124
▁దిశలో	-10.613
బాబు	-10.6133
▁అలంకరించ	-10.6133
▁మసీదు	-10.6133
▁మరు	-10.6133
▁గాథ	-10.6136
▁చాట	-10.6136
స్పష్ట	-10.614
▁అందుకున్నారు	-10.6142
▁మినుము	-10.6147
▁శతక	-10.6148
ినీ	-10.6149
▁సభ్యుడు	-10.615
ుతుంటాయి	-10.6157
▁1962	-10.616
▁ప్రాంతంలోని	-10.6161
▁వర్షపాతం	-10.6162
యందు	-10.6164
▁పండించ	-10.6165
▁ఎన్నికైనారు	-10.6168
over	-10.6169
▁పరిగణ	-10.617
▁పడుతుంది	-10.6171
▁రాక్	-10.6174
సెల్	-10.6178
▁పల్	-10.6179
▁పొరుగు	-10.6179
▁జంతువులు	-10.6181
Sub	-10.6184
▁మీడియా	-10.6185
▁అంచు	-10.6186
పడ్డాయి	-10.6186
ణ్ణ	-10.6186
▁వుండి	-10.619
▁ఈజిప్టు	-10.6191
▁మొఘల్	-10.6191
▁స్థాపన	-10.6191
up	-10.6193
▁సైట్	-10.6193
▁un	-10.6196
హరి	-10.6196
మింగ్	-10.6197
▁గణనీయమైన	-10.6198
ిస్తోంది	-10.62
▁సంవత్సరాలలో	-10.6201
క్లి	-10.6204
సభ	-10.6205
▁have	-10.6205
నాగ	-10.6206
▁ప్రేరణ	-10.6207
▁అందమైన	-10.6207
▁పెసర	-10.6207
▁అరకులోయలో	-10.6212
▁అనేవి	-10.6219
▁1985	-10.6219
▁హస్త	-10.6221
▁విధి	-10.6222
▁పరిశీలించ	-10.6223
-4	-10.6224
▁భౌగోళిక	-10.6226
ండో	-10.6227
ఫు	-10.6227
▁శాస్త్రవేత్తలు	-10.6228
ుంటారు	-10.623
▁నందు	-10.6231
ులై	-10.6231
మాత	-10.6232
▁ఆచరణ	-10.6233
▁సంపన్న	-10.6234
▁హిందువులు	-10.6234
▁లాగా	-10.6235
▁వడ	-10.6236
▁పల్లిలో	-10.6236
▁గెలుచుకున్న	-10.6237
ోదయ	-10.6242
▁పాఠ	-10.6243
▁పనికి	-10.6246
▁ఆర్మేనియా	-10.6249
▁చేతులు	-10.6249
ద్దా	-10.6252
▁1971	-10.6253
లన్నీ	-10.6255
▁నిరాకరించ	-10.6263
పుత్ర	-10.6266
▁సంభవించ	-10.6267
fe	-10.6272
ong	-10.6276
▁జగిత్యాల	-10.6278
▁సేకరించ	-10.6278
▁శాసనం	-10.6281
▁వంగ	-10.6288
ach	-10.6288
▁పాలించ	-10.629
▁పనిచేసి	-10.6293
▁యువత	-10.6293
▁మేక	-10.6295
▁1920	-10.6296
▁ట్యా	-10.6298
▁నష్టం	-10.6299
▁మాడుగుల	-10.63
▁విక్రయ	-10.63
▁రాష్ట్రములోని	-10.6302
నాయుడు	-10.6304
▁మాదిరిగా	-10.6306
▁పరిషత్	-10.6306
▁వాయిద్య	-10.6307
▁తెచ్చి	-10.6308
ack	-10.6308
ేశాడు	-10.6309
▁సమస్త	-10.6309
క్కా	-10.6313
▁సులభ	-10.6314
▁గణన	-10.6315
▁బర్మా	-10.6317
ాచార్య	-10.6321
▁కేటాయించ	-10.6329
▁అందించిన	-10.6329
▁నిమ్మ	-10.6329
▁నిబంధన	-10.6332
▁శత	-10.6332
క్య	-10.6334
ుదురు	-10.634
రియల్	-10.6341
▁శిష్యుల	-10.6342
ాదుల	-10.6344
▁నిర్వహిస్తున్న	-10.6346
ితమైన	-10.6351
▁బెంగాలీ	-10.6351
▁భోగ	-10.6351
▁చోట్ల	-10.6354
పర్చ	-10.6355
▁నిర్మాణంలో	-10.6355
▁అచ్చ	-10.6357
▁బిందువు	-10.6361
కోశ	-10.6361
▁కాలేజ్	-10.6366
▁ప్రశాంత	-10.6369
టొ	-10.6371
మగు	-10.6371
జూ	-10.6373
▁మంత్రిగా	-10.6378
▁పోలీస్	-10.638
▁మండలంతో	-10.6388
▁శైవ	-10.6388
▁రోగి	-10.6389
▁తీరంలో	-10.639
బ్రి	-10.6392
కూర్	-10.6393
ard	-10.6395
▁హిందువుల	-10.6396
▁జరుగుతాయి	-10.6397
యుక్త	-10.64
▁సరిపో	-10.6404
▁సందేహ	-10.6404
▁వీజీ	-10.6408
▁ఉత్సవాలు	-10.6411
▁శ్రీకృష్ణ	-10.6415
▁పోయిన	-10.6417
▁అనారోగ్య	-10.6417
▁సముద్రమట్టానిక	-10.6417
▁పరిస్థితులు	-10.6418
వలెను	-10.6421
▁చేసుకొ	-10.6427
రెన్	-10.6427
▁రాజ్యాన్ని	-10.6429
▁రంధ్రం	-10.6429
▁ఐరోపాలో	-10.6432
▁అద్భుతమైన	-10.6432
▁రైతులు	-10.6433
రకాల	-10.6436
▁నమ్మక	-10.644
యిన్	-10.6449
▁దిశగా	-10.6449
▁bo	-10.6453
▁ఎడారి	-10.6454
▁గుండ	-10.6456
▁పరిశోధకులు	-10.6457
▁ఉద	-10.6465
▁నాయిక	-10.6467
▁తప	-10.647
ేటట్లు	-10.647
▁సూత్రాల	-10.6471
ట్టే	-10.6473
▁ప్రాజెక్ట్	-10.6477
▁ఊర	-10.6478
▁విమానాశ్రయ	-10.6478
▁శ్వాస	-10.6482
▁నోబెల్	-10.6485
▁శనగ	-10.6485
సాన్	-10.6489
▁వహించారు	-10.6492
రాణి	-10.6494
▁కాలము	-10.6494
mo	-10.6496
▁ఐక్య	-10.6501
▁గుడివాడ	-10.6502
▁వీరిని	-10.6503
▁ఆదేశ	-10.6504
▁1984	-10.6505
▁లక్ష్మి	-10.6506
కారణ	-10.6506
షియా	-10.6507
▁నగరాలలో	-10.6509
▁టర్కీ	-10.651
▁ఓట్ల	-10.6511
▁నిరంతర	-10.6512
▁పరిశీలన	-10.6514
▁1000	-10.6518
▁1956	-10.6519
▁1993	-10.652
▁అందరికీ	-10.6526
▁1967	-10.6527
త్వము	-10.6527
▁శిథిల	-10.6529
▁అబ్	-10.653
▁కావున	-10.6531
▁భద్రాచలం	-10.6536
▁అప్	-10.6537
దొ	-10.654
▁చేపట్టిన	-10.654
▁బాగు	-10.6541
ుంటాయి	-10.6546
▁రుణ	-10.6547
▁కొందరి	-10.6549
▁బలం	-10.655
బెట్టి	-10.6553
▁స్థాయికి	-10.6558
విక్	-10.6559
▁దిశ	-10.6561
▁తరహా	-10.6563
▁వాటర్	-10.6571
యుద్ధ	-10.6572
మియా	-10.6575
▁sp	-10.6576
▁వేలాది	-10.6577
▁ప్రవేశించి	-10.658
▁పేరిట	-10.6581
పడింది	-10.6583
ానని	-10.6583
▁కవులు	-10.6589
▁ఆఖరి	-10.6589
▁స్మారక	-10.6596
▁సమీక్ష	-10.6596
▁సిక్కు	-10.6598
గృహ	-10.66
▁నిర్మించి	-10.6601
▁India	-10.6602
డియం	-10.6604
▁చేయటానికి	-10.6606
▁పేర్కొంది	-10.6611
red	-10.6614
యుండ	-10.6617
ాలే	-10.6618
▁బాంబు	-10.6618
▁ఉద్దేశ	-10.6619
▁నిర్బంధ	-10.662
▁పొందాయి	-10.6622
వటం	-10.6622
హారం	-10.6626
▁పవర్	-10.6628
▁పిలిచే	-10.6631
▁చతుర్	-10.6634
దనం	-10.6634
▁కలయిక	-10.6634
▁వైభవంగా	-10.6636
బడుతోంది	-10.6636
▁నుండే	-10.6638
ుచుండ	-10.664
▁ఇస్తుంది	-10.6642
▁ప్రస్తావన	-10.6649
▁గ్రూపు	-10.6649
▁నిమిషాల	-10.6651
▁భోజన	-10.6651
▁స్థిరపడ	-10.6651
▁అంతేకాకుండా	-10.6657
▁కృష్ణుడు	-10.6662
▁ఉపయోగం	-10.6662
▁2017	-10.6663
▁పాత్రలో	-10.6668
▁పండ్ల	-10.667
▁పదవ	-10.667
▁ధైర్య	-10.6672
▁ఒడిషా	-10.6673
▁క్రిస్ట	-10.6676
▁క్షయ	-10.6678
▁సమయ	-10.6679
▁నివారించ	-10.668
▁ప్రభువు	-10.6681
▁సమూహాల	-10.6682
దార	-10.6682
▁విక్రమ	-10.6683
పరిచ	-10.6685
▁భక్తులకు	-10.6686
▁విద్యార్థులకు	-10.6686
▁కవితా	-10.6691
▁ఎక్క	-10.6692
▁భారతీయుల	-10.6695
▁వేగం	-10.6696
వృ	-10.6698
▁1972	-10.67
▁క్షత్రియ	-10.6702
మోద	-10.6704
▁అమృత	-10.6708
▁అగ్నిపర్వత	-10.671
▁గిరిజన	-10.6714
▁కన్య	-10.6715
▁అధ్యాపక	-10.6717
▁జ్ఞాపక	-10.6717
ec	-10.6718
▁భగవ	-10.672
▁పట్టణాల	-10.6722
స్తుల	-10.6722
▁ఉన్నాయని	-10.6724
▁అనుమాన	-10.6724
ార్ధం	-10.6728
▁ఎన్ని	-10.6729
▁గిరి	-10.6732
▁మేళ	-10.6733
▁విరమణ	-10.6733
▁బయలుదేర	-10.6738
▁వెంకటేశ్వర	-10.674
▁ప్రత్యర్థి	-10.674
▁చేయబడ	-10.6747
▁కొత్తగూడెం	-10.6748
▁ప్రవాహం	-10.6754
▁గ్రంథము	-10.6755
సింది	-10.6757
▁ఆరుగురు	-10.6757
▁పఠ	-10.6759
▁పాస్	-10.6761
▁రాళ్ళ	-10.6761
rit	-10.6763
క్ష్య	-10.6771
▁అగ	-10.6771
▁పరమాణు	-10.6772
గూడెంలో	-10.6775
▁చేపలు	-10.6776
ండ్లు	-10.678
▁సమర్ధ	-10.6781
ఎన్	-10.6784
తీయ	-10.6787
▁ప్రమాణం	-10.6792
▁ప్రభావిత	-10.6793
▁పదము	-10.6797
▁ప్రచురించారు	-10.6798
▁అన్నమయ్య	-10.6802
▁ఆలయానికి	-10.6803
8%	-10.6805
▁తీసుకురా	-10.6808
▁యూనిట్	-10.6812
▁తాళ	-10.6817
▁ఫ్రె	-10.6817
▁ఘంటసాల	-10.6817
▁సమకాలీన	-10.6817
▁1975	-10.6823
▁దక్షిణాఫ్రికా	-10.6825
▁మెడికల్	-10.6825
▁పుష్కర	-10.6825
▁వార్త	-10.6826
▁బ్యాండ్	-10.6836
▁అవమాన	-10.6843
▁గడ్డ	-10.6845
▁పరిమితం	-10.6845
▁హౌ	-10.6849
▁గుప్త	-10.6851
ృష్ట	-10.6854
▁చక్కని	-10.6856
మెట్	-10.6856
▁పెన్	-10.6856
▁విజయాన్ని	-10.6856
ంచాడు	-10.6857
రైడ్	-10.686
▁కత్తి	-10.6861
▁వాడకం	-10.6863
▁ఆధిపత్యం	-10.6867
▁మూసి	-10.6872
స్థుల	-10.6877
▁విస్తరించింది	-10.688
▁జరిపిన	-10.6881
▁400	-10.6881
▁వహిస్త	-10.6883
శివ	-10.6884
▁వడ్డ	-10.6888
▁జన్యు	-10.6889
▁జింక	-10.6891
▁పడవ	-10.6892
ులయ్యారు	-10.6894
▁ఛాంపియన్	-10.6894
▁రైతుల	-10.6895
▁ధ్యాన	-10.6896
శేష	-10.6898
చారి	-10.6903
▁వ్యతిరేకించ	-10.6908
▁ప్రజాస్వామ్య	-10.691
▁మిస్	-10.6911
▁lo	-10.6912
▁సంతాన	-10.6913
▁వ్రత	-10.6913
▁హెర్	-10.6915
▁స్టె	-10.6916
▁చిత్రాన్ని	-10.6917
▁భాషను	-10.6917
ial	-10.6918
▁తులసి	-10.6918
▁we	-10.6921
▁రాకెట్	-10.6923
▁అనేకమంది	-10.6924
▁కుంభ	-10.6925
▁ఇటీవలి	-10.6925
ానంతరం	-10.6925
▁ఆధారపడ	-10.6929
తాను	-10.6933
▁సాయంత్రం	-10.6933
▁అల్లాహ్	-10.6933
▁క్లో	-10.6934
ust	-10.6936
▁వేదాంత	-10.6938
▁1977	-10.694
సముద్రం	-10.6941
తెలంగాణ	-10.6942
▁ఇతరుల	-10.6944
▁ప్రయోజనాల	-10.6945
టెల్	-10.6945
▁శ్రీనివాస	-10.6948
▁విటమిన్	-10.6949
if	-10.695
▁పండితులు	-10.6952
ight	-10.6956
▁శస్త్రచికిత్స	-10.6956
▁మార్పిడి	-10.696
స్ట్రో	-10.6964
▁తలెత్త	-10.6967
▁గుర్తించి	-10.6969
▁మూలం	-10.6969
▁హిట్	-10.6976
పత్తి	-10.6984
▁స్ఫూర్తి	-10.6987
ాన్నే	-10.6994
▁చేశా	-10.6994
వంటి	-10.6995
▁ఎవరైనా	-10.6996
▁మౌలిక	-10.6997
▁ఆధారం	-10.6998
▁నిర్వహించే	-10.6998
▁గ్రహించి	-10.6998
▁సల్	-10.6998
ee	-10.7003
▁సిరీస్	-10.7004
▁పక్కన	-10.7004
▁article	-10.7011
▁సిద్ధిపేట	-10.7011
▁పసిఫిక్	-10.7011
▁ఎరుపు	-10.7011
▁భు	-10.7012
▁నిజమైన	-10.7013
▁ఫ్లో	-10.7014
▁విలువైన	-10.7021
har	-10.7024
▁పాండవుల	-10.7027
▁ప్రదేశాలలో	-10.7038
రేషన్	-10.7039
▁72	-10.7039
పట్ల	-10.704
ఇతర	-10.7042
▁క్షిపణి	-10.7043
▁స్థూల	-10.7043
output	-10.7043
▁తరు	-10.7044
▁కష్టం	-10.7045
▁తొలిసారిగా	-10.7047
దగ్గ	-10.7047
ite	-10.7047
▁78	-10.7049
▁క్షీణ	-10.7054
▁సౌత్	-10.7057
లాల్	-10.7057
భక్త	-10.7058
▁పోర్చుగీసు	-10.7058
▁సైనికులు	-10.706
▁తెలియజేస	-10.7065
▁బ్రిటీషు	-10.7066
▁యాజమాన్య	-10.7066
▁రంపచోడవరం	-10.7066
▁కళాకారుల	-10.7067
▁సహకారంతో	-10.7071
ానిక	-10.7073
పూజ	-10.7074
▁అధిగమించ	-10.7074
▁ఏమిటంటే	-10.7074
▁ఎంచ	-10.7076
ty	-10.7082
▁జిల్లాల్లో	-10.7087
యింగ్	-10.7088
▁హీరో	-10.7094
▁దళిత	-10.7094
▁పంపించ	-10.7095
కట్టు	-10.7101
ాధికారి	-10.7105
▁మస్జిద్	-10.7106
▁ఎడి	-10.7107
▁పుట్టుక	-10.7109
సౌ	-10.7114
▁అగు	-10.7115
▁దె	-10.7117
లేఖ	-10.7117
▁into	-10.7119
▁తిరగ	-10.712
▁సరాసరి	-10.7122
▁నాగేశ్వరరావు	-10.7123
os	-10.7133
▁చైనాలో	-10.7135
ునితో	-10.7135
▁ప్రారంభించి	-10.7138
▁బెంగుళూరు	-10.7138
▁మిక్కిలి	-10.7138
▁తెలిపారు	-10.7138
▁బ్రాడ్	-10.7138
▁వ్యూహ	-10.7138
మరియు	-10.7144
▁స్వీయ	-10.7144
ాధిపతి	-10.7145
▁సాల్	-10.7146
▁సహకరించ	-10.7147
▁దుర	-10.7153
▁ప్రయాణీకుల	-10.7154
▁పేర్ల	-10.7158
తిక	-10.716
▁నుంచే	-10.7161
▁other	-10.7161
▁పాలక	-10.7162
ction	-10.7163
▁విశాల	-10.7163
▁అంక	-10.7166
▁పౌరులు	-10.7167
▁అరుదుగా	-10.7169
ign	-10.717
▁dis	-10.7172
▁తరంగ	-10.7172
వాసులు	-10.7175
బడినది	-10.7175
▁విశ్వవిద్యాలయము	-10.7177
▁ఆల్బమ్	-10.7177
▁గెలుపొంద	-10.7177
▁విషయాలను	-10.7178
▁నదులు	-10.7181
▁To	-10.7184
▁మెక్సికో	-10.7185
▁మెదడు	-10.7185
▁చిత్రాలను	-10.7194
▁పడిన	-10.7194
▁రోగుల	-10.7196
▁ఉపయోగించిన	-10.7199
వహ	-10.72
▁తీర్పు	-10.7202
▁స్వీకరించి	-10.7203
▁చెందుతున్న	-10.7204
లెం	-10.7204
▁సంబ	-10.7204
జాతీయ	-10.7205
▁అధికారాన్ని	-10.7206
▁చెప్పబడింది	-10.7207
▁చిన్నతనం	-10.7209
▁శతాబ్దపు	-10.7209
der	-10.721
న్నింటి	-10.7212
▁ఇక్కడే	-10.7213
▁టర్	-10.7213
▁mw	-10.7215
ాంక	-10.7216
▁ఆయుర్వేద	-10.7217
▁లక్షణ	-10.7222
▁పదానికి	-10.7223
▁కర్నూల్	-10.7233
రంగం	-10.7234
జెన్	-10.7234
▁తరపున	-10.7242
▁ద్వితీయ	-10.7242
▁అత్త	-10.7242
▁ఉద్దేశించి	-10.7245
ral	-10.7246
tt	-10.7247
జార్	-10.7252
▁కర్మాగార	-10.7253
▁హొ	-10.7255
▁నదుల	-10.726
▁కనక	-10.7261
▁భాషగా	-10.7262
రూపం	-10.7262
▁వేళ	-10.7265
▁మార్గాలు	-10.7265
బియా	-10.7269
▁ప్రభావాల	-10.7272
▁రూపాల	-10.7273
▁టైటిల్	-10.7275
▁పరికరం	-10.7275
▁కార్మిక	-10.7275
▁ఒడ్డున	-10.7276
తోనూ	-10.7281
▁పత్రికలో	-10.7285
▁దళాల	-10.7285
unt	-10.7286
గ్రంథ	-10.7286
▁మొదటిసారి	-10.7287
▁ఉపాధి	-10.7288
parser	-10.729
▁బ్రెజిల్	-10.729
▁బ్యాటరీ	-10.7291
▁కలిగే	-10.7291
పోయ	-10.7294
▁ఉండేవాడు	-10.7294
mar	-10.7296
కెక్క	-10.7299
ుకోవటం	-10.7302
మంటే	-10.7304
▁తొలగి	-10.7309
2)	-10.7309
▁గుడ్	-10.731
▁విశాఖ	-10.731
ాంతం	-10.7311
▁ఏర్పడి	-10.7311
లెన్	-10.7312
బరు	-10.7314
ప్పుడే	-10.7317
▁పురుగు	-10.7319
▁నర్స	-10.732
స్తుంటాయి	-10.7321
▁క్యాన్సర్	-10.7322
▁సింహాసన	-10.7322
▁pl	-10.7324
▁ఆదివారం	-10.733
▁శాస్త్రంలో	-10.7332
▁ఉద్యమంలో	-10.7338
సమీప	-10.7347
▁పోయ	-10.7347
▁వర్గీకరించ	-10.7348
గించ	-10.7349
ధిక	-10.735
▁ధరించిన	-10.7353
▁బొంబాయి	-10.7354
▁నిర్వహిస్తుంది	-10.7355
▁చేశాయి	-10.7359
▁వ్యవస్థాపక	-10.7359
▁1974	-10.7361
str	-10.7363
▁చలి	-10.7368
▁కథానాయక	-10.7372
▁త్రాగ	-10.7377
▁మరాఠీ	-10.7379
▁సరస్వతి	-10.7379
▁సిద్ధాంతాల	-10.7385
ట్టుగా	-10.7387
▁పూజించ	-10.7387
▁సమర్థ	-10.7389
amu	-10.7392
▁నిరసన	-10.7396
▁ఏర్పడుతుంది	-10.7399
▁వహిస్తున్న	-10.7401
▁పాల్గొని	-10.7402
లాండు	-10.7403
జేయ	-10.7403
▁శృంగార	-10.7403
▁ఉప్ప	-10.7408
▁వ్యవసాయాధారిత	-10.7411
▁ఎందరో	-10.7412
▁విద్యాభ్యాసం	-10.7412
▁నగరంలోని	-10.7413
▁will	-10.7413
▁యాదవ	-10.7414
▁ఓడించ	-10.7415
▁---	-10.7422
▁ప్రతినిధి	-10.7428
▁బోర్	-10.7428
దర్శ	-10.7429
ింపజేస	-10.7433
▁వ్యత్యాస	-10.7436
▁నిష్పత్తి	-10.7436
▁తరగతుల	-10.7437
▁పర్వ	-10.7437
▁వ్ర	-10.7439
దన్న	-10.7444
▁శ్రీరంగ	-10.7449
mit	-10.7452
▁మలేషియా	-10.7452
▁జరుపుకుంటారు	-10.7454
ob	-10.7457
ేశ్వరం	-10.7461
▁వినిపించ	-10.7463
▁ప్రఖ్యాతి	-10.7464
▁1955	-10.7467
ళిక	-10.7475
▁నిర్వచించ	-10.7476
ాన్నీ	-10.7477
▁చిట్ట	-10.7479
▁ఉత్సవం	-10.7482
bl	-10.7482
▁జూలైలో	-10.7484
▁అప్పటికి	-10.7484
▁విక్రయించ	-10.7485
ld	-10.7486
▁అరు	-10.7486
▁ఉత్సవ	-10.7488
ప్రియ	-10.7488
ప్రో	-10.749
పయోగ	-10.749
▁1946	-10.7491
▁నాటిక	-10.7492
లాట	-10.7499
▁కరువు	-10.7502
▁వ్యవహరిస్తారు	-10.7503
▁బ్ల	-10.7504
▁వాదించ	-10.7508
▁you	-10.7511
▁ఆసియాలో	-10.7511
-5	-10.7511
▁సెట్	-10.7517
▁అమె	-10.752
▁ఓట్లు	-10.7523
▁నోటి	-10.7524
▁రంధ్ర	-10.7524
▁1988	-10.7525
▁ప్రతినిధుల	-10.7527
ప్రాయ	-10.7528
▁ఇద్దరూ	-10.7535
▁ఓటమి	-10.7535
▁ఉదాహరణలు	-10.7537
▁తెలుసుకున్న	-10.7538
▁గ్రాండ్	-10.754
▁అధికం	-10.7542
▁కిలోమీటర్లు	-10.7543
▁వరంగల్లో	-10.7545
▁పెరుగుతున్న	-10.7545
▁ఆకర్ష	-10.7546
▁కచ్చితంగా	-10.7551
▁ప్రభావాన్ని	-10.7552
▁ఎన్నికయ్యాడు	-10.7552
▁అన్నా	-10.7552
▁పురస్కారాన్ని	-10.756
▁బంగారం	-10.7561
▁మతము	-10.7563
▁ఇష్టం	-10.7563
▁మాల	-10.7564
▁మందిరం	-10.7575
par	-10.7576
▁రూపాయలు	-10.7578
▁పోషించారు	-10.7579
1)	-10.7579
▁మక్కా	-10.758
ాలూ	-10.758
▁ప్రయోజన	-10.7582
▁చారిత్రిక	-10.7584
▁కదలిక	-10.7587
▁ఉపన్యాస	-10.7589
▁గడ	-10.759
▁భూముల	-10.7591
▁సుల్తాను	-10.7593
▁67	-10.76
ip	-10.7601
▁డిజిటల్	-10.7601
▁లైంగిక	-10.7601
▁పురావస్తు	-10.7601
▁vi	-10.7601
▁ప్రతీక	-10.7604
▁తమిళం	-10.7606
▁ద్వారం	-10.7608
గొట్టపు	-10.7616
▁సముద్రంలో	-10.7616
▁వాడుతారు	-10.7622
sion	-10.7623
సెం	-10.7624
▁కథనం	-10.7625
▁రామాయణం	-10.763
▁శంకర్	-10.763
▁కుండ	-10.7631
స్థాయిలో	-10.764
▁దగ్గరి	-10.7641
▁మూలకం	-10.7643
▁భూకంప	-10.7644
▁63	-10.7644
▁సమా	-10.7651
▁పెరిగే	-10.7652
లాడ	-10.7652
స్టన్	-10.7652
eg	-10.7659
▁ఇతనికి	-10.7665
▁చేయబడుతుంది	-10.7667
వాళ్ళు	-10.767
ల్యాండ్	-10.7671
దండ	-10.7671
▁సంస్కరణ	-10.7672
▁కట్టి	-10.7673
▁కారణాలు	-10.7674
▁సహస్ర	-10.7677
ub	-10.7678
▁సాహస	-10.7679
▁పదార్థాలు	-10.7679
▁ఎత్తున	-10.7684
form	-10.7685
▁సిరి	-10.7688
▁ఒంగోలు	-10.7693
▁సైనికుల	-10.7694
క్రమం	-10.7697
▁గ్లా	-10.7697
▁ఆవిరి	-10.7698
▁ఆర్ట్	-10.77
▁ఇంద్రుడు	-10.7703
▁ఇస్లామీయ	-10.7703
▁బాయిలరు	-10.771
▁ఆనకట్ట	-10.771
▁సోదరుడు	-10.7711
▁దాచ	-10.7714
▁1978	-10.7715
▁1964	-10.7716
▁భాగస్వామ్యం	-10.7724
▁ఉత్	-10.7726
▁యజమాని	-10.7727
3)	-10.7729
రాత్రి	-10.773
వాణి	-10.7733
▁చేయగల	-10.7735
▁such	-10.7735
▁పాల్గొంట	-10.7735
▁భూభాగాల	-10.7735
▁సూర్యుడు	-10.7736
▁స్నేహితు	-10.7739
▁వికీపీడియా	-10.7744
▁గలవాడు	-10.775
పిస్తుంది	-10.7755
ens	-10.7755
▁నొ	-10.7764
షర్	-10.7768
▁దృఢ	-10.7769
కపోవడం	-10.777
▁కలిగించే	-10.7773
▁ఆక్రమణ	-10.7777
▁ధార్మిక	-10.7777
▁థాయ్	-10.7777
▁భీష్మ	-10.7783
▁శారీరక	-10.7786
▁వెళ్ళారు	-10.7787
▁పొందు	-10.7787
▁ప్రీ	-10.7788
చోట	-10.7791
వర్గ	-10.7792
▁గడ్డి	-10.7796
▁పెరిగిన	-10.7798
▁పిలువబడ	-10.7799
low	-10.78
గంటి	-10.7801
▁54	-10.7803
▁పెరగ	-10.7806
▁1979	-10.7809
▁ప్రపంచంలోనే	-10.7811
▁కడుపు	-10.7812
▁పర్షియన్	-10.7812
▁చంపి	-10.7813
▁నివాసం	-10.7815
▁086	-10.7817
▁రచయితగా	-10.7824
వేసే	-10.7827
▁సౌర	-10.7832
▁ప్రవహించ	-10.7838
▁రాయలసీమ	-10.7845
▁జార్జ్	-10.7846
▁ఏకీకృత	-10.7847
▁కౌరవ	-10.7849
▁సౌదీ	-10.785
▁వ్యక్తం	-10.785
▁బహుశా	-10.785
ించుట	-10.7854
ాధి	-10.7854
▁కావలి	-10.7857
▁విమానాల	-10.7858
▁దేశాలకు	-10.7859
వైద్య	-10.7862
▁భిన్నంగా	-10.7869
▁మద్రాసులో	-10.787
▁డైరెక్టర్	-10.787
ధారి	-10.787
▁రాముని	-10.787
▁కౌంటీ	-10.7871
▁గరి	-10.7871
▁సన్నిహిత	-10.7871
పీఠ	-10.7874
▁వైఎస్	-10.7877
క్రమణ	-10.7879
▁ప్రోగ్రామ్	-10.788
చేసింది	-10.788
▁ముద్ద	-10.788
లూరులో	-10.7881
ran	-10.7884
▁సెన్	-10.7884
▁చెప్పింది	-10.7894
▁పరికరాలు	-10.7894
▁ప్రబల	-10.7895
▁తిరువ	-10.7896
భు	-10.7897
▁సాయి	-10.7901
ara	-10.7905
విజయ	-10.7907
▁కవిత్వ	-10.7907
▁అరబ్	-10.7911
▁భిన్న	-10.7912
సంఖ్య	-10.7913
▁ఆప్	-10.7916
▁శివలింగ	-10.7917
▁1965	-10.7921
▁లోనికి	-10.7922
▁ఖ్యాతి	-10.7923
ెల్ల	-10.7925
నీరు	-10.7927
▁all	-10.7928
మృగ	-10.7928
▁ఆరో	-10.7929
నగర	-10.793
rea	-10.7933
▁లభించే	-10.7933
▁పురాతనమైన	-10.7934
▁దాడుల	-10.7934
▁సముదాయ	-10.7935
▁శిల	-10.7936
▁నగరము	-10.7938
▁సంస్కృతుల	-10.7938
▁ప్రక్కన	-10.794
దేవ్	-10.794
▁అపరాలు	-10.7942
▁తయారుచేయ	-10.7942
భరిత	-10.7943
▁ధర్మం	-10.7944
▁నిరోధించ	-10.7945
▁వినియోగదారుల	-10.7946
▁మర్రి	-10.7946
▁వాహక	-10.795
▁తాక	-10.795
▁రంగారావు	-10.795
▁భయపడ	-10.7952
▁మహాత్మా	-10.7954
ult	-10.7955
▁సంవత్సరముల	-10.7961
ేటప్పుడు	-10.7964
▁సాగింది	-10.7966
▁భాషల్లో	-10.7968
▁ఎవరూ	-10.7969
బార్	-10.7969
పల్లిలోనూ	-10.797
మిన్	-10.7972
dy	-10.7973
▁సంగీతాన్ని	-10.7975
భై	-10.7975
▁సామంత	-10.7976
▁వాసన	-10.7978
▁భీమవరం	-10.7981
▁కాలుష్య	-10.7983
hy	-10.7984
▁లక్షణాల	-10.7984
ారణ్య	-10.7985
▁కలదు	-10.7987
the	-10.7988
▁నీతి	-10.799
▁హర్	-10.799
▁పరీక్షించ	-10.7992
▁గై	-10.7992
నగరం	-10.7996
▁ఉండాలని	-10.7997
లంక	-10.7997
▁73	-10.8
▁సగ	-10.8001
స్టిక్	-10.8001
ుకొన్నాడు	-10.8001
▁జేమ్స్	-10.8001
స్థాన్	-10.8004
▁నారద	-10.8005
▁అప్పు	-10.8005
▁ఇల్లు	-10.8007
man	-10.8009
▁నివాసగృహాలు	-10.8009
▁నంద్యాల	-10.8009
▁పరిణామ	-10.801
▁చిత్రాలకు	-10.8011
▁ఎదురుగా	-10.8012
▁భీష్ముడు	-10.8012
▁తాజా	-10.8013
▁యుక్త	-10.8013
కాలము	-10.8015
▁నగరాలు	-10.8016
ుతుంద	-10.8022
go	-10.8025
▁కణాల	-10.8025
▁అత్యవసర	-10.8026
▁నాల్గవ	-10.8026
▁మెక్	-10.8032
▁1945	-10.8033
▁పరిష్కరించ	-10.8033
▁తీసుకున్నారు	-10.8034
gen	-10.8035
▁ఫ్యా	-10.8038
▁ఉత్పత్తులు	-10.804
▁మునిగి	-10.8041
▁కరిగి	-10.8042
▁పరిమాణంలో	-10.8042
▁మూలకాల	-10.8044
▁విముక్తి	-10.8044
▁చర్మం	-10.8045
▁అక్రమ	-10.8045
▁శుక్ర	-10.8048
▁డాలర్ల	-10.8051
▁కాథలిక్	-10.8052
▁మాతృ	-10.8053
▁కేంద్రము	-10.8055
▁సతీ	-10.8058
▁1987	-10.806
▁శైలిలో	-10.806
మెర్	-10.8061
▁చారిత్రాత్మక	-10.8061
ba	-10.8064
▁జాతర	-10.8066
▁గంగరాజు	-10.8067
▁మోహన్	-10.8067
బ్లి	-10.8069
▁కనపడ	-10.8074
కారము	-10.8075
▁రాజ్యాల	-10.8076
▁శరణ	-10.8078
▁మైక్రో	-10.8079
▁pre	-10.8079
▁కళ్ళ	-10.8081
▁ఎన్నికలు	-10.8084
ఉపయోగిస్తున్నారు	-10.8084
ాబాదు	-10.8084
▁గేయ	-10.8086
▁టిబెట్	-10.809
▁120	-10.8092
▁ప్రదేశాలు	-10.8094
శో	-10.8094
మునందు	-10.8097
ురాలిగా	-10.8098
▁ధ్వని	-10.81
▁పరిపాలనా	-10.8102
▁వూ	-10.8103
సాగర్	-10.8104
హార్	-10.811
▁జన్మించింది	-10.8114
▁కోల	-10.8115
▁మైళ్ళ	-10.8115
▁భోజనం	-10.8116
▁1982	-10.8118
▁గట్టిగా	-10.8121
▁లైట్	-10.8121
▁దళం	-10.8123
▁కోడ	-10.8124
ీయులు	-10.8131
మిడి	-10.8132
▁అంశాలను	-10.8133
ally	-10.8141
▁కొలత	-10.8144
రూపంలో	-10.8144
▁రేవు	-10.8146
ఘోష	-10.8147
పెద్ద	-10.8148
▁కాశ్మీర్	-10.8148
▁ఆరవ	-10.8148
▁సంస్కృతం	-10.8149
నందున	-10.8152
▁మోహ	-10.8155
▁పడమర	-10.816
▁బాధపడ	-10.816
జియా	-10.8161
▁కన్ను	-10.8161
గిలి	-10.817
tain	-10.8174
సమయంలో	-10.8175
▁పులుల	-10.8176
▁ఉద్భవించ	-10.8177
▁అధ్యక్షుడిగా	-10.8177
▁పంచాయతీకి	-10.8177
▁న్యాయవాది	-10.8178
old	-10.8179
▁తీరం	-10.8179
▁దర్శనం	-10.818
▁తగినంత	-10.8182
▁1969	-10.8182
▁పోటీలలో	-10.8183
బట్టి	-10.8184
▁టెలి	-10.8185
▁దగ్గరలో	-10.8186
▁బోధన్	-10.8187
కర్మ	-10.8188
▁హోమ	-10.819
▁పడే	-10.8192
▁పునరుద్ధరించ	-10.8193
▁ఆయిల్	-10.8193
▁పిలుపు	-10.8193
▁ప్రకటించాడు	-10.8194
త్రో	-10.8197
వాసుల	-10.8204
▁పాఠ్య	-10.8205
సంగ	-10.8207
▁ఋ	-10.8208
చేశాడు	-10.8209
▁గర్	-10.8215
▁రాష్ట్రానికి	-10.8217
▁ఇష్టపడ	-10.8219
▁సర్ప	-10.8223
▁కూలి	-10.8227
▁ఆలయాన్ని	-10.8227
▁మేరీ	-10.8228
▁కథను	-10.8234
▁దృష్టిలో	-10.8234
▁రవీంద్ర	-10.8237
▁మత్స్య	-10.8237
▁డేవిడ్	-10.8237
▁2018	-10.8237
▁కృ	-10.8239
▁వర్ణన	-10.824
▁రికార్డ్	-10.8244
▁దీర్ఘకాల	-10.825
▁వాతావరణంలో	-10.8251
▁వుంట	-10.8252
రియం	-10.8253
▁నీళ్ళ	-10.8253
▁He	-10.8256
▁విగ్రహాలు	-10.8256
▁కొండల	-10.8258
▁వాద్య	-10.8258
మూర్తుల	-10.8262
భాగ్య	-10.8264
▁అంతస్తు	-10.8269
లూరి	-10.827
పోతు	-10.8273
▁పెంపకం	-10.8277
▁విజయవాడలో	-10.8278
▁ఏర్పాట	-10.8279
▁రకరకాల	-10.8281
land	-10.8284
▁పిలిచేవారు	-10.8284
▁టూ	-10.829
▁విప్లవం	-10.8291
కొండలో	-10.8292
▁శ్రీకాకుళంలో	-10.8295
▁గుట్ట	-10.8295
▁కాకతీయ	-10.8298
▁రాబర్ట్	-10.8299
▁మధు	-10.83
▁చేర్చి	-10.8305
▁చెడు	-10.8307
▁వచన	-10.8307
▁ఆవిష్కరణ	-10.8308
▁తవ్వ	-10.831
▁అప్పుడే	-10.8315
▁tr	-10.8315
▁524	-10.8316
▁మహారాజా	-10.8319
న్నర	-10.8321
▁ఎత్తి	-10.8321
▁దుస్తుల	-10.8325
▁రీసెర్చ్	-10.8326
▁66	-10.8326
▁used	-10.8327
▁ఉద్యోగుల	-10.8328
బ్యూ	-10.8328
▁నిరంతరం	-10.8329
▁ఆధిక్యత	-10.833
▁దుస్తులు	-10.833
వలస	-10.8335
▁ఖమ్మంలో	-10.8337
▁పద్యం	-10.8337
▁cs	-10.8347
రోజుల	-10.8349
▁రాశాడు	-10.8349
యానా	-10.835
▁పెట్టె	-10.8351
ప్రాంతాల	-10.8352
లాగే	-10.8354
▁రాజ్యంలో	-10.8354
▁స్థిరమైన	-10.8356
ఎల్	-10.8358
▁జాగ్రత్త	-10.836
▁గుర్రాల	-10.8362
▁అధిపతి	-10.8364
▁అయ్యారు	-10.8366
▁కరీంనగర్లో	-10.8367
ice	-10.8369
▁మారిన	-10.8369
▁ఇవ్వబడింది	-10.837
▁గమన	-10.8371
▁కాయగూరలు	-10.8371
▁250	-10.8371
▁చిత్రీకరణ	-10.8373
▁మనుషుల	-10.8375
ద్రా	-10.8377
▁అక్షరాల	-10.8379
▁ఎలక్ట్రానిక్	-10.838
▁ఆరోపణల	-10.838
▁ఆత్మకూరు	-10.8382
▁సాయుధ	-10.8383
శేఖర	-10.8387
▁విక్టోరియా	-10.8389
▁శీర్షిక	-10.8389
▁తమ్ముడు	-10.8396
▁ముగించ	-10.8405
▁యమ	-10.8407
ies	-10.8408
▁డ్రై	-10.8412
▁విక్	-10.8415
▁కార్యక్రమాలను	-10.8417
▁ఆరంభించ	-10.8418
▁ఉంద	-10.8419
▁క్షీణించ	-10.8421
▁1957	-10.8421
▁సంగీతంలో	-10.8422
ram	-10.8423
▁తేమ	-10.8426
▁శ్రీకృష్ణుడు	-10.8439
india	-10.844
ంగళ	-10.8441
▁కనుగొన్న	-10.8441
ప్రదేశ	-10.8448
వారని	-10.8448
▁ఇంకొక	-10.8448
▁చెప్పడం	-10.8449
▁వ్యాఖ్యాన	-10.845
▁ఇన్స్టిట్యూట్	-10.8452
దేవుని	-10.8453
▁ద్వీపాల	-10.8458
row	-10.8459
▁సమస్యలను	-10.8459
▁మొత్త	-10.8464
▁బోయ	-10.8465
ల్యూ	-10.8467
▁జ్యోతి	-10.8467
▁విజేత	-10.847
ణువు	-10.8471
▁కాకినాడలో	-10.8471
▁నిరోధక	-10.8472
▁సదుపాయాల	-10.8473
▁నిన్ను	-10.8473
▁బంతి	-10.848
▁సాంకేతికత	-10.848
▁నిపుణులు	-10.8484
▁పర్యాటకుల	-10.8485
▁విలియం	-10.8489
కుడిగా	-10.8492
▁దళాలు	-10.8492
బంద	-10.8499
▁తగ	-10.8506
▁యేసు	-10.8507
▁ఆంజనేయ	-10.8512
ుకుంటాయి	-10.8513
భక్తి	-10.8515
▁వేంకటేశ్వర	-10.8516
▁ఒకవేళ	-10.8516
రీత్యా	-10.852
▁గేమ్	-10.8521
ian	-10.8522
▁అయిదు	-10.8522
రాజా	-10.8525
▁మార్గదర్శక	-10.8525
▁డీఏ	-10.8527
▁భీముడు	-10.853
టికీ	-10.8531
స్టె	-10.8531
▁ద్వారక	-10.8532
▁were	-10.8535
▁తెలియదు	-10.8536
జన్మ	-10.854
▁సాగర్	-10.8542
▁ద్రవ్యరాశి	-10.8543
ుడని	-10.8544
▁నిధులు	-10.8544
▁నిర్వహించెదరు	-10.8545
tra	-10.8555
▁పెరి	-10.8556
కెన్	-10.8556
▁కలుగుతుంది	-10.8556
▁కాలిఫోర్నియా	-10.8561
క్రా	-10.8563
▁శాంత	-10.8563
▁చెయ్యడం	-10.8565
▁తీవ్రత	-10.8565
▁దిగుమతి	-10.857
▁ఇవన్నీ	-10.857
మరణ	-10.8575
▁ప్రత్య	-10.858
▁ఖురాన్	-10.858
▁వయస్సులో	-10.8582
▁వెంకటగిరి	-10.8585
▁మండలాల	-10.8588
▁వ్రాత	-10.8589
▁తల్లిదండ్రుల	-10.8593
చై	-10.8595
▁బిలియన్ల	-10.8599
పడుతున్న	-10.8602
▁వదల	-10.8603
▁మూత్ర	-10.8603
ోద్	-10.8605
▁నిరోధ	-10.8605
విధానం	-10.8607
▁ఘర్షణ	-10.8607
పాలి	-10.8611
▁అడుగుపెట్ట	-10.8612
ెడి	-10.8613
గ్గి	-10.8615
▁ఐదవ	-10.8617
▁సైన్యాన్ని	-10.8619
▁కోల్పో	-10.8622
▁క్రైస్తవులు	-10.8623
జిత్	-10.8624
▁వాషింగ్టన్	-10.8626
▁అగ్రహారం	-10.8626
▁కనుగొన్నారు	-10.8628
▁బిలియన్	-10.8631
▁గొంతు	-10.8635
▁పెట్టింది	-10.8638
▁సంకల్ప	-10.864
▁నామం	-10.8641
▁1954	-10.8642
▁క్లోరైడ్	-10.8644
▁సంగమ	-10.8645
▁ఏర్పడును	-10.8647
▁విడిచిపెట్ట	-10.8648
క్రో	-10.8649
▁పక్షి	-10.865
▁దార	-10.8652
▁వెల్డింగు	-10.8653
▁విడిగా	-10.8654
▁కాళ్ళ	-10.8655
▁కార్తీక	-10.8656
▁సీఆర్	-10.8657
▁ఆవరణ	-10.8657
▁వెలువరించ	-10.8663
▁నిలబెట్ట	-10.8664
▁కోటి	-10.8665
▁పంద	-10.8666
▁బాట	-10.8669
ప్రభుత్వ	-10.8669
▁కచ్చితమైన	-10.8672
▁ప్రయోజనం	-10.8673
▁ఆహ్వాన	-10.8673
▁ఉపరితలం	-10.8678
▁లక్షణం	-10.868
▁మ్యూజిక్	-10.8681
ai	-10.8682
▁సినిమాలకు	-10.8682
రచన	-10.8683
▁కులం	-10.8683
▁ధ్యానం	-10.8684
బడలేదు	-10.8684
▁రచయితల	-10.8688
▁వశ	-10.8689
▁పదార్థ	-10.869
పాట	-10.869
-6	-10.8692
బట్ట	-10.8695
▁అందించింది	-10.8696
▁1986	-10.8698
▁part	-10.87
▁యాంత్రిక	-10.87
fi	-10.8704
▁కార్యకలాపాలు	-10.8704
మార్గం	-10.8705
▁ఘనంగా	-10.8707
▁ప్రై	-10.8707
▁రాసి	-10.8708
▁కొట్టి	-10.8708
▁క్రియాశీల	-10.8709
▁సత్యాగ్రహ	-10.8709
▁తుఫాను	-10.8709
▁మారే	-10.8709
▁పర్వతాల	-10.8718
▁వసూలు	-10.8718
4)	-10.8719
▁నడిపించ	-10.872
▁పొలాల	-10.8721
▁ఇనుము	-10.8723
ుకోవటానికి	-10.8723
▁రోజులలో	-10.8723
▁చేయబడి	-10.8727
▁ఆఫ్ఘనిస్తాన్	-10.8728
▁ఆలయాలు	-10.8731
మండలి	-10.8733
▁భార	-10.8733
▁1966	-10.8734
▁UK	-10.8738
▁ఫార్మ	-10.8741
▁ఆహ్వానించ	-10.8745
త్రీ	-10.8746
▁రెట్లు	-10.8746
వెళ్ళ	-10.8749
▁నిర్మించబడిన	-10.8749
▁వ్యాధులు	-10.8757
▁మార్చారు	-10.8758
▁నెదర్లాండ్స్	-10.8763
▁రంగాలలో	-10.8765
▁డౌన్	-10.8765
▁డాలర్లు	-10.8767
▁నడిచే	-10.8768
▁కాలములో	-10.8769
▁చక్రం	-10.877
▁స్వభావ	-10.877
▁ఇస్తారు	-10.8771
▁వ్యాపించ	-10.8771
▁స్నానం	-10.8775
▁పెద్దది	-10.8776
▁నైపుణ్యం	-10.8777
▁అట్లాంటిక్	-10.8777
▁తాళ్ళ	-10.8781
▁It	-10.8781
▁స్వేచ్ఛా	-10.8782
▁సామ్రాజ్యంలో	-10.8783
▁స్తోత్ర	-10.8784
▁పండితుల	-10.8784
సాగర	-10.8784
▁కావు	-10.8785
▁వక్ర	-10.8785
▁వైట్	-10.8785
▁శత్రు	-10.8787
▁గణనీయంగా	-10.8793
▁కాలేజి	-10.8793
▁ఆపరేషన్	-10.8794
▁వెచ్చ	-10.8794
▁సహాయపడ	-10.8798
▁జీవులు	-10.88
▁హైడ్రో	-10.8802
BS	-10.8802
▁స్వాతి	-10.8803
▁యుద్ధము	-10.8804
▁అవతరించ	-10.8805
▁విస్తారమైన	-10.8806
▁ఆకారంలో	-10.8806
▁మచిలీపట్నం	-10.8812
▁తెలియని	-10.8813
▁అనువర్తన	-10.8816
▁సాంప్రదాయిక	-10.882
▁రావి	-10.8822
▁మతాల	-10.8826
మిత్ర	-10.8828
▁ఫలితం	-10.883
▁మహాసముద్రం	-10.8835
▁ఆగ్రహ	-10.8838
మెత్త	-10.8838
▁వున్నది	-10.8839
▁నెమ్మదిగా	-10.884
▁పరమేశ్వర	-10.8844
▁జీవి	-10.8849
▁సింగిల్	-10.885
▁సంగారెడ్డిలోను	-10.8851
రాశి	-10.8852
▁చనిపోయిన	-10.8854
▁రావట్లేదు	-10.8859
han	-10.8863
▁క్యాలెండర్	-10.8868
line	-10.8871
▁అంతగా	-10.8871
▁పోరు	-10.8873
▁1953	-10.8875
▁గిల్	-10.8875
▁ఆవిర్భవించ	-10.8878
▁person	-10.8878
▁దీవి	-10.8881
▁పోలాండ్	-10.8883
▁అతడిని	-10.8884
ప్రధాన	-10.8886
ావతార	-10.8888
▁పోలీసులు	-10.8889
▁నిర్మిత	-10.889
▁దక్ష	-10.8891
ిస్తున్నా	-10.8891
▁చుక్క	-10.8893
▁స్ట్రీట్	-10.8897
▁పడింది	-10.89
▁ఎక్	-10.8907
▁శతాబ్దము	-10.8909
▁పతనం	-10.891
ide	-10.8912
▁పట్టణానికి	-10.8912
▁కలుపు	-10.8913
▁మారుతుంది	-10.8917
షె	-10.892
స్తుంద	-10.8923
▁నిర్మాణాలు	-10.8928
▁ప్రదేశము	-10.8929
pur	-10.8929
మయ్యింది	-10.893
▁బ్రె	-10.8934
▁తేనె	-10.8935
▁ఆకృతి	-10.8936
▁అంతరించి	-10.8938
డియన్	-10.8941
right	-10.8947
-10	-10.895
▁ఉపగ్రహం	-10.8952
▁71	-10.8953
▁వివాదాస్పద	-10.8954
▁ముక్కలు	-10.8955
వేత్తలు	-10.8956
▁స్తంభాల	-10.8959
aw	-10.8961
▁ప్రమాణాల	-10.8963
▁ఉస్మానియా	-10.8963
▁నౌకాశ్రయ	-10.8963
▁పనిచేసారు	-10.8965
▁ఇతరులు	-10.8965
▁విస్తారంగా	-10.8973
▁రకాలుగా	-10.8974
▁కఠిన	-10.8977
▁తొలగించి	-10.8977
▁గనుల	-10.8983
▁జరప	-10.8987
▁హ్యా	-10.899
▁అనుభవం	-10.8991
▁చీకటి	-10.8992
▁తరం	-10.8995
▁వోల్	-10.8997
▁ప్రచురిత	-10.8997
వాది	-10.8998
ood	-10.9002
▁తడి	-10.9006
▁1973	-10.9007
ess	-10.901
▁అలవాటు	-10.9011
▁తెలుస్తోంది	-10.9011
▁జాతికి	-10.9012
థీ	-10.9012
▁ఒడి	-10.9013
▁బలవంత	-10.9014
▁ఇటాలియన్	-10.9021
▁పంజాబీ	-10.9021
▁ఇంజన్	-10.9023
ుఁడు	-10.9024
▁టెర్	-10.9024
▁82	-10.9028
▁man	-10.9028
ంటున్న	-10.9032
▁అరెస్టు	-10.9034
▁సహచర	-10.9035
ట్లయితే	-10.9037
▁1942	-10.9038
▁అయస్కాంత	-10.904
▁ప్రముఖులు	-10.9043
▁వాళ్ల	-10.9044
ధేయ	-10.9044
▁మాంసం	-10.9047
6)	-10.9047
▁చెందాయి	-10.9051
▁రోజూ	-10.9052
▁నియంత్ర	-10.9052
▁నాయ	-10.9052
bu	-10.9052
▁జోడించ	-10.9053
▁దానం	-10.9054
గావ్	-10.9055
▁1981	-10.9057
▁పెట్టుబడుల	-10.9059
▁నింద	-10.9063
▁గుండ్ర	-10.9065
సరు	-10.9065
▁హాంగ్	-10.9066
▁ఘనత	-10.907
▁వాస్తవానికి	-10.9071
▁బంధించ	-10.9074
▁గోత్ర	-10.9076
▁గుంపు	-10.9077
▁ప్రతిష్ఠించ	-10.9081
▁పురస్కారాలు	-10.9081
pu	-10.9084
▁ల్యాండ్	-10.9087
▁కావాలని	-10.9087
▁వ్రాశాడు	-10.9088
▁నియోజకవర్గాల	-10.9089
శర్మ	-10.9091
▁Al	-10.9091
▁రూపొందించారు	-10.9091
▁ఓటు	-10.9091
▁అన్నింటి	-10.9093
▁1949	-10.9095
▁అక్షాంశ	-10.9096
▁మోడల్	-10.9098
▁ఆలోచించ	-10.91
▁వాయువ్య	-10.91
▁సంభవించిన	-10.9105
▁ఉండవు	-10.9107
▁అందుకున్నాడు	-10.9107
▁వహిస్తుంది	-10.9108
రెట్	-10.9111
▁పూత	-10.9116
▁గూ	-10.9117
▁పర్వతం	-10.912
▁తోడ్పడ	-10.9121
▁విమర్శించ	-10.9121
▁వసు	-10.9121
▁1951	-10.9124
▁నరసరావుపేట	-10.9127
▁వారే	-10.9129
▁కాకతీయుల	-10.913
▁ప్రశంస	-10.913
▁పరీక్షలు	-10.913
▁క్యూబా	-10.9136
ించబడిన	-10.9137
▁మిషన్	-10.9137
▁సంక్షిప్త	-10.9146
▁ఉదాహరణకి	-10.9151
ుణ్ణి	-10.9153
▁సమ్మేళనం	-10.9153
▁బొమ్మలు	-10.9153
గుర్తించబడుతుంది	-10.9153
▁ఖాతా	-10.9155
▁బెంగళూరు	-10.9156
▁సురక్షిత	-10.9156
▁వత్తిడి	-10.9156
సేపు	-10.9159
▁gov	-10.916
▁పిలవబడే	-10.9167
▁డాన్	-10.9167
ాంశాల	-10.9173
▁పద్ధతులను	-10.9175
క్కడ	-10.9178
▁మూలాలు	-10.9181
▁వికెట్	-10.9182
మీటర్	-10.9183
▁అభ్యాస	-10.9184
▁కళల	-10.9185
▁రాజస్థాన్	-10.9188
▁సంకలనం	-10.9189
▁అంతటి	-10.919
▁ఎద్దు	-10.919
▁స్క్	-10.919
▁కృత్రిమ	-10.9195
▁వేరొక	-10.9195
▁అందుకున్న	-10.9198
శతాబ్ద	-10.9199
▁ప్రయోగం	-10.9203
▁కలిగివున్న	-10.9212
▁మునుపటి	-10.9214
▁స్వీడన్	-10.9214
▁లక్షణాలను	-10.9216
▁కాస్త	-10.9217
▁నీళ్ల	-10.9222
▁స్టే	-10.9223
▁గౌరవించ	-10.9223
▁స్థాపించబడిన	-10.9223
మెయిల్	-10.9223
▁వాహనాల	-10.9224
▁నియమిత	-10.9226
7)	-10.9228
▁పద్యాలు	-10.9228
▁బెల్లంపల్లిలో	-10.9232
▁అబ్దుల్	-10.9232
▁గరిష్ఠ	-10.9234
టింగు	-10.9236
హైడ్ర	-10.9236
▁పరిశోధనల	-10.924
▁బల్ల	-10.9242
▁సోదర	-10.9242
ron	-10.9247
▁కేశవ	-10.9249
▁ఇబ్బంది	-10.9253
ough	-10.9254
▁బయో	-10.9257
5)	-10.9263
▁ఆక్సైడ్	-10.9263
▁పర్యాయ	-10.9264
▁వ్యాకరణ	-10.9265
బాహు	-10.9266
▁సమగ్ర	-10.9269
▁సముద్రపు	-10.9273
▁వ్రాశారు	-10.9273
▁భ్రమ	-10.9278
▁నిర్వహిస్త	-10.9278
▁నారాయణపేట	-10.928
8)	-10.9286
▁కార్యదర్శిగా	-10.9286
▁రూపము	-10.9286
▁ఐతే	-10.9289
సొ	-10.9291
▁నిఘంటువు	-10.9293
ాహార	-10.9293
▁వీని	-10.9295
శాయి	-10.9298
census	-10.9303
▁ఇంగ్లాండు	-10.9303
▁వైవిధ్య	-10.9303
▁నాట	-10.9303
▁మచ్చ	-10.9307
గలుగుత	-10.9307
ja	-10.9308
▁కాఫీ	-10.9311
నెల	-10.9312
▁చేసుకోవడం	-10.9313
ిద్దరూ	-10.9314
వాళ్లు	-10.9319
▁ఘట	-10.932
▁హెడ్	-10.9321
సాగాడు	-10.9321
▁కమ్యూనిటీ	-10.9322
▁నేపాల్	-10.9323
▁ఏర్పడే	-10.9326
శాసన	-10.933
ple	-10.9334
గుడి	-10.9339
▁విస్తర	-10.934
▁కొలంబియా	-10.9342
▁చర్చించ	-10.9343
▁మక్	-10.9346
▁పర్యవేక్షణ	-10.9347
▁లిమిటెడ్	-10.9352
▁పలికి	-10.9355
▁కోవ	-10.9361
,00,000	-10.9362
▁సంప్రదాయాల	-10.9363
గ్రే	-10.9363
ాడట	-10.9364
మణ	-10.9364
ారాధన	-10.9364
▁సభ్యునిగా	-10.9364
▁మామ	-10.9367
▁నిర్వచ	-10.9371
పీడన	-10.9371
▁ఊరేగింపు	-10.9372
పెట్టి	-10.9374
9)	-10.9374
les	-10.9378
▁అనువాదం	-10.938
▁డిజైన్	-10.9382
▁జీడి	-10.9384
పదార్ధ	-10.9385
▁దీనినే	-10.9388
▁గానూ	-10.9389
▁పనితీరు	-10.9392
▁మరణశిక్ష	-10.9392
▁app	-10.9394
▁దొరక	-10.9395
▁రాజవంశం	-10.9396
▁హక్కులు	-10.9396
సంవత్సర	-10.9399
▁కండ	-10.9401
▁జ్ఞానం	-10.9401
▁aspx	-10.9402
యోధ	-10.9403
య్యింది	-10.9403
▁సమావేశం	-10.9405
▁పరిశ్రమలో	-10.9408
▁అనుగ్రహ	-10.9408
▁సమయములో	-10.9408
▁చేరాయి	-10.941
నియం	-10.941
▁1961	-10.9411
అద్దంకి	-10.9412
▁చైనీయుల	-10.9412
▁కరుణ	-10.9415
▁టవర్	-10.9417
▁ముంద	-10.9421
▁విరివిగా	-10.9422
▁బ్రాహ్మణుల	-10.9423
▁హార్డ్	-10.9426
▁ఇటు	-10.9428
▁తీవ్రవాద	-10.9428
▁up	-10.9429
▁తగిలి	-10.9431
▁మానవులు	-10.9431
▁విశ్వామిత్ర	-10.9432
▁గింజల	-10.9432
▁లక్నో	-10.9432
▁కట్టడాల	-10.9432
ధుల	-10.9438
▁may	-10.9439
▁పత్తి	-10.9447
▁బేరియం	-10.9453
ef	-10.9457
చెప్ప	-10.9458
▁స్పె	-10.946
▁అదుపు	-10.9462
▁వెల్లడించ	-10.9463
▁హ్యూ	-10.9471
▁నామకరణం	-10.9472
▁బలంగా	-10.9472
▁పంతులు	-10.9472
sc	-10.9473
▁చూచి	-10.9475
▁అక్కినేని	-10.9482
▁తెలుసుకో	-10.9489
▁చరిత్రకారులు	-10.949
యినా	-10.9493
▁ఉపయోగపడుతుంది	-10.9493
▁మహాభారతం	-10.9497
▁చేప	-10.95
▁trans	-10.9502
▁నూజివీడు	-10.9502
▁ఇందిరా	-10.9502
▁స్పందన	-10.9503
▁సత్కరించ	-10.9503
ever	-10.9504
▁న్యూస్	-10.9505
▁ఉన్నందున	-10.951
▁వార్తా	-10.9512
▁శుక్ల	-10.9513
▁పొందే	-10.9513
ప్రాంతంలో	-10.9514
▁భాగాలుగా	-10.9516
▁విమానం	-10.9521
కాదు	-10.9522
▁ఫలితాలు	-10.9523
ness	-10.9523
▁గానం	-10.9524
రీతి	-10.9529
▁వ్యాప	-10.953
▁సమూహాలు	-10.9533
▁సంచిక	-10.9533
▁కాపర్	-10.9536
▁అవధాన	-10.954
▁ప్రేమించ	-10.9543
be	-10.9545
▁జాగ	-10.9548
▁చిత్రాల్లో	-10.955
▁తుది	-10.9551
▁నాలుగవ	-10.9552
▁స్వచ్ఛంద	-10.9552
▁నుంచీ	-10.9553
▁ముగ్గు	-10.9554
▁టీవీ	-10.956
టిక్స్	-10.9561
▁రామానుజ	-10.9563
▁హిమాలయ	-10.9565
▁హోల్	-10.9568
▁వార్తల	-10.9569
▁ఆర్థికంగా	-10.957
▁తొక్క	-10.9571
▁పప్పు	-10.9572
▁శరీరము	-10.9573
▁వైపున	-10.9575
భాషా	-10.9579
▁అత్య	-10.9581
బోయే	-10.9584
sp	-10.9584
ంటున్నారు	-10.9589
▁ba	-10.959
▁పెట్టాడు	-10.9592
▁మైసూర్	-10.9593
▁ఖైదు	-10.9593
▁మృత	-10.9594
▁నిర్దేశ	-10.9595
▁ఆకలి	-10.9596
▁మౌర్య	-10.9597
దిశ	-10.9597
కొట్ట	-10.9598
▁సూత్రం	-10.96
కుటుంబ	-10.9601
▁పాడిన	-10.9603
మాంబ	-10.9603
▁తొలుత	-10.9604
▁చెల్లింపు	-10.9604
▁మురుగు	-10.9604
▁ఫ్రా	-10.9611
▁శ్రీశైల	-10.9613
▁వ్రాసి	-10.9614
ఘర్	-10.9623
▁యూరో	-10.9623
ిచారు	-10.9624
▁కొర	-10.9625
▁ఉక్కు	-10.9627
me	-10.9627
▁కావ్యం	-10.9628
ిస్తాను	-10.9629
▁ఖలీఫా	-10.9634
▁హనుమంతుడు	-10.9634
bo	-10.9634
▁వుంచ	-10.9634
▁మార్గాన్ని	-10.9635
▁చలికాలం	-10.9636
tri	-10.9638
▁కాలంలోనే	-10.964
▁బుద్ధుని	-10.9641
▁పిల్లలను	-10.9654
▁ముల్	-10.9657
ఁడు	-10.9658
▁వివాద	-10.966
కృత్	-10.9663
▁పాలకులు	-10.9664
▁జబ్బు	-10.9666
▁ప్రసాదించ	-10.9666
▁జీవనం	-10.9667
▁గర్వ	-10.9672
▁మొదటగా	-10.9674
▁అవినీతి	-10.9675
med	-10.9675
▁పెద్దాపురం	-10.9676
మౌత	-10.9677
▁ప్రమాదకర	-10.968
▁చెందినవారు	-10.9683
▁లక్ష్యంగా	-10.9684
▁సజ్జ	-10.9685
▁విగ్రహాల	-10.9685
▁జనగామ	-10.9685
cul	-10.9688
▁ఎప్పుడు	-10.9688
▁దీన	-10.9689
AT	-10.9691
▁వంటకాల	-10.9692
భంగ	-10.9692
▁నడప	-10.9694
▁చొప్పున	-10.9695
▁మోతాదు	-10.9695
▁2019	-10.97
▁దేశాన్ని	-10.9701
▁కలవాడు	-10.9704
▁రెండ	-10.9704
▁ముత్త	-10.9705
▁వివరాల	-10.9705
▁వీసా	-10.9706
▁మహల్	-10.9708
▁మంచిది	-10.9708
▁ఇస్తా	-10.9708
▁గాత్ర	-10.9709
▁పాల్గొన్నాడు	-10.971
▁1959	-10.9712
▁శ్రామిక	-10.9716
Population	-10.9716
గూడలో	-10.9718
▁బ్రాండ్	-10.9719
▁హిప్	-10.9724
▁టాక్సీ	-10.9726
Districts	-10.9728
▁చలనచిత్రం	-10.9729
మెంట	-10.9729
▁విగ్రహాన్ని	-10.9729
▁వుంది	-10.973
ie	-10.9731
▁అనుసంధానించ	-10.9732
▁సంజీవ	-10.9735
▁కీర్తనల	-10.9736
▁సదాశివ	-10.9736
▁నిర్వహించి	-10.9737
కాలనీ	-10.9742
రక్షణ	-10.9742
కాలిక	-10.9744
▁ఆక్సిజన్	-10.9747
▁శతాబ్ధ	-10.9747
▁సాధ్యం	-10.975
కాలపు	-10.9754
ఘాత	-10.9755
rt	-10.9755
యుగ	-10.9756
Master	-10.9757
▁మంగళగిరి	-10.9759
▁వుడ్	-10.9762
▁ఉరి	-10.9763
▁వేగంతో	-10.9769
మంతటా	-10.9773
▁వస్తే	-10.9777
▁పూస	-10.9777
▁పన్నెండు	-10.9778
▁మహమ్మద్	-10.9778
దుర్గ	-10.9781
▁రాజాం	-10.9781
▁Co	-10.9783
▁రెండవది	-10.9787
port	-10.979
▁ముద్దు	-10.979
ఉండ	-10.9791
ుకున్నాయి	-10.9793
▁అబ్బ	-10.9796
▁ఇంధనం	-10.9797
,500	-10.9797
ింపబడింది	-10.9799
వాదులు	-10.98
▁పులులు	-10.9802
▁మాత్ర	-10.9804
▁కొన్న	-10.9808
▁శాప	-10.9809
▁ప్రచారంలో	-10.981
▁ట్రాక్	-10.9811
శ్రుత	-10.9816
wa	-10.9819
▁జంతువు	-10.982
వనం	-10.9822
మాస	-10.9824
ట్టె	-10.9825
▁సమావేశంలో	-10.9825
▁1976	-10.9828
▁ఫౌండేషన్	-10.9829
▁సంక్లిష్ట	-10.9829
కుమార్	-10.9829
▁నార్త్	-10.9837
ook	-10.9838
▁భూములు	-10.984
clusion	-10.984
▁కెరీర్	-10.984
▁భారతదేశపు	-10.9845
గలరు	-10.9846
▁పోల్చ	-10.9856
▁గుడ్డ	-10.9858
చెయ్య	-10.9858
▁ఉంటా	-10.9859
▁పునర	-10.9861
▁వారాల	-10.9861
▁రూపొందించబడింది	-10.9863
పోర్ట్	-10.9863
మర్రి	-10.9865
పరిచారు	-10.9868
ఫోన్	-10.9869
▁ఆకుపచ్చ	-10.9871
▁అరుదైన	-10.9872
▁దృశ్యం	-10.9872
ాపక	-10.9878
▁సిరియస్	-10.9882
▁బండి	-10.9884
▁అవ్వ	-10.9886
▁its	-10.989
▁ఫిన్లాండ్	-10.9892
▁తైవాన్	-10.9893
▁డ్రైనేజీ	-10.9902
▁పక్షులు	-10.9903
▁చార్లెస్	-10.9903
▁గ్యా	-10.9903
▁సమాధానం	-10.9904
▁ఆరాధన	-10.9913
▁అంతరకృషి	-10.9913
▁చంద్రగుప్త	-10.9914
▁నిర్ధారణ	-10.9915
▁బావి	-10.9919
▁యువకుల	-10.9923
▁దీవుల	-10.9924
▁but	-10.9926
▁ఆశ్రయ	-10.9927
హస్త	-10.9927
▁గుర్తించబడింది	-10.9927
▁క్రీడాకారుల	-10.9928
▁వర్గాలు	-10.9931
మల్ల	-10.9932
▁పావు	-10.9932
▁కార్మికుల	-10.9935
▁విశ్వవిద్యాలయాల	-10.9935
Find	-10.9936
▁దేశవ్యాప్తంగా	-10.9944
▁రాజవంశ	-10.9945
▁హైడ్రోజన్	-10.9945
▁విధానము	-10.9948
▁జారీచేసింది	-10.9956
పోతాడు	-10.9956
న్యాస	-10.9956
▁బోర్డ్	-10.9962
▁Ra	-10.9965
▁చదివాడు	-10.9966
▁ప్రతికూల	-10.9966
=28	-10.9969
వతేదీ	-10.9969
▁సభకు	-10.9975
▁బాలబడులు	-10.9976
▁అభిషేక	-10.9976
▁పరిరక్షణ	-10.9978
మంచి	-10.9981
▁శిశువు	-10.9983
▁పాలించిన	-10.9985
▁మరొకటి	-10.9985
▁గోడల	-10.9988
▁మంజూరు	-10.9989
▁మిగిలినవి	-10.9989
▁సందర్భాల్లో	-10.9991
▁సంస్థలకు	-10.9991
▁చూస్త	-10.9992
▁యున్న	-10.9992
▁తయారీలో	-10.9996
చెట్టు	-10.9997
ుండగా	-11
పూడిలో	-11.0001
▁భారం	-11.0002
్యాన్ని	-11.0004
▁చదువుకున్న	-11.0006
▁సివిల్	-11.0008
▁ఫీల్డ్	-11.0009
మంత్రి	-11.001
▁బ్రో	-11.001
▁ఎలి	-11.0011
▁బంధువుల	-11.0011
మేనేజ్మెంట్	-11.0013
▁అధికరించ	-11.0015
▁సారిగా	-11.0016
న్యూ	-11.0018
▁కుట్ర	-11.0018
ome	-11.0018
▁భగవంతుని	-11.0018
మోహన్	-11.0019
టైల్	-11.002
▁జన్మించ	-11.0022
▁సవరణ	-11.0023
▁నిలబడి	-11.0028
▁ద్రాక్ష	-11.0029
▁ఘోర	-11.003
▁దాస్	-11.0033
▁కీలకమైన	-11.0034
▁స్టీము	-11.0038
▁సంవత్సరాల్లో	-11.0039
యుగం	-11.004
▁వ్యాఖ్య	-11.0042
▁ముక్కు	-11.0047
▁విశ్రాంతి	-11.005
▁లయ	-11.0051
▁వెనక	-11.0052
▁దహన	-11.0053
▁అనుబంధం	-11.0053
గంట	-11.0054
▁అభిమానుల	-11.0061
▁గొర్రె	-11.0061
▁నన్నయ	-11.0061
▁వివరించారు	-11.0062
▁సెక్	-11.0063
▁ఇంకో	-11.0069
ాభిమాన	-11.0074
nu	-11.0074
బస్తీ	-11.0075
సూత్ర	-11.0077
▁As	-11.0079
▁రాజేంద్ర	-11.008
▁చిహ్నం	-11.0082
పోవడంతో	-11.0084
▁ఫైల్	-11.0086
శైలి	-11.0087
▁వెర్	-11.0089
జులై	-11.009
▁పచ్చి	-11.0092
son	-11.0093
▁పర్యటించ	-11.0093
▁డిమాండ్	-11.0093
▁పత్రికా	-11.0094
ory	-11.0097
▁నాలుగ	-11.0099
▁లొంగ	-11.0102
▁ఆదేశించ	-11.0102
▁ఏదేమైనా	-11.0104
▁పౌరాణిక	-11.0104
▁అసమాన	-11.0107
▁అంతర్జాతీయంగా	-11.0108
▁వేటాడ	-11.0109
▁సింగపూర్	-11.0109
▁కక్ష్యలో	-11.0113
▁కదల	-11.0119
▁భద్రతా	-11.0122
▁కోడి	-11.0125
▁చౌదరి	-11.0125
▁రీతిలో	-11.0127
▁చూసే	-11.0131
▁కార్తె	-11.0132
▁డివిజను	-11.0136
▁వీలుగా	-11.0137
▁సంపర్క	-11.0137
▁విధుల	-11.0138
▁దశకంలో	-11.0139
▁4%	-11.014
బొమ్మ	-11.0143
కుప్పం	-11.0146
▁ఎన్టీఆర్	-11.0146
నెట్	-11.0149
▁ఏడవ	-11.0156
స్థులు	-11.0157
▁నర్సీపట్నం	-11.0157
▁గ్రాములు	-11.016
▁రాష్ట్రాల్లో	-11.0161
ava	-11.0161
▁సమయంలోనే	-11.0165
గట్ట	-11.0172
▁అమరిక	-11.0176
జూన్	-11.0178
▁పోర్చుగల్	-11.0179
▁కావాలి	-11.018
▁తట్ట	-11.0184
▁ప్రతాప	-11.0184
gi	-11.0186
▁కపిల	-11.0189
▁నెట్వర్క్	-11.0189
▁పంచాంగం	-11.0189
▁బృహ	-11.0189
సత్య	-11.019
▁సాంప్రదాయక	-11.019
▁రావణ	-11.0193
పడే	-11.0194
▁పసి	-11.0196
▁కాయలు	-11.0199
▁పుస్తకంలో	-11.0202
▁కృప	-11.0202
▁నిలుప	-11.0203
▁ఇంగ్లీషులో	-11.0203
▁బదులు	-11.0204
శాంతి	-11.0204
▁పరిసరాల	-11.0204
▁పత్రికలు	-11.0205
▁వదలి	-11.0209
▁చర్చలు	-11.0211
▁హెన్రీ	-11.0211
శెట్టి	-11.0211
కావ్య	-11.0215
లిటీ	-11.0216
king	-11.0217
▁విలాస	-11.0218
▁పర్వతాలు	-11.0221
▁సరిగ్గా	-11.0222
▁మాలి	-11.0224
ందరికీ	-11.0225
▁లవణ	-11.0228
శంకర	-11.0229
▁బొమ్మల	-11.0231
▁క్రమం	-11.0233
▁time	-11.0233
సెంట్	-11.0235
▁సెర్	-11.0235
▁కమలా	-11.024
▁ఫాల్	-11.024
▁కోపం	-11.0244
▁త్రవ్వకాల	-11.0244
▁విశాలమైన	-11.025
▁జవహర్	-11.0254
▁త్రవ్వ	-11.0257
▁వివాదం	-11.0258
▁ప్రయోగాలు	-11.026
ata	-11.0265
▁ఫిలిప్	-11.0266
▁స్థిరంగా	-11.0266
▁వేశారు	-11.0267
ుకోవాలని	-11.027
▁కళలు	-11.0271
▁లార్డ్	-11.0276
▁ఐక్యరాజ్యసమితి	-11.0276
▁సంఘటనలు	-11.0277
▁స్టాక్	-11.0279
▁మార్చబడింది	-11.0279
▁గలదు	-11.028
▁గుర్తించింది	-11.028
▁అంకిత	-11.028
▁సమావేశాల	-11.0282
్యమైన	-11.0283
▁దిగి	-11.0283
▁గ్యాస్	-11.029
▁వెదురు	-11.0291
▁521	-11.0291
col	-11.0292
▁1958	-11.0295
▁నెలలు	-11.0297
▁వ్యవహర	-11.0297
▁వర్గీకరణ	-11.0301
▁సంవత్సరాలుగా	-11.0304
ించువాడు	-11.0308
▁రాజ్యాలు	-11.0308
నూనె	-11.0309
▁ఏర్పడతాయి	-11.0311
▁1,2	-11.0312
▁వదుల	-11.0312
ric	-11.0312
▁మంజ	-11.0314
▁అడుగులు	-11.0317
▁గవర్నరు	-11.0317
ెుక్క	-11.0319
rd	-11.0321
శ్లేష	-11.0323
▁పీటర్	-11.0324
▁దిద్ద	-11.0325
ేంద్రియ	-11.0326
▁భవనాలు	-11.0328
▁ఎడ	-11.0329
▁పంది	-11.033
▁రద్దీ	-11.0331
వలసలో	-11.0334
▁ప్రాప్తి	-11.0335
▁తీసుకునే	-11.0338
రెన్స్	-11.0344
్యాలు	-11.0348
▁ముఖ్యమంత్రిగా	-11.0352
▁600	-11.0352
▁కూచిపూడి	-11.0352
▁కార్యక్రమాన్ని	-11.0352
▁సుగ్రీవ	-11.0353
▁గ్రహీత	-11.0353
ey	-11.0354
▁Re	-11.0355
ేశ్వర్	-11.0355
▁మాంస	-11.0358
▁సమానమైన	-11.0361
▁పొటాషియం	-11.0363
▁పొట్ట	-11.0365
▁ప్లాస్టిక్	-11.0375
▁శీతాకాల	-11.0376
▁భజన	-11.0376
▁తిరుగుతూ	-11.0376
▁వర్మ	-11.0377
▁సమాధాన	-11.0384
ual	-11.0385
▁చేసాయి	-11.0385
▁బ్రౌన్	-11.0385
▁విస్తృతమైన	-11.0386
▁ఎన్నికయ్యారు	-11.0386
▁కలిగింది	-11.0388
▁వాల్వు	-11.0389
hu	-11.0392
▁పరిమితమైన	-11.0393
▁1931	-11.0395
▁Wiktionary	-11.0396
▁సన్మాన	-11.04
▁వాహనం	-11.0401
▁పక్షుల	-11.0402
▁భూమిపై	-11.0402
▁ఉద్దేశం	-11.0403
▁మేయర్	-11.0407
▁1936	-11.0415
▁భీముని	-11.0416
▁ప్రతిపక్ష	-11.0417
వాహన	-11.0418
ప్రభ	-11.0421
cu	-11.0422
▁గాయకుడు	-11.0425
▁పోగొట్ట	-11.0425
▁పండితుడు	-11.0426
▁their	-11.0429
▁name	-11.043
▁చదివే	-11.0431
▁St	-11.0433
ంగీ	-11.0434
▁భావాల	-11.0435
▁మరోవైపు	-11.0436
ui	-11.044
▁అరుణ	-11.044
▁విరాట	-11.0443
హరణ	-11.0444
▁సమర	-11.0444
వాలా	-11.045
▁షియా	-11.045
▁ముఖ్యమైనది	-11.0457
▁ఇటుకల	-11.0459
▁బాపు	-11.0459
▁పాండవులు	-11.0459
▁తదనంతర	-11.0463
ah	-11.0465
శ్యామ	-11.0465
▁విరామ	-11.047
▁సహజంగా	-11.0472
▁వెయ్యి	-11.0474
టూరి	-11.0476
▁ప్రగతి	-11.0483
▁కచేరీ	-11.0485
▁ఫిల్	-11.0489
▁క్రీడలలో	-11.049
స్తుండగా	-11.0491
▁పార్వతీ	-11.0493
▁జీత	-11.0493
ారంభ	-11.0493
▁అందించాడు	-11.0495
▁రావడానికి	-11.0495
వర్మ	-11.0496
▁హిట్లర్	-11.0497
చేసారు	-11.0498
▁విచిత్ర	-11.0498
టప్పుడు	-11.0501
ఫిక్	-11.0505
▁1968	-11.0506
▁అలంకార	-11.0508
జరు	-11.0509
▁భర్తీ	-11.0512
sk	-11.0515
▁1939	-11.0515
▁1963	-11.0515
వైశాల్య	-11.0518
▁పంచాయితీ	-11.0518
▁కారణము	-11.0519
▁బయటపడ	-11.052
ex	-11.0525
▁బానిసత్వ	-11.0529
▁2%	-11.0529
▁బతుకమ్మ	-11.0529
▁534	-11.0534
▁దేశపు	-11.0534
▁యూరోప్	-11.0536
▁లేత	-11.0542
▁జొ	-11.0542
మిల్లి	-11.0543
===	-11.0544
కొన్న	-11.0547
▁లింగం	-11.0547
▁ఏటా	-11.0547
▁స్వభావం	-11.055
▁ఆవిష్కరించ	-11.0552
▁ఇస్లామిక్	-11.0552
▁ఏటియం	-11.0552
▁స్కూలు	-11.0552
▁చాళుక్యుల	-11.0552
ర్చు	-11.0553
▁ఏర్పడ్డాయి	-11.0556
▁అందంగా	-11.0557
▁స్నేహితుల	-11.0557
▁యుద్ధాలు	-11.0558
ప్రజల	-11.0561
ెయిన్	-11.0563
▁ఉపనిషత్తు	-11.0563
▁సమైక్య	-11.0563
▁గులాబీ	-11.0563
▁వచ్చినప్పుడు	-11.0566
సామర్ధ్య	-11.0571
▁సంసార	-11.0572
▁చైనీస్	-11.0574
▁మరుగుదొడ్ల	-11.0574
▁గురై	-11.0575
▁నిర్వహించాడు	-11.0575
▁బుట్ట	-11.0577
text	-11.0577
▁గుర్రం	-11.0578
▁భూభాగ	-11.0583
▁అల్ప	-11.0583
▁సరుకు	-11.0585
▁ఘటన	-11.0585
▁నియమాల	-11.0592
▁వెలువడిన	-11.0594
▁ఆజ్ఞ	-11.0594
▁ఇంగ్లండ్	-11.0597
▁చిరంజీవి	-11.0597
▁థామస్	-11.0597
▁అఖిల	-11.0599
▁విధానాలను	-11.0599
▁నీడ	-11.0599
▁ఎన్నికైన	-11.06
▁కట్టు	-11.0601
నాళ	-11.0603
▁అనబడే	-11.0603
▁పరమాణువు	-11.0606
ాపన	-11.0607
▁తాటి	-11.0608
ations	-11.0615
స్థాప	-11.0617
▁కోణం	-11.0618
▁ఢిల్లీలో	-11.0619
▁ఆదిలాబాదు	-11.0619
▁పదార్ధాల	-11.062
▁ఒకరోజు	-11.0624
ix	-11.0625
▁యుద్ధాల	-11.0625
▁కృష్ణమూర్తి	-11.0625
▁రాశి	-11.0626
▁మాట్లాడుతూ	-11.0626
▁తీర్చిదిద్ద	-11.063
-7	-11.0633
▁యాక్	-11.0636
▁గాంధార	-11.0638
▁పోలిష్	-11.0639
▁అంధ	-11.0639
▁ప్రశంసలు	-11.064
▁ఉత్తీర్ణ	-11.0641
TV	-11.0642
ాదులు	-11.0642
▁నటుడిగా	-11.0644
-18	-11.0645
▁ఏనుగుల	-11.0646
పోతూ	-11.0646
యున్నది	-11.0647
దీప	-11.0648
శిఖర	-11.0648
ప్రసాద్	-11.0649
▁పార్లమెంట్	-11.0653
▁మనుగడ	-11.0653
▁పూర్వపు	-11.0654
▁కోతలు	-11.0658
▁ఉపవాస	-11.0662
▁ఆస్థాన	-11.0663
▁వృద్ధ	-11.0665
gar	-11.0672
▁తరంగాల	-11.0673
▁దేవాలయాల	-11.0676
▁పోషించాడు	-11.0677
▁సమేత	-11.0678
▁తగు	-11.0679
▁జ్వర	-11.0681
▁నిజం	-11.0683
▁యేట	-11.0684
1,000	-11.0684
ాత్మకంగా	-11.0686
▁వ్యతిరేకత	-11.0686
▁సార్వత్రిక	-11.0687
▁ఉందో	-11.0689
▁మిత్రుల	-11.0693
▁వేతన	-11.0694
▁పట్టణము	-11.0695
▁సదా	-11.0696
▁అర్జునుడి	-11.07
▁సూచిక	-11.0701
▁సభా	-11.0704
▁సంస్థానం	-11.0706
▁పాలకుల	-11.0706
▁తప్పనిసరిగా	-11.0708
▁కింగ్డం	-11.0708
▁సిరిసిల్ల	-11.0709
▁రూపాంతరం	-11.071
▁1%	-11.0712
▁ఇనుప	-11.0713
మాత్ర	-11.0713
▁గింజలు	-11.0716
▁పేర్లతో	-11.0721
▁పరుగుల	-11.0721
▁భావం	-11.0725
తత్వ	-11.0727
▁కోయ	-11.0729
కూర	-11.0731
▁రక్ష	-11.0732
▁రకము	-11.0735
దారి	-11.0737
au	-11.0738
▁దుష్	-11.0739
▁ప్రిన్స్	-11.074
▁వివాదాల	-11.074
▁కాగితం	-11.0741
▁పొద్దుతిరుగుడు	-11.0744
▁స్పేస్	-11.0744
▁శతాబ్దానికి	-11.0744
యై	-11.0747
లైన్	-11.075
కలిగి	-11.0751
▁గుమ్మడి	-11.0751
oss	-11.0753
▁యంత్రం	-11.0754
▁గన్నవరం	-11.0755
▁పునాది	-11.0755
▁అంతిమ	-11.0755
చేయడం	-11.0756
▁మాగ్	-11.0756
▁నిండిన	-11.0759
స్ట్రీ	-11.0764
▁వెనక్కి	-11.0766
▁చేపట్టారు	-11.0768
దశలో	-11.0772
▁ఉంటున్న	-11.0775
దుర్తి	-11.0778
▁ఆభరణాల	-11.0778
▁సంహరించ	-11.0779
జ్ఞా	-11.0781
▁ఉద్యమాల	-11.0784
▁పాలించారు	-11.0787
▁కేవలము	-11.0789
▁శివాజీ	-11.0789
▁పుస్తకము	-11.079
▁సాంప్రదాయం	-11.0795
▁చూపిస్తుంది	-11.0798
ేశ్వరి	-11.0799
▁ఇద్దరి	-11.0801
▁ఇల్ల	-11.0801
▁దినోత్సవం	-11.0802
పరిచి	-11.0804
▁నిపుణ	-11.0807
▁నిధి	-11.0809
▁నోట్	-11.0809
విశ్వాస	-11.081
▁దేవాలయాలు	-11.0812
వేసింది	-11.0815
▁ఆయుధాల	-11.0815
ప్లా	-11.0816
▁కొలువు	-11.0817
▁తెల్లని	-11.0819
దాకా	-11.0823
▁వివాహమాడ	-11.0825
ms	-11.0827
వరణ	-11.0827
▁బోరు	-11.0832
-12	-11.0833
▁కర్నాటక	-11.0835
వర్గం	-11.0838
లక్ష్మీ	-11.0838
చిహ్న	-11.0838
▁మానవుడు	-11.084
త్తూరు	-11.0845
వర్ధన	-11.0847
▁పతాక	-11.0848
ber	-11.0849
▁వేసింది	-11.085
▁అనిపించ	-11.085
▁అవార్డులు	-11.085
కొరకు	-11.085
▁సమీకరణ	-11.0857
▁గర్భాశయ	-11.0858
▁తెలుసుకొన	-11.0858
pan	-11.0859
▁వస్తారు	-11.086
▁టైమ్స్	-11.0861
▁కార్బో	-11.0862
▁ద్వీపంలో	-11.0865
▁1941	-11.0867
▁సభ్యత్వం	-11.0869
డాన్	-11.0869
▁పతన	-11.087
▁ఆంగ్లేయుల	-11.087
▁గంధ	-11.087
సెన్	-11.0871
▁జోస్	-11.0873
▁బౌద్ధమత	-11.0875
▁గూడా	-11.0878
▁ఆఫ్రికాలో	-11.0879
▁వృష	-11.088
▁అతుక	-11.0881
▁నాగయ్య	-11.0882
▁ముట్టడి	-11.0883
▁కొమర	-11.0885
▁మోర్	-11.0889
ism	-11.0891
▁విత్తనం	-11.0893
ition	-11.0894
▁దొరుకు	-11.0894
ాదిత్య	-11.0898
ాచార్యుడు	-11.0898
ali	-11.0898
▁మందులు	-11.0902
▁సదస్సు	-11.0904
▁రాజ్యానికి	-11.0905
▁అవుట్	-11.0906
▁భాగాలను	-11.0907
▁గమ్య	-11.0907
కర్ణ	-11.0908
▁విడుదలైంది	-11.0909
▁ఉండటంతో	-11.092
స్త్రీ	-11.0927
▁నివసిస్త	-11.0928
▁ఆమదాలవలస	-11.0928
ాలన్నీ	-11.0928
▁గుంటూరులోను	-11.0929
▁తోటల	-11.0934
▁భరించ	-11.0934
▁ఆవశ్యక	-11.0939
▁వెలుపలి	-11.0941
మాసం	-11.0948
▁ఉద్దేశంతో	-11.0952
▁సామ్రాజ్యాన్ని	-11.0955
▁స్వీకరించారు	-11.0957
▁ద్వ	-11.0961
▁అభ్యర్థిగా	-11.0963
▁క్రీడలు	-11.0966
▁ఇళ్ళ	-11.0971
వాళ్ళ	-11.0971
శాతం	-11.0972
▁ఓవర్	-11.0975
▁పునరుద్ధరణ	-11.0986
▁నౌకా	-11.0987
SA	-11.0987
▁కార్మికులు	-11.0989
▁మహిమ	-11.0992
▁వారసుల	-11.0995
▁మాత్రము	-11.0996
▁మార్కాపురం	-11.0998
▁నరేంద్ర	-11.0999
ful	-11.1006
▁సికింద్రాబాద్	-11.1009
▁మృదు	-11.1009
▁సెలవు	-11.101
▁కర్ణుడు	-11.101
యితే	-11.101
వేసిన	-11.1012
మడుగు	-11.1015
▁దాల్చ	-11.1017
▁అనుసంధాన	-11.1023
▁ముత్యాల	-11.1024
▁కోత	-11.1024
▁రాలేదు	-11.1028
▁కాపీ	-11.1032
▁బయటికి	-11.1032
▁అవలంబించ	-11.1033
▁దరఖాస్తు	-11.1033
▁సమన్వయ	-11.1033
▁ఆస్తుల	-11.1033
మైలవరం	-11.1033
▁భద్రపరచ	-11.1034
▁పార్వతి	-11.1035
▁హార్మోన	-11.1042
▁స్లా	-11.1043
▁కుతుబ్	-11.1044
▁ప్రకట	-11.1045
▁స్పష్టమైన	-11.1045
▁కొనసాగుతున్న	-11.1047
cent	-11.1047
▁మాసంలో	-11.1048
▁పంపాడు	-11.105
▁కనిపించింది	-11.1051
▁అమృత్	-11.1056
▁అభివర్ణించ	-11.1056
▁పాండవ	-11.106
▁పోవు	-11.106
▁దాడులు	-11.1064
▁చంద్రుడు	-11.1065
▁నియోజకవర్గ	-11.1072
▁భావించబడుతుంది	-11.1074
▁రాధ	-11.1078
▁థియ	-11.1079
▁ఉనికిలో	-11.108
▁పుస్తకాన్ని	-11.108
▁అంగీకర	-11.1083
ుకొన్నారు	-11.1088
▁కొద్దీ	-11.1088
▁దానిపై	-11.1091
▁బయటి	-11.1094
యెల్	-11.1099
ick	-11.11
శిక్ష	-11.1102
▁వెడ	-11.1102
దేవర	-11.1102
▁బీడీలు	-11.1103
▁బంగార	-11.1107
▁అమిత	-11.1108
ార్కట్	-11.1109
▁శిల్పాలు	-11.1111
▁518	-11.1112
▁నరస	-11.1112
▁బుద్ధుడు	-11.1113
▁సంస్కృతంలో	-11.1119
మూడి	-11.1123
▁లోతైన	-11.1127
▁ఎన్నుకో	-11.113
▁సాగిన	-11.1131
▁సైన్యాల	-11.1138
▁కణాలు	-11.1138
▁మరియూ	-11.1142
▁మెట్ల	-11.1145
▁హామ్	-11.1147
▁మహాభారత	-11.1151
యోగ్య	-11.1153
▁సమయాన్ని	-11.1155
▁శకం	-11.1155
▁నాటకంలో	-11.1156
▁రచనా	-11.1157
▁రసం	-11.1157
▁మనుమ	-11.1157
▁నూతనంగా	-11.116
-9	-11.1162
▁నిరుద్యోగ	-11.1162
▁గుర్	-11.1164
▁నిశ్చయించ	-11.1174
ాయణ	-11.1174
▁విత్తుట	-11.1175
చింత	-11.1175
▁వెర్షన్	-11.1176
▁బీహార్	-11.1176
▁విహార	-11.1185
▁మధ్యయుగ	-11.1185
tro	-11.1185
ku	-11.1185
▁కూటమి	-11.1186
▁మరే	-11.1192
▁అద్దె	-11.1195
▁1937	-11.1195
▁సిస్టమ్	-11.1198
▁ఆకాశవాణి	-11.1199
▁జయించ	-11.12
▁తారక	-11.1201
▁బ్యాక్	-11.1201
తరువాత	-11.1206
▁మెట్రో	-11.1207
▁ధారావాహిక	-11.121
▁సరస్వతీ	-11.121
NA	-11.1211
▁చీలి	-11.1212
▁అనుచరుల	-11.1212
▁పొడు	-11.1216
▁మాయా	-11.1216
▁పోషిస్త	-11.1217
సర్వ	-11.1218
▁సందర్శకుల	-11.1222
▁మహాసభ	-11.1226
▁ఛార్	-11.1228
▁మంత్రివర్గ	-11.1231
▁జీవించి	-11.1231
▁పద్యాల	-11.1232
▁అచ్చు	-11.1233
▁ఆర్మేనియన్	-11.1234
గఢ్	-11.1237
▁అహింస	-11.124
eng	-11.1243
▁టాటా	-11.125
▁దుర్గా	-11.125
ail	-11.1254
▁గర్భం	-11.1254
లేదా	-11.1254
▁మెచ్చ	-11.1256
యంత్ర	-11.1263
ాశ్రమ	-11.1265
bi	-11.1265
▁ఆలయాల	-11.1266
▁చురుకుగా	-11.127
▁మధ్యాహ్న	-11.127
▁గోల్కొండ	-11.1273
▁ప్రవేశపెట్టారు	-11.1276
▁గ్రె	-11.1277
▁తెలిసింది	-11.1277
▁విభజించబడింది	-11.1279
▁1933	-11.1282
▁ఇంజిన్	-11.1282
▁వైవిధ్యం	-11.1282
▁హేమ	-11.1285
▁వాడిన	-11.1289
▁నిత్యం	-11.1292
▁విరుద్ధంగా	-11.1294
▁సాత్యకి	-11.1294
▁కొత్తపల్లి	-11.1296
▁వానర	-11.1297
▁ఆండ్ర	-11.1298
▁పరిజ్ఞానం	-11.1299
ame	-11.1303
▁శంకరులు	-11.1304
▁చేయుటకు	-11.1306
▁ఆడపిల్ల	-11.1309
▁తేదీలు	-11.1309
▁బీమా	-11.1313
▁హైవే	-11.1315
లేవు	-11.1316
▁గ్రామపంచాయతి	-11.1318
▁కామర్సు	-11.1318
▁భాస్కర	-11.132
▁శాసనాలు	-11.132
▁రథం	-11.1329
ft	-11.1334
మంత్ర	-11.1335
met	-11.1337
▁కలిగ	-11.1338
వారే	-11.1338
పత్రిక	-11.1341
▁ఉపయోగపడ	-11.1342
▁కార్బను	-11.1342
▁ప్రొడక్షన్	-11.1342
▁హైకోర్టు	-11.1342
▁నైతిక	-11.1343
▁వీరభద్ర	-11.1345
▁ప్రాంగణ	-11.1351
con	-11.1352
▁అవశేషాల	-11.1356
▁విమర్శకుల	-11.1356
▁some	-11.1358
▁శల్య	-11.1361
▁వర్షం	-11.1361
గోళ	-11.1363
▁కాల్పుల	-11.1364
▁కార్యాచరణ	-11.1367
▁ప్రవర్తించ	-11.1367
▁కొరత	-11.1367
▁De	-11.1369
పాణి	-11.137
▁తిక్కన	-11.137
▁బాలికల	-11.137
▁3%	-11.1376
▁పనిచేసాడు	-11.138
▁యాత్రికుల	-11.1382
▁కళాకారుడ	-11.1382
▁పీడనం	-11.1382
ves	-11.1383
▁కమాండ	-11.1383
▁ఏమిటి	-11.1385
▁మంగోల	-11.1386
▁1938	-11.1387
▁బాగ్	-11.139
▁ధోరణి	-11.1391
▁సంఘాలు	-11.1391
▁నిర్మాణాన్ని	-11.1395
▁వైదిక	-11.1395
బెల్	-11.1402
▁జవాబు	-11.1403
▁పునర్నిర్మాణ	-11.1404
▁ఫేస్	-11.1404
▁ఇంక	-11.1408
▁నేత్ర	-11.1409
సాహెబ్	-11.1415
మయింది	-11.1417
▁దేవస్థానం	-11.1419
ోన్నత	-11.1425
▁ఇంజనీర్	-11.1427
▁పంజాబు	-11.1427
▁వ్యాఖ్యానించ	-11.1428
▁జైపూర్	-11.1438
▁కక్ష్య	-11.1439
▁గడప	-11.1439
▁ఛైర్మన్	-11.144
▁నందిగామ	-11.144
▁సామర్థ్యాన్ని	-11.1441
▁స్థానము	-11.1442
▁ప్రాంగణంలో	-11.1443
▁సౌకర్యము	-11.1443
PA	-11.1445
▁లభిస్తున్న	-11.1446
▁రూపుదిద్ద	-11.1452
▁సుగంధ	-11.1452
▁జ్యూ	-11.1453
CO	-11.1454
దత్త	-11.146
▁ఆశ్రమం	-11.1464
▁స్మృతి	-11.1464
▁ఆల్బం	-11.1464
▁నీలం	-11.1467
lic	-11.1469
▁బలవంతంగా	-11.1473
▁చట్టాలు	-11.1473
▁అక్కడికి	-11.1474
▁లక్క	-11.1475
▁తిన్న	-11.1476
▁అధీనంలో	-11.1476
▁ఎలక్ట్రాన్	-11.1476
▁స్క్రీన్	-11.1476
▁గేట్	-11.1477
చేస్తుంది	-11.1483
▁లెక్కించ	-11.1484
▁నక్షత్రాల	-11.1485
▁110	-11.1488
▁సాయంతో	-11.1491
▁ప్రతిభా	-11.1492
▁1934	-11.1497
▁ఫ్రాంక్	-11.1504
కపోవడంతో	-11.1506
▁నిలబడ	-11.1509
▁పక్షం	-11.1509
▁1944	-11.151
▁నటనకు	-11.151
▁ముగిసింది	-11.1513
▁రెవిన్యూ	-11.1513
▁స్థూప	-11.1513
▁మాధ్యమం	-11.1513
▁నారాయణరావు	-11.1525
wiki	-11.1526
▁ట్రాఫిక్	-11.1526
▁గౌర	-11.1526
▁అవుత	-11.1529
▁been	-11.153
▁రాకుండా	-11.1532
▁దాత	-11.1532
▁నిబంధనల	-11.1532
▁రికో	-11.1535
▁నిలువు	-11.1537
▁ఫెడరల్	-11.1538
▁ఒకటైన	-11.154
▁ఫోర్స్	-11.154
▁పరిగణిస్తారు	-11.1542
▁బానిసల	-11.1543
▁ఇంద్రియ	-11.1544
▁ఇతిహాస	-11.155
▁నిజామాబాదు	-11.155
ug	-11.1552
2,000	-11.1554
మవుతాయి	-11.1559
▁పెట్టే	-11.1561
▁పిఠాపురం	-11.1563
▁రిచర్డ్	-11.1563
ాస్త్ర	-11.1564
▁హీరోగా	-11.1566
▁ఎగుమతుల	-11.1575
▁కానోపస్	-11.1575
▁ముగిసిన	-11.1575
▁అలంకరణ	-11.1575
▁No	-11.1576
cle	-11.1577
dh	-11.1578
▁కప్పు	-11.1579
▁మొట్టమొదట	-11.1579
▁న్యాయమూర్తి	-11.1579
▁సోదరి	-11.158
▁కండరాల	-11.158
▁సామూహిక	-11.1587
▁తెలిపింది	-11.1587
▁హైదరాబాదులోనూ	-11.1588
కిరణాల	-11.1589
▁క్రూర	-11.159
డెంట్	-11.1597
▁పెదబయలు	-11.16
▁బూడిద	-11.16
▁విశ్వసించ	-11.1603
రాయ్	-11.1603
▁తేజ	-11.1605
ప్రాంతం	-11.1606
▁స్పి	-11.1607
▁సంకలన	-11.1607
▁పరిమితి	-11.161
▁మినహాయింపు	-11.1612
▁సుదూర	-11.1612
▁సర్వీస్	-11.1612
▁స్థిరపడ్డారు	-11.1614
ుతుండగా	-11.1616
సంఘ	-11.1621
▁బడ్జెట్	-11.1625
▁రామగుండం	-11.1625
▁రాజీవ్	-11.1625
▁కల్యాణ	-11.1625
▁పిమ్మట	-11.1625
▁పరమాత్మ	-11.1628
▁ఖర	-11.1629
▁వివరించాడు	-11.1633
▁కూడలి	-11.1637
▁దక్షణాన	-11.1637
▁పెంట	-11.1637
▁రావణుడు	-11.1638
▁నియమాలు	-11.1641
వినియోగ	-11.1644
▁కల్పన	-11.1646
కలాప	-11.1648
▁డైరెక్ట	-11.1651
▁సృష్టించిన	-11.1655
▁కుండల	-11.166
▁1932	-11.166
▁శ్రీకాళహస్తి	-11.1662
▁శీతల	-11.1662
▁అయోధ్య	-11.1662
▁స్థాపక	-11.1662
ఫలితాల	-11.1663
▁తలసరి	-11.1666
ved	-11.1668
▁కాల్చి	-11.1671
లేషన్	-11.1671
▁ఎదుట	-11.1671
▁వ్యయ	-11.1676
▁వైభవ	-11.1677
▁సంప్రదాయాలు	-11.1678
▁నిర్మాణాల	-11.1679
▁వేప	-11.1681
▁సంతృప్తి	-11.1681
▁అడుగ	-11.1682
▁1921	-11.1686
▁అందిస్తున్న	-11.1688
▁క్రోధ	-11.169
▁దోహదపడ	-11.1694
నైపుణ్య	-11.1697
▁చింతపల్లిలో	-11.1697
▁పటేల్	-11.17
పర్య	-11.1704
డొ	-11.1704
▁గాంధీజీ	-11.1704
▁రాజ్యము	-11.1706
▁వ్యవహరించారు	-11.1711
▁మిర్యాలగూడ	-11.1712
▁ప్యాలెస్	-11.1713
వ్రత	-11.1714
వింగ్	-11.1719
▁1935	-11.1722
▁సీస	-11.1722
ుకొను	-11.1726
▁బసవ	-11.1727
▁sub	-11.1727
▁లోపం	-11.1729
▁చిలక	-11.1732
▁అధ్యక్షత	-11.1734
▁ఇబ్బందులు	-11.1735
▁1928	-11.1735
▁6%	-11.1736
ection	-11.1736
▁నిపుణుల	-11.1737
▁అతిథి	-11.1737
▁ధ్వంసం	-11.1737
▁టెన్నిస్	-11.1737
▁తాండూరు	-11.1737
AM	-11.1745
ose	-11.1745
;---	-11.175
▁టోర్నమెంట్	-11.175
▁హైదర్	-11.1754
▁క్లిష్టమైన	-11.1755
▁గమనించి	-11.1756
▁పదార్థము	-11.1758
▁సంబంధమైన	-11.1763
▁చాలావరకు	-11.1764
▁తెచ్చిన	-11.1764
థ్య	-11.1766
పరిచే	-11.1767
జాతుల	-11.1773
▁విశాఖపట్నంలోనూ	-11.1774
▁మూత	-11.1774
▁ఆరాధించ	-11.1775
▁పరాజయం	-11.1775
▁ప్రధానమైనవి	-11.1776
▁పరిపూర్ణ	-11.1777
▁పారిస్	-11.1783
▁గిరిజనుల	-11.1784
సాగారు	-11.1786
▁మంచ	-11.1787
▁ఫెస్టివల్	-11.1788
▁సంస్కరణలు	-11.179
▁సిద్ధాంతాన్ని	-11.179
▁గనుక	-11.1791
▁కేంద్రాల్లో	-11.1791
▁use	-11.1791
ినట్టు	-11.1792
▁ఎలక్ట్రో	-11.1801
▁కళింగ	-11.1801
▁తీరప్రాంత	-11.1801
▁పనిచేస్తున్నారు	-11.1803
▁గోల్డ్	-11.1804
▁ఆదేశాల	-11.1806
▁ముస్లిములు	-11.1813
▁Mo	-11.1813
▁జాగ్రత్తగా	-11.1816
▁మోటార్	-11.1818
▁క్రూ	-11.182
▁ప్రశ్నించ	-11.1822
▁1929	-11.1823
▁ట్రేడ్	-11.1826
▁ఆర్మీ	-11.1828
▁రాయబార	-11.1828
▁సోదరులు	-11.183
▁7%	-11.1841
▁కొండపై	-11.1844
▁జ్యోతిష	-11.1846
పూర్ణ	-11.1846
నట్లయితే	-11.1847
▁సంగతి	-11.1848
వెల్లి	-11.185
న్నట్లు	-11.1851
▁ప్రహ్లాద	-11.1854
చూప	-11.1855
▁కుదుర్చ	-11.1855
▁మునగ	-11.1863
▁పీపుల్స్	-11.1864
do	-11.1869
▁సేకరించి	-11.187
mer	-11.187
▁నిర్వహించింది	-11.1871
▁జలపాతం	-11.1873
▁తలుపు	-11.1873
▁చెవి	-11.1874
▁పెళ్ళ	-11.1874
▁పెరగడం	-11.1876
▁స్టేడియం	-11.1877
▁చేపట్టాడు	-11.1877
పూర్వకంగా	-11.1879
▁స్వీకర	-11.1879
భుజ	-11.188
▁ఆచారం	-11.1884
ుకుంటా	-11.1888
▁ఆత్మహత్య	-11.1889
▁చుట్టుపక్కల	-11.1889
మండ్	-11.1891
▁టీకా	-11.1892
▁కోరాడు	-11.1892
▁బాండ్	-11.1892
▁అమ్మకాల	-11.1894
▁బీదర్	-11.1894
▁అలె	-11.1895
▁బిగించ	-11.1899
▁కేప్	-11.1899
▁సమర్ప	-11.19
స్తుంటాడు	-11.1904
▁పీల్చ	-11.1906
▁జగ్గ	-11.1908
▁కూడి	-11.1909
మౌతుంది	-11.1911
▁పాక్షిక	-11.1912
▁ప్రవేశించిన	-11.1913
ుందని	-11.1913
▁గొలుసు	-11.1915
▁ఫలితాలను	-11.1916
ఋ	-11.192
▁డయా	-11.1922
▁సముదాయం	-11.1922
▁ప్రాణాలు	-11.1923
▁డిస్నీ	-11.1926
▁బలగాల	-11.1927
▁అశ్వత్థామ	-11.1928
▁ఉత్తేజ	-11.1928
▁హనుమాన్	-11.1928
▁క్రీడల	-11.1929
▁ఘాట్	-11.193
▁పదవిని	-11.1931
▁కాగిత	-11.1932
▁వ్యక్తిత్వ	-11.1935
▁సూచించారు	-11.1936
▁వేషం	-11.1941
▁ఇబ్రహీంపట్నం	-11.1941
▁130	-11.1942
▁నడవ	-11.1943
▁టెస్టు	-11.1943
▁చెరుకు	-11.1946
మయ్యారు	-11.1949
వృక్ష	-11.195
▁మరలా	-11.195
ith	-11.1953
▁సగటున	-11.1953
▁సార్వభౌమ	-11.1954
▁పొందడానికి	-11.1954
▁ప్రస్తుతము	-11.1954
▁లోహాల	-11.1955
▁బయలుదేరి	-11.1957
▁they	-11.196
▁ధర్మము	-11.196
▁నేటికీ	-11.1961
▁వాయిస్	-11.1962
▁మలి	-11.1964
▁వ్యవధి	-11.1966
▁మారుతూ	-11.1968
▁పరిజ్ఞాన	-11.1968
ేశ్వరస్వామి	-11.1971
▁పరిశీలించి	-11.1973
గోపాల	-11.1974
జ్యోతి	-11.1976
▁నాయకత్వ	-11.1976
మామిడి	-11.1981
▁విమర్శకులు	-11.1984
ward	-11.1986
▁ప్రదానం	-11.1987
▁పేదరికం	-11.1992
త్వానికి	-11.1994
ps	-11.1995
▁పాదరస	-11.1995
▁పరిణామం	-11.1998
▁బ్రాం	-11.1999
ఉత్తర	-11.1999
▁జెండా	-11.2001
▁శనివారం	-11.2005
▁వదిలే	-11.2006
పింగ్	-11.2006
పోవడానికి	-11.2011
▁పోల్చి	-11.2013
గ్రాడ్యుయేట్	-11.2018
▁స్పియర్	-11.2019
▁అంకె	-11.202
▁తీసుకోవడం	-11.2021
▁కుడా	-11.2022
-8	-11.2028
▁శత్రువుల	-11.2028
▁చాళుక్య	-11.203
▁ద్రవీభవన	-11.2031
way	-11.2038
▁స్కే	-11.2038
క్సైడ్	-11.2041
▁pri	-11.2042
▁ప్రాబల్య	-11.2044
ినేని	-11.2044
▁దర్శకుడిగా	-11.2046
▁చర్చ్	-11.2046
▁ఆంధ్రదేశ	-11.2049
▁పెంపొందించ	-11.2057
▁చెబుతుంది	-11.2059
▁పెక్కు	-11.2067
▁బొబ్బిలి	-11.207
▁కంచి	-11.2072
▁1919	-11.2073
▁పరివర్తన	-11.2074
▁పరీక్షల	-11.2075
▁నక్షత్రాలు	-11.2078
▁ప్రార్థించ	-11.2084
-15	-11.2087
▁కేశ	-11.209
▁1900	-11.209
▁This	-11.2097
▁దేవతా	-11.2102
▁సాపేక్ష	-11.2109
▁నైరుతి	-11.2109
▁పరంపర	-11.211
▁సిద్దాంత	-11.211
గుట్ట	-11.2116
▁అంబా	-11.212
▁బ్రాహ్మణులు	-11.2121
▁నాటకరంగ	-11.2121
▁సన్నిధి	-11.2122
▁ప్రదేశాన్ని	-11.2122
▁వెంబడి	-11.2123
కైనా	-11.2127
సాహిత్య	-11.2129
▁తీసే	-11.2133
ific	-11.2134
▁దినపత్రిక	-11.2136
▁శ్లోకాల	-11.2136
▁భగవంతుడ	-11.2137
▁సభ్యుడిగా	-11.2138
▁పరాక్రమ	-11.2142
▁దేవాలయము	-11.2145
▁పోలిక	-11.2148
▁వన్డే	-11.2149
▁సంఘాల	-11.2149
▁కలిగిస్తుంది	-11.215
హాస	-11.2152
▁అదేవిధంగా	-11.2153
▁చున్న	-11.2157
▁పదార్ధాలు	-11.216
▁గెలుచుకుంది	-11.2162
▁క్రిస్టియన్	-11.2162
చుకొని	-11.2166
▁సంబంధాల	-11.2166
cal	-11.2173
▁దౌత్య	-11.2175
▁మెరుగైన	-11.2175
▁చేసుకోవడానికి	-11.2175
▁br	-11.2175
▁పవిత్రమైన	-11.2177
▁సంబంధాలను	-11.2178
▁పాదాల	-11.2179
AD	-11.218
న్నిటి	-11.218
▁ఎక్కి	-11.2183
▁పనిచేసింది	-11.2183
పట్టు	-11.2187
▁ఋగ్వేద	-11.2188
▁విస్తీర్ణము	-11.2188
అవనిగడ్డ	-11.2188
▁నరసింహారావు	-11.2189
▁5311	-11.2191
లేకపోయింది	-11.2193
ore	-11.2196
▁హూ	-11.22
▁పెద్దపల్లి	-11.2201
▁ప్రీమియర్	-11.2201
▁పట్టభద్ర	-11.2204
▁విధముగా	-11.2207
వ్యవసాయ	-11.2209
▁జంగ్	-11.221
ద్రవ్య	-11.221
▁అంకితం	-11.2212
▁శరీరాన్ని	-11.2212
▁జరిపి	-11.2215
▁వేస్తారు	-11.2217
▁అండర్	-11.2222
▁హార్ట్	-11.2223
▁చూస్తున్న	-11.2227
▁ఏకాదశి	-11.2227
▁చింతపల్లి	-11.2236
తెలుగు	-11.2238
▁గదులు	-11.2239
▁చేరుకున్నారు	-11.224
▁బహిష్కరించ	-11.2241
▁అన్వేషణ	-11.2241
▁ఉంటుంద	-11.2241
▁వేల్స్	-11.2244
▁there	-11.2244
▁ఆహారాన్ని	-11.2244
▁ఉద్యోగులు	-11.2248
round	-11.2249
▁పెట్టడం	-11.2251
▁గెలుపొందిన	-11.2254
▁స్విట్జర్లాండ్	-11.2254
▁సంక్షోభం	-11.2258
▁శిఖరం	-11.2259
▁కట్టడం	-11.2262
▁నిర్మించబడ్డాయి	-11.2265
▁చూస్తూ	-11.2265
ావసరాల	-11.2269
▁రకాలైన	-11.2272
▁అయన	-11.2276
▁సంరక్ష	-11.2281
▁జయించి	-11.2282
mm	-11.2283
▁పెరుగ	-11.2286
▁పంపిన	-11.2286
▁తీసుకువచ్చి	-11.2287
▁నిరాశ	-11.229
వడమే	-11.229
▁కవరేజి	-11.2294
▁వ్యాయామ	-11.2294
▁స్థావరం	-11.2294
▁ధృవ	-11.2294
▁ఉపకరణాల	-11.2295
▁గరుడ	-11.2297
▁ఉల్లి	-11.2301
పితామహ	-11.2301
▁కట్టిన	-11.2301
▁విత్తనాలు	-11.2302
▁జగన్	-11.2302
▁ప్రారంభమై	-11.2302
▁వస్త్రాల	-11.2307
▁అమలాపురం	-11.2307
▁ఇంట	-11.2308
చ్చె	-11.2311
▁జయంతి	-11.2311
▁ముందుగానే	-11.2311
▁1,1	-11.2311
▁తప్పకుండా	-11.2314
జీవన	-11.2318
▁పాఠకుల	-11.2318
ోద్యమంలో	-11.232
ారట	-11.2321
▁తప్పనిసరి	-11.2322
▁దోహదం	-11.2323
▁కుమారుని	-11.2325
▁యంత్రాల	-11.2331
▁చేసేవాడు	-11.2333
▁కమ్యూనిస్ట్	-11.2334
▁హరిశ్చంద్ర	-11.2334
▁నగదు	-11.2334
▁నరక	-11.2336
▁జరిపించ	-11.2341
▁అందించడం	-11.2341
పబ్లిక్	-11.2342
▁నిజంగా	-11.2345
▁దేవుడి	-11.2346
▁మొత్తాన్ని	-11.2346
▁కళ్ళు	-11.2347
▁హుస్సేన్	-11.2347
▁నాణేల	-11.2347
▁అధ్యయనాలు	-11.235
▁పిండ	-11.2356
▁సరికొత్త	-11.236
ార్ద	-11.2361
▁లఘు	-11.2361
▁అడవులు	-11.2363
▁ప్రభాకర	-11.2363
▁శిల్పకళ	-11.2366
ందువలన	-11.2369
▁1857	-11.2369
▁అందుకుంది	-11.237
ోత్సవాలు	-11.2371
విషయ	-11.2373
▁సమయము	-11.2374
▁తెలుస్తున్నది	-11.2374
▁ముంబాయి	-11.2374
భ్యాస	-11.2376
▁లూయిస్	-11.2387
▁నీలి	-11.239
▁1,0	-11.2391
▁కుమారుడైన	-11.2391
▁కనీస	-11.2394
▁సంకీర్ణ	-11.2401
▁పనిచేస్తూ	-11.2401
▁క్వీన్	-11.2401
▁డిస్క్	-11.2402
ani	-11.2403
▁ఉచితంగా	-11.2403
మయ్యాడు	-11.2405
▁ఉత్పన్న	-11.2405
▁త్రిపుర	-11.2406
▁గురైన	-11.2417
▁మొదలుపెట్టి	-11.242
వారిపాలెం	-11.2421
▁రామలింగ	-11.2422
II	-11.2424
pos	-11.2425
▁అహ్మద్	-11.2428
▁జగ్గయ్యపేట	-11.2428
▁శ్రేణుల	-11.2428
▁నిలిచారు	-11.2428
▁సూచిస్తారు	-11.243
▁ముక్తి	-11.2434
న్నింటినీ	-11.2434
▁పోసి	-11.2435
▁కోస్తా	-11.2437
▁సంఘర్షణ	-11.2441
▁హామీ	-11.2441
▁ఆశించ	-11.2444
▁Indian	-11.2449
▁విభజించారు	-11.245
వాయువు	-11.2452
▁ఆదరించ	-11.2453
▁అక్బర్	-11.2455
▁మహాత్మ	-11.2456
▁ఖడ్గ	-11.2456
▁న్యాయస్థానం	-11.2462
▁దేని	-11.2464
▁ఉద్యోగాల	-11.2464
▁నడిపి	-11.2474
▁అనువైన	-11.2477
భిక్ష	-11.2478
పూర్వక	-11.2479
▁BBC	-11.2482
▁నిలిచాడు	-11.2482
ుకునేవారు	-11.2485
und	-11.249
▁తారా	-11.2492
▁దుర్యోధన	-11.2495
▁బీచ్	-11.2497
▁ప్రచుర	-11.2497
▁సోడియం	-11.2498
▁పత్రికలలో	-11.2501
మోహన	-11.2501
▁కోర్ట్	-11.2501
▁5071	-11.2503
బియన్	-11.2505
▁పాత్రికేయ	-11.2509
▁త్వరలో	-11.2509
▁అభయ	-11.2514
గుప్త	-11.2515
▁ఆధిపత్య	-11.2516
ఖై	-11.2519
▁అంబేద్కర్	-11.2522
▁మొదలై	-11.2523
ాయుధ	-11.2524
pla	-11.2528
▁ట్రె	-11.2535
▁two	-11.2536
▁సువాసన	-11.2536
other	-11.2538
ాచారి	-11.255
▁సూచించే	-11.255
’’	-11.2552
▁విధాలుగా	-11.2552
▁5082	-11.2556
ాలనుకున్న	-11.2556
కొచ్చి	-11.2557
▁తర్క	-11.2558
▁ఎప్పుడ	-11.2562
▁గుర్తించబడ	-11.2563
▁శ్వేత	-11.2563
▁అంగీకార	-11.2564
▁సూఫీ	-11.2566
▁గోవా	-11.2566
▁చూపిన	-11.2567
▁మోనో	-11.2575
▁బహిర్గత	-11.2577
▁ఇబ్న్	-11.2577
▁గార్డెన్	-11.2578
▁కవచ	-11.2578
▁తెరిచి	-11.2582
▁మరణానికి	-11.2587
▁గావించ	-11.2587
▁అవతరించింది	-11.2588
▁భావించాడు	-11.2589
▁ఎల్లప్పుడూ	-11.2591
▁మద్రాస్	-11.2591
▁అందిస్తున్నాయి	-11.2602
▁తీసుకున్నాడు	-11.2604
▁వైమానిక	-11.2604
▁అవకాశము	-11.2605
▁వాగ్	-11.2605
▁దున్న	-11.2605
టేషన్	-11.2611
▁సౌకర్య	-11.2612
▁ప్రమాణాలు	-11.2613
▁పాడేరు	-11.2614
ావస్థ	-11.2616
▁రోడ్దురవాణా	-11.2618
▁గ్రెగొర	-11.2619
▁ఇంటిపేరు	-11.2621
▁చేస్తుంటారు	-11.2622
▁అనంతగిరి	-11.2623
▁తరచు	-11.2628
▁రోమ్	-11.263
▁యూదులు	-11.263
▁బెజవాడ	-11.2632
▁మార్టిన్	-11.2632
▁నివేదించ	-11.2634
▁రూపాన్ని	-11.2634
▁ప్రయత్నాల	-11.2635
fa	-11.2635
▁సంస్కరణల	-11.2637
▁దుష్ట	-11.2639
లోపల	-11.264
▁ఎంచుకున్న	-11.2641
▁మైదాన	-11.2643
▁అమ్మోనియం	-11.2646
▁ఉంట	-11.2646
▁భౌగోళికంగా	-11.2648
పురాణం	-11.2649
▁కష్టాల	-11.2652
▁సృష్టించింది	-11.2653
ప్రారంభించబడింది	-11.2656
▁రావడంతో	-11.2657
▁మాసాల	-11.2659
▁జోసెఫ్	-11.266
▁ధృతరాష్ట్ర	-11.266
▁ఖైదీ	-11.266
▁స్కాట్లాండ్	-11.266
▁వినుకొండ	-11.266
▁నలుపు	-11.2662
ుద్దీన్	-11.2662
▁విత్తనాల	-11.2665
ure	-11.2667
▁దుంప	-11.2668
ఖాన్	-11.2672
▁ఎదిగి	-11.2676
▁వీణ	-11.2676
నగర్లోనూ	-11.2678
▁సంప్రదించ	-11.2687
▁అన్నపూర్ణ	-11.269
▁ప్రత్యక్షంగా	-11.269
▁గ్రేడ్	-11.2692
▁వెంక	-11.2692
స్వామ్య	-11.2701
▁బహదూర్	-11.2701
▁పొందడం	-11.2702
ోత్తర	-11.2703
▁కణజాల	-11.2704
▁భూభాగాన్ని	-11.2709
వుంటుంది	-11.2714
▁అప్పుడప్పుడు	-11.2715
▁వాల్మీకి	-11.2715
అలోపతీ	-11.2715
▁కాగజ్	-11.2715
▁పిదప	-11.2715
▁సన్యాసి	-11.2716
▁శ్రీనివాస్	-11.2716
▁సమాధుల	-11.2717
ఉన్నాయి	-11.2717
wi	-11.2718
స్వరూప	-11.2723
▁ఫౌ	-11.2726
ాభిషేక	-11.2728
▁నిర్మూలన	-11.2729
▁అస్థిర	-11.2729
▁భద్రాద్రి	-11.273
▁వైఎస్ఆర్	-11.273
▁ఊరికి	-11.273
▁Th	-11.2731
cc	-11.2734
▁అమలులోకి	-11.274
▁పయన	-11.2742
▁అభ్యర్థుల	-11.2743
▁ఐరిష్	-11.2743
▁లోకసభ	-11.2744
▁పగటి	-11.2745
▁మనుషులు	-11.275
రైన్	-11.2752
▁కలెక్టర్	-11.2757
▁ద్రౌపది	-11.2757
▁కార్టూన్	-11.2757
ions	-11.2758
▁సన్నివేశ	-11.2758
దొడ్డి	-11.2759
▁యాచ	-11.276
▁సరే	-11.2761
▁ఆడిన	-11.2763
ాకారంలో	-11.2763
▁ఉద్యోగి	-11.2765
▁ప్రబంధ	-11.2767
▁మ్యూ	-11.2768
▁ఇండోనేషియా	-11.2771
▁చక్కటి	-11.2771
▁మరణానంతరం	-11.2772
▁మృత్యు	-11.2772
▁ఆధారాల	-11.2772
బౌ	-11.2776
▁ఆటంక	-11.2776
▁ప్రాముఖ్య	-11.2779
▁గీస	-11.278
▁మహాయాన	-11.2781
▁అగస్త్య	-11.2785
▁నడుస్తుంది	-11.2785
ఫిబ్రవరి	-11.2787
సాక్షాత్	-11.2787
షియల్	-11.2795
ీంద్ర	-11.2797
▁ఉభయ	-11.2799
▁చిల్ల	-11.2801
▁పొరపాటు	-11.2801
▁డ్రైవర్	-11.2801
▁రాక్షసుల	-11.2802
▁మానవుని	-11.2804
▁చిలుక	-11.2806
▁మరుగు	-11.2808
▁ఇస్లామ	-11.281
▁వాహనాలు	-11.2811
▁ప్రెసిడెన్సీ	-11.2813
▁సంవత్సరాంతమున	-11.2813
▁సాక్షి	-11.2813
▁నేర్చుకున్న	-11.2815
ప్రతిష్ఠ	-11.2816
▁జన్యువు	-11.2817
▁పతకాల	-11.282
▁ప్రవేశపెట్టిన	-11.2831
▁ఇప్పటికి	-11.2837
▁ఎవర	-11.2837
▁ఒకానొక	-11.2841
▁గూఢ	-11.2841
▁చిహ్నంగా	-11.2843
▁క్రాస్	-11.2843
▁కపూర్	-11.2846
▁నాలుగో	-11.2846
▁జాతీయవాద	-11.2855
గలిగారు	-11.2856
▁తక్షణ	-11.286
▁ఇప్పటికే	-11.2862
మాంస	-11.2863
ster	-11.2866
▁హెక్టార్లు	-11.2866
▁పరిణామాల	-11.2868
▁చికాగో	-11.2869
▁ఖచ్చిత	-11.2869
▁స్కోరు	-11.2869
▁లంబ	-11.2871
▁పొంగ	-11.2874
▁జరుగుతూ	-11.2875
▁మండపం	-11.2876
వరపు	-11.2877
▁BC	-11.2883
▁అచ్యుత	-11.2883
▁gra	-11.2883
▁వివక్ష	-11.2885
ావధాన	-11.2888
▁పాలకుడు	-11.2889
▁ఆంగ్లో	-11.2892
▁విందు	-11.2893
▁చిత్రించ	-11.2895
▁సిక్ఖు	-11.2897
▁మొదలగునవి	-11.2897
▁స్థావర	-11.2902
▁ప్రముఖుల	-11.2903
▁మిశ్ర	-11.2903
▁లైఫ్	-11.2908
▁పర్యాటకులు	-11.2908
▁లాంగ్	-11.2909
▁మరుసటి	-11.2911
▁ఎదుర్కో	-11.2911
▁ఉత్సాహ	-11.2914
▁గడుప	-11.2917
▁Ar	-11.2917
పదార్థం	-11.2918
▁చెబుతాడు	-11.2918
ుటకై	-11.2918
▁ఆర్గనైజేషన్	-11.2925
▁కాల్షియం	-11.2925
హెచ్	-11.2926
▁ఛానల్	-11.293
arch	-11.2931
కూట	-11.2932
▁చెప్పాలంటే	-11.2934
▁శ్రీకృష్ణుని	-11.2935
▁నిప్పు	-11.2936
▁స్థానానికి	-11.2937
▁సౌకర్యాల	-11.2942
▁తీర్ధ	-11.2942
▁కనిపిస్తున్న	-11.2945
▁శివాలయం	-11.2947
▁ఇండి	-11.2947
▁కట్టించ	-11.2948
గలిగి	-11.2949
▁రాళ్ల	-11.295
వూరు	-11.295
▁Windows	-11.2954
▁వియత్నాం	-11.2954
▁ఎంతగానో	-11.2954
▁కుమారుల	-11.2954
▁లేచి	-11.2955
▁ప్రజ్ఞ	-11.2956
వాసి	-11.2958
గర్భ	-11.2959
▁బహుమతులు	-11.296
▁సిరియా	-11.2961
▁సలహాదారు	-11.2963
▁కెప్టెన్	-11.2968
గలిగాడు	-11.2968
▁సేవలందించ	-11.2968
▁బ్రాహ్మణుడు	-11.297
▁ఉండటానికి	-11.2971
వేశారు	-11.2971
▁వెంకటేశ్వరరావు	-11.2973
▁పదున	-11.2974
ake	-11.2974
▁కేంద్రీకరించ	-11.2976
▁ఇస్తున్న	-11.2977
▁తిరిగే	-11.2981
▁నైవేద్య	-11.2982
▁జోక్యం	-11.2982
▁రైల్	-11.2983
▁త్రిభుజ	-11.2983
▁దోమ	-11.2987
▁వాటితోపాటు	-11.2993
▁గీతాలు	-11.2994
▁చట్టాల	-11.2995
▁ఇతివృత్త	-11.2996
▁హాస్పిటల్	-11.2996
▁మధ్యప్రదేశ్	-11.2996
▁ఇంజను	-11.2997
▁తెలియకుండా	-11.2998
ేషను	-11.2998
ేటివ్	-11.3001
▁OS	-11.3006
▁సజీవ	-11.3008
▁నెల్లూరులోనూ	-11.3014
▁వెలుగులోకి	-11.3014
▁ఆకాశంలో	-11.3017
▁అంతర్భాగ	-11.3023
▁first	-11.3025
▁పిక్చర్స్	-11.3025
▁ఫ్రాన్సు	-11.3025
గోళం	-11.3026
▁వెలసిన	-11.3027
శ్వాస	-11.303
▁సవాలు	-11.3033
▁ఉపయోగించవచ్చు	-11.3035
▁నిర్దేశించ	-11.3047
ాక్షర	-11.3053
▁ప్రతిస్పందన	-11.3054
▁జాంబ	-11.3055
పెట్టిన	-11.3056
IT	-11.3058
ఘట్ట	-11.3058
▁వెనుకబడిన	-11.3059
▁వడ్డీ	-11.3062
▁భవనాల	-11.3065
ుడనే	-11.3065
▁నిలయం	-11.3066
▁శత్రువు	-11.3066
▁మారాయి	-11.3068
▁మేనమామ	-11.3068
▁గణతంత్ర	-11.3069
▁హోమ్	-11.3076
▁మెల్ల	-11.3077
▁సృష్టించాడు	-11.3078
▁180	-11.3079
▁car	-11.3082
▁వార్షికోత్సవ	-11.3082
▁గూగుల్	-11.3082
▁వివరిస్తుంది	-11.309
▁ఎగుర	-11.309
సంపద	-11.3095
▁యంత్రాలు	-11.3096
▁ప్రయోగశాల	-11.31
▁సేనా	-11.31
▁గండ	-11.311
▁దుగ్గిరాల	-11.3111
▁ఋతువు	-11.3111
▁పతకం	-11.3112
▁దసరా	-11.3112
▁ఆరోపించ	-11.3113
వచ్చిన	-11.3116
▁విస్తార	-11.3122
దేహ	-11.3124
▁మనోహర	-11.3124
▁క్రెడిట్	-11.3126
▁స్టిట్యూట్	-11.3126
▁మదీనా	-11.3126
సత్వ	-11.3126
బుద్ధ	-11.3128
▁తాలూకాలోని	-11.3128
▁పిలిచి	-11.3128
▁తేల్చ	-11.3129
▁కొయ్య	-11.313
▁నటులు	-11.3134
▁రక్షక	-11.314
▁కొనసాగిన	-11.3142
ఆంధ్ర	-11.3147
▁స్పందించ	-11.3148
▁గోపురం	-11.3148
డౌ	-11.3151
▁Com	-11.3151
▁వుండేది	-11.3154
▁సుయోధనుడు	-11.3155
▁పండగ	-11.3156
▁శతకము	-11.3156
▁ప్రయాణికుల	-11.3158
▁తెలిపాడు	-11.316
▁రహదారులు	-11.316
▁హిందు	-11.3164
▁మల్లి	-11.3165
కృత్య	-11.3168
▁దోపిడీ	-11.3169
▁1,3	-11.317
▁కావడానికి	-11.3171
▁విపరీతమైన	-11.3178
▁ఫార్ములా	-11.3184
▁అప్పారావు	-11.3185
▁కర్బన	-11.3185
ాగ్ని	-11.3186
ina	-11.3187
▁inter	-11.3188
▁ట్రీ	-11.3189
▁దీవులు	-11.3193
▁వేయించ	-11.3198
▁మూడింట	-11.3201
IA	-11.3201
▁సరసన	-11.3205
ప్రసాద	-11.3206
శ్రేణి	-11.3206
▁వేదాల	-11.3207
ries	-11.321
▁కలిపే	-11.3211
▁బాలీవుడ్	-11.3213
ring	-11.3213
ానుసారం	-11.3215
oll	-11.3218
▁కోల్పోయిన	-11.3222
▁ముదురు	-11.3223
▁1922	-11.3226
▁వ్యంగ్య	-11.3227
▁తయారైన	-11.3228
▁లభిస్తాయి	-11.3228
ండేది	-11.3234
▁మహానగర	-11.3238
▁శుక్రవారం	-11.3242
శారద	-11.3243
emb	-11.3244
▁ప్రీతి	-11.3246
▁తదితరులు	-11.3252
బడటం	-11.3253
▁ఎలుక	-11.3254
▁ద్వీపకల్పం	-11.3257
▁under	-11.3257
▁అధ్యక్షునిగా	-11.3261
▁కానుక	-11.3264
▁నిర్వహించబడుతు	-11.3264
▁వంశీ	-11.3265
▁కార్యాలయాలు	-11.3268
▁work	-11.3271
▁పడమటి	-11.3271
TT	-11.3272
దీప్	-11.3272
▁ద్వేష	-11.3273
▁వస్త్రాలు	-11.3273
▁గ్రంథాన్ని	-11.3274
▁హాజరు	-11.3275
▁చేయమని	-11.3279
▁చిరుత	-11.328
▁వాస్తు	-11.3284
స్తుంటే	-11.3287
▁ఆదోని	-11.3287
▁ప్రచురించిన	-11.3291
ణీయ	-11.33
▁ఎడ్వర్డ్	-11.3301
▁ఐఐటీ	-11.3301
ోపాధ్యాయ	-11.3301
▁ఇస్రో	-11.3301
▁గొడవ	-11.3302
▁న్యాయస్థాన	-11.3307
▁దంపతులు	-11.3308
▁ఉత్సాహం	-11.3312
pec	-11.3314
▁అలెగ్జాండర్	-11.3316
▁పోర్చుగీస్	-11.3316
▁ప్రేరేపించ	-11.3316
▁వైఫల్య	-11.3316
▁ఆక్రమించి	-11.3316
▁అన్యాయ	-11.3316
▁గడించ	-11.3317
▁విషాద	-11.3317
▁స్టోన్	-11.3318
▁ముక్త	-11.3321
▁మలుపు	-11.3322
▁ఉద్గార	-11.3323
▁రహదారుల	-11.3325
ాచార్యుల	-11.3325
▁కదిలి	-11.333
▁మహావీర	-11.3339
▁జలాశయ	-11.3345
▁దట్టమైన	-11.3345
ative	-11.3347
▁జీన్	-11.3347
▁మురికి	-11.335
▁చిహ్నాలు	-11.3351
▁హసన్	-11.3352
ముక్కల	-11.3357
▁dr	-11.3358
▁చేసుకోవచ్చు	-11.3358
▁సోమవారం	-11.336
▁చంద్రబాబు	-11.3362
▁ప్రదక్షిణ	-11.3363
ాయపాలెం	-11.3363
▁see	-11.3364
▁సంబంధము	-11.3369
▁బైబిల్	-11.3375
▁పరిశీలిస్త	-11.3378
▁ఫండ్	-11.3381
▁వ్యాసము	-11.3385
▁గోపాల్	-11.3386
ింపబడి	-11.3386
హ్లాద	-11.3387
▁పొందవచ్చు	-11.3388
▁బిజినెస్	-11.3389
ound	-11.3392
▁భాగస్వామ్య	-11.3395
▁బాపట్ల	-11.3397
▁నివాసితుల	-11.3397
▁రౌండ్	-11.3401
▁బాధపడుతున్న	-11.3402
▁పౌర్ణమి	-11.3404
▁పైకప్పు	-11.3404
▁వెతుక	-11.3407
▁మహాసముద్ర	-11.3417
▁సముద్రాల	-11.3419
▁విధ్వంస	-11.3419
పార్టీ	-11.342
▁ఋషి	-11.3421
▁నిర్మింప	-11.3422
▁సామర్ధ్యం	-11.3424
_{	-11.3424
▁ప్రాకృత	-11.3425
▁అవకాశాల	-11.3425
ాధిపత	-11.3432
▁వైఖరి	-11.3434
▁సొమ్ము	-11.3436
▁ప్రతీతి	-11.3437
▁అందజేస	-11.3439
▁ఆయుధాలు	-11.3439
ద్రావణ	-11.344
▁కవాట	-11.3442
▁షెల్	-11.3444
▁అందరినీ	-11.3446
▁గుమ్మ	-11.3447
▁ఆతిథ్య	-11.3449
▁జరిమానా	-11.3449
▁విచ్ఛిన్న	-11.3449
▁భంగిమ	-11.3449
బడుతూ	-11.3451
▁పోషించిన	-11.3457
▁యూదుల	-11.3458
▁గుర్తించడం	-11.3461
▁సంకీర్తన	-11.3464
▁ప్రతిష్ఠాత్మక	-11.3465
▁గాంచిన	-11.3465
▁కాల్చ	-11.347
మంగళ	-11.347
మవుతున్న	-11.3473
▁సాంగ్	-11.3476
▁term	-11.3478
▁డెవలప్	-11.3479
▁పంచాయతి	-11.3479
▁ఒంటరిగా	-11.3479
▁ధరిస్తారు	-11.348
▁ఇవ్వడానికి	-11.3483
▁సంబంధాన్ని	-11.349
▁జగన్నాథ	-11.3491
▁సంక్రాంతి	-11.3494
▁ఇరాక్	-11.3496
▁చేసినట్లు	-11.3498
▁భారతదేశములో	-11.3502
ుచున్నవి	-11.3503
సైట్	-11.3505
▁స్వదేశీ	-11.3507
▁వైకుంఠ	-11.3509
▁ట్యూబు	-11.3509
వేళ	-11.3512
▁దర్శకులు	-11.3516
▁వస్తూ	-11.352
▁తగ్గింది	-11.3521
ద్రోహ	-11.3526
▁తెలుసుకుని	-11.3529
▁తయారుచేసిన	-11.3531
▁బజార్	-11.3533
▁అవార్డ్	-11.3536
▁బళ్ళారి	-11.3539
▁సౌలభ్య	-11.3539
▁ముఖర్జీ	-11.3539
ానికై	-11.3543
▁గ్రామస్థులు	-11.3544
▁తాడేపల్లి	-11.3552
▁సన్యాస	-11.3552
▁కొనసాగుతుంది	-11.3553
ib	-11.3553
▁నియోజక	-11.3554
▁హనుమంతుని	-11.3554
▁యాంటీ	-11.3554
aj	-11.3559
చిత్త	-11.3564
▁లాభాల	-11.3564
▁ఇండోర్	-11.3565
▁temple	-11.3569
▁జోర్డాన్	-11.3569
▁సర్వసాధారణ	-11.3569
▁మహమ్మదు	-11.3569
▁సంచలన	-11.3569
▁సయ్యద్	-11.3569
▁రాజ్యసభ	-11.3571
▁అధికరణ	-11.3572
▁సవరించ	-11.3572
▁తగ్గుతుంది	-11.358
▁వాస్తవిక	-11.3581
▁శస్త్ర	-11.3582
▁సైన్సు	-11.3584
▁దంపతుల	-11.3586
▁మహోత్సవ	-11.3589
▁నమ్ముతారు	-11.359
పియన్	-11.3596
▁పూర్వీకులు	-11.36
▁చరిత్రకారుడు	-11.3604
▁తాప	-11.3606
రాశుల	-11.3613
▁విలసిల్ల	-11.3615
▁కిరీట	-11.3621
▁బ్రతుక	-11.363
లేడు	-11.3633
▁వారసుడ	-11.3633
▁వుంటారు	-11.3638
▁తీసుకుంటే	-11.3639
▁సంఘటనల	-11.3642
▁ధాతువు	-11.3645
ces	-11.3645
▁నీటిపారుదల	-11.3645
మార్చి	-11.3652
▁సాధించడం	-11.3653
▁రేపల్లె	-11.3658
▁ముగుస్తుంది	-11.366
▁దొరికిన	-11.3661
▁తొలిసారి	-11.3661
▁గోల్డెన్	-11.3661
▁సరిపడ	-11.3671
▁పురోగతి	-11.3676
▁దక్షిణాసియా	-11.3676
▁నొక	-11.368
▁నడుస్తున్న	-11.368
side	-11.3681
▁రాధాకృష్ణ	-11.3691
▁త్వరిత	-11.3691
▁అణిచి	-11.3691
▁స్మిత్	-11.3691
▁సేకరించిన	-11.3697
▁తీయుట	-11.3699
▁ప్రతిఫల	-11.3704
డూరు	-11.3706
▁హిందూపురం	-11.3706
▁మేడ్చల్	-11.3706
▁క్వార్టర్	-11.3706
▁ఏర్పాట్లు	-11.3706
▁గాఢ	-11.3707
▁5324	-11.3709
▁పట్టుకుని	-11.3721
▁శూన్య	-11.3722
▁నార్వేజియన్	-11.3722
▁రాయడం	-11.3725
▁విడిపోయి	-11.3727
▁గట్టు	-11.3727
air	-11.3728
చరణ	-11.373
▁హెల్త్	-11.3737
▁నాస్తిక	-11.3738
సరోవర	-11.3739
▁అర్చక	-11.3741
▁తీసింది	-11.3751
▁వైవిధ్యమైన	-11.3752
మాధ్యమిక	-11.3752
▁లైబ్రరీ	-11.3752
పరిషత్	-11.3754
▁జిన్నా	-11.3756
▁గుత్తి	-11.3762
4,000	-11.3764
▁క్లై	-11.3769
▁వనరు	-11.3771
▁వధించ	-11.3771
▁పుట్టింది	-11.3774
▁హంస	-11.3775
▁పిలువ	-11.3777
▁మళ్ళి	-11.3779
▁శీతాకాలంలో	-11.3781
క్సైడు	-11.3784
▁==	-11.3789
▁కొండూరు	-11.3789
▁అత్యల్ప	-11.3799
▁కొల్లూరు	-11.3799
▁స్వాధీన	-11.3801
▁నొక్కి	-11.3804
▁అంతకంటే	-11.3805
▁నివసించిన	-11.3808
▁సల్ఫేట్	-11.3814
▁సుపరిచిత	-11.3814
▁గంధర్వ	-11.3815
▁more	-11.3821
▁విద్యుద	-11.3822
▁పలాస	-11.3822
▁బండ్ల	-11.3824
▁పురుషుడు	-11.3826
జియన్	-11.3828
▁విశ్లేష	-11.3829
▁యాదాద్రి	-11.383
▁అరబిక్	-11.383
▁ఓడరేవు	-11.383
▁చంద్రశేఖర్	-11.3834
▁మాదిరిగానే	-11.3838
▁గదుల	-11.3841
▁అద్వైత	-11.3845
▁చుట్టుప్రక్కల	-11.3845
▁క్షార	-11.3847
ond	-11.385
▁తొందర	-11.3857
▁భగవద్గీత	-11.3861
www	-11.3861
▁మునుపు	-11.3864
left	-11.3864
▁మెజారిటీతో	-11.3867
▁సున్నీ	-11.3868
స్థాపన	-11.3868
▁మెజారిటీ	-11.387
AN	-11.3874
▁బాస్కెట్	-11.3876
▁చెప్తారు	-11.3876
సంపన్న	-11.3877
▁నటుల	-11.3881
గోపుర	-11.389
వ్యాధి	-11.3892
▁అర్జెంటీనా	-11.3892
▁క్షిపణుల	-11.3892
▁మాండలిక	-11.3892
▁వేగవంతమైన	-11.3893
▁place	-11.3893
▁టెట్రా	-11.3895
▁అవుతాయి	-11.3899
▁తీసుకుంది	-11.3899
▁1943	-11.3904
▁అందుచేత	-11.3904
▁అందుకని	-11.3908
▁వాయించ	-11.3912
▁చేపట్టింది	-11.3914
▁ఆటగాళ్ళ	-11.3916
▁ఈస్టిండియా	-11.3923
▁వారసత్వం	-11.3925
▁మహేష్	-11.3926
▁జార్జి	-11.3929
▁ఆమ్లాలు	-11.393
CA	-11.3931
▁అర్హ	-11.3936
ద్దీన్	-11.3938
▁పద్మనాభ	-11.3939
▁రబ్బరు	-11.3939
▁చిత్రలేఖన	-11.3939
▁తీసుకువెళ్ళ	-11.394
▁వికాస	-11.3941
▁తయారీదారు	-11.3941
▁గూడూరులోనూ	-11.3944
▁మొత్తము	-11.3947
war	-11.3948
▁భాగమైన	-11.3948
▁ప్రకటించిన	-11.3951
▁ప్రవేశించింది	-11.3954
▁కొన్నాళ్ళ	-11.3956
▁found	-11.3956
కెళ్ళ	-11.3962
▁జమీందారు	-11.3966
▁km	-11.397
▁కంప్యూటరు	-11.397
▁ప్రెసిడెంట్	-11.397
▁శ్రవణ	-11.397
▁బయలు	-11.3972
▁కనుగొన్నాడు	-11.3972
▁పథ	-11.3977
▁ప్రదేశాల్లో	-11.398
▁1,4	-11.3983
▁కుంకుమ	-11.3985
▁రాచరిక	-11.3986
▁రుసుము	-11.3987
▁మృతి	-11.3988
జన్య	-11.3989
▁10,000	-11.3996
గూర్	-11.4002
▁IBM	-11.4002
▁వెనుజులా	-11.4002
▁కార్యక్రమానికి	-11.4002
▁జమ్మూ	-11.4002
▁వ్యర్థ	-11.4012
▁పుంజ	-11.4014
▁1927	-11.4014
▁సుప్రీం	-11.4018
▁కాల్సియం	-11.4018
▁శాసనాల	-11.402
▁భాగస్వామి	-11.4023
▁మరియొక	-11.4032
▁జర్నల్	-11.4034
కూడదని	-11.4035
▁ఋషుల	-11.4035
▁కూతుర	-11.4045
▁పునర్నిర్మించ	-11.4049
▁మిషనరీ	-11.4049
▁రిజర్వ్	-11.4049
▁స్వదేశ	-11.4052
▁had	-11.4057
▁అనుకూలమైన	-11.406
▁తిలక్	-11.4066
▁చెందుతుంది	-11.4067
▁యూదు	-11.4067
ాధ్యక్ష	-11.4076
▁ఉపయోగపడే	-11.4077
పెడతా	-11.4077
నిచ్చింది	-11.408
▁చేబ్రోలు	-11.4081
▁నవాబ్	-11.4081
▁ఉష్ణమండల	-11.4082
▁అంతర్జాల	-11.4083
▁ఫాస్ట్	-11.4084
▁స్కాట్	-11.4087
▁పిచ్చి	-11.4087
▁చేసుకొన్న	-11.4089
▁కఠినమైన	-11.409
▁వాస్కో	-11.4091
పట్టి	-11.4092
వ్యాపారాత్మక	-11.4093
వేగం	-11.4096
▁నమస్కరించ	-11.4097
▁అస్సాం	-11.4098
▁పాక్షికంగా	-11.4101
▁ఎవరో	-11.4102
▁సాగే	-11.4107
▁ఎలిజబెత్	-11.4113
▁కథానాయిక	-11.4113
▁తల్లితండ్రుల	-11.4113
▁ద్రావిడ	-11.4113
▁like	-11.4114
▁విడాకుల	-11.4121
▁కూర్చుని	-11.4121
▁వహించింది	-11.4125
ధ్వజ	-11.4126
▁డెన్మార్క్	-11.4129
▁పెంపుడు	-11.4131
▁తిరిగ	-11.4132
వ్యాస	-11.4143
▁ఆటగాడు	-11.4145
▁1917	-11.4145
▁హరికథ	-11.4149
గమనం	-11.4152
సుందర	-11.4158
▁ఉంటాయని	-11.4162
▁అబ్దుల్లా	-11.4164
▁స్వరాజ్య	-11.4166
▁విపరీతంగా	-11.4168
▁రంగాల్లో	-11.417
▁కొంతవరకు	-11.4171
▁చిత్రకళ	-11.4176
▁మక్కువ	-11.4177
▁వందలాది	-11.4179
▁ఒక్కసారి	-11.4183
▁రెక్కల	-11.4186
▁తెలిపే	-11.4187
▁విలీన	-11.4188
▁Vi	-11.4189
▁జమ్ము	-11.4191
▁after	-11.4193
▁most	-11.4195
కర్ష	-11.4196
▁అనుమతిస్తుంది	-11.4198
▁ఆలోచ	-11.4198
▁వెంకయ్య	-11.4199
▁రావణుని	-11.4202
▁అందజేస్త	-11.4206
▁భైరవ	-11.4209
▁కైలాస	-11.4212
▁స్నేహితుడు	-11.4221
▁కృష్ణుని	-11.4224
భట్టు	-11.4227
▁అసలైన	-11.423
▁పోటీచేసి	-11.4231
▁నవీన	-11.4239
▁వూరి	-11.424
బడతారు	-11.4244
▁హెచ్చు	-11.425
ste	-11.425
▁పరిస్థితుల్లో	-11.4251
▁మేజర్	-11.4257
▁టెక్కలి	-11.4258
▁బేగం	-11.4258
▁షేర్	-11.426
వార్డ్	-11.426
▁శాతవాహన	-11.4261
▁లభి	-11.427
▁ఒక్కటే	-11.4271
▁కావటం	-11.4272
▁స్థిరపడిన	-11.4273
cur	-11.4273
▁ఉపశమన	-11.4274
▁మొఘలు	-11.4274
▁సహకరిస్త	-11.4275
▁ఒకేసారి	-11.4281
▁నందమూరి	-11.429
ైజేషన్	-11.4292
▁శ్రీహరి	-11.4301
▁శాతవాహనుల	-11.4303
▁కీర్తించ	-11.4308
▁నడిపే	-11.4315
▁సావిత్రి	-11.4323
▁shall	-11.4323
▁డెల్టా	-11.4323
▁పరోక్ష	-11.4323
▁పాండిత్య	-11.4323
▁1,5	-11.4323
▁దారుణ	-11.4324
▁విభాగానికి	-11.4325
▁కోచ్	-11.4329
▁ప్రబోధ	-11.4332
▁వికారాబాదు	-11.4339
▁ఆముదం	-11.4339
ందువల్ల	-11.4344
▁పాతాళ	-11.4344
▁రాజపుత్ర	-11.4344
ities	-11.4345
▁ల్యా	-11.435
వర్ష	-11.4352
▁వార్డు	-11.4353
ప్రపంచ	-11.4353
▁ప్రవహించే	-11.4353
▁ట్రెంచ్	-11.4355
▁బేసిన్	-11.4355
▁సెర్బియా	-11.4356
▁తట్టుకో	-11.4357
▁బైజాన్	-11.4357
▁తేలింది	-11.4358
▁సేవించ	-11.436
▁సర్వస్వ	-11.436
▁ఉద్భవించింది	-11.4369
భాయ్	-11.437
పాలక	-11.437
▁ఫిర్యాదు	-11.4372
▁ఉత్తరప్రదేశ్	-11.4372
▁తటస్థ	-11.4372
▁సామర్థ్య	-11.4372
lla	-11.4372
▁నెలకొని	-11.4375
సహాయ	-11.4382
▁సుంక	-11.4386
fin	-11.4387
▁సిఫార్సు	-11.4388
▁పర్షియా	-11.4389
▁విశ్లేషించ	-11.4391
▁being	-11.4396
▁పథకాల	-11.4397
▁అందుచే	-11.4397
▁ముఖ్యముగా	-11.44
▁ఒప్పించ	-11.4408
నొప్పి	-11.4413
▁కదులు	-11.4416
▁CPU	-11.4421
▁ఉపసంహరించ	-11.4421
▁ఏర్పరుస్త	-11.4421
▁కోస్ట్	-11.4421
▁1923	-11.4421
▁దాసరి	-11.4425
▁ట్రాన్స	-11.4428
▁కోడూరు	-11.443
less	-11.4432
▁ఎక్స	-11.4432
▁కొమరంభీం	-11.4437
▁మరాఠా	-11.4437
▁నెలకొన్న	-11.444
▁బాధితుల	-11.4441
పండిత	-11.4443
▁చేరుకుని	-11.4444
వృత్త	-11.4447
▁పోలీసుల	-11.4449
bha	-11.445
చిత్తూరు	-11.4452
▁సృజనాత్మక	-11.4454
▁సిడ్నీ	-11.4454
▁నిశ్చయ	-11.4455
▁ఈవిడ	-11.4455
▁పాల్పడ	-11.4459
▁అవక్షేప	-11.4459
▁ప్రశంసించ	-11.4468
వాహిక	-11.4469
▁years	-11.447
▁కీటకాల	-11.4472
▁ప్రచురించాడు	-11.4483
▁జలపాత	-11.4486
▁నిరంకుశ	-11.4487
▁స్వచ్ఛమైన	-11.4487
▁లాహోర్	-11.4487
▁than	-11.4488
▁సదుపాయం	-11.4489
స్కోప్	-11.449
▁ఉత్తర్వు	-11.449
▁శ్రీనాథ	-11.4493
▁పార్వతీపురం	-11.4495
▁వేమన	-11.4498
▁అసంతృప్తి	-11.4499
▁అమ్మవారు	-11.4503
▁డబ్బింగ్	-11.4503
▁పెట్రోలియం	-11.4503
▁పేరొందిన	-11.4503
▁సెకండరీ	-11.4503
▁సోమాలియా	-11.4503
ద్విబంధ	-11.4505
▁జగద	-11.4514
▁వచ్చిందని	-11.4514
▁దీనివల్ల	-11.4518
▁జయశంకర్	-11.452
▁సాయిబాబా	-11.452
▁డిపార్ట్	-11.452
▁సమక్షంలో	-11.452
▁నిర్మూలించ	-11.452
▁అలాస్కా	-11.452
▁ఆమ్లాల	-11.4521
▁అదృశ్య	-11.4528
▁భట్ట	-11.4529
▁గ్లూకోజ్	-11.4537
▁గ్లోబల్	-11.4537
▁విరాళాల	-11.4537
▁యెడల	-11.4537
ెన్నో	-11.4537
▁యార్క్	-11.4537
▁ప్రయోగాత్మక	-11.4541
▁భిన్నమైన	-11.4545
▁కొమ్ము	-11.4551
3,000	-11.4551
▁ప్రావిన్సు	-11.4553
▁లభ్యమవ	-11.4556
బలిజ	-11.4557
▁మౌంట్	-11.4558
▁స్తూప	-11.4565
▁తొండ	-11.4566
▁1926	-11.4568
▁మైనారిటీ	-11.457
▁యురేపియన్	-11.457
▁మదనపల్లె	-11.457
▁సైకిల్	-11.4571
▁మొదలవుతుంది	-11.4571
▁యుద్ద	-11.4571
▁సంపుటి	-11.4571
▁1914	-11.4572
▁40%	-11.4572
▁సంస్కార	-11.4574
▁అశ్వమేధ	-11.4587
▁బాక్టీరియా	-11.4587
▁ఎలక్ట్రిక్	-11.4587
▁విభజ	-11.4589
▁సరోజ	-11.4589
lect	-11.4593
▁హింసాత్మక	-11.4596
▁భాగస్వాముల	-11.4604
▁ఉపయోగించేవారు	-11.4604
▁సుమతీ	-11.4604
▁కేంద్రీకృతమై	-11.4604
▁వినియోగిస్తున్న	-11.4604
▁శిలాజ	-11.4616
▁చదువుతున్న	-11.4616
▁ఒంటి	-11.4617
▁చేరుతుంది	-11.4617
▁1918	-11.4618
▁తప్పించుకు	-11.4619
▁గొట్టం	-11.4619
▁information	-11.462
▁పరశురామ	-11.462
▁సోయాబీన్	-11.462
▁ఇంటర్వ్యూ	-11.462
▁సైప్రస్	-11.462
▁నాటకాల్లో	-11.4621
▁ఇప్పటివరకు	-11.4622
▁పెరుగుతాయి	-11.4624
▁సారంగ	-11.4627
▁చూచ	-11.4629
▁ప్రభావము	-11.4629
▁మద్ది	-11.4631
▁కాలేయ	-11.4637
▁అదృష్ట	-11.4637
▁ఇంకనూ	-11.4641
ko	-11.4649
ద్వీప	-11.4649
కీర్తి	-11.4651
▁మున్నగు	-11.4654
▁నావికా	-11.4654
▁తేలి	-11.4654
▁ఉచ్ఛ	-11.4655
ందరినీ	-11.4655
▁పూర్తిచేసి	-11.4656
▁1910	-11.4658
▁ఇంతవరకు	-11.4659
▁UN	-11.466
కపోవచ్చు	-11.4666
▁తెచ్చుకున్న	-11.4668
▁స్పష్టం	-11.4668
▁ప్రాకార	-11.4669
▁ఛాయాచిత్ర	-11.4671
▁షూటింగ్	-11.4671
▁విచ్చేస	-11.4676
▁her	-11.4686
▁వ్యూహాత్మక	-11.4687
▁బ్రహ్మాండ	-11.4688
▁బలరామ	-11.4688
▁ట్రస్ట్	-11.4696
▁దశకం	-11.4696
▁వెంకటాపురం	-11.47
▁మొదలుపెట్టారు	-11.4705
▁వాడుతున్నారు	-11.4713
▁భూలోక	-11.4717
▁విషయమై	-11.4723
▁వరాహ	-11.4724
▁హరిజన	-11.4736
▁నిర్వర్తించ	-11.4739
ling	-11.4739
▁టిప్పు	-11.4743
▁కల్పిస్తుంది	-11.4747
▁అబ్బాయి	-11.475
▁నడక	-11.4753
▁సంభవించాయి	-11.4754
▁ఐసోటోపు	-11.4756
▁భైంసా	-11.4756
▁గ్రీక్	-11.4756
సైడ్	-11.4761
▁వస్తాడు	-11.4762
గ్రాఫిక్	-11.4764
▁ఇవ్వబడిన	-11.4768
▁తత్వవేత్త	-11.4771
▁స్థాపించింది	-11.4773
ములందు	-11.4773
▁నశించ	-11.4774
▁తీసుకుంటారు	-11.4777
ార్జున	-11.4781
స్వామివారి	-11.4784
▁వేయబడింది	-11.4785
▁భస్మ	-11.4789
▁విండోస్	-11.479
▁పీఠభూమి	-11.4791
పాళ	-11.4793
▁ప్రసన్న	-11.4794
Di	-11.4794
▁అందిస్తాయి	-11.4803
కుంట్ల	-11.4806
▁అసిస్టెంట్	-11.4807
▁మాంచెస్టర్	-11.4807
▁వ్యాఖ్యాత	-11.4809
సైన్య	-11.481
పోకుండా	-11.4821
▁గవర్న	-11.4822
▁మూడ	-11.4822
▁కర్తవ్య	-11.4824
ave	-11.4825
▁జమీందార	-11.4829
▁రాబోయే	-11.4831
మిచ్చి	-11.4832
▁స్థావరాల	-11.4835
▁యువరాజు	-11.4837
▁తండా	-11.4838
▁ఊపిరితిత్తుల	-11.4841
▁అమాయక	-11.4841
▁పెరూ	-11.4841
▁రబీ	-11.4848
▁ఆకర్షిత	-11.4852
రాబాద్	-11.4853
▁సమాంతరంగా	-11.4855
▁కాంక్రీటు	-11.4858
▁కాలక్రమేణా	-11.4858
▁చిలకలూరిపేట	-11.4858
▁రిజిస్ట్రేషన్	-11.4858
▁లౌకిక	-11.4858
▁స్పటిక	-11.4858
▁అడగ	-11.4859
▁అంతేకాదు	-11.4859
▁పట్టాభిషేక	-11.486
డెడ్	-11.4862
▁ప్రయాణించి	-11.4866
చేసుకున్న	-11.4869
▁స్వాగత	-11.4873
▁క్రమశిక్షణ	-11.4875
▁చెలరేగ	-11.4875
▁యూరప్	-11.4875
▁శిఖరాల	-11.4888
▁అధినేత	-11.4889
మండప	-11.489
▁ఆక్సీకరణ	-11.4893
▁మనస్తత్వ	-11.4897
▁ఫస్ట్	-11.4899
లేకపోయాడు	-11.49
▁పాడుతూ	-11.4901
సాధన	-11.4902
▁కాళిదాసు	-11.491
▁రచయిత్రి	-11.491
▁గౌడ	-11.4912
▁సుదర్శన	-11.4919
▁వుండటం	-11.4921
మొత్తం	-11.4925
▁ఆవిర్భావ	-11.4927
▁తృప్తి	-11.4927
▁ఆర్మూర్	-11.4927
▁చట్టపరమైన	-11.4931
▁బ్రతికి	-11.4935
స్పంద	-11.4939
ఫార్మ	-11.4941
పరిమాణ	-11.4941
▁దీర్ఘకాలిక	-11.4951
▁ప్రవేశపెట్టింది	-11.4954
▁ఒప్పందాల	-11.4954
ఖ్యాత	-11.4955
▁వినాశ	-11.4963
▁వీక్షించ	-11.4964
▁పద్మశ్రీ	-11.4965
▁యోధుల	-11.4966
▁స్వాతంత్య్ర	-11.4971
▁ప్రవహిస్త	-11.4973
▁న్యాయవాద	-11.4974
▁సఫల	-11.4979
▁topic	-11.4979
నక్షత్ర	-11.4981
▁సరసు	-11.4983
▁సామ్యవాద	-11.4997
▁సమ్మె	-11.4997
▁నగరాల్లో	-11.5
men	-11.5003
రెండు	-11.5003
▁అంగుళాల	-11.5008
▁సియాటెల్	-11.5014
▁గాఢత	-11.5016
సాధక	-11.5018
▁ఇబ్బందుల	-11.5018
▁ఆరుద్ర	-11.5027
▁ఏడుగురు	-11.5034
rain	-11.5034
▁1911	-11.5035
ju	-11.5036
▁మూవీ	-11.5045
▁కలిసే	-11.5048
పదార్థాల	-11.5048
▁ఐస్లాండ్	-11.505
దక్షిణ	-11.5062
bit	-11.5066
▁అసాధ్య	-11.5067
▁చోదక	-11.5068
▁బందీ	-11.5068
▁శివరాత్రి	-11.507
▁ముఖ్యపాత్ర	-11.5074
▁సాధిస్త	-11.5076
▁కూలీల	-11.5079
▁విభజింప	-11.5092
press	-11.5094
▁సంతతికి	-11.5098
▁డాక్టరేట్	-11.5102
▁వివేకానంద	-11.5102
▁పునరుజ్జీవ	-11.5102
▁నియామక	-11.5102
ium	-11.5107
▁కాశ్మీర	-11.5118
▁మరణించింది	-11.5118
▁వాజపేయి	-11.512
▁అజ్ఞాత	-11.512
▁దిగుబడి	-11.512
▁గల్ఫ్	-11.512
▁పెట్రో	-11.5126
▁ఒంటరి	-11.5137
▁క్షీర	-11.5139
ox	-11.514
▁బాలకృష్ణ	-11.5159
చేసాడు	-11.5162
▁మంత్రిత్వ	-11.5167
▁నేర్చుకున్నాడు	-11.5172
▁చాంపియన్	-11.5173
▁వాయవ్య	-11.5173
▁తణుకు	-11.5173
▁ఏమాత్రం	-11.5173
▁కొలువై	-11.5177
▁సందర్శన	-11.5182
▁గింజ	-11.5183
adv	-11.5194
పద్మ	-11.52
▁ఆశ్రయించ	-11.5206
▁కలిగివుండ	-11.5206
▁కట్టుబడి	-11.5208
▁కిర్గిజిస్తాన్	-11.5208
▁జహీరాబాద్	-11.5208
▁శాస్త్రజ్ఞులు	-11.5209
▁మోటారు	-11.5209
▁కెన్యా	-11.5209
▁గడియార	-11.5209
rm	-11.5214
రావుపేట	-11.5215
ration	-11.5224
▁1925	-11.5225
ాన్సీ	-11.5226
▁చెప్పుకోవచ్చు	-11.5234
▁ప్రావీణ్య	-11.5244
▁పూర్తిస్థాయి	-11.5248
▁పొందుతున్న	-11.5251
▁ఉపాధ్యక్ష	-11.5251
▁సేలం	-11.5257
ిస్టులు	-11.5257
▁5022	-11.5258
vel	-11.5259
▁1916	-11.5262
▁జనసాంద్రత	-11.5262
▁సెంచరీ	-11.5262
▁భగత్	-11.5262
▁అనువుగా	-11.5262
▁స్కోర్	-11.5264
▁గాయకులు	-11.5275
light	-11.5276
▁ఇవ్వబడ్డాయి	-11.5277
▁నెరవేర్చ	-11.528
▁నెయ్యి	-11.528
▁తెలియజేయ	-11.5282
▁సూర్యనారాయణ	-11.5282
▁వర్షాకాల	-11.5286
ship	-11.5289
ise	-11.5291
▁నరసాపురం	-11.5296
▁సోషల్	-11.5298
▁విరమించ	-11.5299
▁కుమారస్వామి	-11.5302
▁పెరుగుతూ	-11.5302
▁అరబ్బు	-11.5303
▁పేపర్	-11.5308
chi	-11.5309
▁సెక్యూరిటీ	-11.5316
▁కూర్పు	-11.5316
▁గుర్తించవచ్చు	-11.5325
▁ముడిపడి	-11.5326
▁చేనేత	-11.5334
▁made	-11.5335
put	-11.5337
గలిగింది	-11.5338
▁పర్యవేక్ష	-11.5338
▁ఎందుక	-11.5338
▁మలచ	-11.534
ttle	-11.5341
▁ద్రావణం	-11.5341
▁భూగోళ	-11.5344
▁ఐరన్	-11.5348
▁పార్లమెంటరీ	-11.5352
▁స్టీఫెన్	-11.5352
▁మధుమేహ	-11.5352
▁గురువారం	-11.5352
▁వాహకనౌక	-11.5352
▁షరతు	-11.5353
▁పొడిగించ	-11.5355
ానంతర	-11.5355
tre	-11.5356
చేస్తున్న	-11.5364
▁ఈజిప్ట్	-11.537
▁ముంబయి	-11.537
ఆధారిత	-11.5373
▁సాగుతుంది	-11.5384
పెనమలూరు	-11.5388
▁ఉంగుటూరు	-11.5388
▁మహబూబాబాద్	-11.5388
▁వారణాసి	-11.5388
▁శ్మశాన	-11.5388
▁ప్రోగ్రాం	-11.5388
▁మమ్మీ	-11.5388
▁space	-11.5406
▁శ్లోకం	-11.5406
▁ఆస్ట్రియా	-11.5406
background	-11.5406
▁రికార్డింగ్	-11.5406
ుడవు	-11.5409
▁సెకన్ల	-11.5409
▁శివుడి	-11.5412
▁ఉత్ప	-11.5416
శిల్ప	-11.5419
▁పాలియోలిథికు	-11.5424
▁క్షేమ	-11.5424
▁house	-11.5424
▁జగన్నాధ	-11.5425
▁ఎదుగ	-11.5442
▁cause	-11.5442
▁హయాంలో	-11.5443
▁నిలవ	-11.5448
జేశారు	-11.5449
లేకపోయారు	-11.545
▁ఉగ్ర	-11.5451
సంబంధిత	-11.5458
position	-11.5461
▁ఎదుర్కొంటున్న	-11.5463
▁1,6	-11.5466
▁మిగిల	-11.5469
▁గెలుచ	-11.5475
▁1912	-11.548
▁క్రీడాకారుడు	-11.548
▁పొలం	-11.5481
▁ముఖద్వార	-11.5482
▁తిథి	-11.5489
ింపజేయ	-11.5494
పురాణ	-11.5495
ప్రథమ	-11.5496
▁సంభవించింది	-11.55
▁పోస్టు	-11.5514
▁సమ్మతి	-11.5514
▁water	-11.5516
▁తీసుకోవాలి	-11.5516
▁బాంబే	-11.5516
▁తరిమి	-11.5516
▁రాయితీ	-11.5522
▁ఉండుట	-11.5524
వారిపల్లె	-11.5525
▁భవిష్యత్	-11.553
నౌక	-11.553
▁సోదరుల	-11.5532
▁కలిగివుంది	-11.5534
▁అభినయ	-11.5536
నిరోధక	-11.5541
▁పట్టించుకో	-11.5544
▁స్తుత	-11.5547
ock	-11.5548
▁1924	-11.555
▁ద్రావ	-11.5552
▁పేర్కొంటారు	-11.5552
▁వేగవంతం	-11.5553
▁గాంచింది	-11.5553
▁పట్టుకొని	-11.5554
▁మరోసారి	-11.556
▁యెక్క	-11.5565
uth	-11.5569
▁సంరక్షించ	-11.557
▁when	-11.5571
▁భూపాలపల్లి	-11.5571
▁నేరాల	-11.5572
▁మొదలయిన	-11.5575
▁రోజులపాటు	-11.5575
▁రాణించ	-11.5576
▁చంద్రశేఖర	-11.5587
▁number	-11.5589
▁నిర్వచనము	-11.559
▁ప్రాచ్య	-11.559
▁పెట్టుకుని	-11.5591
▁వాసుదేవ	-11.5591
▁అరబ్బీ	-11.5592
▁వర్తించ	-11.5592
▁శ్రీనివాసరావు	-11.5594
SI	-11.5594
ుకొంటారు	-11.5596
తక్కువ	-11.5596
▁ప్రతిపత్తి	-11.56
▁దేవేంద్ర	-11.5601
చోట్ల	-11.5607
▁సమృద్ధి	-11.5608
▁టెక్సాస్	-11.5608
▁ప్రోటీన్	-11.5608
▁బందరు	-11.5608
▁సారవంతమైన	-11.561
▁పొందుపరచ	-11.561
తానని	-11.561
▁నిదర్శనం	-11.5611
▁కోల్పోయింది	-11.5615
▁పరిమితుల	-11.5617
▁అభ్యుదయ	-11.5626
▁గమనార్హం	-11.5626
▁రాజమహేంద్రవరం	-11.5626
▁శ్రావణ	-11.5626
▁మేనేజర్	-11.5627
▁అంతకుముందు	-11.5627
▁కిరణాలు	-11.563
ోత్సవాల	-11.5635
▁ప్యూర్టో	-11.5645
▁దశరథ	-11.5645
▁సీరియల్	-11.5648
▁రూరల్	-11.565
▁సమయాలలో	-11.5654
▁ఖరీదైన	-11.5664
▁ధ్వజస్తంభ	-11.5664
▁హంగేరి	-11.5664
▁కారాగార	-11.5664
▁సంభోగ	-11.5664
▁గంభీర	-11.5667
వృద్ధి	-11.567
బ్రాహ్మణ	-11.567
▁పొందుతారు	-11.5678
▁చీఫ్	-11.568
▁కలుషిత	-11.5682
▁ప్రతిరోజూ	-11.5682
▁విస్ఫోట	-11.5682
▁తాడికొండ	-11.5682
▁చక్రవర్తుల	-11.5683
▁పండిట్	-11.5683
▁అన్వయ	-11.5684
▁లేకపోతే	-11.5688
సాగింది	-11.5689
▁గజపతి	-11.5705
▁ప్రవాస	-11.5706
▁అధికారంలోకి	-11.5709
▁రామదాసు	-11.5709
▁కమ్యూనికేషన్	-11.572
▁లావాదేవీ	-11.572
▁చదివారు	-11.572
▁హెచ్చరించ	-11.572
▁సున్నితమైన	-11.5721
▁5334	-11.5722
▁శారదా	-11.5726
▁ఫ్యాక్టరీ	-11.5739
▁about	-11.5739
▁మట్టానికి	-11.5739
▁తగ్గిస్తుంది	-11.574
ఊ	-11.5745
▁బుధ	-11.5746
ible	-11.5747
com	-11.575
▁బారిన	-11.5754
▁మెయిన్	-11.5757
▁గెలాక్సీ	-11.5757
▁ఫోటోగ్రఫీ	-11.5757
▁బృహత్తర	-11.5757
▁ధర్మనందనా	-11.5757
▁శూద్ర	-11.5757
▁ప్రదేశానికి	-11.5758
▁మెరుపు	-11.5758
▁విష్ణుమూర్తి	-11.5761
▁కూర్చో	-11.5768
పర్వత	-11.5768
vid	-11.577
▁ఏర్పడ్డ	-11.5774
▁గర్భగుడి	-11.5777
▁కదిరి	-11.5777
▁him	-11.578
NS	-11.5785
న్నిటినీ	-11.5786
▁కథనాలు	-11.5788
▁మిగుల	-11.5789
▁ఇంచుమించు	-11.5795
వాడైన	-11.5798
▁పడగొట్ట	-11.58
ుకొంది	-11.5803
▁ల్యాప్	-11.5804
▁వలసదారుల	-11.581
▁ఆస్ట్రేలియన్	-11.5814
▁మునిసిపల్	-11.5814
▁మైక్రోసాఫ్ట్	-11.5814
▁కెనడియన్	-11.5814
▁ఎదిరించ	-11.5814
▁మంగోలియా	-11.5815
▁నిలయ	-11.5818
app	-11.5825
మహిష	-11.5828
▁రంగాల	-11.5831
ెక్కడ	-11.5832
▁తాత్విక	-11.5833
▁హుకుంపేట	-11.5833
▁dec	-11.5836
▁మల్టీ	-11.5841
▁తెలియజేస్తు	-11.585
▁అభిరుచి	-11.5852
▁కంట్రోల్	-11.5852
▁మెరుగుపరచ	-11.5855
▁కనుమల	-11.5859
▁మాతృభాష	-11.5864
▁గుంతకల్లు	-11.5871
▁appears	-11.5871
▁కార్యనిర్వాహక	-11.5871
▁ఫుడ్	-11.5873
▁నిర్వచనం	-11.5876
▁సమాంతర	-11.5881
ink	-11.5882
ika	-11.589
▁జనాదరణ	-11.589
▁కళాత్మక	-11.589
▁డయాక్సైడ్	-11.589
ull	-11.589
గ్రహణం	-11.5901
▁నైజీరియా	-11.5909
▁గంగాధర	-11.5911
▁ఫ్రాన్సిస్కో	-11.5911
▁దెబ్బతిన్న	-11.5913
▁సాధ్యపడ	-11.5913
▁కోయిల	-11.5919
▁మగధ	-11.5921
▁ఇథియోపియా	-11.5928
▁లిథువేనియా	-11.5928
▁సంతరించుకుంది	-11.5928
▁హనుమంతరావు	-11.5928
▁బృహస్పతి	-11.5928
▁క్లిష్ట	-11.594
▁period	-11.5947
▁అచ్చంపేట	-11.5949
▁పెడతారు	-11.5952
ిద్దరి	-11.5959
aga	-11.5967
▁1905	-11.5981
▁between	-11.5986
▁high	-11.5986
▁సారూప్య	-11.5986
▁శ్రేయ	-11.5986
పహాడ్	-11.5987
▁తెలియజేస్తుంది	-11.5989
హృద	-11.5992
▁జార్జియా	-11.5993
▁హ్యారీ	-11.5996
▁సన్యాసుల	-11.5997
▁క్లోరిన్	-11.6006
▁నియమించబడ్డాడు	-11.6008
dent	-11.6009
▁పల్లవుల	-11.601
▁చేయుదురు	-11.6015
•	-11.6016
▁ఇండస్ట్రీ	-11.6024
▁హెచ్చరిక	-11.6024
▁ప్రకాష్	-11.6024
▁ఉదహరించ	-11.6024
వెంట	-11.6026
▁హర్ష	-11.6026
▁5332	-11.6027
▁విశ్వనాధ	-11.6029
▁విద్యార్ధుల	-11.603
నాట్య	-11.6031
▁కూర్చున్న	-11.6031
షైర్	-11.6039
▁కనిష్ఠ	-11.6044
▁స్థితిగతుల	-11.6045
▁ద్రవిడ	-11.6049
▁ఎవరికీ	-11.6054
▁ఖండించ	-11.6056
▁కోణాల	-11.6059
▁శీతోష్ణ	-11.6063
▁ఆసుపత్రుల	-11.6063
▁వేణుగోపాల	-11.6063
శుద్ధి	-11.6063
▁కంభం	-11.6063
▁యాభై	-11.6066
బెర్గ్	-11.6067
ుతుంటే	-11.6068
బోతున్న	-11.6073
బృంద	-11.6073
▁తయారుచేస్తారు	-11.6082
▁ఇన్నింగ్స్	-11.6082
▁సువార్త	-11.6083
▁స్వప్న	-11.6084
▁లిబియా	-11.6085
▁సారథి	-11.6087
▁గంగానది	-11.6087
▁వేశ్య	-11.6095
▁మిసిసిపీ	-11.6102
▁పూర్తయిన	-11.6102
▁ఢీ	-11.6103
దోష	-11.6105
▁ఎన్నికై	-11.6112
atch	-11.612
▁people	-11.6121
▁అల్పసంఖ్యాక	-11.6121
▁దృక్పథ	-11.6121
▁రెస్టారెంట్	-11.6121
ననుసరించి	-11.6121
▁లక్ష్మీదేవి	-11.6126
ోత్తమ	-11.6126
▁give	-11.6127
▁విక్షనరీ	-11.6141
▁ఉదయగిరి	-11.6144
▁విశద	-11.6152
ేసరికి	-11.6158
▁శంకరాచార్య	-11.6159
ఉంటుంది	-11.616
▁ఇబ్రహీం	-11.616
▁large	-11.616
▁ఫెడరేషన్	-11.616
▁ప్రసిద్ధిచెందిన	-11.616
▁వధువు	-11.6161
▁అనుభూతి	-11.6161
6,000	-11.6173
గురించి	-11.6175
▁అడ్డతీగల	-11.618
▁దూరదర్శన్	-11.618
▁బద్వేలు	-11.618
▁తెప్పించ	-11.6182
▁నిర్ణయించుకున్న	-11.6182
▁క్రమబద్ధ	-11.6183
▁విశ్వసిస్తున్న	-11.6184
lass	-11.6189
▁తుర్క	-11.619
0°	-11.6192
▁అలహాబాద్	-11.62
▁గురుత్వాకర్షణ	-11.62
▁కనుమరుగ	-11.62
ోద్యోగ	-11.6201
▁ఫుల్	-11.6203
▁ఫొటో	-11.6203
▁కాంస్య	-11.6206
▁వేణు	-11.6208
బడుచున్న	-11.621
రచయిత	-11.6215
▁కొల్లిపర	-11.6219
▁బ్యాంకింగ్	-11.6219
▁సీరీస్	-11.622
రోహిణి	-11.622
▁పక్షము	-11.622
▁long	-11.6221
▁వేమూరు	-11.6228
▁ప్రళయ	-11.624
▁సంక్రమించ	-11.6241
▁ట్యాంకు	-11.6241
▁కలుపుతూ	-11.6247
▁ఉగ్రవాద	-11.6249
▁పుష్పించే	-11.6253
Cl	-11.6253
▁సన్నివేశాల	-11.6256
▁శిబిరాల	-11.6259
▁సరియైన	-11.6261
▁సెకండ్	-11.6261
▁పట్టుదల	-11.6266
▁కుమారుడి	-11.6267
▁సొరంగ	-11.627
వ్యాధుల	-11.6274
దృష్టి	-11.6275
▁సుభాష్	-11.6279
▁దేవరకొండ	-11.6279
▁అరవింద	-11.6279
▁many	-11.6284
▁గమనిక	-11.6289
▁తామర	-11.6291
పాదిస్తున్నారు	-11.6296
▁మహావిష్ణువు	-11.6299
▁లంబాడీ	-11.6299
▁మార్షల్	-11.6299
▁పిలువబడుతుంది	-11.6304
▁కప్పబడి	-11.6306
▁called	-11.6318
▁శోధన	-11.6318
▁పొన్నూరు	-11.6318
▁హర్యానా	-11.6319
▁ఇదొక	-11.6321
▁జోగులాంబ	-11.6338
▁తాడిపత్రి	-11.6338
▁మిలిటరీ	-11.6338
▁మధ్యధరా	-11.6339
▁దండెత్తి	-11.634
▁సత్తెనపల్లి	-11.6358
▁ఐశ్వర్య	-11.6358
▁నలభై	-11.6358
▁నిరాకరణ	-11.6358
error	-11.636
▁వృషణ	-11.6364
▁సత్కార	-11.6378
▁కజకస్తాన్	-11.6378
▁రమేష్	-11.6378
▁భేదం	-11.6395
ిస్తానని	-11.6398
▁సర్పంచ్	-11.6398
▁గువేరా	-11.6398
▁విచారించ	-11.6404
FS	-11.6404
▁బతిక	-11.6405
▁మాదిరి	-11.6412
▁పక్షాల	-11.6417
▁ముంచింగిపుట్టు	-11.6418
▁ఏజెన్సీ	-11.6418
▁నిమగ్న	-11.6418
▁ఆళ్వారు	-11.6418
▁ఎస్టేట్	-11.6419
▁‘‘	-11.6419
▁జరిగిందని	-11.6421
for	-11.6435
▁దురదృష్ట	-11.6439
▁ఊపిరి	-11.6439
▁తోడేళ్ళ	-11.644
▁వ్యర్ధ	-11.644
▁వైశ్య	-11.6445
▁జరిగ	-11.6452
ాగారం	-11.6456
▁స్క్వేర్	-11.6459
▁పృథ	-11.646
▁భాగాన	-11.6461
▁ధనవంత	-11.6461
kara	-11.6471
▁సార్వ	-11.6475
▁ద్వాదశ	-11.6479
▁డిస్ట్రిక్	-11.648
▁ఉద్దేశ్య	-11.6491
▁వీర్య	-11.6492
సమాజ	-11.6493
ంటుందని	-11.6496
▁యక్షగాన	-11.6499
▁సికింద్రాబాదు	-11.6499
▁పారదర్శక	-11.6499
▁ఆస్పత్రి	-11.6499
▁సామగ్రి	-11.6499
▁ముస్లిముల	-11.65
▁రొట్టె	-11.65
▁తొలగింపు	-11.6501
▁same	-11.6503
▁మల్లికార్జున	-11.6519
▁మురళీ	-11.6519
▁పింగళి	-11.6519
ోత్పత్తి	-11.652
నాటికీ	-11.6521
ఉపయోగించబడుతుంది	-11.6523
▁కంబోడియా	-11.654
▁ఫ్యూర్టో	-11.654
▁మైఖేల్	-11.654
▁చవిచూ	-11.654
▁బుధవారం	-11.654
లాజికల్	-11.654
▁చతురస్ర	-11.654
▁అధిష్టించ	-11.654
▁తీసుకెళ్ల	-11.6541
▁కశ్యప	-11.6541
పడతాడు	-11.6554
▁కల్పిత	-11.6558
▁ధూళి	-11.656
▁ఫ్లోరైడ్	-11.6561
▁విత్తిన	-11.6561
▁కత్తిరించ	-11.6563
▁టైగర్	-11.6565
▁ఎడిటర్	-11.6566
▁కొయ్యూరు	-11.6567
▁ఒకరైన	-11.6567
▁గుండెపోటు	-11.658
▁న్యూఢిల్లీ	-11.6581
▁పెదకాకాని	-11.6581
▁ఉయ్యాలో	-11.6581
▁కదిలే	-11.6582
భారతదేశ	-11.6583
▁known	-11.6584
▁new	-11.6585
వాహక	-11.6593
▁పాలకొల్లు	-11.6601
▁ప్రతాపరుద్ర	-11.6601
పరిగణించబడుతుంది	-11.6604
▁word	-11.6621
▁గ్రౌండ్	-11.6621
▁కింగ్డమ్	-11.6621
▁తపాలా	-11.6622
▁మెప్పించ	-11.6629
▁1,8	-11.6633
బడిందని	-11.6634
ుకొనుటకు	-11.664
▁సైన్సెస్	-11.6642
▁కళాఖండాల	-11.6644
▁అనురాగ	-11.6648
▁చేరుకుంటుంది	-11.6649
▁ప్రయత్నించిన	-11.665
సంహార	-11.6652
▁కలుగజేస	-11.666
▁రైల్వేస్టేషను	-11.6663
▁పటిష్ఠ	-11.6663
▁హేతువాద	-11.6663
▁ఉగాది	-11.6664
దలచ	-11.6666
▁ఉదజని	-11.6683
▁గడిపాడు	-11.669
▁చీల్చ	-11.6695
▁హతమార్చ	-11.6704
▁కురుక్షేత్ర	-11.6705
▁చోటుచేసుకు	-11.6707
▁స్వలింగ	-11.6709
▁పనిముట్ల	-11.6712
▁సులువుగా	-11.6725
▁అన్నదమ్ముల	-11.6725
▁ఇత్తడి	-11.6725
▁నౌకాదళ	-11.6725
▁ఏమైనా	-11.6726
ప్రకాశ	-11.6737
HTML	-11.6745
▁చిరునామా	-11.6745
▁భాజపా	-11.6745
▁సనాతన	-11.6745
▁బ్యూరో	-11.6745
▁సిల్వర్	-11.6745
పరీక్ష	-11.6746
▁అపూర్వ	-11.6746
చేసుకో	-11.6749
▁తుంగభద్ర	-11.6766
▁ప్రాదేశిక	-11.6766
▁ఎనర్జీ	-11.6766
▁నలుమూలల	-11.6766
తర్వాత	-11.6767
డిసెంబరు	-11.6767
▁అతీత	-11.6767
▁5322	-11.677
▁కాన్సర్	-11.6773
▁అధిరోహించ	-11.6787
▁రిజర్వేషన్	-11.6787
▁విమోచన	-11.6787
▁కరాచీ	-11.6787
▁తెలప	-11.6787
▁పిలిపించ	-11.6787
▁అహంకార	-11.6788
▁జానకి	-11.6789
విద్యుత్	-11.6802
▁కుమ్మరి	-11.6803
▁ఫ్లోరిడా	-11.6808
ేశ్వరాలయం	-11.6811
▁మాధ్యమాల	-11.6829
▁మంత్రిత్వశాఖ	-11.6829
▁సూచిస్తాయి	-11.6832
▁సెక్రటరీ	-11.685
▁రక్తపోటు	-11.685
▁స్కాటిష్	-11.685
▁ప్రాధమిక	-11.685
▁పరమపదించ	-11.685
▁పేటెంట్	-11.6851
▁జగత్తు	-11.6854
వయసు	-11.6854
▁సమయాల్లో	-11.6856
▁సెక్షన్	-11.6861
▁ఇంగ్లండు	-11.6871
▁పురాతత్వ	-11.6871
▁లెబనాన్	-11.6871
▁వ్యాపారవేత్త	-11.6872
ల్యూషన్	-11.6874
▁బ్యాట్స్	-11.6876
▁మైదానాల	-11.6879
▁పనిచేస్తాయి	-11.6892
▁తీశారు	-11.6894
▁తిరుగుబాటుదారుల	-11.6899
సృష్టి	-11.6904
▁చరిత్రకారుల	-11.691
▁కాల్పనిక	-11.6913
▁చుట్టుముట్ట	-11.6914
▁గడువు	-11.6915
ాశ్రయ	-11.6925
బుచ్చ	-11.6926
▁సల్ఫైడ్	-11.6934
▁తీసుకెళ్ళ	-11.6934
▁హీరోయిన్	-11.6935
▁మహేంద్ర	-11.6941
▁బురుజు	-11.6955
▁పదకొండు	-11.6955
▁గుజ్జు	-11.6955
▁చేకూర	-11.6957
▁గీతాల	-11.6967
▁where	-11.6976
▁పరిశుభ్ర	-11.6976
▁శైలుల	-11.6977
▁డైరక్ట	-11.6977
▁బెర్లిన్	-11.6979
సరిహద్దు	-11.698
▁మహాదేవ	-11.6993
▁మొదలుపెట్టాడు	-11.6998
▁దృష్ట్యా	-11.6998
▁formatt	-11.7019
▁criteria	-11.7019
▁కామన్వెల్త్	-11.7019
▁ఏర్పరుచు	-11.7019
▁copie	-11.7021
▁వినియోగదారులకూ	-11.7022
▁విద్యావంతుల	-11.7022
▁పర్యవేక్షించ	-11.7026
ease	-11.7039
▁నైపుణ్యాల	-11.7039
▁శ్రోతల	-11.704
▁పదిహేను	-11.704
▁భృగు	-11.704
▁గుర్రపు	-11.704
▁రుజువు	-11.704
▁మాసపత్రిక	-11.7041
▁మూసివేయ	-11.7043
▁చుండూరు	-11.7043
▁అమృతలూరు	-11.7045
వస్తువు	-11.7046
▁వెన్నెల	-11.705
▁చురుకైన	-11.7062
▁కాంగ్రేసు	-11.7062
▁కలుసుకున్న	-11.7062
▁సమర్థవంతంగా	-11.7062
▁గుర్తింప	-11.7064
పౌర	-11.7078
▁meets	-11.7083
▁suited	-11.7083
▁రిపబ్లికన్	-11.7083
▁హైస్కూల్	-11.7083
▁both	-11.7099
▁కమ్యూన	-11.7102
▁హైడ్రాక్సైడ్	-11.7105
▁మరికొంత	-11.7105
ింగ్టన్	-11.7106
▁విసిరి	-11.7106
ెక్కి	-11.7106
▁విఠల	-11.7118
క్రింద	-11.7126
▁ఫిరంగి	-11.7126
▁నాయకుడిగా	-11.7131
▁కుళాయి	-11.7148
▁మరికొందరు	-11.7148
▁దోహద	-11.7154
హెక్ట	-11.7162
▁విపుల	-11.7164
▁through	-11.717
▁డిప్యూటీ	-11.717
▁పుష్కలంగా	-11.717
▁లైసెన్స్	-11.717
▁యవ్వన	-11.717
▁ఓటర్ల	-11.717
▁పారాయణ	-11.717
▁ఫ్యాషన్	-11.7173
▁చిత్రకారుడు	-11.7175
కొద్దీ	-11.7176
▁రీతుల	-11.7177
▁dictionary	-11.7191
▁లిఖిత	-11.7191
▁స్వస్థలం	-11.7191
▁చైర్మన్	-11.7192
▁లక్ష్మీనారాయణ	-11.7193
భరణి	-11.7197
▁ఎక్కించ	-11.7204
ology	-11.7213
▁ఇంజినీరింగ్	-11.7213
▁న్యూజిలాండ్	-11.7213
▁శివరావుగారి	-11.7213
▁బురద	-11.7213
▁కోల్పోయారు	-11.7216
▁టెర్మినల్	-11.7235
▁వీరేశలింగం	-11.7235
▁సంతానోత్పత్తి	-11.7235
▁పరిశోధించ	-11.7235
▁నామమాత్ర	-11.7236
▁ఉసిరి	-11.7236
▁భంగం	-11.7238
▁మద్యపాన	-11.7238
పోరాట	-11.7253
▁అంత్యక్రియల	-11.7257
▁మేడికొండూరు	-11.7257
▁రెహమాన్	-11.7257
▁ఆనవాయితీ	-11.7257
▁పొదిలి	-11.7257
▁ఆఫీస్	-11.7257
ప్రమాణ	-11.7263
▁గెలవ	-11.7264
ోగ్రఫీ	-11.7277
▁extend	-11.7278
▁నిలిచాయి	-11.7278
▁వంశీయుల	-11.7281
పట్న	-11.7281
Sh	-11.7286
▁దొరికే	-11.7288
▁బతుకు	-11.7291
ాల్సిందే	-11.73
▁appropriately	-11.73
▁కంచికచర్ల	-11.73
▁మెమోరియల్	-11.73
▁అమ్మోనియా	-11.73
▁పరిగణనలోకి	-11.73
▁చైత్ర	-11.73
▁లక్ష్మీనరసింహ	-11.7301
▁తేజస్సు	-11.7301
▁పేలుడు	-11.7301
▁సృష్టికర్త	-11.7305
ుతుంటుంది	-11.731
▁follow	-11.7322
▁ప్రొఫెషనల్	-11.7322
▁రుగ్మత	-11.7322
▁వామపక్ష	-11.7322
▁బెంగాలు	-11.7324
▁కుబేర	-11.7325
▁కేదార	-11.7328
భూముల	-11.7337
▁రెండేళ్ళ	-11.7345
▁ఉపదేశించ	-11.735
▁లక్ష్మ	-11.7366
▁దాఖలు	-11.7367
▁నైట్రేట్	-11.7368
▁రామచంద్రపురం	-11.7368
▁వెలిగించ	-11.7371
▁చదరంగ	-11.7372
▁ఔత్సాహిక	-11.7389
▁నామవాచక	-11.7389
▁నిర్ణీత	-11.7389
▁సరిదిద్ద	-11.7389
▁ఫ్రంట్	-11.7394
▁క్రమేణా	-11.7411
▁అసంతృప్త	-11.7416
lock	-11.7429
▁యునెస్కో	-11.7433
▁శాస్త్రజ్ఞుడు	-11.7433
▁కమీషన్	-11.7433
ఆషాఢ	-11.7434
వలసిందిగా	-11.7434
▁విప్లవాత్మక	-11.7434
▁అనవసర	-11.7435
▁ప్రవహిస్తున్న	-11.744
▁నర్సాపూర్	-11.744
▁విధముల	-11.7444
▁భీం	-11.745
▁వికిరణ	-11.7453
▁నరసన్నపేట	-11.7455
▁వెదజల్ల	-11.7455
▁అపురూప	-11.7456
▁హ్యూస్టన్	-11.7456
▁త్రిమూర్తుల	-11.7457
▁వారణాశి	-11.7478
▁అంటరాని	-11.7478
▁ఆఖరు	-11.7478
▁ప్రాణాల	-11.7479
▁చెవుల	-11.7488
▁స్క్రిప్ట్	-11.75
▁నారింజ	-11.75
▁వారపత్రిక	-11.7502
▁ముందస్తు	-11.7502
▁విదేశీయుల	-11.7505
▁సంతృప్త	-11.751
నిర్వహణ	-11.7511
gree	-11.7519
▁ఎగ్జిక్యూటివ్	-11.7522
▁ఎడ్యుకేషన్	-11.7522
▁తంజావూరు	-11.7522
▁ఈజిప్షియన్	-11.7522
▁ఛేదించ	-11.7522
▁జస్టిస్	-11.7522
▁వర్తమాన	-11.7522
▁లినక్స్	-11.7523
▁ప్రకాశవంతమైన	-11.7524
▁పార్శ్వ	-11.7525
▁పరిపాలక	-11.7526
▁నావికుల	-11.7542
▁తుపాకీ	-11.7545
▁నాణ్యమైన	-11.7545
▁పౌరసత్వం	-11.7545
▁ఇందిర	-11.7546
▁నక్సల	-11.7546
▁జీవితాంతం	-11.7548
▁నాలుక	-11.7555
▁ముచ్చట	-11.7562
▁would	-11.7567
▁ఎనిమిదవ	-11.7567
▁మిలన్	-11.757
▁అలహాబాదు	-11.759
▁చెప్పుకోదగ్గ	-11.759
▁వ్యభిచార	-11.759
▁human	-11.759
▁స్పెషల్	-11.759
▁మిలటరీ	-11.759
▁షాపింగ్	-11.7592
శాస్త్రజ్ఞుల	-11.7594
▁order	-11.7594
▁కుడ్య	-11.7604
▁యిచ్చ	-11.7609
▁imp	-11.7609
▁మార్కండేయ	-11.7613
▁వితంతు	-11.7613
▁లభ్యం	-11.7613
▁మిడిల్	-11.7614
▁1,7	-11.7621
▁నడుపుతున్న	-11.7633
▁అధ్యాయం	-11.7635
▁తారీఖు	-11.7635
▁టిబెటన్	-11.7635
▁నిజాయితీ	-11.7635
ురాలైన	-11.7636
▁వారిద్దరి	-11.7637
▁సూక్త	-11.7643
▁పానీయాల	-11.7644
▁చుండ	-11.7656
▁ప్రజాభిప్రాయ	-11.7658
▁ఇండెక్స్	-11.7658
▁కేన్సర్	-11.7658
▁Hindu	-11.7658
▁పోలవరం	-11.7659
▁image	-11.7673
▁అభ్యంతర	-11.7681
▁అధునాతన	-11.7681
▁పులివెందుల	-11.7681
▁హాలీవుడ్	-11.7681
▁ఛాంపియన్షిప్	-11.7681
▁వేడెక్క	-11.7681
▁కోనేరు	-11.7681
▁టేబుల్	-11.7684
▁ఆకృతుల	-11.7699
జెంట	-11.7701
▁విరాళం	-11.7704
▁తెలుసుకోవడానికి	-11.7707
తాత్పర్యం	-11.7726
థెరపీ	-11.7726
▁వట్టిచెరుకూరు	-11.7726
▁మటుకు	-11.7727
▁గోపాలకృష్ణ	-11.7728
సంతనూతలపాడు	-11.7749
▁విద్యుదయస్కాంత	-11.7749
▁ఎమ్మెల్యే	-11.7749
▁ఉపఖండంలో	-11.775
▁కలియుగ	-11.7752
సాగాయి	-11.7761
మేరకు	-11.7766
లోకెల్లా	-11.7771
▁జపనీస్	-11.7772
▁చోడవరం	-11.7772
▁ఫిన్నిష్	-11.7772
▁అయోమయ	-11.7772
▁మనుష్యుల	-11.7772
▁సమర్థవంతమైన	-11.7773
▁సంపాదకత్వం	-11.7778
▁స్టోర్	-11.778
▁షెడ్యూల్	-11.7782
▁దెబ్బతిన	-11.7783
▁ఇనిస్టిట్యూట్	-11.7795
▁న్యూక్లియర్	-11.7795
▁శోక	-11.7811
▁యురేనియం	-11.7819
▁బ్రయంట్	-11.7819
▁ఇమామ్	-11.7819
▁ఉపయోగపడతాయి	-11.782
ాస్పద	-11.7822
▁ఆంజనేయస్వామి	-11.7828
▁పంచదార	-11.7832
▁కాడ్మియం	-11.7842
▁South	-11.7842
▁వెన్నెముక	-11.7842
▁తక్కిన	-11.7842
▁take	-11.7843
పాఠశాల	-11.7857
▁నైట్రోజన్	-11.7865
▁LED	-11.7865
▁ఔరంగజేబు	-11.7865
▁కందుకూరి	-11.7865
▁సారస్వత	-11.7865
▁ఆస్టిన్	-11.7865
▁దేవుళ్ళ	-11.7879
▁century	-11.7888
▁either	-11.7888
▁అమితాబ్	-11.7888
▁స్పోర్ట్స్	-11.7888
▁ట్యూబ్	-11.7888
▁వ్యవహరిస్తున్న	-11.7907
▁ఇక్ష్వాకు	-11.7911
▁పునరుత్పత్తి	-11.7911
▁డాక్యుమెంటరీ	-11.7911
▁సమర్ధించ	-11.7911
▁కంకిపాడు	-11.7911
▁కొలిచే	-11.7912
▁ధ్రువీకరించ	-11.7914
భూపాల	-11.7929
▁డబ్ల్యు	-11.7935
▁భట్టిప్రోలు	-11.7935
▁కరెన్సీ	-11.7935
▁వయోజన	-11.7935
▁అరెస్ట	-11.7943
▁తెల్లవార	-11.7945
▁నమః	-11.7958
▁వర్తిస్తుంది	-11.7958
▁పరిమళ	-11.7959
▁రాజభవన	-11.7959
గింజల	-11.7963
▁క్రీస్తుపూర్వం	-11.7982
▁యురోపియన్	-11.7982
▁ఘట్టం	-11.7993
▁పరిశుద్ధ	-11.7996
▁బొల్ల	-11.7997
గౌరవ	-11.7998
|-|	-11.8005
▁చిహ్నాల	-11.8022
▁world	-11.8029
▁విశ్వసనీయ	-11.8029
▁బైబిలు	-11.8029
▁ఒక్కోసారి	-11.8031
▁కళారూపాల	-11.8033
▁State	-11.8036
▁వరుణ	-11.8039
▁ఎలక్	-11.8039
▁విముక్త	-11.8051
▁భోజ	-11.8052
▁అప్లికేషన్	-11.8052
▁సామాగ్రి	-11.8052
▁శిరస్సు	-11.8052
▁వైజ్ఞానిక	-11.8052
▁వేరువేరు	-11.8053
▁స్టెయిన్	-11.8053
▁పాండ్య	-11.8053
సదుపాయ	-11.8065
విధానాల	-11.807
▁నెంబరు	-11.8076
▁లెనిన్	-11.8077
స్వాతంత్ర్యోద్యమ	-11.8082
▁జాతక	-11.8096
ాతీత	-11.8098
▁శృంగవరపుకోట	-11.81
ాంజనేయ	-11.81
▁సంస్థానాధీశుల	-11.81
▁గణేశ	-11.8102
▁స్తుతించ	-11.8121
▁గణాంక	-11.8123
▁గుజరాతీ	-11.8124
▁మున్సిపల్	-11.8124
▁రాజశేఖరరెడ్డి	-11.8124
▁ముగిసే	-11.8124
వల్సిన	-11.8144
▁చైర్	-11.8147
▁ఒడంబడిక	-11.8148
▁కొత్తవీధి	-11.8148
▁ఆఫీసర్	-11.8148
▁కలిగివుంటాయి	-11.8148
▁ఉక్రెయిన్	-11.8172
▁స్పర్శ	-11.8172
▁విభేదాలు	-11.8172
self	-11.8173
graph	-11.8174
రసాయన	-11.8185
కలహాల	-11.8186
▁పయనించ	-11.8191
పరిశ్రమ	-11.8192
Telugu	-11.8195
▁తైమూర్	-11.8195
▁వేములవాడ	-11.8195
▁సౌమ్య	-11.8196
ఏప్రిల్	-11.8216
▁కలెక్టరు	-11.822
▁స్పృహ	-11.822
▁ప్రత్యర్థుల	-11.822
గ్రాహక	-11.8223
▁బిరుద	-11.8228
Google	-11.8244
▁సమరయోధుడు	-11.8244
▁పామర్రు	-11.8244
▁ఎవరైతే	-11.8244
▁ఆలపించ	-11.8245
▁good	-11.8246
▁రాత్రుల	-11.8251
▁బెరీలియం	-11.8268
▁క్లుప్తంగా	-11.8292
▁వగైరా	-11.8292
▁శ్రీకృష్ణదేవరాయ	-11.8292
▁great	-11.8292
▁మేధావుల	-11.8292
▁అపరాధ	-11.8293
▁కొనియాడ	-11.8293
▁రొమ్ము	-11.8295
▁ఇచట	-11.8307
ాధీశ	-11.8308
▁బాలుర	-11.8309
▁సర్క్యూట్	-11.8316
▁మాంసాహార	-11.8317
▁సల్ఫర్	-11.8318
▁అసంఖ్యాక	-11.8341
▁స్వయంప్రతిపత్తి	-11.8341
▁పిలిచారు	-11.8341
▁ఘట్టాల	-11.8349
▁సేవలందిస్త	-11.8352
▁group	-11.8365
▁వెలువడ్డాయి	-11.8365
▁వారందరి	-11.8377
▁అడ్డంకుల	-11.8379
▁నెరవేర	-11.8389
▁పెనుగంచిప్రోలు	-11.8389
▁బెల్జియం	-11.8389
▁సురేష్	-11.8391
▁సభ్యత్వ	-11.8392
▁దత్తాంశ	-11.841
▁సమూహము	-11.8413
పద్ధతి	-11.8413
▁ఇంజనీరు	-11.8414
▁బాష్పీభవన	-11.8414
▁రప్పించ	-11.842
▁ఆపాదించ	-11.8423
▁during	-11.8439
▁బహిష్కరణ	-11.8439
▁ఆస్కార్	-11.8439
▁సంపుటాల	-11.844
▁సృజ	-11.844
▁కుంతీ	-11.844
▁దర్శకత్వ	-11.8454
▁వెంకటరమణ	-11.8463
▁వర్ధిల్ల	-11.8463
▁భేదాలు	-11.8468
▁పూరించ	-11.847
▁నెపోలియన్	-11.8488
▁క్రమేపీ	-11.8488
▁అభయారణ్యం	-11.8488
▁అధ్యాయాల	-11.8488
▁పలుమార్లు	-11.8488
▁పరిశోధకుడు	-11.8513
▁యూనివర్స	-11.8513
▁ఆజాద్	-11.8513
▁శేఖర్	-11.8513
▁మూలికల	-11.8525
▁దుర్మార్గ	-11.8531
▁పెరిగాయి	-11.8537
▁అనుసరిస్తున్న	-11.8538
హైడ్రేట్	-11.8538
వైకల్య	-11.8538
▁చేకూర్చ	-11.8539
▁ఆసిఫాబాద్	-11.8562
▁లాట్వియా	-11.8562
▁యంత్రాంగం	-11.8562
▁ఆవిర	-11.8568
▁లబ్ధ	-11.8569
▁డొమినికన్	-11.8587
ఫికేషన్	-11.8587
▁చెన్నకేశవ	-11.8587
▁show	-11.8587
▁పెరుమాళ్	-11.8587
▁మసాలా	-11.8588
▁ఐవరీ	-11.8588
కార్బను	-11.8588
▁స్వాతంత్ర	-11.8595
▁క్షితిజ	-11.8612
▁పెనాంగ్	-11.8612
▁బ్రాహ్మ	-11.8616
సూచక	-11.8619
▁అభ్యర్థన	-11.8637
▁పరీవాహక	-11.8637
▁small	-11.8637
▁తృతీయ	-11.8637
‘	-11.8638
▁కలుస్తుంది	-11.8638
▁life	-11.8638
▁లియోనె	-11.8639
మహర్షి	-11.8639
▁ప్రసిద్ద	-11.864
▁ఏంజలెస్	-11.8662
▁ఫిలిప్పీన్స్	-11.8662
▁కృతజ్ఞత	-11.8662
▁వశిష్ఠ	-11.8662
కృత్తిక	-11.8671
▁నిలిప	-11.8681
▁క్షమించ	-11.8688
▁పతాకంపై	-11.8689
▁అలవాట్ల	-11.8691
▁ఆటగాళ్ల	-11.8693
▁సుజాత	-11.87
దృశ్య	-11.8704
▁బంతుల	-11.8712
▁సూళ్ళూరుపేట	-11.8713
▁ఆజ్ఞాపించ	-11.8713
▁ఓడిపోయాడు	-11.8738
▁చెపుతారు	-11.8738
7,000	-11.8738
▁బెరడు	-11.8738
▁ఉంటోంది	-11.8739
▁అచట	-11.8742
▁మిరియాల	-11.8756
▁ఫిలింఫేర్	-11.8764
▁సారథ్యం	-11.8764
▁center	-11.8764
ఆగస్టు	-11.8767
ుకోవాల్సి	-11.8774
▁కర్పూర	-11.8789
▁సత్యభామ	-11.8789
▁రమ్మని	-11.879
▁వడ్ల	-11.8793
▁పురోహిత	-11.8814
▁తరుణంలో	-11.8815
8,000	-11.8824
▁ఆర్జించ	-11.8833
▁తనిఖీ	-11.884
▁గురజాడ	-11.884
▁చైల్డ్	-11.884
▁ఖతార్	-11.884
▁ప్రసరణ	-11.884
▁స్కంద	-11.8842
మొట్టమొదటిసారిగా	-11.8842
వ్యతిరేక	-11.8844
▁నగ్న	-11.8849
▁శృంగేరి	-11.8866
▁కార్పోరేషన్	-11.8866
లక్ష్మమ్మ	-11.8881
▁ఉరుము	-11.8883
▁పౌనఃపున్య	-11.8891
▁అప్పుడప్పుడూ	-11.8917
▁కళాకారిణి	-11.8917
▁శంకుస్థాపన	-11.8917
▁రాజనీతి	-11.8917
▁నిలకడ	-11.8918
▁నకిలీ	-11.8918
ాధ్యయన	-11.8921
▁పునరావృత	-11.8937
▁పిలుచు	-11.8937
▁పక్షాన	-11.8943
▁ఎకనామిక్	-11.8943
▁కల్వకుర్తి	-11.8943
▁ఇదంతా	-11.8943
▁భూస్వాముల	-11.8943
▁plant	-11.8943
▁సంఘటిత	-11.8943
idae	-11.8944
▁క్షీరదాల	-11.8951
▁language	-11.8969
▁మున్సిపాలిటీ	-11.8969
▁ఉల్లంఘన	-11.8969
▁అనుయాయుల	-11.8969
▁బృందావన	-11.897
▁దుకాణాల	-11.8971
▁పరిశోధకుల	-11.8984
▁స్వీడిష్	-11.8995
▁విఫణి	-11.8995
▁రిజర్వు	-11.8995
▁నిడివి	-11.8996
▁తాడేపల్లిగూడెం	-11.8999
▁ఆసిడ్	-11.9
స్తోంద	-11.9005
▁లీటర్ల	-11.9007
▁శిలీంధ్ర	-11.9021
ఛత్తీస్	-11.9021
▁అథారిటీ	-11.9021
▁ద్రవ్యోల్బణ	-11.9021
▁రేడియోధార్మిక	-11.9021
▁సానుకూల	-11.9021
▁కత్తుల	-11.9021
▁అన్నమాచార్య	-11.9023
హిందూ	-11.9028
▁సంక్షోభ	-11.9038
▁అహోబిల	-11.9047
▁సంప్రదింపుల	-11.9047
▁ఓజోన్	-11.9047
▁గ్రీసు	-11.9047
▁సెటిల	-11.905
spect	-11.905
▁ప్రోత్సహిస్త	-11.9053
తూర్పు	-11.9055
▁వ్యావహారిక	-11.9073
▁చాంపియన్షిప్	-11.9073
▁మాంద్యం	-11.9073
▁జాయింట్	-11.9073
▁పేరుపొందిన	-11.9073
▁మొదలయ్యింది	-11.9074
▁హోరిజోన్	-11.9099
▁కొవ్వూరు	-11.91
▁వెనక్కు	-11.91
▁ఫార్మాట్	-11.91
▁ప్రసవ	-11.9101
▁ధాతు	-11.9101
▁tree	-11.9103
హింస	-11.9125
▁శ్రేష్ట	-11.9126
▁కృతవర్మ	-11.9126
▁అకౌంట	-11.9126
▁బురుండి	-11.9126
▁సక్రమంగా	-11.9126
▁చరణ్	-11.9127
▁సంచరించ	-11.9129
వనరుల	-11.9142
ుకుందాం	-11.9146
▁దుమ్ముగూడెం	-11.9152
▁తీర్థయాత్ర	-11.9152
▁చింతలపూడి	-11.9152
duct	-11.9178
▁develop	-11.9179
▁మయన్మార్	-11.9179
▁సుప్రీంకోర్టు	-11.9179
▁స్ప్రింగ్స్టీన్	-11.9179
▁కొలుస్తారు	-11.9179
▁నేషన్స్	-11.9179
▁వచ్చేసరికి	-11.9179
▁భీకర	-11.9193
▁తంతు	-11.9196
▁శతావధాన	-11.9206
▁వెలిబుచ్చ	-11.9206
▁సంపాదన	-11.9206
▁దర్శనమిచ్చ	-11.9214
▁శోష	-11.9218
▁గొట్టాల	-11.9218
▁పెంపక	-11.9219
▁species	-11.9232
▁కొలెస్ట్రాల్	-11.9232
▁విద్యనభ్యసించ	-11.9232
▁స్ఫటిక	-11.9232
▁పనస	-11.9252
▁రగ్బీ	-11.9258
▁నిశ్చల	-11.9259
▁పురుషోత్తమ	-11.9259
▁పూర్ణిమ	-11.9261
▁స్థితుల	-11.9266
▁సర్కారు	-11.9272
నిర్దేశ	-11.9283
▁జమ్మలమడుగు	-11.9285
▁స్పీకర్	-11.9285
▁సిగరెట్	-11.9285
▁ట్రోఫీ	-11.9285
▁అంతర్యుద్ధం	-11.9285
అనూరాధ	-11.9285
▁include	-11.9312
▁public	-11.9312
▁ఉధృత	-11.9312
▁హైస్కూలు	-11.9312
▁అందుకనే	-11.9312
ాజీపేట	-11.9315
కొవ్వు	-11.9324
▁వెంట్రుకల	-11.9339
▁నమస్కార	-11.9339
ఆక్స	-11.9341
సంపుట	-11.935
▁నిడదవోలు	-11.9366
▁మూత్రపిండాల	-11.9366
▁విరాజిల్ల	-11.9366
▁వేధింపు	-11.9366
▁ఓడిపోయారు	-11.9366
▁సూక్ష్మజీవుల	-11.9366
శరీర	-11.9375
▁ఎరుక	-11.9388
▁రామరాయల	-11.9389
▁జ్యేష్ట	-11.9393
▁ప్రొద్దుటూరు	-11.9393
▁ఓరుగల్లు	-11.9393
▁ఖరీదు	-11.9393
▁ర్యాంకు	-11.9393
▁అసూయ	-11.9396
పశ్చిమ	-11.9405
▁తొమ్మిదవ	-11.942
▁దారితీస్తుంది	-11.942
free	-11.9432
నిర్జన	-11.9438
▁offence	-11.9447
▁ఒట్టోమన్	-11.9447
▁డ్రెయినేజ	-11.9447
▁సిఫారసు	-11.9447
▁అధికసంఖ్యలో	-11.9447
▁లభ్యత	-11.9447
▁పథకాన్ని	-11.9448
▁అరకులోయ	-11.9448
▁వంకాయ	-11.9448
▁పోకడ	-11.946
▁పదార్ధము	-11.9461
▁ప్రభావవంతమైన	-11.9474
▁హిరణ్య	-11.9474
▁స్వగ్రామం	-11.9484
పెడితే	-11.9498
▁Muslim	-11.9502
▁చట్టవిరుద్ధ	-11.9502
▁ప్రిన్సిపాల్	-11.9502
▁భోపాల్	-11.9502
▁నమోదైన	-11.9502
▁బ్రదర్స్	-11.9502
▁గ్యాలరీ	-11.9502
▁రాకపోకల	-11.9502
▁దేశాయ్	-11.9502
సహకార	-11.9516
విష్ణు	-11.9529
▁రెట్టింపు	-11.9529
▁స్టడీస్	-11.9529
▁ఐర్లాండు	-11.9529
▁పక్షపాత	-11.9529
▁వశిష్ట	-11.9529
▁చనిపోయారు	-11.9529
▁సింధూ	-11.9529
మార్పిడి	-11.9543
సీనియర్	-11.9543
▁అట్లాంటా	-11.9557
▁ఉల్లంఘించ	-11.9557
▁థెరీసా	-11.9557
▁హరప్పా	-11.9557
▁ఆగ్నేయాసియా	-11.9557
▁మలేరియా	-11.9557
▁జనావాస	-11.9557
▁బచ్చన్	-11.956
వలయును	-11.9582
▁మునిసిపాలిటీ	-11.9584
▁షెంగెన్	-11.9584
▁ఇండీస్	-11.9584
▁సిద్దిపేట	-11.9584
▁సంతరించుకున్న	-11.96
▁సేకరిస్త	-11.9609
▁క్రిస్మస్	-11.9612
▁క్రొయేషియా	-11.9612
▁నిష్ణాత	-11.9612
▁సుప్రభాత	-11.9612
▁ఉగాండా	-11.9612
▁కస్తూరి	-11.9612
▁family	-11.9639
▁షాజహాన్	-11.9639
▁సల్ఫ్యూరిక్	-11.9639
▁అరేబియన్	-11.9639
▁భానుమతి	-11.9639
▁పర్లాకిమిడి	-11.9667
▁భేతాళ	-11.9667
▁వారాణసి	-11.9667
▁హిస్టరీ	-11.9667
▁ఆకర్షణీయమైన	-11.9667
▁ఉస్మాన్	-11.9667
▁సంకోచ	-11.9668
▁ఊరేగ	-11.9669
ఞ	-11.9678
▁చతుర	-11.9684
=1/	-11.9695
▁citation	-11.9695
▁మెట్రోపాలిటన్	-11.9695
▁మోతీలాల్	-11.9695
▁ఎలాగైనా	-11.9695
▁ద్వంద్వ	-11.9695
▁పేరుగాంచిన	-11.9695
▁తార్కిక	-11.9695
▁చంద్రబోస్	-11.9695
▁సంజయ్	-11.9695
▁స్మరించ	-11.9696
▁రకపు	-11.9697
▁దామోదర	-11.9698
ఆమ్ల	-11.9698
తాండవ	-11.9704
▁నరసింగ	-11.9706
▁భిక్షు	-11.9707
▁అసుర	-11.9715
▁తల్లుల	-11.9718
▁భరద్వాజ	-11.9723
▁ఇన్సులిన్	-11.9723
▁పూర్తయింది	-11.9723
▁లోకోమోటివ్	-11.9723
▁కనెక్షన్	-11.9723
▁టర్కిష్	-11.9723
▁కైవసం	-11.9723
▁వెంకటరత్నం	-11.9723
▁ప్రత్యేకపూజలు	-11.9723
▁కొంకణ	-11.9724
▁సమ్మర్	-11.9725
▁ఇప్పించ	-11.9735
▁బంగాళాఖాతం	-11.9751
▁రజాకార్ల	-11.9751
▁భగవానుడు	-11.9751
▁very	-11.9751
▁రోబోట్	-11.9751
▁నెమలి	-11.9752
కాశీబుగ్గ	-11.9779
▁three	-11.9779
▁మెక్సికన్	-11.9779
▁లిథియం	-11.9779
▁మహర్షుల	-11.9779
▁పరుచ	-11.978
సంప్రదాయ	-11.9795
అమెరికన్	-11.9796
▁imprisonment	-11.9807
▁అతిశయోక్తి	-11.9807
▁ఫిలడెల్ఫియా	-11.9807
▁ఆత్రేయ	-11.9807
▁గడిపారు	-11.9807
▁యోధుడు	-11.9808
లిథువేనియన్	-11.9836
▁అక్కడక్కడా	-11.9836
▁లాంఛన	-11.9836
▁పదహారు	-11.9836
▁విభేదించ	-11.9841
ఛార్జ్	-11.9853
▁సాయపడ	-11.9854
▁ఆకాంక్ష	-11.9864
▁మౌఖిక	-11.9864
▁ఓడిపోయిన	-11.9864
▁ఉయ్యూరు	-11.9864
▁బిషప్	-11.9864
▁own	-11.9865
పుస్తక	-11.9889
▁నేతృత్వం	-11.9891
▁బుర్కినా	-11.9892
▁వృద్ధాప్య	-11.9892
వదిలివేయబడుతోంది	-11.9892
▁సాహిబ్	-11.9892
▁గాడిద	-11.9895
▁పాట్నా	-11.9898
▁అనిశ్చిత	-11.9921
▁ఆరాధిస్త	-11.9923
▁శ్రీవైష్ణవ	-11.9949
▁ఫ్రేమ్	-11.995
▁శరణార్ధుల	-11.995
▁కమిషనర్	-11.9978
▁క్షమాపణ	-11.9978
▁ధృష్టద్యుమ్న	-11.9978
▁పాకిస్తానీ	-11.9978
▁మాణిక్య	-11.9978
▁కురిపించ	-11.9978
▁భవంతి	-11.9978
▁చవితి	-11.9978
▁ఫరూఖ	-11.9978
▁గ్లోబ్	-11.9978
▁చందమామ	-11.9979
▁know	-12.0002
▁బంగాళాదుంప	-12.0007
▁నామినేట్	-12.0007
▁మదురై	-12.0007
▁సుస్థిర	-12.0007
▁population	-12.0036
▁should	-12.0036
▁భువనేశ్వర్	-12.0036
▁మెల్బోర్న్	-12.0036
▁గందరగోళ	-12.0036
▁విచక్షణ	-12.0036
▁సమతుల్య	-12.0036
▁ఊరగాయ	-12.0036
▁డెస్క్	-12.0036
▁వియోగం	-12.0036
▁పరిశీలక	-12.0037
నవంబరు	-12.0056
▁అనూహ్య	-12.0064
▁అణచివేత	-12.0064
▁అమావాస్య	-12.0064
▁శాటిలైట్	-12.0064
▁మరమ్మత్తు	-12.0064
▁విన్యాసాల	-12.0074
▁Coordinates	-12.0093
▁ఆల్కహాల్	-12.0093
▁కాంప్లెక్స్	-12.0093
▁వీరాస్వామయ్య	-12.0093
▁ఆల్బర్ట్	-12.0093
▁పరిణమించ	-12.0093
▁వాస్తుశిల్ప	-12.0094
▁ఫిలిప్పైన్	-12.0094
▁యాపిల్	-12.0094
▁పుష్యమి	-12.0094
▁మేనేజ్	-12.0107
▁అంతేగాక	-12.0109
▁అధ్యాయము	-12.0122
▁రిలయన్స్	-12.0122
▁రేడియేషన్	-12.0122
▁సియెర్రా	-12.0122
▁ఆళ్వార్	-12.0122
▁నిముషాల	-12.0123
▁సర్కిల్	-12.0125
▁బంజారా	-12.0152
▁కౌంసిల్	-12.0152
▁యాసిడ్	-12.0152
▁ప్రాచుర్య	-12.0161
▁ధనుర	-12.0164
అండమాన్	-12.0175
▁system	-12.0181
▁ప్రతిఘటన	-12.0181
▁మణుగూరు	-12.0181
▁ఆఫ్ఘన్	-12.0181
▁సంస్కర్త	-12.0181
▁రామలక్ష్మణుల	-12.0181
▁మధిర	-12.0181
{2}	-12.0182
గుంట్ల	-12.0192
▁శిఖరాగ్ర	-12.021
▁మైకేల్	-12.021
▁వితరణ	-12.0211
▁PHP	-12.024
▁ఎప్పటికప్పుడు	-12.024
▁కమీషనర్	-12.024
▁పర్యవసాన	-12.024
▁మృగశిర	-12.024
▁సర్వీసెస్	-12.024
చండీగఢ్	-12.024
▁త్యజించ	-12.024
▁కంట్రీ	-12.024
▁అమూల్య	-12.024
ేటపుడు	-12.0242
యెత్తున	-12.0245
▁కందుకూరు	-12.0269
▁కూర్చొని	-12.0269
▁కూనవరం	-12.027
▁అతికించ	-12.0272
▁బహుమతుల	-12.0286
ద్భుత	-12.0287
నరసింహ	-12.0293
▁తుళ్లూరు	-12.0299
▁నర్మదా	-12.0299
▁పెరిగాడు	-12.0299
రాజకీయ	-12.0323
▁మ్యూజియ	-12.0327
▁వెనువెంటనే	-12.0328
▁woman	-12.0328
▁అంగుళ	-12.034
▁ఏకగ్రీవంగా	-12.0358
▁బ్యాక్టీరియా	-12.0358
▁లాభదాయక	-12.0358
▁సభ్యదేశంగా	-12.0358
▁హుసేన్	-12.0358
▁సైంధవ	-12.0358
frac	-12.036
▁టార్గెట్	-12.0388
Whoever	-12.0418
▁కామెడీ	-12.0418
▁చిగుర	-12.0418
▁ఉదహరింపు	-12.0448
▁కాలిక్యులేటర్	-12.0448
▁అనుసరిస్తూ	-12.0448
▁మధుసూదన	-12.0448
▁ప్రంపంచ	-12.0448
▁తిరునాళ్ళ	-12.045
దైర్ఘ్య	-12.0478
▁అనధికారిక	-12.0478
▁జనమేజయ	-12.0478
▁మాద్యమము	-12.0478
▁శ్రేష్ఠ	-12.0478
▁శీఘ్ర	-12.0478
▁తిరోగమన	-12.0478
▁విసుగు	-12.0478
▁పితామహుడు	-12.0478
▁బజారు	-12.0479
▁నిశిత	-12.048
▁బలూచ	-12.0492
▁సుయోధనుడి	-12.0508
▁సైద్ధాంతిక	-12.0508
▁ఓట్టమన్	-12.0508
▁ఇరానియన్	-12.0508
▁కాస్పియన్	-12.0508
▁గెలుపు	-12.0509
▁హారతి	-12.0509
▁కృష్ణదేవరాయల	-12.0539
▁అంగీరస	-12.0539
▁హవేలీ	-12.0539
▁అన్వేషించ	-12.0539
▁సంస్థాగత	-12.0539
ఇంజనీరింగ్	-12.0567
▁elements	-12.0569
▁సిండ్రోమ్	-12.0569
▁ఆపరేటర్	-12.0569
▁క్రితమే	-12.0569
▁సందర్శిస్త	-12.0571
▁ఆధిక్య	-12.0587
▁అకాడెమీ	-12.0599
▁ఆకస్మిక	-12.0599
▁మాకవరపాలెం	-12.0599
▁ఉత్పాదన	-12.06
Wiki	-12.06
▁నైజాం	-12.06
▁pass	-12.0603
ిస్తారని	-12.0605
▁కుటీర	-12.0606
▁అహమ్మద్	-12.063
▁విస్పోట	-12.063
▁చాణక్య	-12.063
▁ఏమైనప్పటికీ	-12.063
▁కడ్డీ	-12.063
▁వాయిదా	-12.0631
▁వీటన్నిటి	-12.0631
▁రేణువుల	-12.0637
ఆంధ్రప్రదేశ్	-12.066
▁example	-12.0661
▁మహమ్మదీయ	-12.0661
▁త్రివిక్రమ	-12.0661
▁ఉజ్వల	-12.0661
▁నిదానంగా	-12.0661
▁ఆతిధ్య	-12.0661
ఔ	-12.9909
·	-13.937
