<unk>	0
<s>	0
</s>	0
.	-2.66342
,	-3.3181
▁	-4.3158
లో	-4.71085
▁నుండి	-4.73741
▁కి	-4.75499
ం	-4.84235
▁ఉన్నాయి	-4.94412
▁మీ	-5.0144
▁ఉంది	-5.04015
▁గ్రామం	-5.11416
▁దూరంలో	-5.17945
లు	-5.24731
ను	-5.26287
▁ఈ	-5.2723
▁10	-5.2779
ని	-5.40488
▁గ్రామంలో	-5.44685
గా	-5.48978
ల	-5.49951
కు	-5.52477
ు	-5.5733
▁మరియు	-5.58934
▁5	-5.62456
న	-5.6747
స్	-5.74397
▁కేంద్రం	-5.76638
ి	-5.80495
▁సమీప	-5.81392
▁ఒక	-5.82398
▁ఆ	-5.85077
వ	-5.89057
ా	-5.96738
ము	-5.99187
▁కూడా	-6.00659
్	-6.05312
తో	-6.06769
▁ద్వారా	-6.07706
ర్	-6.10734
క	-6.12125
న్	-6.13278
ాలు	-6.14134
కి	-6.15558
▁సౌకర్యం	-6.18888
▁లో	-6.23881
ాన్ని	-6.23893
▁సంఖ్య	-6.26436
▁పైబడిన	-6.26741
-	-6.28437
▁పాఠశాల	-6.28594
▁కళాశాల	-6.30629
ంగా	-6.33777
ల్	-6.34382
ర	-6.34709
రు	-6.36661
▁"	-6.37018
ే	-6.37172
త	-6.37436
▁జిల్లా	-6.37726
▁అ	-6.3821
▁ప్రభుత్వ	-6.3915
క్	-6.47224
▁యొక్క	-6.47276
▁వ్యవస్థ	-6.48107
మ	-6.48848
▁గ్రామానికి	-6.52134
▁లేదు	-6.5279
▁రహదారి	-6.53536
▁ఇది	-6.54152
రి	-6.56822
ట్	-6.56947
ారు	-6.5713
▁సరఫరా	-6.57326
:	-6.5824
వి	-6.6094
▁ఉన్న	-6.61003
ది	-6.63651
ానికి	-6.66901
▁ప్రాథమిక	-6.68929
▁ఆరోగ్య	-6.71864
లను	-6.7208
ుడు	-6.72394
▁వి	-6.73582
గ	-6.75521
ప	-6.7588
▁సామాజిక	-6.76216
నే	-6.7735
ట	-6.77914
రా	-6.81921
స	-6.82493
▁తన	-6.83528
▁లోపు	-6.83781
ాడు	-6.84074
మైన	-6.84252
ిన	-6.84536
"	-6.86587
▁వైద్య	-6.86667
▁ప్రైవేటు	-6.87276
డ్	-6.87419
▁కింది	-6.89153
▁అని	-6.90082
▁పాటు	-6.91058
▁ఎక్కువ	-6.92259
ాల	-6.92354
లా	-6.93006
▁వ	-6.93772
ింది	-6.94023
నా	-6.94493
య	-6.94886
;	-6.95186
డ	-6.99068
s	-6.99656
ంలో	-6.99802
లి	-7.02004
▁ప్రధాన	-7.02721
▁నీరు	-7.03008
▁కంటే	-7.0358
▁క	-7.0409
▁ఇతర	-7.04104
▁విద్యా	-7.04437
పు	-7.0573
▁/	-7.05806
▁-	-7.0583
▁వ్యవసాయ	-7.06398
ులు	-7.06854
▁చెందిన	-7.07641
సి	-7.07737
▁కు	-7.08001
డం	-7.08158
ద	-7.08473
పై	-7.08892
▁న	-7.12023
▁అనే	-7.13823
ీ	-7.14388
▁బ్యాంకు	-7.14825
▁కోడ్	-7.15328
▁విద్యుత్	-7.15336
▁ఉన్నారు	-7.15422
▁తరువాత	-7.16085
ాయి	-7.16353
▁మ	-7.16681
మా	-7.16746
▁ప	-7.17367
లోనూ	-7.17382
▁ఆయన	-7.17577
డి	-7.17946
▁జనగణన	-7.18885
▁ఆసుపత్రి	-7.19053
▁సినిమా	-7.1907
▁వారం	-7.19174
▁పబ్లిక్	-7.1943
▁వాణిజ్య	-7.19537
▁ప్రకారం	-7.19844
ాలను	-7.19981
▁కోసం	-7.20061
▁పథకం	-7.20202
▁ఎ	-7.20232
▁ఫోన్	-7.20535
లోను	-7.20678
▁లేదా	-7.20755
▁గంటల	-7.20809
డు	-7.21613
టి	-7.21792
కా	-7.2193
▁రెండు	-7.22087
▁షెడ్యూల్డ	-7.22736
▁భారత	-7.22791
▁బి	-7.23358
▁నుంచి	-7.23743
▁ఏ	-7.23872
▁రాష్ట్ర	-7.24049
లకు	-7.24449
మ్	-7.24894
▁సంస్థ	-7.2502
▁స్టేషన్	-7.25025
వా	-7.2519
▁ఒకటి	-7.25249
▁7	-7.25433
రీ	-7.25591
▁ఆఫీసు	-7.25751
▁పోస్టాఫీసు	-7.27406
మి	-7.27739
▁2	-7.28843
▁కా	-7.29207
▁ని	-7.29943
▁వైద్యశాల	-7.30287
లలో	-7.31285
▁అభివృద్ధి	-7.31534
▁·	-7.32322
▁స	-7.32907
▁ఇ	-7.33401
లోని	-7.34061
జ్	-7.34659
ూ	-7.34878
▁మా	-7.35008
డానికి	-7.35677
ప్	-7.35888
▁వ్యవసాయానికి	-7.3608
▁జాతీయ	-7.36853
యా	-7.37083
▁గా	-7.37333
నీ	-7.37517
▁డిగ్రీ	-7.37631
▁రోడ్లు	-7.37996
▁ఉప	-7.38112
న్న	-7.40326
▁3	-7.41165
▁బ	-7.41459
▁తిరిగి	-7.41692
▁the	-7.41933
▁వారి	-7.42997
▁ను	-7.43849
తి	-7.45124
▁1	-7.45191
▁లు	-7.45218
▁18	-7.46269
సు	-7.48528
▁మధ్య	-7.4908
▁విధంగా	-7.49344
▁నా	-7.49397
▁ప్రత్యేక	-7.49557
▁చాలా	-7.49702
▁ఉంటుంది	-7.49709
▁కలిగి	-7.49718
▁రైల్వే	-7.51062
త్	-7.51784
▁భూ	-7.51826
ుల	-7.52107
▁పెద్ద	-7.52124
▁కొన్ని	-7.52269
/	-7.52364
▁టి	-7.52975
▁జరుగుతోంది	-7.53046
ణ	-7.54038
▁ఏడాది	-7.54202
చ	-7.55319
▁4	-7.55494
▁సి	-7.56526
మ్మ	-7.56874
▁వరకు	-7.5722
▁వంటి	-7.57679
▁ఉత్పత్తి	-7.57722
▁19	-7.57938
▁నీటి	-7.5805
వు	-7.58147
▁లోని	-7.58403
ల్లో	-7.5851
▁రా	-7.58755
జ	-7.588
గ్	-7.5913
దు	-7.60957
▁6	-7.60981
▁కుటుంబ	-7.61103
వే	-7.61314
▁అనేక	-7.61755
n	-7.62043
▁శ్రీ	-7.62644
▁మురుగునీటి	-7.63589
▁అందుతుంది	-7.63918
లే	-7.65734
▁వారు	-7.65767
▁పొడుగునా	-7.65786
'	-7.66511
ో	-7.66765
▁పేరు	-7.6703
▁పి	-7.67094
▁ప్ర	-7.67187
▁బా	-7.67407
▁బస్సు	-7.67742
▁మండల	-7.68041
▁కో	-7.68879
మే	-7.70112
▁తెలుగు	-7.70257
ద్	-7.70858
▁మంది	-7.71344
▁సంఘం	-7.72319
▁ఆమె	-7.72474
▁అండ్	-7.72544
▁ము	-7.72658
▁శిక్షణ	-7.72781
▁2011	-7.72939
▁వృత్తి	-7.73053
▁నమోదు	-7.73075
రే	-7.73118
▁of	-7.73935
య్య	-7.73971
▁చేసిన	-7.74207
▁ల	-7.74242
▁8	-7.74544
▁పౌర	-7.74867
▁ప్రతి	-7.74903
▁జ	-7.75172
▁సంత	-7.7532
▁'	-7.75449
▁పా	-7.75629
తా	-7.7569
గు	-7.75949
▁జరుగుతుంది	-7.7645
:.	-7.76689
రో	-7.76698
▁త	-7.76737
హ	-7.76737
▁రవాణా	-7.77468
▁ఉ	-7.77502
టం	-7.77549
▁కాగా	-7.77681
చి	-7.78016
▁కొరకు	-7.78028
▁కార్యాలయం	-7.78314
ంది	-7.78475
▁విస్తరించి	-7.78716
▁ప్రవహిస్తుంది	-7.78977
కో	-7.79029
▁కాలువల	-7.79283
▁సామాన్య	-7.79464
▁గణాంకాల	-7.79675
▁మాధ్యమిక	-7.79819
▁సహకార	-7.79983
▁బృందం	-7.8034
▁డాక్టర్లు	-7.8039
▁మె	-7.80994
▁స్వయం	-7.81119
లీ	-7.81155
యు	-7.8124
▁మురుగునీరు	-7.81305
▁సా	-7.81386
పి	-7.81594
సీ	-7.81838
▁మీద	-7.82249
▁ఔషధ	-7.82422
▁కేంద్రాలు	-7.82546
ుని	-7.82557
దా	-7.82718
శ	-7.83187
జి	-7.83607
▁చిన్న	-7.83989
▁స్	-7.84018
▁మొదటి	-7.84176
▁వా	-7.84428
▁సొసైటీ	-7.84479
▁కులాల	-7.84497
▁సంరక్షణ	-7.84541
▁సబ్	-7.84563
▁వినియోగం	-7.84645
▁సేవా	-7.84752
▁శిశు	-7.85144
▁లైన్	-7.85408
▁సంపూర్ణ	-7.85424
▁మొదలైన	-7.85533
సా	-7.85698
▁తెగల	-7.85747
▁సంక్షేమ	-7.85789
▁పశు	-7.85803
ములు	-7.8592
▁సహాయక	-7.86067
▁జనన	-7.86222
టీ	-7.86525
▁సం	-7.86571
▁ప్రత్యామ్నాయ	-7.86603
పా	-7.86624
▁సైన్స్	-7.86647
▁ఆటో	-7.86675
ించ	-7.86914
▁ఆటల	-7.87103
▁కార్యకర్త	-7.87233
▁మైదానం	-7.87524
చే	-7.87567
▁ప్రాథమికోన్నత	-7.87914
▁మే	-7.88137
▁నిమిత్తం	-7.88164
▁పంపిణీ	-7.88169
▁బాలల	-7.88278
▁తర్వాత	-7.88316
▁మార్కెట్	-7.88327
అ	-7.88445
▁గ్రంథాలయం	-7.88708
▁పిన్	-7.88841
▁ఇంటర్నెట్	-7.88994
▁మొబైల్	-7.89179
▁వార్తాపత్రిక	-7.89296
)	-7.89508
▁ఆర్ట్స్	-7.89596
త్త	-7.89704
▁మరణాల	-7.89806
▁సంచార	-7.89879
▁ఆశా	-7.90018
▁మార్కెటింగ్	-7.90027
▁తమ	-7.90059
▁తో	-7.90087
ధ	-7.90311
▁లొకేషన్	-7.90388
▁జూనియర్	-7.90462
లతో	-7.90609
▁చేస్తున్నారు	-7.90764
▁లోను	-7.90897
▁మగవారి	-7.90933
▁జనాభాతో	-7.90984
▁పోలింగ్	-7.91353
▁పారామెడికల్	-7.91382
▁ఆడవారి	-7.91396
▁రీడింగ్	-7.91489
▁హెక్టార్లలో	-7.91681
▁చేయ	-7.91698
▁పారిశుధ్య	-7.91867
▁ఇళ్లతో	-7.91981
▁లాండ్	-7.91992
▁రూం	-7.92026
టు	-7.92245
▁అంగన్	-7.92278
▁వీధుల	-7.92321
▁మాతా	-7.92392
▁పోస్ట్	-7.92619
▁టెలిఫోన్	-7.92657
▁హ	-7.92712
▁వాడీ	-7.92735
▁సరఫరాల	-7.93229
▁పై	-7.93233
▁ఉత్పాదక	-7.9344
▁శ	-7.9345
▁ఆర్	-7.93679
▁మూడు	-7.94063
▁కొరియర్	-7.94099
ళ్ళ	-7.94165
న్నాయి	-7.94179
▁కెఫె	-7.94244
▁హాలు	-7.94394
▁వద్ద	-7.94417
▁పోషకాహార	-7.94425
▁అవసరాల	-7.94463
▁దూరం	-7.94468
▁కొ	-7.94477
▁పక్కనే	-7.94572
▁గృహావసరాల	-7.94857
▁సేకరించే	-7.95134
▁వస్తువులు	-7.95507
▁కంకర	-7.95591
బ్	-7.95617
▁పరపతి	-7.95752
▁9	-7.95888
▁అనియత	-7.95911
▁దివ్యాంగుల	-7.95915
▁సమీకృత	-7.95916
▁వ్యర్థాలను	-7.9594
▁ఇంటింటికీ	-7.96002
▁ఓ	-7.96003
ె	-7.96134
▁గ్రామ	-7.96275
▁బయోగ్యాస్	-7.9633
బ	-7.96341
జీ	-7.96384
▁ది	-7.96486
▁మరుగుదొడ్డి	-7.96515
▁ఏటీఎమ్	-7.96682
▁డిస్పెన్సరీ	-7.96687
▁అలోపతి	-7.96724
▁పాలీటెక్నిక్	-7.96927
▁చెత్తను	-7.96933
▁15	-7.97211
తు	-7.973
▁టెలిగ్రాఫ్	-7.97437
▁పట్టణమైన	-7.97559
▁పారబోస్తా	-7.97591
▁గ్రామాల	-7.97834
కే	-7.97922
▁జల	-7.9797
▁in	-7.97998
▁జనాభా	-7.98221
▁ఆఫ్	-7.98551
▁వనరుల	-7.98656
క్ష	-7.98745
▁కేంద్రమైన	-7.98815
▁మేనేజిమెంటు	-7.98987
▁వలన	-7.99012
▁ప్రాంతాల	-7.99048
ాలలో	-7.99431
▁బాలబడి	-7.99538
▁రోజుకు	-7.99556
▁అయితే	-7.99634
▁12	-7.99725
▁వే	-8.00084
▁చేశారు	-8.00602
▁అమలవుతోంది	-8.00798
ౌ	-8.00836
▁సు	-8.00853
▁ఉంటాయి	-8.01519
ాలని	-8.01861
▁కిలోమీటర్ల	-8.01985
▁అసెంబ్లీ	-8.02039
▁మి	-8.02157
▁చేసి	-8.03044
▁వరి	-8.03343
బడింది	-8.03411
యి	-8.03595
ంతో	-8.03671
▁కుళాయిల	-8.03802
యం	-8.04097
ిక	-8.04324
▁చ	-8.04333
ష్	-8.04367
▁పాఠశాలలు	-8.04474
▁దీని	-8.04847
ంద	-8.04939
▁దాని	-8.05228
▁బస్సులు	-8.05291
▁ప్రభుత్వం	-8.05481
▁అతని	-8.05528
▁అయిన	-8.05726
▁కానీ	-8.05768
▁మొత్తం	-8.05838
▁ఐ	-8.0597
▁గ	-8.06073
▁--	-8.06128
▁చేతిపంపుల	-8.06792
2	-8.06821
▁రోజువారీ	-8.06858
▁గుండా	-8.07044
▁ఇక్కడ	-8.07403
ిత	-8.07413
▁a	-8.07562
ండ	-8.07681
జా	-8.07888
ాలి	-8.08349
▁పో	-8.08357
ట్లు	-8.08545
ఫ్	-8.08635
ై	-8.08802
▁అవుతున్నాయి	-8.0887
▁డి	-8.09052
▁తెలంగాణ	-8.09174
▁సిబ్బంది	-8.09315
ంగ్	-8.09335
▁దూరంలోనూ	-8.09407
▁ఎస్	-8.09416
▁మండలం	-8.09427
బా	-8.09781
▁ఇంజనీరింగ్	-8.09795
u	-8.09892
లేదు	-8.1002
▁జరిగిన	-8.10551
మో	-8.10652
▁సమయంలో	-8.11163
రం	-8.11284
ాల్లో	-8.11434
ించి	-8.11682
పో	-8.11682
▁చె	-8.11724
పల్లి	-8.12082
బి	-8.12246
▁లా	-8.12251
యో	-8.12359
▁అది	-8.12474
ed	-8.13838
▁ఉత్తర	-8.14339
ట్ట	-8.14447
▁దక్షిణ	-8.14472
y	-8.14844
ండి	-8.14938
▁ఆంధ్ర	-8.15144
భ	-8.15416
▁అంటారు	-8.15438
ంత	-8.15498
▁వ్యవసాయం	-8.15646
▁గురించి	-8.1565
▁కాని	-8.15875
▁లేని	-8.15919
▁ప్రపంచ	-8.16077
మని	-8.16179
▁పె	-8.16288
బడిన	-8.16645
▁సౌకర్యాలు	-8.16977
కీ	-8.17121
ప్ర	-8.17121
▁20	-8.17201
నం	-8.17413
e	-8.17643
er	-8.1765
▁:	-8.17719
్లో	-8.1806
వారు	-8.18473
ాలకు	-8.18611
గి	-8.18916
▁తారు	-8.18975
▁అన్ని	-8.19111
రె	-8.19197
స్ట్	-8.19308
వచ్చు	-8.19707
▁మొదలైనవి	-8.19741
▁16	-8.19764
▁17	-8.19844
▁ర	-8.20164
▁మాత్రమే	-8.20187
మీ	-8.20211
▁14	-8.20366
▁లేరు	-8.20578
▁11	-8.20835
▁పార్టీ	-8.20972
o	-8.21137
▁నేరుగా	-8.2139
▁ముందు	-8.21502
al	-8.21525
A	-8.21544
ళ	-8.21597
ళ్ల	-8.22009
▁వచ్చిన	-8.22527
ష	-8.23477
▁రాజ	-8.24045
▁అను	-8.24201
ing	-8.24665
▁మహా	-8.24889
▁శాల	-8.24904
ట్టు	-8.25119
▁S	-8.25183
00	-8.25371
▁గో	-8.25453
▁పలు	-8.25716
▁జా	-8.25803
▁బహిరంగ	-8.25914
తీ	-8.26018
▁కొత్త	-8.26146
▁చెప్ప	-8.26271
▁A	-8.26329
కుండా	-8.26403
▁రాష్ట్రం	-8.26419
ుతుంది	-8.26589
▁ఇద్దరు	-8.26618
▁అతను	-8.26654
▁కె	-8.2671
డా	-8.26774
▁and	-8.269
a	-8.26911
▁కాలంలో	-8.27371
వ్	-8.27508
ేందుకు	-8.28173
కం	-8.28182
▁ప్రముఖ	-8.28265
▁వల్ల	-8.28489
నో	-8.28678
▁భాష	-8.29048
▁శుద్ధి	-8.29054
టర్	-8.29327
▁to	-8.29359
▁య	-8.29423
ములో	-8.29447
▁గు	-8.29619
నూ	-8.30511
▁కథ	-8.30653
ంచ	-8.30682
▁తిరుగుతున్నాయి	-8.31027
▁లే	-8.31265
కొ	-8.31341
▁ఏర్పాటు	-8.31472
▁మన	-8.31483
1	-8.31584
ిస్తుంది	-8.32083
▁మంచినీటి	-8.32095
▁అతి	-8.32389
▁తా	-8.32615
p	-8.32637
టా	-8.32904
▁వివిధ	-8.3317
▁మో	-8.33199
▁13	-8.33458
ప్ప	-8.33669
▁రక్షిత	-8.33773
▁భ	-8.33816
థ	-8.33874
▁అందుబాటులో	-8.34143
ైన	-8.34341
▁ఇందులో	-8.34562
క్క	-8.34858
C	-8.35018
ండ్	-8.35111
▁మండలానికి	-8.35505
▁అన్న	-8.35636
▁దీనిని	-8.35687
వీ	-8.36039
▁పాత్ర	-8.36337
▁రామ	-8.37248
వనరుల్లోకి	-8.37298
▁సంవత్సరాల	-8.37446
ంగ	-8.37622
▁అవ	-8.37687
▁చేసే	-8.37764
▁పూర్తి	-8.37945
వర్	-8.3822
వ్వ	-8.38471
d	-8.38475
ూరు	-8.38514
g	-8.38602
▁మంచి	-8.38674
▁ఆర్థిక	-8.38898
’	-8.39023
▁సంగీత	-8.39215
▁ఇవి	-8.39609
▁ఒకరు	-8.39675
▁ట్రాక్టర్లు	-8.39823
i	-8.39861
ించారు	-8.39877
▁లోనూ	-8.39896
▁s	-8.40043
▁ద	-8.40093
▁అధిక	-8.40693
నె	-8.41027
3	-8.4127
దీ	-8.41832
డీ	-8.41903
▁చేసింది	-8.41993
▁దేవ	-8.42005
▁వదులుతున్నార	-8.42087
▁పూ	-8.42214
c	-8.42255
▁కేంద్ర	-8.42263
గల	-8.42376
రాజు	-8.42438
ిస్తూ	-8.42973
▁యు	-8.43137
▁జి	-8.4314
కర	-8.43342
▁కాల	-8.43376
▁50	-8.43411
▁రి	-8.43475
మును	-8.43584
సం	-8.43744
ించిన	-8.43901
టానికి	-8.43967
!	-8.44011
?	-8.44397
▁కలిగిన	-8.44554
▁ఒ	-8.4461
▁ప్రజలు	-8.44757
ిస్తారు	-8.44943
▁నాలుగు	-8.45144
▁ఉండే	-8.45145
▁పొంద	-8.45402
రావు	-8.45575
▁వె	-8.45659
▁చేర	-8.45862
5	-8.45917
▁కే	-8.45945
▁రెండవ	-8.46019
▁సె	-8.46305
▁వాడేందుక	-8.46439
▁వాటి	-8.46735
▁కారణంగా	-8.4675
▁వై	-8.46767
▁ఎం	-8.46817
▁దేశ	-8.46826
ంబ	-8.4693
▁అనేది	-8.47034
▁సంవత్సరం	-8.47718
మె	-8.48107
ద్ద	-8.48374
మై	-8.48375
▁తయారు	-8.48487
▁ఖ	-8.48669
M	-8.48692
re	-8.48772
▁గల	-8.48901
▁‘	-8.48907
▁దా	-8.49116
▁చే	-8.49586
▁ముగ్గురు	-8.49798
▁రాజకీయ	-8.49898
బడి	-8.50015
▁కలిసి	-8.50147
ష్ట	-8.50502
ముల	-8.50539
▁వాడ	-8.5094
సె	-8.51208
S	-8.51211
▁బె	-8.51341
▁జరిగింది	-8.51446
▁(	-8.51697
k	-8.5196
వాడు	-8.52081
రణ	-8.52164
▁పొ	-8.52171
ుతూ	-8.52216
పీ	-8.52279
▁భారతీయ	-8.52343
▁మూల	-8.52497
▁తూర్పు	-8.52838
్య	-8.52918
▁అవి	-8.53012
▁గ్రామము	-8.53274
ొ	-8.53321
ar	-8.53377
టో	-8.5364
ాయ	-8.54315
▁శాఖ	-8.54364
▁అదే	-8.54483
▁అంద	-8.54499
▁చి	-8.54611
▁చిత్ర	-8.54753
t	-8.54795
▁ప్రాంతంలో	-8.5494
చ్	-8.55096
▁రూ	-8.55236
▁ధర్మ	-8.5535
▁తక్కువ	-8.55441
ఖ	-8.55509
▁ఉండ	-8.5559
▁అంటే	-8.55624
▁పరి	-8.55713
వారి	-8.55838
క్స్	-8.56138
▁తండ్రి	-8.56152
ప్పుడు	-8.56346
▁అత్యంత	-8.56456
▁పని	-8.56521
▁ఎక్కువగా	-8.56535
జన	-8.56579
లుగా	-8.5661
▁శివ	-8.56691
▁వీరు	-8.56707
▁పెట్ట	-8.56842
చు	-8.56948
ుకుని	-8.57116
▁సాధారణంగా	-8.57269
r	-8.57329
▁ప్రాంతం	-8.57537
▁C	-8.57638
h	-8.5781
పూర్	-8.58066
ముగా	-8.58087
▁రే	-8.58112
▁ఇలా	-8.58317
ఆ	-8.58643
▁యా	-8.58773
▁పు	-8.59043
▁రాజు	-8.59278
▁కొండ	-8.59282
▁చిత్రం	-8.59557
▁ప్రజల	-8.59633
▁చా	-8.59704
▁ఎన్	-8.59745
▁వీ	-8.59844
▁నీ	-8.59845
ట్ల	-8.59927
▁బావుల	-8.60061
▁చరిత్ర	-8.60663
▁సీ	-8.60751
▁భూమి	-8.60866
పల్లిలో	-8.60904
గో	-8.61056
▁ప్రస్తుతం	-8.61218
నుండి	-8.6167
కర్	-8.61709
in	-8.61747
▁అలాగే	-8.61798
▁మండలంలోని	-8.6197
▁అక్కడ	-8.624
▁ముఖ్య	-8.63087
▁తొలి	-8.6333
ఆంధ్రజ్యోతి	-8.63812
▁వచ్చింది	-8.63952
ుకొని	-8.64038
▁మొ	-8.64085
I	-8.64167
ాలతో	-8.64179
▁బహిరంగంగా	-8.64222
లోకి	-8.64287
ుడి	-8.64356
4	-8.64485
b	-8.64577
ేవారు	-8.64748
కులు	-8.6491
▁ప్రా	-8.64929
ంజ	-8.65003
or	-8.65041
ారని	-8.65169
▁•	-8.65641
ించాడు	-8.65662
▁పంప	-8.65794
లోనే	-8.66129
▁వచ్చే	-8.66184
ంట్	-8.66488
దే	-8.66524
▁బ్రహ్మ	-8.66551
▁అంత	-8.66771
▁చూప	-8.66936
హా	-8.67105
▁రో	-8.67413
బీ	-8.6765
▁కల	-8.67997
▁బోరుబావుల	-8.68183
▁డాక్టరు	-8.68223
▁పోటీ	-8.68247
an	-8.68484
▁కార్	-8.68548
బు	-8.68636
▁కాకుండా	-8.68651
▁కాంగ్రెస్	-8.68661
▁పశ్చిమ	-8.68805
ంటి	-8.69112
▁వచ్చి	-8.69171
▁కచ్చా	-8.69254
ళ్ళు	-8.69327
6	-8.69508
ులకు	-8.69527
▁శక్తి	-8.69545
లె	-8.69672
▁కొంత	-8.6986
▁సమ	-8.70051
ించే	-8.70114
బడ్డాయి	-8.70203
▁కన్నా	-8.7022
▁విడుదల	-8.70226
▁డ	-8.70281
▁అమెరికా	-8.70391
▁విజయ	-8.70392
▁M	-8.70498
▁f	-8.70754
ధి	-8.70815
డే	-8.71312
▁ఇంకా	-8.7166
▁లేక	-8.71764
th	-8.71908
▁30	-8.71999
▁జీవ	-8.7205
▁మత	-8.72081
▁వారికి	-8.72087
▁నిర్వహించ	-8.72129
▁కృష్ణ	-8.72248
m	-8.72373
యే	-8.72489
త్ర	-8.72498
▁చేయడం	-8.72516
▁మానవ	-8.72579
▁డా	-8.72736
▁అనగా	-8.72777
ల్ల	-8.72978
బో	-8.72996
f	-8.73064
le	-8.73179
▁హిందూ	-8.73184
ంటే	-8.73286
▁25	-8.7329
▁నిర్మాణ	-8.73386
డంతో	-8.7352
▁పోతోంది	-8.73655
▁57	-8.73754
ుకున్న	-8.73773
▁P	-8.73823
ుకో	-8.73837
▁లోకి	-8.73853
▁కేంద్రంలో	-8.74142
▁కాలం	-8.74158
తే	-8.7418
▁దగ్గర	-8.74216
▁కాదు	-8.74481
హి	-8.74482
l	-8.74732
D	-8.74738
▁బాగా	-8.74964
ుతున్న	-8.75034
వె	-8.75037
పురం	-8.7512
▁చైనా	-8.75161
▁B	-8.75599
▁స్వ	-8.75766
ేశ్వర	-8.75845
▁తల	-8.76021
▁శాసనసభ	-8.76276
▁ఈయన	-8.76532
▁పడ	-8.76623
▁పేరుతో	-8.76625
డో	-8.76625
▁విద్య	-8.76652
గ్రామంలో	-8.76724
▁తు	-8.7686
▁p	-8.77145
▁హా	-8.77199
▁దీనికి	-8.7729
సన్	-8.77339
స్తుంది	-8.77368
▁ప్రదేశ్	-8.7738
సే	-8.77399
▁అమ్మ	-8.7755
ంచి	-8.77588
▁కట్ట	-8.77636
ఇ	-8.77916
▁చెరువు	-8.78014
దేశ	-8.78067
▁వ్యక్తి	-8.78139
కె	-8.78276
▁సంబంధించిన	-8.78279
▁సుమారు	-8.7835
షన్	-8.78355
త్తు	-8.78389
▁షా	-8.78576
త్వ	-8.78728
చ్చ	-8.78729
▁c	-8.78791
▁పత్రిక	-8.79151
కార	-8.79169
హ్	-8.79356
▁నె	-8.7957
▁నివాస	-8.79572
▁నగర	-8.79807
▁బో	-8.79829
▁కోట	-8.79877
స్తూ	-8.79968
–	-8.80051
▁తి	-8.8017
ra	-8.8035
▁నది	-8.80422
టే	-8.8045
▁అంతర్జాతీయ	-8.80593
▁వీరి	-8.806
ri	-8.80687
▁పాల	-8.80688
ీయ	-8.80799
▁మరో	-8.80811
▁నెల	-8.80814
▁ఫ	-8.80987
శి	-8.81135
ండు	-8.81332
▁తప్ప	-8.81747
▁భాగంగా	-8.81919
▁క్రీ	-8.82125
రియా	-8.82316
▁భావ	-8.82392
▁స్థానిక	-8.82569
స్థ	-8.82765
వో	-8.82814
న్స్	-8.82848
▁2001	-8.82896
▁రె	-8.83149
▁బు	-8.83249
):	-8.83293
▁ప్లాంట్	-8.83421
▁పే	-8.83452
ందు	-8.83485
▁అన	-8.83539
▁b	-8.8368
ల్లి	-8.83807
▁పాట	-8.8392
▁నాగ	-8.83936
ింప	-8.83964
▁చేశాడు	-8.8421
▁పెంచ	-8.84506
▁సాధారణ	-8.84557
ల్లా	-8.84592
▁రోజు	-8.84633
▁లి	-8.84643
▁వ్యాపార	-8.84815
▁చంద్ర	-8.84833
7	-8.84858
రెడ్డి	-8.84869
▁తల్లి	-8.85038
ులను	-8.85128
▁ఒక్క	-8.85152
▁రైలు	-8.8523
▁జన	-8.85267
▁స్వామి	-8.85304
es	-8.85384
ుడైన	-8.85514
ిస్తున్న	-8.85572
▁గుంటూరు	-8.85942
▁మాత్రం	-8.86067
స్వామి	-8.86506
▁గుర్తించ	-8.86697
ాన	-8.86841
నది	-8.8695
▁కృష్ణా	-8.87099
▁ఉంచ	-8.87121
▁అప్పటి	-8.87224
▁విశాఖపట్నం	-8.87428
ధ్య	-8.87443
▁పురుషుల	-8.87475
▁యుద్ధ	-8.87592
▁ఉన్నత	-8.87791
ఘ	-8.87803
▁వున్న	-8.87815
▁n	-8.87856
▁వెంకట	-8.87935
▁భార్య	-8.87978
▁మరొక	-8.8807
పాడు	-8.883
▁లభిస్తుంది	-8.8835
8	-8.88365
త్వం	-8.88502
▁విజయవాడ	-8.88781
▁నగరం	-8.88963
పె	-8.89039
జు	-8.89095
ాత్మక	-8.89515
▁దాదాపు	-8.89608
▁పూర్వ	-8.89645
▁సో	-8.89781
▁ప్రారంభ	-8.89793
ణి	-8.8992
కాల	-8.89976
షి	-8.90003
▁ఉపయోగించ	-8.90014
▁is	-8.90205
▁గి	-8.90212
▁నగర్	-8.90257
లం	-8.90299
0	-8.90369
వాస	-8.90517
▁జె	-8.90585
▁గొప్ప	-8.90683
10	-8.90785
▁ఫా	-8.90816
▁కంపెనీ	-8.90829
▁పట్ట	-8.91044
▁ఒకే	-8.91166
▁ఇన్	-8.91195
ంట	-8.91205
పోయింది	-8.9173
కుల	-8.91737
E	-8.9187
▁సై	-8.91945
రూప	-8.91995
▁మంత్రి	-8.92156
ఎస్	-8.92263
▁కనుక	-8.92533
▁హో	-8.92656
మన్	-8.93008
బడ	-8.93122
▁యుద్ధం	-8.93138
ట్టి	-8.93207
▁or	-8.93215
▁చివరి	-8.93262
▁శి	-8.93484
▁=	-8.93523
▁0	-8.93692
▁సర్వ	-8.93882
▁తెలియ	-8.93882
స్తారు	-8.94038
▁ప్రజా	-8.94095
తులు	-8.94173
ాను	-8.94544
▁బీ	-8.94627
కూ	-8.94764
స్త	-8.94773
యూ	-8.94815
నగర్	-8.94837
▁రచయిత	-8.94986
P	-8.95072
గానే	-8.952
ad	-8.95254
▁24	-8.95588
▁మార్చ	-8.95607
▁వార	-8.95699
ic	-8.95707
▁ఆడ	-8.95838
▁వాటిని	-8.95841
▁కాక	-8.95857
▁హైదరాబాదు	-8.9596
▁కోర	-8.95973
▁పారుదల	-8.96055
▁నాటి	-8.96145
▁పొందిన	-8.96433
కల్	-8.96543
▁మరింత	-8.96649
ుట	-8.96755
▁పాడ	-8.96853
▁ట్రాక్టరు	-8.96874
▁న్యాయ	-8.96939
సర	-8.97016
▁డె	-8.97031
జె	-8.97053
రామ	-8.97295
v	-8.97305
▁58	-8.97435
▁మై	-8.97469
▁పంపిస్తున్నారు	-8.97482
దని	-8.97548
at	-8.97569
▁సాహిత్య	-8.97647
▁ఇవ్వ	-8.97655
కుడు	-8.97712
▁రంగ	-8.97718
పడ	-8.97762
▁బాల	-8.97907
▁అక్టోబరు	-8.97997
గిరి	-8.98002
సర్	-8.98015
▁పంచ	-8.9803
▁శా	-8.9804
▁వైపు	-8.98051
సో	-8.98148
▁ఉండేది	-8.9816
▁న్యూ	-8.98244
▁వీర	-8.98342
▁శాతం	-8.98398
▁జిల్లాలో	-8.98567
▁21	-8.98597
▁పీ	-8.98614
లూ	-8.98702
స్తా	-8.98739
టన్	-8.98746
ీకరణ	-8.9881
▁మార	-8.98858
▁డిసెంబరు	-8.99108
▁తాను	-8.99177
ధా	-8.99423
▁ముఖ్యమైన	-8.99525
కొండ	-8.99642
రూ	-8.99653
చ్చి	-8.99722
▁D	-8.99736
▁నాటికి	-8.99798
▁కేవలం	-8.99862
▁N	-8.99944
బడుతుంది	-9.00143
మున	-9.00148
▁నవంబరు	-9.00187
▁నెల్లూరు	-9.00214
▁మిగిలిన	-9.00394
ుకున్నారు	-9.00447
▁లోపే	-9.00571
తుల	-9.00602
లపై	-9.00632
▁భాగం	-9.00636
▁మహ	-9.00665
20	-9.00831
▁హై	-9.00965
▁దు	-9.01126
▁సముద్ర	-9.0115
▁ప్రత్తి	-9.01311
తారు	-9.01395
▁సాగ	-9.01488
▁చెంద	-9.01559
▁రూప	-9.01639
మర్	-9.01727
ిని	-9.01742
నియా	-9.01949
జర్	-9.01959
పేట	-9.02145
ఎ	-9.02246
▁ఆధునిక	-9.02394
లై	-9.02465
▁!	-9.0251
వర	-9.02622
▁0.	-9.02639
▁హైదరాబాద్	-9.02647
▁చూడ	-9.02794
▁మార్చి	-9.02849
9	-9.02875
▁గోదావరి	-9.02929
▁దేశం	-9.03191
▁లేకుండా	-9.03307
▁be	-9.03309
▁ఆలయం	-9.0356
▁జీవిత	-9.03593
బ్బ	-9.03641
▁దుకాణం	-9.03725
▁ఈమె	-9.03848
▁విశ్వవిద్యాలయం	-9.03901
▁ఆధారంగా	-9.04033
శ్	-9.04155
▁వరంగల్	-9.04283
▁The	-9.04509
▁జనవరి	-9.04669
ళ్లు	-9.04862
రంగ	-9.04905
తం	-9.04923
ల్స్	-9.05112
▁22	-9.0512
ఏ	-9.05195
పద	-9.05288
▁గుర్తింపు	-9.05352
దేవి	-9.05483
▁ఐదు	-9.05495
▁యూ	-9.05526
రాయ	-9.05626
ుతారు	-9.0573
on	-9.05837
పే	-9.0588
▁ముఖ్యంగా	-9.06079
▁సందర్భంగా	-9.06086
ుగా	-9.06257
▁శాలలో	-9.06288
▁మూ	-9.06288
▁కొనసాగ	-9.06314
ur	-9.06489
▁రకాల	-9.06517
షా	-9.06612
▁తీసుకు	-9.06657
T	-9.06748
▁దేశంలో	-9.06783
▁ఫి	-9.06808
▁ఎన్నో	-9.06933
▁స్థానంలో	-9.07209
▁జో	-9.07258
▁నేను	-9.07275
ుకునే	-9.07382
▁తెలిపారు	-9.07392
పతి	-9.07394
న్నా	-9.07438
▁సేవ	-9.07452
ును	-9.07562
ఫి	-9.07854
▁59	-9.07855
▁పరిశోధన	-9.08113
en	-9.08345
▁అవకాశం	-9.08436
న్నారు	-9.08438
వరం	-9.08484
▁చేత	-9.08601
మూ	-9.08607
▁ఆరు	-9.08769
ించింది	-9.08784
▁రెడ్డి	-9.08824
▁నిర్	-9.08934
యర్	-9.08946
▁చెయ్య	-9.08997
ందని	-9.08998
▁బ్రిటిష్	-9.09091
▁జూలై	-9.09146
▁ఈనాడు	-9.09149
▁I	-9.09182
N	-9.09414
▁ఉండి	-9.09577
▁ప్రక్రియ	-9.09589
త్య	-9.09715
▁అలా	-9.09745
▁23	-9.09817
ch	-9.09988
్యూ	-9.10053
▁సౌకర్యాలున్నాయి	-9.10101
▁గాంధీ	-9.10124
ూరి	-9.1025
▁అధికంగా	-9.10254
గం	-9.10296
చేయ	-9.1035
▁అందులో	-9.10467
▁విశ్వ	-9.1049
▁బొ	-9.10646
50	-9.10703
▁నిర్మాణం	-9.10714
ంప	-9.10745
▁నిర్వహణ	-9.10855
▁ప్రదర్శన	-9.1087
▁మట్టిరోడ్ల	-9.10965
ly	-9.11016
ంపు	-9.11217
▁స్థాయి	-9.1126
▁సభ	-9.11315
మునకు	-9.11345
▁ఎంతో	-9.11502
▁అమలు	-9.11546
▁విజయం	-9.11822
▁చేయని	-9.11887
▁తాగునీరు	-9.11974
▁ఇప్పుడు	-9.12125
il	-9.12182
▁వలస	-9.12276
మైనది	-9.123
▁ఇం	-9.12389
▁m	-9.12462
ణం	-9.12585
టె	-9.12839
%	-9.1289
▁పోతున్నాయి	-9.12934
▁దానిని	-9.12974
య్	-9.12976
▁వేల	-9.13063
లేని	-9.13257
▁పద	-9.13283
▁రాజ్య	-9.13284
▁లెక్కల	-9.13307
తర	-9.13336
▁చేస్తారు	-9.13392
▁భారతదేశంలో	-9.13442
వాడ	-9.13626
ట్స్	-9.13663
వాద	-9.13737
▁ధర	-9.13962
▁చేస్తున్న	-9.14025
▁సంప్రదాయ	-9.14042
▁ప్రేమ	-9.14151
▁వేద	-9.1441
▁నూతన	-9.14467
▁R	-9.14503
డె	-9.14606
am	-9.14667
11	-9.1476
▁వేయ	-9.14822
▁నే	-9.14857
▁డీ	-9.14857
▁పరీక్ష	-9.15018
▁అంచనా	-9.15019
▁G	-9.15108
ఐ	-9.15138
▁సర్	-9.15169
12	-9.15174
ందుకు	-9.15267
ation	-9.15308
▁వారిని	-9.15327
▁ఉత్తమ	-9.15504
▁రాయ	-9.15506
▁దశ	-9.15522
జ్ఞ	-9.1572
▁ఇండియా	-9.15738
▁దృష్టి	-9.15794
19	-9.15837
▁H	-9.16075
భా	-9.1618
▁ప్రాణ	-9.16207
30	-9.16227
▁చంప	-9.1627
▁లలో	-9.16312
▁సిద్ధ	-9.16369
ెను	-9.16399
ూర్	-9.16421
ించడం	-9.16439
▁కేసు	-9.16513
టింగ్	-9.16535
▁ఆలయ	-9.16586
▁26	-9.166
ుటకు	-9.16692
▁ఏక	-9.16761
▁సిబ్బంద	-9.16817
▁స్థిర	-9.17016
▁తర	-9.1702
ఉ	-9.17112
▁ఇదే	-9.17358
తాయి	-9.17367
▁పూర్తిగా	-9.17402
▁2009	-9.17479
24	-9.17507
శా	-9.17516
పాలెం	-9.17541
▁లాంటి	-9.17621
రాజ	-9.17683
మాన	-9.17825
▁నిర్మించ	-9.17828
▁పర్వత	-9.18077
▁ష	-9.18112
▁వెళ్ళ	-9.18215
▁అవుతోంది	-9.18326
పర్	-9.18339
తన	-9.18389
▁ఫల	-9.18401
▁for	-9.18677
చర	-9.1877
▁ఎల్	-9.18885
▁చేయడానికి	-9.18888
▁కృషి	-9.18948
ృ	-9.19071
▁ఎత్తు	-9.19188
▁నాటక	-9.19195
▁27	-9.19204
li	-9.19216
పోయిన	-9.19287
▁లను	-9.1936
▁స్టేషను	-9.19417
రై	-9.19421
▁కారణం	-9.1951
▁re	-9.19554
▁ఆహార	-9.19577
▁ప్రసిద్ధి	-9.1962
it	-9.19635
్యం	-9.20137
22	-9.20162
▁తమిళ	-9.20172
ుకున్నాడు	-9.20327
లర్	-9.20424
▁కాం	-9.20435
us	-9.2045
▁తీర	-9.20473
▁వంశ	-9.20515
ః	-9.20623
▁నూనె	-9.2074
ాడని	-9.20893
▁వీటిలో	-9.21013
▁దేశాల	-9.21023
▁కనిపించ	-9.21094
ప్పు	-9.21111
▁28	-9.21189
▁బ్ర	-9.2119
43	-9.21253
▁జీ	-9.21307
▁యునైటెడ్	-9.21367
▁వెళ్ళి	-9.21456
▁లక్షల	-9.21562
▁టీ	-9.21577
▁కవి	-9.21578
R	-9.21636
ములను	-9.21688
స్తు	-9.21746
▁అల్	-9.21765
▁రాజా	-9.2185
రోజు	-9.21913
ిస్తున్నారు	-9.21921
▁తె	-9.21962
▁బల	-9.22026
ంగి	-9.22044
▁అర్థం	-9.22072
నని	-9.22177
O	-9.22225
▁వలె	-9.22333
▁అల	-9.22472
దర్శ	-9.22514
▁ఉపయోగిస్తారు	-9.22522
థి	-9.22593
క్కు	-9.227
▁వర్ణ	-9.22761
సారి	-9.22835
ునిగా	-9.22835
లైన	-9.22857
▁అత్యధిక	-9.22881
జం	-9.22901
▁సత్య	-9.22926
▁ప్రస్తుత	-9.22976
పెట్ట	-9.22998
▁గాయ	-9.2305
▁రోడ్డు	-9.231
▁తగ్గ	-9.23147
▁ఇంటి	-9.23188
▁చేర్చ	-9.23266
ఫ	-9.23329
▁T	-9.23343
▁L	-9.23359
▁w	-9.23372
▁ఊ	-9.23428
21	-9.23515
▁నిర్వహించారు	-9.23565
▁ఎలా	-9.23636
మైంది	-9.23643
▁క్ర	-9.23649
18	-9.2371
▁కలిపి	-9.23749
రస	-9.23815
un	-9.23867
▁రై	-9.23893
ఆర్	-9.24061
బుల్	-9.24206
▁హె	-9.24222
▁2007	-9.24245
▁కావ	-9.2435
టిక్	-9.24352
▁స్త్రీల	-9.2442
▁అతిపెద్ద	-9.24421
దం	-9.24512
గే	-9.24652
▁ధ	-9.24685
న్ని	-9.2473
▁ఐరోపా	-9.24767
▁ఎక్స్	-9.24822
▁అవార్డు	-9.2485
బె	-9.24944
▁స్వతంత్ర	-9.25091
14	-9.25433
▁సృష్టించ	-9.25473
▁అందించ	-9.25483
▁భారీ	-9.25552
ent	-9.25555
▁g	-9.2559
▁సూర్య	-9.25614
▁సంగీతం	-9.25673
▁ఖండ	-9.25842
▁హరి	-9.25883
ంపై	-9.25914
మీద	-9.26
ియన్	-9.26051
15	-9.26066
▁l	-9.26066
▁రచన	-9.26076
▁చేసారు	-9.26139
మూర్తి	-9.26231
23	-9.2625
▁2008	-9.26258
ిస్తాయి	-9.26294
▁మహబూబ్	-9.26315
▁అప్పుడు	-9.26322
▁నమ్మ	-9.26337
▁రాజధాని	-9.2642
వరకు	-9.26591
▁వీటిని	-9.26659
▁రోజుల	-9.26682
▁E	-9.26705
వంత	-9.26712
▁దారి	-9.2682
ికి	-9.26968
▁దాడి	-9.26976
ితే	-9.2706
దేవ	-9.27084
▁చికిత్స	-9.27099
చె	-9.27336
▁40	-9.27365
నున్న	-9.27395
ఠ	-9.27424
ండ్ల	-9.27435
▁లె	-9.27495
ాలుగా	-9.27707
ద్ర	-9.27778
▁పట్టణ	-9.27841
▁నో	-9.27932
25	-9.28073
▁ఉద్యోగ	-9.28082
▁కష్ట	-9.28084
▁జాతి	-9.28235
యిన	-9.28238
▁సైనిక	-9.28353
▁పైగా	-9.28419
రిక	-9.28422
▁తొలగించ	-9.2849
▁కీ	-9.28671
▁విషయం	-9.28755
▁h	-9.28761
పూడి	-9.28792
▁శతాబ్దం	-9.29082
▁2013	-9.29252
మంది	-9.29312
▁ఉష్ణోగ్రత	-9.29363
▁చట్ట	-9.29365
▁శాస్త్ర	-9.29503
▁వేరు	-9.29559
▁జూన్	-9.29575
దో	-9.2965
▁F	-9.29695
▁కుల	-9.2973
=	-9.29787
▁వ్యాధి	-9.29818
స్టర్	-9.29892
▁ఆంధ్రప్రదేశ్	-9.29908
▁ప్రభావం	-9.29924
ుడ	-9.30029
▁సహ	-9.3006
▁బహు	-9.30134
▁ఆంగ్ల	-9.30362
బర్	-9.30377
▁పాత	-9.30391
ర్స్	-9.30398
▁చేస్తుంది	-9.30428
▁రక్షణ	-9.3048
స్థాన	-9.30531
వై	-9.30597
ద్ధ	-9.30616
ఢ	-9.3064
▁కుమారుడు	-9.3068
▁నిర్ణయించ	-9.30687
కల	-9.30826
13	-9.30888
▁కూ	-9.30943
B	-9.31058
▁సంస్కృతి	-9.31105
▁తే	-9.31174
▁t	-9.3129
కారం	-9.31579
ఫా	-9.31585
▁పంట	-9.31653
▁టా	-9.31676
▁బే	-9.31724
పల్లె	-9.3187
▁మందుల	-9.31902
17	-9.31997
▁సహజ	-9.32059
ంటు	-9.32126
ha	-9.32189
చేసి	-9.32201
రక	-9.32244
▁దానికి	-9.32247
40	-9.32256
▁వివాహం	-9.32261
భవ	-9.32293
ro	-9.32299
▁W	-9.32519
▁సంవత్సరంలో	-9.32541
▁అస	-9.32703
▁స్థానం	-9.32888
స్తాయి	-9.32927
▁నవల	-9.33115
ుకోవడం	-9.33222
హార	-9.33257
భాష	-9.33287
ీకరించ	-9.33318
▁U	-9.3333
ప్పటికీ	-9.33374
▁రంగు	-9.33433
ిస్తాడు	-9.33537
పరచ	-9.33546
ఈ	-9.33634
▁కొద్ది	-9.33636
33	-9.33659
▁వరకూ	-9.33677
గూడ	-9.33723
▁సహా	-9.33771
▁మహిళల	-9.33772
32	-9.33833
▁పురాతన	-9.33902
▁కం	-9.33911
▁విలువ	-9.33923
▁d	-9.33979
▁చూసి	-9.34046
▁కౌ	-9.34134
తాడు	-9.34182
▁ఎన్నికలలో	-9.34207
▁నగరంలో	-9.34239
ులైన	-9.34262
▁గ్రా	-9.34278
డుగు	-9.34294
▁అమెరికన్	-9.34328
▁ఢిల్లీ	-9.3433
▁సరిహద్దు	-9.34353
▁కళా	-9.34361
▁మాట	-9.34421
పరి	-9.34456
▁వెళ్ల	-9.34504
(	-9.34545
ళి	-9.34563
లేక	-9.34599
ుడిగా	-9.34609
▁భారతదేశం	-9.34632
ుతాయి	-9.34674
▁ప్రయోగ	-9.347
మెంట్	-9.34766
గర్	-9.34801
▁శ్రీకాకుళం	-9.34828
▁లీ	-9.34908
ంధ	-9.34955
నై	-9.34972
16	-9.35036
ol	-9.35104
▁స్త్రీ	-9.35136
లూరు	-9.35159
et	-9.35209
▁నల్ల	-9.35225
▁పదం	-9.3524
భావ	-9.35244
▁జ్ఞాన	-9.35276
▁బై	-9.3528
▁కొందరు	-9.35309
సూ	-9.35355
కరణ	-9.35436
▁గ్రామాలు	-9.35455
▁అవసరం	-9.35613
ున్న	-9.35723
▁సాధించ	-9.35758
▁వీటి	-9.35786
▁గాలి	-9.35792
▁పెళ్ళి	-9.35868
చ్ఛ	-9.35891
ండా	-9.35946
▁శతాబ్దంలో	-9.36059
▁k	-9.36096
▁ఎంత	-9.36102
స్ట	-9.36105
కాలు	-9.3617
ంగు	-9.3626
▁బౌద్ధ	-9.36539
▁జరిగే	-9.36543
డమే	-9.3672
▁ధన	-9.36739
▁సంస్కృత	-9.36896
▁ఇతడు	-9.36938
▁తయారీ	-9.36992
▁ఖమ్మం	-9.36996
ార	-9.37039
la	-9.37067
యె	-9.37134
శాల	-9.37233
▁మొట్టమొదటి	-9.37237
▁మద్య	-9.37561
ఒక	-9.37565
క్రమ	-9.37664
▁ఆనంద	-9.37855
▁పది	-9.37879
▁మొదట	-9.37954
▁చర్చ	-9.38094
కర్త	-9.3815
▁ఆసియా	-9.38313
▁నామ	-9.38328
పం	-9.38404
క్త	-9.38505
▁గత	-9.38594
▁కోట్ల	-9.38613
▁గ్	-9.3865
▁మార్	-9.38678
▁త్రి	-9.3881
▁రసాయన	-9.38861
▁29	-9.38871
తను	-9.38928
ర్య	-9.38951
నర్	-9.39012
▁ఉద్యమ	-9.39074
▁శరీర	-9.39088
L	-9.39109
▁మద్రాసు	-9.39112
▁సాంకేతిక	-9.39144
▁గురు	-9.39145
▁ఎంపిక	-9.39286
▁పూర్	-9.39302
▁ప్రాంతాలలో	-9.39305
వార్	-9.39355
▁అగ్ని	-9.39405
ాడ	-9.39412
▁అయినప్పటికీ	-9.39478
▁చేస్తూ	-9.39497
▁భాగ	-9.39622
▁అతడి	-9.39682
వచ్చును	-9.39712
ుడిని	-9.39871
▁ఆది	-9.39887
▁గాని	-9.39933
▁ఫై	-9.40007
▁సంవత్సరాలు	-9.40024
▁మద్దతు	-9.40061
నాడు	-9.40092
▁గౌరవ	-9.40148
▁రాత్రి	-9.40244
▁టై	-9.40274
▁ఆట	-9.40308
మాన్	-9.40316
త్తి	-9.40345
ంక	-9.40368
వపేజీ	-9.40392
▁సమయ	-9.40407
స్తున్న	-9.40488
▁ఏప్రిల్	-9.40561
F	-9.40604
▁లింగ	-9.40609
▁పొందింది	-9.40623
గ్ర	-9.4066
ేషన్	-9.40661
▁చింత	-9.40694
వేత్త	-9.4071
▁వస్తుంది	-9.40749
▁మారింది	-9.40758
▁సూచించ	-9.40888
▁మూడవ	-9.40891
ినట్లు	-9.40895
▁క్రమ	-9.4096
తోపాటు	-9.4106
▁పర	-9.41164
▁ఉపయోగ	-9.41186
|	-9.41225
వార	-9.41256
గ్రామానికి	-9.41282
ేంద్ర	-9.41286
పాటు	-9.41306
ుకుంది	-9.4135
▁బ్యా	-9.41388
▁చేసాడు	-9.41391
ాక	-9.41445
▁సంస్థలు	-9.41547
దర్	-9.41563
▁ఇంత	-9.41608
జన్	-9.41634
తల	-9.41714
దర	-9.41778
▁with	-9.41868
60	-9.41961
▁నక్షత్ర	-9.41993
ర్ల	-9.42018
▁ప్రసిద్ధ	-9.42067
▁ఆత్మ	-9.4209
శ్ర	-9.42145
▁ఉండటం	-9.422
▁2006	-9.42222
▁K	-9.42281
దె	-9.42293
ఎం	-9.42428
రికి	-9.42466
▁ఉదాహరణ	-9.42484
▁ఏడు	-9.42545
47	-9.42551
▁కల్పించ	-9.42621
▁అధ్యక్షుడు	-9.42739
్యా	-9.42781
▁2010	-9.42811
▁గుర్తు	-9.42887
▁ప్రాచీన	-9.42904
ాం	-9.42926
థా	-9.42944
0%	-9.43007
▁రీ	-9.43047
▁వర్	-9.4306
▁అనంతరం	-9.43206
▁చర్య	-9.43254
కాలం	-9.43261
▁సార	-9.43352
▁as	-9.43575
▁నారాయణ	-9.43602
▁మారి	-9.43667
ఁ	-9.43684
▁వాటిలో	-9.43728
▁చిత్తూరు	-9.43744
▁జాబితా	-9.43902
▁అభి	-9.44084
▁గీత	-9.44116
న్నీ	-9.44151
▁53	-9.44258
ంలోని	-9.44258
▁కళ	-9.44339
ంటుంది	-9.44347
34	-9.44461
▁e	-9.44474
▁బయట	-9.44528
ేవాడు	-9.44575
0,000	-9.44584
ారెడ్డి	-9.44642
▁లక్ష్మీ	-9.44758
▁జట్టు	-9.44781
▁పడి	-9.44923
▁చూ	-9.4499
క్షణ	-9.45007
▁పరిశ్రమ	-9.45022
▁డాక్టర్	-9.45161
▁సెప్టెంబరు	-9.45202
గ్రా	-9.45246
▁కుమార	-9.45359
▁విడి	-9.45432
▁చక్ర	-9.45504
▁గె	-9.45538
se	-9.45564
▁బ్రిటీష్	-9.45603
పాల	-9.45618
▁భర్త	-9.45675
▁దేశాలలో	-9.45678
▁బట్టి	-9.45735
▁వెంటనే	-9.45811
▁అధ్యక్ష	-9.4593
26	-9.4603
▁పాలన	-9.46042
▁కూడిన	-9.4607
▁అల్ల	-9.46103
▁వ్యతిరేకంగా	-9.46189
ణా	-9.46282
▁ఫలితంగా	-9.46289
▁తెర	-9.46455
▁అధికారులు	-9.46486
శాఖ	-9.46538
▁సంఘ	-9.4656
H	-9.46761
▁కాలువ	-9.46813
▁పరిస్థితి	-9.46834
71	-9.46852
వులు	-9.46921
▁సామ్రాజ్యం	-9.46932
ండే	-9.46948
పాద	-9.46981
▁జయ	-9.47023
▁ఫిబ్రవరి	-9.47024
▁అతడు	-9.47027
▁తిరుపతి	-9.47085
▁ప్రదర్శించ	-9.47102
▁అయింది	-9.47222
▁రెండో	-9.47242
ఫీ	-9.47268
▁యువ	-9.47294
▁అధికార	-9.47301
▁పరిధిలో	-9.47328
▁పాప	-9.47341
is	-9.47358
సై	-9.47399
x	-9.47431
▁ఇతని	-9.47433
ter	-9.47602
▁వెనుక	-9.47697
st	-9.47713
జో	-9.47774
▁కర్నూలు	-9.47787
▁విధానం	-9.48133
▁భారతదేశ	-9.48222
▁వ్యతిరేక	-9.4824
▁by	-9.48244
▁అర్ధ	-9.48272
▁దుర్	-9.48328
పుడు	-9.48329
▁ఫ్ర	-9.48422
▁ఘన	-9.48475
▁పైన	-9.48493
భ్య	-9.48507
ద్య	-9.48616
▁బ్రాహ్మణ	-9.48631
▁పొడవు	-9.48632
▁పుట్ట	-9.48638
▁మాజీ	-9.48759
▁భావించ	-9.48849
w	-9.48851
▁అయ్య	-9.48871
కాయ	-9.48888
▁అప	-9.48959
ులుగా	-9.4903
▁నేషనల్	-9.49082
పుర	-9.49122
▁అర్	-9.49125
▁ఛా	-9.49146
▁రూపంలో	-9.49163
▁కమిటీ	-9.49164
▁పూజ	-9.49278
▁పేజీ	-9.49296
ప్రైవేటు	-9.49304
▁నేర	-9.49311
01	-9.49315
▁తనకు	-9.49399
85	-9.49407
▁రాష్ట్రంలో	-9.49466
▁సూ	-9.49513
▁లేవు	-9.49611
▁●	-9.4964
▁ఏర్పడిన	-9.49676
▁వెల్	-9.49713
▁దిన	-9.49717
ందే	-9.49814
లియ	-9.4994
▁కాంతి	-9.49995
▁విదేశీ	-9.50036
▁క్యా	-9.50037
44	-9.50041
▁హిందీ	-9.50149
▁చుట్టూ	-9.5018
▁శాంతి	-9.50191
▁మంత్ర	-9.50221
▁ప్రవేశ	-9.5025
ూరులో	-9.50351
▁బాధ్యత	-9.5039
గొ	-9.50426
వలసిన	-9.50432
29	-9.50453
వేయ	-9.50472
శ్రీ	-9.50511
▁సింగ్	-9.50527
రియ	-9.50532
జే	-9.50549
▁శాసన	-9.50556
▁క్రింద	-9.50637
ండర్	-9.50662
28	-9.50668
ce	-9.50756
▁సభ్యులు	-9.50835
రవ	-9.50836
ార్	-9.50906
▁ప్రణాళిక	-9.50927
▁గొ	-9.50959
▁ట్ర	-9.50964
▁కార్యదర్శి	-9.50971
▁తెలుస	-9.50998
▁సంబంధ	-9.51083
35	-9.51243
ాది	-9.5125
▁పిలుస్తారు	-9.51254
▁ప్రకాశం	-9.51303
▁తొ	-9.51333
శారు	-9.51383
▁పిల్లల	-9.51392
▁మాట్లాడ	-9.51481
▁కణ	-9.51509
▁1.	-9.51534
▁సామ్రాజ్య	-9.51599
▁31	-9.51674
శాస్త్ర	-9.51675
▁వేరుశనగ	-9.51711
పాటి	-9.51732
ంటూ	-9.5182
డర్	-9.51847
▁ప్రపంచంలో	-9.51855
▁సమస్య	-9.51962
మత	-9.51983
కోట	-9.51995
49	-9.52065
▁నియమించ	-9.52154
చూ	-9.52159
▁జీవన	-9.52188
▁v	-9.52193
▁అనుమతి	-9.52318
▁కోల్	-9.52357
న్య	-9.52463
▁జన్మ	-9.52465
గ్గ	-9.52486
▁మొక్కజొన్న	-9.5259
ir	-9.52594
▁రు	-9.52612
im	-9.527
తూ	-9.52705
పొ	-9.52758
▁పట్ల	-9.52836
▁విశేష	-9.52852
▁ఆల్	-9.52877
▁తిరుగుబాటు	-9.5288
▁ఆయనకు	-9.52939
పోయారు	-9.52988
▁de	-9.52996
▁మొదలు	-9.53038
మన	-9.53076
▁ఉంటే	-9.53125
▁తగ్గించ	-9.53196
▁సమీపంలో	-9.53207
ముఖ	-9.53221
▁కలి	-9.53259
▁చాల	-9.53262
క్షి	-9.53326
64	-9.53352
▁కుమార్తె	-9.53393
చా	-9.53417
▁చేపట్ట	-9.53423
▁సమాన	-9.53448
టరు	-9.5345
▁ప్రకటన	-9.53479
▁పాల్గొన్నారు	-9.53508
పించ	-9.5353
27	-9.53533
కార్	-9.53535
▁ప్రవేశపెట్ట	-9.53722
▁గారు	-9.53749
▁రక్త	-9.53876
ఫె	-9.53918
తె	-9.53921
▁కల్ప	-9.53961
▁అన్నారు	-9.53995
నాథ	-9.54538
వ్య	-9.54543
▁ఇక	-9.54543
ాంతర	-9.54557
▁విమర్శ	-9.54564
▁టె	-9.54577
వైపు	-9.54602
▁వర	-9.54741
ాయని	-9.5476
ృత	-9.54853
▁చట్టం	-9.54926
▁కాలనీ	-9.55005
▁గర్భ	-9.55079
▁హి	-9.55321
▁ముస్లిం	-9.55326
▁దూ	-9.55381
ండ్ర	-9.55434
మొ	-9.5552
▁నిర్మించిన	-9.55521
▁52	-9.55553
▁సంయుక్త	-9.55589
▁సాంస్కృతిక	-9.55614
▁స్థాయిలో	-9.55641
um	-9.5569
ేయ	-9.55723
08	-9.55785
పోయి	-9.5587
రాజ్య	-9.5594
▁51	-9.55944
▁పాద	-9.5595
▁సంపాదించ	-9.55959
▁ఆగస్టు	-9.55987
కుంట	-9.5604
ంబు	-9.5605
▁తేదీ	-9.56059
▁చెట్టు	-9.56062
▁మార్పు	-9.56132
63	-9.56145
70	-9.5622
61	-9.56253
▁2004	-9.5627
ాలయం	-9.56302
లింగ్	-9.56313
కాలంలో	-9.56418
▁యె	-9.56509
▁సినీ	-9.56546
▁మూస	-9.56592
62	-9.56641
as	-9.56649
▁ఇక్కడి	-9.5665
▁ప్రధానంగా	-9.56653
▁వాతావరణం	-9.56695
▁నేల	-9.56815
▁ఆసక్తి	-9.5685
▁కార్య	-9.56858
▁జన్మించాడు	-9.56867
▁సైన్యం	-9.56894
కై	-9.56954
▁చెప్పారు	-9.57002
▁స్థల	-9.57008
▁సే	-9.57172
▁బాధ	-9.57178
వలసి	-9.57194
▁వివాహ	-9.57195
▁ఆలోచన	-9.57293
గడ	-9.57297
ునికి	-9.57302
▁గురువు	-9.57423
▁చేయబడింది	-9.57432
▁నవ	-9.57492
ిస్తే	-9.57495
చీ	-9.57506
▁ప్రజలకు	-9.57519
▁నియోజకవర్గం	-9.57557
▁పండుగ	-9.57574
▁100	-9.57586
ాపురం	-9.57617
▁అందు	-9.57618
▁గారి	-9.57699
భాగ	-9.577
▁ఒప్పందం	-9.577
సిన	-9.57729
▁కంప్యూటర్	-9.57775
67	-9.57808
▁సోమ	-9.57915
▁గుణ	-9.57985
77	-9.57996
ార్థ	-9.58028
▁మర	-9.58172
▁ఉపగ్రహ	-9.58293
▁మల్ల	-9.58344
▁వాడు	-9.58355
▁అన్నాడు	-9.58501
▁మార్గ	-9.58612
▁అంగీకరించ	-9.58646
▁డై	-9.58651
న్నది	-9.58676
బద్ధ	-9.58678
▁భా	-9.58772
▁సంబంధం	-9.58802
▁విమాన	-9.58826
▁ప్రయాణ	-9.5894
el	-9.58988
▁సాధన	-9.5909
72	-9.59184
42	-9.59317
▁భాషా	-9.59341
స్త్ర	-9.59356
కము	-9.59474
▁పర్వము	-9.59604
▁గుడి	-9.59652
▁ఎయిర్	-9.59652
▁చెప్పిన	-9.59671
యన్	-9.59673
▁కింద	-9.59679
గల్	-9.59688
▁హు	-9.59693
▁సహాయ	-9.59724
▁కామ	-9.59738
▁రాజ్యం	-9.59746
▁గృహాలు	-9.59752
▁సాంప్రదాయ	-9.59845
▁అర	-9.59859
క్ర	-9.59863
▁ఫె	-9.59882
▁పాటలు	-9.59896
82	-9.59987
▁జరగ	-9.59993
sh	-9.60086
80	-9.6025
▁ఉదాహరణకు	-9.60269
▁అయి	-9.60366
▁ప్రారంభించారు	-9.60406
▁స్టా	-9.60429
▁అక్కడి	-9.60476
▁హెచ్	-9.60476
▁చేయాలని	-9.60664
▁పారి	-9.60668
▁మొదల	-9.60681
▁పట్టు	-9.60685
▁మార్గం	-9.60689
ంటారు	-9.60691
▁ముఖ్యమంత్రి	-9.60704
▁ప్రాంత	-9.60719
ర్ర	-9.60798
▁గృహ	-9.60801
▁వర్ష	-9.6081
▁కల్	-9.60837
వల్ల	-9.60849
▁వెళ	-9.60881
▁రేడియో	-9.60881
▁ముఖ	-9.60916
99	-9.60983
▁తెల్ల	-9.61009
ల్డ్	-9.61128
▁ఆఫ్రికా	-9.61131
▁చీ	-9.61217
న్నె	-9.61324
ువు	-9.61368
▁35	-9.6153
ల్లు	-9.61633
లిన్	-9.61638
▁అనుభవ	-9.61652
రుగు	-9.61668
▁ప్రకృతి	-9.61672
▁గ్రామములో	-9.61682
ప్త	-9.61742
▁ఎందుకంటే	-9.61807
▁మొక్క	-9.61845
పడి	-9.61849
38	-9.61877
▁V	-9.61893
రియన్	-9.61905
నాటి	-9.61952
గొట్ట	-9.62002
జయ	-9.62041
▁ఇప్పటికీ	-9.62059
▁జొన్న	-9.62072
▁శిక్ష	-9.62098
▁సభ్య	-9.62098
07	-9.62102
ంతా	-9.62103
నల్	-9.62304
▁కాబట్టి	-9.62309
▁శాస్త్రం	-9.62325
id	-9.62379
▁ఇచ్చిన	-9.62404
మర	-9.62479
98	-9.62595
లక్ష్మి	-9.62633
▁రాసిన	-9.62655
▁పాకిస్థాన్	-9.6268
▁అందుకు	-9.62743
డంలో	-9.6276
ంటా	-9.62772
78	-9.62806
▁అమరావతి	-9.62863
లిక	-9.62915
బే	-9.6299
▁2014	-9.63052
▁రికార్డు	-9.63071
▁డిస్	-9.63079
▁కార్యక్రమాల	-9.63091
om	-9.63126
▁పద్ధతి	-9.63138
వాన్	-9.63181
గె	-9.63216
▁సంఘటన	-9.6322
▁ప్రాంతాల్లో	-9.63249
▁వివరించ	-9.63265
▁కోర్టు	-9.63291
▁భారత్	-9.63293
▁చెక్క	-9.63308
▁శిల్ప	-9.63346
▁తిరుమల	-9.63391
ుకుంటారు	-9.634
ధు	-9.63421
▁వేస	-9.6344
54	-9.63551
▁కరీంనగర్	-9.63611
▁వ్యాస	-9.63624
68	-9.63628
▁నలుగురు	-9.63636
▁ఉంటారు	-9.637
▁సమయం	-9.63726
▁ప్రకటించ	-9.63743
ఖా	-9.63759
▁సూక్ష్మ	-9.63784
▁on	-9.63794
▁నియంత్రణ	-9.63817
▁జే	-9.63927
95	-9.63946
▁ఆధ్వర్యంలో	-9.63957
ుతున్నారు	-9.63998
యాన్	-9.64028
▁అతనికి	-9.64062
▁నర	-9.64077
90	-9.6409
దల	-9.64101
వుల	-9.64147
▁యూనియన్	-9.6419
▁ప్రయత్న	-9.64231
▁భౌతిక	-9.64254
▁చెప్పాడు	-9.64284
▁ఖాన్	-9.64317
▁con	-9.64411
ేలా	-9.64413
ాపూర్	-9.64461
▁ప్రాజెక్టు	-9.64527
కృష్ణ	-9.64547
▁కూడ	-9.6458
▁తిరు	-9.64596
▁లై	-9.64628
క్షన్	-9.64643
ట్రా	-9.6469
▁ప్రెస్	-9.64732
▁2005	-9.64817
°	-9.64992
భేద	-9.65023
▁రావు	-9.65028
▁రోజులు	-9.65087
▁60	-9.65102
లింగ	-9.65137
చన	-9.65153
66	-9.65214
మార్	-9.65254
హో	-9.65259
▁బాల్	-9.65259
83	-9.6526
జాల	-9.65276
ాంత	-9.65299
▁చదువు	-9.65309
ినా	-9.65315
▁జు	-9.65404
000	-9.65507
▁O	-9.65508
▁చూస	-9.65522
▁సిటీ	-9.65544
V	-9.6559
▁దేవాలయం	-9.65602
05	-9.65603
▁ప్రచురించ	-9.6573
ార్ధ	-9.65746
▁ఉందని	-9.65769
స్తాడు	-9.65787
93	-9.65993
03	-9.65996
ేది	-9.66052
▁భక్తులు	-9.66127
69	-9.66211
క్కి	-9.66222
దారు	-9.6636
▁చల్ల	-9.66368
▁that	-9.6641
31	-9.66466
▁దీన్ని	-9.66494
06	-9.66519
కలు	-9.6653
▁తీ	-9.66535
▁ఫర్	-9.66542
▁నిజ	-9.66589
▁జరుప	-9.66634
81	-9.66656
▁భాషలో	-9.66784
▁అర్థ	-9.66853
▁మరణ	-9.67084
ta	-9.6712
▁వృక్ష	-9.67178
శు	-9.67232
▁నియమ	-9.67249
హం	-9.67371
96	-9.67386
▁కావ్య	-9.67391
91	-9.67412
84	-9.6744
▁ఉన్నది	-9.67456
▁చక్రవర్తి	-9.67458
ుకోవడానికి	-9.67463
-1	-9.67512
పురంలో	-9.67519
76	-9.67539
▁పుస్తక	-9.67565
కవి	-9.67568
ములలో	-9.67585
ాల్సి	-9.67665
నిక్	-9.67744
▁అభిప్రాయ	-9.67797
పల్లిలోను	-9.67802
74	-9.67822
▁తెచ్చ	-9.67901
▁అనంతపురం	-9.67971
▁ఎక్కడ	-9.67997
డూ	-9.68056
▁వ్యాసం	-9.68086
▁కొల	-9.68102
09	-9.68115
▁చివర	-9.68147
గీ	-9.68214
▁జారీ	-9.68262
స్తే	-9.68272
▁మరి	-9.68333
▁పాకిస్తాన్	-9.68379
నీయ	-9.68431
▁పుష్ప	-9.6859
కృత	-9.68596
▁అడ్డ	-9.68602
కూరు	-9.68658
ాబాద్	-9.68683
చార	-9.68849
▁ప్రొ	-9.68933
పోయాడు	-9.68953
రాల	-9.68971
▁నిర్మించారు	-9.69119
▁ద్వీప	-9.69202
చిన	-9.69245
ment	-9.69302
▁క్రి	-9.69319
మల	-9.69361
▁సమాచారం	-9.69378
87	-9.69398
ంచు	-9.69401
▁2016	-9.69406
గారు	-9.69426
55	-9.69442
చో	-9.69471
▁ప్రచారం	-9.69496
▁మాట్లాడుతూ	-9.6952
▁లోహ	-9.69528
▁జాన్	-9.69555
▁శైలి	-9.69567
▁రష్యా	-9.69601
▁సరి	-9.69605
జీవ	-9.69609
లాండ్	-9.69657
▁విచారణ	-9.69705
లక	-9.6972
▁కొట్ట	-9.69784
▁విప్లవ	-9.69811
▁విడుదలైన	-9.69878
▁st	-9.69923
▁వేడి	-9.69962
▁నిర్వహించిన	-9.69962
vi	-9.70088
▁నమూనా	-9.70122
41	-9.70181
▁ఉద్దేశ	-9.70189
92	-9.70196
▁భవన	-9.70253
▁కర్ణాటక	-9.70309
▁పేర్కొన్నారు	-9.70348
▁అయినా	-9.70368
▁com	-9.70409
te	-9.70518
▁నాడు	-9.70609
▁ముందుగా	-9.70619
పరమైన	-9.70714
▁ప్రో	-9.70731
▁సొంత	-9.70753
సింగ్	-9.70777
▁ఉద్యమం	-9.70811
▁ఉన్నాడు	-9.70903
యన	-9.70961
▁గ్రహ	-9.70997
ాపూర్లో	-9.7102
▁కలసి	-9.71061
▁వాయువు	-9.71106
▁తరగతి	-9.71137
▁రచించిన	-9.71203
డ్డ	-9.7128
దేశం	-9.71282
శక్తి	-9.71311
ల్లె	-9.71382
కోసం	-9.71397
▁అంగ	-9.71465
▁వేసవి	-9.71468
86	-9.7147
02	-9.71473
▁పద్మ	-9.71504
▁వీలు	-9.71526
▁భావిస్తున్నారు	-9.71579
▁తెలుగులో	-9.71601
▁ప్లా	-9.71611
▁చిత్రంలో	-9.71718
▁విజయనగరం	-9.71722
▁విజ్ఞాన	-9.71751
▁గతంలో	-9.71793
▁శంకర	-9.71829
▁డే	-9.71916
స్టా	-9.71953
పూ	-9.72031
▁సమాజ	-9.72033
▁తరచుగా	-9.72144
▁జపాన్	-9.72146
▁రూపొందించ	-9.72157
▁ప్రశ్న	-9.72171
▁కొడుకు	-9.72394
▁క్షేత్ర	-9.72461
57	-9.72476
▁ప్రవేశించ	-9.72497
▁సత్	-9.72508
కంగా	-9.72518
▁పసుపు	-9.72682
▁విశ్వవిద్యాలయ	-9.72701
▁చెప్పవచ్చు	-9.72723
ధీ	-9.7275
▁మంద	-9.7276
▁తక్కువగా	-9.72795
▁వంటివి	-9.72797
ర్తి	-9.72905
▁కలుప	-9.72967
97	-9.72975
▁అనుసరించి	-9.72978
▁నౌక	-9.73065
▁యోగ	-9.73144
73	-9.73202
88	-9.73287
▁పుస్తకం	-9.73296
▁విష్ణు	-9.73321
ాచార్య	-9.73325
ాలనే	-9.73361
▁మేరకు	-9.73363
▁2000	-9.7342
తుంది	-9.73446
ిగా	-9.73452
▁చర్యలు	-9.7348
▁నై	-9.73511
48	-9.73567
ైనా	-9.73581
ినప్పుడు	-9.73594
45	-9.73665
▁విన	-9.73693
సేన	-9.73726
స్టు	-9.73759
క్తి	-9.7385
బడే	-9.7387
▁పెద	-9.7387
▁టో	-9.73984
ow	-9.7403
▁కార్యక్రమంలో	-9.74193
65	-9.74238
▁జూ	-9.74255
దాన	-9.74325
▁ఆధారపడి	-9.74329
}	-9.74334
▁పరిచయం	-9.74338
▁స్థితి	-9.74346
▁జిల్లాకు	-9.74383
▁ప్రభావ	-9.74435
▁శాస్త్రీయ	-9.74447
▁స్కూల్	-9.74561
వైన	-9.74571
▁పచ్చ	-9.74572
కింగ్	-9.74611
శాస్త్రం	-9.74691
▁ఎర్ర	-9.74692
▁ద్వార	-9.74805
▁క్రింది	-9.74843
▁నల్గొండ	-9.74863
▁నివేదిక	-9.74973
▁ప్రాంతాలు	-9.75046
▁ఖర్చు	-9.75057
▁సభ్యుల	-9.75108
▁కూర్చ	-9.75126
దన	-9.75139
పడిన	-9.75156
గ్రహ	-9.75168
▁పదవి	-9.75238
▁పోషించ	-9.75238
▁an	-9.75323
▁సగటు	-9.75333
▁తీస	-9.75344
▁ఔ	-9.75388
▁పవిత్ర	-9.75416
89	-9.75425
యోగ	-9.75439
▁బంగారు	-9.75463
▁దూర	-9.75516
▁గడి	-9.75564
ate	-9.75602
స్య	-9.75616
▁తయార	-9.75636
స్సు	-9.75655
▁తీవ్ర	-9.75668
04	-9.75708
▁స్వా	-9.75777
గానూ	-9.7582
▁నేత	-9.75849
▁అధ్యయనం	-9.75943
▁చెందింది	-9.75948
▁జీవితం	-9.7595
▁అసలు	-9.75953
షీ	-9.75957
▁కాకినాడ	-9.75972
▁ద్రవ	-9.7599
▁బంధ	-9.76049
▁కారణ	-9.7614
నప్పుడు	-9.76147
▁ఉండగా	-9.76284
ేష్	-9.7629
▁జర్మనీ	-9.76307
▁కాపాడ	-9.76337
▁దేవాలయ	-9.76342
లిక్	-9.76367
▁దీనిలో	-9.76396
▁విద్యార్థులు	-9.76418
94	-9.76445
▁he	-9.76459
సియా	-9.76582
పోతుంది	-9.76613
▁కనిపిస్తుంది	-9.76702
దిగా	-9.76766
▁దో	-9.76767
hi	-9.76769
▁గ్రంథ	-9.76875
▁స్వాతంత్ర్య	-9.76887
బడతాయి	-9.769
జ్జ	-9.76906
▁వాహన	-9.76933
ist	-9.76945
▁వెళ్లి	-9.76956
75	-9.76991
▁దర్శకత్వం	-9.76996
▁అవసరమైన	-9.77001
79	-9.77124
శీ	-9.7723
▁నిజాం	-9.77233
▁పిల్ల	-9.7724
వాగు	-9.77265
▁అభ్యర్థి	-9.77291
▁విషయంలో	-9.773
కంటే	-9.7731
▁వున్నవి	-9.77398
వారికి	-9.77405
గారి	-9.77448
▁చేతి	-9.77496
▁రంగంలో	-9.77559
▁యుద్ధంలో	-9.77599
శ్వ	-9.77608
డము	-9.77657
▁వ్యక్తిగత	-9.77731
▁స్టీ	-9.77846
తలు	-9.77878
▁కర్మ	-9.77974
మయ	-9.78009
గుణ	-9.78018
▁సాగు	-9.78026
lo	-9.78031
▁మతం	-9.78049
▁నిర్మాత	-9.78058
▁ప్రతీ	-9.78087
▁గే	-9.78101
▁సినిమాలో	-9.78112
▁క్రైస్తవ	-9.78132
▁భక్తి	-9.78132
▁సర్వీసు	-9.78256
▁సార్లు	-9.78257
వతి	-9.78284
▁దీంతో	-9.78326
▁పురుష	-9.78368
ot	-9.78373
ఫో	-9.7844
దారుల	-9.78537
శాస్త్రి	-9.78565
రాయి	-9.7857
and	-9.78653
▁దర్శకుడు	-9.78656
▁r	-9.78689
ుతుందని	-9.78702
▁సాధ్య	-9.78704
▁వివర	-9.78762
నూరు	-9.78843
▁ముక్క	-9.78849
▁పోలి	-9.78862
▁ప్రత్యక్ష	-9.78878
యాన	-9.79001
ైతే	-9.79018
▁పరిస్థితుల	-9.79019
▁కథలు	-9.79022
పరంగా	-9.79032
56	-9.79041
▁జిల్లాలోని	-9.79062
▁వ్యాసాలు	-9.79103
▁was	-9.79154
▁పనులు	-9.79277
ోత్సవ	-9.79338
▁పట్టణం	-9.79409
తున్న	-9.79468
▁{	-9.79499
▁are	-9.79556
▁గౌ	-9.79579
▁భాగంలో	-9.79641
రన్	-9.79658
తక	-9.79695
▁ప్రదేశాల	-9.7971
▁నెహ్రూ	-9.79721
రిక్	-9.79737
▁కాయ	-9.79743
▁అర్బన్	-9.79783
▁from	-9.79808
▁మనం	-9.79832
▁mo	-9.79899
▁చేసుకున్న	-9.79925
స్టి	-9.80094
బీయెస్	-9.80098
ెం	-9.80101
ve	-9.80124
ఫల	-9.80134
క్ష్య	-9.80143
▁సోదర	-9.80156
▁చిత్రాలు	-9.80171
షు	-9.80214
తనం	-9.80311
▁మన్	-9.8033
▁నిర్ణయ	-9.80398
▁కాల్	-9.80484
37	-9.80627
ma	-9.80634
ధ్వ	-9.80652
పత్తి	-9.80693
▁లభించింది	-9.80694
▁ఎమ్బీ	-9.80721
ాలంటే	-9.80757
▁వాస్తవ	-9.80765
▁ఉండాలి	-9.80821
యము	-9.80837
▁వదిలి	-9.80899
▁|	-9.80911
▁ఉండవచ్చు	-9.80937
▁చదివిన	-9.80974
గత	-9.80991
ందో	-9.8103
తికి	-9.81032
▁పర్యాటక	-9.81062
కరమైన	-9.81063
▁దీప	-9.811
దూ	-9.81101
▁వ్రాసిన	-9.81104
పోవ	-9.81146
పల్లెలో	-9.81171
వేశ	-9.81171
▁వ్రాయ	-9.8123
▁సుందర	-9.81259
లియా	-9.81303
హిత	-9.81343
▁వయస్సు	-9.81355
▁వారిలో	-9.81376
▁మగ	-9.81395
డాన్ని	-9.81408
▁చరిత్రలో	-9.81426
em	-9.8143
నప్పటికీ	-9.81509
▁గణ	-9.81517
36	-9.81558
కొని	-9.81562
▁తోట	-9.81591
▁32	-9.81685
▁ఆహారం	-9.81692
▁సమావేశ	-9.81701
▁పద్య	-9.81758
ka	-9.8182
ru	-9.81863
ులతో	-9.81961
▁క్రికెట్	-9.81979
▁రస	-9.82065
షియ	-9.82162
▁మల	-9.82171
ంచిన	-9.82174
▁at	-9.82246
▁దృశ్య	-9.8236
51	-9.82385
▁తగ్గి	-9.82402
▁పొందారు	-9.82406
నియన్	-9.82447
▁అధికారుల	-9.82457
▁ప్రసార	-9.82513
ాయ్	-9.82537
ద్ది	-9.82557
ణీ	-9.82593
త్స	-9.82607
▁పోలీసులు	-9.8262
పర	-9.82685
▁ఆస్ట్రేలియా	-9.82687
▁కన్	-9.82724
▁ఆలయంలో	-9.82739
స్కో	-9.82762
▁సూచి	-9.82858
▁వార్	-9.82875
▁చర్చి	-9.82895
గుంట	-9.82914
▁నృత్య	-9.82918
▁భీమ	-9.82931
▁పిల్లలు	-9.83021
ుడికి	-9.83055
▁మిలియన్	-9.8309
▁పార్	-9.83143
▁రాగ	-9.83155
na	-9.8316
▁సీఎం	-9.83165
▁ఆక్రమించ	-9.83197
వంతమైన	-9.83215
▁సంబంధించి	-9.83229
దారులు	-9.83234
పక్ష	-9.83316
టంతో	-9.83336
కాంత	-9.83384
39	-9.83391
▁సైన్య	-9.83481
▁మౌ	-9.83505
ంటాడు	-9.83549
▁తీయ	-9.83587
▁అనంత	-9.83607
▁వుండ	-9.83637
▁దక్క	-9.83695
చేసిన	-9.83707
చిత్ర	-9.83724
▁పర్	-9.83731
▁1990	-9.83739
▁ఉన్నా	-9.83771
మ్స్	-9.8379
▁జైలు	-9.83829
▁తరువాతి	-9.83832
▁–	-9.83844
విద్య	-9.83857
చేత	-9.83859
▁మ్యాచ్	-9.83869
▁తెలి	-9.83884
▁ఉపాధ్యాయ	-9.83887
▁వైద్యశాలలో	-9.83889
▁ఇలాంటి	-9.83894
పోయే	-9.83968
▁చెన్నై	-9.83995
ల్ని	-9.84049
ak	-9.84092
ాకార	-9.84169
ant	-9.84189
▁అక్షర	-9.84202
▁దిగువ	-9.84227
వడం	-9.84243
▁మీటర్ల	-9.84331
est	-9.84432
▁మనిషి	-9.84433
▁పన్ను	-9.84453
▁అవుతుంది	-9.84545
▁వ్య	-9.84551
▁జై	-9.8456
▁చేయబడిన	-9.84589
▁అడుగు	-9.84632
▁అఫ్	-9.84674
▁పరా	-9.84678
▁ఛ	-9.84701
▁అడుగుల	-9.84705
▁ఉద్	-9.84741
▁ఇచ్చారు	-9.8479
వచ్చ	-9.84834
▁సిద్ధాంత	-9.84861
▁ఇస్లాం	-9.84887
▁కొంతమంది	-9.84947
▁చంద	-9.84962
కొన	-9.84988
▁పుట్టిన	-9.8499
▁45	-9.84996
▁వ్యవహరించ	-9.85004
ానంద	-9.8501
▁నీవు	-9.85022
▁ఖా	-9.85027
▁సాధించింది	-9.85101
▁హత్య	-9.85135
భాగం	-9.85189
ాలయ	-9.85208
ుకుంటున్న	-9.85215
నంద	-9.85224
▁జన్మించారు	-9.85232
▁సెంటర్	-9.85239
58	-9.85254
▁విద్యార్థి	-9.85255
▁యంత్ర	-9.85329
ుకొన్న	-9.85422
▁ప్లే	-9.85439
వలన	-9.85474
రేట్	-9.85499
ive	-9.85512
నాధ	-9.85551
46	-9.85562
▁శబ్ద	-9.85562
ia	-9.85575
U	-9.85604
▁డివిజన్	-9.85621
▁పెడ	-9.85622
▁వేడుక	-9.85649
▁తత్వ	-9.85665
▁విష	-9.85694
▁సంబంధిత	-9.85743
▁మారు	-9.85785
▁మధ్యలో	-9.85847
రాన్	-9.85877
▁పురాణ	-9.85954
▁ma	-9.85962
▁సాధించిన	-9.85989
▁ఉదయం	-9.86062
కృతి	-9.86064
మయిన	-9.86081
▁చేరి	-9.86094
▁పనిచేస్తున్న	-9.86115
▁ప్రత్యేకంగా	-9.86135
▁పండ	-9.86279
ణ్	-9.8633
▁నాకు	-9.86347
▁అంతర్	-9.86356
శ్య	-9.86401
▁జనరల్	-9.86436
▁కోరిక	-9.86545
▁ఘ	-9.866
▁దైవ	-9.86605
▁ఆప	-9.86624
▁ఏమి	-9.86648
▁పరమ	-9.86685
▁యి	-9.86696
భి	-9.86804
▁ఆమెను	-9.8681
▁గ్రామీణ	-9.86826
▁ఉపయోగించి	-9.86932
ప్రా	-9.86936
ొక్క	-9.86995
▁వన	-9.87031
ించు	-9.87059
▁ఆమ్ల	-9.87118
▁పరిమిత	-9.87125
▁ప్రదేశం	-9.87125
▁సొ	-9.8716
పరు	-9.87172
ందా	-9.87206
▁రొ	-9.87216
మ్ము	-9.8722
▁లోక	-9.8722
భారత	-9.87226
▁రావ	-9.8723
▁ప్రయత్నించ	-9.87267
▁ప్రాంతీయ	-9.87275
ac	-9.87288
▁వేదిక	-9.87305
▁గమనించ	-9.87331
కుమార్	-9.8736
▁గంగ	-9.87405
ేరు	-9.87429
కారుడు	-9.87429
ers	-9.87442
▁సంస్థల	-9.87451
▁చెల్లించ	-9.87466
రాం	-9.87481
ాల్సిన	-9.87485
▁నీటిని	-9.87549
▁వేసి	-9.87602
▁రిపబ్లిక్	-9.87643
▁వాయు	-9.87663
▁పుణ్య	-9.87745
సిస్	-9.87823
▁వ్రాస	-9.87831
▁కర	-9.87879
▁బర్	-9.87895
▁యాత్ర	-9.87916
▁ప్రమాద	-9.87938
▁నటుడు	-9.8794
మైనవి	-9.87979
పాడులో	-9.87985
గూడెం	-9.88006
53	-9.8801
{	-9.88093
▁సాంఘిక	-9.88171
▁సౌ	-9.88218
▁ఇటీవల	-9.88249
చర్	-9.8832
▁2017	-9.8841
హర	-9.88479
▁ఎవరి	-9.88533
▁వహించ	-9.88542
▁అంతా	-9.8858
పాత్ర	-9.88604
52	-9.88614
గురు	-9.88644
▁పరిమాణం	-9.88647
▁అన్నది	-9.8865
రాలు	-9.88771
▁లాల్	-9.88795
▁పత్ర	-9.88842
▁ఆధార	-9.88865
▁పారిశ్రామిక	-9.89015
▁వర్గం	-9.89027
▁ఏర్పడింది	-9.89067
హు	-9.89119
G	-9.89154
▁నంది	-9.89277
▁pro	-9.89285
▁తగిన	-9.89292
రువు	-9.89301
▁బొమ్మ	-9.89345
బడ్డాడు	-9.89365
▁సేవలు	-9.8937
ay	-9.89387
▁దిగ	-9.89413
▁గంగా	-9.89432
స్థాయి	-9.8946
ముతో	-9.89467
▁పురస్కారం	-9.89469
▁సృష్టి	-9.89537
▁మిలియన్ల	-9.89543
త్రి	-9.89599
వెన్	-9.89614
▁నెలల	-9.89698
▁ఇరు	-9.89702
▁రచనలు	-9.89759
▁కార్యక్రమాలు	-9.8976
▁దొర	-9.89783
▁అందువలన	-9.89805
▁స్వర	-9.89809
ర్థ	-9.89837
మార్గ	-9.89892
▁సముద్రం	-9.89919
రస్	-9.89948
పదార్ధ	-9.89971
పేటలో	-9.90012
▁కడప	-9.90038
ఖ్	-9.9005
▁లాభ	-9.90093
టల్	-9.90094
రుగ	-9.90155
ab	-9.90178
▁రద్దు	-9.90235
యల్	-9.90308
మణి	-9.90316
▁పల్లె	-9.90421
ారా	-9.90495
▁ఏరియా	-9.90516
గుల	-9.90518
▁సూత్ర	-9.90525
వ్యా	-9.90639
ాంగ	-9.90663
▁అగ్ర	-9.90664
టరీ	-9.90671
▁వంట	-9.90689
▁దాన్ని	-9.90762
▁se	-9.90782
▁పనిచేశాడు	-9.90794
నాథ్	-9.90802
▁చలనచిత్ర	-9.90922
చ్చే	-9.90947
▁స్త్రీలు	-9.90955
▁దూరములో	-9.90987
res	-9.91022
ుతోంది	-9.91038
▁చేతిలో	-9.91038
▁ఎఫ్	-9.91041
▁కార్యక్రమం	-9.91051
▁అర్ధం	-9.91065
▁భూగర్భ	-9.91078
▁విషయ	-9.91118
ర్చ	-9.91131
ంటె	-9.91137
▁ప్రయత్నం	-9.91159
వని	-9.91168
తిక	-9.91374
59	-9.91405
ంబర్	-9.91439
వల్	-9.91462
di	-9.91463
▁గణిత	-9.91472
తిని	-9.91477
ట్రో	-9.91493
ge	-9.91542
కథ	-9.91585
▁కొనుగోలు	-9.91631
▁చారిత్రక	-9.91664
▁వీడియో	-9.91731
▁స్వంత	-9.9175
▁పొందాడు	-9.91765
▁తేడా	-9.91826
▁పేర్లు	-9.91848
▁కన్నడ	-9.91893
▁ఉండేవి	-9.91923
▁ప్రాంతాన్ని	-9.91931
▁బరువు	-9.91962
▁కింగ్	-9.92021
దశ	-9.92023
▁లకు	-9.92102
▁మిగతా	-9.92122
లుగు	-9.92152
ంతి	-9.92161
▁మహారాష్ట్ర	-9.92177
▁ఎన్నికల	-9.92231
▁ఆమెకు	-9.92234
▁దర్శకత్వంలో	-9.92235
పోవడం	-9.92306
వేద	-9.92309
▁చెరకు	-9.92388
చ్చు	-9.92389
▁హార్	-9.92402
బల	-9.92511
▁నడి	-9.92519
▁తరలించ	-9.92537
▁చేస	-9.92546
▁2012	-9.92643
శం	-9.92651
▁స్టేట్స్	-9.92716
▁డబ్బు	-9.92748
▁ఇండియన్	-9.92752
వాహ	-9.92759
▁గోడ	-9.92784
▁గూ	-9.92819
op	-9.92848
▁హక్కు	-9.92944
▁సెల్	-9.92967
▁which	-9.93043
▁లండన్	-9.93044
▁1980	-9.93048
▁పొడి	-9.93066
▁పనిచేశారు	-9.93092
▁ఊరి	-9.93136
▁తీసుకో	-9.9324
▁దశలో	-9.93284
▁పూర్వం	-9.93308
ుంది	-9.93323
▁గుర	-9.93437
▁వాతావరణ	-9.93464
▁నిత్య	-9.93524
▁ఆయా	-9.93588
▁సమాచార	-9.93605
▁కై	-9.93715
ష్ఠ	-9.93732
హీ	-9.93741
బంధ	-9.93825
▁పేద	-9.93902
▁భావన	-9.93929
డ్స్	-9.93978
▁మనసు	-9.94017
బడ్డ	-9.94037
పాలెంలో	-9.94046
▁చలన	-9.94061
డింగ్	-9.94155
▁కుమార్	-9.94168
కట్ట	-9.94214
షియా	-9.94307
▁నరసింహ	-9.94308
▁ఇతను	-9.94333
▁రోజుల్లో	-9.94369
నారాయణ	-9.94385
▁తీసుకుని	-9.94422
డియా	-9.94423
▁చివరకు	-9.94433
▁వృద్ధి	-9.94481
నామ	-9.94492
▁మాన్	-9.94578
పడింది	-9.94594
▁వచ్చాయి	-9.94617
▁జరిప	-9.94637
▁కుటుంబం	-9.94664
▁నిల్వ	-9.94718
▁క్రీడా	-9.94757
▁మార్పులు	-9.94826
▁అందుకే	-9.94862
▁హక్కుల	-9.94942
▁నట	-9.94955
▁ఉపయోగించే	-9.95077
▁ఎన్నిక	-9.95139
పులు	-9.95144
గమ	-9.95244
▁డో	-9.95284
▁పలక	-9.95306
▁జరుగుతున్న	-9.95327
▁తార	-9.95383
▁ఇంధన	-9.95422
▁ప్రక్క	-9.95432
ంక్	-9.95446
▁పాల్గొన	-9.95475
▁ఇప్పటి	-9.9549
all	-9.95515
▁ప్యా	-9.95558
▁బార్	-9.9556
గణ	-9.95625
▁ఇచ్చే	-9.95701
▁మట్టి	-9.95812
▁జరిగాయి	-9.95825
▁ప్రథమ	-9.95857
ుకుంటూ	-9.95881
▁గాను	-9.96028
▁పెట్టి	-9.96109
ాలపై	-9.96125
▁ఇంగ్లీషు	-9.962
▁కీలక	-9.96212
▁అందరి	-9.96213
▁వరల్డ్	-9.96382
▁మామిడి	-9.96389
▁విభజించ	-9.96406
క్సి	-9.96447
▁వయసు	-9.96503
▁నటి	-9.9652
▁తీసి	-9.96523
ంపేట	-9.96527
▁అడవి	-9.96546
▁స్నేహితు	-9.96563
▁33	-9.96588
▁పోలీసు	-9.96602
▁బౌ	-9.96609
▁ఫ్రెంచ్	-9.9661
▁ఇంద్ర	-9.96647
ఓ	-9.96648
ురాలు	-9.96651
దార్	-9.96675
▁నూ	-9.96696
టివ్	-9.96727
గొండ	-9.96728
▁లేదని	-9.96762
▁ఇచ్చి	-9.96779
శీల	-9.96782
▁రాణి	-9.96841
ఫర్	-9.96842
▁రథ	-9.96973
▁నాయకుడు	-9.97005
▁ఆమ్లం	-9.97055
▁మర్	-9.97057
▁పద్ధతుల	-9.9706
▁యో	-9.97108
▁ప్రైవేట్	-9.9716
▁రాష్ట్రాల	-9.97206
▁తేదీన	-9.97219
▁నాయక	-9.97225
▁నిజామాబాద్	-9.97229
▁దేశాలు	-9.9723
▁ఇంటర్	-9.97257
▁విద్యార్థుల	-9.97278
▁ప్రభ	-9.97297
▁ప్రాధాన్యత	-9.97298
▁నాయకులు	-9.9731
▁సున్న	-9.97318
క్షేత్ర	-9.97427
▁వరుస	-9.97447
▁సింహ	-9.9748
W	-9.97519
▁వస్తున్న	-9.97575
దృ	-9.97596
▁గోపాల	-9.97713
▁పదార్థం	-9.97751
పాక	-9.97867
ity	-9.9787
▁అధికారిక	-9.97876
▁సేన	-9.97938
▁తమిళనాడు	-9.9794
బడ్డారు	-9.97959
▁అలీ	-9.97966
▁తీసుకున్న	-9.97996
▁దీ	-9.98041
▁రకాలు	-9.98086
▁సారి	-9.98126
▁కాన్	-9.98188
రొ	-9.98297
ion	-9.98301
▁అణు	-9.98315
▁నిలిచి	-9.98338
చర్ల	-9.98402
he	-9.98421
▁దర్శించ	-9.98459
ర్ధ	-9.98535
▁మిశ్రమ	-9.98548
▁it	-9.98553
▁వచ్చ	-9.9856
ారంలో	-9.98561
నింగ్	-9.98575
ఛ	-9.98593
▁విధ	-9.986
▁దళ	-9.9861
వర్తన	-9.9862
▁అనుబంధ	-9.98716
▁గుండె	-9.98733
▁సీత	-9.98813
▁తిన	-9.9882
▁పరిపాలన	-9.9885
▁నంద	-9.98853
▁బాణ	-9.98904
▁పనుల	-9.98989
▁పోరాట	-9.98991
ొక	-9.99087
▁దర్	-9.9915
▁విభాగం	-9.99179
▁ఆచార	-9.99294
▁ఏర్పరచ	-9.9932
▁రాష్ట్రంలోని	-9.99323
▁పనిచేయ	-9.99334
du	-9.99345
▁రాజ్యాంగ	-9.99381
ప్రాథమిక	-9.99396
బొ	-9.99433
▁విధించ	-9.99464
▁80	-9.99496
▁మానసిక	-9.99497
స్తున్నారు	-9.99558
▁క్లా	-9.99564
▁విభాగ	-9.99606
▁పర్యావరణ	-9.99637
▁పాలనలో	-9.99652
▁తిరుగు	-9.9966
శేఖర	-9.99675
▁వివరణ	-9.99681
రాజ్	-9.99706
ోత్సవం	-9.99712
▁చెప్పి	-9.99826
▁ఆదివారం	-9.99924
▁కప్ప	-9.99926
ాలన్న	-9.99957
up	-10.0001
▁యజ్ఞ	-10.0002
▁సంపద	-10.0006
▁లోక్	-10.001
▁సోవియట్	-10.001
ండీ	-10.0011
▁ఉన్నట్లు	-10.0013
▁కొనసాగించ	-10.0013
de	-10.0022
▁జాతుల	-10.0024
▁నటించిన	-10.0028
ధర్మ	-10.0036
▁In	-10.0044
పురా	-10.0045
per	-10.0045
▁త్ర	-10.0047
▁డ్ర	-10.0048
▁రేఖ	-10.0049
సార	-10.005
▁జానపద	-10.0052
▁కెనడా	-10.0052
pe	-10.0055
▁స్వాధీనం	-10.0055
▁మరణించ	-10.0058
▁ఏర్పడ	-10.006
▁వీరికి	-10.0069
ne	-10.007
▁మళ్ళీ	-10.007
▁ప్రతిపాదించ	-10.0071
▁°	-10.0071
▁వచ్చారు	-10.0079
age	-10.0079
▁దేవి	-10.0079
▁సంస్కరణ	-10.0081
▁కనిపించే	-10.0084
మాల	-10.0086
ారం	-10.0088
▁అధికారి	-10.0089
గన్	-10.0093
▁కలిగించ	-10.0095
ul	-10.0097
బడుతున్న	-10.01
▁రాజ్	-10.0105
▁36	-10.0105
▁బహుమతి	-10.0107
▁రైతు	-10.0111
▁కన్న	-10.0111
▁విద్యుత్తు	-10.0116
వరంలో	-10.0118
▁సంవత్సరము	-10.012
▁వేంకట	-10.012
▁రాస	-10.0121
షణ	-10.0124
▁పాలు	-10.0125
▁స్వీకరించ	-10.0126
▁అప్ప	-10.0127
టై	-10.0127
▁సామెత	-10.0128
▁నాట్య	-10.013
▁ఉండడం	-10.0135
▁అంతే	-10.0139
▁ముందుకు	-10.0141
▁వస్తువు	-10.0149
ca	-10.0152
▁మనకు	-10.0154
పోయాయి	-10.0158
▁విధాన	-10.016
నుంచి	-10.0164
▁ఎన్న	-10.0165
ag	-10.0165
▁అంశాల	-10.0169
య్యారు	-10.0172
ద్దు	-10.0183
▁విస్తరించ	-10.0183
▁సందర్శించ	-10.0186
▁స్కా	-10.019
▁2003	-10.0191
▁సుఖ	-10.0195
సులు	-10.0195
▁గ్రీకు	-10.0197
పట్నం	-10.0197
▁పొర	-10.0201
▁మహిళా	-10.0204
నాయక	-10.0205
▁అడవుల	-10.0206
చ్చిన	-10.021
▁సహాయం	-10.021
▁ప్రారంభించ	-10.021
▁మిల్	-10.0211
▁రక్షించ	-10.0212
ుకోవచ్చు	-10.0212
ుచున్న	-10.0215
▁సరైన	-10.022
రింగ్	-10.0224
▁ప్రవక్త	-10.0229
▁బెంగాల్	-10.0229
బాటు	-10.0238
ెత్త	-10.024
▁దాన	-10.0244
▁సుర	-10.0245
భూ	-10.0246
▁నిబంధన	-10.0247
మూల	-10.025
▁రోజున	-10.0251
▁బయటకు	-10.0252
▁సాయం	-10.0258
▁కీర్తి	-10.0262
▁దేవత	-10.0263
▁జరుగ	-10.0263
▁నెట్	-10.0284
▁పాల్	-10.0285
▁మల్	-10.0285
సెస్	-10.0286
▁సర్వే	-10.0287
▁ఎటువంటి	-10.0289
▁అధికారం	-10.029
ni	-10.0292
▁కార్యాలయ	-10.0297
తకు	-10.0302
▁స్థానాల	-10.0321
లేదని	-10.0324
▁శ్రీలంక	-10.033
ాధికార	-10.0334
▁తాము	-10.0336
ుతున్నాయి	-10.0338
▁లక్ష్య	-10.0338
ిణి	-10.0341
ష్య	-10.0342
▁ఉష్ణ	-10.0342
పంచ	-10.0343
▁తదితర	-10.0348
ఖ్య	-10.0349
▁కంది	-10.0352
మంత	-10.0359
▁అమెరికాలో	-10.0364
▁చేసుకోవ	-10.0365
రిగి	-10.0367
▁మండ	-10.0375
▁కర్ణ	-10.0381
▁పొట్టి	-10.0381
▁ప్రతిభ	-10.0381
▁అమ్మవారి	-10.0383
▁కారు	-10.0385
బర	-10.0386
▁చర్మ	-10.0388
ుడై	-10.0395
▁చౌ	-10.0396
ధ్	-10.0397
్ని	-10.04
▁అమృత	-10.0408
▁ఒకటిగా	-10.0408
▁శాస్త్రవేత్త	-10.041
▁హే	-10.041
తృ	-10.041
▁కేంద్రంగా	-10.0416
▁సోమవారం	-10.0419
▁జైన	-10.042
▁పులి	-10.0421
ke	-10.0422
రియల్	-10.0424
▁వర్ణించ	-10.0428
▁దివ్య	-10.0428
హరి	-10.0428
▁వద్దకు	-10.0429
▁లక్ష్మణ	-10.043
ాపురంలో	-10.0436
▁స్నాన	-10.0441
▁బెల్లం	-10.0443
▁ఎక్క	-10.0444
▁రోగ	-10.0452
▁this	-10.0453
ళ్	-10.0456
▁1970	-10.0461
▁వుండును	-10.0461
▁హాస్య	-10.0461
▁తీసుకొ	-10.0464
▁సంకేత	-10.0464
పడ్డారు	-10.0471
▁చూపించ	-10.0471
▁నేర్చ	-10.0472
▁వెంట	-10.0473
ష్టి	-10.0474
ti	-10.0481
ish	-10.0486
▁నటన	-10.0489
▁ప్రశంస	-10.049
▁సంస్థాన	-10.0491
ోప	-10.0498
▁ఉచిత	-10.05
▁పున	-10.0502
య్యే	-10.0502
న్నాడు	-10.0505
సంబంధ	-10.0508
▁ప్రాంతానికి	-10.0509
▁మొదలగు	-10.0511
దళ	-10.0522
▁మెరుగు	-10.0529
▁ప్రేక్షకుల	-10.053
ిస్తా	-10.0538
▁జంతువుల	-10.0538
▁అధ్యయన	-10.0542
ుతాడు	-10.0542
▁ప్రారంభంలో	-10.0546
▁నిర్మల్	-10.0552
▁బ్రి	-10.0552
▁రోడ్	-10.0554
▁స్థాపించ	-10.0555
దగిన	-10.0561
▁పోరాడ	-10.0562
▁అశ్వ	-10.0563
▁పీఠ	-10.0565
▁వ్యాసాల	-10.0566
▁దే	-10.0574
▁నష్ట	-10.0577
సమ	-10.0585
యస్	-10.0586
ాంధ్ర	-10.0588
▁షె	-10.0588
దురు	-10.059
ష్ణ	-10.0592
ga	-10.0592
▁వృత్త	-10.0593
▁మొక్కల	-10.0594
మవుతుంది	-10.0595
థ్	-10.0598
▁కొత్తగా	-10.0601
▁ఫోర్	-10.0602
జూ	-10.0606
▁వాడి	-10.0606
▁రుద్ర	-10.0609
▁ఆశ	-10.0612
జ్ఞాన	-10.0613
ఫై	-10.062
▁వివరాలు	-10.0621
బూ	-10.0625
నార్	-10.0632
▁విషయాల	-10.0641
▁భాగాలు	-10.065
▁ఉన్నప్పటికీ	-10.0653
▁తెలిసిన	-10.0658
▁లోపల	-10.0659
▁జరిగి	-10.066
ఎన్	-10.0661
▁రాతి	-10.0661
పోతున్న	-10.0666
▁గానీ	-10.0672
▁మరణం	-10.0674
▁సమ్మేళన	-10.0677
▁బ్రిటన్	-10.0679
▁నీల	-10.0681
భీ	-10.0686
▁రకం	-10.0686
▁పరిధిలోకి	-10.0687
▁వేర్	-10.0689
▁చేసుకుని	-10.0698
స్తుందని	-10.07
▁అంటూ	-10.0705
రాష్ట్ర	-10.0716
ైంది	-10.0717
▁లీగ్	-10.0731
▁జీవితంలో	-10.0739
▁అచ్చ	-10.0742
▁సన్న	-10.0743
ించడానికి	-10.0751
▁వ్యక్తుల	-10.0752
▁గజ	-10.0753
▁భూభాగం	-10.0771
▁అనువాద	-10.0771
▁సాహిత్యం	-10.0776
▁ఎనిమిది	-10.078
పైన	-10.0786
▁వ్యా	-10.0787
ఘా	-10.0789
▁చేసేందుకు	-10.0797
దానం	-10.0805
▁రామారావు	-10.0805
▁సంపాదక	-10.0808
ట్లుగా	-10.0811
▁మిరప	-10.0815
▁సమితి	-10.0815
▁ఆకాశ	-10.0817
ాభి	-10.0819
▁37	-10.0822
ిందని	-10.0824
ింపబడ	-10.0824
▁ఇటువంటి	-10.0832
యీ	-10.0838
ామని	-10.0843
▁ఏళ్ల	-10.0847
▁ఉపరితల	-10.0849
జేయ	-10.0851
▁బూ	-10.0858
▁స్వరూప	-10.0862
▁కనుగొన	-10.0864
end	-10.0865
మయ్యాయి	-10.0872
చాడు	-10.0876
▁విగ్రహం	-10.0877
పార్	-10.0878
▁విస్తీర్ణం	-10.0885
▁రామకృష్ణ	-10.0888
▁సమర్పించ	-10.0891
▁భక్తుల	-10.0891
▁శ్రీరామ	-10.09
▁క్రమంగా	-10.0901
▁నొ	-10.0905
▁సంభవించ	-10.0907
▁ఆధ్యాత్మిక	-10.0907
▁పోరాటం	-10.0911
▁పాత్రలు	-10.0912
▁అందరూ	-10.0913
▁ఆదాయం	-10.0918
▁సంతోష	-10.0918
▁కథా	-10.0918
యిల్	-10.0925
▁కళ్యాణ	-10.0935
▁రాజమండ్రి	-10.0946
దాయ	-10.095
▁వాడుకలో	-10.0951
భ్ర	-10.0951
టూ	-10.0952
ంద్ర	-10.0954
▁అలాంటి	-10.0956
మూరు	-10.0956
▁శిలా	-10.0957
▁ఎలాంటి	-10.096
▁ఏదైనా	-10.0966
▁ఫో	-10.0972
▁తీసుకొని	-10.0973
▁నివసించ	-10.0976
▁ప్రోత్సహించ	-10.0993
▁ఎమ్మెల్యే	-10.0993
ిరెడ్డి	-10.0994
▁సర	-10.0996
▁హీరో	-10.1012
▁మీడియా	-10.1015
▁ఆకర్షణ	-10.102
▁పద్ధతిలో	-10.1028
పత్ర	-10.103
▁గురి	-10.1034
▁ప్రకటించింది	-10.1037
▁ప్రకాశ	-10.1037
▁వీరిలో	-10.1038
▁క్లబ్	-10.1039
▁చేయుట	-10.104
▁ఎకరాల	-10.1041
▁కాశీ	-10.1042
▁ఒక్కొక్క	-10.1042
మంతా	-10.1044
బాబు	-10.1045
ేశ్	-10.1045
▁ex	-10.1056
▁మంచు	-10.1057
▁క్రమంలో	-10.1068
▁ప్రాముఖ్యత	-10.1071
▁ధర్మరాజు	-10.1074
▁కోప	-10.1081
▁నదీ	-10.1091
▁వైవిధ్య	-10.1107
▁వాళ్ళ	-10.1109
▁ప్రసాద్	-10.1119
▁గ్రంథం	-10.1121
▁శాస్త్రి	-10.1123
▁పల్ల	-10.1123
▁స్వయంగా	-10.1124
▁ఆరంభ	-10.1133
▁US	-10.114
▁బుద్ధ	-10.1141
లెట్	-10.1147
▁క్రీడ	-10.1155
యింది	-10.1159
▁అండ	-10.116
▁శక్తిని	-10.1161
▁సందేశ	-10.1161
▁||	-10.1163
ప్పటి	-10.1164
▁అనకాపల్లి	-10.1167
▁ఉన్నప్పుడు	-10.1171
||	-10.1173
▁లభించ	-10.1174
▁భావిస్తారు	-10.1175
▁తప్పు	-10.1179
▁కృ	-10.1182
▁తాలూకా	-10.1191
▁వర్గ	-10.1192
దాసు	-10.1193
▁ఏనుగు	-10.1194
రల్	-10.1195
▁నార్	-10.1199
lu	-10.1202
లెక్	-10.1204
▁జగన్	-10.1207
▁మళ్లీ	-10.1207
▁యూరోపియన్	-10.1211
▁వరుసగా	-10.1215
▁దండ	-10.1216
శ్లేష	-10.1223
చేశారు	-10.1229
▁చూసిన	-10.1229
▁వరద	-10.1234
▁ఒప్ప	-10.1235
▁సీజన్	-10.1235
▁అమర్చ	-10.1235
▁చిక్క	-10.1237
చారు	-10.1238
▁షో	-10.124
ధార	-10.1242
-2	-10.1242
▁మరణించాడు	-10.1246
▁స్టేట్	-10.1246
దిన	-10.1247
▁బెర్	-10.125
▁కాలేజీ	-10.1251
▁ఒకసారి	-10.1252
▁వేట	-10.1252
▁వెబ్	-10.1258
ear	-10.126
ap	-10.1262
▁నేపథ్యంలో	-10.1264
▁దుకాణాలు	-10.1273
▁సింగ	-10.1275
▁నాయుడు	-10.1278
▁రాయి	-10.1278
▁అంశం	-10.1278
▁తీర్చ	-10.1283
▁లక్షణాలు	-10.1287
▁వెలుపల	-10.1291
కళ	-10.1293
▁పుస్తకాల	-10.1293
ములకు	-10.1298
లపాడు	-10.1303
▁పదవీ	-10.1306
భో	-10.1306
▁రహస్య	-10.1307
ుకుంటుంది	-10.1308
▁ధ్యాన	-10.1314
▁పక్క	-10.1314
▁పురుషులు	-10.1316
ట్యూ	-10.1319
our	-10.1325
▁అంబ	-10.1326
▁ముద్ర	-10.1327
▁గుహ	-10.1329
▁చేసుకుంట	-10.1332
యోధ	-10.1334
లొ	-10.1335
▁2002	-10.1335
▁శుక్రవారం	-10.134
▁లక్షణ	-10.1348
▁అనుకూల	-10.135
▁శాశ్వత	-10.1352
▁కేరళ	-10.1352
యిన్	-10.1355
▁సెంట్రల్	-10.1356
▁వేగంగా	-10.1357
▁సెయింట్	-10.136
▁ప్రపంచంలోని	-10.1364
▁చార్	-10.1368
యైన	-10.1369
▁కలుగ	-10.137
▁చేతుల	-10.1374
యున్న	-10.1374
ci	-10.138
▁డిమాండ్	-10.138
▁1999	-10.1381
▁హింస	-10.1389
▁తరఫున	-10.1389
పాయ	-10.1391
▁వార్త	-10.1397
తంత్ర	-10.14
▁ఒప్పంద	-10.1402
▁200	-10.1405
▁విశిష్ట	-10.1409
▁సీతారామ	-10.1411
శ్చ	-10.1414
▁కనీసం	-10.1418
▁మిత్ర	-10.1419
దత్త	-10.1423
▁ప్రతిపాదన	-10.1425
యాత్ర	-10.1429
వెల్	-10.1436
▁దేశంలోని	-10.1437
▁ట్రా	-10.1437
▁ప్రమాదం	-10.1439
▁ఉనికి	-10.1443
▁పండిత	-10.1443
▁అంట	-10.145
▁ఉప్పు	-10.1451
▁రోమన్	-10.1452
▁రాం	-10.1454
▁చెరువులు	-10.1454
▁బాబు	-10.1455
ధర	-10.1456
ంటాయి	-10.1456
▁పోయి	-10.1458
క్ట్	-10.1463
టిల్	-10.1463
▁కర్	-10.1463
ట్రిక్	-10.1465
▁యూనివర్సిటీ	-10.1466
▁పోత	-10.1469
▁క్రో	-10.1469
ిస్తున్నాయి	-10.1469
వద్ద	-10.1471
▁చేస్తా	-10.1474
oc	-10.1476
▁రవి	-10.1477
od	-10.1479
ప్రపంచవ్యాప్తంగా	-10.1483
దైన	-10.1486
▁శనివారం	-10.1491
ut	-10.1492
మిక్	-10.1501
▁పనిచేసే	-10.1505
▁రావడం	-10.1507
▁అష్ట	-10.1518
▁కురు	-10.1521
▁చేశా	-10.1524
టెన్	-10.1526
▁70	-10.1526
▁కనబడ	-10.1527
▁పాలి	-10.1529
▁నాటకం	-10.1529
▁వాద	-10.153
▁నైపుణ్య	-10.1536
▁ఫ్రాన్స్	-10.154
▁క్రా	-10.1543
▁విభిన్న	-10.1544
▁క్రితం	-10.1547
యుక్త	-10.1551
▁సమస్యలు	-10.1552
ంభ	-10.1552
▁బ్లాక్	-10.1554
మిడి	-10.1556
▁ఆందోళన	-10.1557
▁వాదన	-10.1558
ho	-10.1573
వాదం	-10.1579
▁భాగాల	-10.158
▁కత	-10.1584
▁1960	-10.1584
▁అసోసియేషన్	-10.1586
ry	-10.1587
▁బానిస	-10.1587
▁బుధవారం	-10.159
త్రా	-10.1593
డెన్	-10.1593
▁టెలివిజన్	-10.1594
▁చేసుకో	-10.1599
▁రాక్షస	-10.1602
ుచు	-10.1602
▁విని	-10.1609
▁హాల్	-10.1612
ఋ	-10.1615
tr	-10.1619
గతి	-10.162
j	-10.1626
కాని	-10.1629
▁సూపర్	-10.163
▁పాడేరులోనూ	-10.1636
▁సీనియర్	-10.1636
▁జీవుల	-10.1637
▁34	-10.1637
▁ప్రదర్శ	-10.1637
ధర్	-10.164
▁బోర్డు	-10.1648
▁ప్రియ	-10.1649
▁సత్యనారాయణ	-10.165
ine	-10.1659
▁మీదుగా	-10.1662
ోద్యమ	-10.1676
్యాల	-10.168
రత్న	-10.1685
▁గూడూరు	-10.1686
వాటి	-10.1688
▁బాధ్యతలు	-10.169
▁ప్రమాణ	-10.1693
▁మానవుల	-10.1701
▁బదిలీ	-10.1703
▁కావలసిన	-10.1704
ంచె	-10.1708
▁నిలిచింది	-10.1708
▁నటించ	-10.1709
▁తీవ్రమైన	-10.171
▁కవిత	-10.1719
మయ్య	-10.1719
▁వినియోగ	-10.1725
▁సరస్సు	-10.1729
ుదురు	-10.1731
▁హౌస్	-10.1735
▁వెలి	-10.1739
▁దేవతల	-10.174
▁1950	-10.1743
గ్గు	-10.1745
▁రావణ	-10.1746
▁విధానాల	-10.1747
▁బ్యాంక్	-10.1747
▁not	-10.1748
వరి	-10.1751
స్థి	-10.1751
▁అభిమాన	-10.1753
▁అడిగ	-10.1756
▁తూర్పున	-10.1756
▁సంవత్సర	-10.1758
▁వాల్	-10.1759
▁38	-10.1763
▁నటించారు	-10.1766
▁పెట్టారు	-10.1769
▁అధి	-10.1769
ాలున్నాయి	-10.1771
ాంశ	-10.1773
ఫు	-10.1775
ప్రాంత	-10.1776
టికి	-10.1778
▁తరచూ	-10.1781
▁నిండి	-10.1784
▁సూచన	-10.1784
▁2014,	-10.1789
▁ఇచ్చ	-10.1791
▁ముడి	-10.1792
▁ప్రత్యేకత	-10.1794
▁2015	-10.18
క్షేప	-10.18
▁రామచంద్ర	-10.1802
సింహ	-10.1804
▁విఫల	-10.1805
▁ఒక్కో	-10.1806
శో	-10.1813
▁చాలామంది	-10.1814
▁నగరానికి	-10.1816
▁ఇజ్రాయిల్	-10.1817
▁విధమైన	-10.182
▁మోస	-10.1821
▁ఉద్యోగం	-10.1824
▁చదువ	-10.1825
వీర	-10.1825
ast	-10.183
య్యాయి	-10.1833
్యత	-10.1833
ధ్ధ	-10.1833
▁విషయాన్ని	-10.1833
ల్లీ	-10.1834
ారావు	-10.1835
▁అవగాహన	-10.1847
▁వినియోగించ	-10.185
▁మండలాలు	-10.1851
స్టో	-10.1853
▁2015,	-10.1854
▁అవసర	-10.1859
style	-10.186
▁చేసుకున్నారు	-10.1861
▁ఉత్తర్వులు	-10.1862
▁ఇంట్లో	-10.1863
డ్డు	-10.1863
▁చివరికి	-10.1864
▁గవర్నర్	-10.1864
▁జవాహర్	-10.1864
▁శ్రీరాములు	-10.1865
▁ప్రయాణం	-10.1866
భూత	-10.1874
▁ఆశ్రమ	-10.1877
▁స్టార్	-10.188
▁ఫిర్యాదు	-10.1881
▁ప్రొఫెసర్	-10.1885
▁ఫే	-10.1886
▁తీవ్రంగా	-10.1896
సాగర్	-10.1901
▁ప్రత్యేకమైన	-10.1902
రాత్రి	-10.1903
▁ప్రభావితం	-10.1904
ంటో	-10.1906
▁వుంటుంది	-10.1907
▁ఏలూరు	-10.1908
▁ఎండ	-10.191
▁నిర్వహ	-10.1916
ర్చి	-10.1917
▁పార్లమెంటు	-10.1919
▁స్వల్ప	-10.192
▁యే	-10.1921
య్యా	-10.1923
ేశ	-10.193
▁దేశానికి	-10.1935
వేల	-10.1942
▁ఫ్రాం	-10.1944
టెక్	-10.1946
కపోతే	-10.1947
ig	-10.1947
▁ముంబై	-10.195
▁పార	-10.1952
గ్రామ	-10.1952
బడు	-10.1962
▁కొనసాగింది	-10.1967
▁నిలువ	-10.1967
ell	-10.1968
ుకొనే	-10.1971
-20	-10.1975
వలస	-10.1978
▁పలువురు	-10.198
▁సూచిస్తుంది	-10.1986
▁బుక్	-10.1987
▁అందిస్తుంది	-10.1993
▁ప్రతిష్ఠ	-10.1995
▁పనిచేస్త	-10.1997
▁జంట	-10.2004
▁లతో	-10.2006
▁సమూహాల	-10.2006
▁అదనపు	-10.2014
▁వసతి	-10.2023
▁పునర్	-10.2024
స్థితి	-10.2027
▁me	-10.2029
నట్లు	-10.203
▁సాధించాడు	-10.2031
బోధ	-10.2031
ies	-10.2031
టువంటి	-10.2032
▁కాలము	-10.2034
▁ముందే	-10.2036
▁హృదయ	-10.2037
పేరు	-10.2044
▁శతాబ్దాల	-10.2046
హర్	-10.2047
ల్యాండ్	-10.205
▁పైకి	-10.2051
▁కొల్ల	-10.2054
ph	-10.2057
▁బెల్	-10.2058
▁గార్	-10.2063
▁కొమ్మ	-10.2068
▁అర్జున	-10.207
▁దెబ్బ	-10.2072
▁చేస్తాయి	-10.2079
ction	-10.2082
▁వార్షిక	-10.2083
os	-10.2083
▁పరిగణించ	-10.2084
▁కావడం	-10.2086
సార్లు	-10.2088
▁వాటికి	-10.2088
▁భక్త	-10.209
ect	-10.2091
▁పుత్ర	-10.2095
▁కోర్	-10.2098
▁అకాడమీ	-10.2102
▁రాఘవ	-10.2106
మయ్యే	-10.2108
▁బలమైన	-10.2109
▁సలహా	-10.2109
▁ప్రారంభించాడు	-10.2112
ములోని	-10.2115
▁ఓడ	-10.2126
▁జర్మన్	-10.2128
▁సీతా	-10.2134
▁దొంగ	-10.2134
▁భార	-10.2134
ence	-10.2136
▁అంతర్గత	-10.2142
తులను	-10.2144
భక్త	-10.2145
బడుతున్నాయి	-10.2151
ధారణ	-10.2155
▁తిమ్మ	-10.2156
పూరు	-10.216
కూడా	-10.2161
మనే	-10.2163
యొక్క	-10.2164
▁42	-10.2166
▁అంతరిక్ష	-10.2167
▁పెట్టుబడి	-10.2172
mp	-10.2173
కన్	-10.2173
▁ఉండదు	-10.218
▁ఫ్ల	-10.2181
▁మించి	-10.2183
ండును	-10.2185
▁వయసులో	-10.2186
కేంద్ర	-10.2187
▁సమర్థ	-10.2187
వర్తి	-10.2189
▁మెదక్	-10.2194
▁డైరెక్టర్	-10.2195
▁ప్ల	-10.22
▁కాలేదు	-10.2202
ver	-10.2207
▁చెబుత	-10.2215
▁లెక్క	-10.2215
▁మొక్కలు	-10.2217
▁ప్రచురణ	-10.2222
ందరి	-10.2224
ill	-10.2224
నేట్	-10.2226
కారుల	-10.2229
▁టే	-10.2229
▁బహుళ	-10.2229
▁విజయనగర	-10.2233
▁విడ	-10.2235
వర్మ	-10.2244
చంద్ర	-10.2246
▁పెరుగు	-10.2251
▁తెచ్చి	-10.2252
ధాన	-10.2254
▁sp	-10.2257
▁వస్త్ర	-10.2258
▁నాటు	-10.2262
▁నిర్మ	-10.2263
▁ఉదా	-10.2265
విన్	-10.2267
▁భుజ	-10.2269
▁క్ల	-10.2269
వలె	-10.2273
▁పేర్ల	-10.2274
▁ఒత్తిడి	-10.2278
▁ఋణ	-10.2278
లోనికి	-10.2281
▁టెక్	-10.2281
▁ప్రారంభమైంది	-10.2282
bo	-10.2286
▁ఇండో	-10.2287
▁పట్టా	-10.2292
▁రూపం	-10.2294
వేసి	-10.2296
డికి	-10.2296
▁పేరును	-10.2296
▁ఏకైక	-10.23
రెన్	-10.2306
▁రత్న	-10.2306
▁ఓడి	-10.2313
▁పరిధి	-10.2314
ంచింది	-10.2317
▁కార్డు	-10.2321
▁దొ	-10.2322
▁హోదా	-10.2326
▁పోలీస్	-10.2345
▁పరిధిలోని	-10.2345
గలదు	-10.2346
▁సమస్యల	-10.2347
▁హైకోర్టు	-10.2349
▁వంతెన	-10.235
▁రకమైన	-10.235
▁ట్యా	-10.2352
▁బృంద	-10.2353
▁నర్	-10.2355
▁సస్యరక్షణ	-10.2367
▁నీకు	-10.2372
▁పెరిగింది	-10.2376
▁మందికి	-10.2376
▁తెలిసి	-10.2382
▁ప్రఖ్యాత	-10.2383
▁సైతం	-10.2386
▁భవనం	-10.2389
లియన్	-10.2389
ాత్మ	-10.2389
▁కొవ్వు	-10.239
▁బయలుదేర	-10.2395
▁పరిమాణ	-10.2397
ెదరు	-10.2401
▁వ్యక్తం	-10.2403
▁భాషలలో	-10.2404
▁ఎదుర	-10.2409
▁వచ్చాడు	-10.2412
▁ఎమ్	-10.2412
▁విధానాన్ని	-10.2413
▁రాజులు	-10.2414
▁రౌ	-10.2415
▁అరబ్	-10.2418
▁మార్గము	-10.242
▁ఇంటికి	-10.2423
▁పొంది	-10.2425
▁చేయించ	-10.2428
▁వుండే	-10.2432
▁ఉత్	-10.2436
తోనే	-10.2439
▁ప్రాంతము	-10.244
▁ఆర్ధిక	-10.2443
▁విష్ణువు	-10.2446
▁పేర	-10.2446
▁సందర్భంలో	-10.2448
▁దాంతో	-10.245
▁దంపతులకు	-10.2456
▁హీ	-10.2457
▁ప్రజాదరణ	-10.2458
ఖండ	-10.2458
త్వాన్ని	-10.2459
▁జగ	-10.246
స్థానం	-10.2461
▁చేరుకున్న	-10.2461
▁విషయాలు	-10.2466
సహ	-10.2467
ఎల్	-10.247
▁సరిహద్దులో	-10.2476
▁కార్మికుల	-10.248
▁మరల	-10.2482
రహిత	-10.2484
▁సిద్ధాంతం	-10.2488
తాయని	-10.2489
▁అనుమతించ	-10.2491
▁మంట	-10.2494
▁ఉత్తరాన	-10.2495
▁చైర్మన్	-10.2499
▁ప్రార్థన	-10.25
చ్చారు	-10.2501
▁అప్పటికే	-10.2503
▁వేసిన	-10.2504
▁నగరాల	-10.2507
▁అభిప్రాయం	-10.2507
వాల్	-10.2508
▁రంగం	-10.2508
▁ప్రాచుర్యం	-10.2512
▁రచనల	-10.2513
▁భూముల	-10.2513
జల	-10.2514
▁అదనంగా	-10.2517
▁ఎదుర్కొ	-10.2517
▁కారణాల	-10.252
వేష	-10.2531
▁గురువారం	-10.2531
▁ప్రారంభం	-10.2532
▁బిలియన్	-10.2534
▁చెల్ల	-10.2535
శేష	-10.2536
▁ద్వి	-10.2536
▁ఇచ్చింది	-10.2537
టెడ్	-10.2541
▁వందల	-10.2541
▁క్రీడల	-10.2549
▁పేర్కొన	-10.2551
▁ఆచార్య	-10.2554
వ్యవస్థ	-10.2558
▁ద్రవ్య	-10.256
▁పదార్థాల	-10.2565
వల్లి	-10.257
▁విభజన	-10.2573
▁ప్రసంగ	-10.2578
▁తెగ	-10.2587
▁శతక	-10.2588
▁దర్శన	-10.259
బాల్	-10.2591
బై	-10.2593
▁వైద్యులు	-10.2595
▁బాబా	-10.26
▁అమర	-10.26
విధ	-10.2601
ud	-10.2601
సేవ	-10.2608
భూమి	-10.2608
da	-10.261
ted	-10.261
▁ప్రి	-10.2611
▁నేటి	-10.2613
వచ్చని	-10.2618
▁శరీరం	-10.2619
▁స్వాతంత్ర్యం	-10.2628
▁1947	-10.2634
▁నిర్దిష్ట	-10.2636
su	-10.2641
▁కొంతకాలం	-10.2641
▁వ్యాపారం	-10.2642
▁విశేషం	-10.2644
▁పూజలు	-10.2646
కెట్	-10.265
▁జనతా	-10.265
▁టెక్నాలజీ	-10.265
▁పార్క్	-10.2651
బియా	-10.2651
▁ద్వీపం	-10.2652
▁టౌన్	-10.2653
జాన్	-10.2654
▁వ్యాఖ్యాన	-10.2654
▁జన్మించిన	-10.2658
▁90	-10.2663
▁గృహాల	-10.2668
code	-10.2674
▁ఊర	-10.2674
▁అక్క	-10.2677
▁ఫోటో	-10.268
ందరూ	-10.268
▁ప్రజలను	-10.2681
▁రూపాయల	-10.2681
▁ఉంటుందని	-10.2683
▁కనిపిస్తాయి	-10.2685
▁నక్షత్రం	-10.2685
▁తెలుగుదేశం	-10.2686
▁వేర్వేరు	-10.2687
▁వారసత్వ	-10.2687
▁పాలక	-10.2703
▁ఫ్రెంచి	-10.2705
▁నాగరికత	-10.2705
స్సా	-10.2708
▁కెమెరా	-10.271
▁ఉపయోగపడ	-10.2713
▁సమాజం	-10.2713
▁వీధి	-10.2715
▁శిష్య	-10.2717
▁మద	-10.2719
వంతంగా	-10.2724
ద్వారా	-10.2726
చేసే	-10.2732
▁ఉదయ	-10.2735
▁జరుగు	-10.2742
క్యు	-10.2745
ous	-10.2746
డుతూ	-10.2746
▁సమాఖ్య	-10.2747
క్టర్	-10.2748
పూర్లో	-10.2753
▁నిర్ణయం	-10.2755
▁మ్యా	-10.2756
▁బదులుగా	-10.2758
▁కమిషన్	-10.2761
▁ప్రాంతాలకు	-10.2763
▁లోపలి	-10.2768
▁ప్రచార	-10.2772
ేతర	-10.2777
▁ప్రకటించారు	-10.278
▁రూపకల్పన	-10.278
iv	-10.278
▁మంగళవారం	-10.2785
▁ప్రారంభించింది	-10.2786
▁గోల్	-10.2789
▁లోనే	-10.279
▁అటు	-10.2791
జాతి	-10.2792
పణ	-10.2799
▁జాగ్రత్త	-10.2799
▁ఆమోదించ	-10.2799
గడ్డ	-10.2806
no	-10.2813
▁శ్రేణి	-10.2815
ంజా	-10.2817
▁తెనాలి	-10.2818
ాద్రి	-10.282
▁పుస్తకాలు	-10.282
▁కాలువలు	-10.2822
▁ప్రీ	-10.2825
▁ఘటన	-10.2827
▁దేశీయ	-10.2835
జై	-10.2836
▁ఐస్	-10.2837
▁సినిమాలు	-10.2847
▁రాక	-10.2853
▁శుద్ధ	-10.2853
▁సమాధాన	-10.2855
▁పెరిగి	-10.2856
▁యుగ	-10.2858
▁రఘు	-10.286
ొచ్చు	-10.2864
▁భౌగోళిక	-10.2865
▁తరలి	-10.2872
హే	-10.2873
డియ	-10.2873
▁ముద్ద	-10.2873
▁కప్	-10.2875
▁గుర్తించారు	-10.2876
▁మాన	-10.288
▁శ్రీకృష్ణ	-10.2881
▁ధాన్య	-10.2882
▁మంచిర్యాల	-10.2884
▁పరిష్కార	-10.2898
▁సాహితీ	-10.2907
▁నెలకొల్ప	-10.2912
▁లూ	-10.2915
పట్ల	-10.2917
బెర్	-10.2918
▁చంద్రబాబు	-10.2923
▁నడుప	-10.2932
▁ఎల్ల	-10.2937
గోళ	-10.2944
▁సమాధి	-10.2945
▁కలెక్టర్	-10.2945
▁సర్పంచిగా	-10.2945
▁ప్రతిబింబ	-10.2945
▁ఏదో	-10.2946
▁అద్భుత	-10.2946
▁పాండవుల	-10.2946
▁అన్నీ	-10.2949
సాయి	-10.2957
▁అనీ	-10.2959
▁స్థలం	-10.2961
కరించ	-10.2961
పేట్	-10.2962
▁విశ్వాస	-10.2964
▁బలహీన	-10.2964
▁కోట్లు	-10.2965
వర్ణ	-10.2967
▁మార్గంలో	-10.2968
▁దూరంగా	-10.2969
▁శేష	-10.2969
▁చేరు	-10.2971
▁చనిపో	-10.2972
▁కంప	-10.2973
టార్	-10.2977
▁మాదిరిగా	-10.2979
ct	-10.2981
▁వికారాబాద్	-10.2983
▁ఉమ్మడి	-10.2983
▁తీసిన	-10.2984
▁షి	-10.2988
ితమైన	-10.2989
▁దుర్గ	-10.2992
▁ధ్రువ	-10.2993
మధ్య	-10.3
▁నేడు	-10.3002
▁56	-10.3003
▁1991	-10.3007
▁కార్పొరేషన్	-10.3017
డై	-10.3019
▁ఇంటర్నేషనల్	-10.3022
య్యాడు	-10.3025
వ్యాప్త	-10.3026
▁పెరుగుదల	-10.3028
ated	-10.3028
▁అనుసరించ	-10.3032
ణ్య	-10.3035
▁అత్యధికంగా	-10.3041
▁ఖాళీ	-10.3041
▁తదితరులు	-10.3042
▁చోటు	-10.3043
▁దీక్ష	-10.3043
▁పదాల	-10.3045
▁గెలుపొంద	-10.3046
▁నిద్ర	-10.3046
▁రాజుల	-10.3046
▁చుట్ట	-10.3046
▁పరిసర	-10.3047
ావు	-10.3047
▁స్వర్ణ	-10.305
://	-10.3051
▁మందు	-10.3051
ాభివృద్ధి	-10.3051
▁నిర	-10.3052
▁మరణించారు	-10.3054
▁India	-10.3055
▁స్వామివారి	-10.3058
▁తపస్సు	-10.306
▁నమ్మకం	-10.3063
▁చైతన్య	-10.307
▁అణువు	-10.3077
ానికీ	-10.3085
పట్ట	-10.3085
▁తాత	-10.3087
ాధి	-10.309
▁జనాభాలో	-10.3091
▁చేరాడు	-10.3099
ord	-10.3106
▁లక్షణాల	-10.3109
్యము	-10.311
▁స్థాపించారు	-10.3112
ఘ్	-10.3113
▁నిర్వహిస్తున్న	-10.3121
▁కనిపిస్త	-10.3127
▁ch	-10.3128
▁మహర్షి	-10.3134
▁చేయు	-10.3137
▁ప్రకారము	-10.3142
▁చేయాలి	-10.3143
▁అతనిని	-10.3145
▁జీవించ	-10.3146
▁కలప	-10.3149
ందున	-10.3152
పాత	-10.3152
▁కుడి	-10.3153
కోణ	-10.3154
స్తున్నాయి	-10.3155
▁వదల	-10.3156
▁వేయుట	-10.3157
▁బట్ట	-10.3159
-19	-10.3159
హారం	-10.3164
▁బిరుదు	-10.3167
పరిణామ	-10.3167
ప్రె	-10.3171
▁ఫుట్	-10.3177
ోపనిషత్తు	-10.3181
▁మణి	-10.3192
▁39	-10.3192
▁తద్వారా	-10.3195
పొంద	-10.3196
●	-10.3199
▁చేయబడ్డాయి	-10.32
▁తెలుస్తుంది	-10.3201
త్యం	-10.3201
చిత	-10.3204
▁వ్యాప్తి	-10.3207
ిస్తోంది	-10.3216
▁నాయకుల	-10.322
ువాడు	-10.3222
కార్య	-10.3222
▁యుగం	-10.3224
▁బోధన	-10.3225
▁ఆగ్నేయ	-10.323
ంగో	-10.3236
▁ధరించ	-10.3239
ుకునేందుకు	-10.3244
పడ్డాడు	-10.3245
▁తాగునీటి	-10.325
▁సంబంధాలు	-10.3253
▁పులుల	-10.3269
▁జన్యు	-10.327
▁అత	-10.3274
▁పర్యటన	-10.3279
▁సంవత్సరానికి	-10.3279
ున్నారు	-10.3282
▁వో	-10.3286
మెంటు	-10.3289
నంత	-10.329
▁మూడో	-10.3292
▁మండలి	-10.3293
▁చేస్తే	-10.3293
▁తెలంగాణా	-10.3293
▁ప్రామాణిక	-10.3294
▁ప్రే	-10.3295
▁లిం	-10.33
▁విగ్రహ	-10.3303
▁రైతుల	-10.3304
క్సైడ్	-10.3305
▁పొగాకు	-10.331
▁ఎరువులు	-10.3314
▁తొమ్మిది	-10.3319
▁కొబ్బరి	-10.3319
5%	-10.3319
▁వహించిన	-10.3319
▁సన్	-10.3323
▁వర్గాల	-10.3327
▁దాటి	-10.3336
ండె	-10.3338
బర్గ్	-10.3339
▁తను	-10.3354
▁ప్రభుత్వానికి	-10.3369
▁లోయ	-10.3369
పుత్ర	-10.3369
▁ముగింపు	-10.3373
▁కొన్నిసార్లు	-10.3374
▁అడ్	-10.3377
▁కుండ	-10.3385
▁గది	-10.3387
▁కదా	-10.3389
▁విద్యను	-10.3391
▁సముదాయ	-10.3403
▁సమావేశంలో	-10.3405
ప్రతి	-10.3405
able	-10.3406
ుకోవాలి	-10.3414
▁విభాగంలో	-10.3417
ానని	-10.3422
▁గ్రంథాల	-10.3422
▁భిన్న	-10.3423
నెల	-10.3423
▁బహ	-10.3424
వరకూ	-10.3426
పురి	-10.3432
▁బిడ్డ	-10.3434
▁ఉద్యోగుల	-10.3436
▁పోర్ట్	-10.344
▁పాటల	-10.344
▁పంచాయతీ	-10.3441
మల్	-10.3446
▁మృతి	-10.3449
va	-10.3449
స్తంభ	-10.3456
▁కుటుంబానికి	-10.3463
▁చేసుకున్నాడు	-10.3463
▁కొన	-10.3469
▁గ్రూప్	-10.3478
▁కఠిన	-10.3483
▁అరణ్య	-10.3484
▁జంక్షన్	-10.3488
▁చెట్ల	-10.3488
▁ప్రయాణించ	-10.349
▁500	-10.3491
ిస్తుంటారు	-10.3493
మౌ	-10.3495
▁వస్తువుల	-10.3497
▁షిప్	-10.3497
▁సంతానం	-10.35
ధాన్య	-10.3502
▁పాశ్చాత్య	-10.3503
మతి	-10.3504
▁విద్యార్థులకు	-10.3506
▁కార్బన్	-10.351
ెన్స్	-10.351
చారి	-10.3513
▁రూపొంద	-10.3514
▁మాట్లాడే	-10.3514
▁వేరే	-10.3524
వాడి	-10.3526
▁చెన్న	-10.353
చెర్ల	-10.3536
fe	-10.3539
▁వినియోగదారుల	-10.3547
▁ఎత్తైన	-10.3548
▁స్వభావ	-10.3553
ew	-10.3553
▁ఇసుక	-10.3554
▁వంద	-10.3555
నెల్	-10.356
▁చిత్త	-10.3561
▁దేశము	-10.3561
మనీ	-10.3562
భద్ర	-10.3564
రోగ	-10.3565
▁వెండి	-10.3569
▁అనుగుణంగా	-10.3574
▁జోన్	-10.3576
▁గౌతమ	-10.3583
▁అక్రమ	-10.3586
▁నన్ను	-10.3587
బ్రహ్మ	-10.3593
▁ఆస్తి	-10.3593
టాన్	-10.3601
చరిత్ర	-10.3604
▁రామ్	-10.3605
ంఛ	-10.3606
▁చెందినది	-10.3607
▁ట్రి	-10.3608
▁కేటాయించ	-10.3609
వాసుల	-10.3612
లన్నీ	-10.3612
▁కోరారు	-10.3613
display	-10.3614
▁విశాఖపట్నంలోను	-10.3618
▁అటువంటి	-10.3619
స్థల	-10.3619
▁రుణ	-10.3619
▁లేఖ	-10.3624
కారులు	-10.3624
▁పదార్థ	-10.3627
▁భాషలు	-10.3627
▁వనరులు	-10.3628
▁కాళ	-10.3629
▁నైట్	-10.3632
ya	-10.3632
▁కౌన్సిల్	-10.3635
వృద్ధ	-10.364
పెట్టి	-10.3645
ాయన	-10.3646
▁టన్నుల	-10.3651
▁లక్ష	-10.3652
మూస	-10.3652
▁భయం	-10.3652
▁రాజవంశ	-10.3653
▁స్థానాన్ని	-10.3656
▁ఎదురు	-10.3657
ఉన్న	-10.3661
▁విన్న	-10.3662
వంశ	-10.3666
రేషన్	-10.3666
న్యాస	-10.3668
ళా	-10.3676
▁వెల	-10.3678
డైన	-10.3679
▁పురపాలక	-10.3681
సిద్ధ	-10.3685
▁వ్యూహ	-10.3691
▁వనపర్తి	-10.3691
▁వ్యక్తులు	-10.3695
▁స్థాపించబడింది	-10.37
▁పరిశీలించ	-10.3701
లేరు	-10.3707
▁భారతదేశంలోని	-10.3709
గ్రీ	-10.371
శోధ	-10.3714
▁ఇందుకు	-10.3718
▁పిలువబడ	-10.3724
ూర్లో	-10.3724
థర్	-10.3724
▁అక్కడే	-10.3729
▁మహిళ	-10.3733
▁హైదరాబాదులో	-10.3738
తుండ	-10.374
▁కుటుంబంలో	-10.3743
▁చేసుకొ	-10.3743
▁సంయోగ	-10.3745
▁కారక	-10.3745
▁కేంద్రాల	-10.3747
▁నవాబు	-10.3747
▁రెవెన్యూ	-10.3753
▁1998	-10.3753
ెన	-10.3758
▁44	-10.376
నొ	-10.3763
▁బాల్య	-10.3764
▁మరణించిన	-10.3768
▁నేర్ప	-10.3773
▁his	-10.3775
▁వాడుక	-10.3777
▁పూర్ణ	-10.378
▁మాటలు	-10.3781
▁సమీపంలోని	-10.3782
▁తదుపరి	-10.3784
▁కారణమ	-10.3785
నాల్	-10.3785
▁భద్ర	-10.3791
ప్పి	-10.3792
▁48	-10.3793
▁http	-10.3794
వంతు	-10.38
▁సాయంత్రం	-10.3804
▁సుబ్బ	-10.3808
▁రుచి	-10.3812
లెస్	-10.3814
▁అందించారు	-10.3825
▁భూమిని	-10.3826
▁లక్ష్యం	-10.3829
▁ఎన్నికల్లో	-10.383
▁ఆశ్చర్య	-10.383
సార్	-10.3834
ea	-10.3838
▁ఎందుకు	-10.3839
▁సూచించారు	-10.3842
▁బోస్	-10.3844
ass	-10.3847
స్థా	-10.3851
▁సమీక్ష	-10.3851
నిధి	-10.3855
▁నిలిపి	-10.3862
▁వజ్ర	-10.3862
ుచున్నది	-10.3863
ములతో	-10.3864
నూర్	-10.3865
▁గొల్ల	-10.3867
ong	-10.3867
▁చొ	-10.3869
▁వెస్ట్	-10.3869
▁సామర్థ్యం	-10.3872
▁క్రియ	-10.3874
▁అమ్మాయి	-10.3874
▁చేయవచ్చు	-10.3876
▁గురించిన	-10.3882
▁శుభ	-10.3884
▁ప్రయత్నాలు	-10.3887
ావళి	-10.3889
▁పాత్రను	-10.3894
▁వహించాడు	-10.3905
▁దాకా	-10.3909
ip	-10.3912
▁వంతు	-10.3917
▁క్రీస్తు	-10.3919
▁సందర్భ	-10.3921
▁వాటా	-10.3924
ానికే	-10.3924
▁సేవలను	-10.3928
▁స్పెయిన్	-10.393
తొ	-10.393
ari	-10.3931
▁చోట	-10.3933
లియో	-10.3941
▁శివుడు	-10.3941
▁అర్జునుడు	-10.3944
▁వివరాల	-10.3949
▁సమాచారాన్ని	-10.395
▁కటక	-10.3956
▁గ్రే	-10.3962
▁బోధ	-10.3964
▁ప్రవాహ	-10.3965
▁జాబితాలో	-10.3974
▁పాము	-10.3974
▁సినిమాల్లో	-10.3975
నపుడు	-10.3977
sa	-10.398
▁i	-10.398
▁పాటించ	-10.3982
▁అయ్యింది	-10.3982
కన్నా	-10.3984
▁సేవల	-10.399
▁జత	-10.399
▁పక్షుల	-10.3994
ఒ	-10.3995
▁ప్రవేశించి	-10.3996
▁గ్రీన్	-10.3998
rit	-10.4
▁వస్తు	-10.4001
కట్టు	-10.4002
▁నియంత్రించ	-10.4006
▁వర్క్	-10.4006
▁మూసి	-10.4007
▁పనిచేసిన	-10.4008
▁పాయింట్	-10.4009
▁రచించ	-10.401
▁మనుషుల	-10.4014
▁చిత్రీకరించ	-10.4014
▁నటించాడు	-10.4014
▁గోవింద	-10.4014
▁నర్స	-10.4014
▁సమూహం	-10.4015
ical	-10.4015
బంద	-10.402
▁co	-10.4022
చర్య	-10.4024
▁నిధుల	-10.4025
కుమార	-10.4025
ునకు	-10.4028
▁నిర్మాణానికి	-10.4028
▁క్లి	-10.403
▁మెంట్	-10.4033
నైనా	-10.4035
▁విల్	-10.4036
బాయి	-10.4037
లాంటి	-10.4038
▁వ్యక్త	-10.404
మింగ్	-10.4044
నీటి	-10.4048
▁సేకరణ	-10.4048
▁కొడ	-10.4049
▁పరంగా	-10.4053
▁రాజీనామా	-10.4056
▁ఆధారాలు	-10.4065
▁తాత్కాలిక	-10.4067
▁బోధించ	-10.4071
▁విస్తృతంగా	-10.4078
▁బలవంత	-10.408
ంగళ	-10.4085
▁పరిపాలించ	-10.4089
▁ఖనిజ	-10.4097
▁అయ్యాయి	-10.4102
▁ఫ్యా	-10.4102
▁ఆదేశాల	-10.4107
▁ప్రాతినిధ్యం	-10.411
▁ఇచ్చాడు	-10.4113
▁1996	-10.4115
der	-10.4118
▁గురై	-10.4118
▁విలీనం	-10.4127
tu	-10.4128
▁do	-10.4129
క్కడ	-10.4132
▁రైతులు	-10.4134
ind	-10.4136
si	-10.4142
▁రెండూ	-10.4147
▁ఆకుల	-10.4148
▁తూ	-10.4148
▁అధికారికంగా	-10.4149
▁కాదని	-10.415
▁మంగళ	-10.4158
▁విస్తరణ	-10.4163
ీశ్వర	-10.4168
▁1930	-10.417
▁పరచ	-10.4176
▁ఉత్పత్తుల	-10.4176
▁రేటు	-10.4177
కాండ	-10.4186
▁కొరియా	-10.4186
బ్ర	-10.4191
▁వేగ	-10.4193
▁బలి	-10.4194
▁సెప్టెంబర్	-10.4196
▁వాడే	-10.4196
▁పురస్కార	-10.4197
▁కార్యకలాపాల	-10.42
▁పరిష్కరించ	-10.4201
▁అశోక	-10.4202
▁వెలువడ	-10.4206
▁అనువదించ	-10.4206
▁ఆధారిత	-10.4207
స్తాన్	-10.4207
▁వ్యాప్తంగా	-10.4212
▁దేవుడు	-10.4213
▁నిలబడ	-10.4218
▁ఫిలిం	-10.4219
దాని	-10.422
ప్పటికి	-10.4224
▁కూతురు	-10.4224
▁నేపథ్య	-10.4226
▁రాష్ట్రపతి	-10.4229
▁ఎవర	-10.4232
▁41	-10.4232
▁ప్రసాద	-10.4235
▁మహిళలు	-10.4236
బన్	-10.4237
దై	-10.4238
▁మహాభారత	-10.4243
▁ప్రస్తావించ	-10.4244
▁వినోద	-10.4248
▁విశ్వాసం	-10.4248
▁అప్పగించ	-10.4251
▁కాలి	-10.4257
ff	-10.4258
▁వ్యవహార	-10.426
▁ఫ్లో	-10.4262
▁అంతేకాక	-10.4263
▁క్రొత్త	-10.4266
▁మాల్	-10.4269
కాన్	-10.4271
▁సంకలన	-10.4272
ty	-10.4272
ొచ్చ	-10.4276
pos	-10.4278
▁పాలించ	-10.4282
ట్లయితే	-10.4282
▁ఆకర్ష	-10.4286
▁వాహనాల	-10.429
రాదు	-10.429
▁చదివి	-10.4294
▁విమానాశ్రయం	-10.4295
▁హోటల్	-10.4296
▁ట్రై	-10.4298
▁ఆచరించ	-10.4299
▁బలం	-10.4304
▁పూల	-10.4307
జిల్	-10.4307
ight	-10.4313
ళీ	-10.4314
▁న్యూయార్క్	-10.4315
▁అబ్దుల్	-10.4315
▁క్లో	-10.4318
▁అరెస్టు	-10.432
విధంగా	-10.4321
▁వినియోగదారు	-10.4322
కారి	-10.4323
▁జాతులు	-10.4324
▁భావించి	-10.4325
▁చిత్రానికి	-10.4327
▁Ma	-10.433
ధిక	-10.434
స్థానంలో	-10.434
▁అంశ	-10.4342
మున్న	-10.4348
▁పోల్చ	-10.4349
మెన్	-10.435
▁చేరిన	-10.4352
▁సిద్ద	-10.4359
కుమారి	-10.4361
▁విభాగాల	-10.4362
▁బ్రిటిషు	-10.4364
ther	-10.4364
పత్రిక	-10.4374
వత్	-10.4378
▁తిరస్కరించ	-10.4381
▁ఉందిసమీప	-10.4381
▁కలగ	-10.4386
▁లిపి	-10.4386
▁ప్రవేశం	-10.4387
▁గమన	-10.4387
షే	-10.4392
▁అవసరమ	-10.4392
సమూహ	-10.4396
▁పేర్కొంది	-10.4401
han	-10.4403
▁రాజధానిగా	-10.4408
▁కుక్క	-10.4409
▁డచ్	-10.441
▁తల్లిదండ్రులు	-10.441
▁అయ్యాడు	-10.4417
▁చర్యల	-10.4418
రాశి	-10.4419
▁తమకు	-10.4419
▁ఈశాన్య	-10.4419
▁అవతరించ	-10.442
▁ఆదాయ	-10.4421
▁వాళ్ళు	-10.4421
టికల్	-10.4431
ింపబడిన	-10.4435
▁శర	-10.4436
▁కాలానికి	-10.4439
▁చదరపు	-10.4441
దేవత	-10.4443
వేసింది	-10.4449
▁వైద్యుడు	-10.4449
పోవటం	-10.4452
▁సంస్కృతం	-10.4453
▁తీగ	-10.446
▁ప్రతినిధుల	-10.4463
▁వెళ్ళే	-10.4464
కుండ	-10.4472
▁సాధించి	-10.4473
▁నాగార్జున	-10.4475
▁j	-10.4479
రైడ్	-10.4484
▁గద్వాల	-10.4486
దేవుడు	-10.449
రాణి	-10.4493
ఠా	-10.4494
▁నిర్వాహక	-10.4497
▁ర్యా	-10.4498
▁తాజా	-10.4501
▁దగ్గరగా	-10.4502
▁ప్రవహించ	-10.4502
▁పెట్టిన	-10.4508
▁చదవ	-10.4511
▁తప్పనిసరి	-10.4513
▁రమణ	-10.4514
▁నృత్యం	-10.4515
▁వైశాల్యం	-10.4515
▁సాఫ్ట్	-10.4517
హె	-10.4519
▁అప్పట్లో	-10.4519
మహా	-10.4522
▁మనో	-10.4524
▁కావడంతో	-10.4527
▁పాలనా	-10.4528
▁వెంక	-10.4528
▁తిప్ప	-10.4533
▁బాలిక	-10.4534
▁సెం	-10.4536
▁చేసుకొని	-10.4537
ess	-10.4537
▁సంతాన	-10.4538
▁అనకాపల్లిలోను	-10.4541
▁మెడికల్	-10.4541
▁మరిన్ని	-10.4544
▁విధానంలో	-10.4546
బ్రి	-10.4546
▁రాగి	-10.4547
▁అందించే	-10.4548
▁ఫార్మ	-10.455
▁ఎప్పుడూ	-10.4551
▁65	-10.4553
av	-10.4554
▁షేక్	-10.4554
▁ట్రాన్స్	-10.4557
▁నార్వే	-10.4558
▁రెండింటి	-10.4558
హెచ్	-10.456
▁అభివృద్ధికి	-10.456
▁కంద	-10.4561
▁సామ	-10.4561
▁శర్మ	-10.4562
▁తప్పించ	-10.4567
▁రంగస్థల	-10.4571
▁ఫీ	-10.4572
▁చూస్తే	-10.4577
▁వెలుగు	-10.4585
ఉంది	-10.4585
▁థియేటర్	-10.4586
▁నటించింది	-10.459
▁భాగము	-10.4591
▁నిజానికి	-10.4592
▁ప్రధానమంత్రి	-10.4593
ిస్తు	-10.4595
▁యువత	-10.4596
▁భరత	-10.4597
▁అభ్యసించ	-10.4597
▁అందువల్ల	-10.4599
▁75	-10.46
▁ఎడ్	-10.4601
▁దేశాల్లో	-10.4605
ధ్ర	-10.4609
▁సమాజంలో	-10.4613
లచే	-10.4616
▁అవతార	-10.4619
కూర	-10.4624
ాచార	-10.4627
బోయే	-10.4633
▁ప్రారంభమైన	-10.4635
▁అంతటా	-10.464
▁పెన్	-10.464
▁మోక్ష	-10.4642
▁so	-10.4645
▁పరిశోధనలు	-10.465
పుల్	-10.4652
ుంటాయి	-10.4655
▁Ch	-10.4658
▁రైల్వేస్టేషన్	-10.4659
▁భయ	-10.4664
▁భువనగిరి	-10.4665
▁గోధుమ	-10.4665
▁గుజరాత్	-10.467
▁వైష్ణవ	-10.4671
▁బియ్యం	-10.4672
యార్	-10.4676
▁సౌకర్యాలేమ	-10.4679
▁సాహిత్యంలో	-10.4679
శయ	-10.468
▁వాడతారు	-10.4691
▁శత	-10.4691
▁గంట	-10.4694
▁ఈస్ట్	-10.4695
▁స్టె	-10.4696
▁అనుసంధానం	-10.4698
▁పదాలు	-10.4706
▁జీవితాన్ని	-10.4707
రేఖ	-10.4708
మహ	-10.4713
▁సమర్ధ	-10.4713
ాంతం	-10.4714
▁అటవీ	-10.4716
▁భారతదేశానికి	-10.4721
▁ఆర్య	-10.4723
▁చెప్పే	-10.4727
▁ఈశ్వర	-10.4728
▁రష్యన్	-10.4733
▁సేకరించ	-10.4736
▁పోర్	-10.4739
బెట్ట	-10.474
▁కోర్సు	-10.4746
▁బొగ్గు	-10.4746
▁వెళ్ళాడు	-10.4749
చెంద	-10.475
▁నాటకాల	-10.4751
▁కమ్మ	-10.4751
ుడయ్యాడు	-10.4751
▁ఆకర్షించ	-10.4754
▁డ్రా	-10.4754
▁po	-10.4758
▁పండు	-10.4758
▁స్వర్గ	-10.4759
▁తెలుసు	-10.4763
జిల్లా	-10.4763
▁చిత్రాలలో	-10.4765
▁1994	-10.4766
▁46	-10.4766
▁ఫ్రీ	-10.4778
▁చేయటం	-10.4778
▁చోళ	-10.4781
ాధికారి	-10.4782
వారిని	-10.4784
▁ఉద్భవించ	-10.4784
▁అంకిత	-10.4786
▁దీర్ఘకాల	-10.4786
▁సమకూర్చ	-10.479
▁రసాయనిక	-10.4791
▁చెబుతారు	-10.4791
▁దేశంగా	-10.4791
▁గుర్తి	-10.4793
▁పశువుల	-10.4798
▁కనుగొన్న	-10.4801
మిష	-10.4801
▁ఎగుమతి	-10.4801
▁భద్రత	-10.4809
▁బిల్	-10.481
డియో	-10.4811
యుద్ధ	-10.4811
-3	-10.4817
ినపుడు	-10.4824
one	-10.4824
int	-10.4827
గలిగే	-10.4832
▁జిల్లాలలో	-10.4836
▁సుబ్రహ్మణ్య	-10.4836
▁విక్రయ	-10.4841
▁బోరుబావులు	-10.4843
▁300	-10.4844
▁మాతృ	-10.4846
చక్ర	-10.4847
▁హ్యా	-10.4847
▁అంశాలు	-10.4856
▁ఉంటాడు	-10.4857
▁శ్రీనివాస్	-10.4857
▁కంటి	-10.4861
గుడి	-10.4865
▁పంటలు	-10.4869
▁చేపల	-10.4872
కూడదు	-10.4876
జింగ్	-10.4878
▁వారీ	-10.4878
వృత్తి	-10.4879
ళు	-10.4881
ాంక	-10.4882
▁పంజాబ్	-10.4882
ారో	-10.4882
శక్తుల	-10.4884
▁కూర	-10.4888
ec	-10.4888
▁అవకాశాలు	-10.4892
▁ప్రవర్తన	-10.4892
▁మహాసముద్ర	-10.4893
▁చెంది	-10.4894
ep	-10.4895
▁నిషేధ	-10.4905
▁క్యూ	-10.4915
▁సకల	-10.4917
▁సుబ్బారావు	-10.4917
ang	-10.4917
▁పుల్ల	-10.492
▁ఆయుధ	-10.4921
▁కుమారులు	-10.4921
▁ఇంగ్లాండ్	-10.4922
▁వ్యయం	-10.4924
▁తేలిక	-10.4925
▁నేతృత్వంలో	-10.4927
▁అబ్బ	-10.493
▁లాగ	-10.4932
▁చూడండి	-10.4935
out	-10.4939
▁నాయకత్వంలో	-10.4941
ide	-10.4941
tion	-10.4944
ture	-10.4948
మూర్తుల	-10.4949
▁లోతు	-10.495
▁జ్యోతి	-10.4953
▁మూలంగా	-10.4955
▁ఊహించ	-10.4956
▁డొ	-10.4958
▁పిలవ	-10.4963
పరిచి	-10.4964
మన్నారు	-10.4967
▁ఎడమ	-10.497
▁తీర్థ	-10.497
▁అక్షరాస్యత	-10.4975
▁నాశనం	-10.4975
▁జంతు	-10.4976
టూరు	-10.4977
▁రంగారెడ్డి	-10.4978
▁తీరు	-10.498
పూజ	-10.498
కల్ప	-10.4986
ానిక	-10.4992
▁సూర్యాపేట	-10.4992
▁ఏపీ	-10.4995
పడ్డ	-10.4998
}}	-10.4998
▁సగం	-10.5001
ుకుంటాడు	-10.5002
ue	-10.5006
▁1989	-10.5015
▁గ్రంథాలయ	-10.5016
▁తీర్పు	-10.5016
▁150	-10.5016
▁పువ్వు	-10.5023
▁దరఖాస్తు	-10.5027
▁త్యాగ	-10.5028
▁కాగిత	-10.5028
▁దీర్ఘ	-10.5031
▁పేర్కొన్నాడు	-10.5032
▁బ్రా	-10.5033
▁మాయ	-10.5036
▁నిరసన	-10.5039
▁ఇందు	-10.5047
పడుతున్న	-10.5048
▁చేపట్టిన	-10.5049
▁సప్త	-10.505
▁చేతిపంపులు	-10.505
district	-10.5057
▁శతాబ్ది	-10.5057
▁ఇరాన్	-10.5058
▁యస్	-10.5058
▁భాగవత	-10.5064
నాయుడు	-10.5067
▁1997	-10.5068
▁సాయి	-10.507
▁వుంట	-10.5076
▁one	-10.5077
▁దేహ	-10.5078
▁మాధవ	-10.5079
ధుల	-10.5081
▁సరళ	-10.5084
▁ఉండేవారు	-10.5085
▁పాల్గొన్న	-10.5087
▁1948	-10.5091
▁గోప	-10.5092
▁భావించారు	-10.5096
▁మలయాళ	-10.5098
▁చేరింది	-10.5099
▁పరిజ్ఞాన	-10.5102
▁పనిచేస్తుంది	-10.5104
▁చేసుకుంది	-10.5105
▁క్షేత్రం	-10.5106
▁రాయ్	-10.5109
▁ఉర్దూ	-10.5116
యుత	-10.5117
▁నిరూపించ	-10.5118
▁వస్తాయి	-10.5119
ాళ్	-10.5124
పేట్లో	-10.5127
▁పరికరాల	-10.5127
▁స్పానిష్	-10.5127
▁ఒకప్పుడు	-10.5128
స్థాయిలో	-10.5132
▁అంతకు	-10.5138
▁సందర్భాలలో	-10.5138
ేటప్పుడు	-10.5143
▁దాదాపుగా	-10.5146
gu	-10.5147
▁బంగ్లాదేశ్	-10.5157
▁ఉంటా	-10.5161
ాధార	-10.5164
▁has	-10.5164
ాచార్యులు	-10.5169
క్రియ	-10.5173
▁ముప్ప	-10.5174
▁విశ్వనాథ	-10.5174
▁కమ్యూనిస్టు	-10.5175
ాంశం	-10.5177
▁గ్రేట్	-10.5177
▁పర్యాటకుల	-10.5181
▁1995	-10.5181
సభ	-10.5182
పర్తి	-10.5186
పోయ	-10.5188
▁ప్రదేశంలో	-10.5193
▁పదాన్ని	-10.5195
థో	-10.5201
▁ప్రయోజనాల	-10.5205
▁మిగిలి	-10.5206
1%	-10.5206
▁An	-10.5206
ary	-10.5207
▁సభలో	-10.5212
▁పట్టిక	-10.5213
మాట	-10.5215
▁ఇవ్వడం	-10.5215
▁పొద	-10.5218
▁చేస్తోంది	-10.5219
▁pl	-10.522
కరంగా	-10.5222
▁సౌకర్య	-10.5223
▁అద్ద	-10.5224
▁స్పష్టంగా	-10.5231
▁సాగించ	-10.5233
▁ప్రయోగించ	-10.5234
▁సభ్యుడు	-10.5234
▁ద్రావ	-10.5234
▁కలవ	-10.5241
▁పుట్టి	-10.5243
▁తెలుప	-10.525
▁కిందకు	-10.5251
▁చిహ్నం	-10.5254
ేపల్లి	-10.5256
ee	-10.526
ార్థం	-10.5262
▁పౌ	-10.5263
▁భాగాన్ని	-10.5264
▁ప్రారంభించిన	-10.5267
▁దాట	-10.5269
▁విస్తృత	-10.527
▁గుర్తించిన	-10.5274
▁వికీ	-10.5274
▁విభాగాలు	-10.5274
▁ఆదిలాబాద్లో	-10.5277
▁ఫెర్	-10.5279
▁55	-10.5289
▁ఇష్ట	-10.5289
▁కలకత్తా	-10.5295
▁డిసెంబర్	-10.5295
▁ద్రోణ	-10.5295
ేశ్వరరావు	-10.5296
▁హైదరాబాదులోను	-10.5297
▁విదేశాల	-10.5299
టమే	-10.5301
▁బీజ	-10.531
▁ప్రోత్సాహ	-10.5313
▁సహాయంతో	-10.5314
మండల	-10.5315
▁స్క్	-10.5317
▁వర్తక	-10.5318
▁1992	-10.5318
▁పార్టీకి	-10.532
వెంట్	-10.532
గలవు	-10.5322
▁ఆదర్శ	-10.5323
▁కడ	-10.5327
1-	-10.5328
▁రెడ్	-10.5329
▁ఒలింపిక్	-10.5331
కంఠ	-10.5331
▁రక్తం	-10.5333
▁ఏళ్ళ	-10.5335
▁అయ్యే	-10.5344
▁మధ్యకాలంలో	-10.5346
▁దయ	-10.5346
▁నష్టం	-10.5348
▁మ్యూజియం	-10.5349
చ్చాడు	-10.535
▁మహారాజు	-10.5353
రంగంలో	-10.5354
▁నింప	-10.5359
▁ప్రసారం	-10.5369
ame	-10.5375
pi	-10.5376
▁క్వా	-10.5376
▁ఆరంభం	-10.5376
▁మరికొన్ని	-10.5379
▁ఇటలీ	-10.5379
▁సంభవ	-10.5381
▁రజ	-10.5386
శివ	-10.539
ాపన	-10.5391
▁సమావేశం	-10.5396
▁గెలిచి	-10.5398
▁పోలీసుల	-10.54
▁చేస్తాడు	-10.5401
▁పార్కు	-10.5405
▁దంపతుల	-10.5406
▁తమ్మ	-10.5407
▁పరిశ్రమల	-10.5407
▁వ్యవహర	-10.5408
▁మెడ	-10.5409
▁తీర్మాన	-10.541
క్యూ	-10.5411
పాలన	-10.5411
▁రంగుల	-10.5411
co	-10.5412
▁ప్రత్యేకించి	-10.5415
▁మొగ	-10.5417
▁చేసుకునే	-10.5421
▁ఉంటూ	-10.5421
గీత	-10.5424
▁వెన్న	-10.5427
ీకృత	-10.5428
▁ఉత్సవాల	-10.5429
▁చిత్రాల	-10.5435
▁దారితీసింది	-10.544
▁విడిచి	-10.5442
▁నాయకత్వం	-10.5448
▁బ్లూ	-10.5451
state	-10.5459
▁చో	-10.5459
ాధ్యక్ష	-10.5465
▁తట్ట	-10.5469
▁ఆంజనేయ	-10.5471
▁నిర్ధారించ	-10.5471
▁మొదటిసారిగా	-10.5473
▁ఘనంగా	-10.5474
▁ఉండును	-10.5474
▁ఉపయోగించారు	-10.5477
▁జీర్ణ	-10.5477
▁దేవతలు	-10.5478
tt	-10.548
▁కావచ్చు	-10.5482
▁అర్హత	-10.5483
▁నగర్లో	-10.5484
▁పెరుగుతుంది	-10.5486
పత్	-10.5487
కృత్	-10.549
4%	-10.5495
▁శీతాకాల	-10.5495
భాగంలో	-10.5498
ాల్ని	-10.5501
▁స్టూడియో	-10.5501
▁అనుకూలంగా	-10.5504
▁వివరించారు	-10.5505
▁నాణ్యత	-10.5508
▁విజయవంతంగా	-10.551
▁పూజా	-10.551
sion	-10.5519
▁అనుభవించ	-10.5519
▁సంఘాల	-10.5524
టొ	-10.5526
▁దీవుల	-10.553
▁స్థాపించిన	-10.5534
న్యూఢిల్లీ	-10.5538
▁ఎవరు	-10.5548
▁చేరారు	-10.5548
▁శ్రద్ధ	-10.5551
ara	-10.5551
▁స్నేహ	-10.5554
▁భూత	-10.5561
▁నొప్పి	-10.5562
తీయ	-10.5563
▁వ్యాధుల	-10.5564
▁పట్టణంలో	-10.5565
ాలైన	-10.5568
▁వసంత	-10.5571
▁ఆనాటి	-10.5574
▁సరిగా	-10.5578
ుంటారు	-10.5579
▁మొదట్లో	-10.558
ోదయ	-10.558
ేశ్వర్	-10.5581
▁శాస్త్రము	-10.5582
▁ఉపాధి	-10.559
▁ముహమ్మద్	-10.5594
▁మొహ	-10.5594
▁తానే	-10.5596
▁యాదవ	-10.561
▁టెస్ట్	-10.5614
▁స్వేచ్ఛ	-10.5614
▁అనుమాన	-10.5619
సంఖ్య	-10.5619
▁ఓపెన్	-10.5625
▁నవంబర్	-10.5626
▁ప్రశాంత	-10.563
▁లేకపోవడం	-10.5632
బార్	-10.5639
▁సూర	-10.564
కళా	-10.5642
▁సింధు	-10.5644
ముద్ర	-10.5647
▁విధి	-10.5652
▁బావులు	-10.5654
త్వము	-10.5657
▁di	-10.566
▁నివసిస్తున్న	-10.5661
▁శోభ	-10.5664
▁మృత	-10.5665
ai	-10.5665
▁రాముడు	-10.5666
▁దిశగా	-10.5668
▁ఇక్కడికి	-10.5669
టీఎం	-10.5673
▁బండ	-10.5674
▁అల్యూమినియం	-10.5675
శాసన	-10.5676
దన్న	-10.5678
▁భవిష్యత్తు	-10.5683
▁కవిత్వం	-10.5686
▁సినిమాలలో	-10.5689
▁టాప్	-10.5692
▁అంతర	-10.5696
▁రాజేంద్ర	-10.5696
స్తోంది	-10.5699
▁ప్రమాణాల	-10.5701
▁ఎదుర్కొన్న	-10.5704
▁can	-10.5704
ుకుంటే	-10.5708
ాలజీ	-10.5708
▁విశాఖ	-10.5711
పిల్ల	-10.5711
మోహన్	-10.5712
దేశాల	-10.5713
▁పరిశోధనా	-10.5715
▁మంగ	-10.5715
▁కామారెడ్డి	-10.5721
▁కార్మిక	-10.5722
▁పేర్కొన్న	-10.5723
▁వాక్య	-10.5723
▁నిర్వచ	-10.5723
▁చేరుకుంది	-10.5726
▁పరుగులు	-10.5728
▁జనసంఖ్య	-10.5733
▁శంఖ	-10.5733
ృష్ట	-10.5735
▁ఆదిలాబాద్	-10.5737
▁యూనిట్	-10.5742
▁ఫైనల్	-10.5742
▁గుర్తించి	-10.5742
▁ఆగష్టు	-10.5744
▁కూటమి	-10.5744
దండ	-10.5745
▁లంక	-10.5746
▁రూపొందించిన	-10.5747
▁విలువైన	-10.5753
▁తీసుకురా	-10.5754
▁అసాధారణ	-10.5756
యిడ్	-10.5761
▁వైరస్	-10.5761
▁పేరిట	-10.5763
▁దోష	-10.5765
ోంది	-10.5771
▁విద్యాలయ	-10.5774
భూషణ	-10.5776
▁జిల్లాల్లో	-10.5777
▁ఏమీ	-10.5777
ob	-10.5777
▁నిర్వహిస్తారు	-10.5779
లాండు	-10.578
▁గ్రహించ	-10.5787
▁వీటికి	-10.5788
▁త్వరగా	-10.5788
▁ఉన్నాయని	-10.5789
శాడు	-10.5793
▁కూరగాయలు	-10.5795
▁II	-10.5796
▁who	-10.5796
▁బుద్ధి	-10.58
▁వ్యాఖ్య	-10.5801
టేషన్	-10.5801
▁చిన	-10.5802
ుకోవాలని	-10.5806
ుతుంటారు	-10.5807
▁దశాబ్దాల	-10.5808
ణువు	-10.5813
▁పేర్కొ	-10.5813
▁గ్యా	-10.5818
▁చక్కగా	-10.582
app	-10.5821
▁చీర	-10.5824
▁స్థాపించాడు	-10.5825
▁పశ్చిమాన	-10.5826
▁మార్గాల	-10.5827
▁పాల్వంచ	-10.5832
▁అడ్డు	-10.5836
ుడే	-10.584
8%	-10.5844
▁మనస్సు	-10.5845
▁రచించారు	-10.5849
▁తాగ	-10.585
ten	-10.5851
▁పరస్పర	-10.5851
స్పష్ట	-10.5852
▁పోష	-10.5854
▁సాధించారు	-10.5855
ాచల	-10.5856
డియన్	-10.5856
ద్దీన్	-10.5859
mi	-10.5861
▁పొగ	-10.5862
▁5310	-10.5862
▁నోటి	-10.5862
▁శ్రమ	-10.5863
▁పరిశీలన	-10.5864
ance	-10.5865
▁సహకరించ	-10.5866
▁కళాకారులు	-10.587
▁ఆరోపణల	-10.5871
▁రహదారుల	-10.5871
▁సుమారుగా	-10.5872
దొ	-10.5877
▁పోలిస్తే	-10.5878
ath	-10.5879
▁సుదీర్ఘ	-10.5883
▁1940	-10.5889
బడినవి	-10.589
▁అధ్యాపక	-10.589
▁సంప్రదాయం	-10.5894
▁ఐర్లాండ్	-10.5902
▁మహాత్మా	-10.5903
▁పార్వతీ	-10.591
న్నిటి	-10.591
▁చేసేవారు	-10.5913
ple	-10.5916
▁సంగారెడ్డి	-10.592
▁కోస	-10.5922
షియన్	-10.5923
యొ	-10.5929
▁ఎత్తులో	-10.593
▁కాశ్మీరు	-10.593
▁తొలగ	-10.5934
if	-10.5935
▁పట్టి	-10.5935
▁క్వి	-10.5937
పెడ	-10.5943
పూరిత	-10.5945
ుకోవటం	-10.5946
▁అనారోగ్య	-10.5947
మాంస	-10.595
▁ప్రదర్శనలు	-10.5954
▁వాటర్	-10.5956
▁వృత్తులు	-10.5958
▁అక్టోబర్	-10.596
వున్న	-10.5964
▁రాజ్యాంగం	-10.5964
▁అప్పు	-10.5967
దేహ	-10.5967
▁పునః	-10.5968
▁పండ్లు	-10.597
▁వృ	-10.597
ie	-10.5971
▁యూనివర్శిటీ	-10.5973
▁సమానంగా	-10.5974
▁మొదలైంది	-10.5974
▁హామీ	-10.5978
▁పిల్లలకు	-10.5978
▁యాజమాన్య	-10.598
▁ఎముక	-10.5981
▁రాయల్	-10.5983
fi	-10.5986
▁పురాణాల	-10.5989
▁మాస్టర్	-10.5991
▁విద్వాంసు	-10.5992
▁హిమ	-10.5994
▁దంత	-10.5998
▁లాటిన్	-10.5999
▁ఐదుగురు	-10.6001
ఎఫ్	-10.6003
▁ఆకులు	-10.6006
ాసుర	-10.6007
▁man	-10.6007
act	-10.6011
▁తరహా	-10.6013
art	-10.6018
ాదుల	-10.6021
▁సమయానికి	-10.6027
నాటికి	-10.603
▁లభించిన	-10.603
▁డేటా	-10.6031
▁సంతకం	-10.6033
▁శివుని	-10.6035
▁చూడవచ్చు	-10.6037
▁నిర్మించాడు	-10.6039
▁హాని	-10.6047
▁వలయ	-10.6048
▁అత్యుత్తమ	-10.6051
▁మీటర్లు	-10.6051
కెక్క	-10.6051
▁శ్రీనివాస	-10.6052
▁పరిషత్	-10.6053
▁ఇతరుల	-10.6054
▁ఫ్లా	-10.6055
స్టిక్	-10.6056
▁కాంగ్రెసు	-10.6057
▁ఆంగ్లంలో	-10.6059
▁కర్ర	-10.6062
▁రాశారు	-10.6065
దుర్గ	-10.6066
▁సౌందర్య	-10.607
▁వస్తువులను	-10.6072
ేందర్	-10.6074
▁అరేబియా	-10.6077
▁తెలిపింది	-10.6077
చై	-10.6079
మందు	-10.608
బద్ద	-10.608
▁నగరంలోని	-10.6081
▁నుంచే	-10.6084
▁స్థాపించి	-10.6086
▁హెక్టారులు	-10.609
▁విధానాలు	-10.6093
నాగ	-10.6094
▁స్ట్ర	-10.6098
form	-10.6103
▁టూ	-10.611
ముందు	-10.6111
▁విజయవంతమైన	-10.6113
కపోయినా	-10.6116
న్నింటి	-10.612
ard	-10.6122
▁ఆఫ్రికన్	-10.6122
▁లలిత	-10.6127
▁ఒకదాని	-10.6128
▁సంభాషణ	-10.6129
▁నివారణ	-10.6129
▁మార్క్	-10.6129
ఘట్ట	-10.6132
▁స్థితిలో	-10.614
▁అత్యున్నత	-10.6155
వాణి	-10.6156
▁శుభ్ర	-10.6156
▁ఏది	-10.616
▁భక్తులకు	-10.616
▁సూర్యుని	-10.6162
▁అన్య	-10.6164
▁ముస్లింల	-10.617
▁విషయము	-10.6176
▁త్రాగ	-10.6184
▁రంగులో	-10.6185
▁నాగర్	-10.6187
▁దేవుని	-10.6191
▁రవీంద్ర	-10.6195
▁ముస్లింలు	-10.6197
ఫే	-10.62
జాతీయ	-10.6201
▁ఫిల్మ్	-10.6201
adj	-10.6202
▁పవర్	-10.6208
▁యాగ	-10.6212
రియో	-10.6212
▁కాంగ్	-10.6212
▁శాన్	-10.6214
▁సామర్థ్య	-10.6214
ీయులు	-10.6221
▁దీనితో	-10.6221
▁సమస్యలను	-10.6221
▁శక్తివంతమైన	-10.6231
2%	-10.6232
ition	-10.6233
over	-10.624
▁యుద్ధానికి	-10.624
▁కొద్దిగా	-10.6241
▁ముద్రణ	-10.6242
▁ప్రతినిధి	-10.6246
సముద్రం	-10.6248
▁వ్యవహారాల	-10.6249
ఫ్ట్	-10.6252
▁నాటకాలు	-10.6253
▁బీజేపీ	-10.6254
ana	-10.6254
▁ఊహ	-10.6254
▁పరిచయ	-10.6255
▁మరీ	-10.6257
డియం	-10.6258
▁1952	-10.6258
▁నారాయణ్	-10.6261
▁వడ్డ	-10.6263
▁దక్షిణాన	-10.6265
▁విమర్శకుల	-10.6266
▁మధుర	-10.6269
▁ఊరు	-10.6269
▁సాంద్రత	-10.6274
▁నిర్వహించే	-10.6274
▁బాంబు	-10.6277
▁ముద్రించ	-10.6277
▁పరిశ్రమలు	-10.6278
▁విరమణ	-10.628
▁స్ట్రా	-10.6283
▁స్ఫూర్తి	-10.6287
▁కన్య	-10.6292
దరి	-10.6298
నగరం	-10.6299
▁ఐక్య	-10.6299
▁ఆస్పత్రి	-10.63
▁మార్పుల	-10.6308
▁ఎంపీ	-10.6312
cl	-10.6318
స్తుంటారు	-10.6319
▁మాటల	-10.6324
▁చాట	-10.6325
▁ఎగువ	-10.6328
▁పాలకుల	-10.6331
▁దానితో	-10.6335
▁గిరిజన	-10.6337
▁చక్కెర	-10.634
▁చమురు	-10.6341
▁అంజ	-10.6348
▁అందరికీ	-10.6353
▁అడిగాడు	-10.6357
▁నువ్వు	-10.6358
▁అరటి	-10.6367
టికీ	-10.6368
▁కవుల	-10.6369
రంగు	-10.6375
▁గణపతి	-10.6377
సృ	-10.6378
▁శత్రువు	-10.6385
▁బ్రాహ్మణుల	-10.6388
ుతుంద	-10.6393
చెరువు	-10.6394
▁నిషేధించ	-10.6394
K	-10.6394
▁చోట్ల	-10.64
▁ఎన్టీఆర్	-10.6401
▁గుర్తిస్తూ	-10.6403
▁యందు	-10.6404
▁మామూలు	-10.6408
▁అతన్ని	-10.6409
▁లభించాయి	-10.6414
▁గ్రంధ	-10.6415
▁దళిత	-10.6417
▁పిలువబడే	-10.6419
▁ఖాతా	-10.642
▁గట్టి	-10.642
▁నిధులు	-10.6421
▁హనుమకొండ	-10.6422
▁నిమిషాల	-10.6423
▁అంటు	-10.6423
▁వ్ర	-10.6424
▁గాజు	-10.6424
▁కనక	-10.6427
▁ఖగోళ	-10.6431
ుందని	-10.6431
▁కమిషనర్	-10.6434
▁నచ్చ	-10.6439
▁మేక	-10.6441
జెన్	-10.6441
▁నడుమ	-10.6441
▁కమల	-10.6443
పడ్డాయి	-10.6446
▁అనుకున్న	-10.6447
▁మైసూరు	-10.6448
జీవిత	-10.6451
▁నిమ్మ	-10.6451
లిపి	-10.6456
▁any	-10.6462
ting	-10.6464
▁also	-10.6468
▁విశ్లేషణ	-10.6468
▁ఇందిరా	-10.6469
▁స్పా	-10.647
▁అనునది	-10.6472
▁అందుకున్నారు	-10.6479
▁అందించిన	-10.648
▁సమగ్ర	-10.6481
▁ఉత్సాహ	-10.6482
▁విక్రమ	-10.6485
▁మేఘ	-10.6493
▁సుప్రసిద్ధ	-10.6495
బండ	-10.6501
▁పాల్గొని	-10.6502
▁మసీదు	-10.6502
▁భూభాగంలో	-10.6504
ప్రసాద్	-10.6504
ట్లే	-10.6505
▁న్యాయవాది	-10.6506
min	-10.6508
▁పరిషత్తు	-10.6513
▁రంధ్రము	-10.6514
▁గణన	-10.6519
▁అందిస్తున్న	-10.6522
▁కొంచెం	-10.6523
చోట	-10.653
▁తోడు	-10.6531
▁సాక్ష్య	-10.6532
▁గుడ్	-10.6535
▁గదుల	-10.6536
▁ఇంగ్లీష్	-10.6536
▁దండయాత్ర	-10.6537
▁హ్యూ	-10.6539
▁పొడవైన	-10.6543
▁ఆదరణ	-10.6543
గలిగిన	-10.6547
▁ముఖ్యమైనవి	-10.655
▁పోస్టు	-10.6552
▁శరీరంలో	-10.6552
5,000	-10.6555
గూడెంలో	-10.6557
▁సహస్ర	-10.6559
▁ధరించి	-10.6562
▁పద్ధతులు	-10.6563
పాలి	-10.6565
▁చెట్లు	-10.6567
▁జరిపిన	-10.6567
▁రచయితలు	-10.6568
▁పురాణం	-10.6569
▁గూర్చి	-10.6571
▁హస్త	-10.6572
ood	-10.6575
▁పిండి	-10.6576
▁ఓడించి	-10.6576
▁ఇతడి	-10.6579
▁వినాయక	-10.658
▁కల్గి	-10.6583
నిరోధక	-10.6586
▁పక్కన	-10.6593
పురుష	-10.6593
▁వెడల్పు	-10.6605
▁సిరీస్	-10.6605
▁పరిస్థితులు	-10.6607
నిర్మాణ	-10.6607
▁నగరాన్ని	-10.6612
▁మౌలిక	-10.6613
▁సంగ్రహ	-10.6614
▁నివసిస్తున్నారు	-10.662
▁నివసించే	-10.6621
▁పరిగణ	-10.6624
కూడ	-10.6625
▁తై	-10.6629
▁అక్బరు	-10.6632
▁చలి	-10.6633
▁కన్ను	-10.6638
▁సుల్తాన్	-10.6639
▁ఇరవై	-10.6646
ప్రదేశ	-10.6652
▁ప్రాజెక్ట్	-10.6653
▁సముద్రతీర	-10.6654
▁మోహన్	-10.6655
▁పాఠ్య	-10.6665
▁చుట్టు	-10.6665
లెన్	-10.6666
ace	-10.6667
▁సంబ	-10.6669
tra	-10.6671
▁ఉండాలని	-10.6673
▁రామాయణ	-10.6677
▁విమానాశ్రయ	-10.6678
▁రోగుల	-10.6679
▁కళ్ళ	-10.668
పోతాయి	-10.6683
▁పెరి	-10.6683
▁వైభవంగా	-10.6684
▁చేతులు	-10.6686
▁తెలుసుకున్న	-10.6687
▁గడ్డ	-10.6687
▁గ్రూపు	-10.6688
▁5%	-10.6689
▁హిల్	-10.6689
▁పరీక్షలు	-10.6693
▁క్యాన్సర్	-10.6694
▁రచించాడు	-10.6694
రామయ్య	-10.6696
వారం	-10.6698
▁శాస్త్రవేత్తలు	-10.6701
▁బాహ్య	-10.6701
▁శంకర్	-10.6701
▁వ్యవస్థాపక	-10.6707
రకాల	-10.6708
▁నవ్వ	-10.6709
▁టైటిల్	-10.671
పల్లిలోనూ	-10.6713
▁నిర్మించబడింది	-10.6715
కోశ	-10.6716
▁ఉపయోగించడం	-10.6718
▁ఆధీనంలో	-10.6722
▁నిరాకరించ	-10.6722
▁అలంకరించ	-10.6722
▁మఠ	-10.6725
ేశాడు	-10.6726
▁అరకులోయలో	-10.6729
▁స్థాపన	-10.6729
సియన్	-10.6734
▁అవమాన	-10.6741
▁ఉత్సవాలు	-10.6742
▁జగిత్యాల	-10.6743
▁ఉద్యానవన	-10.6743
▁తలెత్త	-10.6746
చేసింది	-10.6746
6%	-10.6747
లంక	-10.6753
జెర్	-10.6755
రోధ	-10.6756
▁హిందువుల	-10.6757
▁భోజన	-10.6762
య్యింది	-10.6766
9%	-10.6767
les	-10.6772
ome	-10.6776
ుచున్నారు	-10.678
సౌ	-10.6781
▁వర్షపాతం	-10.6785
▁ఆఖరి	-10.6786
యింగ్	-10.6786
▁మంజూరు	-10.6787
▁అందరు	-10.679
▁సహకారంతో	-10.6792
▁తెలుపు	-10.6796
ound	-10.6801
▁తీరంలో	-10.6801
▁స్థాయికి	-10.6804
▁దిక్కు	-10.6804
ts	-10.6808
▁అద్భుతమైన	-10.6808
▁విక్రయించ	-10.6813
▁పాఠ	-10.6818
▁వంగ	-10.6819
▁పాక్షిక	-10.682
▁కళాకారుల	-10.6823
3%	-10.6824
▁గుడివాడ	-10.683
▁సులభంగా	-10.683
▁బ్లా	-10.6837
▁వేలాది	-10.6838
▁సదస్సు	-10.6841
▁రోడ్డుతో	-10.6841
▁నందు	-10.6842
▁సులభ	-10.6845
▁వెళ్ళిన	-10.6847
▁పొరుగు	-10.6847
▁వుంటాయి	-10.6848
▁చేయబడ	-10.6853
▁వేళ	-10.6854
▁భారతీయుల	-10.6856
▁తేజ	-10.6859
▁గ్రంథాలు	-10.686
▁నాగేశ్వరరావు	-10.6863
▁చిత్రాన్ని	-10.6865
▁శ్రీమతి	-10.6869
▁అదుపు	-10.6869
పర్చ	-10.687
▁మతపరమైన	-10.6887
▁పనికి	-10.689
▁దిశ	-10.6892
port	-10.6899
▁పడుతుంది	-10.6908
ach	-10.6909
▁పద్ధతిని	-10.6913
▁దశాబ్ద	-10.6918
▁కనిపెట్ట	-10.6921
▁మైక్రో	-10.6932
▁హిందువులు	-10.6934
▁తీసుకున్నారు	-10.6935
▁దుఃఖ	-10.6939
▁విజేత	-10.694
▁కుంభ	-10.6941
ించుట	-10.6943
▁స్మారక	-10.6947
▁భోగ	-10.6953
▁కాలేజ్	-10.6954
కారణ	-10.6955
▁సంపన్న	-10.6958
▁సరిపో	-10.6959
▁1983	-10.6961
tal	-10.6962
▁సాహస	-10.6964
▁నిరోధ	-10.6965
▁భూభాగాల	-10.6967
▁ఓట్ల	-10.6967
▁పనిచేసి	-10.6969
▁సంవత్సరములో	-10.6969
▁చింతపల్లి	-10.6972
▁అనుసంధానమై	-10.6973
షనల్	-10.698
▁ఎన్నికలు	-10.6981
▁డిజిటల్	-10.6982
▁మినుము	-10.6984
▁శ్వాస	-10.6989
హార్	-10.6991
▁బీసీ	-10.6992
▁అధ్యక్షుడిగా	-10.6992
తీర	-10.7
మరణ	-10.7001
▁రాష్ట్రాలలో	-10.7004
hy	-10.7006
▁నిరంతర	-10.7007
▁కథనం	-10.7008
ుతుంటాయి	-10.7009
ులయ్యారు	-10.7013
▁రోగి	-10.7015
▁జలపాత	-10.7016
▁మొఘల్	-10.7018
▁ల్యా	-10.7018
వీడు	-10.702
▁ప్రేరణ	-10.7021
సాగింది	-10.7021
▁వహించారు	-10.7021
బెట్టి	-10.7024
▁మంత్రిగా	-10.7024
▁సంధి	-10.7027
▁గాథ	-10.7033
మియా	-10.7036
సెంట్	-10.7039
▁ఆచరణ	-10.704
▁పెర్	-10.7042
▁దిశలో	-10.7044
▁హౌ	-10.7046
▁శిథిల	-10.7046
ిస్తున్నా	-10.7047
▁వ్యాపించి	-10.7048
▁అంచు	-10.7051
భిక్ష	-10.7053
▁తాళ	-10.7057
▁అందమైన	-10.706
▁అహ్మద	-10.7061
▁ఎవరైనా	-10.7062
▁400	-10.7062
▁జరుగుతాయి	-10.7064
▁వైస్	-10.7065
▁బాగు	-10.7065
గృహ	-10.7071
▁హోమ	-10.7075
▁సేకరించి	-10.7082
▁బంగారం	-10.7087
▁అంక	-10.7088
టైన్	-10.7095
▁కొందరి	-10.7096
▁ధైర్య	-10.7097
▁గణనీయమైన	-10.7097
▁1962	-10.7098
▁ఎన్నికైనారు	-10.71
తెలంగాణ	-10.71
భరణ	-10.7104
▁ఈజిప్టు	-10.7104
▁వుండి	-10.7105
▁జంతువులు	-10.7105
▁ఆరుగురు	-10.7107
Sub	-10.7108
▁నోబెల్	-10.7111
▁వాయిద్య	-10.7111
▁have	-10.7119
▁సౌత్	-10.712
▁1971	-10.7121
▁వేగం	-10.7123
▁1985	-10.7128
▁పరిశోధకులు	-10.7132
▁సమస్త	-10.7132
▁కొత్తగూడెం	-10.7137
▁గెలుచుకున్న	-10.7137
▁సైట్	-10.7138
▁పెసర	-10.7138
tic	-10.7139
కూర్	-10.7142
థె	-10.7144
సెల్	-10.7146
▁ఆర్మేనియా	-10.7147
ంటున్నారు	-10.7148
▁ఉప్ప	-10.7152
భిప్రాయ	-10.7154
▁పెరుగ	-10.7154
జిత్	-10.7155
యందు	-10.7155
భంగ	-10.716
mon	-10.7161
▁వోల్	-10.7163
▁కత్తి	-10.7165
▁బెంగాలీ	-10.7169
▁కవులు	-10.7176
▁తిరిగ	-10.7176
▁ఏర్పాట	-10.7177
▁రాకెట్	-10.7178
స్తానని	-10.718
▁వినిపించ	-10.7187
▁పండించ	-10.7187
▁వైఎస్	-10.7188
▁శైవ	-10.7192
▁జంగ	-10.7195
సీమ	-10.7198
▁జస్టిస్	-10.7198
ack	-10.72
ణ్ణ	-10.7206
టెల్	-10.7207
▁ఉత్సవ	-10.7207
▁కార్తీక	-10.721
▁శిష్యుల	-10.7212
▁మాడుగుల	-10.7213
▁నివారించ	-10.7214
▁1920	-10.7226
▁పురుగు	-10.7227
▁ఎడారి	-10.7227
▁నిర్బంధ	-10.723
▁దాడుల	-10.7239
▁రాష్ట్రములోని	-10.724
▁గుప్త	-10.724
▁రాజ్యాల	-10.7242
▁అంతేకాకుండా	-10.7242
▁జ్ఞాపక	-10.7242
▁ఇప్పటికే	-10.7242
▁బర్మా	-10.7243
షర్	-10.7245
▁విధుల	-10.7246
ులై	-10.7247
▁బిందువు	-10.7249
▁గుండ	-10.725
▁భద్రాచలం	-10.7257
▁పెట్టుబడుల	-10.7257
▁వికెట్	-10.7264
▁ప్రజాస్వామ్య	-10.7279
▁ఆలయానికి	-10.7287
శృ	-10.7293
▁శస్త్రచికిత్స	-10.7293
▁శనగ	-10.7297
cu	-10.7297
▁అన్నమయ్య	-10.7303
pur	-10.7305
▁దక్షిణాఫ్రికా	-10.7315
▁ప్రస్తావన	-10.7315
-4	-10.7317
▁మధ్యాహ్న	-10.7323
▁తరగతుల	-10.7324
▁ఆక్రమణ	-10.7326
వలెను	-10.7333
▁పోషక	-10.7334
▁సముద్రమట్టానిక	-10.7337
▁పాల్గొంట	-10.7338
స్తుండగా	-10.734
▁దుష్	-10.734
▁సిక్కు	-10.7342
▁నిర్మించి	-10.7344
▁వ్రత	-10.7345
▁ప్రమాణం	-10.7348
▁St	-10.735
▁వీజీ	-10.7353
▁జయించ	-10.7358
▁బెంగళూరు	-10.7367
▁కలయిక	-10.7367
▁రంధ్రం	-10.7368
కపోవడం	-10.7372
▁భోజనం	-10.7376
▁కావున	-10.7378
మండలి	-10.7379
▁డ్రై	-10.738
▁రాజ్యాన్ని	-10.738
▁పండ్ల	-10.7381
▁ఆవిష్కరణ	-10.7383
▁ట్రాఫిక్	-10.7389
▁1993	-10.7389
▁తులసి	-10.739
▁నాయిక	-10.7396
▁టర్కీ	-10.7397
▁1967	-10.7398
▁పిలిచే	-10.7401
▁చతుర్	-10.7405
▁1984	-10.7411
ెల్ల	-10.7413
▁ఏర్పడి	-10.7422
▁చేయటానికి	-10.7433
▁ప్రత్యర్థి	-10.7434
▁dis	-10.7435
▁శాసనం	-10.744
దనం	-10.7441
▁ద్వితీయ	-10.7442
▁పండితులు	-10.7445
▁మార్పిడి	-10.7449
▁ఇస్తుంది	-10.745
▁వృష	-10.7451
కొద్దీ	-10.7451
▁క్షయ	-10.7454
▁1956	-10.7455
mo	-10.7457
▁కవితా	-10.7459
▁ఆస్తుల	-10.746
▁కొట్టి	-10.7461
▁కోల్పో	-10.7462
మగు	-10.7462
▁క్షత్రియ	-10.7464
▁తొలిసారిగా	-10.7464
▁పఠ	-10.7464
▁ప్రారంభించి	-10.7466
▁ఎంచ	-10.7466
▁హైడ్రో	-10.7468
ba	-10.747
▁నగరాలలో	-10.7477
ాధిపతి	-10.7481
▁పెరుగుతున్న	-10.7484
▁చేపలు	-10.749
ala	-10.7491
▁అధిగమించ	-10.7494
▁ఆహ్వాన	-10.7497
▁క్షిపణి	-10.7501
▁స్పందించ	-10.7501
7%	-10.7501
▁ప్రై	-10.7504
▁డాలర్ల	-10.7504
▁ఓటమి	-10.7509
▁వెనక	-10.751
▁ఉద	-10.7513
ప్పుడే	-10.7516
▁విజయాన్ని	-10.7516
▁వసూలు	-10.7516
ాన్నే	-10.7523
▁మెజారిటీ	-10.7524
ానంతరం	-10.7524
▁పడవ	-10.7537
▁కాకతీయ	-10.7537
▁నుండే	-10.7542
ఫోన్	-10.7543
▁బిల్లు	-10.7544
▁హిట్	-10.7545
మంత్రి	-10.7545
▁ఆత్మహత్య	-10.7546
▁ఘంటసాల	-10.7546
▁చెబుతున్న	-10.7547
▁ఒడిషా	-10.7547
▁తప	-10.7549
దక్షిణ	-10.755
▁విశాల	-10.7553
▁పుష్కర	-10.7554
▁ఇటీవలి	-10.7558
ite	-10.7559
ld	-10.7561
▁మంగోల	-10.7562
▁రాజకీయాల	-10.7564
par	-10.7569
గంటి	-10.7573
▁కలిగే	-10.7576
▁చేశాయి	-10.7577
▁త్వరలో	-10.7584
▁కాలుష్య	-10.7584
ally	-10.7584
▁పొందాయి	-10.7585
ian	-10.7586
▁తరపున	-10.7592
▁వాడకం	-10.7592
▁1972	-10.7593
amu	-10.7594
▁చిట్ట	-10.7594
గలిగి	-10.7598
▁కృష్ణుడు	-10.7601
▁సైనికులు	-10.7601
▁ప్రభువు	-10.7601
▁చెందుతున్న	-10.7605
▁ప్రభావిత	-10.7605
▁సంరక్ష	-10.7605
ెయిన్	-10.7607
బ్రా	-10.7609
▁వహిస్త	-10.7612
▁pre	-10.7613
bl	-10.7614
ుచుండ	-10.7615
▁ఎత్తున	-10.7619
▁సంతృప్త	-10.7622
▁దేవాలయాల	-10.7626
▁సదుపాయ	-10.7628
▁పెరిగిన	-10.7632
▁దర్శనం	-10.7634
▁ఆధారపడ	-10.7634
▁ప్రవాహం	-10.7639
▁పర్వతాల	-10.7641
▁అగ్నిపర్వత	-10.7645
యుగం	-10.7647
▁ఉపయోగం	-10.7651
బ్లి	-10.7653
▁తిరగ	-10.7659
har	-10.7664
▁పరమాణు	-10.7664
▁ప్రచురించారు	-10.7666
’’	-10.7669
▁హైడ్రా	-10.7671
▁చక్కని	-10.7675
రీత్యా	-10.768
▁స్వీకరించి	-10.7683
▁సంబంధాల	-10.7683
▁బ్యాండ్	-10.7686
▁నిజమైన	-10.7687
▁యజమాని	-10.7691
str	-10.7694
▁సమకాలీన	-10.7698
▁రాయలసీమ	-10.7698
జియా	-10.7702
▁క్షీణ	-10.7703
▁విషయాలను	-10.7705
▁స్థూల	-10.7714
▁లైంగిక	-10.7714
▁ఆయుధాల	-10.7714
▁భాగస్వామ్యం	-10.7716
▁తల్లిదండ్రుల	-10.7718
దగ్గ	-10.7719
▁మధు	-10.772
▁ఆయుర్వేద	-10.7721
▁ఆధిపత్యం	-10.7726
▁క్రిస్ట	-10.7729
▁అభ్యర్థుల	-10.7729
▁విటమిన్	-10.7737
▁మెదడు	-10.7737
పట్టణ	-10.7737
▁వేదాంత	-10.7741
▁గ్రంథము	-10.7745
▁బ్యాటరీ	-10.7746
▁పతాక	-10.7746
mu	-10.7748
▁పంపించ	-10.7748
▁జింక	-10.7749
▁1975	-10.775
స్ట్రో	-10.7752
▁వైసీపీ	-10.7752
▁కథానాయక	-10.7753
▁ఒంటరి	-10.776
▁ఇప్ప	-10.7766
▁ఎవరూ	-10.7769
▁విస్తరించింది	-10.7771
బడుతోంది	-10.7772
▁స్పష్టం	-10.7774
▁అనేకమంది	-10.7774
▁పదము	-10.7774
ప్రో	-10.7777
▁పరిమితం	-10.7778
▁స్వీయ	-10.7779
▁హెర్	-10.7783
▁సెన్	-10.7796
ప్రియ	-10.7796
▁గ్రాండ్	-10.7801
▁కనుమ	-10.7802
కణాల	-10.7806
యుండ	-10.7811
▁ఎరుపు	-10.7814
▁భర్తీ	-10.782
▁ఛాంపియన్	-10.7821
▁తిరువ	-10.7822
tor	-10.7826
ళిక	-10.7829
▁పౌరులు	-10.783
▁గ్రహించి	-10.7831
▁రాళ్ళ	-10.7833
దారి	-10.7833
▁సంప్రదాయాల	-10.7837
ron	-10.784
▁తెలియజేస	-10.7845
▁సరస్వతి	-10.7852
▁మొదటిసారి	-10.7853
▁1977	-10.7854
యత్న	-10.786
▁కర్మాగార	-10.786
ేటట్లు	-10.7861
ప్రభుత్వ	-10.7867
▁ఇద్దరూ	-10.7868
▁అల్లాహ్	-10.7868
ral	-10.7868
ుకొన్నాడు	-10.787
లేఖ	-10.787
ub	-10.7872
▁ముస్లి	-10.7873
▁కచ్చితంగా	-10.7876
▁దోహద	-10.7882
▁పెరగ	-10.7883
▁పసిఫిక్	-10.7884
ఇతర	-10.7891
▁ఒంగోలు	-10.7891
▁చిత్రాలను	-10.7893
▁సన్నివేశ	-10.7899
▁సిద్ధిపేట	-10.7899
▁లభిస్త	-10.7913
▁ఉపయోగించిన	-10.7917
▁వహిస్తున్న	-10.7923
▁బోర్	-10.7924
▁న్యాయమూర్తి	-10.7929
▁సూత్రాల	-10.793
▁పుట్టుక	-10.7932
▁హనుమ	-10.7933
షె	-10.7935
▁దుర	-10.7935
▁నదుల	-10.7936
be	-10.7942
▁ఎత్తి	-10.7943
▁article	-10.7946
▁ఫిలిప్	-10.7947
low	-10.7948
మంటే	-10.795
▁ఏమిటంటే	-10.7954
▁తెలుస్తోంది	-10.7954
వుండ	-10.7955
పరుచ	-10.7959
ust	-10.7969
▁పట్టణాల	-10.7976
output	-10.7978
▁బెంగుళూరు	-10.7978
▁గేమ్	-10.7979
▁ఇల్లు	-10.7979
▁ఇష్టం	-10.798
▁చిన్నతనం	-10.7981
▁ఆధారం	-10.7982
భాగ్య	-10.7984
▁ప్రయాణీకుల	-10.7986
వాహన	-10.7987
▁పోర్చుగీసు	-10.7993
▁బ్రిటీషు	-10.7993
▁సరాసరి	-10.7993
ాసన	-10.7996
▁రంపచోడవరం	-10.8001
▁అత్యవసర	-10.8001
▁కల్యాణ	-10.8002
▁అధికారాన్ని	-10.8004
▁ఉద్దేశించి	-10.8008
▁ఇబ్బంది	-10.8009
▁other	-10.8009
▁చర్చించ	-10.8013
▁సెట్	-10.8019
▁బ్రాడ్	-10.8023
▁కావాలని	-10.8025
▁ఓట్లు	-10.8027
▁సౌర	-10.803
▁మస్జిద్	-10.8033
▁కర్నూల్	-10.8033
▁మిక్కిలి	-10.8033
▁రంధ్ర	-10.8034
▁కాఫీ	-10.8035
▁మందిరం	-10.804
▁బొమ్మల	-10.8043
▁ఆయిల్	-10.8043
▁అరుదుగా	-10.8049
▁into	-10.8053
బట్ట	-10.8055
▁తెలిసింది	-10.8056
▁మెక్సికో	-10.8057
▁మార్గదర్శక	-10.8057
▁భయపడ	-10.806
▁మత్స్య	-10.8065
▁పర్వ	-10.8065
▁ఆవిష్కరించ	-10.8066
▁ఆవరణ	-10.8066
800	-10.8066
మరియు	-10.8069
▁నదులు	-10.8072
▁పునరుద్ధరించ	-10.8073
▁అవినీతి	-10.8073
▁పెరిగే	-10.8074
▁రూపాయలు	-10.8077
▁శ్రీరంగ	-10.8077
▁మచిలీపట్నం	-10.808
▁ఉత్సవం	-10.8087
▁తీవ్రత	-10.8088
▁ఆల్బమ్	-10.8088
▁సోదరుడు	-10.8089
▁ఒడ్డున	-10.809
▁అంశాలను	-10.8094
▁ద్వ	-10.8094
▁ఉంద	-10.8101
ign	-10.8102
▁మార్గాలు	-10.8105
▁బ్ల	-10.8108
▁అమె	-10.8111
▁చెప్పింది	-10.8111
▁బ్రెజిల్	-10.8113
▁సీఆర్	-10.8113
▁డిప్యూటీ	-10.812
▁శతాబ్దపు	-10.812
▁పోషించారు	-10.8123
▁పదార్థాలు	-10.8124
ందన్నారు	-10.8133
▁పదానికి	-10.8134
to	-10.8135
▁కరువు	-10.8138
▁హొ	-10.8141
▁నిష్పత్తి	-10.8144
▁చెప్పబడింది	-10.8146
▁కదలిక	-10.8147
▁ధరించిన	-10.8148
▁mw	-10.8149
▁పరికరం	-10.815
▁ఎందరో	-10.8152
గ్రంథ	-10.8154
ధేయ	-10.8154
▁కారణాలు	-10.816
ran	-10.816
▁ఎదురుగా	-10.8161
▁కలిగించే	-10.817
▁కూలి	-10.8171
ail	-10.8171
▁మలేషియా	-10.8176
▁ఇబ్బందులు	-10.8177
▁అయ్యారు	-10.8187
mar	-10.8192
▁వ్యత్యాస	-10.8192
▁ఆలస్య	-10.8193
▁ఉండేవాడు	-10.8198
▁ఎలక్ట్రానిక్	-10.82
▁సైనికుల	-10.8202
శాయి	-10.8209
▁వర్గీకరించ	-10.821
▁పురస్కారాన్ని	-10.8213
▁వివాదాల	-10.8214
కొట్ట	-10.8215
నందున	-10.8223
parser	-10.8225
▁శాతవాహన	-10.8225
సమీప	-10.8229
▁సింహాసన	-10.8233
కుడిగా	-10.8235
ఫోర్డ్	-10.8238
▁ప్రవహిస్త	-10.8238
▁శృంగార	-10.8241
▁మరాఠీ	-10.8241
▁విద్యాభ్యాసం	-10.8241
▁గై	-10.8243
పోతు	-10.8248
▁1974	-10.8249
▁ఓడించ	-10.8251
▁నిర్వహిస్తుంది	-10.8254
▁శుక్ర	-10.8257
▁చొప్పున	-10.8257
▁ఏర్పడుతుంది	-10.8263
▁శారీరక	-10.8265
▁కడుపు	-10.8265
వైద్య	-10.8266
au	-10.8266
▁విశ్వవిద్యాలయము	-10.8268
▁వర్గీకరణ	-10.8268
▁హిందు	-10.827
ింపజేస	-10.8274
▁వ్యవహరిస్తారు	-10.8276
▁మిషన్	-10.8277
స్థాన్	-10.8281
▁బొంబాయి	-10.8281
కైనా	-10.8281
▁ప్రశ్నించ	-10.8282
ens	-10.8284
wa	-10.8285
▁చేస్తు	-10.8285
▁To	-10.8286
▁విభజ	-10.8288
శెట్టి	-10.829
సరికి	-10.829
▁సత్కరించ	-10.8291
▁సన్నిహిత	-10.8298
▁చేయగల	-10.8302
▁భూకంప	-10.8315
▁కార్యక్రమాన్ని	-10.8315
పయోగ	-10.8316
▁గ్లా	-10.8316
cent	-10.8319
▁లక్ష్యంగా	-10.832
▁1955	-10.833
▁will	-10.8332
కార్బను	-10.8332
▁క్రీడాకారుల	-10.8333
▁ధార్మిక	-10.8338
▁వ్యవసాయాధారిత	-10.8338
▁ప్రపంచంలోనే	-10.8341
కపోవడంతో	-10.8343
▁ప్రఖ్యాతి	-10.8353
▁ప్రోగ్రామ్	-10.8355
•	-10.836
▁విమానాల	-10.8361
▁కుట్ర	-10.8372
▁జరుపుకుంటారు	-10.8373
▁ఉపన్యాస	-10.8381
▁ఆలయాల	-10.8382
▁మరోవైపు	-10.8385
▁జమీందార	-10.8387
ాదులు	-10.8393
పోర్ట్	-10.8403
▁మునిగి	-10.8404
▁ఆపరేషన్	-10.8405
red	-10.8405
బాహు	-10.8407
▁గడ్డి	-10.8412
▁అంతస్తు	-10.8416
ఘోష	-10.8427
▁భాషల్లో	-10.8427
▁పురావస్తు	-10.8428
ందరికీ	-10.8429
▁1946	-10.8434
▁హాజరు	-10.8434
▁పయన	-10.844
▁తుది	-10.844
▁విమర్శించ	-10.8442
▁లిమిటెడ్	-10.8445
▁ఎన్నికయ్యాడు	-10.8446
▁బాధితుల	-10.8447
▁ఒడి	-10.8453
గిలి	-10.8454
▁నంద్యాల	-10.8454
▁పరికరాలు	-10.8456
▁1988	-10.846
▁తరంగాల	-10.8461
▁you	-10.8473
▁ప్రతీక	-10.8474
▁చెల్లింపు	-10.8478
▁మక్కా	-10.8479
mit	-10.8483
▁ఉద్యోగులు	-10.8485
ice	-10.8486
▁ఉస్మానియా	-10.8486
▁ముగ్గు	-10.8487
▁120	-10.8489
▁నిపుణులు	-10.8489
▁సౌదీ	-10.8493
పీఠ	-10.8493
▁డీఏ	-10.8493
▁ద్రాక్ష	-10.8495
▁ప్రభావాన్ని	-10.8495
▁ఓవర్	-10.8497
▁జరప	-10.851
▁రామాయణం	-10.8515
▁చారిత్రిక	-10.8519
▁మతము	-10.8525
ంటున్న	-10.8525
▁సుల్తాను	-10.8528
▁తొలుత	-10.8528
▁బతుకమ్మ	-10.8536
▁దళాల	-10.8539
▁we	-10.8542
గొట్టపు	-10.8557
▁థాయ్	-10.8561
▁వాడుతారు	-10.8561
వాళ్ళు	-10.8565
▁ఆవిరి	-10.8565
▁బాధపడ	-10.8567
▁దృఢ	-10.8569
▁ఇతనికి	-10.8571
▁భిన్నంగా	-10.8574
ాన్నీ	-10.8576
▁జాతర	-10.8578
▁వాసన	-10.8579
▁లైట్	-10.8584
నగర	-10.8588
▁వర్గాలు	-10.8588
ురాలిగా	-10.859
▁ఫౌండేషన్	-10.8594
con	-10.8598
పెద్ద	-10.8599
▁పరిపాలనా	-10.86
▁టెలి	-10.8601
▁చేయబడుతుంది	-10.8604
ధారి	-10.8611
▁మూలకం	-10.8611
▁జార్జ్	-10.8611
▁ఆనకట్ట	-10.8612
▁ఏకీకృత	-10.8613
▁1964	-10.8613
▁1978	-10.862
▁సూర్యుడు	-10.862
▁నిరంతరం	-10.8624
భరిత	-10.8625
▁పర్యవేక్షణ	-10.8628
▁లభించే	-10.863
▁భీష్మ	-10.8633
▁శరణ	-10.8634
▁ఇంద్రుడు	-10.8641
▁ఇస్లామీయ	-10.8643
▁కావలి	-10.8643
▁బాయిలరు	-10.8645
సంస్థ	-10.8646
▁కవిత్వ	-10.8648
▁తయారుచేయ	-10.8649
▁హెడ్	-10.865
▁పత్రాల	-10.8659
▁భవనాల	-10.8661
▁వెల్లడించ	-10.8662
▁సింగిల్	-10.8663
▁ముగించ	-10.8666
▁such	-10.867
▁పూజించ	-10.8671
▁చెప్పడం	-10.8676
▁భీమవరం	-10.8676
▁వాళ్ల	-10.8676
సంఘ	-10.8677
▁వికీపీడియా	-10.8679
▁నియమిత	-10.8679
▁విముక్తి	-10.8679
▁వెళ్ళారు	-10.8679
బ్యూ	-10.8681
▁సంస్కృతుల	-10.8682
▁గలవాడు	-10.8684
▁దేశవ్యాప్తంగా	-10.8687
▁గరి	-10.8691
▁నేర్చుకున్న	-10.8694
▁086	-10.8702
▁2018	-10.871
▁శివలింగ	-10.8711
కెన్	-10.8713
▁250	-10.8714
▁నీతి	-10.8721
▁ఇన్స్టిట్యూట్	-10.8721
▁gov	-10.8722
▁సిద్ధాంతాల	-10.8728
▁రీసెర్చ్	-10.8729
▁కనపడ	-10.8735
▁ప్రబల	-10.8737
▁ఉత్పత్తులు	-10.8743
▁గట్టిగా	-10.8744
▁గొంతు	-10.8747
▁ఖ్యాతి	-10.8747
▁పర్షియన్	-10.8747
ుకోవటానికి	-10.8752
▁1979	-10.8753
▁బహుశా	-10.8756
▁రంగారావు	-10.8757
▁నిర్వచించ	-10.8758
కర్మ	-10.8758
▁జార్జి	-10.876
▁శీర్షిక	-10.8763
▁క్షీణించ	-10.8766
ever	-10.8767
▁బండి	-10.8779
క్రమణ	-10.8785
▁కౌరవ	-10.8786
కాలము	-10.8792
▁పురాతనమైన	-10.8792
▁ఆలయాన్ని	-10.8794
▁1965	-10.8796
▁సంక్షోభ	-10.8797
▁కౌంటీ	-10.8798
▁వాహక	-10.8807
ఆంధ్ర	-10.881
▁మాట్లాడారు	-10.881
మృగ	-10.8812
▁ఘర్షణ	-10.8815
▁పెంపకం	-10.8815
▁రోజూ	-10.8818
శర్మ	-10.8819
▁అందుకున్న	-10.882
డెంట్	-10.8824
గ్గి	-10.8825
▁అపరాలు	-10.8826
▁అప్పుడే	-10.8828
▁రాముని	-10.8829
▁దుస్తుల	-10.883
▁నియమాల	-10.883
ాపక	-10.8832
▁నిలబెట్ట	-10.8833
▁ఒకవేళ	-10.884
▁చిత్రాలకు	-10.884
▁రకరకాల	-10.884
▁వెలిగ	-10.8843
▁గంగరాజు	-10.8846
▁తగినంత	-10.8848
▁దుస్తులు	-10.8853
▁జేమ్స్	-10.8859
▁తేమ	-10.886
▁డేవిడ్	-10.8866
▁రికార్డ్	-10.8866
▁వ్యతిరేకించ	-10.8872
మల్ల	-10.8874
▁నాల్గవ	-10.8875
▁తాడేపల్లి	-10.8875
▁సామంత	-10.8883
▁వెలువరించ	-10.8883
ారణ్య	-10.8883
▁ఇష్టపడ	-10.8887
▁దాచ	-10.8888
▁చారిత్రాత్మక	-10.8892
▁గేయ	-10.8892
▁నిరోధించ	-10.8893
▁పోటీలలో	-10.89
▁సర్ప	-10.8902
▁వివాదం	-10.8903
▁ఇళ్ల	-10.8909
▁నారద	-10.8909
బొమ్మ	-10.8909
స్తుంటాయి	-10.8913
▁కలదు	-10.8914
▁డాలర్లు	-10.8915
▁దిగుమతి	-10.8918
way	-10.8922
▁అతిథి	-10.8922
▁కరిగి	-10.8929
▁కొలత	-10.8933
▁స్పందన	-10.8935
▁నీళ్ల	-10.8937
▁చేపట్టారు	-10.8938
▁అడుగుపెట్ట	-10.8939
▁1987	-10.8943
▁నివాసగృహాలు	-10.8944
▁భీష్ముడు	-10.8947
▁వస్త్రాల	-10.8951
▁ఫలితం	-10.8951
ింపబడింది	-10.8953
▁విగ్రహాలు	-10.8954
▁సాంకేతికత	-10.8955
▁నీళ్ళ	-10.8958
▁1945	-10.896
▁ఓటు	-10.8961
▁టిబెట్	-10.8963
▁ఆత్మకూరు	-10.8964
▁చిత్రీకరణ	-10.8965
▁సంకల్ప	-10.8967
▁స్టే	-10.8971
▁కేశవ	-10.8972
బట్టి	-10.8973
▁ఆహ్వానించ	-10.8975
▁గ్రె	-10.8976
ుకుంటాయి	-10.8979
మిత్ర	-10.8984
▁ధ్వని	-10.8985
▁కాథలిక్	-10.8987
▁వేతన	-10.8988
లాగే	-10.8991
▁ప్రముఖులు	-10.8998
చేశాడు	-10.9
▁ట్రాక్	-10.9001
mm	-10.9003
▁వస్తే	-10.9004
▁చెడు	-10.9005
▁బోధన్	-10.9009
బస్తీ	-10.9009
సమయంలో	-10.9011
tain	-10.9014
శంకర	-10.9015
▁అధిపతి	-10.9016
మాసం	-10.9016
ాబాదు	-10.9017
▁గనుల	-10.9022
▁పిలుపు	-10.9024
ram	-10.9025
మునందు	-10.9029
▁2019	-10.903
▁కళల	-10.9031
▁పరుగుల	-10.9031
▁పంచాయతీకి	-10.9033
▁జన్మించింది	-10.9034
▁స్పె	-10.9035
▁కాశ్మీర్	-10.9039
▁1982	-10.904
▁సన్మాన	-10.9043
ఉపయోగిస్తున్నారు	-10.905
▁పడమర	-10.9054
▁డౌన్	-10.9057
▁ఘనత	-10.9062
▁చుక్క	-10.9067
▁ప్రతిపక్ష	-10.907
▁ప్రదేశాలు	-10.9071
▁వాదించ	-10.9072
▁బయో	-10.9073
▁శ్రీశైల	-10.9075
▁1969	-10.9075
▁సాయుధ	-10.9079
▁ప్రకటించాడు	-10.9079
▁తమ్ముడు	-10.9083
దీప్	-10.9085
▁తొక్క	-10.909
▁తెలియదు	-10.9093
▁మైళ్ళ	-10.9097
▁పనితీరు	-10.9101
▁ఆరవ	-10.9116
▁సివిల్	-10.912
ినేని	-10.9126
▁డిజైన్	-10.9127
old	-10.9134
▁గుర్రాల	-10.9142
▁తుఫాను	-10.9145
▁మోడల్	-10.9146
ాంశాల	-10.9146
కాలనీ	-10.9146
▁మూలకాల	-10.9146
▁సీపీ	-10.9147
▁కార్యకలాపాలు	-10.9147
▁రాజస్థాన్	-10.9148
▁బంధువుల	-10.9148
ాధికారుల	-10.9149
▁నగరము	-10.9153
▁సవరణ	-10.9154
▁ఆలోచించ	-10.9155
▁బంతి	-10.9159
▁పూస	-10.9161
▁క్యాలెండర్	-10.9163
▁వాద్య	-10.9163
▁నియోజకవర్గ	-10.9164
▁గరిష్ఠ	-10.9172
▁చనిపోయిన	-10.9174
▁టీడీపీ	-10.9181
ati	-10.9181
▁ఫలితాలు	-10.9181
▁ఇవన్నీ	-10.9181
land	-10.9187
▁నడిచే	-10.9189
▁ఎప్పుడ	-10.9191
▁రేవు	-10.9192
col	-10.9192
▁పెట్టింది	-10.9197
▁మ్యూజిక్	-10.9198
▁రాబర్ట్	-10.9198
▁అయిదు	-10.9199
▁దళాలు	-10.92
బ్ధ	-10.9202
rt	-10.9204
▁ఎక్స	-10.9206
హైదరాబాద్	-10.9217
▁మంగళగిరి	-10.9218
▁పరిరక్షణ	-10.9219
▁పెట్టె	-10.9219
▁పిలిచేవారు	-10.922
▁నిన్ను	-10.9222
▁వాషింగ్టన్	-10.9225
▁విక్టోరియా	-10.9225
▁గణనీయంగా	-10.9225
▁మహారాజా	-10.9225
▁వచన	-10.9227
▁పొలాల	-10.9229
▁బ్రె	-10.923
దేవుని	-10.9231
ase	-10.9231
▁అక్షరాల	-10.9233
▁ఆధిక్యత	-10.9234
▁అలవాటు	-10.9234
▁నడిపించ	-10.924
▁వ్యాధులు	-10.9243
▁కమలా	-10.9246
▁గ్యాస్	-10.9248
▁రాశాడు	-10.925
▁అరుణ	-10.9254
ీయుల	-10.9257
▁అసంతృప్త	-10.9261
▁used	-10.9263
▁He	-10.9266
▁ఇస్తారు	-10.9272
▁వ్యాపించ	-10.9277
▁స్థిరమైన	-10.9277
పీడన	-10.928
▁వెచ్చ	-10.928
▁కాయగూరలు	-10.9288
▁cs	-10.9293
▁ఇంకొక	-10.9295
▁సోషల్	-10.9297
▁పర్యటించ	-10.9306
▁ఉంటున్న	-10.9308
▁పరీక్షించ	-10.9309
▁టీవీ	-10.9311
▁ఇవ్వబడింది	-10.9311
▁వివాదాస్పద	-10.9315
▁మూత్ర	-10.9317
▁కమ్యూనిటీ	-10.9324
▁స్వచ్ఛంద	-10.9333
▁విలియం	-10.9342
▁కృత్రిమ	-10.9351
▁రద్దీ	-10.9351
india	-10.9352
▁విడిచిపెట్ట	-10.9352
rn	-10.9358
▁1957	-10.9358
▁కలుగుతుంది	-10.9365
▁నియోజకవర్గాల	-10.9371
▁శ్రీకృష్ణుడు	-10.9374
man	-10.9374
బడలేదు	-10.9376
▁దర్యాప్తు	-10.9378
▁వీసా	-10.9378
▁రంగాలలో	-10.9381
▁యేసు	-10.9381
▁కచ్చితమైన	-10.9387
▁క్రియాశీల	-10.9387
▁సజ్జ	-10.9387
▁కార్యక్రమ	-10.9389
▁చీఫ్	-10.939
▁చేసినట్లు	-10.9393
▁ఇంజనీర్	-10.9396
▁కాలిఫోర్నియా	-10.9396
▁సురక్షిత	-10.9396
మెయిల్	-10.9397
▁దాడులు	-10.94
▁సికింద్రాబాద్	-10.9414
ult	-10.9416
▁ప్రచురిత	-10.942
▁ఇనుము	-10.9423
▁అభిమానుల	-10.9426
చెప్ప	-10.9428
▁ఉక్కు	-10.943
విధానం	-10.9431
▁ఇద్దరి	-10.9433
▁రెట్లు	-10.9434
▁చేయబడి	-10.9435
రచన	-10.9436
▁పక్షి	-10.9439
▁కరుణ	-10.9443
▁బడ్జెట్	-10.9451
▁చౌదరి	-10.9451
▁‘‘	-10.9461
▁ఇంజన్	-10.9465
▁చిహ్నాల	-10.9466
▁ఖురాన్	-10.9469
▁భీముడు	-10.9469
▁చెయ్యడం	-10.9469
▁వెంకటగిరి	-10.947
▁were	-10.9471
▁స్వాతి	-10.9474
▁ద్రవ్యరాశి	-10.9479
▁క్రైస్తవులు	-10.9481
▁నిర్వహించెదరు	-10.9481
▁చీకటి	-10.9487
▁అందించింది	-10.9488
▁సెలవు	-10.9489
▁నటుల	-10.949
▁కనుగొన్నారు	-10.9491
▁వేంకటేశ్వర	-10.9495
పితామహ	-10.9496
▁అఖిల	-10.9496
▁సంగమ	-10.9497
▁భద్రతా	-10.9498
▁ఐదవ	-10.9506
▁జనగామ	-10.9506
ావధాన	-10.9507
▁వాస్తవానికి	-10.9508
▁మాంసం	-10.9511
▁ప్రత్య	-10.9516
▁శాంత	-10.9518
▁వ్రాత	-10.9524
▁సైన్యాన్ని	-10.9527
▁పరమేశ్వర	-10.9531
శాతం	-10.9535
▁కాస్త	-10.9543
▁భాస్కర	-10.9546
ప్రధాన	-10.9548
వాళ్లు	-10.9548
▁జోడించ	-10.9549
▁అగ్రహారం	-10.9553
▁Al	-10.9557
▁టవర్	-10.9563
▁నిర్దేశ	-10.9563
▁శత్రు	-10.9564
▁పండితుల	-10.9565
సేపు	-10.9568
▁సత్యాగ్రహ	-10.957
ిద్దరూ	-10.957
▁స్తంభాల	-10.957
▁మేయర్	-10.9577
▁క్లోరైడ్	-10.9579
▁ఏర్పడును	-10.9583
▁ఆవిర్భవించ	-10.9588
▁వెల్డింగు	-10.9588
▁1954	-10.9589
▁తాళ్ళ	-10.9597
▁పవన్	-10.96
▁సంజీవ	-10.9604
▁1986	-10.9606
▁నెమ్మదిగా	-10.9607
▁జీడి	-10.9607
▁మతాల	-10.9614
సత్య	-10.9617
▁రూపొందించారు	-10.9623
▁నిర్మించబడిన	-10.9623
▁యాంత్రిక	-10.9625
▁part	-10.9627
వెళ్ళ	-10.9631
▁స్వేచ్ఛా	-10.9632
పరిచే	-10.9634
▁నెదర్లాండ్స్	-10.9635
▁అభిషేక	-10.9635
▁నాలుగ	-10.9638
▁ఉత్తీర్ణ	-10.9653
▁1966	-10.9654
▁ఎదుట	-10.9654
▁విస్తర	-10.9656
▁ఆఫ్ఘనిస్తాన్	-10.9662
▁కాలేజి	-10.9663
▁భ్రమ	-10.9664
▁పురస్కారాలు	-10.9664
▁పలికి	-10.9667
▁స్ట్రీట్	-10.9672
▁తగిలి	-10.9673
▁UK	-10.9673
▁యువకుల	-10.9681
▁అట్లాంటిక్	-10.9681
▁ఆకారంలో	-10.9696
▁స్తోత్ర	-10.97
▁పట్టణానికి	-10.9711
▁ప్రతాప	-10.9712
మేనేజ్మెంట్	-10.9719
▁తేనె	-10.9726
▁ఆరంభించ	-10.9727
ఘాత	-10.9735
▁రూపాల	-10.9736
▁అరుదైన	-10.9737
▁డ్రైవర్	-10.974
▁విస్తారమైన	-10.9741
▁గర్వ	-10.9743
▁వెంకటేశ్వర	-10.9747
▁It	-10.9752
ావతార	-10.9753
BS	-10.9754
▁దక్ష	-10.9758
▁సహాయపడ	-10.9759
▁సాంప్రదాయిక	-10.9764
▁టెర్	-10.9764
ful	-10.9765
▁బోయ	-10.9766
▁మారుతుంది	-10.9767
▁యుద్ధాల	-10.9771
▁రావట్లేదు	-10.9775
▁అంతరించి	-10.9778
▁నిర్మిత	-10.9783
▁నియంత్ర	-10.9783
▁బ్రాండ్	-10.9786
▁కట్టడాల	-10.9786
▁సంగారెడ్డిలోను	-10.9786
▁1953	-10.979
▁నడప	-10.9795
▁యంత్రాల	-10.9795
ప్రాంతాల	-10.9795
▁తెలియజేస్తు	-10.9798
▁విస్తారంగా	-10.9806
▁కాకతీయుల	-10.9808
▁హాజర	-10.9812
▁person	-10.9813
▁అక్కినేని	-10.9813
right	-10.9815
▁నియామక	-10.9822
▁పోలాండ్	-10.9824
▁ప్రదేశము	-10.9825
▁తీర్చిదిద్ద	-10.9832
▁ఉన్నందున	-10.9832
▁ముంద	-10.9838
▁గోత్ర	-10.984
టైల్	-10.9855
మీటర్	-10.9858
ారాధన	-10.986
▁గుంపు	-10.9862
టింగు	-10.9863
▁జయంతి	-10.9864
▁తోడ్పడ	-10.9868
▁శతాబ్దము	-10.9872
వినియోగ	-10.9877
▁మంజ	-10.9879
▁ఉండవు	-10.988
▁చూచి	-10.988
▁నిర్ధారణ	-10.9882
ోన్నత	-10.9885
▁దిగి	-10.9886
▁నౌకాశ్రయ	-10.9889
▁చేసుకోవడం	-10.9895
ుణ్ణి	-10.9895
హస్త	-10.9899
▁పనిచేసారు	-10.99
▁నారాయణపేట	-10.9904
▁దీవి	-10.9904
▁విగ్రహాన్ని	-10.9907
▁నరసరావుపేట	-10.9908
▁అమిత	-10.9909
▁1973	-10.9916
▁ఎద్దు	-10.992
▁అందుకున్నాడు	-10.9924
▁స్టాక్	-10.9929
వాదులు	-10.9935
▁పంజాబీ	-10.9936
▁ఘట	-10.9938
▁చుండ	-10.9944
▁శైల	-10.9945
▁ఇటాలియన్	-10.9946
▁చెందాయి	-10.9954
▁గిల్	-10.9957
▁సంక్షిప్త	-10.9965
▁1981	-10.9965
▁కెరీర్	-10.9965
▁అక్షాంశ	-10.9966
▁కీలకమైన	-10.9972
▁హాంగ్	-10.9974
▁అయస్కాంత	-10.9975
▁నగదు	-10.9975
▁ఘోర	-10.9976
▁వాస్తు	-10.9979
▁వాయువ్య	-10.9983
▁తెలుసుకో	-10.9985
▁1942	-10.9985
row	-10.999
line	-10.9994
▁అన్నింటి	-10.9995
▁ఊరేగింపు	-11.0004
▁సమన్వయ	-11.0004
▁జారీచేసింది	-11.0004
▁బీమా	-11.0005
▁ఏర్పడే	-11.0006
▁నేపాల్	-11.0013
▁ప్రమాదకర	-11.0014
cul	-11.002
▁వ్రాశాడు	-11.0023
సంవత్సర	-11.0027
▁వహిస్తుంది	-11.0033
▁1949	-11.0035
▁అభ్యాస	-11.0035
ుఁడు	-11.0037
యోగ్య	-11.004
శతాబ్ద	-11.0044
▁విగ్రహాల	-11.0046
emb	-11.0048
▁1951	-11.0049
▁పర్యాయ	-11.0052
▁బంధించ	-11.0055
హైడ్ర	-11.0059
▁వేరొక	-11.0062
▁క్యూబా	-11.0063
▁సంభవించిన	-11.0065
▁ప్రయాణికుల	-11.0065
గలుగుత	-11.007
▁అనుగ్రహ	-11.0071
▁వత్తిడి	-11.0071
▁ఆకలి	-11.0076
▁అనుసంధాన	-11.0079
▁మురుగు	-11.0091
▁పిలవబడే	-11.0092
▁అంతటి	-11.0097
▁వ్యాప	-11.0097
▁కావాలి	-11.01
▁స్వీడన్	-11.01
▁శుక్ల	-11.0101
▁పుచ్చ	-11.0102
▁మునుపటి	-11.011
▁మహాసభ	-11.0115
▁మినహా	-11.0119
▁పప్పు	-11.012
అద్దంకి	-11.0122
▁ముత్త	-11.0125
▁స్థాపించబడిన	-11.0132
▁ప్రేమించ	-11.0136
▁చిత్రాల్లో	-11.0139
▁మెట్రో	-11.0142
▁శ్వేత	-11.0149
▁నుంచీ	-11.015
▁కలిగివున్న	-11.0151
▁సముద్రపు	-11.0155
▁ఆశ్రయ	-11.0157
▁నూజివీడు	-11.0159
▁వెనక్కి	-11.0159
▁ఏర్పాట్లు	-11.0159
▁దసరా	-11.0159
మయ్యింది	-11.0161
▁వ్యాకరణ	-11.0161
▁పార్లమెంట్	-11.0169
▁దహన	-11.0171
శ్యామ	-11.0173
▁ముగిసిన	-11.0179
పరిచారు	-11.0182
గుర్తించబడుతుంది	-11.0186
ough	-11.0188
కుటుంబ	-11.0193
▁దుకాణ	-11.0194
▁పాల్పడ	-11.0198
▁నామకరణం	-11.0198
▁వేగంతో	-11.0199
▁గౌరవించ	-11.0201
▁ప్రగతి	-11.0201
▁నిఘంటువు	-11.0208
▁వ్రాశారు	-11.0208
▁ఆక్సైడ్	-11.0216
▁కొలంబియా	-11.0218
▁విరివిగా	-11.0218
▁పద్యాలు	-11.022
▁డ్రైనేజీ	-11.0228
▁ఐతే	-11.0231
AT	-11.0235
AP	-11.0237
census	-11.0238
▁ఇంగ్లాండు	-11.0238
▁మహమ్మద్	-11.0238
▁గొర్రె	-11.0238
▁హార్డ్	-11.024
ప్రాంతంలో	-11.0247
▁మరణశిక్ష	-11.0248
▁కూచిపూడి	-11.0257
▁వుంచ	-11.0258
▁రామానుజ	-11.0258
▁సంచిక	-11.0259
▁టాటా	-11.0261
ించువాడు	-11.0264
▁లక్నో	-11.0267
▁కొనసాగుతున్న	-11.027
▁సభ్యునిగా	-11.0271
ుకోలేక	-11.0277
▁వెయ్యి	-11.0278
▁స్వీకరించారు	-11.0278
,00,000	-11.0286
▁తీవ్రవాద	-11.0297
▁పరిణామాల	-11.0299
▁వార్తా	-11.0304
కాలిక	-11.0304
▁త్రిపుర	-11.0304
▁1961	-11.0309
▁ఉపయోగపడుతుంది	-11.0322
ory	-11.0323
▁కీర్తనల	-11.0327
▁ఎన్నికయ్యారు	-11.0328
▁జబ్బు	-11.0329
▁aspx	-11.0337
▁దాఖలు	-11.0337
▁దేవస్థానం	-11.0339
▁జవహర్	-11.0347
▁చైనీయుల	-11.0347
▁బ్రో	-11.0347
▁నెట్వర్క్	-11.0357
aj	-11.0366
▁విశ్వామిత్ర	-11.0367
▁ఖైదు	-11.0367
▁చలికాలం	-11.0372
▁సింగపూర్	-11.0373
▁may	-11.0376
▁బేరియం	-11.0387
▁పంతులు	-11.0388
▁చరిత్రకారులు	-11.039
▁గాత్ర	-11.0392
▁గన్నవరం	-11.0397
కిరణాల	-11.0397
ుతుండగా	-11.0398
▁తక్షణ	-11.0398
▁అవధాన	-11.0398
▁వంటకాల	-11.0403
▁ఎన్నికైన	-11.0403
రైట్	-11.0405
▁నార్త్	-11.0417
▁హెచ్చరించ	-11.0417
▁నివసి	-11.0418
▁సరుకు	-11.0425
▁ప్రతిష్ఠించ	-11.0429
ాడట	-11.0431
▁trans	-11.0437
▁పరిశీలించి	-11.0438
▁పిటిషన్	-11.0447
▁కాపర్	-11.0455
▁మైసూర్	-11.0457
▁మోతాదు	-11.0467
గోపాల	-11.0469
▁క్షీర	-11.047
▁నరేంద్ర	-11.0471
▁హెక్టార్ల	-11.0478
▁హిమాలయ	-11.048
ిద్దరి	-11.0481
▁ప్రాంగణంలో	-11.0481
▁నాలుగవ	-11.0486
▁మెరుగైన	-11.0487
▁తైవాన్	-11.0488
▁అద్దె	-11.0496
▁ప్రకట	-11.0497
▁ఇంగ్లండ్	-11.0498
▁ఇవ్వాలని	-11.0504
▁పెద్దాపురం	-11.0504
▁ఆక్సిజన్	-11.0508
▁విలక్షణ	-11.0508
▁యూరో	-11.0512
ఁడు	-11.0515
▁సదాశివ	-11.0518
▁సరిగ్గా	-11.0518
▁స్టేడియం	-11.0518
▁మౌర్య	-11.0521
▁అనుసంధానించ	-11.0525
లక్ష్మీ	-11.0526
▁శ్రామిక	-11.0528
▁తగు	-11.0531
మంతటా	-11.0535
▁రీతిలో	-11.0539
సాగాడు	-11.0542
▁మంత్రివర్గ	-11.0548
▁ఫీల్డ్	-11.055
▁నిలుప	-11.0553
▁వుడ్	-11.0553
▁కార్యక్రమానికి	-11.0553
▁ఖలీఫా	-11.0558
▁హనుమంతుడు	-11.0558
ొద్దు	-11.0563
శ్రుత	-11.0565
▁కుదుర్చ	-11.0569
▁ప్లాస్టిక్	-11.057
శాంతి	-11.057
చెయ్య	-11.0573
▁బుద్ధుని	-11.0575
▁బీఆర్ఎస్	-11.0579
▁టాక్సీ	-11.0579
ook	-11.0591
▁ప్రదానం	-11.0592
▁పాల్గొన్నాడు	-11.0598
▁విశ్రాంతి	-11.0599
▁చిరంజీవి	-11.061
▁సిరిసిల్ల	-11.061
▁గ్రహీత	-11.061
▁హిప్	-11.0615
▁1959	-11.0615
▁నిరుద్యోగ	-11.062
ఉండ	-11.0626
▁హైడ్రోజన్	-11.0631
▁కదల	-11.064
▁ప్రతికూల	-11.0641
▁కలవాడు	-11.0641
▁వుంది	-11.0646
Population	-11.0651
పూర్వకంగా	-11.0653
▁పరిసరాల	-11.0656
శైలి	-11.066
Districts	-11.0661
▁శతాబ్ధ	-11.0661
▁పన్నెండు	-11.0661
ోత్పత్తి	-11.0661
▁జంతువు	-11.0667
హరణ	-11.0668
aw	-11.0671
▁know	-11.0671
▁సంక్లిష్ట	-11.0671
ప్రభ	-11.0672
▁gr	-11.0679
ాభిమాన	-11.0683
▁సందర్భాల్లో	-11.0687
▁లొంగ	-11.0691
Master	-11.0692
చెట్టు	-11.0693
▁ఇంకో	-11.0698
▁ఆకుపచ్చ	-11.0702
▁అవుట్	-11.0705
▁స్తుత	-11.0712
▁సర్వీస్	-11.0713
▁సంగతి	-11.0713
▁ఆరాధన	-11.0723
▁బోర్డ్	-11.0729
▁తీసుకునే	-11.0734
▁వదుల	-11.0743
▁చార్లెస్	-11.0744
▁ధో	-11.0754
▁1976	-11.0754
▁సంప్రదించ	-11.0754
▁చట్టాల	-11.0754
▁కోణం	-11.0756
▁సంవత్సరాల్లో	-11.0757
▁భారతదేశపు	-11.076
▁గుడ్డ	-11.0762
▁ఫిన్లాండ్	-11.0764
▁బదులు	-11.0772
సాగర	-11.0774
clusion	-11.0775
▁ముత్యాల	-11.0779
▁బయటపడ	-11.079
▁రూపొందించబడింది	-11.0798
వతేదీ	-11.0798
▁సిరియస్	-11.0817
▁its	-11.0824
ారంభ	-11.0825
సూత్ర	-11.0826
▁ఐక్యరాజ్యసమితి	-11.0827
వర్ధన	-11.0832
▁పునరుద్ధరణ	-11.0837
కుప్పం	-11.0838
▁సదుపాయాల	-11.084
▁టెస్టు	-11.084
నాయక్	-11.0843
▁ప్రసాదించ	-11.0845
▁అంతరకృషి	-11.0848
▁చంద్రగుప్త	-11.0848
▁గుర్తించబడింది	-11.0857
▁but	-11.0862
▁అపార	-11.0868
▁చదివాడు	-11.0869
Find	-11.0872
▁వేటాడ	-11.0872
▁జరిమానా	-11.0879
▁దశకంలో	-11.088
▁విరాట	-11.088
▁అలంకార	-11.0881
▁దిద్ద	-11.089
▁ముగిసింది	-11.09
కాలపు	-11.0901
▁పాలించిన	-11.0903
=28	-11.0905
▁చదివే	-11.0906
▁బాలబడులు	-11.0911
▁హేమ	-11.0913
గఢ్	-11.0915
▁కపిల	-11.0916
▁చదువుకున్న	-11.0917
▁భగవంతుని	-11.0922
▁పౌరాణిక	-11.0922
▁పథకాల	-11.0923
స్తారని	-11.0929
▁జ్వర	-11.0932
▁అసిస్టెంట్	-11.0932
▁కోరుతూ	-11.0949
▁కృష్ణమూర్తి	-11.0953
wiki	-11.0953
▁మచ్చ	-11.0956
పోతాడు	-11.0959
▁విలాస	-11.0963
▁అధికరించ	-11.0965
▁1,2	-11.0966
4)	-11.0971
▁కొలువు	-11.0972
▁ఏడవ	-11.0974
▁ఏదేమైనా	-11.0975
▁ఆభరణాల	-11.0982
ేశ్వరస్వామి	-11.0983
ness	-11.0983
▁నన్నయ	-11.0984
1,000	-11.0986
జులై	-11.1002
▁నర్సీపట్నం	-11.1006
▁కార్యాచరణ	-11.1017
▁హెన్రీ	-11.1017
▁బృహ	-11.1028
▁స్పేస్	-11.1028
▁నిదర్శన	-11.1029
▁తిరుగుతూ	-11.1041
విశ్వాస	-11.1048
▁పోగొట్ట	-11.1052
▁సమేత	-11.1054
▁విశాలమైన	-11.1055
▁మిత్రుల	-11.1061
▁అనుచరుల	-11.1063
▁సంపర్క	-11.1063
▁కార్తె	-11.1068
▁అందజేశారు	-11.1071
▁డివిజను	-11.1071
▁రమేష్	-11.1071
▁అమరిక	-11.1079
▁పోర్చుగల్	-11.1092
▁స్కోరు	-11.1093
▁ఉంటుంద	-11.1094
▁లవణ	-11.1095
▁సార్వత్రిక	-11.1103
▁పంచాయితీ	-11.1103
ేంద్రియ	-11.1109
▁పరిమితమైన	-11.1114
▁పాండవ	-11.1115
నూనె	-11.1117
▁తనిఖీ	-11.1124
▁పంచాంగం	-11.1124
ప్రజల	-11.1127
ava	-11.1129
▁భజన	-11.113
▁గాయకుడు	-11.1133
▁రావడానికి	-11.1137
▁పొట్ట	-11.1137
▁జన్మించ	-11.1139
▁భరించ	-11.114
▁వెదురు	-11.1142
కావ్య	-11.1142
▁వెల్లడించారు	-11.1142
▁ఇనుప	-11.1151
▁ఇటుకల	-11.1158
▁లార్డ్	-11.1159
▁సమైక్య	-11.1168
▁గుమ్మడి	-11.1168
▁time	-11.1168
▁గులాబీ	-11.1178
▁కచేరీ	-11.1179
▁మనుగడ	-11.1179
▁పీటర్	-11.1179
▁త్రవ్వకాల	-11.1185
▁నిపుణ	-11.1186
▁గవర్నరు	-11.1189
▁మరుగుదొడ్ల	-11.1189
▁త్రవ్వ	-11.119
▁ప్రాప్తి	-11.1199
▁ధ్వంసం	-11.12
▁బ్రౌన్	-11.12
▁గుర్రం	-11.1201
పాణి	-11.1201
▁1958	-11.1207
▁విరుద్ధంగా	-11.1211
ోత్తమ	-11.1213
▁ఏర్పడతాయి	-11.1214
▁అల్ప	-11.1216
▁మార్చబడింది	-11.1217
మంత్ర	-11.1219
మోహన	-11.1225
చేసారు	-11.1231
▁పొటాషియం	-11.1233
▁కొరత	-11.1235
▁ముట్టడి	-11.1237
▁విస్తృతమైన	-11.1256
▁వెలువడిన	-11.1268
▁స్పష్టమైన	-11.1277
▁Re	-11.1281
▁సుగ్రీవ	-11.1288
▁అంతిమ	-11.1288
▁ఏర్పడ్డాయి	-11.1292
▁బుట్ట	-11.1294
శిల్ప	-11.1295
▁శివాజీ	-11.1299
▁ఉందో	-11.1299
▁భీముని	-11.1308
▁నిపుణుల	-11.1309
▁కాల్పుల	-11.1314
▁1931	-11.1321
▁1936	-11.1328
▁చేసాయి	-11.1329
▁విద్యుద	-11.1329
▁Wiktionary	-11.1331
▁తదనంతర	-11.1331
▁రిజిస్ట్రేషన్	-11.1331
▁ఇస్లామిక్	-11.1331
ెుక్క	-11.1334
▁వడ్డీ	-11.1345
▁their	-11.135
పీఎస్	-11.135
▁కోతలు	-11.1352
▁వాల్వు	-11.1357
▁name	-11.1359
▁స్కూలు	-11.1365
▁పటేల్	-11.1376
▁తీసుకెళ్ల	-11.1376
▁సమీకరణ	-11.1379
▁ప్రాంగణ	-11.1382
▁చాళుక్యుల	-11.1384
▁తేల్చ	-11.1386
▁థామస్	-11.1387
▁వదిలే	-11.1387
▁గంధ	-11.1389
▁నటుడిగా	-11.139
TT	-11.1392
▁తీసుకోవడం	-11.1393
ex	-11.1394
సామర్ధ్య	-11.1394
▁నందిగామ	-11.1398
▁చైనీస్	-11.1409
▁టోర్నమెంట్	-11.142
▁1968	-11.1432
▁హిట్లర్	-11.1433
ిస్తామని	-11.1434
వైశాల్య	-11.1441
▁ట్రె	-11.1442
▁ఉపనిషత్తు	-11.1442
▁1963	-11.1444
మైలవరం	-11.1447
▁సిస్టమ్	-11.1453
▁1939	-11.1461
▁యూరోప్	-11.1461
===	-11.1464
▁ప్రెసిడెంట్	-11.1464
▁బంగార	-11.1468
▁గమ్య	-11.147
▁మోటార్	-11.147
▁మొగ్గ	-11.1485
▁అధ్యక్షులు	-11.1486
▁ఏటియం	-11.1487
▁మేనేజర్	-11.1498
▁వాయిదా	-11.1498
▁సంసార	-11.15
▁జెండా	-11.1508
పోతూ	-11.1512
▁పునాది	-11.1512
▁మినహాయింపు	-11.152
▁ప్రిన్స్	-11.1524
▁ఎగుమతుల	-11.1531
▁హెల్త్	-11.1532
▁సమర్ప	-11.1532
▁సీఐ	-11.1534
▁అనబడే	-11.1538
▁దాల్చ	-11.1544
ja	-11.1545
▁యేట	-11.1548
text	-11.155
▁దొరుకు	-11.1553
▁ఆదిలాబాదు	-11.1554
▁సరికొత్త	-11.1554
▁రూపాంతరం	-11.1554
▁సందర్శకుల	-11.1554
▁గోల్కొండ	-11.1557
▁బానిసత్వ	-11.1564
▁డ్యూ	-11.1568
▁గాంధార	-11.1574
▁రాజీవ్	-11.1577
▁తీసుకోవాలని	-11.1578
▁పోలిష్	-11.1578
▁కనీస	-11.1586
▁అభివర్ణించ	-11.1588
▁పరమాణువు	-11.1605
చిహ్న	-11.1618
TV	-11.162
▁డైరెక్ట	-11.162
▁ప్రొడక్షన్	-11.1622
▁ఆవశ్యక	-11.1622
▁రూపుదిద్ద	-11.1644
న్నింటినీ	-11.1651
▁కర్నాటక	-11.1656
▁పొద్దుతిరుగుడు	-11.1656
▁శతాబ్దానికి	-11.1656
▁షేర్	-11.1657
కలిగి	-11.1663
▁పార్వతి	-11.167
▁బౌద్ధమత	-11.1673
▁అర్జునుడి	-11.1676
▁క్లై	-11.1677
▁జైపూర్	-11.168
దుర్తి	-11.1688
▁టైమ్స్	-11.1693
▁గర్భాశయ	-11.1701
▁సంహరించ	-11.1703
▁స్వీకర	-11.1704
▁విడుదలైంది	-11.1706
▁ఆరోపించారు	-11.1713
▁ఛైర్మన్	-11.1713
▁వివాహమాడ	-11.1714
▁ప్రవర్తించ	-11.1718
▁కేవలము	-11.1724
ాదిత్య	-11.1725
▁బలగాల	-11.1731
▁హార్మోన	-11.1731
▁సామూహిక	-11.1736
▁జవాబు	-11.1736
▁నైతిక	-11.1738
▁పెరగడం	-11.1749
▁మాసంలో	-11.1754
▁హయాంలో	-11.1759
థ్య	-11.1759
▁వారసుల	-11.1763
▁వైభవ	-11.1766
▁ఆంగ్లేయుల	-11.177
▁రౌండ్	-11.1776
కొరకు	-11.1776
ix	-11.1778
▁ధోరణి	-11.1782
▁రకము	-11.1783
ism	-11.1784
▁ఆడపిల్ల	-11.1796
▁గడప	-11.1796
▁వెలుగులోకి	-11.1797
▁కార్బో	-11.1802
▁థియ	-11.1805
▁నారాయణరావు	-11.1805
▁1941	-11.1816
▁లోతైన	-11.1817
▁స్థానము	-11.1825
▁మార్కాపురం	-11.1828
▁ట్రేడ్	-11.1839
▁ఇబ్రహీంపట్నం	-11.184
▁చేయాల్సి	-11.1844
▁ఆమదాలవలస	-11.1851
▁పెంపొందించ	-11.1863
▁అవలంబించ	-11.1863
▁మృదు	-11.1863
▁రాజ్యసభ	-11.1865
▁సరస్వతీ	-11.1874
▁ఫొటో	-11.1876
ాశ్రమ	-11.1878
▁అలంకరణ	-11.1886
▁పునర్నిర్మాణ	-11.1886
▁తీసుకువచ్చి	-11.1891
▁మనుమ	-11.1897
▁టెన్నిస్	-11.1897
▁కెప్టెన్	-11.1909
▁భద్రపరచ	-11.1911
▁శ్రీనివాసరావు	-11.1913
▁నాలుగో	-11.1916
▁అయోధ్య	-11.1921
▁ఘాట్	-11.1925
▁అదేవిధంగా	-11.1925
▁ఢీ	-11.1933
▁ఉత్తర్వు	-11.1939
my	-11.1943
▁వ్యవధి	-11.1944
▁కుతుబ్	-11.1944
NA	-11.1945
▁దోహదపడ	-11.1946
▁కర్బన	-11.1947
▁వెర్షన్	-11.1956
▁ఆకాశవాణి	-11.1957
ved	-11.1967
ుకొను	-11.1968
▁వీరభద్ర	-11.1971
▁యాత్రికుల	-11.1972
▁చూస్తున్న	-11.1976
▁ఫెస్టివల్	-11.1979
▁సుప్రీంకోర్టు	-11.1979
▁స్క్రీన్	-11.1979
▁పక్షం	-11.1985
▁అతుక	-11.1993
▁బీడీలు	-11.2003
▁ప్యాలెస్	-11.2004
▁బీహార్	-11.2005
▁భావించబడుతుంది	-11.201
▁తలుపు	-11.2016
▁మహిమ	-11.2016
▁బసవ	-11.2018
▁నేత్ర	-11.202
▁హుస్సేన్	-11.2026
▁అహింస	-11.2026
▁హనుమాన్	-11.2027
▁సల్ఫ	-11.2029
▁బూడిద	-11.2038
వెల్లి	-11.2039
▁నడిపి	-11.2039
▁అడుగ	-11.2049
▁ఫ్రాన్సిస్	-11.205
▁సెక్రటరీ	-11.205
▁వన్డే	-11.205
▁అందజేస	-11.2052
▁లభిస్తున్న	-11.2055
▁హైదర్	-11.2057
▁వెంకటేశ్వరరావు	-11.2067
▁పదవుల	-11.207
▁జగద	-11.2071
▁చురుకుగా	-11.2074
▁ప్రిన్సిపాల్	-11.2074
సాహెబ్	-11.2074
▁మరియూ	-11.208
యంత్ర	-11.2087
▁వైదిక	-11.2092
▁జ్యూ	-11.2096
▁అంబేద్కర్	-11.2097
▁రామగుండం	-11.2097
▁నవీన	-11.2107
▁నార్కట్	-11.2109
▁విత్తుట	-11.211
▁అన్వేష	-11.2111
▁సలహాదారు	-11.2113
▁మధ్యయుగ	-11.2117
తరువాత	-11.2119
eng	-11.2125
▁హాజరై	-11.2125
▁1937	-11.213
▁నిశ్చయించ	-11.2131
▁వానర	-11.2131
▁ధారావాహిక	-11.2133
▁బిజినెస్	-11.2133
▁ఇంజిన్	-11.2133
▁గిరిజనుల	-11.2139
ెన్నో	-11.2146
▁మాధ్యమం	-11.2157
▁సంక్రాంతి	-11.2157
▁మనోహర	-11.2162
▁ఆర్మేనియన్	-11.2169
▁స్థావరం	-11.2169
▁కళాకారుడ	-11.2171
▁ఎన్నుకో	-11.2179
▁స్థూప	-11.2181
▁అధీనంలో	-11.2181
▁నిలిచారు	-11.2181
▁సాత్యకి	-11.2181
▁గొడవ	-11.2182
▁లెక్కించ	-11.2184
▁పతకాల	-11.2194
2,000	-11.2204
▁పొంగ	-11.2207
▁మూడ	-11.2212
▁విభజించబడింది	-11.2216
▁ఫెడరల్	-11.2217
▁రాయబార	-11.2221
▁సొమ్ము	-11.2232
▁పిఠాపురం	-11.2241
▁పరాజయం	-11.2241
▁గార్డెన్	-11.2242
▁శల్య	-11.2244
▁పట్టించుకో	-11.2253
▁గ్రామపంచాయతి	-11.2253
▁కామర్సు	-11.2253
▁నడవ	-11.228
▁సుగంధ	-11.229
ేషను	-11.2294
▁తిక్కన	-11.2312
మవుతున్న	-11.2314
▁పనిచేసాడు	-11.2315
▁కండరాల	-11.2316
▁పీడనం	-11.2319
▁పట్టభద్ర	-11.2329
▁చిలక	-11.2336
▁సుప్రీం	-11.2338
▁తరుణ	-11.2344
▁some	-11.2346
▁నిరాశ	-11.2347
▁చుట్టుపక్కల	-11.235
▁జగ్గయ్యపేట	-11.235
▁ఒకటైన	-11.2352
▁పంజాబు	-11.2362
▁సన్నిధి	-11.2363
▁శీతల	-11.2375
▁మిర్యాలగూడ	-11.2387
▁తాండూరు	-11.2387
▁సుదూర	-11.2387
▁బిగించ	-11.239
CO	-11.2397
▁ఆల్బం	-11.2399
▁స్థిరపడ్డారు	-11.2402
▁డెవలప్	-11.2411
▁ఎలక్ట్రాన్	-11.2411
▁ప్రీమియర్	-11.2411
▁రిచర్డ్	-11.2411
▁పేదరికం	-11.2411
▁రెవిన్యూ	-11.2424
మవుతాయి	-11.2428
▁పీపుల్స్	-11.2436
▁గొలుసు	-11.2436
▁విషాద	-11.2438
▁పరిగణిస్తారు	-11.244
▁మరోసారి	-11.2447
సంధ	-11.2448
▁pri	-11.2458
▁శ్రీకాళహస్తి	-11.246
▁దోపిడీ	-11.246
▁హాస్పిటల్	-11.246
▁ఖైదీ	-11.246
▁ఇంద్రియ	-11.2461
▁విశ్వసించ	-11.2467
▁been	-11.2468
▁మొట్టమొదట	-11.2472
▁శ్రేణుల	-11.2473
▁ఇతిహాస	-11.2473
▁స్థాపక	-11.2473
▁వెంబడి	-11.2476
▁వ్యక్తిత్వ	-11.2476
▁సభ్యుడిగా	-11.2477
▁మహోత్సవ	-11.2478
▁పీల్చ	-11.248
▁అవకాశము	-11.2485
▁నిజామాబాదు	-11.2485
▁తలసరి	-11.2485
▁రుక్మ	-11.2487
▁నాయకత్వ	-11.2488
▁పెదబయలు	-11.2497
▁రిజర్వేషన్	-11.2497
▁నరసింహారావు	-11.2499
వ్రత	-11.2504
▁అధికారంలోకి	-11.2504
▁కానోపస్	-11.251
▁మెచ్చ	-11.2527
▁మండపం	-11.2532
▁క్లిష్టమైన	-11.2535
▁1,0	-11.2538
count	-11.255
▁పరమాత్మ	-11.2551
▁జ్యోతిష	-11.2553
▁నేటికీ	-11.2557
▁నైరుతి	-11.256
▁మొత్తాన్ని	-11.256
▁పిమ్మట	-11.256
▁చెరుకు	-11.2568
▁దక్షణాన	-11.2572
▁పరిపూర్ణ	-11.2572
వృక్ష	-11.2576
ప్రకాష్	-11.2577
▁క్రోధ	-11.258
▁చూస్తూ	-11.2581
▁దారుణ	-11.2587
▁ప్రహ్లాద	-11.2589
శారద	-11.2601
ific	-11.2612
▁తీరప్రాంత	-11.2613
▁కళింగ	-11.2623
ju	-11.2625
▁sub	-11.2626
▁గనుక	-11.2627
కలాప	-11.2641
▁హర్ష	-11.2641
lect	-11.2645
ద్రవ్య	-11.2647
▁దర్శకుడిగా	-11.2647
▁దౌత్య	-11.2647
▁ఆరాధించ	-11.2647
▁నిలిచాడు	-11.266
▁ఎలక్ట్రో	-11.2672
మహాత్మ	-11.2683
;---	-11.2685
ఉత్తర	-11.2693
▁ఇన్నింగ్స్	-11.2697
▁గడువు	-11.2698
cial	-11.2707
అవనిగడ్డ	-11.2711
▁చున్న	-11.2715
▁జోక్యం	-11.2723
▁క్రిస్టియన్	-11.2724
కొచ్చి	-11.2725
▁ముస్లిములు	-11.2729
▁రూరల్	-11.273
▁బీదర్	-11.2731
▁బహిష్కరించ	-11.2735
▁1,1	-11.2739
▁వాయిస్	-11.2741
▁కానుక	-11.2743
▁భద్రాద్రి	-11.2749
▁దినపత్రిక	-11.275
పూర్వక	-11.275
ఫికేషన్	-11.2761
▁బాధపడుతున్న	-11.2762
అమరావతి	-11.2767
▁use	-11.2768
తెలుగు	-11.277
▁ఆర్టీసీ	-11.2773
▁ఉత్తేజ	-11.2773
▁తెలిపిన	-11.2775
▁యాంటీ	-11.2787
▁పద్యాల	-11.2796
▁సార్వభౌమ	-11.2799
▁వైమానిక	-11.2799
▁వేషం	-11.2804
▁మునగ	-11.2807
మౌతుంది	-11.281
▁సంచలన	-11.2812
▁గూగుల్	-11.2812
▁వ్యాయామ	-11.2812
▁సేవలందించ	-11.2813
▁వివేక	-11.2822
సాగారు	-11.2824
ప్రసాద	-11.2829
▁బాలీవుడ్	-11.2837
▁బెజవాడ	-11.2837
▁పరంపర	-11.2838
ఖై	-11.2844
▁1,5	-11.2847
▁అశ్వత్థామ	-11.285
▁అంకె	-11.2854
▁న్యాయవాద	-11.2857
▁భగవంతుడ	-11.2863
▁నిర్మూలన	-11.2863
▁ప్రాబల్య	-11.2863
▁మృత్యు	-11.2863
▁మహేష్	-11.2868
▁జమ్మూ	-11.2876
ావసరాల	-11.2879
▁విచారించ	-11.2881
▁ఏకాదశి	-11.2888
▁అంగీకార	-11.2889
▁నాణేల	-11.2889
ward	-11.2889
▁నాటకరంగ	-11.289
▁పరివర్తన	-11.2896
▁పరిశీలిస్త	-11.2896
▁ప్రచుర	-11.2901
▁యజమానుల	-11.2901
▁నివేదించ	-11.2904
▁ఆటంక	-11.2905
▁ప్రతిష్ఠాత్మక	-11.2905
▁ద్రౌపది	-11.2914
▁ధృవ	-11.2914
▁ఆశ్రయించ	-11.2921
▁బొబ్బిలి	-11.2927
▁తెరిచి	-11.293
▁మేడ్చల్	-11.294
▁ప్రార్థించ	-11.2943
▁వార్షికోత్సవ	-11.2943
▁బహదూర్	-11.2953
▁స్పియర్	-11.2953
▁మధ్యప్రదేశ్	-11.2953
▁సమక్షంలో	-11.2953
▁గరుడ	-11.2961
▁నిర్దేశించ	-11.2961
వ్యవసాయ	-11.2962
సాహిత్య	-11.2962
unt	-11.2965
▁ద్రవీభవన	-11.2966
▁చక్కటి	-11.2966
▁కనిపిస్తున్న	-11.2968
ోపాధ్యాయ	-11.2979
▁ఉభయ	-11.2979
ావస్థ	-11.2988
▁స్విట్జర్లాండ్	-11.2992
▁వైఖరి	-11.2992
▁చెబుతుంది	-11.2993
▁ఆదరించ	-11.2997
▁పాఠకుల	-11.3005
▁పాత్రికేయ	-11.3005
▁ప్రదేశాన్ని	-11.3005
▁శ్లోకాల	-11.3006
▁పనిచేసింది	-11.3029
▁This	-11.3031
▁ఐఐటీ	-11.3031
▁అమలాపురం	-11.3031
▁కూల్చ	-11.3031
▁గెలుచుకుంది	-11.3032
▁మద్రాస్	-11.3044
▁సాపేక్ష	-11.3044
▁గడించ	-11.3046
▁అవకాశాల	-11.3047
▁పరాక్రమ	-11.3048
▁సిద్దాంత	-11.3049
▁షెడ్యూల్	-11.3049
ave	-11.3049
met	-11.3064
▁ఉపకరణాల	-11.3073
ీంద్ర	-11.3076
▁నీటిపారుదల	-11.3083
▁వాల్మీకి	-11.3083
▁మనస్తత్వ	-11.3083
▁చాళుక్య	-11.3086
▁విద్యాసంస్థల	-11.3087
▁అభయ	-11.309
నగర్లోనూ	-11.3092
▁షూటింగ్	-11.3096
▁వివక్ష	-11.3099
విషయ	-11.3105
▁అన్వేషణ	-11.3108
▁బహిర్గత	-11.311
▁మర్యాద	-11.311
▁పతకం	-11.3111
▁ఇబ్బందుల	-11.3121
▁ఋగ్వేద	-11.3123
▁స్థావరాల	-11.3123
▁విస్తీర్ణము	-11.3123
▁గీస	-11.3124
▁5311	-11.313
▁విధముగా	-11.3144
▁కోల్పోయిన	-11.3145
జాతుల	-11.3151
ాగ్ని	-11.3155
ార్జున	-11.3161
▁విజ్ఞప్తి	-11.3162
▁ఉత్పన్న	-11.3162
▁క్వీన్	-11.3162
▁ఉంటాయని	-11.3176
▁ఫార్ములా	-11.3176
▁ఎంతగానో	-11.3189
▁హరిశ్చంద్ర	-11.3202
▁వైఫల్య	-11.3202
▁ఇస్రో	-11.3203
▁ఇప్పటివరకు	-11.3206
▁ఇస్లామ	-11.3206
▁శిల్పకళ	-11.3207
▁కుమారుడైన	-11.3211
పబ్లిక్	-11.3213
▁సంఘర్షణ	-11.3215
▁ముంబాయి	-11.3215
▁విధాలుగా	-11.3219
▁కవచ	-11.322
▁చిలుక	-11.3223
▁జరిపించ	-11.3226
▁కవరేజి	-11.3229
▁లఘు	-11.323
▁కమ్యూనిస్ట్	-11.3242
▁విధ్వంస	-11.3242
▁లూయిస్	-11.3242
▁నోటీసు	-11.3242
▁మార్టిన్	-11.3242
▁పిలిచి	-11.3243
ందువలన	-11.3254
▁ఖడ్గ	-11.3259
గంటల	-11.3269
భ్యాస	-11.3271
▁టీచర్	-11.3277
▁అధినేత	-11.3281
▁అక్బర్	-11.3282
వాయువు	-11.3283
▁వైఎస్ఆర్	-11.3284
▁ఆధిపత్య	-11.3287
▁సమ్మత	-11.3294
▁ఎల్లప్పుడూ	-11.3295
▁తెలుస్తున్నది	-11.3295
▁ఎదుర్కో	-11.3295
స్వరూప	-11.3297
▁సయ్యద్	-11.3309
▁చేస్తుంటారు	-11.3314
▁గ్రేటర్	-11.3315
▁సంకీర్ణ	-11.3322
▁అన్నపూర్ణ	-11.3322
▁ముందస్తు	-11.3324
▁వికాస	-11.3328
ాయుధ	-11.3333
ోత్తర	-11.3334
▁కాగజ్	-11.3336
▁మరుసటి	-11.3349
▁జోసెఫ్	-11.3349
దొడ్డి	-11.3353
▁అందజేస్త	-11.3359
లేకపోయింది	-11.336
▁క్వార్టర్	-11.3363
▁సువాసన	-11.3363
▁అనంతగిరి	-11.3368
▁సూచిస్తారు	-11.3368
▁సర్కారు	-11.3378
▁అస్థిర	-11.339
▁ఎదిగి	-11.339
▁రాధాకృష్ణ	-11.3403
▁నైవేద్య	-11.3403
▁సోడియం	-11.3406
▁దుంప	-11.3411
▁1,3	-11.3413
▁BBC	-11.3417
▁దుర్యోధన	-11.3417
▁స్థానానికి	-11.3418
▁ఆఫీసర్	-11.343
▁జలాశయ	-11.343
▁దర్శి	-11.3433
కూడదని	-11.3438
▁సవరించ	-11.345
▁సన్యాసి	-11.3458
▁ఎగుర	-11.3463
▁తెలిపాడు	-11.3464
▁గడుప	-11.3465
▁బేగం	-11.3465
▁two	-11.3471
▁ఆర్గనైజేషన్	-11.3471
▁పురోగతి	-11.3471
▁వినుకొండ	-11.3472
▁ఎంచుకున్న	-11.3474
▁రాక్షసుల	-11.3474
ప్రతిష్ఠ	-11.3475
▁గావించ	-11.3479
▁వైకుంఠ	-11.3485
▁భూభాగాన్ని	-11.3485
▁సవాలు	-11.3486
▁తర్క	-11.3495
▁ఆశించ	-11.3495
▁సూఫీ	-11.3503
స్వామ్య	-11.3512
▁అప్పుడప్పుడు	-11.3512
▁ఇబ్న్	-11.3512
▁ఇంటిపేరు	-11.3515
హృద	-11.3523
▁క్రెడిట్	-11.3526
▁పొరపాటు	-11.3529
▁నలుపు	-11.353
▁ప్రాముఖ్య	-11.353
▁చదువుతున్న	-11.3531
▁యాదాద్రి	-11.3539
▁రోడ్దురవాణా	-11.3553
▁ఆతిథ్య	-11.3553
▁గ్రెగొర	-11.3554
▁కణజాల	-11.3571
▁అమ్మోనియం	-11.3581
▁స్కాట్లాండ్	-11.3581
▁సమాధుల	-11.3581
▁మరణానంతరం	-11.3582
ప్రారంభించబడింది	-11.359
▁ధృతరాష్ట్ర	-11.3594
▁వర్సిటీ	-11.3594
గలిగారు	-11.3597
సుందర	-11.3602
▁చిరుత	-11.3606
▁ఇండోనేషియా	-11.3608
▁త్వరిత	-11.3608
ానుసారం	-11.3611
▁ఎదుర్కొంటున్న	-11.3612
▁అగస్త్య	-11.3622
సాక్షాత్	-11.3626
▁నడుస్తుంది	-11.3636
▁మలుపు	-11.3645
▁మైనారిటీ	-11.365
▁కాల్షియం	-11.365
▁అచ్యుత	-11.365
అలోపతీ	-11.365
▁పిదప	-11.365
▁లోకసభ	-11.3651
▁కార్టూన్	-11.3664
ఫిబ్రవరి	-11.367
▁భాగస్వామ్య	-11.3673
▁ఐరిష్	-11.3678
▁ఖచ్చిత	-11.3678
▁ఫీజు	-11.3682
▁మహానగర	-11.3688
▁ఎలుక	-11.3689
▁వియత్నాం	-11.3692
▁సెక్యూరిటీ	-11.3692
ుటకై	-11.3695
శ్రేణి	-11.3698
▁వ్యర్థ	-11.3701
▁ప్రెసిడెన్సీ	-11.3733
▁ఇంటర్వ్యూ	-11.3733
▁పౌర్ణమి	-11.3747
▁సంవత్సరాంతమున	-11.3748
▁రుసుము	-11.3749
▁కొలిచ	-11.3756
▁ఒకానొక	-11.3762
▁ప్రయోగశాల	-11.3769
▁మేనమామ	-11.3776
▁పదున	-11.3776
▁పెళ్లి	-11.3776
▁ఫుడ్	-11.3778
▁సౌకర్యాల	-11.3785
▁ఎలక్ట్రిక్	-11.379
▁చికాగో	-11.379
▁ఆదేశించారు	-11.379
round	-11.3792
▁ఛానల్	-11.3795
▁విస్తార	-11.38
▁నెయ్యి	-11.3804
▁రేవంత్రెడ్డి	-11.3805
▁ఇతివృత్త	-11.3818
▁పిక్చర్స్	-11.3818
▁కలిపే	-11.3824
▁చెలరేగ	-11.3832
▁సిక్ఖు	-11.3832
▁స్వాతంత్య్ర	-11.3832
▁మొదలగునవి	-11.3832
ద్రోహ	-11.3834
▁అంతర్భాగ	-11.3839
పదార్థం	-11.3845
▁అత్యల్ప	-11.3846
▁క్షిపణుల	-11.3846
▁దుగ్గిరాల	-11.3846
▁గణతంత్ర	-11.3848
▁తీర్ధ	-11.3849
▁సరసన	-11.3882
▁ప్రతిస్పందన	-11.3889
▁Windows	-11.3889
▁రిజర్వ్	-11.3889
గలిగాడు	-11.3889
▁మూడింట	-11.389
▁రేవంత్	-11.3901
▁వెలసిన	-11.3906
▁చాంపియన్	-11.3917
▁త్రిభుజ	-11.3917
▁ఇంజను	-11.3918
▁నడుస్తున్న	-11.3922
▁వ్యంగ్య	-11.3946
ఫార్మ	-11.3954
హ్లాద	-11.3956
▁first	-11.396
▁ఫ్రాన్సు	-11.396
▁బైబిల్	-11.396
▁అప్పారావు	-11.3961
▁దట్టమైన	-11.3974
▁ప్రేరేపించ	-11.4003
▁ఉత్తరప్రదేశ్	-11.4003
▁మదీనా	-11.4003
▁ద్వేష	-11.4019
www	-11.4032
▁జగన్నాథ	-11.4032
▁తొందర	-11.4032
▁ఋతువు	-11.4046
▁మునిసిపల్	-11.4046
▁గమనార్హం	-11.4061
▁స్టిట్యూట్	-11.4061
▁లైబ్రరీ	-11.4075
▁వెతుక	-11.4085
▁మున్సిపల్	-11.409
▁సుయోధనుడు	-11.409
▁పైకప్పు	-11.409
▁నెలకొన్న	-11.4092
▁శ్రవణ	-11.4104
▁సరిపడ	-11.4106
▁స్టోన్	-11.4107
▁కిరీట	-11.4109
ైజేషన్	-11.4121
▁సామర్ధ్యం	-11.4124
▁ఆదోని	-11.4134
▁కథానాయిక	-11.4148
▁సౌలభ్య	-11.4162
▁under	-11.4162
▁భవిష్యత్	-11.4172
▁గ్లోబల్	-11.4177
▁పడమటి	-11.4177
▁నివాసితుల	-11.4188
▁విచ్ఛిన్న	-11.4192
▁ద్వీపకల్పం	-11.4192
▁ఆగ్రహం	-11.4197
▁ఉద్గార	-11.4199
▁work	-11.4206
▁భాగస్వాముల	-11.4206
▁ఏజెన్సీ	-11.4206
▁గోల్డెన్	-11.4208
▁వందలాది	-11.4209
▁కవాట	-11.4219
▁సంకీర్తన	-11.4221
▁విడాకుల	-11.4234
▁ఎడ్వర్డ్	-11.4236
▁ముఖర్జీ	-11.4236
▁సుదర్శన	-11.4243
▁సహకరిస్త	-11.4245
▁ఉపసంహరించ	-11.425
▁నియోజక	-11.425
▁అలెగ్జాండర్	-11.425
▁పోర్చుగీస్	-11.425
▁ఓటర్ల	-11.4274
▁తీసుకోవాలి	-11.4282
కుంట్ల	-11.4282
▁బాస్కెట్	-11.4295
▁రిటైర	-11.4306
▁స్మిత్	-11.431
▁స్పెషల్	-11.4324
▁1,4	-11.4325
▁అవార్డ్	-11.4325
▁ఇరాక్	-11.4327
4,000	-11.4332
▁భగవద్గీత	-11.4339
▁రాహుల్	-11.4339
▁భంగిమ	-11.4339
▁దొరికిన	-11.434
▁సావిత్రి	-11.4354
▁ఋషి	-11.4354
ాక్షర	-11.4364
పరిషత్	-11.4373
▁నందమూరి	-11.4384
▁పరోక్ష	-11.4384
▁విలీన	-11.4397
‘	-11.4398
▁సాయిబాబా	-11.4399
▁పంచాయతి	-11.4399
నిచ్చింది	-11.4402
▁హంస	-11.4404
▁term	-11.4411
▁విరాళాల	-11.4414
▁ఉగ్రవాద	-11.4414
▁కూతుర	-11.4431
▁సర్వసాధారణ	-11.4444
▁ట్యూబు	-11.4444
▁సమ్మె	-11.4445
▁ఎమ్మెల్సీ	-11.4459
▁సైన్సు	-11.4459
▁నాస్తిక	-11.4459
▁బళ్ళారి	-11.4474
▁ఆటగాడు	-11.4474
▁కుంకుమ	-11.4478
▁హనుమంతుని	-11.4489
▁శూన్య	-11.4489
▁దక్షిణాసియా	-11.4489
▁వారసుడ	-11.4502
▁temple	-11.4504
▁జోర్డాన్	-11.4504
▁వేణుగోపాల	-11.4504
▁మహమ్మదు	-11.4504
▁ముగుస్తుంది	-11.4504
▁విలసిల్ల	-11.4519
▁బ్రతుక	-11.4524
▁డిపార్ట్	-11.4534
▁క్రమశిక్షణ	-11.455
▁జయశంకర్	-11.455
▁ఫ్యాక్టరీ	-11.455
▁పొడిగించ	-11.4553
▁ఎడ్యుకేషన్	-11.4565
▁ధాతువు	-11.4565
▁కనిష్ఠ	-11.4565
▁నెరవేర్చ	-11.4565
ముక్కల	-11.4568
▁నిర్మింప	-11.4568
▁పలాస	-11.4569
▁ఉపశమన	-11.458
▁హీరోయిన్	-11.4582
▁స్వాధీన	-11.4583
రాశుల	-11.4596
స్వాతంత్ర్యోద్యమ	-11.4597
భైరవ	-11.46
ప్రాయం	-11.4609
▁అదృశ్య	-11.4611
▁మహబూబాబాద్	-11.4611
▁పునరుజ్జీవ	-11.4626
▁సెంచరీ	-11.4626
▁సుపరిచిత	-11.4626
▁షరతు	-11.4627
▁తిలక్	-11.4642
▁నార్వేజియన్	-11.4657
▁ఫెడరేషన్	-11.4657
▁చిత్రలేఖన	-11.4657
▁వేగవంతమైన	-11.4658
మండప	-11.4671
▁బయలు	-11.4674
మాధ్యమిక	-11.4677
ుకోవాల్సి	-11.4679
▁పద్మనాభ	-11.4687
▁ఓడరేవు	-11.4687
▁గంధర్వ	-11.4688
▁లక్ష్మ	-11.4689
సంపన్న	-11.4693
సరోవర	-11.4697
▁హెచ్చరిక	-11.4703
▁చేనేత	-11.4703
▁వాయించ	-11.4706
టౌన్	-11.471
▁వధించ	-11.471
క్సైడు	-11.4718
▁తుమ్మల	-11.4719
▁అద్వైత	-11.4734
▁అంగుళాల	-11.4734
▁అరబిక్	-11.4734
▁జర్నల్	-11.4734
▁ప్రసన్న	-11.4739
▁సల్ఫేట్	-11.4749
▁అర్జెంటీనా	-11.4765
▁పెంపుడు	-11.4765
▁మునుపు	-11.4769
▁చుట్టుప్రక్కల	-11.478
▁నవాబ్	-11.478
▁క్షార	-11.4782
▁నిర్వర్తించ	-11.4796
▁చెప్తారు	-11.4796
▁విచ్చేస	-11.4798
▁సిఫార్సు	-11.4811
▁మాండలిక	-11.4811
▁రబ్బరు	-11.4811
▁అందుకని	-11.4827
▁place	-11.4828
▁తీసుకువెళ్ళ	-11.4829
▁సరోజ	-11.4838
▁ఆవిర్భావ	-11.4842
▁గ్రౌండ్	-11.4842
▁మిషనరీ	-11.4842
▁కంట్రోల్	-11.4842
▁అదృష్ట	-11.4842
▁అస్సాం	-11.4844
▁ఆటగాళ్ళ	-11.4851
▁ఈస్టిండియా	-11.4858
▁రాచరిక	-11.4858
▁కట్టుబడి	-11.4861
నొప్పి	-11.4867
▁డాక్టరేట్	-11.4874
▁డెన్మార్క్	-11.4874
▁మక్కువ	-11.4874
ుకొనుటకు	-11.4876
▁తప్పించుకు	-11.4883
▁అభ్యంతర	-11.4889
▁పునర్నిర్మించ	-11.4889
▁కొన్నాళ్ళ	-11.489
▁ద్రావిడ	-11.4892
▁కంప్యూటరు	-11.4905
▁సైకిల్	-11.4906
▁చేబ్రోలు	-11.4921
▁తల్లితండ్రుల	-11.4921
▁అంతేకాదు	-11.4921
▁బారిన	-11.4928
▁IBM	-11.4937
▁వెనుజులా	-11.4937
▁వేగవంతం	-11.4948
▁ఎలిజబెత్	-11.4952
▁కాల్సియం	-11.4953
▁రెక్కల	-11.4955
▁కైలాస	-11.4956
▁మరియొక	-11.4966
▁సృజనాత్మక	-11.4968
▁ఋషుల	-11.4968
▁అడగ	-11.4984
▁నిర్మూలించ	-11.4984
▁సిడ్నీ	-11.4984
వ్యాపారాత్మక	-11.4986
▁సంస్కార	-11.4989
▁మధుమేహ	-11.5
▁వెల్లడి	-11.5007
▁నమస్కరించ	-11.5016
▁సెకండరీ	-11.5016
▁ఉష్ణమండల	-11.5017
▁కదులు	-11.5024
ప్రదర్శన	-11.5026
▁విరమించ	-11.5032
▁like	-11.5048
▁పాతాళ	-11.5053
▁ఇండస్ట్రీ	-11.5064
3,000	-11.5073
▁చోటుచేసుకు	-11.5095
▁పేరొందిన	-11.5096
▁స్పోర్ట్స్	-11.5096
▁డబ్బింగ్	-11.5112
▁అంతకుముందు	-11.5113
▁after	-11.5128
▁మల్లికార్జున	-11.5128
▁డెల్టా	-11.5128
▁టెక్కలి	-11.5128
మొత్తం	-11.5141
▁నిశ్చయ	-11.5148
▁మళ్ళి	-11.5149
▁గంజాయి	-11.516
▁మొఘలు	-11.5176
▁బేసిన్	-11.5177
▁ట్రాన్స	-11.519
▁సర్పంచ్	-11.5193
▁సంపుటి	-11.5193
▁నడక	-11.5206
▁మరాఠా	-11.5209
▁లాహోర్	-11.5209
▁తటస్థ	-11.5209
▁పెట్రోలియం	-11.5225
▁అమాయక	-11.5225
▁మదనపల్లె	-11.5225
▁వివేకానంద	-11.5226
▁నిరంకుశ	-11.5241
▁ఆముదం	-11.5242
▁సాధిస్త	-11.5245
▁ప్రోత్సహిస్త	-11.5257
▁పూర్తయిన	-11.5258
▁shall	-11.5258
▁పాండిత్య	-11.5258
▁వికారాబాదు	-11.5274
▁సెర్బియా	-11.5274
▁ట్రెంచ్	-11.529
పద్మ	-11.5306
చేసుకున్న	-11.5322
▁ఏమాత్రం	-11.5323
▁కృతజ్ఞత	-11.5323
▁కొమరంభీం	-11.5339
▁లౌకిక	-11.5339
▁కర్తవ్య	-11.534
▁వాసుదేవ	-11.534
▁సర్కిల్	-11.5341
బలిజ	-11.5349
▁స్తూప	-11.5349
▁CPU	-11.5356
▁పార్లమెంటరీ	-11.5356
▁వీక్షించ	-11.5361
ద్వీప	-11.5371
▁ఇందిర	-11.5372
▁years	-11.5372
▁మురళీ	-11.5372
▁మొదలవుతుంది	-11.5372
▁కీటకాల	-11.5374
▁సోమాలియా	-11.5389
▁సంజయ్	-11.5389
▁శిఖరాల	-11.5389
▁గల్ఫ్	-11.5389
▁సందర్శన	-11.539
▁ఊపిరితిత్తుల	-11.5405
▁శ్మశాన	-11.5405
▁అజ్ఞాత	-11.5405
▁మొదలుపెట్టారు	-11.5405
బృంద	-11.5421
▁గ్లూకోజ్	-11.5422
▁పరశురామ	-11.5422
▁ముంబయి	-11.5422
▁ఎస్టేట్	-11.5422
▁హాజరయ్యారు	-11.5423
▁లభ్యమవ	-11.5425
▁బాక్టీరియా	-11.5438
▁దిగుబడి	-11.5439
▁కేంద్రీకృతమై	-11.5439
▁సన్యాసుల	-11.5441
▁ప్రావిన్సు	-11.5455
▁అలాస్కా	-11.5455
▁పోలవరం	-11.5456
▁యార్క్	-11.5456
ద్విబంధ	-11.5467
గ్రాఫిక్	-11.5468
▁యెడల	-11.5472
▁యురేపియన్	-11.5488
▁రచయిత్రి	-11.5489
కపోవచ్చు	-11.5502
▁యూరప్	-11.5505
▁భూపాలపల్లి	-11.5505
▁బ్రహ్మాండ	-11.5506
▁మిగిల	-11.5516
▁రాజమహేంద్రవరం	-11.5522
పెనమలూరు	-11.5522
▁అశ్వమేధ	-11.5522
▁నావికా	-11.5523
▁కొలువై	-11.553
▁పర్యవేక్షించ	-11.5539
▁కలుషిత	-11.5539
▁సైప్రస్	-11.5539
▁సుమతీ	-11.5539
▁information	-11.5555
▁చిలకలూరిపేట	-11.5555
▁సోయాబీన్	-11.5555
▁ఇంకనూ	-11.5555
▁స్కోర్	-11.5575
నృసింహ	-11.5589
▁వాయవ్య	-11.5589
▁మున్నగు	-11.5589
▁వ్యాఖ్యాత	-11.5593
▁నశించ	-11.5602
▁ఛాయాచిత్ర	-11.5606
▁వరాహ	-11.5609
▁ఎందుక	-11.5613
శుద్ధి	-11.5613
నక్షత్ర	-11.5614
్యుత్	-11.5617
▁భైంసా	-11.5623
▁మాధ్యమాల	-11.5623
▁తొలగింపు	-11.5623
▁శారదా	-11.5653
ుకొంది	-11.566
▁ప్రోగ్రాం	-11.5674
▁భస్మ	-11.5678
పదార్థాల	-11.5682
▁వర్తించ	-11.5684
▁చిత్రపట	-11.5686
▁కమ్యూనికేషన్	-11.5691
▁ఐసోటోపు	-11.5691
▁అసాధ్య	-11.5691
▁మోటారు	-11.5691
▁గ్రీక్	-11.5691
▁కొనియాడ	-11.5691
స్తోందని	-11.5697
▁భైర	-11.5707
▁మాంచెస్టర్	-11.5708
▁లైసెన్స్	-11.5708
▁సుభాష్	-11.5708
▁కాలక్రమేణా	-11.5725
▁విండోస్	-11.5725
▁క్యాంపస్	-11.5725
▁అరవింద	-11.5726
▁గడియార	-11.5726
జ్యోతి	-11.5732
▁నకిలీ	-11.5743
▁అనుమతుల	-11.5754
▁కాంక్రీటు	-11.5759
▁ఆర్మూర్	-11.5759
▁దెబ్బతిన్న	-11.5763
ఖ్యాత	-11.5775
▁రెస్టారెంట్	-11.5776
▁చోదక	-11.5777
▁బెదిరింపు	-11.5793
▁శ్రావణ	-11.5793
▁స్పటిక	-11.5793
▁భగత్	-11.5794
▁ఆక్సీకరణ	-11.581
▁కార్యనిర్వాహక	-11.581
▁కాళిదాసు	-11.581
press	-11.5827
▁స్పీకర్	-11.5828
▁పట్టాభిషేక	-11.5837
▁చైర్	-11.5845
▁తృప్తి	-11.5845
▁వినాశ	-11.5846
▁కేటీఆర్	-11.5862
▁సామ్యవాద	-11.5862
▁ఎనర్జీ	-11.5862
పరిమాణ	-11.5869
▁అనువుగా	-11.588
▁జహీరాబాద్	-11.5897
▁నిలుస్త	-11.5904
▁వాజపేయి	-11.5914
▁topic	-11.5914
▁మెరుపు	-11.5916
బ్రాహ్మణ	-11.592
▁వర్షాకాల	-11.5922
మణుల	-11.5931
▁సచివాలయ	-11.5932
▁పారదర్శక	-11.5932
▁ఐదేళ్ల	-11.5932
▁తణుకు	-11.5949
▁సియాటెల్	-11.5949
▁కెన్యా	-11.595
▁సెకన్ల	-11.5953
▁గెలుచ	-11.5959
▁వారణాసి	-11.5967
▁కారాగార	-11.5967
ిస్టులు	-11.597
▁విద్యార్ధుల	-11.5972
▁ప్రతిరోజూ	-11.5984
▁బంగాళాఖాత	-11.5984
చేసాడు	-11.5991
▁అర్హుల	-11.5995
▁శాస్త్రజ్ఞులు	-11.6037
▁పండిట్	-11.6039
▁మన్నన	-11.6048
▁కాశ్మీర	-11.6048
▁ఖరీదైన	-11.6055
▁క్షేమ	-11.6055
ార్ఖండ్	-11.6055
▁ప్రభాకర్	-11.6072
▁జాయింట్	-11.6072
ానంతర	-11.6074
▁బాంబే	-11.609
▁అభినయ	-11.6093
▁ఎగ్జిక్యూటివ్	-11.6108
▁పరిగణనలోకి	-11.6125
▁కూర్పు	-11.6126
▁ముఖద్వార	-11.6142
▁కిర్గిజిస్తాన్	-11.6143
▁స్టీఫెన్	-11.6143
▁స్థితిగతుల	-11.6144
▁బ్యాంకింగ్	-11.6161
▁నాణ్యమైన	-11.6161
▁స్వప్న	-11.6164
▁హైస్కూల్	-11.6179
▁నమోదైన	-11.6179
▁జనసాంద్రత	-11.6197
▁విపత్తు	-11.6197
▁గుండెపోటు	-11.6215
▁శ్లోకం	-11.6215
▁దశరథ	-11.6215
▁ఉంగుటూరు	-11.6233
▁వేధింపు	-11.6233
▁మమ్మీ	-11.6233
▁ఏర్పడ్డ	-11.6235
▁అంత్యక్రియల	-11.6251
▁బ్యూరో	-11.6251
▁గంభీర	-11.6251
▁ఎడిటర్	-11.6269
▁తరిమి	-11.6269
ుకొంటారు	-11.6284
▁రికార్డింగ్	-11.6287
▁వాహకనౌక	-11.6287
▁తెప్పించ	-11.6289
ఆధారిత	-11.6298
▁ఈజిప్ట్	-11.6305
▁ధ్వజస్తంభ	-11.6305
▁సమృద్ధి	-11.6305
▁లబ్ధి	-11.6305
▁మైక్రోసాఫ్ట్	-11.6323
▁సామగ్రి	-11.6323
▁ఐశ్వర్య	-11.6341
▁నైజీరియా	-11.6341
background	-11.6341
▁ఆస్ట్రియా	-11.6341
▁సనాతన	-11.6341
ప్రథమ	-11.6343
▁అభ్యుదయ	-11.6359
▁పాలియోలిథికు	-11.6359
▁house	-11.6359
ఊ	-11.6371
తక్కువ	-11.6373
▁cause	-11.6377
▁టెక్సాస్	-11.6377
▁పిలిపించ	-11.6378
▁హనుమంతరావు	-11.6396
▁అనుభూతి	-11.6396
▁ప్రాచ్య	-11.6396
▁సెకండ్	-11.6418
▁ఊపిరి	-11.6432
▁ప్రోటీన్	-11.6432
▁water	-11.6451
▁ట్రోఫీ	-11.6451
▁లెబనాన్	-11.6469
▁తాడికొండ	-11.6469
▁విరాళం	-11.6469
▁చదివారు	-11.6469
▁అన్వయ	-11.6469
▁తెలప	-11.6485
ప్రకాశ	-11.6506
▁when	-11.6506
▁నిర్వహించబడుతు	-11.6514
▁number	-11.6524
▁ప్రదేశానికి	-11.6525
▁నిర్వచనము	-11.6525
▁దృష్ట్యా	-11.6542
▁జర్నలిస్టు	-11.6543
▁పటిష్ఠ	-11.6543
▁వెంకటేశ్వర్లు	-11.6543
▁దామోదర	-11.6544
▁పరిరక్ష	-11.6556
▁దృక్పథ	-11.6561
▁అభిరుచి	-11.6561
▁ప్రవచన	-11.6562
▁ప్యూర్టో	-11.658
▁బృహత్తర	-11.658
▁సంతరించుకున్న	-11.658
▁చక్రవర్తుల	-11.658
▁పృథ	-11.6581
6,000	-11.6588
▁సంభోగ	-11.6599
▁ఎదిరించ	-11.6617
▁మట్టానికి	-11.6618
▁న్యూజిలాండ్	-11.6636
పహాడ్	-11.6639
▁కోణాల	-11.6641
▁ఇంచుమించు	-11.6655
▁శూద్ర	-11.6655
▁మార్షల్	-11.6655
పర్వత	-11.6656
ible	-11.6661
▁ద్రవిడ	-11.6663
▁గుంతకల్లు	-11.6673
▁గెలాక్సీ	-11.6673
▁ఫోటోగ్రఫీ	-11.6673
▁about	-11.6673
▁తాత్విక	-11.6673
▁కెనడియన్	-11.6673
మహిష	-11.669
▁ఆస్ట్రేలియన్	-11.6692
▁పరిశుభ్ర	-11.6692
▁సంతరించుకుంది	-11.6692
▁ఆసుపత్రుల	-11.6692
▁ధర్మనందనా	-11.6692
▁సైన్సెస్	-11.6692
▁తరువాయి	-11.6711
భగవానుడ	-11.6711
రోహిణి	-11.673
▁ఇథియోపియా	-11.6749
▁హుకుంపేట	-11.6768
▁యాభై	-11.6768
▁కంభం	-11.6769
▁మినహాయించ	-11.677
▁పటాల	-11.68
▁appears	-11.6806
▁జనాదరణ	-11.6806
▁హతమార్చ	-11.6806
పరీక్ష	-11.6824
▁ఇబ్రహీం	-11.6824
లాజికల్	-11.6825
▁సారూప్య	-11.6825
▁మరికొందరు	-11.6844
▁దేవరకొండ	-11.6844
▁పక్షాల	-11.6845
▁అభినందన	-11.6848
▁దురదృష్ట	-11.6863
▁అలహాబాద్	-11.6863
▁లిథువేనియా	-11.6863
▁బృహస్పతి	-11.6863
▁period	-11.6882
▁హాస్టల్	-11.6882
ాభిషేకం	-11.6891
షైర్	-11.6899
▁high	-11.6901
▁నిమగ్న	-11.6901
రచయిత	-11.6903
▁ఆవిష్క	-11.6906
▁ప్రవర్త	-11.6912
డబ్ల్యూ	-11.6921
▁between	-11.6921
▁మిలిటరీ	-11.6921
ఞ	-12.0589
ఔ	-12.9309
·	-14.0295
