<unk>	0
<s>	0
</s>	0
.	-3.06052
▁	-3.33107
,	-3.71959
ం	-4.08286
ర్	-4.44441
ల	-4.50754
న	-4.56331
వ	-4.64705
ర	-4.75772
ని	-4.79984
లో	-4.84392
లు	-4.85552
క	-4.87396
త	-4.87597
ా	-4.92524
▁అ	-4.93462
మ	-4.97583
య	-5.00055
ప	-5.02095
▁నుండి	-5.10747
▁కి	-5.12784
ు	-5.13884
స్	-5.15804
ి	-5.19081
రి	-5.19674
ీ	-5.26281
న్	-5.26937
గా	-5.27956
ను	-5.29842
▁ఉన్నాయి	-5.3159
స	-5.31613
▁మీ	-5.31777
ల్	-5.32397
కు	-5.36599
గ	-5.40306
▁ఉంది	-5.40922
▁ఆ	-5.41735
ూ	-5.43506
రు	-5.44851
డ	-5.45176
▁క	-5.47582
▁గ్రామం	-5.48764
క్	-5.49735
ే	-5.51034
ము	-5.51125
ట	-5.53474
▁ప	-5.54403
▁దూరంలో	-5.55016
▁మ	-5.56151
ె	-5.59355
ద	-5.59477
▁ఈ	-5.60386
్	-5.60448
ో	-5.60922
ారు	-5.63345
▁10	-5.6422
▁వ	-5.68014
లి	-5.68579
ై	-5.75207
ంగా	-5.76113
ణ	-5.78337
కి	-5.78478
▁స	-5.79145
▁5	-5.80771
▁గ్రామంలో	-5.81764
రా	-5.8212
▁వి	-5.83109
ంలో	-5.83447
తి	-5.84104
ది	-5.87224
▁కా	-5.87793
డి	-5.88705
▁ప్ర	-5.89923
జ	-5.90153
హ	-5.92071
ధ	-5.95381
ట్	-5.95391
▁మరియు	-5.95961
▁ఎ	-5.96325
వి	-5.96764
▁న	-6.00248
డు	-6.00925
▁ఒక	-6.03051
▁ఇ	-6.03692
▁జ	-6.04933
1	-6.05796
వా	-6.05868
భ	-6.06044
టి	-6.06584
▁బ	-6.06614
శ	-6.0763
▁కేంద్రం	-6.0788
సి	-6.09946
యా	-6.11204
ాలు	-6.11394
▁సమీప	-6.15149
0	-6.19552
▁చే	-6.24007
న్న	-6.24032
ాడు	-6.24064
లా	-6.24213
2	-6.26053
ష	-6.26489
ొ	-6.27606
నా	-6.27831
▁గ	-6.28253
తో	-6.29437
8	-6.29727
▁చ	-6.30686
ాల	-6.30956
వు	-6.31708
e	-6.31841
చ	-6.32148
a	-6.32377
డ్	-6.32779
9	-6.3351
మా	-6.34843
▁త	-6.35029
ాన్ని	-6.35527
క్ష	-6.3702
7	-6.37032
▁కూడా	-6.39719
కా	-6.39758
దు	-6.39812
3	-6.40833
6	-6.41345
▁లో	-6.41486
పు	-6.41986
బ	-6.42086
ులు	-6.42521
5	-6.45835
▁ద్వారా	-6.4592
ంద	-6.46305
▁1	-6.46416
t	-6.46532
▁ని	-6.46942
4	-6.47599
-	-6.47803
▁హ	-6.48461
మైన	-6.49307
▁పాఠశాల	-6.50709
ించ	-6.51358
ానికి	-6.5267
్య	-6.52782
i	-6.53751
▁ర	-6.55081
▁సౌకర్యం	-6.55982
తు	-6.5602
గు	-6.56074
నే	-6.57052
మి	-6.57182
త్ర	-6.57251
ాయి	-6.57307
:	-6.57481
o	-6.601
▁19	-6.60521
ుల	-6.62413
s	-6.632
▁పైబడిన	-6.63798
▁ప్రభుత్వ	-6.63834
▁సంఖ్య	-6.63967
▁జిల్లా	-6.64412
ిన	-6.64753
సు	-6.65187
▁మా	-6.66009
ృ	-6.66135
▁ద	-6.67353
యు	-6.67653
▁కళాశాల	-6.68988
ండ	-6.69275
ంది	-6.69776
రో	-6.70146
▁పా	-6.70726
▁సరఫరా	-6.71951
▁ఉన్న	-6.72383
త్	-6.74422
l	-6.74482
▁నా	-6.75387
▁"	-6.75478
రణ	-6.75888
m	-6.7593
ళ	-6.76403
పా	-6.76417
ుడు	-6.76995
▁వా	-6.77465
c	-6.7755
▁భ	-6.77903
ంట	-6.78896
రం	-6.7994
▁ఉ	-6.80773
d	-6.80802
ంగ	-6.80887
యం	-6.81701
ల్ల	-6.81752
ట్ట	-6.8194
లను	-6.82134
ింది	-6.82896
ౌ	-6.8319
▁2	-6.8393
▁యొక్క	-6.8428
▁వ్యవస్థ	-6.84281
్యా	-6.84442
మ్మ	-6.85745
▁వే	-6.85858
రీ	-6.86018
▁ఏ	-6.87008
క్క	-6.87233
p	-6.87414
సా	-6.87864
నీ	-6.88821
చి	-6.89337
▁గ్రామానికి	-6.89565
ప్	-6.89942
▁రహదారి	-6.90891
▁రా	-6.90944
u	-6.90968
▁లేదు	-6.9136
చే	-6.91508
▁సా	-6.91946
h	-6.92365
▁సం	-6.92403
▁ఇది	-6.92739
ద్	-6.92761
ష్	-6.93325
థ	-6.94015
గి	-6.94644
వే	-6.95283
▁శ	-6.95507
గ్	-6.96219
లలో	-6.96364
▁చె	-6.96852
▁ఫ	-6.98045
ందు	-6.98738
టు	-6.99365
లోను	-6.9947
ంచ	-7.01035
▁20	-7.01038
▁బా	-7.01189
ంగ్	-7.03905
▁స్	-7.06166
▁ప్రాథమిక	-7.06256
య్య	-7.06563
తా	-7.06827
ిక	-7.07582
ఖ	-7.07799
▁వె	-7.08532
ండ్	-7.09922
▁ఆరోగ్య	-7.1023
దా	-7.10634
▁వీ	-7.11328
ంత	-7.11468
త్త	-7.115
ైన	-7.11541
▁లే	-7.11959
యి	-7.12008
డం	-7.12429
▁పో	-7.12455
▁కొ	-7.12503
▁ఎక్కువ	-7.12504
▁సి	-7.1282
▁వ్యవసాయ	-7.13832
▁పె	-7.13895
▁సామాజిక	-7.1398
ఫ	-7.14154
n	-7.14476
మ్	-7.16165
▁కు	-7.16224
నం	-7.18121
లోనూ	-7.18581
▁రాష్ట్ర	-7.18988
▁కో	-7.19131
హా	-7.19548
రే	-7.19583
▁చేయ	-7.19584
▁పరి	-7.19626
బ్	-7.20059
▁తన	-7.20263
▁వైద్య	-7.20423
▁లోపు	-7.2122
"	-7.21324
▁పు	-7.22781
లే	-7.22868
ద్ధ	-7.23044
▁గు	-7.23625
జా	-7.23835
ప్ప	-7.24132
▁ప్రైవేటు	-7.25059
ాలను	-7.2532
▁సమ	-7.25423
▁ము	-7.25518
ఘ	-7.26419
చ్చ	-7.26761
టీ	-7.27375
▁కింది	-7.27644
y	-7.28106
స్తా	-7.29057
▁మండల	-7.29379
▁గా	-7.29701
పో	-7.29816
ించి	-7.30084
▁అనే	-7.3022
▁విద్యా	-7.30285
జ్	-7.30572
▁భూ	-7.30901
;	-7.30986
ళ్ళ	-7.31239
▁3	-7.3214
▁పాటు	-7.32258
దే	-7.32267
ించిన	-7.32807
ద్ర	-7.32936
ంతో	-7.33137
▁ప్రధాన	-7.33946
జి	-7.34523
చు	-7.34737
▁రాజ	-7.36068
లకు	-7.3614
▁ల	-7.3626
శి	-7.36651
పి	-7.36813
లోని	-7.37219
ధి	-7.37484
కొ	-7.37605
ూరు	-7.37925
▁ఇం	-7.39333
00	-7.39998
g	-7.40175
▁ఇతర	-7.40355
▁నీరు	-7.40472
▁బి	-7.40906
▁అని	-7.40982
▁సినిమా	-7.41094
▁కంటే	-7.41358
▁వారి	-7.41513
పై	-7.42038
కో	-7.42341
er	-7.42454
▁తె	-7.42557
ష్ట	-7.42576
డా	-7.43244
్యూ	-7.44416
▁/	-7.44546
టా	-7.45035
▁కలిగి	-7.45181
▁లా	-7.45272
▁సంస్థ	-7.45651
ద్ద	-7.46142
డానికి	-7.46243
▁తరువాత	-7.46821
లీ	-7.46865
తే	-7.46867
▁దేశ	-7.47014
▁చెందిన	-7.47081
▁ఉప	-7.47671
▁చి	-7.47848
▁-	-7.48049
w	-7.48365
▁4	-7.4853
ాన	-7.48818
▁విద్యుత్	-7.48874
దేశ	-7.48969
in	-7.4926
జీ	-7.49304
త్య	-7.50075
తీ	-7.50164
యో	-7.50169
దర్శ	-7.5083
లతో	-7.50911
ియన్	-7.51051
ండి	-7.5152
▁పి	-7.5206
▁కోడ్	-7.52733
ాలలో	-7.52773
▁7	-7.52843
▁బ్యాంకు	-7.5304
ించారు	-7.53275
f	-7.53896
▁దీని	-7.54169
▁ఉన్నారు	-7.54443
▁కాల	-7.55112
▁భారత	-7.55164
▁జనగణన	-7.55987
▁సు	-7.5602
త్రి	-7.56043
▁ఆయన	-7.56373
▁శ్రీ	-7.56426
▁వారం	-7.56532
▁ఆసుపత్రి	-7.56562
ట్టి	-7.56652
▁వాణిజ్య	-7.56893
▁పబ్లిక్	-7.57046
▁అను	-7.57134
b	-7.57229
▁ఒకటి	-7.57508
▁తా	-7.57898
▁పథకం	-7.58282
ంబ	-7.58647
కాల	-7.58775
▁ఫోన్	-7.58829
▁లేదా	-7.58995
▁ప్రకారం	-7.59066
▁షెడ్యూల్డ	-7.59106
▁వైద్యశాల	-7.5974
ప్ర	-7.59767
▁ప్రా	-7.59773
మీ	-7.59865
▁మి	-7.60107
▁గ్రామ	-7.60368
▁అంద	-7.60457
షి	-7.60461
▁గంటల	-7.61038
▁ప్రతి	-7.61809
కార	-7.62164
రె	-7.62166
సం	-7.62758
▁ఖ	-7.62762
▁ఆఫీసు	-7.63061
ల్లో	-7.63217
▁కోసం	-7.63293
లె	-7.63461
▁రెండు	-7.63486
▁స్టేషన్	-7.63726
డే	-7.64026
దీ	-7.64242
▁పోస్టాఫీసు	-7.6446
▁చిత్ర	-7.64551
ుకున్న	-7.64942
శా	-7.65594
పల్లి	-7.66009
స్థ	-7.66339
▁ప్రత్యేక	-7.66447
▁ఐ	-7.66676
▁స్వ	-7.66822
▁అభివృద్ధి	-7.67496
▁నగర	-7.67728
▁శా	-7.67794
an	-7.68476
▁తీ	-7.68951
▁మధ్య	-7.69028
v	-7.6921
▁·	-7.69356
గ్ర	-7.69515
▁ఉండ	-7.69638
▁ఒ	-7.69894
స్తు	-7.70796
స్ట	-7.70817
▁నే	-7.7162
కే	-7.71682
▁మె	-7.71947
▁పేరు	-7.72495
A	-7.72587
ట్టు	-7.7267
బు	-7.72864
▁పద	-7.72896
▁వ్యవసాయానికి	-7.73261
ించాడు	-7.73718
▁పొ	-7.73873
on	-7.74639
ar	-7.74812
▁రోడ్లు	-7.75384
▁డిగ్రీ	-7.76096
టర్	-7.76158
ంటే	-7.76408
వచ్చు	-7.76491
▁the	-7.76557
ప్పుడు	-7.76759
▁అంత	-7.77233
▁జాతీయ	-7.77464
/	-7.78194
▁6	-7.78343
మే	-7.7856
or	-7.78629
బా	-7.7875
▁చెప్ప	-7.78885
▁జా	-7.80031
▁తిరిగి	-7.80345
కర	-7.80557
▁వై	-7.8057
▁భాగ	-7.806
కూ	-7.80649
టె	-7.80676
ించే	-7.80958
▁నుంచి	-7.81061
ంటి	-7.81139
▁దా	-7.8161
▁కుటుంబ	-7.81676
బడింది	-7.81706
ణి	-7.81752
▁చాలా	-7.81963
ిస్తున్న	-7.82091
ళ్ల	-7.82219
S	-7.82833
ధ్య	-7.82929
ద్య	-7.83387
k	-7.8371
ట్లు	-7.83828
▁18	-7.84024
▁రైల్వే	-7.8443
▁నీటి	-7.8499
▁కొన్ని	-7.8505
en	-7.85358
న్నాయి	-7.8565
▁వంటి	-7.85824
ఫ్	-7.85825
చ్	-7.85962
ఠ	-7.86172
▁ప్రాంతాల	-7.86873
మో	-7.86967
శాస్త్ర	-7.87023
▁పని	-7.87046
▁విధంగా	-7.87292
▁పొంద	-7.87412
చ్చి	-7.87767
▁ఓ	-7.88101
▁ఉంటుంది	-7.88103
▁వ్యా	-7.89556
▁ది	-7.89656
▁మొ	-7.89694
▁సంత	-7.90063
ులను	-7.90092
ుకో	-7.90476
▁జరుగుతోంది	-7.90492
▁పెద్ద	-7.90559
శ్ర	-7.90642
స్ట్	-7.90906
▁తెలుగు	-7.91262
al	-7.91519
తాయి	-7.91582
▁విజయ	-7.91692
శ్వ	-7.92148
వ్వ	-7.92335
కుండా	-7.92595
డె	-7.92821
is	-7.92878
కీ	-7.9289
మె	-7.92928
▁నె	-7.93848
▁ఆమె	-7.94365
క్రమ	-7.94622
▁ఉత్పత్తి	-7.95444
పెట్ట	-7.95449
▁ఏడాది	-7.95663
at	-7.96112
▁అనేక	-7.96538
త్తు	-7.96999
పూర్	-7.97377
ుతుంది	-7.97685
C	-7.98028
▁సూ	-7.98387
మాన	-8.00224
సే	-8.00502
▁పై	-8.00579
▁మురుగునీటి	-8.00724
ించింది	-8.00825
▁అందుతుంది	-8.00998
'	-8.01251
వ్య	-8.01294
▁గో	-8.01325
▁పౌర	-8.01433
▁లోని	-8.02311
స్తుంది	-8.02323
▁సె	-8.02385
రావు	-8.0248
▁వరకు	-8.02518
▁ముఖ్య	-8.02806
▁పొడుగునా	-8.02821
కృష్ణ	-8.02934
ములు	-8.03171
▁దాని	-8.0352
బడ	-8.03568
వాడు	-8.03791
▁నిర్	-8.03906
▁మే	-8.04107
▁భాష	-8.04235
ుతున్న	-8.04282
re	-8.04409
▁మహా	-8.05337
ed	-8.05751
▁ప్రజల	-8.05848
హ్	-8.06148
▁బస్సు	-8.06249
I	-8.06702
చార	-8.06722
▁పే	-8.06928
▁అయిన	-8.07162
యోగ	-8.07982
▁కాలువల	-8.08068
▁స్వయం	-8.0818
ిస్తారు	-8.08205
పురం	-8.08275
త్తి	-8.08364
▁ప్రపంచ	-8.08815
M	-8.08832
th	-8.09189
గ్రహ	-8.09341
భాగ	-8.09471
▁of	-8.09661
▁మంది	-8.09884
▁2011	-8.10111
▁భావ	-8.10229
▁వృత్తి	-8.10334
▁దేవ	-8.10401
▁విస్తరించి	-8.10805
▁వాటి	-8.10963
ులకు	-8.11043
బడిన	-8.1107
▁బె	-8.11348
▁ఆఫ్	-8.11519
▁బహిరంగ	-8.11765
▁శిక్షణ	-8.1195
▁మొదటి	-8.11964
▁అన్న	-8.12068
%	-8.12105
▁వారు	-8.12219
రుగు	-8.12803
ఛ	-8.13066
▁సహకార	-8.13246
త్వ	-8.13336
థి	-8.13363
రాజు	-8.134
▁సంబంధ	-8.13428
▁జరుగుతుంది	-8.13669
నో	-8.14094
▁సంఘం	-8.14244
టో	-8.14355
▁అండ్	-8.14449
వంత	-8.14529
▁కొరకు	-8.15049
▁'	-8.15059
బ్బ	-8.15072
▁పూ	-8.15417
ాలకు	-8.15656
▁నమోదు	-8.15959
▁ప్రవహిస్తుంది	-8.16016
▁రవాణా	-8.16047
▁అతని	-8.16507
▁పశు	-8.16636
▁ఉండే	-8.16742
▁మాధ్యమిక	-8.16816
▁సామాన్య	-8.16844
▁గణాంకాల	-8.16871
es	-8.16887
▁డాక్టర్లు	-8.1754
బి	-8.17698
▁తర	-8.18042
▁మురుగునీరు	-8.184
▁బృందం	-8.18699
r	-8.18913
▁చిన్న	-8.19678
▁ఇక్కడ	-8.19967
▁ఔషధ	-8.19982
▁కేంద్రాలు	-8.19987
it	-8.20003
▁చేసిన	-8.20166
▁కార్యాలయం	-8.20424
ాంత	-8.20562
▁కూ	-8.20595
▁సౌకర్యాలు	-8.21043
▁రూప	-8.21491
▁సంరక్షణ	-8.21976
▁కులాల	-8.2203
▁ఆటల	-8.22066
▁వినియోగం	-8.22104
st	-8.22115
అ	-8.22341
▁తెగల	-8.22428
▁చా	-8.22476
▁సొసైటీ	-8.22671
▁సంపూర్ణ	-8.2275
▁మొదలైన	-8.22787
▁శిశు	-8.22879
▁లైన్	-8.23083
▁సేవా	-8.23181
▁జనన	-8.23183
▁దూరం	-8.23199
గో	-8.23316
▁రామ	-8.23576
▁సహాయక	-8.23656
క్షణ	-8.23744
▁ప్రత్యామ్నాయ	-8.23959
▁కాగా	-8.24626
▁సైన్స్	-8.24639
▁కథ	-8.24747
ేంద్ర	-8.24921
le	-8.24953
▁ప్రాథమికోన్నత	-8.24996
▁ఆటో	-8.25002
▁మైదానం	-8.25043
▁గ్రామాల	-8.25064
▁సబ్	-8.25132
ాల్లో	-8.2525
స్థాన	-8.25284
▁బాలల	-8.25286
ప్పు	-8.25407
▁పాల	-8.25794
▁గ్రంథాలయం	-8.2585
▁కార్యకర్త	-8.25983
▁ప్రాంతం	-8.26146
▁ఇంటర్నెట్	-8.26164
▁నిమిత్తం	-8.26194
▁సంక్షేమ	-8.26267
▁వార్తాపత్రిక	-8.26357
▁జనాభా	-8.26571
పేట	-8.26697
▁మొబైల్	-8.26859
▁మరణాల	-8.26954
▁ఆర్ట్స్	-8.27215
▁పిన్	-8.27236
▁పంపిణీ	-8.27293
▁సంచార	-8.27315
▁మార్కెటింగ్	-8.27424
▁వనరుల	-8.27454
▁లొకేషన్	-8.27459
▁బ్ర	-8.27846
50	-8.27902
▁ఉత్తర	-8.2796
▁మగవారి	-8.27987
▁జనాభాతో	-8.27994
▁యుద్ధ	-8.28383
▁ఆడవారి	-8.28436
▁పారామెడికల్	-8.2844
▁ఆశా	-8.28467
▁రీడింగ్	-8.28616
▁రూం	-8.28774
▁హెక్టార్లలో	-8.28775
▁మార్కెట్	-8.28823
▁పోలింగ్	-8.28842
▁జూనియర్	-8.28859
▁ఇళ్లతో	-8.29014
లేదు	-8.29079
రెడ్డి	-8.29397
▁పారిశుధ్య	-8.29497
as	-8.29517
▁వీధుల	-8.29548
▁టెలిఫోన్	-8.2972
ic	-8.29737
▁అంగన్	-8.29747
▁వాడీ	-8.29758
▁మాతా	-8.29965
▁పోస్ట్	-8.30401
▁వద్ద	-8.30517
▁ఉత్పాదక	-8.3053
▁కొరియర్	-8.31212
▁కెఫె	-8.31275
▁చేస్తున్నారు	-8.31566
▁పోషకాహార	-8.31583
▁రోజు	-8.31771
▁గృహావసరాల	-8.31888
▁పక్కనే	-8.32082
▁తర్వాత	-8.32099
▁సేకరించే	-8.32185
త్వం	-8.32205
బడ్డ	-8.32307
▁ముందు	-8.32352
▁వస్తువులు	-8.32634
▁కంకర	-8.32713
▁ఇంటింటిక	-8.3279
▁హాలు	-8.328
▁అవసరాల	-8.32927
▁పరపతి	-8.32928
▁అనియత	-8.32956
▁సమీకృత	-8.33071
▁వ్యర్థాలను	-8.33094
▁బయోగ్యాస్	-8.33408
▁మరుగుదొడ్డి	-8.33547
▁దివ్యాంగ	-8.33681
▁ఏటీఎమ్	-8.33718
▁డిస్పెన్సరీ	-8.33728
▁అలోపతి	-8.33765
స్తున్న	-8.33778
ేషన్	-8.33868
▁పాలీటెక్నిక్	-8.33941
▁చెత్తను	-8.34143
ింప	-8.34176
▁అధిక	-8.34393
▁టెలిగ్రాఫ్	-8.34468
▁భారతదేశ	-8.34494
▁పట్టణమైన	-8.34562
▁పారబోస్త	-8.34609
వాద	-8.34946
ెంట్	-8.35296
▁చేతిపంపుల	-8.35441
▁కేంద్రమైన	-8.35825
▁మూడు	-8.35862
P	-8.35986
▁మేనేజిమెంటు	-8.36018
▁దక్షిణ	-8.36047
▁క్రి	-8.36295
▁వలన	-8.36414
▁బాలబడి	-8.36563
గే	-8.36744
▁రోజుకు	-8.37543
▁అమలవుతోంది	-8.37835
▁విషయ	-8.38697
ిస్తుంది	-8.38872
▁సాధారణ	-8.39002
ప్పటికీ	-8.39146
▁ఉంటాయి	-8.39391
▁యూ	-8.40002
▁కిలోమీటర్ల	-8.40134
▁కుళాయిల	-8.40844
▁సంవత్సరాల	-8.40872
▁వ్యక్త	-8.41004
జె	-8.41342
▁శాల	-8.41379
కొండ	-8.41681
T	-8.42057
▁అసెంబ్లీ	-8.42441
స్వామి	-8.42676
▁--	-8.4284
▁సంగీత	-8.42883
▁ఆలయ	-8.42928
ించడం	-8.42979
▁ఆధార	-8.43101
▁అయితే	-8.43226
▁బస్సులు	-8.43335
ro	-8.4402
▁రోజువారీ	-8.44034
ఎ	-8.44143
▁గుండా	-8.44161
▁నిర్వహించ	-8.4424
▁నిర్మించ	-8.44304
ఆ	-8.44438
|	-8.44477
ri	-8.44607
30	-8.44719
▁ప్రారంభ	-8.44911
▁గురించి	-8.45065
▁క్రీ	-8.45147
▁జీవ	-8.45561
D	-8.45699
▁అవుతున్నాయి	-8.46055
▁దూరంలోనూ	-8.46071
▁కానీ	-8.47017
▁పూర్తి	-8.47144
▁పాత్ర	-8.4739
▁వెళ్ళ	-8.47639
▁అధికార	-8.47694
▁మొత్తం	-8.48092
▁కొత్త	-8.48298
▁ఇంజనీరింగ్	-8.48479
B	-8.48549
పాద	-8.48664
ing	-8.49417
▁తెలంగాణ	-8.49751
ార్థ	-8.50044
▁ఉపయోగ	-8.50113
బడి	-8.50926
ేశ్వర	-8.51257
ప్రాంత	-8.51576
▁ఆంధ్ర	-8.51825
▁సంవత్సరం	-8.51893
ఊ	-8.52316
▁ఫ్ర	-8.52369
▁అంటారు	-8.52578
▁సమయంలో	-8.52673
!	-8.53175
▁సిబ్బంది	-8.53601
▁ఉపయోగించ	-8.53758
=	-8.54457
బంధ	-8.54619
▁ఎన్నిక	-8.54626
▁14	-8.54628
▁నిర్మాణ	-8.54653
ఖ్య	-8.54953
ధార	-8.55712
▁అన్ని	-8.55764
▁చేసే	-8.56209
▁ఏర్పడ	-8.56273
ీకరించ	-8.56528
కృత	-8.56731
▁మొదలైనవి	-8.56966
స్తూ	-8.57031
▁జరిగిన	-8.57096
ra	-8.57932
▁తీసుకు	-8.59278
▁నేరుగా	-8.59445
▁తిరు	-8.60335
▁సాధించ	-8.60437
▁పార్టీ	-8.60543
▁మాత్రమే	-8.60623
ేవారు	-8.60934
▁to	-8.61112
చె	-8.61446
▁మార్గ	-8.61615
▁ప్రస్తుత	-8.61883
▁ప్రముఖ	-8.62017
▁జన్మ	-8.62143
▁అక్కడ	-8.63516
▁ప్రవేశ	-8.63526
▁and	-8.63691
us	-8.63773
▁వచ్చిన	-8.63894
▁క్ర	-8.64054
▁అతను	-8.64134
ుతూ	-8.6424
▁ఉంట	-8.64673
▁మార్చ	-8.65503
▁మంచి	-8.65645
N	-8.65692
ుకొని	-8.6605
▁శుద్ధి	-8.66295
)	-8.66539
▁చరిత్ర	-8.6658
E	-8.67595
▁తక్కువ	-8.67896
▁తిరుగుతున్నాయి	-8.68078
▁ఇద్దరు	-8.68449
▁కొంత	-8.68735
▁గుర్తించ	-8.68825
చంద్ర	-8.69263
▁మంచినీటి	-8.69376
25	-8.7028
▁మొదల	-8.7032
▁జీవిత	-8.70646
▁రక్షిత	-8.70899
▁తూర్పు	-8.71249
▁ధర్మ	-8.71623
▁సర్వ	-8.71706
▁విధాన	-8.72136
ur	-8.72448
▁మండలానికి	-8.73231
▁స్త్రీ	-8.73793
▁సముద్ర	-8.74162
వనరుల్లోకి	-8.74329
▁ట్ర	-8.74355
▁తయారు	-8.74546
ాబాద్	-8.74957
▁శక్తి	-8.74959
▁ఇందులో	-8.75191
▁అందుబాటులో	-8.7583
▁సేవ	-8.75998
▁వివిధ	-8.76207
▁ట్రాక్టర్లు	-8.76897
▁వాడేందుక	-8.76926
▁చేశారు	-8.7701
ిస్తూ	-8.77327
▁వివర	-8.78491
▁సభ్య	-8.78577
▁సంస్కృత	-8.78919
▁వదులుతున్న	-8.78947
R	-8.7897
H	-8.7954
జ్ఞ	-8.79765
జ్ఞాన	-8.79838
▁భారతీయ	-8.80707
ుకుని	-8.80854
U	-8.80884
▁తగ్గ	-8.82004
▁విడుదల	-8.82414
▁రాజకీయ	-8.82763
▁రెండవ	-8.83309
బడుతుంది	-8.84445
▁బావుల	-8.84455
▁ఆర్థిక	-8.85123
▁చూప	-8.85613
పల్లె	-8.8621
▁నాలుగు	-8.86609
నారాయణ	-8.87146
▁నాటక	-8.87641
▁ఏర్పాటు	-8.87932
▁స్థాపించ	-8.89032
▁అమెరికా	-8.89193
▁అవసర	-8.89333
▁గ్రంథ	-8.89388
▁ముగ్గురు	-8.89622
▁కొనసాగ	-8.89744
ఉ	-8.89806
▁బోరుబావుల	-8.89956
L	-8.90921
▁వున్న	-8.91001
▁మానవ	-8.9161
▁సాహిత్య	-8.92038
▁స్థానం	-8.92282
▁విశ్వవిద్యాలయ	-8.92596
x	-8.92739
▁పూర్వ	-8.9308
▁ప్రసిద్ధ	-8.93905
▁పుస్తక	-8.94199
F	-8.94317
కరించ	-8.94395
▁పశ్చిమ	-8.9494
▁స్థాయి	-8.9519
▁ప్రయత్న	-8.95525
▁జరిగింది	-8.95653
▁తండ్రి	-8.95833
▁హైదరాబాదు	-8.95834
ాత్మక	-8.95855
ధ్ర	-8.95855
▁అత్యంత	-8.9608
▁బహు	-8.96463
▁దగ్గర	-8.9692
▁తొలి	-8.97253
▁బ్రహ్మ	-8.99443
▁రచన	-8.99454
O	-8.9952
?	-9.00077
▁పురుషుల	-9.00574
W	-9.00728
▁శతాబ్దం	-9.00994
▁కలిసి	-9.01972
▁నటించ	-9.02384
▁ప్రారంభించ	-9.02441
▁అభి	-9.02604
▁వెంకట	-9.03064
ఇ	-9.03237
▁సందర్భ	-9.03273
▁వ్యాపార	-9.03629
పరచ	-9.04391
▁అప్పటి	-9.0461
▁వచ్చింది	-9.04889
▁సుమారు	-9.04949
▁అలాగే	-9.05163
▁డాక్టరు	-9.05274
శేష	-9.06258
▁కచ్చా	-9.06305
▁వివాహ	-9.06389
▁విశాఖపట్నం	-9.06458
▁చూడ	-9.06927
ుడైన	-9.07224
సంవత్సర	-9.08097
▁సూర్య	-9.08334
▁వ్యతిరేక	-9.08613
పోయిన	-9.08806
▁కళా	-9.08881
▁పరిశోధన	-9.08967
G	-9.09066
▁ప్రయాణ	-9.09073
గ్రామంలో	-9.10616
ుడిగా	-9.10673
▁పోతోంది	-9.10778
▁be	-9.10808
▁రచయిత	-9.11151
ుకునే	-9.11219
ంటుంది	-9.11335
▁మహిళ	-9.11501
▁హిందూ	-9.12915
▁దాదాపు	-9.12925
పాలెం	-9.12949
▁వచ్చే	-9.13349
▁లభించ	-9.13363
ుకుంది	-9.13442
▁చుట్ట	-9.13711
’	-9.13862
•	-9.14505
▁ప్రదేశ్	-9.14677
▁నిర్ణయ	-9.15156
▁చైనా	-9.15161
ః	-9.15184
▁శాసనసభ	-9.15247
ఢ	-9.1532
ation	-9.15394
▁పిల్లల	-9.16185
టువంటి	-9.16762
▁ఆహార	-9.17086
▁సామ్రాజ్య	-9.17217
▁సంప్రదాయ	-9.17774
▁న్యాయ	-9.17809
V	-9.184
▁సహాయ	-9.18571
▁మరణించ	-9.18602
▁ఉదాహరణ	-9.1903
▁తెలుస	-9.1917
▁తీవ్ర	-9.19795
▁2001	-9.20065
▁అంతర్జాతీయ	-9.22071
▁అధ్యక్ష	-9.22492
▁ప్లాంట్	-9.23052
పోయింది	-9.23275
▁ఉద్యోగ	-9.23382
▁తమిళ	-9.23647
ద్వార	-9.23801
▁సైన్య	-9.24529
▁శరీర	-9.24602
▁ప్రకటించ	-9.24773
▁కాంగ్రెస్	-9.24883
▁చేశాడు	-9.24883
j	-9.25509
‘	-9.25555
▁మరొక	-9.25626
▁లభిస్తుంది	-9.25649
ఋ	-9.37272
K	-9.38217
}	-9.40109
ఒ	-9.44193
{	-9.46051
ఁ	-9.46509
°	-9.48976
_	-9.50985
”	-9.53638
ఏ	-9.60031
ఔ	-9.92418
ఐ	-10.1094
ఈ	-10.2617
ఓ	-10.6722
ఞ	-12.4326
·	-14.3769
