<unk>	0
<s>	0
</s>	0
.	-2.62855
,	-3.29278
▁	-4.33191
▁నుండి	-4.66947
▁కి	-4.69146
లో	-4.76799
▁ఉన్నాయి	-4.87734
ం	-4.93062
▁మీ	-4.94881
▁ఉంది	-4.97523
▁గ్రామం	-5.04688
▁దూరంలో	-5.11169
▁10	-5.21661
▁ఈ	-5.26976
లు	-5.29525
ను	-5.29738
▁గ్రామంలో	-5.37919
ని	-5.43797
▁మరియు	-5.5214
గా	-5.55785
▁5	-5.57026
ల	-5.58515
కు	-5.6045
ు	-5.69979
▁కేంద్రం	-5.70323
న	-5.73602
▁సమీప	-5.74744
▁ఒక	-5.78509
స్	-5.78675
ి	-5.86167
▁ఆ	-5.90621
▁కూడా	-5.95905
వ	-5.96158
ా	-5.9812
ము	-6.0022
▁ద్వారా	-6.02097
్	-6.06823
▁సౌకర్యం	-6.12159
తో	-6.13646
ర్	-6.15891
ారు	-6.16042
▁లో	-6.17241
కి	-6.18415
▁పైబడిన	-6.19966
ాలు	-6.2043
న్	-6.21342
▁సంఖ్య	-6.22264
▁పాఠశాల	-6.22904
క	-6.23357
ాన్ని	-6.2475
▁కళాశాల	-6.25161
-	-6.26166
▁"	-6.30209
▁ప్రభుత్వ	-6.35545
ంగా	-6.36073
▁జిల్లా	-6.36243
ే	-6.40109
▁యొక్క	-6.40484
▁వ్యవస్థ	-6.41773
ర	-6.41774
త	-6.44081
▁గ్రామానికి	-6.45766
▁లేదు	-6.4676
▁రహదారి	-6.47063
▁ఇది	-6.48272
ల్	-6.4848
▁అ	-6.48711
▁సరఫరా	-6.51115
:	-6.57428
మ	-6.58333
క్	-6.58948
▁ఉన్న	-6.59174
▁ప్రాథమిక	-6.62475
▁ఆరోగ్య	-6.66402
వి	-6.66659
ది	-6.67142
ానికి	-6.67994
ీ	-6.69288
▁సామాజిక	-6.70157
ట్	-6.70512
నే	-6.71758
ుడు	-6.73122
రి	-6.74521
లను	-6.76041
▁లోపు	-6.77111
"	-6.79814
▁తన	-6.80342
ాడు	-6.80518
▁ప్రైవేటు	-6.81059
▁వి	-6.81267
ుల	-6.81687
▁వైద్య	-6.82044
▁కింది	-6.82356
రు	-6.85655
రా	-6.85678
▁ఎక్కువ	-6.86178
▁పాటు	-6.88421
;	-6.88486
మైన	-6.8862
గ	-6.90147
▁అని	-6.90546
ిన	-6.93116
స	-6.93907
లా	-6.94295
ట	-6.95043
s	-6.95698
ప	-6.96101
▁ఇతర	-6.96525
▁నీరు	-6.96658
▁కంటే	-6.97293
ాల	-6.98177
▁విద్యా	-6.98425
య	-6.98925
డ	-6.98983
▁/	-6.98984
▁-	-6.99114
▁వ్యవసాయ	-7.00961
▁వ	-7.03015
నా	-7.03492
డ్	-7.03556
ింది	-7.04238
ంలో	-7.04797
▁న	-7.05006
▁ప్రధాన	-7.05354
ులు	-7.05456
▁కు	-7.06459
ద	-7.0649
▁కోడ్	-7.08683
డం	-7.09171
▁బ్యాంకు	-7.09212
▁చెందిన	-7.09231
▁తరువాత	-7.09702
▁ఉన్నారు	-7.1016
లి	-7.10276
▁విద్యుత్	-7.10441
▁అనే	-7.11964
▁జనగణన	-7.12159
లోనూ	-7.12305
▁ఆసుపత్రి	-7.12734
▁వాణిజ్య	-7.13065
▁పబ్లిక్	-7.13239
పు	-7.13525
▁వారం	-7.13835
▁పథకం	-7.14455
▁లేదా	-7.15037
▁ఫోన్	-7.15042
▁ప్రకారం	-7.15237
▁సినిమా	-7.15272
▁షెడ్యూల్డ	-7.15649
లోను	-7.17179
సి	-7.17238
▁గంటల	-7.17362
▁భారత	-7.184
▁ఒకటి	-7.18831
▁బి	-7.19192
▁ఆఫీసు	-7.19233
▁కోసం	-7.19512
▁రెండు	-7.19673
▁స్టేషన్	-7.19897
▁పోస్టాఫీసు	-7.20633
డు	-7.21189
▁క	-7.21466
▁ఆయన	-7.21889
▁సంస్థ	-7.22491
డి	-7.22548
▁7	-7.23256
▁వైద్యశాల	-7.2358
ాయి	-7.24435
▁·	-7.25525
▁ఎ	-7.26708
▁మ	-7.26718
ాలను	-7.26766
వా	-7.26868
▁1	-7.27125
▁అభివృద్ధి	-7.27356
▁2	-7.27387
లలో	-7.28492
మ్	-7.28496
▁వ్యవసాయానికి	-7.29335
పై	-7.30169
▁రోడ్లు	-7.31586
టి	-7.31655
మా	-7.32654
▁జాతీయ	-7.33688
▁ని	-7.35097
▁the	-7.35157
మి	-7.35695
▁రాష్ట్ర	-7.36062
▁గా	-7.36458
లకు	-7.36537
▁తిరిగి	-7.36569
▁ఉప	-7.36906
▁డిగ్రీ	-7.37144
▁నుంచి	-7.37343
▁కా	-7.37421
▁లు	-7.38245
▁ఏ	-7.38245
▁ను	-7.38549
డానికి	-7.39368
ూ	-7.40159
జ్	-7.40403
▁3	-7.41526
▁ఇ	-7.43094
▁విధంగా	-7.43545
▁ఉంటుంది	-7.44253
▁18	-7.44781
▁వారి	-7.45052
లోని	-7.45374
కా	-7.45581
▁మధ్య	-7.46444
▁ప	-7.46601
▁జరుగుతోంది	-7.46665
▁రైల్వే	-7.46788
▁చాలా	-7.46935
▁కొన్ని	-7.47258
నీ	-7.47295
రీ	-7.4751
▁ప్రత్యేక	-7.47613
▁టి	-7.48347
▁భూ	-7.48642
▁పెద్ద	-7.49662
/	-7.49841
న్న	-7.50147
▁కలిగి	-7.50415
ప్	-7.5056
▁స	-7.51478
▁ఉత్పత్తి	-7.51617
▁లోని	-7.51641
▁ఏడాది	-7.51835
▁వంటి	-7.52713
▁మా	-7.5288
▁బ	-7.52936
సు	-7.53213
తి	-7.53617
▁నా	-7.54679
చ	-7.54984
▁అనేక	-7.55917
జ	-7.56059
త్	-7.56218
▁మురుగునీటి	-7.56896
▁అందుతుంది	-7.57126
▁కుటుంబ	-7.57647
▁వరకు	-7.58862
▁నీటి	-7.58989
▁పొడుగునా	-7.58994
'	-7.59742
n	-7.62235
▁బస్సు	-7.62704
▁4	-7.63325
▁శ్రీ	-7.63372
▁వారు	-7.63563
యా	-7.63657
గ్	-7.63806
▁మండల	-7.64264
▁పేరు	-7.64656
▁6	-7.65351
దు	-7.66182
▁2011	-7.66288
▁పి	-7.66392
▁వృత్తి	-7.66625
▁తెలుగు	-7.66807
▁of	-7.67181
▁సి	-7.6727
మ్మ	-7.67996
▁శిక్షణ	-7.68137
▁అండ్	-7.68589
▁'	-7.68634
హ	-7.69056
:.	-7.6912
▁సంత	-7.69218
▁పౌర	-7.69307
▁జరుగుతుంది	-7.69843
ల్లో	-7.69848
వు	-7.70417
▁రా	-7.70581
▁సంఘం	-7.70597
▁ఆమె	-7.70724
▁కొరకు	-7.71254
లే	-7.71717
▁విస్తరించి	-7.72034
▁నమోదు	-7.7213
▁ప్రవహిస్తుంది	-7.72189
▁రవాణా	-7.7222
▁బా	-7.72253
▁ప్రతి	-7.72634
▁కాలువల	-7.7268
▁సామాన్య	-7.73016
▁మాధ్యమిక	-7.73022
▁గణాంకాల	-7.73043
మే	-7.73053
వే	-7.73086
రో	-7.73452
▁డాక్టర్లు	-7.73763
ణ	-7.74301
టం	-7.74347
▁సహకార	-7.74362
▁మురుగునీరు	-7.74573
▁స్వయం	-7.74785
▁బృందం	-7.74966
▁మంది	-7.75816
▁కాగా	-7.76061
▁ఔషధ	-7.76154
▁కేంద్రాలు	-7.76266
▁8	-7.7643
▁కార్యాలయం	-7.76692
▁మీద	-7.76937
▁సంరక్షణ	-7.78157
▁వినియోగం	-7.78336
▁కులాల	-7.7834
▁సొసైటీ	-7.78843
▁సంపూర్ణ	-7.78923
▁తెగల	-7.78983
▁చేసిన	-7.79042
▁మొదలైన	-7.7906
▁సేవా	-7.79118
▁లైన్	-7.79285
▁జనన	-7.79492
▁మొదటి	-7.79526
▁సహాయక	-7.79694
కో	-7.79716
▁సబ్	-7.79933
▁ప్రత్యామ్నాయ	-7.80142
▁ఆటల	-7.80407
గు	-7.80545
▁చిన్న	-7.80651
▁పశు	-7.80658
▁సైన్స్	-7.80816
▁ప్ర	-7.81138
▁ప్రాథమికోన్నత	-7.81173
ో	-7.81251
▁మైదానం	-7.81266
రే	-7.81333
▁ము	-7.81499
▁బాలల	-7.81754
య్య	-7.81883
▁ఆటో	-7.81998
▁గ్రంథాలయం	-7.82088
▁కార్యకర్త	-7.82157
▁పిన్	-7.82206
▁కో	-7.82246
▁ఇంటర్నెట్	-7.8235
▁నిమిత్తం	-7.82366
▁సంక్షేమ	-7.82439
▁వార్తాపత్రిక	-7.8253
▁ల	-7.82954
▁మొబైల్	-7.83031
▁శిశు	-7.83062
▁మరణాల	-7.83305
▁సంచార	-7.83365
▁ఆర్ట్స్	-7.83412
▁పంపిణీ	-7.83465
▁మార్కెటింగ్	-7.83596
▁లొకేషన్	-7.83631
▁లోను	-7.83831
▁తో	-7.83836
▁ఆశా	-7.83908
▁మగవారి	-7.84163
▁జనాభాతో	-7.84176
చే	-7.84351
▁పారామెడికల్	-7.84612
▁ఆడవారి	-7.84616
▁19	-7.84714
▁రీడింగ్	-7.84789
ములు	-7.8492
▁పా	-7.84979
▁హెక్టార్లలో	-7.84984
▁మార్కెట్	-7.84996
▁పోలింగ్	-7.85022
▁జూనియర్	-7.85031
▁రూం	-7.85084
▁లాండ్	-7.85142
▁ఇళ్లతో	-7.85186
▁పారిశుధ్య	-7.8567
▁మాతా	-7.85689
▁వీధుల	-7.85715
▁టెలిఫోన్	-7.85892
▁అంగన్	-7.85974
▁వాడీ	-7.86002
తా	-7.8636
▁సరఫరాల	-7.86404
▁స్	-7.86412
▁పోస్ట్	-7.86462
▁జ	-7.86652
▁ఉత్పాదక	-7.86703
▁కొరియర్	-7.87384
▁కెఫె	-7.87452
ద్	-7.87456
లీ	-7.8746
▁పోషకాహార	-7.87756
▁హాలు	-7.87772
▁చేస్తున్నారు	-7.87787
▁గృహావసరాల	-7.88061
చి	-7.88122
▁దూరం	-7.882
న్నాయి	-7.88264
▁పక్కనే	-7.88274
▁తర్వాత	-7.88299
▁అవసరాల	-7.88379
▁సేకరించే	-7.88417
▁కంకర	-7.88876
▁వస్తువులు	-7.88904
▁ఇంటింటిక	-7.88966
▁పై	-7.89082
▁పరపతి	-7.89103
▁అనియత	-7.89114
▁సమీకృత	-7.89244
▁వ్యర్థాలను	-7.89268
▁బయోగ్యాస్	-7.8958
▁మరుగుదొడ్డి	-7.89719
పి	-7.89806
▁దివ్యాంగ	-7.89854
▁ఏటీఎమ్	-7.8989
▁డిస్పెన్సరీ	-7.899
▁అలోపతి	-7.89937
▁పాలీటెక్నిక్	-7.90131
▁చెత్తను	-7.90314
జి	-7.90351
▁మె	-7.90426
▁టెలిగ్రాఫ్	-7.9064
అ	-7.90689
▁పట్టణమైన	-7.9076
▁పారబోస్త	-7.90781
ుని	-7.90925
▁in	-7.91434
▁తమ	-7.91572
▁సం	-7.9192
▁కేంద్రమైన	-7.92039
▁మూడు	-7.92061
▁వా	-7.92109
▁జనాభా	-7.92126
▁మేనేజిమెంటు	-7.92191
▁వలన	-7.9248
▁వనరుల	-7.92483
▁బాలబడి	-7.92741
▁జల	-7.93253
▁ది	-7.93347
▁రోజుకు	-7.93366
▁ఉ	-7.93451
శ	-7.93703
▁ప్రాంతాల	-7.93752
▁అమలవుతోంది	-7.94007
పా	-7.94263
▁సా	-7.95126
లతో	-7.95359
▁చేయ	-7.95416
▁ఉంటాయి	-7.95463
బ	-7.95673
▁ఆఫ్	-7.95968
బడింది	-7.96137
▁కిలోమీటర్ల	-7.96306
▁15	-7.96467
ాలలో	-7.96767
▁కుళాయిల	-7.97027
దా	-7.97187
▁గ్రామ	-7.97207
▁వద్ద	-7.97633
▁వరి	-7.97655
▁a	-7.97837
బ్	-7.97931
▁పాఠశాలలు	-7.97935
▁మే	-7.98106
▁హ	-7.98288
▁శ	-7.9829
▁అసెంబ్లీ	-7.98613
▁9	-7.98748
▁బస్సులు	-7.99098
సా	-7.99243
▁అయితే	-7.99406
▁త	-7.99438
▁అతని	-7.99596
▁గ్రామాల	-7.99663
▁12	-7.99915
▁చేతిపంపుల	-8.00055
▁దాని	-8.00151
▁రోజువారీ	-8.00206
▁కొ	-8.00285
ె	-8.00438
▁గుండా	-8.00457
ించ	-8.00628
▁అయిన	-8.00691
యు	-8.01402
▁కానీ	-8.01842
▁అవుతున్నాయి	-8.0223
క్ష	-8.02578
▁దూరంలోనూ	-8.02593
▁చ	-8.02651
▁దీని	-8.0271
ధ	-8.02989
▁ఆర్	-8.03522
ిక	-8.03718
ళ్ళ	-8.03955
▁మొత్తం	-8.04295
▁సు	-8.04303
▁ఇంజనీరింగ్	-8.04674
ండ	-8.04713
యి	-8.05268
బా	-8.0549
▁--	-8.05797
ంది	-8.0627
కే	-8.07087
▁ఓ	-8.07365
▁అది	-8.0755
▁డి	-8.08178
▁చేసి	-8.08444
2	-8.08488
ౌ	-8.087
▁అంటారు	-8.08786
లేదు	-8.08978
▁ఉత్తర	-8.092
▁వ్యవసాయం	-8.09274
y	-8.09297
▁సమయంలో	-8.09391
▁ఇక్కడ	-8.09626
తు	-8.09684
▁సిబ్బంది	-8.0969
▁వే	-8.10169
ై	-8.10172
▁దక్షిణ	-8.10232
జా	-8.10511
టు	-8.10562
▁సౌకర్యాలు	-8.10565
▁కాని	-8.10729
▁మి	-8.10936
%	-8.11029
▁లేని	-8.1152
▁గురించి	-8.11715
▁తారు	-8.12129
ాలి	-8.12414
▁ఆంధ్ర	-8.12416
ప్ర	-8.1246
ఫ్	-8.12847
▁మొదలైనవి	-8.1295
ంతో	-8.13407
▁జరిగిన	-8.13665
▁లేరు	-8.13932
మని	-8.14012
▁గ	-8.1403
▁మండలం	-8.1411
er	-8.14971
▁ఐ	-8.15097
▁పో	-8.15203
ed	-8.15486
ించి	-8.1553
▁నేరుగా	-8.15616
ష	-8.16334
▁చె	-8.16511
▁మాత్రమే	-8.16794
ంత	-8.17147
ంద	-8.17364
▁తెలంగాణ	-8.17644
▁శాల	-8.1834
▁అన్ని	-8.18615
▁17	-8.18838
o	-8.19045
టీ	-8.19136
▁16	-8.19166
నో	-8.19268
యం	-8.1954
కీ	-8.19637
▁:	-8.20083
▁and	-8.20134
▁14	-8.20173
▁అతను	-8.20256
▁బహిరంగ	-8.20344
బి	-8.20415
▁ఎస్	-8.20518
ిత	-8.20564
▁S	-8.20651
▁ముందు	-8.20682
▁రాష్ట్రం	-8.20735
భ	-8.21089
ంగ్	-8.21316
▁ప్రపంచ	-8.21437
▁A	-8.21638
▁కాలంలో	-8.21954
ష్	-8.22382
▁శుద్ధి	-8.2255
▁to	-8.22567
▁11	-8.22806
▁0	-8.22853
▁లా	-8.22899
సీ	-8.23385
▁ప్రభుత్వం	-8.23685
ట్లు	-8.23861
వారు	-8.24011
▁తిరుగుతున్నాయి	-8.2425
ాలకు	-8.24542
▁ఇద్దరు	-8.24617
ంచ	-8.24761
▁ప్రముఖ	-8.24829
రం	-8.25027
వచ్చు	-8.2521
▁మంచినీటి	-8.2555
ing	-8.25704
యో	-8.25903
మీ	-8.26511
▁పార్టీ	-8.26592
మో	-8.26726
▁కథ	-8.26922
▁రక్షిత	-8.27071
▁20	-8.27227
ాలని	-8.27258
వ్	-8.27352
al	-8.27439
▁కె	-8.27638
▁వల్ల	-8.27666
▁పలు	-8.27669
▁అతి	-8.28038
A	-8.28123
▁మన	-8.28164
C	-8.28278
▁వచ్చిన	-8.28287
త్త	-8.28309
స్ట్	-8.28485
ప్ప	-8.28563
▁మండలానికి	-8.29028
పల్లి	-8.29193
ాల్లో	-8.293
▁దీనిని	-8.29815
▁జా	-8.29897
00	-8.29919
వనరుల్లోకి	-8.30501
బడిన	-8.30509
డా	-8.30518
ుతుంది	-8.31306
ళ్ల	-8.31467
▁ఇందులో	-8.31488
▁చెప్ప	-8.31544
▁సంవత్సరాల	-8.316
▁గో	-8.31742
కం	-8.31768
▁ర	-8.31901
▁లే	-8.31957
▁అందుబాటులో	-8.32003
జీ	-8.3201
పో	-8.32041
▁తా	-8.32273
్లో	-8.32309
▁వివిధ	-8.3239
గి	-8.3248
▁రాజ	-8.32944
ట్ట	-8.32975
▁లోనూ	-8.32988
▁ట్రాక్టర్లు	-8.33069
▁ఒకరు	-8.33154
▁అను	-8.33193
▁చేశారు	-8.33379
▁ఇవి	-8.33394
టర్	-8.33424
▁పాత్ర	-8.33453
ళ	-8.33881
▁య	-8.33889
నం	-8.34187
▁13	-8.34233
క్క	-8.34681
▁కొత్త	-8.34685
▁s	-8.34744
ండి	-8.3499
▁చేసే	-8.35295
▁వదులుతున్న	-8.35299
కొ	-8.35507
▁మంచి	-8.35949
▁పూ	-8.36046
▁మహా	-8.36442
నూ	-8.36498
e	-8.36591
▁ద	-8.36673
u	-8.37182
▁గు	-8.37375
రె	-8.37446
1	-8.37502
d	-8.37685
▁రామ	-8.37728
టానికి	-8.38023
ంగ	-8.38047
▁రాజకీయ	-8.38934
▁కలిగిన	-8.39428
▁రెండవ	-8.39532
▁వాడేందుక	-8.39609
▁అధిక	-8.39723
ేందుకు	-8.40506
మును	-8.40621
▁ఒ	-8.40872
ములో	-8.40938
కుండా	-8.4098
▁అనేది	-8.41149
▁యు	-8.41167
▁ఆర్థిక	-8.41295
▁ఉండే	-8.41494
టా	-8.42009
ిస్తారు	-8.42226
▁నాలుగు	-8.42812
▁పూర్తి	-8.4287
▁సంగీత	-8.42871
▁కాల	-8.42983
▁అన్న	-8.4308
▁తయారు	-8.432
▁ప్రజలు	-8.43318
▁కారణంగా	-8.43439
ిస్తుంది	-8.43461
▁సంవత్సరం	-8.43598
దే	-8.4368
రాజు	-8.43833
▁రి	-8.4397
3	-8.44103
▁మో	-8.44104
▁జి	-8.44132
▁ఏర్పాటు	-8.44148
a	-8.44183
▁గల	-8.44326
▁భాష	-8.44578
i	-8.44626
థ	-8.44656
▁దేవ	-8.45104
వాడు	-8.45108
ించిన	-8.45153
బడి	-8.45385
ైన	-8.45627
▁ముగ్గురు	-8.45803
▁వాడ	-8.45846
▁గ్రామము	-8.46546
▁చే	-8.46547
ధి	-8.47018
▁తూర్పు	-8.47407
▁భారతీయ	-8.47443
▁అవి	-8.47874
ద్ద	-8.48127
▁పని	-8.4845
M	-8.48462
▁అవ	-8.48529
గల	-8.48589
నె	-8.48936
సం	-8.4928
▁వాటి	-8.49423
ిస్తూ	-8.49465
▁చేసింది	-8.49869
▁మూల	-8.50045
తీ	-8.50554
▁సాధారణంగా	-8.50917
▁వీరు	-8.50921
▁అంటే	-8.50961
▁50	-8.51123
▁తక్కువ	-8.51139
▁ధర్మ	-8.51334
▁వై	-8.51394
కర	-8.51502
దీ	-8.51506
▁ఎక్కువగా	-8.51591
రావు	-8.51643
▁జరిగింది	-8.51835
టో	-8.51929
ar	-8.51942
▁తండ్రి	-8.51998
▁వె	-8.52036
ముల	-8.52224
▁అత్యంత	-8.52252
మై	-8.52433
▁అదే	-8.52514
ట్టు	-8.5274
▁మొ	-8.5287
ముగా	-8.53093
r	-8.53174
▁బావుల	-8.5333
▁ప్రాంతం	-8.53337
నుండి	-8.53536
t	-8.53555
▁భ	-8.53742
▁చిత్ర	-8.53942
k	-8.54608
▁ఇలా	-8.54798
S	-8.55016
సె	-8.55057
▁ఉండ	-8.55214
వ్వ	-8.55273
▁పు	-8.55277
▁చేర	-8.55388
▁బె	-8.55668
c	-8.55968
▁ఖ	-8.56077
▁పొంద	-8.56197
?	-8.56249
▁పరి	-8.56383
▁యా	-8.5646
▁రాజు	-8.56632
▁C	-8.56656
▁నీ	-8.56658
▁ఎం	-8.56864
▁దేశ	-8.57511
చు	-8.57586
▁మండలంలోని	-8.57603
▁బహిరంగంగా	-8.57617
or	-8.57931
▁కలిసి	-8.58191
▁కే	-8.58252
ుతూ	-8.58829
▁చిత్రం	-8.59683
ేవారు	-8.59899
ంబ	-8.60361
▁కొండ	-8.60514
▁పొ	-8.60541
ష్ట	-8.60611
▁దా	-8.60842
పల్లిలో	-8.60885
ుకొని	-8.61019
▁వచ్చింది	-8.6111
▁బ్రహ్మ	-8.61298
▁అలాగే	-8.61354
▁పె	-8.61439
▁బోరుబావుల	-8.61443
▁డాక్టరు	-8.61446
ఆ	-8.61606
వారి	-8.61623
g	-8.6167
▁చరిత్ర	-8.61717
ొ	-8.61795
▁ప్రస్తుతం	-8.61848
వీ	-8.61875
ఖ	-8.62008
ుడి	-8.62231
ేశ్వర	-8.62278
ులకు	-8.62418
▁కచ్చా	-8.62457
▁ప్రాంతంలో	-8.62705
▁సె	-8.62819
ూరు	-8.62867
▁కల	-8.63094
చ్	-8.63313
4	-8.6337
ుకుని	-8.63604
I	-8.63803
p	-8.63902
▁చా	-8.6399
▁M	-8.64053
▁అంద	-8.64161
!	-8.64204
▁కన్నా	-8.64246
లుగా	-8.64443
▁శక్తి	-8.64557
▁అక్కడ	-8.64618
b	-8.64766
in	-8.64984
ళ్ళు	-8.65468
▁చి	-8.65475
▁కాకుండా	-8.65596
▁కార్	-8.65651
th	-8.65824
▁మత	-8.65956
▁57	-8.66309
h	-8.6646
▁అనగా	-8.66467
▁పంప	-8.66527
▁ముఖ్య	-8.66538
▁భూమి	-8.66669
▁లోకి	-8.66865
క్స్	-8.66879
▁పోతోంది	-8.66949
ాలతో	-8.67689
్య	-8.67696
మె	-8.67899
▁ఇంకా	-8.68121
▁పశ్చిమ	-8.68241
▁లేక	-8.68263
▁కేంద్రంలో	-8.68679
▁అమెరికా	-8.68878
ప్పుడు	-8.69106
▁హిందూ	-8.69138
▁పెట్ట	-8.69557
▁కాలం	-8.69616
గో	-8.69749
హా	-8.69752
▁బాగా	-8.69886
▁ఈయన	-8.69917
ండ్	-8.69974
▁B	-8.70016
గ్రామంలో	-8.7007
▁రో	-8.70243
▁ప్రదేశ్	-8.70844
వర్	-8.70869
▁హా	-8.70941
పూర్	-8.71036
▁వచ్చి	-8.7114
బడ్డాయి	-8.71249
▁శాసనసభ	-8.71421
▁c	-8.71477
▁రే	-8.71585
▁తొలి	-8.71943
లె	-8.7197
▁P	-8.72071
వె	-8.72192
డే	-8.7224
▁కాదు	-8.72322
▁కొంత	-8.72374
▁తల	-8.72412
ులను	-8.72454
▁అంత	-8.72847
▁శివ	-8.73115
ట్ల	-8.73248
▁తు	-8.73259
▁f	-8.73446
▁వారికి	-8.73832
▁పత్రిక	-8.73888
ించే	-8.73962
▁దీనికి	-8.74035
▁పోటీ	-8.74656
లోకి	-8.74715
▁చూప	-8.74913
▁నది	-8.74918
హ్	-8.74995
▁చేయడం	-8.75135
m	-8.75315
▁వచ్చే	-8.75331
▁చెరువు	-8.75524
▁శాఖ	-8.75528
▁30	-8.75795
▁పేరుతో	-8.75796
▁క్రీ	-8.76052
▁•	-8.76229
▁కృష్ణ	-8.76248
▁2001	-8.76264
▁అన	-8.76392
l	-8.76496
▁ప్రజల	-8.76614
▁ప్రా	-8.76664
లోనే	-8.76736
▁25	-8.77019
▁సుమారు	-8.77099
▁విద్య	-8.77413
ుకో	-8.7755
▁వీ	-8.77618
సన్	-8.77646
re	-8.77789
▁అంతర్జాతీయ	-8.78244
▁సంబంధించిన	-8.78298
తే	-8.7836
an	-8.78495
▁డ	-8.78496
▁పాట	-8.78581
ుడైన	-8.78808
▁నివాస	-8.78832
▁జీవ	-8.78989
▁ప్లాంట్	-8.7923
▁డా	-8.79241
ీయ	-8.79264
ించాడు	-8.79565
▁వ్యక్తి	-8.7999
న్స్	-8.80034
త్తు	-8.80037
య్	-8.80186
▁సాధారణ	-8.80211
ఇ	-8.8104
▁కాంగ్రెస్	-8.81055
జన	-8.81114
▁చేశాడు	-8.81235
▁మానవ	-8.81247
▁విడుదల	-8.81321
▁n	-8.81549
▁భావ	-8.81588
రణ	-8.81714
▁లభిస్తుంది	-8.8182
▁కేంద్ర	-8.8189
ండు	-8.81896
▁పురుషుల	-8.82003
▁ఎన్	-8.82023
▁రైలు	-8.82269
▁కోర	-8.82646
కులు	-8.82688
స్తూ	-8.8278
షన్	-8.82842
▁నగరం	-8.82876
ంచి	-8.83008
యే	-8.83073
D	-8.83305
బో	-8.83315
▁is	-8.83367
డీ	-8.83437
▁విశాఖపట్నం	-8.83549
బు	-8.83661
▁స్వామి	-8.83684
▁షా	-8.83855
▁నె	-8.83885
▁తల్లి	-8.83893
ిస్తున్న	-8.83908
పురం	-8.84214
▁ఉపయోగించ	-8.84243
▁నగర్	-8.84246
ాన	-8.8433
హి	-8.84514
▁మాత్రం	-8.84644
▁కోట	-8.84721
త్వ	-8.84721
▁వ్యాపార	-8.85025
కె	-8.85235
E	-8.8528
▁పాల	-8.85435
▁or	-8.85447
ింప	-8.85462
▁చైనా	-8.85515
es	-8.85652
▁తి	-8.85754
▁రోజు	-8.85975
5	-8.86029
▁సీ	-8.86078
పాడు	-8.86103
ించారు	-8.86158
ాను	-8.86195
▁భాగంగా	-8.8634
’	-8.86474
▁గొప్ప	-8.86523
ra	-8.86545
లం	-8.86675
స్త	-8.87025
▁మరో	-8.87097
డో	-8.87122
▁యుద్ధం	-8.87214
కర్	-8.87258
చ్చ	-8.87293
వాద	-8.87504
▁b	-8.87576
ంటి	-8.87682
డంతో	-8.87741
పె	-8.87794
▁దాదాపు	-8.87799
▁కనుక	-8.8784
▁కృష్ణా	-8.88031
▁నిర్మాణ	-8.88051
▁భార్య	-8.88099
టే	-8.88367
▁కాక	-8.88444
▁నగర	-8.88888
▁స్థానిక	-8.88973
ారని	-8.89074
▁అమ్మ	-8.89118
ుతున్న	-8.89196
▁హైదరాబాదు	-8.89363
▁58	-8.8956
▁చివరి	-8.8958
▁పారుదల	-8.89648
▁పెంచ	-8.89802
8	-8.89844
ాయ	-8.89974
▁ట్రాక్టరు	-8.90078
▁నిర్వహించ	-8.90302
▁పంపిస్తున్నారు	-8.90708
▁బో	-8.90788
▁పడ	-8.90857
▁సమ	-8.90871
▁ఉన్నత	-8.91255
▁జె	-8.91522
మన్	-8.91611
▁వీరి	-8.91764
▁ఉండేది	-8.91953
▁ఆడ	-8.92072
▁పొందిన	-8.92311
7	-8.92616
నది	-8.9269
కాల	-8.92714
▁‘	-8.92828
▁సాహిత్య	-8.92995
గిరి	-8.9307
బడుతుంది	-8.93127
▁బు	-8.9319
రియా	-8.9346
▁జన	-8.93552
ల్ల	-8.93618
ందు	-8.93623
▁లోపే	-8.93914
▁తప్ప	-8.94282
▁వున్న	-8.94285
▁కట్ట	-8.94298
▁వాటిని	-8.94349
6	-8.94552
▁ప్రత్తి	-8.94745
▁మరొక	-8.9477
▁గుంటూరు	-8.94799
▁భాగం	-8.94835
▁పట్ట	-8.9484
▁=	-8.94869
▁పంచ	-8.95017
▁వైపు	-8.9509
ధ్య	-8.95213
ల్లా	-8.95422
▁నెల్లూరు	-8.95531
స్వామి	-8.95534
▁!	-8.95576
▁లి	-8.95638
కార	-8.95819
▁పూర్వ	-8.95918
▁యుద్ధ	-8.96005
▁బాల	-8.96142
ట్టి	-8.96152
మున	-8.96215
▁సో	-8.96438
▁ఒకే	-8.96546
▁విజయ	-8.96555
కూ	-8.9656
కల్	-8.96599
P	-8.96644
▁కేవలం	-8.96686
▁ఒక్క	-8.96701
ీకరణ	-8.96777
గానే	-8.96836
▁be	-8.96838
▁మరింత	-8.9689
▁వీర	-8.96912
on	-8.96938
▁సర్వ	-8.96944
▁ఈమె	-8.96985
▁ఆధునిక	-8.9724
ుట	-8.9728
స్తుంది	-8.9732
సర్	-8.97328
▁N	-8.97366
▁అప్పటి	-8.97406
▁నాటికి	-8.97567
త్వం	-8.97612
▁దగ్గర	-8.97626
▁దుకాణం	-8.97662
▁The	-8.97832
సే	-8.97874
▁కంపెనీ	-8.97894
ఘ	-8.98005
▁సముద్ర	-8.98073
ుకున్న	-8.98136
▁ఫ	-8.98208
ఎ	-8.98316
▁డె	-8.98565
▁దేశం	-8.98581
▁గోదావరి	-8.98594
▁జిల్లాలో	-8.98738
ధా	-8.98844
▁తాను	-8.9894
▁ఇవ్వ	-8.98946
▁24	-8.99009
▁ఇన్	-8.99123
▁నాగ	-8.99136
▁ఆలయం	-8.99205
▁రంగ	-8.99287
▁D	-8.993
▁శాలలో	-8.99381
ంటే	-8.9946
▁ప్రారంభ	-8.99544
▁విశ్వవిద్యాలయం	-8.99674
ంజ	-8.99771
▁59	-8.99886
దని	-8.99985
0	-9.00075
▁మార్చి	-9.00341
▁p	-9.00376
లూ	-9.00516
▁జీవిత	-9.00517
సో	-9.0073
మాన	-9.0073
▁రె	-9.00757
▁21	-9.01114
శి	-9.01169
▁న్యూ	-9.01255
▁ముఖ్యంగా	-9.01307
ును	-9.01378
▁చెంద	-9.01422
▁చూడ	-9.01439
▁ఉంచ	-9.01471
బ్బ	-9.01834
▁సై	-9.02052
ad	-9.02097
ri	-9.02105
జు	-9.0228
le	-9.02308
▁ఈనాడు	-9.02359
జర్	-9.02419
▁ఎన్నో	-9.02558
N	-9.02558
▁బ్రిటిష్	-9.02652
▁పే	-9.02702
▁చెయ్య	-9.02813
▁చేత	-9.02912
కుడు	-9.02993
▁ఆధారంగా	-9.03097
▁గుర్తింపు	-9.03185
ంట్	-9.03276
▁సౌకర్యాలున్నాయి	-9.03309
▁m	-9.03544
▁వార	-9.03615
చ్చి	-9.0396
▁నేను	-9.04156
షి	-9.04166
▁మట్టిరోడ్ల	-9.04168
▁జూలై	-9.04236
▁సర్	-9.04257
▁ముఖ్యమైన	-9.04407
మునకు	-9.04513
f	-9.04673
▁ఐదు	-9.04882
▁గుర్తించ	-9.05065
పద	-9.05153
బడ	-9.05181
▁అలా	-9.05197
▁స్థానంలో	-9.05209
▁అధికంగా	-9.05222
▁చంద్ర	-9.05536
▁ఉండి	-9.05552
▁చేయని	-9.05577
ఫి	-9.05596
▁తాగునీరు	-9.05737
▁ఫా	-9.06072
▁పోతున్నాయి	-9.06168
పతి	-9.06262
▁ఆరు	-9.06429
పెట్ట	-9.06477
10	-9.06523
ిని	-9.06604
జె	-9.06644
బీ	-9.06979
▁దేశంలో	-9.06991
▁దు	-9.07003
ly	-9.07081
▁వలస	-9.07245
వో	-9.07285
▁లేకుండా	-9.07395
▁భారతదేశంలో	-9.07514
ృ	-9.0754
▁సేవ	-9.076
▁దానిని	-9.0762
▁22	-9.07697
en	-9.07824
▁లెక్కల	-9.0788
▁విశ్వ	-9.08187
▁I	-9.08284
at	-9.08287
▁లలో	-9.0833
▁for	-9.08379
ెను	-9.08435
▁సంప్రదాయ	-9.08462
▁ప్రదర్శన	-9.0865
▁పరీక్ష	-9.08762
రూ	-9.08972
▁చేస్తారు	-9.09117
▁స్వ	-9.09145
▁హో	-9.09293
us	-9.09343
ుటకు	-9.09547
▁అందులో	-9.09598
T	-9.09658
మూ	-9.09681
▁శాతం	-9.09704
▁ప్రక్రియ	-9.09729
▁వేద	-9.0974
”	-9.0981
▁రూప	-9.09811
పీ	-9.09817
వరం	-9.09888
ur	-9.0989
ాత్మక	-9.09906
రూప	-9.09923
▁ప్రజా	-9.09954
▁జో	-9.09968
▁మిగిలిన	-9.09974
▁విజయం	-9.09975
▁నాటి	-9.09987
20	-9.10066
▁సిబ్బంద	-9.10108
▁మార్చ	-9.1016
▁బీ	-9.10166
యర్	-9.10352
▁కొనసాగ	-9.10476
▁పద	-9.10694
▁ఎంతో	-9.10746
నియా	-9.10833
వర	-9.10958
▁2009	-9.11099
▁వెళ్ళ	-9.11143
▁యూ	-9.11163
▁23	-9.11215
▁నే	-9.11405
జ్ఞ	-9.11588
▁మూ	-9.11652
▁లను	-9.11805
కుల	-9.11916
లేని	-9.11926
▁తెలియ	-9.12062
▁దశ	-9.12086
▁అవుతోంది	-9.12171
ంట	-9.12193
పోయింది	-9.12222
ందుకు	-9.12257
▁రాయ	-9.12327
▁స్థాయి	-9.12572
▁సభ	-9.12586
▁స్టేషను	-9.12668
రామ	-9.12676
▁ఇప్పుడు	-9.12729
▁ఉత్తమ	-9.12768
▁బ్ర	-9.12945
▁లాంటి	-9.12971
▁G	-9.13083
▁ప్రసిద్ధి	-9.13116
▁చంప	-9.1313
▁నిర్వహణ	-9.13158
▁హై	-9.13222
స్తా	-9.13307
il	-9.13345
▁ప్రేమ	-9.13408
మైనది	-9.13429
am	-9.13602
12	-9.13653
se	-9.13825
v	-9.13859
11	-9.14162
▁H	-9.14262
▁నాటక	-9.14314
ూర్	-9.14331
త్ర	-9.14547
లై	-9.14641
ణి	-9.14749
▁వేయ	-9.14828
షా	-9.14841
▁పీ	-9.14859
▁మై	-9.14893
▁బొ	-9.14923
▁వెళ్ళి	-9.14959
▁ఎత్తు	-9.14962
▁యునైటెడ్	-9.15073
▁అంచనా	-9.15073
R	-9.15075
▁పూర్తిగా	-9.15189
▁కాం	-9.15261
▁రకాల	-9.15328
▁వీటిలో	-9.15402
వాడ	-9.15429
▁నూనె	-9.15542
O	-9.1556
▁వలె	-9.15562
ుతారు	-9.15633
▁అవకాశం	-9.15643
ఉ	-9.15712
▁ఉపయోగిస్తారు	-9.15791
ల్లి	-9.1582
ాడని	-9.15851
న్నా	-9.15907
▁కారణం	-9.15914
▁విజయవాడ	-9.15925
▁కవి	-9.15963
▁ఆహార	-9.15999
ుగా	-9.16021
▁వెంకట	-9.16149
▁చేయడానికి	-9.16209
▁ప్రాణ	-9.16381
▁పాడ	-9.16456
రాయ	-9.16495
▁ఏక	-9.16612
▁గి	-9.16838
ic	-9.16927
▁అర్థం	-9.16999
ుకున్నారు	-9.17075
▁వారిని	-9.17196
డె	-9.17296
సర	-9.17307
తారు	-9.17326
ent	-9.17399
ుకునే	-9.17527
▁రాజా	-9.17665
▁re	-9.17674
_	-9.17762
▁ష	-9.17765
▁స్త్రీల	-9.17807
▁2007	-9.17812
▁నిర్	-9.17956
తులు	-9.1821
▁అత్యధిక	-9.18214
▁రూ	-9.18297
▁ఇం	-9.18329
కొండ	-9.18398
ప్పు	-9.1854
పడ	-9.18554
▁శా	-9.18594
▁సహ	-9.18667
నని	-9.18743
▁తీర	-9.1878
▁అతిపెద్ద	-9.18831
30	-9.18841
భా	-9.18901
▁ఇండియా	-9.19084
ంగి	-9.19127
▁రెడ్డి	-9.19379
▁చేసారు	-9.19405
)	-9.19424
▁స్వతంత్ర	-9.19439
టన్	-9.19472
ch	-9.1951
50	-9.19616
▁నూతన	-9.19646
▁తే	-9.19698
ించింది	-9.19805
ములను	-9.19881
▁2008	-9.20022
▁ఎల్	-9.20098
▁పరిశోధన	-9.20191
▁రచన	-9.20203
▁మార	-9.20239
▁L	-9.20352
22	-9.20384
▁జనవరి	-9.20406
▁అప్పుడు	-9.20571
▁తె	-9.20643
ట్స్	-9.20645
▁చేర్చ	-9.20708
▁కలిపి	-9.20779
▁సంగీతం	-9.20808
త్య	-9.20879
▁ఇదే	-9.20934
టింగ్	-9.20968
▁న్యాయ	-9.20991
మీద	-9.21016
▁శి	-9.21116
టిక్	-9.21136
నగర్	-9.21184
▁తగ్గ	-9.21243
చేయ	-9.21382
▁మహబూబ్	-9.21472
▁ఖండ	-9.21592
▁26	-9.21667
▁ప్రస్తుత	-9.21694
▁40	-9.2191
తం	-9.21937
18	-9.22057
పే	-9.22067
▁వీటిని	-9.2221
మైంది	-9.22219
వార	-9.22367
▁అల	-9.22459
▁ధ	-9.22505
14	-9.22559
▁సైనిక	-9.22602
▁శతాబ్దం	-9.2263
▁సృష్టించ	-9.22632
ళ్లు	-9.22724
ిస్తాయి	-9.22763
▁F	-9.22837
▁అల్	-9.22844
▁2013	-9.2296
▁సూచించ	-9.23007
రై	-9.2307
▁మహ	-9.23161
ించడం	-9.23234
▁రచయిత	-9.2339
▁దృష్టి	-9.23499
▁గాంధీ	-9.2351
▁E	-9.23532
వాస	-9.23655
▁సత్య	-9.23676
ిస్తాడు	-9.23902
▁రాజధాని	-9.23917
▁లె	-9.23951
▁వంశ	-9.2414
▁రై	-9.24229
▁దారి	-9.24249
B	-9.24303
▁ఆంగ్ల	-9.24347
తాయి	-9.24462
▁కృషి	-9.24549
▁కీ	-9.24682
▁పట్టణ	-9.24701
▁d	-9.24868
▁చేస్తుంది	-9.24909
▁R	-9.24924
యిన	-9.24968
రక	-9.2502
▁27	-9.25316
et	-9.25383
▁కుల	-9.25497
▁వ్యాధి	-9.25505
ః	-9.25568
▁జూన్	-9.25675
శా	-9.25741
ంప	-9.25833
▁సిద్ధ	-9.2585
▁తీసుకు	-9.25882
▁పర్వత	-9.25908
▁ఫి	-9.26
ha	-9.26022
15	-9.26187
▁ప్రభావం	-9.26511
రాజ	-9.26537
▁నవల	-9.26541
▁శాస్త్ర	-9.26606
ుకున్నాడు	-9.26797
్యం	-9.26832
స్తారు	-9.2688
▁సంస్కృతి	-9.27034
లపై	-9.27074
▁g	-9.27181
▁వేల	-9.2721
▁ఉష్ణోగ్రత	-9.27293
▁ఎన్నికలలో	-9.27329
▁మందుల	-9.27494
లేక	-9.27521
జం	-9.2779
ద్ర	-9.27893
▁దానికి	-9.27894
ప్పటికీ	-9.27909
▁వివాహం	-9.27951
▁భారతదేశం	-9.28005
్యూ	-9.28041
పర్	-9.28047
ులైన	-9.28095
▁పురాతన	-9.28098
13	-9.28109
దేశ	-9.28147
తుల	-9.28292
ునిగా	-9.28333
▁సంవత్సరంలో	-9.2836
▁ఎక్స్	-9.28368
▁అవార్డు	-9.28439
▁28	-9.28439
▁పదం	-9.28442
మర్	-9.28585
▁అమెరికన్	-9.28711
▁రంగు	-9.28718
19	-9.28771
▁పర	-9.28895
▁ఊ	-9.29016
▁పాత	-9.29029
▁గ్రామాలు	-9.29142
లూరు	-9.29219
▁స్థానం	-9.29241
రిక	-9.29252
▁పెళ్ళి	-9.29271
▁వరంగల్	-9.29278
▁సాగ	-9.29294
చె	-9.2935
ంగు	-9.29395
▁స్త్రీ	-9.29414
▁శతాబ్దంలో	-9.29419
▁శ్రీకాకుళం	-9.29445
▁గాయ	-9.29786
▁పైగా	-9.29832
23	-9.29846
40	-9.29848
▁నిర్మించ	-9.29897
▁కుమారుడు	-9.29906
▁తొలగించ	-9.30036
▁బౌద్ధ	-9.30118
▁ఇంటి	-9.30148
▁U	-9.30158
క్రమ	-9.302
చేసి	-9.30215
ation	-9.30231
▁ఇతడు	-9.30236
▁సరిహద్దు	-9.30239
లర్	-9.3027
▁బే	-9.30298
▁సంస్కృత	-9.30313
▁జ్ఞాన	-9.30368
ుడిగా	-9.30462
స్థ	-9.30567
▁కం	-9.30576
el	-9.30615
కర్త	-9.30619
▁బల	-9.30648
it	-9.30688
బుల్	-9.30729
▁నిర్మాణం	-9.30794
▁మొట్టమొదటి	-9.308
న్ని	-9.30863
▁హె	-9.30878
▁చూసి	-9.30942
కల	-9.31009
▁మాట	-9.3114
▁వేరు	-9.31142
ాడ	-9.31178
▁వరకూ	-9.31258
▁ఆంధ్రప్రదేశ్	-9.31285
▁ఎలా	-9.31493
మంది	-9.31531
ఢ	-9.31575
17	-9.3163
▁as	-9.31711
దో	-9.31801
▁పంట	-9.31908
నల్	-9.31954
▁రక్షణ	-9.31968
తాడు	-9.3199
దేవి	-9.31999
▁కొద్ది	-9.32007
▁w	-9.3219
ండ్ల	-9.32256
గే	-9.32279
▁చికిత్స	-9.32315
ఒక	-9.32409
L	-9.32433
▁మొదట	-9.3247
▁ప్రాంతాలలో	-9.32673
9	-9.32794
16	-9.3284
శ్	-9.32901
▁వీటి	-9.32988
▁గాని	-9.33009
దర	-9.33143
▁రసాయన	-9.3315
▁గాలి	-9.33195
ఫ	-9.33251
▁ఉద్యోగ	-9.33491
▁కళా	-9.33616
వపేజీ	-9.33635
▁అయినప్పటికీ	-9.33636
ఫా	-9.33788
పాలెం	-9.3379
▁విలువ	-9.33927
▁ధన	-9.33932
▁పొందింది	-9.33994
ందని	-9.33995
థి	-9.34015
స్తాయి	-9.34129
▁మూడవ	-9.34233
▁ఆలయ	-9.34267
▁h	-9.34331
▁నగరంలో	-9.34332
ాలుగా	-9.3434
▁రాజ్య	-9.34379
|	-9.34442
▁చేసాడు	-9.34581
నై	-9.34669
కారం	-9.34747
as	-9.34764
గ్రామానికి	-9.3488
▁సంవత్సరాలు	-9.34885
ల్స్	-9.35017
▁వస్తుంది	-9.35017
ులుగా	-9.35023
భాగ	-9.35054
▁with	-9.35111
25	-9.35189
▁సాధించ	-9.3526
▁ఉపయోగ	-9.35508
▁సహా	-9.35515
ుకోవడం	-9.35598
▁K	-9.35638
▁2006	-9.3568
వచ్చును	-9.35702
▁ఎంత	-9.35748
▁నల్ల	-9.35752
▁ప్రసిద్ధ	-9.35819
▁కొందరు	-9.35927
వ్య	-9.3603
▁అవసరం	-9.36083
▁విషయం	-9.36124
▁2010	-9.36442
▁ప్రాచీన	-9.36549
▁దాడి	-9.36551
ంక	-9.36623
▁కూ	-9.36677
▁కార్య	-9.36734
▁ఏప్రిల్	-9.36739
▁లింగ	-9.36776
పూడి	-9.36823
▁అగ్ని	-9.36854
▁దేశాల	-9.3687
ఁ	-9.36888
▁తమిళ	-9.37062
▁టై	-9.3711
ర్స్	-9.37176
కరణ	-9.37181
▁టా	-9.37223
▁కావ	-9.37288
పల్లె	-9.37427
పరి	-9.37432
ంపై	-9.37624
▁కనిపించ	-9.37647
▁మహిళల	-9.37821
▁అమలు	-9.37881
▁చేస్తున్న	-9.37947
▁సాంకేతిక	-9.37964
ుతాయి	-9.38011
▁l	-9.38015
▁రోజుల	-9.38035
▁పది	-9.38164
▁మారింది	-9.38181
▁హరి	-9.38205
ంటు	-9.38281
స్టర్	-9.38321
▁వాటిలో	-9.38331
▁ఆనంద	-9.38337
▁వర్ణ	-9.38352
▁దేశాలలో	-9.38432
▁నామ	-9.38444
▁రోడ్డు	-9.38561
▁చిత్తూరు	-9.38576
ేషన్	-9.38643
0,000	-9.38647
▁మార్	-9.38711
పొ	-9.38764
ిస్తున్నారు	-9.38924
నాడు	-9.38956
▁కౌ	-9.38968
థా	-9.3898
▁బ్రిటీష్	-9.39013
ేవాడు	-9.39108
▁ఉండటం	-9.39137
▁అర్	-9.39271
▁ఆత్మ	-9.39335
F	-9.3935
ుడిని	-9.39376
▁W	-9.39379
పరచ	-9.39424
▁ఆది	-9.39501
la	-9.39532
▁సూర్య	-9.39584
▁T	-9.39707
▁కళ	-9.40012
▁చర్య	-9.40034
ార్	-9.40104
▁సంస్థలు	-9.40226
డమే	-9.40251
కాలం	-9.40284
తను	-9.40288
బె	-9.40323
▁మద్దతు	-9.40341
▁సామ్రాజ్యం	-9.40485
తన	-9.40582
▁పూర్	-9.40663
▁ఇతని	-9.40768
▁గీత	-9.40834
▁బట్టి	-9.40841
▁పాప	-9.40991
▁నెల	-9.41037
సూ	-9.41124
60	-9.41128
▁ఫలితంగా	-9.41226
▁ధర	-9.41237
▁బ్రాహ్మణ	-9.41271
▁భారీ	-9.41342
▁జాతి	-9.41346
వై	-9.41361
▁మంత్రి	-9.41366
▁by	-9.41465
▁ఫల	-9.41498
పుడు	-9.41784
▁చక్ర	-9.41807
ేంద్ర	-9.41845
▁గౌరవ	-9.41856
రంగ	-9.41875
▁జాబితా	-9.41878
ter	-9.42011
▁పైన	-9.42026
▁కాలువ	-9.42085
రెడ్డి	-9.42108
▁జరిగే	-9.42175
▁అతడు	-9.42292
21	-9.42369
▁చట్ట	-9.42406
రికి	-9.42419
▁త్రి	-9.42442
▁నారాయణ	-9.42488
మన	-9.42573
=	-9.42601
▁నో	-9.42607
తర	-9.42619
ప్రైవేటు	-9.42637
క్కు	-9.42643
▁సమావేశ	-9.42689
ుడ	-9.4272
▁అయింది	-9.4272
▁పొడవు	-9.42774
క్షణ	-9.42992
▁భావించ	-9.43024
్యా	-9.43066
స్తు	-9.43316
పాటు	-9.43407
శాల	-9.43439
▁పరిశ్రమ	-9.43459
ce	-9.43625
్యు	-9.43646
▁ఐరోపా	-9.43683
▁కర్నూలు	-9.43719
▁ఢిల్లీ	-9.43806
▁ప్రదర్శించ	-9.43819
▁వ్యతిరేకంగా	-9.43849
▁క్రింద	-9.43942
▁కాంతి	-9.43959
▁పుట్ట	-9.44014
▁లేవు	-9.44079
▁v	-9.44097
85	-9.44118
ro	-9.44154
పేట	-9.44183
▁ఫిబ్రవరి	-9.4427
వలసిన	-9.44293
కాయ	-9.44309
ున్న	-9.44375
▁అస	-9.44504
▁పిలుస్తారు	-9.44653
▁లీ	-9.44656
24	-9.4476
▁పాలన	-9.44771
▁తొ	-9.44773
▁సహజ	-9.44895
పం	-9.44901
▁సామ్రాజ్య	-9.44984
▁ఏర్పడిన	-9.45015
▁వేరుశనగ	-9.45178
ీకరించ	-9.45214
బర్	-9.45235
▁భర్త	-9.45355
01	-9.45356
ర్ల	-9.45478
▁గురు	-9.45504
▁రూపంలో	-9.45533
▁నిర్ణయించ	-9.4555
ాక	-9.4561
▁51	-9.45619
▁t	-9.45718
ండ్ర	-9.45744
▁నిర్వహించారు	-9.45804
▁అల్ల	-9.4592
▁పూజ	-9.46241
26	-9.46293
రవ	-9.46348
x	-9.46401
▁గారు	-9.46434
▁చుట్టూ	-9.46487
యూ	-9.46551
▁విధానం	-9.46603
▁మొక్కజొన్న	-9.46655
శాస్త్ర	-9.46657
▁చింత	-9.46682
▁గొ	-9.46765
భవ	-9.46795
ండా	-9.46803
▁తిరుగుబాటు	-9.46838
▁చర్చ	-9.46853
▁హిందీ	-9.46925
li	-9.46973
▁శాసన	-9.47017
త్తి	-9.47029
▁కూడిన	-9.47038
ృత	-9.47189
▁చేస్తూ	-9.47234
స్థాన	-9.4725
▁నేషనల్	-9.47283
▁అందించ	-9.47334
▁అర్ధ	-9.47444
H	-9.47496
▁చాల	-9.47523
▁ఆట	-9.47552
▁ప్రకాశం	-9.47582
ండే	-9.47629
is	-9.47667
ద్య	-9.47894
ంలోని	-9.479
▁తెర	-9.48095
క్త	-9.48141
▁29	-9.48164
▁జన్మ	-9.48179
ుకుంది	-9.4845
▁కారణ	-9.48464
పోయిన	-9.48635
▁కోల్	-9.48656
▁తీ	-9.48809
ర్డ్	-9.48834
▁విశేష	-9.48834
▁తయారీ	-9.48895
ళి	-9.48916
▁బహు	-9.48975
▁జట్టు	-9.49037
టె	-9.49067
▁జీవన	-9.49104
మెంట్	-9.49267
▁ప్రపంచంలో	-9.49281
ముఖ	-9.49285
వేయ	-9.49299
లైన	-9.49366
చార	-9.49409
▁వర	-9.49442
ఠ	-9.4954
చూ	-9.49657
33	-9.49693
43	-9.49781
గ్ర	-9.49809
▁లక్షల	-9.49847
రోజు	-9.49864
గం	-9.49937
▁గుర్తు	-9.49965
▁శాంతి	-9.49989
▁క్రమ	-9.50004
జో	-9.50034
▁జన్మించాడు	-9.50115
▁2004	-9.50186
▁అధికార	-9.50253
ంబు	-9.50256
▁భాగ	-9.50327
32	-9.50353
డుగు	-9.50353
▁సింగ్	-9.50372
▁ప్రవేశ	-9.5039
ాది	-9.5044
▁సైన్యం	-9.505
▁k	-9.50534
▁పిల్లల	-9.50589
▁చేయబడింది	-9.50623
▁సంపాదించ	-9.50725
▁గారి	-9.5078
▁తిరుపతి	-9.50872
న్నీ	-9.50903
▁ఘన	-9.50965
63	-9.50996
▁రక్త	-9.51072
నాథ	-9.51127
▁గ్రా	-9.51129
▁de	-9.5122
▁31	-9.51239
▁ముస్లిం	-9.51239
▁తగ్గించ	-9.51242
వేత్త	-9.51245
▁చెట్టు	-9.51252
62	-9.51295
61	-9.51417
um	-9.51425
▁ప్రవేశపెట్ట	-9.51479
▁అయ్య	-9.51588
▁ఎంపిక	-9.51608
ఫె	-9.51681
▁జయ	-9.51704
లియ	-9.5184
▁అన్నాడు	-9.51926
దేవ	-9.51957
▁ప్రధానంగా	-9.51974
▁రాజ్యం	-9.51996
వైపు	-9.52017
కోట	-9.52023
▁అక్టోబరు	-9.521
▁అందు	-9.52189
▁నేల	-9.52204
▁గురువు	-9.52206
▁వాడు	-9.52296
▁సమీపంలో	-9.52396
id	-9.52397
▁ఇక్కడి	-9.52549
▁పట్ల	-9.52585
▁సూ	-9.52597
77	-9.52598
చన	-9.5266
గొ	-9.52672
▁తెల్ల	-9.52679
నర్	-9.52682
▁క్యా	-9.52786
▁పర్వము	-9.5281
ువు	-9.52846
▁నిర్మించిన	-9.52898
▁ఆయనకు	-9.52911
▁ప్రణాళిక	-9.52926
▁కంప్యూటర్	-9.52997
80	-9.53056
▁తనకు	-9.53082
▁సే	-9.53137
▁ఆగస్టు	-9.53143
67	-9.53153
తె	-9.53263
మత	-9.53296
▁ఉపగ్రహ	-9.53344
27	-9.53367
▁మంత్ర	-9.53378
70	-9.53416
▁ఉదాహరణకు	-9.53428
ంపు	-9.53454
▁కష్ట	-9.53465
▁సంఘ	-9.53489
▁గృహాలు	-9.53494
▁మార్పు	-9.5353
కాలంలో	-9.53544
▁పరిస్థితి	-9.53578
▁గుణ	-9.53589
ణం	-9.53644
▁ఉంటే	-9.53772
08	-9.53841
ద్ధ	-9.5388
చ్ఛ	-9.53907
▁ఇంత	-9.53916
▁పాటలు	-9.53945
99	-9.53997
▁టీ	-9.54149
ినట్లు	-9.54163
▁రేడియో	-9.54339
గర్	-9.54461
వంత	-9.54485
▁ఏడు	-9.54496
▁పరిధిలో	-9.545
చర	-9.54506
▁కుమార్తె	-9.5453
72	-9.54535
▁గ్రామములో	-9.54576
w	-9.54578
▁సంయుక్త	-9.54659
▁భాషా	-9.54742
▁శరీర	-9.54751
మొ	-9.54754
రస	-9.54889
▁మద్య	-9.54953
▁V	-9.54955
▁సాంస్కృతిక	-9.5496
▁హైదరాబాద్	-9.54984
▁వివాహ	-9.55054
▁ఆఫ్రికా	-9.55058
ఏ	-9.55067
▁సార	-9.55167
▁బాధ్యత	-9.55224
మూర్తి	-9.55415
▁సంబంధం	-9.55436
st	-9.55627
▁35	-9.55711
▁సందర్భంగా	-9.55718
మాన్	-9.55721
▁రీ	-9.55728
పాటి	-9.55776
▁ఎందుకంటే	-9.55812
ాం	-9.55854
▁మూస	-9.55866
ol	-9.55913
▁జొన్న	-9.5603
▁సాధన	-9.56051
▁అధ్యక్ష	-9.56137
▁నేర	-9.5617
▁దుర్	-9.56201
టరు	-9.56227
▁ఛా	-9.56273
0%	-9.56294
వలసి	-9.56352
▁గుడి	-9.56361
▁నవ	-9.56408
తల	-9.56424
స్ట	-9.5651
▁మార్గం	-9.56533
▁నియమించ	-9.56581
ణా	-9.56618
▁ఆల్	-9.56663
▁ఆలోచన	-9.56672
▁ఒప్పందం	-9.56672
▁ప్రాంత	-9.56774
స్య	-9.56856
▁నియోజకవర్గం	-9.56873
న్నె	-9.56935
▁లక్ష్మీ	-9.56939
వార్	-9.56976
▁పడి	-9.57007
▁యువ	-9.5702
▁100	-9.57025
సారి	-9.57033
▁అయి	-9.57037
▁రు	-9.57039
▁అభి	-9.57045
▁డై	-9.57068
▁ప్రయాణ	-9.57081
▁on	-9.57114
▁కొల	-9.57132
▁సోమ	-9.5724
un	-9.57317
ూరులో	-9.57376
డర్	-9.57403
▁ప్రకృతి	-9.57481
▁సినీ	-9.57555
▁ఆసక్తి	-9.57582
చిన	-9.5759
▁నట	-9.5759
గడ	-9.57608
నాటి	-9.57616
▁ఇప్పటికీ	-9.57654
▁ముఖ	-9.57689
▁వ్యాస	-9.57711
▁మొక్క	-9.57793
హం	-9.57814
▁క్రి	-9.57846
▁కాబట్టి	-9.57923
▁అతనికి	-9.57944
▁వివరించ	-9.58014
▁డిసెంబరు	-9.58037
▁పద్ధతి	-9.58069
కై	-9.58079
▁చట్టం	-9.58094
▁భారతదేశ	-9.58128
ితే	-9.58166
▁కామ	-9.58167
▁అంగీకరించ	-9.58172
▁కల్పించ	-9.58181
▁విదేశీ	-9.58196
im	-9.58205
°	-9.58222
టై	-9.58229
▁2014	-9.58241
ాంత	-9.58246
▁శిల్ప	-9.58306
ార్థ	-9.58307
ల్లు	-9.58332
దం	-9.58396
▁సమస్య	-9.58492
▁2005	-9.58563
▁మద్రాసు	-9.58575
95	-9.58619
▁రెండో	-9.58622
కార్	-9.58645
▁అప	-9.58646
54	-9.58649
▁యె	-9.5867
▁భాషలో	-9.58683
▁ఉంటారు	-9.58745
▁క్ర	-9.58751
స్టు	-9.58775
▁చెప్పిన	-9.58778
▁మాట్లాడ	-9.58856
05	-9.58863
▁జీ	-9.58877
▁ఖాన్	-9.58997
▁an	-9.59018
▁చెప్పాడు	-9.59151
▁పండుగ	-9.59168
▁రాసిన	-9.59183
▁పారి	-9.59195
▁అనుభవ	-9.59214
ఎస్	-9.59226
▁భౌతిక	-9.59234
69	-9.59269
▁నక్షత్ర	-9.5931
83	-9.59341
98	-9.59366
బద్ధ	-9.5943
▁గె	-9.59441
క్ర	-9.59446
యె	-9.59474
ూరి	-9.59509
▁స్థాయిలో	-9.59567
▁వెంటనే	-9.59587
▁that	-9.59613
▁గృహ	-9.59671
07	-9.59731
▁బాల్	-9.59823
66	-9.59871
▁రాత్రి	-9.59987
▁పాకిస్థాన్	-9.60019
లిక	-9.60128
93	-9.6014
▁ఆసియా	-9.60182
90	-9.60218
చా	-9.60225
▁విమర్శ	-9.60259
74	-9.60323
భాష	-9.60334
ికి	-9.60336
▁con	-9.60339
▁ఉద్యమ	-9.60389
మార్	-9.604
84	-9.60406
▁డీ	-9.60411
చీ	-9.60561
78	-9.60663
81	-9.60678
▁సెప్టెంబరు	-9.60683
76	-9.60704
71	-9.60708
▁ఉన్నది	-9.60801
ునికి	-9.60811
▁ఖమ్మం	-9.60831
96	-9.60844
▁ప్రచురించ	-9.60857
▁దేవాలయం	-9.6104
కవి	-9.61054
▁విమాన	-9.61248
▁మారి	-9.61365
42	-9.61383
మం	-9.61433
▁వృక్ష	-9.61446
▁కల్ప	-9.61466
▁చెక్క	-9.61469
68	-9.61592
▁వ్యాసం	-9.61616
ిస్తే	-9.61619
▁గ్	-9.6168
▁పాకిస్తాన్	-9.61686
06	-9.61712
▁జు	-9.61744
ఖా	-9.61765
▁నవంబరు	-9.61778
91	-9.61793
▁భా	-9.61812
▁53	-9.61903
▁పట్టు	-9.61907
03	-9.61942
▁ఎయిర్	-9.61972
▁చివర	-9.62043
▁వెళ్ల	-9.62199
▁మరణ	-9.6233
పోయి	-9.62406
▁కుమార	-9.62431
▁చక్రవర్తి	-9.62443
▁అర్థ	-9.62465
▁ఇక	-9.62584
▁నలుగురు	-9.62596
▁60	-9.62698
▁హి	-9.6277
▁పత్ర	-9.62813
te	-9.62873
▁సహాయ	-9.62886
▁కావ్య	-9.62895
కము	-9.62991
▁చల్ల	-9.63013
▁చూస	-9.63049
▁st	-9.63119
▁కాలనీ	-9.63258
ారెడ్డి	-9.63364
ధు	-9.63421
▁ప్రమాద	-9.63477
▁com	-9.63504
09	-9.63522
ేది	-9.6357
86	-9.63601
రుగు	-9.63603
▁స్థల	-9.63636
▁2016	-9.63706
తుంది	-9.63792
▁స్వాతంత్ర్య	-9.6388
▁సంఘటన	-9.63951
▁సమయం	-9.63959
▁మల్ల	-9.64001
యాన్	-9.6403
▁తర	-9.64048
87	-9.64066
ుకుంటారు	-9.64161
▁జాన్	-9.64297
▁ప్రజలకు	-9.64307
▁నిజ	-9.6431
కాలు	-9.6433
దల	-9.64411
▁కల్	-9.64443
▁శిక్ష	-9.64446
హో	-9.64462
▁వేడి	-9.64475
▁వాయువు	-9.64492
▁దీన్ని	-9.64527
▁యూనియన్	-9.64608
▁నియంత్రణ	-9.64629
పోయారు	-9.64763
▁అతడి	-9.64821
▁చదువు	-9.64914
92	-9.64966
▁ప్రెస్	-9.64978
▁విడుదలైన	-9.6499
ర్య	-9.64991
▁సభ్యులు	-9.64994
▁అనంతపురం	-9.65025
▁ప్రవేశించ	-9.65034
▁మరి	-9.65182
▁ట్ర	-9.65239
▁వెనుక	-9.65248
▁ఫై	-9.65275
ma	-9.653
hi	-9.65337
▁బయట	-9.65339
▁అక్కడి	-9.65405
31	-9.65455
సిన	-9.65582
▁రచించిన	-9.65605
ములలో	-9.65653
▁సంబంధ	-9.65688
▁రావు	-9.6571
▁బాధ	-9.65722
▁ఉన్నాడు	-9.65787
55	-9.65808
▁వేసవి	-9.65809
▁తరచుగా	-9.65827
▁నమూనా	-9.65828
సై	-9.65938
▁జరుప	-9.65947
ినా	-9.65975
▁నిర్మించారు	-9.6598
▁చెప్పవచ్చు	-9.65987
▁పుస్తకం	-9.66087
97	-9.66094
వులు	-9.661
ir	-9.66231
▁హు	-9.66235
▁తెలుగులో	-9.66237
లిన్	-9.66272
డంలో	-9.66327
-1	-9.66329
▁విధ	-9.66377
▁ప్రొ	-9.66383
▁నాడు	-9.66396
ment	-9.66469
▁నియమ	-9.66761
▁ప్రారంభించారు	-9.66781
గె	-9.66822
ర్ర	-9.66834
▁2000	-9.67011
ంటుంది	-9.67127
▁రికార్డు	-9.67134
రాజ్య	-9.6714
▁ఫర్	-9.67151
పాద	-9.67154
▁అనుసరించి	-9.67156
▁దూ	-9.6724
కరమైన	-9.67244
▁విజయనగరం	-9.67293
▁సరి	-9.67315
వతి	-9.67325
▁పుష్ప	-9.67357
గారు	-9.67359
▁వంటివి	-9.6738
బడే	-9.67383
02	-9.67388
ంతా	-9.67482
▁సూక్ష్మ	-9.67516
చో	-9.67525
▁పసుపు	-9.67545
▁విజ్ఞాన	-9.67546
▁మొదలు	-9.67572
▁e	-9.67646
▁చిత్రంలో	-9.67696
▁వీలు	-9.67717
శక్తి	-9.67737
▁కలసి	-9.67739
▁కలుప	-9.67743
▁జపాన్	-9.67766
▁అర	-9.67903
యన్	-9.67938
గూడ	-9.67947
▁క్రింది	-9.67957
డ్డ	-9.68069
ందే	-9.68112
94	-9.68165
▁తక్కువగా	-9.68178
73	-9.68187
}	-9.68187
▁ముందుగా	-9.68196
▁ఆధారపడి	-9.68243
▁వర్ష	-9.68269
▁బ్యా	-9.68277
పాల	-9.68296
ల్లె	-9.68314
ాలయం	-9.68363
▁నై	-9.68372
89	-9.68375
▁భావిస్తున్నారు	-9.68473
▁కన్	-9.6869
▁తిరు	-9.68707
▁రష్యా	-9.68759
▁ప్రకటించ	-9.68809
వరకు	-9.68848
▁యోగ	-9.68882
▁ప్రయోగ	-9.68977
▁నల్గొండ	-9.69009
▁52	-9.69081
ప్త	-9.69178
▁he	-9.69178
▁కణ	-9.6923
▁కొడుకు	-9.69258
స్తాడు	-9.69298
▁స్థితి	-9.69336
▁స్వీకరించ	-9.69465
▁శాస్త్రీయ	-9.69479
▁ద్రవ	-9.69503
▁నమ్మ	-9.6958
88	-9.69665
▁కర్ణాటక	-9.69679
▁అయినా	-9.69721
▁ప్రకటన	-9.6983
ాపూర్లో	-9.69914
▁ప్రాంతాలు	-9.69916
04	-9.69957
హార	-9.69976
లింగ్	-9.69985
డము	-9.69999
భి	-9.70032
బడతాయి	-9.70041
▁గత	-9.70046
▁స్టా	-9.70107
▁రోజులు	-9.70141
ti	-9.70157
79	-9.70187
గారి	-9.70192
29	-9.70226
పురంలో	-9.70274
▁కనిపిస్తుంది	-9.703
▁భక్తులు	-9.70384
స్తున్న	-9.70421
లక	-9.70436
▁దూర	-9.70455
బే	-9.70494
▁దీనిలో	-9.70536
▁వున్నవి	-9.70543
▁జర్మనీ	-9.70551
లిక్	-9.70612
▁అనంతరం	-9.70689
▁డే	-9.70793
▁r	-9.70806
ాల్సి	-9.70856
ాపూర్	-9.70856
▁చెందింది	-9.70883
▁పేజీ	-9.70885
గల్	-9.70994
భావ	-9.71012
గ్గ	-9.71102
▁యుద్ధంలో	-9.71128
వాగు	-9.71156
గానూ	-9.71158
45	-9.71186
పోతుంది	-9.71186
▁పరిచయం	-9.71192
▁గ్రంథ	-9.71212
▁రాష్ట్రంలో	-9.7123
ాయని	-9.71318
క్షి	-9.71343
28	-9.71455
▁చీ	-9.71495
ినప్పుడు	-9.71579
35	-9.71583
▁ఎక్కడ	-9.71615
65	-9.71732
▁కర్మ	-9.71748
▁సగటు	-9.71755
▁జీవితం	-9.71762
▁రూపొందించ	-9.71826
▁తెలుస	-9.71862
పరు	-9.71885
భ్య	-9.71889
▁విష్ణు	-9.71905
▁జిల్లాకు	-9.71967
ాపురం	-9.72074
▁గ్రహ	-9.72126
రియ	-9.72156
▁బై	-9.72192
రియన్	-9.72249
▁స్థిర	-9.72289
మల	-9.72301
▁సమాన	-9.72329
▁క్షేత్ర	-9.7233
▁దర్శకత్వం	-9.72332
▁was	-9.72356
న్నది	-9.72415
నిక్	-9.72428
పట్ట	-9.72435
▁{	-9.72435
ఫో	-9.72457
తోపాటు	-9.72462
స్తే	-9.72514
▁గర్భ	-9.72518
▁తరగతి	-9.72525
కోసం	-9.72543
▁మతం	-9.72561
▁క్రైస్తవ	-9.72601
▁పాద	-9.72685
పర	-9.72711
▁వ్యాసాలు	-9.72749
శాస్త్రి	-9.72766
▁నిజాం	-9.72775
గుణ	-9.72868
▁కొట్ట	-9.72888
ండర్	-9.72894
కూరు	-9.72946
▁కోట్ల	-9.72946
దిగా	-9.73015
శ్ర	-9.73023
▁సమాజ	-9.73025
▁వర్	-9.73026
నీయ	-9.73064
▁from	-9.73127
ొక్క	-9.73133
▁బంధ	-9.73139
▁కథలు	-9.73153
▁అసలు	-9.73216
▁బంగారు	-9.73217
▁సౌ	-9.7327
బీయెస్	-9.73301
▁తీసుకో	-9.73308
▁పట్టణం	-9.73342
▁32	-9.73389
ంచు	-9.73402
ియన్	-9.73458
▁పిల్ల	-9.73501
▁పోలి	-9.73502
వల్ల	-9.73502
ిగా	-9.73531
▁సొంత	-9.73639
▁ఫె	-9.73651
▁మంద	-9.73691
48	-9.73707
▁భక్తి	-9.73755
▁పురుష	-9.73834
తూ	-9.73846
▁పెద	-9.73892
▁ఎమ్బీ	-9.7392
▁సినిమాలో	-9.7397
▁భాగంలో	-9.74062
▁చేతి	-9.74065
▁వ్యతిరేక	-9.74079
▁అధ్యయనం	-9.74095
ులతో	-9.74125
▁ప్రాంతాల్లో	-9.7418
▁సార్లు	-9.74188
▁ప్రచారం	-9.74195
▁రస	-9.7428
▁ఉండవచ్చు	-9.74318
వేశ	-9.74342
▁వ్రాయ	-9.74431
▁గడి	-9.74518
శాస్త్రం	-9.74526
75	-9.7456
▁మగ	-9.74566
na	-9.7464
వారికి	-9.74647
▁ఔ	-9.74696
▁వ్రాసిన	-9.74701
శ్వ	-9.74721
వల	-9.74885
44	-9.74906
▁మనం	-9.74982
▁అభిప్రాయ	-9.75001
ల్డ్	-9.75111
▁జరగ	-9.7512
▁చదివిన	-9.75136
పరంగా	-9.75139
▁|	-9.75151
▁తిరుమల	-9.752
▁వెలి	-9.75239
56	-9.75268
▁చిత్రాలు	-9.75289
ate	-9.7531
47	-9.75316
▁నెహ్రూ	-9.75385
▁ప్రత్యక్ష	-9.75416
ru	-9.75421
ka	-9.75451
▁ఎర్ర	-9.75509
నప్పుడు	-9.75551
జ్జ	-9.75555
కుంట	-9.75564
vi	-9.75791
న్య	-9.76017
▁మొదల	-9.76021
▁are	-9.76049
▁రాగ	-9.76125
హు	-9.76147
V	-9.76248
41	-9.76278
ాలనే	-9.76333
▁అనుమతి	-9.76366
గ్రా	-9.76373
82	-9.76393
▁చూ	-9.76395
▁అందుకు	-9.76423
▁అభ్యర్థి	-9.76489
▁వుండ	-9.76494
▁కింద	-9.76513
▁వైద్యశాలలో	-9.76651
డూ	-9.76653
▁చరిత్రలో	-9.76768
▁వ్యక్తిగత	-9.76832
▁తరువాతి	-9.76852
34	-9.76957
ుతున్నారు	-9.76996
హిత	-9.76999
పల్లెలో	-9.77032
▁అర్బన్	-9.77095
and	-9.77135
దన	-9.77185
▁ప్రసార	-9.77216
▁జూ	-9.77322
▁అవసరమైన	-9.77344
▁దిన	-9.77407
▁1990	-9.77591
▁మల	-9.77658
▁ప్లా	-9.77708
▁తేదీ	-9.77715
ot	-9.77742
పించ	-9.77831
దె	-9.77836
తున్న	-9.77856
▁మిలియన్	-9.77892
▁దో	-9.77952
▁వదిలి	-9.77981
ాంగ	-9.7799
స్కో	-9.78034
క్తి	-9.78064
▁పొందారు	-9.78069
▁పదవి	-9.78084
▁సాంప్రదాయ	-9.78184
▁O	-9.78205
▁సిద్ధాంత	-9.78208
చర్	-9.78305
జే	-9.78371
▁పరిస్థితుల	-9.78436
▁చేయబడిన	-9.78443
▁ఇస్లాం	-9.78457
▁నీవు	-9.78475
▁దృశ్య	-9.78488
▁అభిమాన	-9.78533
ాకార	-9.78615
▁చర్చి	-9.78663
జాల	-9.78739
▁లభించింది	-9.78797
యన	-9.78812
U	-9.78828
సేన	-9.78875
▁తోట	-9.78908
64	-9.78945
స్టా	-9.78964
▁జన్మించారు	-9.78965
▁ఆహారం	-9.78993
▁పురాణ	-9.79039
మయిన	-9.7909
▁టో	-9.79175
షు	-9.79205
ాధికార	-9.79296
▁ఉండాలి	-9.7933
ాలయ	-9.79394
▁అవుతుంది	-9.7942
చేత	-9.79464
ైతే	-9.79467
▁కాపాడ	-9.79502
51	-9.79509
నప్పటికీ	-9.79512
▁at	-9.79585
▁శబ్ద	-9.79659
▁మనిషి	-9.7969
▁గణ	-9.79761
37	-9.79773
రాల	-9.79803
▁సత్	-9.79806
▁ఆక్రమించ	-9.79842
▁వేస	-9.7986
ుకోవడానికి	-9.79861
భాగం	-9.79934
▁దిగువ	-9.79979
▁పద్మ	-9.79996
▁హెచ్	-9.80001
నొ	-9.80008
36	-9.80042
ుంది	-9.80053
రన్	-9.80054
రాయి	-9.80075
▁రంగంలో	-9.80105
▁సర్వీసు	-9.80154
▁వెల్	-9.80157
▁జిల్లాలోని	-9.80207
పుర	-9.80255
▁నృత్య	-9.80371
క్షన్	-9.80391
గొట్ట	-9.804
▁భారత్	-9.80414
▁ఆమ్ల	-9.8042
▁45	-9.80462
ించు	-9.80482
ద్దు	-9.80551
▁యి	-9.80576
▁కోరిక	-9.80608
▁భీమ	-9.80633
▁ఖర్చు	-9.80653
▁టె	-9.80659
డాన్ని	-9.80705
▁యంత్ర	-9.80715
ుడికి	-9.80744
▁ఆస్ట్రేలియా	-9.80747
త్స	-9.80757
న్నారు	-9.8077
ంతి	-9.80774
▁ఉండగా	-9.80843
39	-9.80849
▁ప్రదేశం	-9.80872
దేశాల	-9.80888
▁కమిటీ	-9.80904
▁వారిలో	-9.80928
భేద	-9.80963
ect	-9.80982
▁ఇచ్చిన	-9.81026
వచ్చ	-9.81048
▁మధ్యలో	-9.81096
▁పరమ	-9.81113
▁జే	-9.81126
▁ఉపయోగించి	-9.81148
▁దైవ	-9.81163
▁పిల్లలు	-9.81193
▁ప్రయత్నించ	-9.81239
▁ప్రశ్న	-9.81325
▁రిపబ్లిక్	-9.81349
▁అనంత	-9.81382
రువు	-9.8139
శ్రీ	-9.81397
▁స్కూల్	-9.81407
కొన	-9.81452
ంటా	-9.8146
వాన్	-9.81478
ాంతర	-9.81538
▁చేరి	-9.81539
ట్రా	-9.81691
▁ప్రతీ	-9.81744
▁కర	-9.81746
గుంట	-9.8184
49	-9.81883
▁ఆలయంలో	-9.81947
శ్య	-9.81988
▁పర్యాటక	-9.82003
▁నిర్మాత	-9.82039
పూ	-9.8205
వలన	-9.82062
గీ	-9.82135
విద్య	-9.82249
▁అడుగు	-9.82337
sh	-9.82364
ేలా	-9.82459
▁మీటర్ల	-9.82474
▁సమయ	-9.82484
ర్తి	-9.82519
▁ప్లే	-9.8253
G	-9.82606
▁అన్నది	-9.82686
▁సుందర	-9.82707
▁పుట్టిన	-9.8271
దర్	-9.82745
▁ప్రాంతీయ	-9.82755
58	-9.82812
▁సభ్యుల	-9.82815
▁సాధించింది	-9.82864
▁పుణ్య	-9.82876
ంటారు	-9.82909
ల్ని	-9.82913
▁గతంలో	-9.82915
46	-9.82968
చేసిన	-9.82982
ానంద	-9.83
▁అందువలన	-9.83037
▁కొంతమంది	-9.83053
▁పండ	-9.83093
బడ్డాడు	-9.83118
▁మిలియన్ల	-9.8316
▁వాతావరణం	-9.83183
▁కాయ	-9.83222
▁స్వర	-9.83336
▁గంగ	-9.83338
▁సాంఘిక	-9.83379
ఫల	-9.83392
▁సాగు	-9.83411
▁క్రికెట్	-9.83447
▁కూడ	-9.8348
▁దర్శకుడు	-9.8365
▁మర	-9.83684
▁లకు	-9.83695
▁చెబుత	-9.83706
▁లాల్	-9.83724
▁రచనలు	-9.83729
▁అడుగుల	-9.83759
ia	-9.83767
కలు	-9.83797
పాడులో	-9.83878
▁ఉన్నా	-9.83932
▁పనిచేశాడు	-9.84063
రాన్	-9.84071
లింగ	-9.84078
▁నీటిని	-9.84138
▁ప్రాజెక్టు	-9.84153
▁దూరములో	-9.84189
▁స్త్రీలు	-9.84229
▁పార్	-9.84232
▁నాకు	-9.84236
▁నౌక	-9.84245
▁చంద	-9.84268
ta	-9.84359
▁అర్ధం	-9.84411
పత్తి	-9.84429
శు	-9.84474
▁వర్గం	-9.84475
▁చలనచిత్ర	-9.84513
మ్ము	-9.84554
▁స్వంత	-9.84595
ist	-9.84606
ఈ	-9.84662
లియా	-9.84673
మయ్య	-9.84688
▁వన	-9.84741
▁సొ	-9.84777
ముతో	-9.84864
▁వార్	-9.84865
▁విష	-9.84883
▁వహించ	-9.84915
ers	-9.84971
గూడెం	-9.85058
▁ప్రత్యేకంగా	-9.85076
మయ	-9.85106
▁యాత్ర	-9.85114
▁అంతా	-9.85147
om	-9.85154
▁వ్యవహరించ	-9.85164
▁పొందాడు	-9.85167
రిక్	-9.85202
యోగ	-9.85207
▁అఫ్	-9.85221
▁ముఖ్యమంత్రి	-9.85232
▁ప్రో	-9.85289
▁ఆమెను	-9.85305
▁అధికారం	-9.85386
▁ఏర్పడింది	-9.85415
▁లోహ	-9.85418
పాత్ర	-9.85457
▁పన్ను	-9.85481
▁పరిమిత	-9.85483
▁ఉండేవి	-9.85501
▁అక్షర	-9.856
సియా	-9.85661
▁చెరకు	-9.8569
▁సృష్టి	-9.85741
▁గణిత	-9.8575
పోయే	-9.85753
53	-9.85764
▁భూగర్భ	-9.85831
▁స్టేట్స్	-9.85923
▁అమరావతి	-9.85949
▁వాయు	-9.86005
వడం	-9.8611
▁ఫోర్	-9.86119
క్కి	-9.86158
రల్	-9.86176
▁పూర్వం	-9.86195
▁which	-9.86247
52	-9.86292
ాబాద్	-9.86301
▁ప్రాంతాన్ని	-9.86342
ంధ	-9.86359
▁మార్గ	-9.86359
▁చేసుకున్న	-9.86367
▁విషయంలో	-9.86385
▁నంది	-9.86412
టంతో	-9.86437
▁ఇలాంటి	-9.86469
ow	-9.86563
▁చెన్నై	-9.86564
▁నిర్ణయ	-9.8657
జన్	-9.8658
కింగ్	-9.8659
▁పురస్కారం	-9.86717
మర	-9.86752
▁శాస్త్రం	-9.86761
▁1980	-9.86765
38	-9.8677
em	-9.8677
నియన్	-9.86837
పరమైన	-9.86888
తలు	-9.86892
▁నటుడు	-9.8694
నాయక	-9.86996
▁కన్నడ	-9.87005
ంటూ	-9.87021
▁తెచ్చ	-9.87025
▁2012	-9.87029
▁ఏరియా	-9.87068
▁నాయక	-9.87135
▁హార్	-9.87193
▁ప్రయత్న	-9.87199
▁చారిత్రక	-9.87277
▁ఉందని	-9.87398
▁దేవాలయ	-9.87435
ద్ది	-9.87478
▁వంట	-9.87495
▁33	-9.87514
▁నిర్వహించిన	-9.87572
ay	-9.87624
▁పల్లె	-9.87647
పల్లిలోను	-9.87649
ఫర్	-9.87656
▁ఇతను	-9.87683
▁బరువు	-9.87708
▁ఊరి	-9.87737
59	-9.87766
di	-9.87864
సిస్	-9.87936
ఖ్	-9.8801
▁చలన	-9.88167
▁లండన్	-9.88183
▁పనిచేశారు	-9.88231
▁అధ్యక్షుడు	-9.88246
▁సున్న	-9.8831
▁ఫ్ర	-9.8832
నామ	-9.88384
రేట్	-9.88441
▁భావన	-9.88465
▁సాధించిన	-9.88552
▁అడ్డ	-9.88567
ve	-9.8857
▁దాన్ని	-9.88614
▁చేతిలో	-9.88618
▁పేర్లు	-9.8862
కృష్ణ	-9.88735
దశ	-9.88868
▁విభజించ	-9.88954
ఫీ	-9.88979
ెం	-9.89107
▁పారిశ్రామిక	-9.89142
▁కూర్చ	-9.89151
శీ	-9.89162
▁గ్రామీణ	-9.892
షీ	-9.89278
దార్	-9.89323
▁నివేదిక	-9.89336
▁ఉపయోగించే	-9.8941
ట్రో	-9.89412
▁మారు	-9.89589
ఆర్	-9.89678
▁కడప	-9.89712
▁కలిగించ	-9.89815
▁మనసు	-9.89832
▁తదితర	-9.89849
▁ఇంగ్లీషు	-9.89917
▁బర్	-9.90039
▁ఆమెకు	-9.90134
▁సంబంధిత	-9.90141
▁చివరకు	-9.90153
▁ఎవరి	-9.9017
యల్	-9.9022
▁పదార్థం	-9.90226
▁ఆమ్లం	-9.90274
▁ఫ్రెంచ్	-9.90295
▁తగ్గి	-9.90353
▁తేడా	-9.90396
కాంత	-9.90437
▁ప్రయత్నం	-9.9051
మ్స్	-9.90512
▁జైలు	-9.90564
మణి	-9.90598
▁ఇండియన్	-9.90611
వని	-9.90621
▁క్రీడా	-9.90621
▁దీప	-9.90673
▁విషయ	-9.90706
▁పరా	-9.90709
▁కలి	-9.90808
▁పలక	-9.90812
ఐ	-9.90815
దారు	-9.90847
▁విన	-9.90877
స్టి	-9.90901
ab	-9.90931
▁కేసు	-9.90943
ప్రా	-9.91099
▁దర్శక	-9.91105
దూ	-9.9115
శారు	-9.9119
ity	-9.91266
పాక	-9.91277
▁80	-9.91312
▁it	-9.91314
ష్ఠ	-9.91507
స్సు	-9.91508
బల	-9.91632
▁దశలో	-9.91746
▁దేశాలు	-9.91842
▁తయార	-9.91922
▁ఇరు	-9.91938
▁సేన	-9.92009
▁విడి	-9.92034
▁రథ	-9.92081
▁వేసి	-9.92136
op	-9.92139
▁దక్క	-9.92183
▁తగిన	-9.92184
▁జై	-9.9219
▁బాణ	-9.92206
▁పొడి	-9.92227
ారా	-9.92297
ac	-9.92306
▁అడవి	-9.92316
▁సమాచార	-9.92348
బడ్డారు	-9.92383
ge	-9.92385
▁మామిడి	-9.92411
▁మ్యాచ్	-9.9243
▁గాను	-9.9243
▁36	-9.92493
వైన	-9.92556
▁సంస్థల	-9.92605
వెన్	-9.9265
దృ	-9.92657
▁కార్యక్రమాలు	-9.92664
పడి	-9.92665
▁ఏర్పరచ	-9.92699
బడ్డ	-9.92749
ప్రాథమిక	-9.92764
కంటే	-9.92771
▁కరీంనగర్	-9.92831
▁హత్య	-9.92857
ca	-9.92864
▁డో	-9.9288
▁మిశ్రమ	-9.92947
ొక	-9.92979
▁ప్రాధాన్యత	-9.93017
▁ఆచార	-9.93042
ందా	-9.93045
▁నరసింహ	-9.93087
▁మార్పులు	-9.93126
దారుల	-9.93227
▁నెలల	-9.93271
▁మట్టి	-9.93278
▁నూ	-9.93296
▁వాహన	-9.93305
▁సోవియట్	-9.93336
నంద	-9.93344
వరంలో	-9.93357
ధ్వ	-9.93367
▁వర్ణించ	-9.93409
ైనా	-9.93415
భారత	-9.93485
▁సీత	-9.93512
▁పచ్చ	-9.93515
▁జనరల్	-9.93671
▁In	-9.9369
▁కార్యక్రమాల	-9.93691
▁లై	-9.93757
నూరు	-9.93758
తిని	-9.938
▁°	-9.9388
▁జాతుల	-9.93891
▁వరల్డ్	-9.93916
▁ఎఫ్	-9.93941
▁పనిచేస్తున్న	-9.93979
▁యజ్ఞ	-9.94014
క్సి	-9.94017
▁అగ్ర	-9.94046
▁దీ	-9.9407
▁మళ్ళీ	-9.94121
est	-9.94192
▁ప్రథమ	-9.94244
గత	-9.94251
▁కోర్టు	-9.94255
గన్	-9.94356
▁ఛ	-9.94366
ుతుందని	-9.94371
▁కుటుంబం	-9.94418
▁నంద	-9.94446
శాఖ	-9.94503
▁వేంకట	-9.94543
▁అందుకే	-9.94561
▁నిల్వ	-9.94629
▁మాన్	-9.94636
▁పవిత్ర	-9.94673
▁సేవలు	-9.94697
▁నిజామాబాద్	-9.9473
▁తిన	-9.94732
ెంట్	-9.94738
▁బౌ	-9.94739
పులు	-9.94788
థ్	-9.94797
▁సింహ	-9.94814
▁రేఖ	-9.94831
▁సాధ్య	-9.94862
సన	-9.9494
పేటలో	-9.94958
కృత	-9.94971
ుకుంటూ	-9.94976
▁సామెత	-9.95056
▁పోషించ	-9.95076
మాల	-9.95121
▁తెలి	-9.95139
▁ఉద్దేశ	-9.95162
హీ	-9.95204
▁స్వా	-9.95206
కంగా	-9.95216
▁గ్రీకు	-9.95243
▁వరుస	-9.95289
000	-9.95298
ధర్మ	-9.95318
ంటె	-9.95328
▁జరిగాయి	-9.95358
▁రావ	-9.95367
రాం	-9.95375
▁అంగ	-9.9538
▁వస్తువు	-9.95382
▁అధికారిక	-9.95405
▁వయసు	-9.95413
ారం	-9.95436
▁ఇంద్ర	-9.95455
▁దేవి	-9.95459
▁కనిపించే	-9.95541
▁2003	-9.95579
▁దేవత	-9.95592
▁మరణించ	-9.95599
ant	-9.95604
▁పాలు	-9.95613
▁అందరి	-9.95657
▁దిగ	-9.95674
సార	-9.95701
57	-9.9571
▁ప్రవక్త	-9.95743
జీవ	-9.95749
▁మాజీ	-9.95772
▁మనకు	-9.95792
▁పెడ	-9.95799
▁పొర	-9.95825
దారులు	-9.95833
▁నిత్య	-9.95834
▁జానపద	-9.95925
▁బార్	-9.95937
బొ	-9.95963
▁ఉదాహరణ	-9.95991
▁పరిపాలన	-9.95997
▁వచ్చాయి	-9.96032
ధ్	-9.9605
▁ఉద్	-9.96143
ర్ధ	-9.96147
▁కొనసాగించ	-9.96148
ణీ	-9.96162
▁వృద్ధి	-9.96164
up	-9.96279
▁కాన్	-9.96343
▁దర్శకత్వంలో	-9.9636
▁ma	-9.96537
▁ఎన్నిక	-9.96598
ెన్	-9.96599
▁జగ	-9.96611
▁అలీ	-9.96651
క్షేత్ర	-9.96668
డియా	-9.96688
టల్	-9.96697
దార	-9.96758
▁ఉష్ణ	-9.9676
డ్స్	-9.9683
▁కన్న	-9.96851
▁తీసుకుని	-9.96987
▁భవన	-9.97021
ోత్సవ	-9.97038
ాల్సిన	-9.9706
దర్శన	-9.97081
ుడై	-9.97086
▁లోక	-9.97101
▁విస్తరించ	-9.97133
▁రాణి	-9.97149
▁గుర	-9.97169
▁పెట్టి	-9.9717
▁సంస్కరణ	-9.97208
రొ	-9.97238
▁వీరికి	-9.97261
age	-9.97263
రాలు	-9.97264
▁కప్ప	-9.97342
బడుతున్న	-9.97378
lo	-9.97404
▁స్నేహితు	-9.97418
▁అంతే	-9.97451
ci	-9.97451
▁ఘ	-9.97452
స్థాయి	-9.97465
▁ఓడ	-9.97524
నాధ	-9.97538
▁ఒకటిగా	-9.97541
▁ప్రతిపాదించ	-9.97583
▁సెంటర్	-9.97595
▁ఇచ్చే	-9.97656
▁ద్వీప	-9.97678
▁సుఖ	-9.97692
▁this	-9.97729
▁గోపాల	-9.97785
▁సంస్థాన	-9.97801
▁వుండును	-9.97818
ారంలో	-9.9788
▁1970	-9.97898
ఛ	-9.97989
▁క్లా	-9.97999
▁వెళ్లి	-9.98042
▁అడవుల	-9.98082
▁సిటీ	-9.98085
కాశ	-9.98087
యస్	-9.98098
యము	-9.98162
సులు	-9.98181
▁వాతావరణ	-9.98259
▁జైన	-9.98263
▁మొదలగు	-9.98299
▁ఏర్పడ	-9.98402
్ని	-9.98428
సింగ్	-9.98443
▁గుండె	-9.98444
▁రక్షించ	-9.98481
పోయాడు	-9.98548
▁రోగ	-9.98574
▁బహుమతి	-9.98588
▁తీసి	-9.9859
ందో	-9.98644
▁ప్యా	-9.98668
ార్ధ	-9.98683
▁వచ్చ	-9.98686
▁స్థాపించ	-9.9875
▁దర్	-9.98766
▁నాట్య	-9.98784
▁బెంగాల్	-9.9881
▁ఇచ్చి	-9.98841
▁తీవ్ర	-9.98876
ుకుంటున్న	-9.98954
▁కంది	-9.98958
▁వివరణ	-9.98982
▁చేపట్ట	-9.99005
▁ప్రారంభంలో	-9.99032
▁పొట్టి	-9.9904
▁హాస్య	-9.99086
per	-9.99102
▁వ్యాసాల	-9.99109
▁పోరాట	-9.99184
▁సమాచారం	-9.99214
తికి	-9.99222
▁సంబంధించి	-9.99231
▁పాల్గొన	-9.9929
▁పర్యావరణ	-9.99296
▁సంపద	-9.99325
▁తత్వ	-9.99326
ంక్	-9.99352
▁పనులు	-9.9937
▁శాస్త్రవేత్త	-9.99389
▁కేంద్రంగా	-9.99416
సంబంధ	-9.99474
▁శైలి	-9.9948
▁పాలనలో	-9.99489
▁వాడి	-9.99499
పంచ	-9.99519
▁సంకేత	-9.99599
భూ	-9.99622
▁తమిళనాడు	-9.99689
▁మానసిక	-9.99712
bo	-9.99736
▁పరిణామ	-9.99787
▁ఆయా	-9.99798
▁చెప్పి	-9.99822
▁రోజున	-9.99867
res	-9.99932
▁విద్యుత్తు	-9.99962
▁ఎటువంటి	-9.99999
▁విప్లవ	-10.0002
▁సహాయం	-10.0002
▁వృత్త	-10.0004
▁వేదిక	-10.0017
పాలెంలో	-10.0018
▁జంతువుల	-10.0021
▁తేదీన	-10.0026
గణ	-10.0029
షియ	-10.0036
▁వెబ్	-10.0036
▁జరిప	-10.0041
▁రాతి	-10.0042
▁కార్యక్రమం	-10.0043
▁నటించిన	-10.0044
▁మన్	-10.0044
▁పార	-10.0048
▁శ్రీలంక	-10.0053
▁క్ల	-10.0053
▁వేర్	-10.0056
▁ఖా	-10.0056
ఖ్య	-10.0058
▁కెనడా	-10.0062
▁నాయకుడు	-10.0068
తకు	-10.0071
lu	-10.0074
▁చూపించ	-10.0075
▁దివ్య	-10.0078
▁రొ	-10.0083
▁మహారాష్ట్ర	-10.0083
▁నెట్	-10.0084
వల్	-10.0097
లాండ్	-10.01
▁పనిచేయ	-10.01
▁నిర్మల్	-10.0104
▁మొక్కల	-10.0104
▁pro	-10.0105
పోయాయి	-10.0112
▁వివర	-10.0113
▁ఇచ్చారు	-10.0113
▁వాస్తవ	-10.012
▁వెళ	-10.0122
▁నటి	-10.0126
కొని	-10.0127
▁భూభాగం	-10.0128
ట్లుగా	-10.013
జ్ఞాన	-10.0131
▁నటన	-10.0138
నుంచి	-10.0139
▁ఆధ్వర్యంలో	-10.0139
▁సరైన	-10.0145
▁రకం	-10.0146
▁లోక్	-10.015
▁బ్రిటన్	-10.0151
▁అధ్యయన	-10.0165
గొండ	-10.0167
▁అమెరికాలో	-10.0167
▁విషయాల	-10.0168
▁పరిధిలోకి	-10.0174
▁మిరప	-10.0174
▁ఉపాధ్యాయ	-10.0177
కట్ట	-10.0182
▁ఉద్యమం	-10.0183
▁విద్యార్థులు	-10.0183
▁నేర్చ	-10.0186
రుగా	-10.0188
▁గానీ	-10.0196
▁విభాగ	-10.0196
▁37	-10.02
▁ఇంటర్	-10.0202
▁ఎక్క	-10.0206
గ్గు	-10.0208
▁ఉన్నప్పటికీ	-10.0214
▁వచ్చారు	-10.0222
▁తెలిసిన	-10.0222
▁co	-10.0223
▁నీల	-10.0226
నున్న	-10.0229
కారుల	-10.0231
▁సాహిత్యం	-10.0232
▁కనుగొన	-10.0234
▁ఉన్నట్లు	-10.0236
▁వీడియో	-10.0237
▁సంపాదక	-10.024
రస్	-10.0242
ul	-10.025
స్తుందని	-10.0251
W	-10.0252
▁నివసించ	-10.0255
▁ఉండడం	-10.0256
▁నిలిచి	-10.0256
▁మరణం	-10.0258
▁లోపల	-10.0265
ea	-10.0271
పైన	-10.0273
▁వాడుకలో	-10.0279
end	-10.0283
▁మండ	-10.0289
ఫై	-10.029
▁డివిజన్	-10.0298
▁క్రీడ	-10.03
చ్చే	-10.0309
స్వ	-10.0321
సెస్	-10.0322
తిక	-10.0329
బాటు	-10.0344
▁కథా	-10.0345
▁శ్రీనివాస	-10.0353
▁పులి	-10.0361
▁రాజ్యాంగ	-10.0361
పోవ	-10.0362
▁రుద్ర	-10.0374
▁ex	-10.0379
▁సెల్	-10.038
దేశం	-10.0386
▁ఆప	-10.0388
హర	-10.0388
▁చేయుట	-10.0393
▁ఇటువంటి	-10.0394
▁సోదర	-10.0394
▁డాక్టర్	-10.0398
▁క్రమంగా	-10.0399
ish	-10.0402
▁జీవితంలో	-10.0409
మూరు	-10.0412
వేష	-10.0413
గ్రహ	-10.0417
▁ధర్మరాజు	-10.0422
▁స్వరూప	-10.0423
య్యారు	-10.0423
▁కై	-10.0426
▁ఆకాశ	-10.0426
▁ప్రైవేట్	-10.044
▁వాళ్ళ	-10.0441
▁స్థానాల	-10.0442
{	-10.0446
▁తీయ	-10.0447
▁శిలా	-10.0456
▁లీగ్	-10.0461
ga	-10.0462
▁యో	-10.047
▁పాత్రలు	-10.0473
▁మల్	-10.0473
▁గ్రంథం	-10.0474
▁సంభవించ	-10.0478
▁||	-10.0481
▁రాష్ట్రంలోని	-10.0484
▁పోరాడ	-10.0484
▁సభ్య	-10.0486
▁గజ	-10.0492
||	-10.0497
మయ్యాయి	-10.0499
మవుతుంది	-10.0505
▁వ్య	-10.0507
▁ప్రాంతానికి	-10.0508
ేరు	-10.0515
▁పుస్తకాల	-10.0516
▁భావిస్తారు	-10.0523
▁కళ్యాణ	-10.0526
▁ఎనిమిది	-10.0527
షణ	-10.0527
స్త్ర	-10.053
బూ	-10.0531
ఖండ	-10.0532
▁ప్రాముఖ్యత	-10.0533
▁రాజమండ్రి	-10.0535
▁ఇప్పటి	-10.0539
▁సర	-10.0541
▁వైవిధ్య	-10.0547
ుకోవచ్చు	-10.055
కథ	-10.055
▁శక్తిని	-10.0551
▁బయటకు	-10.0554
▁విస్తీర్ణం	-10.0556
▁34	-10.056
భ్ర	-10.056
▁రోజుల్లో	-10.0561
ైంది	-10.0563
▁నదీ	-10.0564
▁విశ్వవిద్యాలయ	-10.0564
-2	-10.0573
మంత	-10.0576
▁విద్యార్థి	-10.0579
ష్ణ	-10.058
ాలపై	-10.058
▁లక్ష్మణ	-10.0581
▁డిస్	-10.0582
▁మెరుగు	-10.0585
దాసు	-10.0587
▁పేద	-10.0587
▁అణు	-10.0588
▁స్టీ	-10.0591
▁కత	-10.0598
▁దర్శించ	-10.06
▁రాజ్	-10.0606
▁యూరోపియన్	-10.0608
ండీ	-10.0608
▁హే	-10.0609
ుతున్నాయి	-10.0613
లపాడు	-10.0615
▁మిల్	-10.0615
▁మిగతా	-10.0616
ంటాడు	-10.0617
▁పోత	-10.0619
▁కాశీ	-10.0619
ne	-10.0619
▁డబ్బు	-10.062
చ్చిన	-10.0624
యైన	-10.0625
▁సంఖ్యలో	-10.063
▁మరణించాడు	-10.063
▁వస్తున్న	-10.0631
సమ	-10.0638
ిణి	-10.0641
he	-10.0643
▁శాస్త్రి	-10.0644
▁US	-10.0651
▁పోలీసు	-10.0653
ర్యా	-10.0662
▁గుహ	-10.0664
▁ఏదైనా	-10.0668
oc	-10.067
▁ప్రి	-10.0672
▁లక్షణాలు	-10.0674
▁బెర్	-10.0681
ుచున్న	-10.0682
▁వీరిలో	-10.0689
మంతా	-10.0689
వేద	-10.0692
▁ఆధ్యాత్మిక	-10.0693
▁విధించ	-10.0696
j	-10.0697
▁వేడుక	-10.0702
▁వ్యక్తుల	-10.0708
ుతాడు	-10.0708
▁2002	-10.0711
▁వద్దకు	-10.0712
▁వెంట	-10.0713
▁అనకాపల్లి	-10.0717
▁నిర	-10.0723
▁ఏనుగు	-10.073
▁సైన్య	-10.0732
▁1999	-10.0736
▁పద్ధతిలో	-10.0739
▁ప్రపంచంలోని	-10.0739
▁ఒక్కొక్క	-10.0743
▁పురుషులు	-10.0746
ధార	-10.0754
▁చేస	-10.0765
▁సందర్శించ	-10.0774
▁రోమన్	-10.0776
▁ఒకసారి	-10.0776
▁గే	-10.078
ురాలు	-10.0783
▁శ్రీరామ	-10.0787
▁అందరూ	-10.0792
▁తీసుకున్న	-10.0795
▁వ్యా	-10.0798
▁రహస్య	-10.0799
▁ఆశ	-10.0799
▁జరుగుతున్న	-10.0801
కారులు	-10.0804
చర్ల	-10.0804
ాలంటే	-10.0817
పట్నం	-10.082
▁గంగా	-10.0821
▁సన్న	-10.0827
▁అప్ప	-10.083
▁లక్ష్య	-10.0832
▁విగ్రహం	-10.0835
▁అశ్వ	-10.0836
ండును	-10.084
▁మాస	-10.0846
తంత్ర	-10.0848
▁మిత్ర	-10.0848
▁సెయింట్	-10.0848
▁ఉనికి	-10.0849
ఫే	-10.0857
▁అమర్చ	-10.086
▁పోరాటం	-10.0862
▁ట	-10.0863
▁ముందుకు	-10.0867
▁ఆరంభ	-10.0871
▁ప్రతిభ	-10.0873
లుగు	-10.0876
▁స్వాధీనం	-10.0876
ry	-10.0877
▁దుకాణాలు	-10.0878
ందరి	-10.0879
▁స్వయంగా	-10.0889
ak	-10.0892
లొ	-10.0897
▁అనుకూల	-10.0897
ములకు	-10.0899
▁అష్ట	-10.09
▁భాగాల	-10.0902
▁మౌ	-10.0904
▁రాక్షస	-10.0909
▁చేసుకుని	-10.0916
▁1960	-10.0918
▁చూసిన	-10.0921
శీల	-10.0924
▁కనబడ	-10.0927
▁ఫో	-10.0933
▁అంశాల	-10.0937
▁పాల్	-10.0938
▁చౌ	-10.0939
▁టెలివిజన్	-10.094
నింగ్	-10.0941
▁చెరువులు	-10.0941
▁రామారావు	-10.0942
▁ఫ్రాన్స్	-10.0944
ున్నారు	-10.0947
▁ప్రకాశ	-10.0951
చ్చు	-10.0953
▁పాడేరులోనూ	-10.0959
▁ఉన్నప్పుడు	-10.0967
▁మంచు	-10.0971
▁తిరుగు	-10.0974
▁ఎన్న	-10.0977
ించడానికి	-10.098
▁ప్రోత్సహించ	-10.0981
▁కలుగ	-10.0983
▁సందేశ	-10.0985
య్యే	-10.0986
దైన	-10.0989
▁దండ	-10.0989
▁సాయం	-10.099
▁లభించ	-10.0991
▁చెల్లించ	-10.0993
▁కొనుగోలు	-10.1002
ుకుంటుంది	-10.1003
న్నాడు	-10.1006
▁విశిష్ట	-10.1006
▁ఉప్పు	-10.101
ేష్	-10.1011
▁లాభ	-10.1016
▁70	-10.1027
ive	-10.1027
ag	-10.1035
▁రద్దు	-10.1035
▁ప్రారంభించ	-10.1037
రింగ్	-10.1038
▁కావలసిన	-10.1044
▁దేవతల	-10.1047
▁అలాంటి	-10.1052
▁తీసుకొ	-10.1054
▁నాటకం	-10.1054
దగిన	-10.106
▁రాస	-10.1061
▁తీసుకొని	-10.1062
తృ	-10.107
▁38	-10.107
▁ముద్ర	-10.1071
▁not	-10.1073
▁తూర్పున	-10.1074
▁క్లబ్	-10.1076
వంతమైన	-10.108
▁1950	-10.1088
త్రి	-10.1095
▁సమితి	-10.1095
▁జారీ	-10.1096
▁విభాగం	-10.1103
▁విభిన్న	-10.1103
▁బానిస	-10.1104
▁2014,	-10.1112
ప్రాంత	-10.1112
▁సూచి	-10.1112
▁కొత్తగా	-10.1115
ver	-10.1117
▁ప్రభ	-10.1119
చిత్ర	-10.1121
▁రాయి	-10.1125
▁సరస్సు	-10.1125
▁తీర్చ	-10.1131
ష్టి	-10.1131
మ్మి	-10.1131
టరీ	-10.1132
పక్ష	-10.1135
ుతోంది	-10.1142
▁శాశ్వత	-10.1146
▁చెప్పారు	-10.1146
▁కేరళ	-10.115
▁తాము	-10.1159
▁ట్రా	-10.1162
ప్రపంచవ్యాప్తంగా	-10.1163
రాష్ట్ర	-10.1174
ine	-10.1174
▁ఇజ్రాయిల్	-10.1176
▁2015,	-10.1176
▁కర్	-10.1177
నాథ్	-10.118
style	-10.118
▁గూడూరు	-10.1185
▁లతో	-10.1185
▁జవాహర్	-10.1188
▁విధమైన	-10.119
కృతి	-10.1196
ింపబడ	-10.1197
ధ్ధ	-10.1211
▁గమనించ	-10.1211
▁తీవ్రమైన	-10.1215
▁సీతారామ	-10.122
▁ప్రత్యేకత	-10.1222
▁మండలాలు	-10.1222
ell	-10.1239
పాయ	-10.1239
▁శంకర	-10.1262
-20	-10.1263
ప్పటి	-10.1265
▁42	-10.1267
▁వుంటుంది	-10.1268
▁వరుసగా	-10.1269
ap	-10.1269
▁చిక్క	-10.1273
▁గురి	-10.1281
లక్ష్మి	-10.1281
▁ప్రత్యేకమైన	-10.1286
▁గౌ	-10.1287
▁ప్రేక్షకుల	-10.1287
▁స్టేట్	-10.1297
▁అమ్మవారి	-10.13
కన్	-10.1302
ాపురంలో	-10.1304
ill	-10.1304
▁సూచిస్తుంది	-10.131
▁పర్	-10.1312
▁2015	-10.1315
ంటాయి	-10.1316
లోనికి	-10.1318
▁విధానాల	-10.1324
▁వాద	-10.1326
వాటి	-10.1326
▁భక్తుల	-10.1328
నార్	-10.1331
▁ఏమి	-10.1334
▁ఇటీవల	-10.1337
▁చేసుకుంట	-10.1351
▁హౌస్	-10.1355
▁నాయుడు	-10.1361
▁చదువ	-10.1363
భూత	-10.137
▁దేశంలోని	-10.1373
ంచె	-10.1375
▁నటించారు	-10.1376
ర్థ	-10.1379
టువంటి	-10.138
▁కనీసం	-10.1381
▁అందిస్తుంది	-10.1384
▁సీజన్	-10.1389
▁ప్రభావితం	-10.1389
▁హాజర	-10.139
▁శతాబ్దాల	-10.1393
ాంశ	-10.1396
▁ప్రదర్శ	-10.1398
▁రోడ్	-10.1399
ణ్	-10.14
రిగి	-10.1402
పూరు	-10.1406
▁పనిచేసే	-10.1406
లెట్	-10.1407
వాదం	-10.1412
వెల్	-10.1419
దత్త	-10.1421
▁పుత్ర	-10.1422
▁నార్	-10.1424
▁సింగ	-10.1425
▁శ్రీరాములు	-10.1427
గతి	-10.1429
▁చాలామంది	-10.1431
▁ఒప్పంద	-10.1438
యాత్ర	-10.1449
▁నడి	-10.146
▁కొనసాగింది	-10.1464
▁విని	-10.1469
▁జర్మన్	-10.147
▁బూ	-10.1471
▁ప్రారంభించాడు	-10.1473
▁వార్త	-10.1476
▁చేస్తాయి	-10.1477
మూల	-10.1483
▁తరచూ	-10.1485
▁మరల	-10.1487
▁హక్కు	-10.1492
యొక్క	-10.1493
హర్	-10.1493
▁రామకృష్ణ	-10.1495
ాత్మ	-10.1506
▁వేగంగా	-10.1508
ర్చి	-10.151
▁రాష్ట్రాల	-10.1514
▁చివరికి	-10.1522
▁నటించ	-10.1524
పేరు	-10.1528
టూ	-10.1528
▁హక్కుల	-10.1536
టక	-10.1545
▁పైకి	-10.1546
▁200	-10.155
▁ప్రమాణ	-10.1552
▁నిలువ	-10.1552
▁అధి	-10.1553
▁ఆదాయం	-10.1553
▁బ్రి	-10.1558
కూడా	-10.156
భక్త	-10.1561
▁చార్	-10.1562
▁ఆశ్రమ	-10.1567
ho	-10.1569
కరించ	-10.1574
▁కాకినాడ	-10.1574
▁కురు	-10.1576
ంపేట	-10.1578
▁వయసులో	-10.1582
▁విజయనగర	-10.1582
▁అవసర	-10.1583
▁రామచంద్ర	-10.1583
▁కార్యాలయ	-10.1584
▁కోర్	-10.1594
▁హృదయ	-10.1595
▁బొమ్మ	-10.1599
ుచు	-10.1603
▁సెంట్రల్	-10.1603
మల్	-10.1603
▁సాధించాడు	-10.1605
▁ఋణ	-10.1606
కాని	-10.1607
వలె	-10.1607
▁పునర్	-10.1623
మైనవి	-10.1624
▁స్కా	-10.1624
మయ్యే	-10.1624
విన్	-10.1625
▁me	-10.1627
బోధ	-10.1628
యిన్	-10.1631
యాన	-10.1631
▁బలమైన	-10.1635
యీ	-10.1637
▁పేర్కొన	-10.164
▁విడ	-10.1641
బడు	-10.1643
▁రూపం	-10.1646
బడుతున్నాయి	-10.165
ాంధ్ర	-10.1651
▁మార్గము	-10.1651
పోతున్న	-10.1653
▁బెల్	-10.1653
▁తరలించ	-10.1655
స్థితి	-10.1656
▁అంబ	-10.1657
శం	-10.1658
గలదు	-10.1659
▁విఫల	-10.1659
▁నష్ట	-10.1667
▁ప్రచురణ	-10.1671
ధాన	-10.1674
▁దాన	-10.1675
▁వయస్సు	-10.1676
▁సంవత్సర	-10.1685
▁సంతోష	-10.1687
▁పరిగణించ	-10.1691
▁నిలిచింది	-10.1692
▁క్రా	-10.1693
▁నాటు	-10.1693
ోప	-10.1696
ాభి	-10.1698
▁పద్య	-10.1701
▁తిమ్మ	-10.1704
▁బిల్	-10.1705
▁సస్యరక్షణ	-10.1706
ధారణ	-10.1708
▁చేతుల	-10.171
ల్యాండ్	-10.1711
▁బహుళ	-10.1712
గురు	-10.1712
▁రాజులు	-10.1717
ెదరు	-10.1722
▁అంతరిక్ష	-10.1724
▁ఉండదు	-10.1725
▁వాటికి	-10.1731
▁రకమైన	-10.1734
▁మొక్కలు	-10.1743
▁పెట్టారు	-10.175
య్యా	-10.1751
▁ఆధార	-10.1753
ిరెడ్డి	-10.1755
▁ఏకైక	-10.1755
▁ప్రయాణం	-10.1758
▁ఎన్నికల	-10.1759
▁బ్లాక్	-10.176
క్ట్	-10.1761
▁విష్ణువు	-10.1766
▁ప్రాంతము	-10.1767
▁భక్త	-10.1768
▁కొమ్మ	-10.1769
▁వస్త్ర	-10.1776
▁భుజ	-10.1777
నట్లు	-10.1781
▁మద	-10.1782
▁పార్లమెంటు	-10.1783
▁నీకు	-10.1788
▁కాలేదు	-10.1789
▁పక్క	-10.1789
▁ప్రతిష్ఠ	-10.1789
▁నర	-10.179
▁వేట	-10.1791
ted	-10.1795
▁రచనల	-10.1796
▁వుండే	-10.1797
▁మించి	-10.18
రుగ	-10.181
తీర్థ	-10.181
▁ఏలూరు	-10.1812
▁ఉత్తరాన	-10.1815
▁ప్ల	-10.1817
▁కారు	-10.1819
చై	-10.1821
▁ప్రజాదరణ	-10.1828
దురు	-10.183
▁ద్వీపం	-10.1836
▁దేశానికి	-10.1836
ింపు	-10.1845
▁అంటూ	-10.185
డెన్	-10.186
▁అంతర్గత	-10.1865
▁సిద్ధాంతం	-10.1866
▁నగరానికి	-10.1869
ట్ర	-10.1872
▁పొంది	-10.1879
▁షె	-10.1881
▁ప్రఖ్యాత	-10.1881
▁స్వల్ప	-10.1887
▁పేర్కొన్నారు	-10.1893
త్రా	-10.1896
ుకొనే	-10.1897
▁వ్రాస	-10.1899
▁ప్రాచుర్యం	-10.19
ధీ	-10.1903
▁కొవ్వు	-10.1911
▁సరిహద్దులో	-10.1915
▁నిబంధన	-10.192
▁సూపర్	-10.1921
iv	-10.1921
హరి	-10.1923
▁పేర	-10.1924
da	-10.1924
ion	-10.1924
▁హాల్	-10.1928
▁ఉదా	-10.1928
▁వర్గ	-10.193
▁హీ	-10.193
రియల్	-10.1935
చాడు	-10.1936
our	-10.1937
▁పేరును	-10.1937
▁తెచ్చి	-10.1937
▁ఉద్యోగం	-10.1938
▁ఒక్కో	-10.1944
▁56	-10.1947
▁స్వాతంత్ర్యం	-10.1949
▁ఆర్ధిక	-10.195
co	-10.1952
▁సందర్భంలో	-10.1955
▁శిష్య	-10.1955
ast	-10.1959
▁కూర	-10.1961
▁నక్షత్రం	-10.1961
ేశ	-10.1961
▁ప్రకటించింది	-10.1967
▁ఇండో	-10.1969
▁ఎండ	-10.197
ిందని	-10.1972
▁వచ్చాడు	-10.1973
ంద్ర	-10.1976
▁అభిప్రాయం	-10.1981
▁ప్రారంభమైంది	-10.1984
▁దొ	-10.1988
టికి	-10.1993
▁వసతి	-10.1994
code	-10.1995
ళ్	-10.1999
ంబర్	-10.2001
▁కింగ్	-10.2001
ear	-10.2002
▁ప్రియ	-10.2005
కేంద్ర	-10.2006
▁షో	-10.2006
▁1947	-10.2009
▁సమర్పించ	-10.2016
స్టో	-10.2017
▁నాగరికత	-10.2026
▁జనతా	-10.2026
▁ఫ్రెంచి	-10.2027
▁కుమార్	-10.2027
▁విద్యార్థుల	-10.2028
ఘా	-10.2041
▁లేదని	-10.2042
పడింది	-10.2044
▁పరిధి	-10.2045
షియా	-10.2051
▁ఉచిత	-10.2057
▁జరిగి	-10.2058
▁తార	-10.2058
▁లోనే	-10.2059
▁పరిమాణ	-10.206
ల్లీ	-10.2061
▁విషయాలు	-10.2063
▁తరఫున	-10.2063
▁90	-10.2068
ికా	-10.2068
▁శరీరం	-10.2069
బంధ	-10.2069
గ్రామ	-10.207
▁బుక్	-10.2072
▁పదార్థాల	-10.2079
▁కనిపిస్తాయి	-10.2079
▁ఫోటో	-10.2089
▁నిర్దిష్ట	-10.2096
యున్న	-10.2101
▁కాలువలు	-10.2101
డింగ్	-10.2102
ig	-10.2103
ళ్ళలో	-10.2103
▁వినియోగించ	-10.2104
▁li	-10.2106
▁జన్మించిన	-10.2106
▁చేసేందుకు	-10.2115
సార్లు	-10.2116
▁టే	-10.2117
దాన	-10.2119
▁ఆకర్షణ	-10.2119
▁దంపతులకు	-10.2124
▁అంశం	-10.2132
no	-10.2132
▁సలహా	-10.2133
▁సమర్థ	-10.2135
▁జంట	-10.2135
▁రాం	-10.2138
శేష	-10.214
బియా	-10.2141
▁కవిత	-10.2146
▁అధికారులు	-10.2147
త్వాన్ని	-10.2148
▁యుగ	-10.2152
▁సుర	-10.2152
▁మెదక్	-10.2157
జాతి	-10.2163
సింహ	-10.2164
రాజ్	-10.2164
▁వార్షిక	-10.2166
లియన్	-10.2167
ష్య	-10.2169
▁ధరించ	-10.217
▁గృహాల	-10.2172
టిల్	-10.2173
▁మీదుగా	-10.2174
స్తున్నారు	-10.2177
▁విభజన	-10.2187
▁ముందే	-10.219
క్టర్	-10.2192
▁బదులుగా	-10.2194
▁ఉదయం	-10.2194
▁ద్రవ్య	-10.2196
▁అంతర్	-10.2196
గోళ	-10.22
▁బాబా	-10.2203
వ్యవస్థ	-10.2211
▁వందల	-10.2219
▁రాఘవ	-10.2223
▁భాషలలో	-10.2224
కుమార	-10.2236
విధ	-10.2237
▁ప్రార్థన	-10.2238
పోవడం	-10.2245
▁భౌగోళిక	-10.2251
▁రత్న	-10.2258
▁కావడం	-10.2258
ంభ	-10.2266
▁క్రో	-10.2268
▁పార్క్	-10.2268
▁లెక్క	-10.2275
▁చేయాలని	-10.2277
▁సర్పంచిగా	-10.228
▁శుద్ధ	-10.228
ాలన్న	-10.2284
▁వంతెన	-10.2285
▁తెలుగుదేశం	-10.2286
▁లోపలి	-10.2288
▁తప్పు	-10.229
▁39	-10.2291
య్యాయి	-10.2292
▁తెనాలి	-10.2294
▁కీలక	-10.2297
▁తెగ	-10.2299
▁స్టార్	-10.2299
దళ	-10.23
▁ప్రతిపాదన	-10.2304
వద్ద	-10.2317
▁రౌ	-10.2317
▁అనీ	-10.2318
▁కంప	-10.2321
ువాడు	-10.2323
▁ఫ్ల	-10.2325
▁చేయు	-10.2326
▁సమాధి	-10.2327
చేశారు	-10.2336
▁వివరాలు	-10.2338
▁అణువు	-10.2341
గిన	-10.2341
sa	-10.2342
▁వారసత్వ	-10.2342
▁రావడం	-10.2351
బెర్	-10.2358
▁పాలి	-10.2364
క్యు	-10.2367
▁శతక	-10.2375
▁సినిమాలు	-10.2376
రహిత	-10.2379
▁శ్రేణి	-10.238
▁తపస్సు	-10.2381
▁పదాల	-10.2383
▁పుస్తకాలు	-10.2388
పడ్డారు	-10.2392
బ్రా	-10.2393
▁ఎదుర్కొ	-10.2394
▁జనాభాలో	-10.2394
▁వాదన	-10.2399
డుతూ	-10.2401
▁మంగళ	-10.2401
తనం	-10.2402
▁పెరిగింది	-10.2403
▁హీరో	-10.2404
▁డ్ర	-10.241
ిస్తున్నాయి	-10.2411
od	-10.2414
▁44	-10.2423
▁విధానాన్ని	-10.2425
▁చేరుకున్న	-10.2427
వలస	-10.2432
లెక్	-10.2435
హే	-10.2439
▁ఎదుర	-10.2439
fe	-10.244
చేసే	-10.244
▁సముద్రం	-10.2441
జయ	-10.2441
▁అనుమతించ	-10.2448
▁రాజుల	-10.2448
-19	-10.2458
▁దొంగ	-10.2459
▁1991	-10.246
వర్మ	-10.2461
▁స్థాపించారు	-10.2461
▁పరిమాణం	-10.2463
కోణ	-10.2465
▁ప్రకారము	-10.2465
▁విశ్వాస	-10.2469
▁గార్	-10.2473
▁ఆచార్య	-10.2475
▁అతనిని	-10.2477
su	-10.2478
▁వేయుట	-10.248
▁అప్పటికే	-10.2484
▁కొంతకాలం	-10.2487
▁చేరాడు	-10.249
▁మంచిర్యాల	-10.2497
▁మహర్షి	-10.2498
యింది	-10.2499
▁ఫీ	-10.25
▁సమాజం	-10.2501
://	-10.2506
▁ఉపయోగపడ	-10.2507
▁ఏదో	-10.2508
▁అనుసరించ	-10.2508
వర్ణ	-10.2511
▁చేయబడ్డాయి	-10.2518
ములోని	-10.252
▁మాన	-10.2521
▁ప్రారంభించింది	-10.2522
▁ప్రే	-10.2526
▁కాలేజీ	-10.2526
▁బిరుదు	-10.2526
మిక్	-10.2527
▁రూపకల్పన	-10.2531
▁అదనంగా	-10.2531
▁అక్క	-10.2531
▁పనుల	-10.2544
▁ప్రసాద్	-10.2547
▁అకాడమీ	-10.255
▁సీతా	-10.2551
వల్లి	-10.2552
▁బృంద	-10.2566
▁సత్యనారాయణ	-10.2566
▁బాబు	-10.2566
▁విషయాన్ని	-10.2567
ఓ	-10.2571
▁బ్యాంక్	-10.2571
▁తెలుస్తుంది	-10.258
ాచార్య	-10.2585
▁తను	-10.2589
▁రూపాయల	-10.259
ందరూ	-10.2593
▁పట్టా	-10.2594
డ్డు	-10.2598
▁అటు	-10.2601
▁వ్యాపారం	-10.2603
▁కీర్తి	-10.2605
▁తాత	-10.2609
సేవ	-10.2611
ff	-10.2616
▁సమాఖ్య	-10.262
ud	-10.263
▁కారణాల	-10.2634
పూర్లో	-10.2638
▁విశేషం	-10.2642
▁అధికారి	-10.2643
▁నెలకొల్ప	-10.2644
డియ	-10.2645
▁సూచన	-10.2646
▁కలప	-10.2648
▁ప్రాంతాలకు	-10.2648
▁రంగం	-10.2651
▁దేశీయ	-10.2652
వంతంగా	-10.2653
der	-10.2653
బై	-10.2654
ానికీ	-10.2658
ొచ్చు	-10.2659
ాయన	-10.2662
▁మహిళా	-10.2665
నారాయణ	-10.2665
▁వ్యాప్తి	-10.2669
▁హోదా	-10.2672
▁టెక్	-10.2675
▁తీవ్రంగా	-10.2677
ారావు	-10.2679
ుకొన్న	-10.268
▁మరణించారు	-10.2681
▁వాల్	-10.2685
▁లూ	-10.2686
▁జరుగ	-10.2687
va	-10.2688
▁ఎల్ల	-10.2696
▁తెలంగాణా	-10.2697
బర్గ్	-10.2697
ya	-10.2698
▁దేశము	-10.2702
▁కుండ	-10.2706
▁కుడి	-10.2707
▁సాహితీ	-10.2708
▁పెరుగుదల	-10.2709
▁భవనం	-10.2711
▁పొగాకు	-10.2714
able	-10.2716
ితమైన	-10.2717
▁ప్రజలను	-10.2717
▁వేర్వేరు	-10.2718
tion	-10.2719
స్సా	-10.2721
▁ఎకరాల	-10.2721
ధన	-10.2727
▁అమర	-10.2729
కున్న	-10.2738
▁క్రమంలో	-10.2739
▁ఇచ్చ	-10.2743
▁దీంతో	-10.2745
▁అన్నీ	-10.2745
▁కొన్నిసార్లు	-10.2749
▁లోయ	-10.275
ep	-10.2754
▁గం	-10.2755
▁వరద	-10.2758
▁బలహీన	-10.2758
మాత్ర	-10.2758
▁అత్యధికంగా	-10.2761
▁యుగం	-10.2764
▁ఒత్తిడి	-10.2768
ంగో	-10.277
▁ఇంట్లో	-10.277
జై	-10.2771
ద్వారా	-10.2774
ందున	-10.2777
▁తీసిన	-10.2777
ియా	-10.2778
▁ఎరువులు	-10.2783
▁మాదిరిగా	-10.2786
ండె	-10.2787
▁దొర	-10.2788
▁పదవీ	-10.2793
▁మళ్లీ	-10.2793
▁క్రితం	-10.2801
▁పాటల	-10.2806
▁బట్ట	-10.2811
▁అడిగ	-10.2811
▁చేసుకున్నారు	-10.2812
▁స్వామివారి	-10.2814
మధ్య	-10.2814
కపోతే	-10.2815
▁సూత్ర	-10.2818
▁వేసిన	-10.2818
▁దూరంగా	-10.2824
▁వడ్డ	-10.2825
▁చేరు	-10.2834
▁అరణ్య	-10.2834
▁పరిసర	-10.2836
▁సంబంధాలు	-10.2839
రణం	-10.2844
▁గ్రంథాల	-10.2853
▁పోర్ట్	-10.2856
▁ప్రామాణిక	-10.2859
▁యే	-10.2859
▁ఆన్	-10.2861
si	-10.2861
▁షి	-10.2864
▁లిం	-10.2865
▁కార్బన్	-10.2865
▁కెమెరా	-10.2869
ావు	-10.2872
▁కప్	-10.2873
▁పాశ్చాత్య	-10.2874
స్థల	-10.2884
▁విద్యను	-10.2885
▁సన్	-10.2885
▁ప్రశంస	-10.2888
నూర్	-10.2889
పరిచ	-10.2889
నపుడు	-10.2891
▁ఉదయ	-10.2895
ew	-10.2902
▁నడుప	-10.2904
ind	-10.2911
▁మంట	-10.2911
▁కొబ్బరి	-10.2914
▁చెందినది	-10.2916
▁పీఠ	-10.2917
pe	-10.2917
▁తద్వారా	-10.2923
▁భాషలు	-10.2924
▁తాగునీటి	-10.2924
▁ఒకరి	-10.2928
చెర్ల	-10.2928
▁ఎత్తైన	-10.293
display	-10.2935
▁దాంతో	-10.2935
▁వహించిన	-10.2936
▁విశాఖపట్నంలోను	-10.2939
టెన్	-10.2942
▁స్వభావ	-10.2942
▁నీటిలో	-10.2944
▁అంట	-10.2946
▁పేట	-10.2948
▁వీధి	-10.296
▁బాధ్యతలు	-10.2962
మనే	-10.2962
బాల్	-10.2966
▁ద్వి	-10.2966
ేతర	-10.2977
▁సంతానం	-10.2985
▁షిప్	-10.2996
▁ముంబై	-10.2996
▁కోప	-10.2997
ంబర	-10.2997
▁మాట్లాడే	-10.2997
ence	-10.3
▁ఇంటర్నేషనల్	-10.3001
పణ	-10.3003
▁మార్గంలో	-10.3003
▁నిద్ర	-10.3006
మూస	-10.3007
▁మేరకు	-10.3007
చరిత్ర	-10.3009
ాచార	-10.301
▁ఎమ్	-10.3013
▁పిలువబడ	-10.3016
ev	-10.3019
▁స్థాపించబడింది	-10.3021
▁చుట్ట	-10.3024
ప్రభావ	-10.3026
▁చర్యలు	-10.3027
▁హైదరాబాదులో	-10.3029
ఎం	-10.303
▁వస్తువుల	-10.3032
య్యాడు	-10.3035
ధో	-10.3036
ాలున్నాయి	-10.304
▁సైతం	-10.3041
రోగ	-10.3041
▁భారతదేశంలోని	-10.3041
ఉన్న	-10.3042
▁నైట్	-10.3047
▁his	-10.3048
▁కదా	-10.3051
▁సముదాయ	-10.3052
▁వనరులు	-10.3054
▁ఫుట్	-10.3058
ous	-10.3059
▁మర్	-10.3059
▁వికారాబాద్	-10.3063
▁సంయోగ	-10.3064
ాద్రి	-10.3064
▁41	-10.3065
▁ప్రచార	-10.3066
▁ప్రయాణించ	-10.3069
వాడి	-10.3071
ుదురు	-10.3072
▁స్థిరపడ	-10.3073
డికి	-10.3073
▁సమస్యలు	-10.3074
▁ప్రసంగ	-10.3074
▁కనిపిస్త	-10.3079
బ్రహ్మ	-10.3107
కారుడు	-10.3113
▁ప్రమాదం	-10.3114
▁స్థానాన్ని	-10.312
▁గుర్త	-10.3121
▁1998	-10.3138
▁గవర్నర్	-10.3138
వరకూ	-10.314
▁మ్యా	-10.3145
్యత	-10.3146
▁అటువంటి	-10.3148
▁తొమ్మిది	-10.3156
▁నవాబు	-10.3161
▁వనపర్తి	-10.3161
▁నమ్మకం	-10.3171
ధర	-10.3174
▁చెట్ల	-10.318
ong	-10.3183
దాయ	-10.3184
▁గురించిన	-10.3191
ోంది	-10.3196
▁వో	-10.32
▁యూనివర్సిటీ	-10.3203
▁జం	-10.3205
సిద్ధ	-10.3205
▁అద్భుత	-10.3206
▁కను	-10.321
▁48	-10.321
రత్న	-10.3211
▁గది	-10.3216
▁దాటి	-10.322
▁ఇచ్చింది	-10.3222
▁బోధన	-10.3222
▁విల్	-10.3227
▁సంవత్సరానికి	-10.3228
వడానికి	-10.323
▁శేష	-10.3231
▁వాడుక	-10.3232
▁చనిపో	-10.3238
ari	-10.3239
▁పురపాలక	-10.324
చంద్ర	-10.324
▁చేసుకున్నాడు	-10.3243
▁వేరే	-10.3246
స్తంభ	-10.3248
▁http	-10.325
▁విగ్రహ	-10.325
▁మోస	-10.3251
mp	-10.3251
▁వహించాడు	-10.3252
ందర్	-10.3254
▁సన్యాస	-10.3258
▁జాగ్రత్త	-10.326
▁అర్జునుడు	-10.3262
▁స్పెయిన్	-10.3266
పేట్	-10.3266
▁ప్రతిబింబ	-10.3275
▁శివుడు	-10.3277
జల	-10.3278
▁బాల్య	-10.3278
▁చోటు	-10.3278
▁నేటి	-10.3285
డైన	-10.3285
▁ధ్రువ	-10.3287
ni	-10.3289
▁చేయవచ్చు	-10.3294
పడ్డాడు	-10.3297
నెల్	-10.3302
▁టెక్నాలజీ	-10.3303
ఫు	-10.3303
▁పుర	-10.3305
▁గోడ	-10.3306
▁మందు	-10.3307
ెన	-10.3309
av	-10.3309
▁రుచి	-10.3312
▁క్రీడల	-10.3313
ఘ్	-10.3321
వంశ	-10.3325
▁క్రీస్తు	-10.3328
▁క్రియ	-10.3334
లేరు	-10.3335
▁ట్రి	-10.3336
▁ఎలాంటి	-10.335
▁కారక	-10.3351
▁నేర్ప	-10.3355
కారి	-10.3361
▁మెంట్	-10.3362
▁చెన్న	-10.3364
▁నటించాడు	-10.3367
▁సమూహం	-10.3367
మనీ	-10.3372
లేదని	-10.3372
రాదు	-10.3374
ూర్లో	-10.3384
▁చేసుకొ	-10.3386
దానం	-10.3388
▁పెరిగి	-10.3389
▁బోధించ	-10.3389
▁శుభ	-10.3392
▁కుటుంబంలో	-10.3394
ట్యూ	-10.3394
్యము	-10.3394
▁ప్రవాహ	-10.3397
▁మరణించిన	-10.3399
పురి	-10.3403
▁బిడ్డ	-10.3416
▁రచించ	-10.3419
▁నన్ను	-10.3423
▁పాత్రను	-10.3423
స్తున్నాయి	-10.3423
▁Ma	-10.3424
▁పాము	-10.3425
ాదుల	-10.3427
▁కటక	-10.343
▁జత	-10.343
▁pa	-10.343
▁పరిపాలించ	-10.343
▁రకాలు	-10.3431
▁సినిమాల్లో	-10.3439
సాగర్	-10.3445
▁కార్డు	-10.3448
▁500	-10.345
▁గుర్తించారు	-10.345
▁చేయించ	-10.3454
▁అర్జున	-10.3457
▁ముగింపు	-10.3462
▁అయ్యింది	-10.3467
▁చైతన్య	-10.3468
స్తుల	-10.3468
కన్నా	-10.3472
▁బోర్డు	-10.3473
▁46	-10.3479
టాన్	-10.348
▁ఆమోదించ	-10.3481
ల్యూ	-10.3482
▁ఆశ్చర్య	-10.3484
▁సిం	-10.3485
కాండ	-10.3486
కెట్	-10.3487
▁సామ	-10.3491
▁మాటలు	-10.3494
▁అండ	-10.3495
▁రైతు	-10.3495
▁సారి	-10.3495
▁1996	-10.3497
▁త్ర	-10.35
▁ఏళ్ల	-10.3502
పత్ర	-10.3503
▁i	-10.3508
▁వెస్ట్	-10.3509
ునకు	-10.351
▁మణి	-10.3511
▁చిత్త	-10.3515
ఠా	-10.3521
▁భయం	-10.3521
▁ఇంటికి	-10.3523
▁వజ్ర	-10.3526
▁వెండి	-10.3526
తుండ	-10.353
మెంటు	-10.353
గడ్డ	-10.3531
▁43	-10.3535
▁చిత్రీకరించ	-10.3537
భద్ర	-10.3538
▁1930	-10.3545
▁ఆస్తి	-10.3545
▁ప్రవేశించి	-10.3547
ెత్త	-10.3549
టివ్	-10.3554
▁di	-10.3554
▁పల్లి	-10.3555
రాశి	-10.3559
all	-10.356
▁వంతు	-10.3564
తరం	-10.3566
▁బోధ	-10.3567
▁దేవుడు	-10.3572
మార్గ	-10.3573
▁గూ	-10.3576
▁ఇచ్చాడు	-10.3576
ములతో	-10.3582
▁ఖనిజ	-10.3583
▁సందర్భ	-10.3585
చిత	-10.3586
▁క్రొత్త	-10.3586
▁ఇంధన	-10.3587
▁గౌతమ	-10.3588
ోద్యమ	-10.3591
చర్య	-10.3592
▁పూజలు	-10.3603
స్తాన్	-10.3604
▁నాయకులు	-10.3605
▁జీవుల	-10.3605
▁గొల్ల	-10.3607
▁పద్ధతుల	-10.3612
వేల	-10.3618
ినది	-10.3621
▁కుటుంబానికి	-10.3626
▁సెం	-10.3627
▁రూపొంద	-10.3628
▁అమ్మాయి	-10.3629
▁పూర్ణ	-10.363
▁మానవుల	-10.3634
▁గ్ర	-10.3637
▁రెండూ	-10.3639
కార్య	-10.364
వాసుల	-10.3645
▁మనుషుల	-10.3646
▁దుర్గ	-10.3651
▁అనువదించ	-10.3652
▁దర్శన	-10.3653
ాచల	-10.3653
▁ఫిలిం	-10.3653
▁జాతులు	-10.3658
ట్లయితే	-10.3664
▁అంతేకాక	-10.3664
▁పరంగా	-10.367
▁పరచ	-10.367
తులను	-10.3671
▁విస్తృతంగా	-10.3672
జిల్	-10.3675
▁సాగించ	-10.3675
▁సమాచారాన్ని	-10.3676
▁ఒప్ప	-10.368
▁డిగ్రీలు	-10.3684
▁ప్రాతినిధ్యం	-10.3685
▁బ్రిటిషు	-10.3685
దాని	-10.3685
▁కాన	-10.3689
▁బదిలీ	-10.3696
▁వేగ	-10.3697
▁ఉందిసమీప	-10.3704
వచ్చని	-10.3709
▁కర్ణ	-10.3711
చింది	-10.3713
▁మాయ	-10.3713
▁స్వర్ణ	-10.3717
▁డచ్	-10.3722
▁ఆకుల	-10.3725
బ్ర	-10.3729
రగ	-10.373
ut	-10.3731
▁నియంత్రించ	-10.3731
▁లిపి	-10.3734
జేయ	-10.3734
▁వాడే	-10.3736
సంస్థ	-10.3736
▁65	-10.3742
▁వాళ్ళు	-10.3746
▁చోట	-10.3749
▁విన్న	-10.375
▁టౌన్	-10.3751
▁ప్రయత్నాలు	-10.3751
▁వినియోగదారు	-10.3753
థర్	-10.3757
▁j	-10.3761
▁నేపథ్య	-10.3765
▁ప్రారంభం	-10.3765
సమూహ	-10.3765
▁సామర్థ్యం	-10.3776
▁do	-10.3777
▁అయ్యాడు	-10.3777
లాంటి	-10.3778
▁స్థలం	-10.378
బన్	-10.3787
▁పట	-10.3788
నాల్	-10.379
త్యం	-10.3792
టార్	-10.3792
దేవత	-10.3792
మున్న	-10.3793
భీ	-10.3802
▁సంస్కృతం	-10.3802
తొ	-10.381
out	-10.381
▁ఆధారిత	-10.3812
▁అత	-10.3812
దేవుడు	-10.3814
లెస్	-10.3814
▁ఆధారాలు	-10.3817
▁వుంట	-10.3824
▁mo	-10.3826
▁వెళ్ళే	-10.383
లన్నీ	-10.3831
చ్చారు	-10.384
▁జంక్షన్	-10.384
▁దాకా	-10.384
▁75	-10.3845
▁కాలి	-10.3846
▁వైశాల్యం	-10.3847
▁2017,	-10.3851
▁దెబ్బ	-10.3852
▁ప్రవేశం	-10.3852
▁పరిధిలోని	-10.3853
▁రాజధానిగా	-10.3853
ఒ	-10.3854
▁ఆచరించ	-10.3854
▁అయ్యాయి	-10.3857
▁భాగము	-10.3861
▁అనకాపల్లిలోను	-10.3861
pa	-10.3863
▁కాళ	-10.3863
నైనా	-10.3869
శ్లేష	-10.3873
▁విశ్వాసం	-10.3873
▁హిమ	-10.3874
▁దగ్గరగా	-10.3879
భో	-10.3879
విధంగా	-10.3882
▁గోవింద	-10.3883
▁ప్రక్క	-10.3884
▁తాలూకా	-10.3889
▁మూసి	-10.389
▁విలీనం	-10.3891
▁వెల	-10.3893
▁ప్రవహించ	-10.3895
▁సుబ్బ	-10.3898
▁అక్కడే	-10.3903
శయ	-10.3903
▁మాల్	-10.3905
మెన్	-10.3907
▁అమృత	-10.3907
ఉంది	-10.391
▁వైద్యుడు	-10.391
▁నార్వే	-10.3916
▁పోయి	-10.3917
▁న్యూయార్క్	-10.3918
పోత	-10.3923
▁నటించింది	-10.3925
▁చొ	-10.3926
▁కొరియా	-10.3926
వంతు	-10.3931
త్తా	-10.3931
▁అధికారికంగా	-10.3934
▁పనిచేసిన	-10.3936
▁నాయకుల	-10.394
బాయి	-10.3945
▁ch	-10.3953
ప్పి	-10.3956
బంద	-10.3957
▁నృత్యం	-10.3957
▁వ్యక్త	-10.3961
▁ప్రయోగించ	-10.3961
▁వ్యక్తులు	-10.3967
▁కార్యకలాపాల	-10.3968
▁పల్ల	-10.3969
▁భాషల	-10.3971
▁పుస్తక	-10.3975
▁వెలువడ	-10.3981
ద్వార	-10.3994
▁అభ్యసించ	-10.3996
▁సౌకర్యాలేమ	-10.3998
▁భిన్న	-10.4002
▁వైద్యులు	-10.4003
▁రంగస్థల	-10.4004
యిల్	-10.4005
ess	-10.4005
▁భావించి	-10.401
▁ఈశాన్య	-10.4013
▁వాడతారు	-10.4015
ంగళ	-10.4016
du	-10.4017
▁ఉత్పత్తుల	-10.4018
▁పదాలు	-10.4022
▁గద్వాల	-10.4025
▁టన్నుల	-10.4027
-3	-10.4027
నంత	-10.4029
జింగ్	-10.4031
▁ఎదురు	-10.4034
టెడ్	-10.4034
▁వర్గాల	-10.4034
ిస్తుంటారు	-10.4035
▁అంతటా	-10.4037
▁పురస్కార	-10.404
▁పెట్టుబడి	-10.4042
▁నిజానికి	-10.4046
ke	-10.4046
ుకోవాలి	-10.4048
▁కాలానికి	-10.4049
▁బలి	-10.4051
ాభివృద్ధి	-10.4053
చారి	-10.4054
▁నిర్మ	-10.4062
▁చదివి	-10.4063
▁అవగాహన	-10.4065
▁రెండింటి	-10.4065
▁సాహిత్యంలో	-10.4066
▁రష్యన్	-10.407
▁రాగి	-10.4071
▁కక్ష్య	-10.4076
▁వెళ్ళాడు	-10.4077
▁పాలనా	-10.4082
▁భారతదేశానికి	-10.4082
▁వర్క్	-10.4087
పోవటం	-10.4088
▁గోధుమ	-10.4093
పుల్	-10.4094
ింపబడిన	-10.4097
▁చోళ	-10.4104
▁అవతార	-10.4109
▁చదరపు	-10.411
▁రసాయనిక	-10.4111
▁నగరాల	-10.4113
ీశ్వర	-10.4118
▁చిత్రాలలో	-10.4119
▁నేత	-10.4119
▁కలగ	-10.4121
మహ	-10.4121
▁ఉద్భవించ	-10.4122
కాన్	-10.4123
▁చదవ	-10.4127
▁తొలగి	-10.413
▁బోరుబావులు	-10.4135
▁ప్రస్తావించ	-10.4139
▁జాబితాలో	-10.4139
▁అన్నారు	-10.4139
▁1994	-10.4141
▁కనుగొన్న	-10.4143
యోధ	-10.4144
▁మన్న	-10.4146
▁బోస్	-10.4149
▁కొడ	-10.4151
▁సేవల	-10.4152
తాయని	-10.4153
▁సమస్యల	-10.4153
వ్యాప్త	-10.4155
▁సేవలను	-10.4159
▁ఉత్	-10.416
డై	-10.416
▁మోక్ష	-10.4161
▁పర్యటన	-10.4162
సరి	-10.4164
▁వినియోగదారుల	-10.4165
▁కూతురు	-10.4172
▁రఘు	-10.4173
▁తిరస్కరించ	-10.4179
▁పలువురు	-10.4179
▁పాలక	-10.4181
}}	-10.4181
గ్రీ	-10.4186
▁ఆకర్షించ	-10.4188
▁సమర్ధ	-10.4193
పడిన	-10.4193
▁నాటకాల	-10.42
▁జిల్లాలలో	-10.4202
▁రేటు	-10.4203
▁చిత్రానికి	-10.4203
▁ఉంటాడు	-10.4207
వర్తన	-10.4208
▁బీజ	-10.421
▁పండు	-10.4212
▁తూ	-10.4214
ుచున్నది	-10.4217
▁శత	-10.4218
▁పరిశోధనలు	-10.4219
int	-10.4224
▁కౌన్సిల్	-10.4225
▁ఖాళీ	-10.4226
▁తెలిసి	-10.4227
▁అనుబంధ	-10.4227
▁దేశంగా	-10.4228
గలిగే	-10.4228
ానికే	-10.4231
▁ముడి	-10.4234
one	-10.4235
▁అనుగుణంగా	-10.4237
▁తదుపరి	-10.4237
▁సమీపంలోని	-10.4238
ప్రె	-10.4239
▁ఈస్ట్	-10.424
▁జోన్	-10.4241
▁చెబుతారు	-10.4246
▁దీక్ష	-10.4251
సాయి	-10.4253
▁ప్రధానమంత్రి	-10.4253
▁హింస	-10.4255
▁స్వర్గ	-10.4264
▁ఊర	-10.4265
▁ఇంగ్లాండ్	-10.4266
▁వచ్చు	-10.4267
▁ఆవు	-10.427
▁చూస్తే	-10.427
▁ప్రకటించారు	-10.427
▁వంద	-10.4274
▁ఎప్పుడూ	-10.4274
క్షేప	-10.4276
▁జీవితాన్ని	-10.4277
▁అదనపు	-10.4278
▁అందువల్ల	-10.4279
▁భూమిని	-10.4287
▁చెల్ల	-10.4292
▁తీగ	-10.4292
▁సాధించి	-10.4293
▁విమానాశ్రయం	-10.4293
▁రవి	-10.4294
▁మందికి	-10.4294
రిన్	-10.4299
▁చెప్పే	-10.4306
▁ఆయుధ	-10.4312
▁ప్రవర్తన	-10.4317
▁చేతిపంపులు	-10.4318
▁సీనియర్	-10.4318
▁మూలంగా	-10.4319
▁నిర్మాణానికి	-10.4325
▁వినోద	-10.4326
▁An	-10.433
▁లాగ	-10.4331
▁తప్పించ	-10.4333
ాంతం	-10.4339
▁పశువుల	-10.434
▁యస్	-10.4342
▁సకల	-10.4344
ide	-10.4347
డ్యూ	-10.4347
పాత	-10.4349
▁తెలుసు	-10.4352
లచే	-10.4353
▁ఆందోళన	-10.4354
▁ఆర్య	-10.4355
ష్క	-10.4356
▁తాత్కాలిక	-10.4359
్యాల	-10.4365
▁దేశాల్లో	-10.4369
▁చేరిన	-10.437
▁చూడండి	-10.4375
district	-10.4377
▁చేస్తే	-10.4381
▁అప్పట్లో	-10.4383
▁స్టె	-10.4385
▁1989	-10.4385
ుకుంటాడు	-10.4387
▁అక్షరాస్యత	-10.4389
▁one	-10.4395
▁బొగ్గు	-10.4396
ath	-10.4396
▁పువ్వు	-10.4396
▁చేయటం	-10.44
▁ఊహించ	-10.4408
▁భాగాలు	-10.4409
▁నాయకత్వంలో	-10.441
▁అంశ	-10.4411
కుమారి	-10.4415
డియో	-10.4418
▁భయ	-10.442
▁భద్ర	-10.4421
మహా	-10.4423
ang	-10.4425
▁సేకరణ	-10.4426
▁రాక	-10.4427
▁47	-10.443
ాళ్	-10.4433
▁శతాబ్ది	-10.4437
▁ఉంటుందని	-10.4438
▁సాఫ్ట్	-10.4439
▁ఉండేవారు	-10.4439
ated	-10.4442
▁1948	-10.4444
▁తరలి	-10.4448
▁సప్త	-10.4448
కల్ప	-10.445
▁టు	-10.4454
▁స్పానిష్	-10.4454
▁కమ్మ	-10.4455
▁1997	-10.4456
▁పేర్కొన్నాడు	-10.4458
ొచ్చ	-10.4461
▁విభాగంలో	-10.4464
▁సందర్భాలలో	-10.4465
▁చేసుకో	-10.4468
▁ఈశ్వర	-10.4469
టెక్	-10.447
ue	-10.4475
ధ్ర	-10.448
వృత్తి	-10.4482
▁has	-10.4482
act	-10.4487
▁వైష్ణవ	-10.4489
కూర	-10.449
▁సల్	-10.4491
▁కొన	-10.4493
▁దీర్ఘకాల	-10.4494
▁చేపల	-10.4495
▁జంతు	-10.4496
▁బహ	-10.45
▁దేహ	-10.4501
▁చెంది	-10.4501
కుండ	-10.4503
pr	-10.4503
tu	-10.4504
▁ఎడ్	-10.4505
▁సమాజంలో	-10.4507
▁భువనగిరి	-10.4507
▁పనిచేస్తుంది	-10.4508
▁భాగవత	-10.451
▁అందించారు	-10.4512
వర్తి	-10.4513
▁సుబ్రహ్మణ్య	-10.4513
▁అంకిత	-10.4514
ara	-10.4516
▁ఇసుక	-10.452
వాల్	-10.4527
ph	-10.4528
▁అంశాలు	-10.453
▁ఆదాయ	-10.453
▁కఠిన	-10.4531
▁ఒకప్పుడు	-10.4533
▁లోతు	-10.4533
గలవు	-10.4536
భై	-10.4544
▁చేసుకొని	-10.4546
వీర	-10.4555
▁గ్రేట్	-10.4557
ళు	-10.456
▁నాశనం	-10.4561
▁పిలవ	-10.4564
▁పదాన్ని	-10.4565
▁పంటలు	-10.4569
▁55	-10.4571
ప్పటికి	-10.4574
▁వికీ	-10.4575
స్టన్	-10.4576
▁తిప్ప	-10.4578
▁అందించే	-10.4579
▁కుక్క	-10.4579
క్రియ	-10.458
▁ఫ్రీ	-10.4584
కళ	-10.4585
▁విధానంలో	-10.4587
▁తేలిక	-10.4587
▁విస్తరణ	-10.459
▁సిద్ద	-10.4592
▁విధాన	-10.4596
▁దాదాపుగా	-10.4599
కూడదు	-10.4599
▁ఎడమ	-10.4599
▁1995	-10.46
▁ధాన్య	-10.4601
▁విచారణ	-10.4603
టూరు	-10.4609
▁పాటించ	-10.4609
▁పంజాబ్	-10.4609
▁హైదరాబాదులోను	-10.4616
art	-10.4617
▁ప్రదేశంలో	-10.4617
▁పుల్ల	-10.4623
▁పట్టిక	-10.4627
ాంక	-10.4631
▁అనుభవించ	-10.4633
▁ఎగుమతి	-10.4633
▁సమకూర్చ	-10.4633
▁మండలి	-10.4634
▁భాగాన్ని	-10.4636
▁వినియోగ	-10.4636
▁కాగిత	-10.464
ary	-10.4642
ధిక	-10.4646
▁పౌ	-10.4647
గీత	-10.4651
▁గమన	-10.4652
▁కలకత్తా	-10.4657
▁భావించారు	-10.4657
▁ఉర్దూ	-10.4663
▁ఆదిలాబాద్లో	-10.4665
▁కంటి	-10.4665
▁ప్రారంభమైన	-10.4666
ba	-10.4667
▁ఏళ్ళ	-10.4667
▁కేంద్రాల	-10.4667
▁కాల్	-10.467
▁ఇందుకు	-10.4671
▁సుబ్బారావు	-10.4682
ముగ	-10.4685
▁క్షేత్రం	-10.4689
▁సరళ	-10.469
▁వస్తాయి	-10.4692
▁భరత	-10.4692
▁బెల్లం	-10.4693
ee	-10.4694
▁గ్రీన్	-10.4694
▁అనుసంధానం	-10.4697
▁మలయాళ	-10.47
▁సూర్యాపేట	-10.47
▁చిహ్నం	-10.4702
▁1992	-10.4702
▁అవసరమ	-10.4707
▁మూడో	-10.4707
▁సంవత్సరము	-10.471
ోపనిషత్తు	-10.4712
▁కుమారులు	-10.4712
▁నున్న	-10.4714
▁గ్రామాలను	-10.4717
▁అబ్దుల్	-10.4718
▁పదార్ధాల	-10.4719
▁సగం	-10.4719
de	-10.4722
gu	-10.4724
▁మహారాజు	-10.4724
▁నిలిపి	-10.4724
▁సర్వే	-10.4725
బెట్ట	-10.4725
▁చేస్తాడు	-10.473
▁ఆగ్నేయ	-10.473
▁వర్తక	-10.473
▁విభాగాలు	-10.4731
▁కమ్యూనిస్టు	-10.4731
▁రాయ్	-10.4731
యత్	-10.4733
పూజ	-10.4739
▁ద్రోణ	-10.4742
▁నాగార్జున	-10.4743
ానని	-10.4746
▁స్పష్టంగా	-10.4748
యుత	-10.4752
శక్తుల	-10.4755
ప్రతి	-10.4757
సార్	-10.4757
▁లక్ష్యం	-10.4757
మండల	-10.4761
కట్టు	-10.4762
మ్మా	-10.4763
▁మధ్యకాలంలో	-10.4763
▁రాజీనామా	-10.4773
▁మరిన్ని	-10.4776
state	-10.4777
▁లక్ష	-10.4777
▁నర్స	-10.4779
▁డొ	-10.478
▁నిరూపించ	-10.478
▁వాని	-10.4783
▁విశ్వనాథ	-10.4787
ాధార	-10.4787
▁ఇటలీ	-10.4791
▁దేవతలు	-10.4791
▁ఉండును	-10.4794
కణ	-10.4795
▁సెప్టెంబర్	-10.4797
▁త్యాగ	-10.4797
స్తులు	-10.48
▁వెలుగు	-10.4801
యాగ	-10.4804
▁రైల్వేస్టేషన్	-10.4809
▁సంభవ	-10.4809
▁అబ్బ	-10.481
▁ఫెర్	-10.4813
▁పుట్టి	-10.4813
▁వెల్ల	-10.4817
▁కావచ్చు	-10.4818
ture	-10.4821
▁వాటా	-10.4824
ుకునేందుకు	-10.4825
▁మొదటిసారిగా	-10.4827
ాంశం	-10.4829
▁ప్రత్యేకించి	-10.4832
పట	-10.4834
▁అంతకు	-10.4837
ావళి	-10.4842
▁పంచాయతీ	-10.4844
ినపుడు	-10.4846
ీకృత	-10.4846
▁so	-10.4847
▁ఆరంభం	-10.4848
▁అద్ద	-10.4848
▁గ్రంథాలయ	-10.4849
▁300	-10.4852
మాట	-10.4852
స్థి	-10.4852
యిడ్	-10.4853
▁ఎందుకు	-10.4856
రెన్	-10.4858
os	-10.4858
▁ఉపయోగించారు	-10.4861
పొంద	-10.4862
▁సహాయంతో	-10.4866
▁ప్రసారం	-10.4868
▁పరికరాల	-10.4871
▁మృత	-10.4872
ame	-10.4873
పేట్లో	-10.4874
▁మ్యూజియం	-10.4882
▁కిందకు	-10.4883
▁గుజరాత్	-10.4883
▁దారితీసింది	-10.4889
▁దీవుల	-10.489
▁కడ	-10.4899
భాగంలో	-10.4901
▁శాస్త్రము	-10.4901
▁రక్తం	-10.4904
ోత్సవం	-10.4904
టమే	-10.4906
శ్చ	-10.491
▁పెరుగుతుంది	-10.491
▁రాష్ట్రపతి	-10.4916
▁pl	-10.4917
▁ఫ్యా	-10.4917
▁అనువాద	-10.4924
▁స్థాపించిన	-10.4926
వాని	-10.4927
▁చిత్రాల	-10.493
▁49	-10.4932
▁ఉత్తర్వులు	-10.4933
▁మిగిలి	-10.4936
▁బావులు	-10.4937
▁ముహమ్మద్	-10.4945
▁పరిజ్ఞాన	-10.4949
rit	-10.495
త్వము	-10.4955
▁can	-10.4968
▁కాదని	-10.4969
ten	-10.4973
▁బుద్ధ	-10.4973
▁నేడు	-10.4974
▁ఆమోద	-10.4979
వారిని	-10.4982
▁థియేటర్	-10.4983
పార్	-10.4984
▁150	-10.4987
పత్	-10.4992
జూ	-10.4995
▁రమణ	-10.4995
▁se	-10.4997
▁ఆనాటి	-10.4998
▁కంద	-10.5
▁దయ	-10.5003
▁నగర్లో	-10.5003
▁సినిమాలలో	-10.5004
▁గ్రహించ	-10.5006
మణ	-10.5009
▁రాముడు	-10.5009
వేసింది	-10.501
▁వెన్న	-10.501
▁చేస్తా	-10.5013
క్య	-10.5018
▁పెం	-10.5018
▁గురై	-10.5018
▁అల్యూమినియం	-10.5027
▁స్టూడియో	-10.5027
▁దీర్ఘ	-10.5028
▁వెలుపల	-10.5033
▁షేక్	-10.5035
▁హోటల్	-10.5035
▁మొదట్లో	-10.5035
▁ఎదుర్కొన్న	-10.5041
▁గోప	-10.5041
▁విభాగాల	-10.5042
ుడయ్యాడు	-10.5045
మోద	-10.5048
▁బ్లూ	-10.505
▁విస్తృత	-10.5054
▁సూర	-10.5054
▁ప్రజలలో	-10.5055
▁జనసంఖ్య	-10.5059
▁వాక్య	-10.506
▁ఒలింపిక్	-10.5064
▁తెలుప	-10.5066
▁నర్	-10.5066
▁మార్గాల	-10.5074
ుంటారు	-10.5076
జిల్లా	-10.5077
▁జీర్ణ	-10.5077
మతి	-10.5078
థో	-10.5086
▁ప్రపంచం	-10.5088
▁భూత	-10.5088
▁ఆగష్టు	-10.5091
5%	-10.5093
▁వస్తు	-10.5097
▁నాయకత్వం	-10.5114
▁ట్రాన్స్	-10.5116
▁విడిచి	-10.5116
▁అసోసియేషన్	-10.5121
▁నొప్పి	-10.5121
చ్చాడు	-10.5122
▁ఇక్కడికి	-10.5122
▁who	-10.5122
▁వెళ్	-10.5128
ies	-10.513
▁కవిత్వం	-10.5131
▁చేరింది	-10.5133
▁శర	-10.5135
ting	-10.514
▁పరిష్కార	-10.514
▁వ్యాప్తంగా	-10.514
యార్	-10.5147
▁పశ్చిమాన	-10.5151
మూర్తుల	-10.5163
▁వారీ	-10.5163
▁శర్మ	-10.5164
▁ప్రసాద	-10.5164
1-	-10.5165
▁రంగుల	-10.5166
▁పర్యాటకుల	-10.5166
బోయే	-10.517
ంటో	-10.517
▁స్థాపించాడు	-10.5172
▁ప్రభుత్వానికి	-10.5175
ాల్ని	-10.5179
▁5310	-10.5181
లియో	-10.5183
▁అయ్యే	-10.519
వున్న	-10.5191
▁నిర్వచ	-10.5195
▁నివసిస్తున్న	-10.5196
▁మరికొన్ని	-10.5197
▁ముప్ప	-10.52
▁జరుగు	-10.5203
▁నింప	-10.5205
▁ట్రై	-10.5205
▁తరు	-10.5205
▁స్నాన	-10.5206
▁1940	-10.5211
పుచ్చ	-10.5212
▁పెట్టిన	-10.5215
▁హ్యా	-10.5215
▁పేర్కొన్న	-10.522
▁ఉంటూ	-10.5222
▁పాల్వంచ	-10.5223
▁తానే	-10.5223
app	-10.5226
▁రచించారు	-10.5229
మాంస	-10.5232
▁సుమారుగా	-10.5233
▁ఐర్లాండ్	-10.5236
▁ఉమ్మడి	-10.5236
▁మనస్సు	-10.5241
▁ఇరాన్	-10.5242
▁తల్లిదండ్రులు	-10.5242
▁కార్యదర్శి	-10.5242
▁Ch	-10.5244
ance	-10.5246
▁మొహ	-10.525
▁తమ్మ	-10.525
▁కాశ్మీరు	-10.5251
pi	-10.5253
▁శీతాకాల	-10.5255
▁పరిశోధనా	-10.5256
ts	-10.5258
▁కట్టి	-10.5261
▁మొగ	-10.5266
▁అసాధారణ	-10.5268
▁అడ్	-10.527
ార్థం	-10.5273
▁అంతర	-10.5273
▁II	-10.5274
▁స్థావర	-10.5278
▁అనుకూలంగా	-10.5282
▁పట్టణంలో	-10.5287
▁స్ట్ర	-10.5289
▁చర్యల	-10.5292
ళీ	-10.5294
▁దళ	-10.5294
▁చేయాలి	-10.5295
▁మంగ	-10.5298
యొ	-10.5299
▁మాధవ	-10.53
▁గ్రూప్	-10.53
స్థానంలో	-10.5303
▁వృత్తులు	-10.5305
▁చక్కగా	-10.5306
▁కూరగాయలు	-10.5313
టికల్	-10.5313
ుతుంటారు	-10.5318
ాసుర	-10.5319
▁స్నేహ	-10.5323
ుడే	-10.5324
▁tr	-10.5325
ేపల్లి	-10.5327
▁అధికారుల	-10.5328
▁సేకరించ	-10.5329
▁ఆకులు	-10.533
▁పగ	-10.5331
▁లాటిన్	-10.5332
▁ఇష్ట	-10.5343
▁ఐస్	-10.5344
బడినవి	-10.5344
▁సరిగా	-10.5348
పిల్ల	-10.5351
కరంగా	-10.5353
▁బుద్ధి	-10.5354
▁స్వేచ్ఛ	-10.5356
▁po	-10.5357
ical	-10.5357
▁శివుని	-10.5359
▁శంఖ	-10.5359
▁కలవ	-10.5361
▁మనో	-10.5364
▁గుర్తించిన	-10.5367
▁మహిళలు	-10.5369
ec	-10.537
▁పార్టీకి	-10.5371
▁చేసేవారు	-10.5372
▁ముస్లింల	-10.5374
▁కాంగ్రెసు	-10.5378
▁పాల్గొన్నారు	-10.5378
రంగంలో	-10.5378
▁చూడవచ్చు	-10.5379
ముద్ర	-10.5384
కంఠ	-10.5384
▁పొద	-10.5386
ాలజీ	-10.5392
▁చేసుకునే	-10.5396
▁వీటికి	-10.5397
▁ఆంగ్లంలో	-10.5398
▁నిర్మించాడు	-10.5398
▁చేసుకుంది	-10.5398
▁man	-10.54
mi	-10.5401
చక్ర	-10.5402
▁ప్రొఫెసర్	-10.5404
▁బంగ్లాదేశ్	-10.5404
▁వ్యాధుల	-10.5404
▁హెక్టారులు	-10.541
▁శ్రద్ధ	-10.541
▁వలయ	-10.5416
▁ఎత్తులో	-10.5416
భూమి	-10.5427
▁విజయవంతంగా	-10.5428
▁యూనివర్శిటీ	-10.543
ob	-10.543
▁సింధు	-10.5431
▁కామారెడ్డి	-10.5431
▁వ్ర	-10.5432
▁సౌందర్య	-10.5436
▁చేరారు	-10.5436
▁దోష	-10.5438
▁ఆంజనేయ	-10.5443
▁ఆఫ్రికన్	-10.5443
▁మరు	-10.545
▁జీవించ	-10.546
▁వసంత	-10.547
▁సూర్యుని	-10.5471
శాడు	-10.5473
▁ఒకదాని	-10.5475
rn	-10.5481
▁ఎముక	-10.5482
▁సమానంగా	-10.5483
▁లంక	-10.5483
వర్గ	-10.5489
▁కన్య	-10.5492
▁రాయల్	-10.5493
▁సంప్రదాయం	-10.5493
▁విద్వాంసు	-10.5495
▁విషయము	-10.5497
డియన్	-10.5498
ty	-10.55
▁నిషేధ	-10.5503
▁గ్రే	-10.5505
▁పురాణాల	-10.5508
▁పరస్పర	-10.5508
▁ఏమీ	-10.551
▁చర్మ	-10.5513
▁మీటర్లు	-10.552
▁ప్రోత్సాహ	-10.5521
adj	-10.5525
▁ఏది	-10.5525
ana	-10.5526
▁దాట	-10.5527
▁వారితో	-10.5528
వర్త	-10.5531
▁కావడంతో	-10.5539
▁విజయవంతమైన	-10.5539
శేఖర	-10.5541
▁రెడ్	-10.5541
▁ప్రారంభించిన	-10.5548
▁పెరుగు	-10.5548
▁డ్రా	-10.5554
▁వ్యయం	-10.5555
▁అభివృద్ధికి	-10.5557
▁నిర్వహిస్తారు	-10.5562
▁విమర్శకుల	-10.5564
▁వైరస్	-10.5565
నిష్	-10.5565
▁శక్తివంతమైన	-10.557
▁పెను	-10.5572
▁ముద్రించ	-10.5574
సిల్	-10.5574
▁అరేబియా	-10.5581
▁దక్షిణాన	-10.5582
▁స్థాపించి	-10.5584
▁దేవుని	-10.5584
▁పండ్లు	-10.5585
▁పొగ	-10.5585
▁సంభాషణ	-10.5588
▁దంత	-10.5588
వుతుంది	-10.5589
భూషణ	-10.5596
థె	-10.5597
▁దీనితో	-10.5599
▁ముని	-10.56
బ్రి	-10.5602
ial	-10.5603
▁దానితో	-10.5606
▁రంగులో	-10.5607
▁కాంగ్	-10.5608
▁ముద్రణ	-10.5614
▁శాన్	-10.5616
జాన్	-10.5619
దొ	-10.562
▁పండిత	-10.5621
▁నిర్ధారించ	-10.5621
నాటికి	-10.5621
ళా	-10.5622
▁చిన	-10.5624
▁సమ్మేళన	-10.5624
▁హాని	-10.5625
శివ	-10.5626
▁1952	-10.5629
▁గంట	-10.5641
పాలన	-10.5642
▁నాటకాలు	-10.5647
▁ముక్క	-10.565
▁నారాయణ్	-10.5655
▁నిషేధించ	-10.5659
▁అటవీ	-10.5661
రియో	-10.5663
స్థాప	-10.5665
మందు	-10.5666
▁సాంద్రత	-10.5668
▁లభించిన	-10.5674
▁కణాల	-10.5675
▁ముస్లింలు	-10.5676
▁కొద్దిగా	-10.5681
▁చేస్తోంది	-10.5683
▁ఎవరు	-10.5686
▁నిర్ణయం	-10.5687
▁యుద్ధానికి	-10.569
షియన్	-10.5691
▁ఉద్యోగుల	-10.5692
▁అడిగాడు	-10.5696
▁కమల	-10.5698
▁ఊహ	-10.5698
▁వస్తువులను	-10.57
▁శ్రమ	-10.5711
▁చేరుకుంది	-10.5714
K	-10.5717
▁పూజా	-10.5718
▁విధానాలు	-10.5718
▁యందు	-10.5719
బద్ద	-10.5729
▁ప్రదర్శనలు	-10.5732
షే	-10.5732
చెంద	-10.5734
▁పోయింది	-10.574
▁మెడ	-10.5742
▁క్వా	-10.5743
▁కవుల	-10.5744
▁పిలువబడే	-10.5744
▁వృ	-10.5749
▁పోర్	-10.5749
▁వ్యవహార	-10.5752
▁స్ట్రా	-10.576
▁మార్క్	-10.5762
▁నేపథ్యంలో	-10.5765
unt	-10.5765
▁చేసుకోవ	-10.5765
▁అరటి	-10.5766
▁చక్కెర	-10.5768
▁ఖగోళ	-10.5771
జాతీయ	-10.5771
ప్స్	-10.5775
▁గుర్తిస్తూ	-10.5778
▁any	-10.5784
▁విద్యాలయ	-10.5784
▁అనునది	-10.5789
▁also	-10.5789
▁పునః	-10.5789
▁మామూలు	-10.5789
ిస్తోంది	-10.579
ేశ్వరరావు	-10.579
▁నాగర్	-10.5792
▁ఇవ్వడం	-10.5796
min	-10.5796
▁ఉత్సవాల	-10.5799
▁కర్ర	-10.5799
▁విత్తనాల	-10.5802
▁సంతకం	-10.5806
▁ఆదిలాబాద్	-10.5807
వేసి	-10.5807
▁సమయానికి	-10.5808
కపోయినా	-10.5808
హె	-10.5817
▁దశాబ్దాల	-10.5818
▁ప్రధానమైన	-10.5818
▁మొదలైంది	-10.5818
▁మధుర	-10.5819
▁ఉపరితల	-10.582
ముందు	-10.5821
న్నింటి	-10.5822
ood	-10.5828
పూరిత	-10.5831
జీవిత	-10.5837
▁గెలిచి	-10.5837
▁ఆదర్శ	-10.5839
▁అత్యున్నత	-10.5843
▁గ్రంధ	-10.5844
▁నిధుల	-10.5848
▁స్థితిలో	-10.5854
పాలు	-10.5854
▁శత్రువు	-10.5858
▁భూభాగంలో	-10.5861
▁మైసూరు	-10.5863
▁దండయాత్ర	-10.5864
రేఖ	-10.5864
వృ	-10.5866
▁రంధ్రము	-10.5873
▁సాధించారు	-10.5875
▁క్యూ	-10.5875
▁ముఖ్యమైనవి	-10.5878
▁ఎన్నికల్లో	-10.5878
tal	-10.5881
▁మాటల	-10.5882
గలిగిన	-10.5888
▁గూర్చి	-10.5891
ండ్లు	-10.5892
▁రామ్	-10.5893
ాదేవి	-10.5895
▁నవంబర్	-10.5899
▁సుదీర్ఘ	-10.5904
▁పరిషత్తు	-10.5906
▁ఇందు	-10.5907
ాలైన	-10.591
▁పురాణం	-10.5911
▁ఎగువ	-10.5912
red	-10.5914
మింగ్	-10.5918
▁పొడవైన	-10.5918
శో	-10.5919
▁ప్రదేశాల	-10.5921
▁కొంచెం	-10.5925
▁అశోక	-10.5928
▁లభించాయి	-10.593
▁సుప్రసిద్ధ	-10.5932
▁వినాయక	-10.5935
▁చమురు	-10.5939
▁ఫ్లా	-10.594
తీర	-10.5943
▁డిసెంబర్	-10.5945
▁అవకాశాలు	-10.5946
▁అతన్ని	-10.5947
▁యాగ	-10.5951
▁ముంద	-10.5951
▁పరిచయ	-10.5956
▁మినహా	-10.5959
▁గోల్	-10.5961
రంగు	-10.5961
▁విశ్లేషణ	-10.5966
tor	-10.5972
▁కళాకారులు	-10.5972
▁రాజ్యాంగం	-10.5974
▁ఏట	-10.5974
స్తుంటారు	-10.5975
దర్శి	-10.5978
స్థానం	-10.5984
▁అక్బరు	-10.5987
▁పద్ధతులు	-10.5989
▁టాప్	-10.5994
▁ఇతడి	-10.5995
▁నేతృత్వంలో	-10.6
▁శు	-10.6
▁తమకు	-10.6001
▁బండ	-10.6007
▁మరీ	-10.6011
పురుష	-10.6012
సియన్	-10.6012
▁లేఖ	-10.6012
▁కల్గి	-10.6012
య్యింది	-10.6013
▁హ్యూ	-10.6013
▁అత్యుత్తమ	-10.6014
▁రచించాడు	-10.6015
ణ్య	-10.6019
▁పార్కు	-10.6019
చెరువు	-10.602
▁ఫిల్మ్	-10.602
▁తీర్మాన	-10.6021
▁సముద్రతీర	-10.6023
▁గూడ	-10.6027
▁అప్పగించ	-10.603
▁రూపొందించిన	-10.6033
▁హిల్	-10.6034
▁నిర్మించబడింది	-10.6034
▁కళ్ళ	-10.6036
▁ఉపయోగించడం	-10.6041
▁చీర	-10.6043
స్తోంది	-10.6044
▁టెస్ట్	-10.6048
ంఛ	-10.6049
▁బాహ్య	-10.6049
▁శోభ	-10.605
▁నివసిస్తున్నారు	-10.6052
▁రచయితలు	-10.6052
లెన్	-10.6056
▁అనుకున్న	-10.6061
▁లలిత	-10.6064
లిపి	-10.6065
పడ్డ	-10.6065
▁హనుమ	-10.6066
▁పాల్గొన్న	-10.6075
జెర్	-10.6075
సభ	-10.6076
నీటి	-10.6076
▁పెరి	-10.6076
▁అంటు	-10.6077
▁పిల్లలకు	-10.6078
గూడెంలో	-10.6081
▁కోర్సు	-10.6082
▁అక్టోబర్	-10.6084
▁ఇంగ్లీష్	-10.6084
▁రెవెన్యూ	-10.6084
▁పరిశ్రమలు	-10.6085
ుకుంటే	-10.6086
▁సంగ్రహ	-10.6087
▁ఓడించి	-10.6088
fi	-10.6092
▁సంగారెడ్డి	-10.6097
▁పిండి	-10.6097
▁త్వరగా	-10.6098
▁గట్టి	-10.6098
▁రంగారెడ్డి	-10.6108
▁చింతపల్లి	-10.6109
▁వెడల్పు	-10.6112
▁ఉంచి	-10.6114
▁గణపతి	-10.6115
▁నగరాన్ని	-10.6115
▁నిర్వాహక	-10.6115
ాచార్యులు	-10.6116
▁నువ్వు	-10.6118
▁నాణ్యత	-10.6119
▁ఇరవై	-10.6119
▁నివసించే	-10.6119
పోతాయి	-10.6122
▁మహిళ	-10.6122
▁కోస	-10.6123
నగరం	-10.6125
▁మార్పుల	-10.6127
▁ఊరు	-10.6129
▁అందరు	-10.6131
▁చెట్లు	-10.6132
▁నిండి	-10.6132
▁ఐదుగురు	-10.6135
▁వూ	-10.6135
▁ప్రమాణాల	-10.6136
▁రామాయణ	-10.6139
▁ఉద్యానవన	-10.614
▁64	-10.6147
▁నడుమ	-10.6148
▁చుట్టు	-10.615
▁సాక్ష్య	-10.615
▁శరీరంలో	-10.6151
▁డేటా	-10.6153
▁రోడ్డుతో	-10.6154
నెట్	-10.6155
▁పోలిస్తే	-10.6155
▁సభలో	-10.6157
టీఎం	-10.616
▁శుభ్ర	-10.6162
▁ఫైనల్	-10.6165
▁వుంటాయి	-10.6165
▁విజయవంత	-10.6172
▁ఆదరణ	-10.6182
▁పరిశ్రమల	-10.6185
▁ఓపెన్	-10.6189
▁నివారణ	-10.6189
ala	-10.6191
▁చో	-10.6192
నాగ	-10.6194
▁సంవత్సరములో	-10.6194
▁ఆధీనంలో	-10.6196
▁కార్పొరేషన్	-10.6196
▁మూర్తి	-10.6196
▁గ్రంథాలు	-10.6204
ండో	-10.6205
ట్రిక్	-10.6213
▁వెళ్ళిన	-10.6213
క్యూ	-10.6214
▁శ్రీమతి	-10.623
▁రాష్ట్రాలలో	-10.6231
5,000	-10.6231
▁పాయింట్	-10.6231
వెంట్	-10.6233
ధర్	-10.624
▁బియ్యం	-10.624
▁ఫ్రాం	-10.6243
▁కమిషన్	-10.6246
▁గాజు	-10.6246
ard	-10.6247
▁రజ	-10.625
ధాన్య	-10.6251
▁లాస్	-10.6253
నిర్మాణ	-10.6255
▁ధరించి	-10.6257
▁భవిష్యత్తు	-10.6262
▁మఠ	-10.6262
▁తెలుపు	-10.6266
శోధ	-10.6267
▁పాక్షిక	-10.6267
ుచున్నారు	-10.6272
mu	-10.6272
▁క్వి	-10.6274
▁సుల్తాన్	-10.6274
▁తై	-10.6277
▁దశాబ్ద	-10.6286
▁అడ్డు	-10.6287
▁పద్ధతిని	-10.6291
దై	-10.6293
▁భద్రత	-10.6294
▁పట్టి	-10.6295
▁రాశారు	-10.6297
హారం	-10.6299
▁భూభాగాల	-10.6302
మిష	-10.6303
ఫ్ట్	-10.6304
▁1983	-10.6306
▁నవ్వ	-10.6307
కాక	-10.6309
▁దుఃఖ	-10.631
▁5%	-10.6313
▁పరిశీలించ	-10.6318
▁తోడు	-10.6328
▁పోషక	-10.6331
ome	-10.6332
▁దిక్కు	-10.6334
▁అనుసంధానమై	-10.6335
ట్లే	-10.6337
పదార్ధ	-10.6338
▁మేఘ	-10.6338
▁తీరు	-10.6345
▁అర్హత	-10.6345
▁కొల్ల	-10.6347
ally	-10.635
▁కార్యక్రమంలో	-10.6353
కళా	-10.6355
▁మాస్టర్	-10.6358
▁లేకపోవడం	-10.6364
▁కనిపెట్ట	-10.6367
▁పరుగులు	-10.6367
▁గదుల	-10.6368
▁సులభంగా	-10.637
▁అంజ	-10.637
▁మతపరమైన	-10.6371
if	-10.6371
కూడ	-10.6371
▁బ్లా	-10.6371
చోట	-10.6374
▁న్యాయస్థాన	-10.6377
▁వడ	-10.6381
▁నెలలో	-10.6384
బాబు	-10.6385
▁దిశలో	-10.6386
▁స్పా	-10.6386
▁St	-10.6388
▁అలంకరించ	-10.6388
▁మసీదు	-10.6388
▁స్థాపన	-10.639
స్పష్ట	-10.6395
▁అందుకున్నారు	-10.6399
over	-10.6399
tra	-10.6399
ట్టే	-10.64
▁పరిగణ	-10.6403
▁మినుము	-10.6403
వీడు	-10.6404
▁వ్యవహర	-10.6407
▁గాథ	-10.641
▁సభ్యుడు	-10.641
ుతుంటాయి	-10.6412
▁చాట	-10.6413
▁బ్రాహ్మణుల	-10.6414
▁జలపాత	-10.6415
పర్తి	-10.6415
▁వర్షపాతం	-10.6417
▁పెర్	-10.6419
▁ప్రాంతంలోని	-10.6421
▁1962	-10.6421
▁ఎన్నికైనారు	-10.6424
▁వ్యవహారాల	-10.6428
▁పడుతుంది	-10.6431
▁ఉత్సాహ	-10.6432
Sub	-10.6432
సీమ	-10.6433
▁తీరంలో	-10.6435
▁సైట్	-10.6436
▁పొరుగు	-10.6437
▁మీడియా	-10.6437
▁అచ్చ	-10.6438
ach	-10.644
పడ్డాయి	-10.6442
▁గుడ్	-10.6445
▁ఈజిప్టు	-10.6446
▁మొఘల్	-10.6446
▁జంతువులు	-10.6447
రోధ	-10.6447
▁హస్త	-10.645
యందు	-10.6452
▁గణనీయమైన	-10.6453
ణ్ణ	-10.6455
▁అంచు	-10.6459
▁have	-10.646
బండ	-10.646
▁నందు	-10.6461
▁ప్రేరణ	-10.6463
▁రాష్ట్రాలు	-10.6464
▁సంధి	-10.6467
టికీ	-10.6475
▁అరకులోయలో	-10.6478
▁1985	-10.6481
▁హోమ	-10.6483
▁పెసర	-10.6486
▁అందమైన	-10.6488
▁గెలుచుకున్న	-10.6489
▁శాస్త్రవేత్తలు	-10.6489
▁సంపన్న	-10.6493
▁హిందువులు	-10.6493
▁ఆచరణ	-10.6494
వర్గం	-10.6498
▁పనికి	-10.6498
-4	-10.6501
ోదయ	-10.6502
▁ఆర్మేనియా	-10.6504
▁మైక్రో	-10.6504
▁పాఠ	-10.6506
▁విక్రయ	-10.6511
▁1971	-10.6515
నాయుడు	-10.6517
▁నిరాకరించ	-10.6518
▁వుండి	-10.6521
▁రాక్	-10.6522
▁చేతులు	-10.6524
▁అనేవి	-10.6526
▁వ్యాపించి	-10.6527
▁జగిత్యాల	-10.6533
▁నచ్చ	-10.6536
పుత్ర	-10.654
▁పోయిన	-10.6549
▁ట్యా	-10.6555
▁పనిచేసి	-10.6555
▁మాడుగుల	-10.6555
▁సమస్త	-10.6557
▁రాష్ట్రములోని	-10.6558
▁1920	-10.6559
▁చోట్ల	-10.656
▁వాయిద్య	-10.6562
▁రహదారుల	-10.6563
▁పరిషత్	-10.6564
ack	-10.6565
▁సులభ	-10.6568
▁పల్	-10.6569
▁బర్మా	-10.6574
▁నష్టం	-10.6575
స్థాయిలో	-10.6581
▁ఎర్	-10.6581
▁చేయబడ	-10.6584
▁కేటాయించ	-10.6584
▁నమ్మక	-10.6589
▁బిందువు	-10.6592
ద్దీన్	-10.66
▁నిర్వహిస్తున్న	-10.66
▁బెంగాలీ	-10.6606
▁భోగ	-10.6608
డియం	-10.6608
tic	-10.661
▁అందించిన	-10.6612
పర్చ	-10.6614
▁నిమ్మ	-10.6616
మెట్	-10.6618
▁కాలేజ్	-10.6621
ుంటాయి	-10.6623
భంగ	-10.6624
▁ప్రశాంత	-10.6627
▁వంగ	-10.6628
▁బలం	-10.6633
▁నిర్మాణంలో	-10.6633
▁పోలీస్	-10.6636
వలెను	-10.6637
రంగం	-10.6642
▁మండలంతో	-10.6643
▁శైవ	-10.6644
▁సాహస	-10.6646
▁హిందువుల	-10.6648
▁జరుగుతాయి	-10.6653
▁sp	-10.6655
▁సందేహ	-10.6658
▁వీజీ	-10.6667
▁రోగి	-10.667
▁ఐరోపాలో	-10.667
▁శ్రీకృష్ణ	-10.6671
▁అనారోగ్య	-10.6673
▁సముద్రమట్టానిక	-10.6673
▁ఉత్సవాలు	-10.6673
ులై	-10.6679
▁నిరంతర	-10.6682
▁un	-10.6683
▁అద్భుతమైన	-10.6687
సెల్	-10.6688
▁గణన	-10.6694
▁ఎన్ని	-10.6696
▁విమానాశ్రయ	-10.6697
▁రైతులు	-10.6698
▁పరిస్థితులు	-10.67
▁రాజ్యాన్ని	-10.6701
▁రంధ్రం	-10.6702
▁మంత్రిగా	-10.6703
▁దిశ	-10.6704
ేశాడు	-10.6706
▁దిశగా	-10.6707
ట్టుగా	-10.671
▁ఎడారి	-10.671
▁పరిశోధకులు	-10.6714
▁నాయిక	-10.6715
mon	-10.6722
▁పండించ	-10.6722
▁pre	-10.6728
▁ప్రాజెక్ట్	-10.6732
▁నోబెల్	-10.674
▁శనగ	-10.674
▁శ్వాస	-10.674
చేసింది	-10.6741
రకాల	-10.6744
▁దంపతుల	-10.6747
▁ఐక్య	-10.6755
▁కాలము	-10.6757
▁గుడివాడ	-10.6758
▁వహించారు	-10.6758
క్కా	-10.6759
▁టర్కీ	-10.6762
▁1984	-10.6766
▁ఓట్ల	-10.6766
▁వీరిని	-10.6768
▁పరిశీలన	-10.6769
▁మేక	-10.677
▁జ్యోతి	-10.6772
▁ఆదేశ	-10.6773
మగు	-10.6774
టొ	-10.6774
▁సరిపో	-10.6776
ai	-10.6778
▁1956	-10.6779
▁నగరాలలో	-10.6779
యుక్త	-10.678
▁1993	-10.6781
▁తిరిగ	-10.6784
▁శిథిల	-10.6784
▁అందరికీ	-10.6786
▁1967	-10.6789
▁కావున	-10.6789
▁భద్రాచలం	-10.6792
▁తాగ	-10.6798
▁లక్ష్మి	-10.6803
కారణ	-10.6803
▁కొందరి	-10.6805
▁పాలించ	-10.681
▁యువత	-10.6811
▁రుణ	-10.6811
ేటట్లు	-10.6813
రాణి	-10.6815
▁స్థాయికి	-10.6815
▁వాహనాల	-10.6818
▁సూత్రాల	-10.6818
▁తరహా	-10.6819
యుద్ధ	-10.682
సింది	-10.6826
ించుట	-10.6827
▁చేపట్టిన	-10.6829
యింగ్	-10.6832
▁వేలాది	-10.6833
కూర్	-10.6834
▁శాసనం	-10.6836
▁పేరిట	-10.6837
▁వాటర్	-10.6839
ప్రాయ	-10.684
▁ఆఖరి	-10.6845
▁వృష	-10.6846
గృహ	-10.6848
▁స్మారక	-10.6852
▁సమీక్ష	-10.6852
▁శిష్యుల	-10.6855
▁సిక్కు	-10.6855
▁కవులు	-10.6856
▁తప	-10.6856
▁India	-10.6859
▁వెంకటేశ్వర	-10.686
▁విధి	-10.6863
▁చేయటానికి	-10.6865
▁పేర్కొంది	-10.6867
sion	-10.6873
▁నిర్బంధ	-10.6876
▁నుండే	-10.6876
▁బాంబు	-10.6877
▁చతుర్	-10.6882
▁పిలిచే	-10.6887
కోశ	-10.6889
▁కలయిక	-10.6889
▁భోజన	-10.6889
▁వైభవంగా	-10.6892
బెట్టి	-10.6893
▁పవర్	-10.6894
▁పొందాయి	-10.6903
▁ప్రస్తావన	-10.6904
▁గ్రూపు	-10.6905
▁నిమిషాల	-10.6906
▁ఇస్తుంది	-10.6907
har	-10.6908
▁అంతేకాకుండా	-10.6912
▁బయలుదేర	-10.6916
▁వేగం	-10.6918
str	-10.6921
స్టిక్	-10.6922
les	-10.6924
▁కృష్ణుడు	-10.6927
▁ధైర్య	-10.6927
▁ఒడిషా	-10.6928
▁2017	-10.6929
▁పండ్ల	-10.6932
ub	-10.6933
▁సమూహాల	-10.6934
▁నిర్మించి	-10.6936
▁నివారించ	-10.6936
▁ప్రభువు	-10.6936
▁గిరిజన	-10.6937
▁భక్తులకు	-10.6942
▁విద్యార్థులకు	-10.6942
▁క్షయ	-10.6942
▁తీసుకురా	-10.6948
ెల్ల	-10.695
▁కవితా	-10.6953
▁క్షత్రియ	-10.6958
▁పదవ	-10.6958
ృష్ట	-10.6958
ction	-10.6959
▁1972	-10.6962
▁విక్రమ	-10.6963
క్లి	-10.6963
mo	-10.6964
పిస్తుంది	-10.6964
▁అగ్నిపర్వత	-10.6966
▁స్క్	-10.6972
▁అధ్యాపక	-10.6973
▁జ్ఞాపక	-10.6973
మియా	-10.6976
▁భగవ	-10.6977
▁ఉన్నాయని	-10.698
▁అనుమాన	-10.6985
▁అప్	-10.6987
▁విరమణ	-10.6988
▁భారతీయుల	-10.6995
▁ప్రత్యర్థి	-10.6996
కొద్దీ	-10.6998
▁చేపలు	-10.6999
▁మేళ	-10.7
▁సంబంధాల	-10.7005
▁కొత్తగూడెం	-10.7006
ple	-10.7011
▁ఆరుగురు	-10.7013
▁పరమాణు	-10.7026
కొన్న	-10.7027
8%	-10.7028
▁ఆధారపడ	-10.7035
to	-10.7037
▁ప్రభావిత	-10.7039
▁ప్రవాహం	-10.7054
▁అగు	-10.7054
ఎన్	-10.7054
▁అన్నమయ్య	-10.7059
▁ఆలయానికి	-10.706
కృత్	-10.7061
యుగం	-10.7065
▁యూనిట్	-10.7069
▁ఘంటసాల	-10.7072
▁సమకాలీన	-10.7072
▁ప్రచురించారు	-10.7075
▁ఫ్రె	-10.7075
▁పఠ	-10.708
▁దక్షిణాఫ్రికా	-10.708
▁మెడికల్	-10.708
▁పుష్కర	-10.708
▁1975	-10.7082
టెల్	-10.7083
దనం	-10.7088
▁స్వదేశ	-10.7088
బడుతోంది	-10.7088
▁జరిపిన	-10.7089
ుకోవటం	-10.7091
▁బ్యాండ్	-10.7099
form	-10.7099
పింగ్	-10.7099
ుచుండ	-10.7101
▁ఉద	-10.7101
▁అవమాన	-10.7101
▁రైతుల	-10.7103
▁400	-10.7104
▁సంరక్ష	-10.7104
క్ష్య	-10.7104
▁కనక	-10.7106
▁ధ్యాన	-10.7106
bl	-10.7107
▁గ్రంథము	-10.7107
▁హౌ	-10.7107
▁సిరి	-10.7108
▁చక్కని	-10.7111
▁గడ్డ	-10.7113
యుండ	-10.7114
ులయ్యారు	-10.7114
▁ఉపయోగం	-10.7115
ాన్నే	-10.7116
▁గుప్త	-10.7117
▁సంతాన	-10.7119
▁విజయాన్ని	-10.7121
▁పదము	-10.7122
▁వాడకం	-10.7124
▁కత్తి	-10.7126
▁వహిస్త	-10.7127
తీయ	-10.7128
▁గుండ	-10.7132
wa	-10.7135
▁ఆధిపత్యం	-10.7135
▁విస్తరించింది	-10.7141
▁జన్యు	-10.7144
▁ఛాంపియన్	-10.715
ునితో	-10.7152
సెంట్	-10.7155
the	-10.716
▁పాండవుల	-10.7162
కెక్క	-10.7163
▁ప్రజాస్వామ్య	-10.7166
▁వ్రత	-10.7173
▁తులసి	-10.7174
▁తాళ	-10.7174
▁రాళ్ళ	-10.7177
▁అనేకమంది	-10.7179
స్థుల	-10.7179
▁రాకెట్	-10.7181
▁కుంభ	-10.7183
▁ఇటీవలి	-10.7185
గలిగి	-10.7186
ానంతరం	-10.7186
పల్లిలోనూ	-10.7188
▁మెజారిటీ	-10.7188
▁సాయంత్రం	-10.7188
▁అల్లాహ్	-10.7188
సముద్రం	-10.7188
ధేయ	-10.7189
తెలంగాణ	-10.719
▁హెర్	-10.7191
రైడ్	-10.7199
▁1977	-10.7201
▁వేదాంత	-10.7203
▁చిత్రాన్ని	-10.7203
▁విటమిన్	-10.7204
ార్ధం	-10.721
▁క్రిస్ట	-10.7211
▁శస్త్రచికిత్స	-10.7212
▁పండితులు	-10.7214
▁మార్పిడి	-10.7218
పత్రిక	-10.7218
▁జింక	-10.7221
▁తలెత్త	-10.7222
▁క్లో	-10.7224
శాసన	-10.724
పాలి	-10.7241
▁స్ఫూర్తి	-10.7243
▁పడవ	-10.7245
ించబడిన	-10.7247
▁పక్కన	-10.7249
▁హిట్	-10.7251
▁ఎవరైనా	-10.7251
▁మౌలిక	-10.7252
పురాణ	-10.7253
▁ఎంచ	-10.7255
▁ప్రయోజనాల	-10.7258
▁సిరీస్	-10.7259
▁చేశా	-10.7259
▁పసిఫిక్	-10.7267
▁article	-10.7267
▁సిద్ధిపేట	-10.7267
▁ఎరుపు	-10.7267
▁ఫ్లో	-10.7273
▁విలువైన	-10.7276
▁ఆధారం	-10.7277
దుర్గ	-10.7278
ight	-10.7282
▁గ్రహించి	-10.7283
▁నిజమైన	-10.7289
▁ప్రమాణం	-10.729
ఇతర	-10.7291
▁ప్రదేశాలలో	-10.7296
▁క్షిపణి	-10.7298
▁స్థూల	-10.7298
output	-10.7298
▁తొలిసారిగా	-10.7302
వంటి	-10.7302
భిక్ష	-10.7304
▁బాగు	-10.7308
దగ్గ	-10.7309
▁పోర్చుగీసు	-10.7314
▁సౌత్	-10.7316
▁క్షీణ	-10.7317
▁కళాకారుల	-10.7319
▁బ్రిటీషు	-10.7322
▁యాజమాన్య	-10.7322
▁రంపచోడవరం	-10.7322
▁సైనికులు	-10.7323
పట్ల	-10.7324
▁గుర్తించి	-10.7327
▁అధిగమించ	-10.733
▁ఏమిటంటే	-10.733
▁సహకారంతో	-10.7331
cu	-10.7339
▁పతాక	-10.7339
▁పుట్టుక	-10.7342
▁ఉపయోగించిన	-10.7344
సాన్	-10.7347
▁వ్యతిరేకించ	-10.735
▁సేకరించి	-10.735
▁జిల్లాల్లో	-10.735
▁దళిత	-10.735
▁చైనాలో	-10.7356
స్ట్రో	-10.736
▁మస్జిద్	-10.7361
▁నాటిక	-10.7363
బడినది	-10.7372
▁into	-10.7373
▁పెన్	-10.7374
కారము	-10.7375
▁తిరగ	-10.7377
▁సరాసరి	-10.7377
▁నాగేశ్వరరావు	-10.7378
లేఖ	-10.738
ాధికారి	-10.7388
మరియు	-10.7391
ral	-10.7393
▁బెంగుళూరు	-10.7393
▁మిక్కిలి	-10.7393
▁తెలిపారు	-10.7393
▁బ్రాడ్	-10.7393
▁తరంగ	-10.7394
ాధిపతి	-10.7399
▁దె	-10.74
▁పేర్ల	-10.7401
▁స్వీయ	-10.7401
▁నుంచే	-10.7402
▁సహకరించ	-10.7403
▁ప్రారంభించి	-10.7406
▁ప్రయాణీకుల	-10.7409
▁తెలియజేస	-10.7412
ign	-10.7415
▁వ్యూహ	-10.7416
▁చిట్ట	-10.7419
▁other	-10.7422
ron	-10.7422
▁అరుదుగా	-10.7425
ran	-10.7429
▁రంధ్ర	-10.743
▁విశాల	-10.743
▁గెలుపొంద	-10.7431
▁ఆల్బమ్	-10.7433
▁విషయాలను	-10.7436
▁మెక్సికో	-10.7441
▁నదులు	-10.7441
▁మెదడు	-10.7441
amu	-10.7447
▁పౌరులు	-10.745
▁సాల్	-10.7453
సౌ	-10.7455
▁తీర్పు	-10.7457
▁చిత్రాలను	-10.7458
▁నిర్వహించే	-10.746
▁చిన్నతనం	-10.7464
▁చెప్పబడింది	-10.7464
▁శతాబ్దపు	-10.7465
▁dis	-10.7465
▁అధికారాన్ని	-10.7468
▁mw	-10.7469
▁ప్రై	-10.747
eg	-10.7473
▁ఆయుర్వేద	-10.7473
▁పదానికి	-10.7483
▁ఇక్కడే	-10.7484
రేషన్	-10.7486
▁కర్నూల్	-10.7489
▁ఆయుధాల	-10.7494
▁చెందుతున్న	-10.7495
▁తరపున	-10.7497
▁ద్వితీయ	-10.7497
ానిక	-10.75
▁విశ్వవిద్యాలయము	-10.75
స్తుంటాయి	-10.7501
▁పడిన	-10.7502
▁రోగుల	-10.7503
▁కర్మాగార	-10.7506
▁కార్మిక	-10.7507
▁లక్షణ	-10.751
▁To	-10.7511
▁నదుల	-10.7513
ాయణ	-10.7516
▁వేళ	-10.7522
▁we	-10.7524
▁కృ	-10.7525
గ్రంథ	-10.7526
▁హొ	-10.7529
▁టైటిల్	-10.7531
ip	-10.7531
▁ఒడ్డున	-10.7531
▁పరికరం	-10.7534
▁ప్రభావాల	-10.7535
▁ఉపాధి	-10.7537
▁కలిగే	-10.7543
▁మొదటిసారి	-10.7544
parser	-10.7545
ళిక	-10.7545
▁బ్రెజిల్	-10.7545
▁మార్గాలు	-10.7546
▁బ్యాటరీ	-10.7546
▁ఉండేవాడు	-10.7551
▁ఏర్పడి	-10.7555
▁కష్టం	-10.7556
మంటే	-10.7557
ణువు	-10.7561
▁విశాఖ	-10.757
bu	-10.7571
ప్పుడే	-10.7571
▁ద్వారక	-10.7573
▁భాషగా	-10.7575
▁పురుగు	-10.7576
▁సింహాసన	-10.7577
▁క్యాన్సర్	-10.7577
దర్శ	-10.7578
సమీప	-10.758
▁ఉత్సవ	-10.758
▁ఆదివారం	-10.7586
▁శాస్త్రంలో	-10.7589
▁పరిమితం	-10.7593
▁ఒంటరి	-10.7594
▁అంక	-10.7596
ప్రో	-10.7597
▁ఉద్యమంలో	-10.7599
▁పట్టణాల	-10.76
▁శాతవాహన	-10.7602
▁వర్గీకరించ	-10.7603
▁బొంబాయి	-10.761
▁నిర్వహిస్తుంది	-10.761
▁దళాల	-10.7614
▁వ్యవస్థాపక	-10.7615
▁చేశాయి	-10.7615
తోనూ	-10.7615
▁ధరించిన	-10.7616
▁వెనక	-10.7621
▁1974	-10.7622
▁కథానాయక	-10.7627
▁పర్వ	-10.763
▁మరాఠీ	-10.7634
▁సరస్వతి	-10.7634
▁త్రాగ	-10.7635
న్నిటి	-10.7644
▁దోహద	-10.7648
▁అమె	-10.765
▁ప్రవహిస్త	-10.7652
▁దుర	-10.7652
▁నిరసన	-10.7652
కార్బను	-10.7653
▁వహిస్తున్న	-10.7653
▁ఏర్పడుతుంది	-10.7656
▁శృంగార	-10.7659
జెన్	-10.7662
▁వ్యవసాయాధారిత	-10.7667
▁విద్యాభ్యాసం	-10.7667
▁ఎందరో	-10.7667
rt	-10.7668
▁will	-10.7668
▁యాదవ	-10.767
▁తిరువ	-10.7671
▁నగరంలోని	-10.7672
▁పాల్గొని	-10.7673
tri	-10.7678
▁ఉప్ప	-10.7679
ుకొన్నాడు	-10.7679
▁---	-10.768
▁నిలయ	-10.7681
▁ప్రతినిధి	-10.7683
▁బోర్	-10.7683
▁ఓడించ	-10.7688
▁సమా	-10.7691
▁వ్యత్యాస	-10.7691
▁నిష్పత్తి	-10.7691
▁తరగతుల	-10.7692
▁శ్రీరంగ	-10.7696
లాండు	-10.7702
▁సంబ	-10.7702
▁lo	-10.7704
▁కాఫీ	-10.7707
▁ఆసియాలో	-10.7707
▁జమీందార	-10.7708
▁మలేషియా	-10.7708
▁జరుపుకుంటారు	-10.771
▁వినిపించ	-10.7719
▁1955	-10.7728
▁ప్రఖ్యాతి	-10.7729
mar	-10.773
be	-10.7732
▁ద్వ	-10.774
mit	-10.774
▁ప్రయోజన	-10.7744
▁అప్పటికి	-10.7748
▁1946	-10.7751
-5	-10.7755
▁అన్నా	-10.7756
▁వ్యవహరిస్తారు	-10.776
పయోగ	-10.7762
2)	-10.7763
▁కరువు	-10.7763
ింపజేస	-10.7763
ite	-10.7768
పియన్	-10.7769
బాహు	-10.7771
▁స్పె	-10.7772
▁ప్రతినిధుల	-10.7782
▁you	-10.7782
▁1988	-10.7785
▁ఓట్లు	-10.7785
▁నోటి	-10.7787
▁ఇద్దరూ	-10.779
▁ఓటమి	-10.779
▁విక్రయించ	-10.7791
▁ఉత్సవం	-10.7793
▁గ్రాండ్	-10.7796
▁ఉదాహరణలు	-10.7802
▁పెరుగుతున్న	-10.7802
▁కచ్చితంగా	-10.7807
▁ప్రభావాన్ని	-10.7807
▁ఎన్నికయ్యాడు	-10.7807
▁మైదాన	-10.7811
▁నేర్చుకున్న	-10.7813
ప్రియ	-10.7814
▁పురస్కారాన్ని	-10.7818
▁బ్ల	-10.7826
▁రెండ	-10.7829
ust	-10.7831
▁మక్కా	-10.7832
▁మందిరం	-10.7838
▁రూపాయలు	-10.784
▁చారిత్రిక	-10.784
ens	-10.784
▁కదలిక	-10.7843
▁బంగారం	-10.7844
▁ఉపన్యాస	-10.7845
▁పోషించారు	-10.7847
▁సుల్తాను	-10.7848
▁ఇష్టం	-10.7849
▁డిజిటల్	-10.7856
▁పురావస్తు	-10.7856
▁లైంగిక	-10.7856
▁ద్వారం	-10.7866
han	-10.7866
▁ఉద్దేశించి	-10.7867
గొట్టపు	-10.7878
▁అత్త	-10.7879
▁వాడుతారు	-10.788
▁పూజించ	-10.788
▁శంకర్	-10.7886
port	-10.7887
▁ద్రాక్ష	-10.789
ుతుంద	-10.7891
▁కథనం	-10.7896
▁మతము	-10.7898
▁భూకంప	-10.7899
వాళ్ళు	-10.7902
▁పెరిగే	-10.7909
▁ఆవిరి	-10.7909
▁మూలకం	-10.7918
దేవ్	-10.7919
▁భూముల	-10.7919
వాహన	-10.7919
▁ఇతనికి	-10.7922
▁చేయబడుతుంది	-10.7923
▁సెట్	-10.7929
▁ఎత్తున	-10.7937
▁తెలుసుకున్న	-10.794
▁రామాయణం	-10.7944
▁పదార్థాలు	-10.7948
▁ఒంగోలు	-10.7948
▁ఆకర్ష	-10.7953
▁వాదించ	-10.7958
▁ఇస్లామీయ	-10.7959
▁ఇంద్రుడు	-10.7959
▁కారణాలు	-10.7961
▁గ్లా	-10.7963
▁దగ్గరి	-10.7963
▁బాయిలరు	-10.7965
▁ఆనకట్ట	-10.7966
ాధ్యక్ష	-10.7966
▁1964	-10.7976
▁1978	-10.7978
రాత్రి	-10.798
▁యజమాని	-10.7982
▁సోదరుడు	-10.7982
▁సంప్రదాయాల	-10.7983
▁ఆర్ట్	-10.7986
▁such	-10.799
▁పాల్గొంట	-10.7991
▁చంద్రశేఖర	-10.7992
▁సూర్యుడు	-10.7997
hy	-10.7998
1)	-10.7998
▁వికీపీడియా	-10.7999
▁భాగస్వామ్యం	-10.8001
రూపంలో	-10.8002
▁గలవాడు	-10.8005
ాన్నీ	-10.8014
▁పెరిగిన	-10.8016
పోయ	-10.8024
▁దృఢ	-10.8024
వేసే	-10.8024
కాలము	-10.8027
▁నిర్వచించ	-10.8028
▁వాసన	-10.8029
▁కలిగించే	-10.8031
▁పోయ	-10.8032
▁ధార్మిక	-10.8033
▁థాయ్	-10.8033
కపోవడం	-10.8033
▁సముద్రంలో	-10.8033
ేటప్పుడు	-10.8034
▁ఆక్రమణ	-10.8034
▁భీష్మ	-10.8038
▁స్వీకరించి	-10.8039
▁శారీరక	-10.8041
ెయిన్	-10.8044
▁వెళ్ళారు	-10.8047
▁పెరగ	-10.805
▁గడ్డి	-10.8057
▁కడుపు	-10.8067
▁పర్షియన్	-10.8067
గంటి	-10.8067
▁తమిళం	-10.8068
▁కవిత్వ	-10.807
▁1979	-10.807
▁ప్రపంచంలోనే	-10.8072
▁సైనికుల	-10.8073
▁చేయగల	-10.8074
వాణి	-10.8076
▁086	-10.8079
ever	-10.8079
▁రచయితగా	-10.8089
▁ప్రీ	-10.8091
▁వ్యక్తం	-10.8093
▁మద్రాసులో	-10.8094
▁రాయలసీమ	-10.8101
▁జార్జ్	-10.8101
▁ఏకీకృత	-10.8102
▁బహుశా	-10.8103
▁ముద్ద	-10.8103
▁కౌరవ	-10.8105
▁సౌదీ	-10.8107
వైద్య	-10.811
నందున	-10.8111
దండ	-10.8111
▁డైరెక్టర్	-10.8122
▁దేశాలకు	-10.8122
▁భయపడ	-10.8122
పీఠ	-10.8123
▁కౌంటీ	-10.8126
▁సన్నిహిత	-10.8126
▁కావలి	-10.8128
tt	-10.8132
▁వైఎస్	-10.8133
▁ప్రోగ్రామ్	-10.8135
▁భిన్నంగా	-10.8136
▁చలి	-10.8137
▁పురాతనమైన	-10.8147
▁కనపడ	-10.8154
▁పరికరాలు	-10.8155
▁ప్రబల	-10.8156
విజయ	-10.8157
▁లక్షణాల	-10.816
సంఖ్య	-10.8161
▁సౌర	-10.8164
స్థాన్	-10.8165
▁అరబ్	-10.8169
ీయులు	-10.8169
▁రాముని	-10.817
▁చెప్పింది	-10.8171
▁శివలింగ	-10.8174
rea	-10.8176
▁ఖ్యాతి	-10.8178
ult	-10.8181
▁1965	-10.8181
3)	-10.8182
▁ప్రక్కన	-10.8183
ధారి	-10.8186
▁సంవత్సరముల	-10.8191
షర్	-10.8191
low	-10.8191
మృగ	-10.8194
▁all	-10.8194
▁లభించే	-10.8194
▁తయారుచేయ	-10.8195
▁అపరాలు	-10.8197
▁దాడుల	-10.8197
▁రంగారావు	-10.8206
▁వాహక	-10.8209
▁మర్రి	-10.8211
▁మహాత్మా	-10.8211
భరిత	-10.8217
▁ఉంట	-10.8217
▁సెన్	-10.8217
హైడ్ర	-10.8218
sp	-10.8221
లంక	-10.8224
▁పునర	-10.8224
▁జార్జి	-10.8226
▁సాయి	-10.8226
▁ఎవరూ	-10.8227
▁సామంత	-10.8233
క్రమణ	-10.8235
▁భాషల్లో	-10.8236
▁భీమవరం	-10.8238
way	-10.8238
▁కాలుష్య	-10.8238
ారణ్య	-10.824
▁సాగింది	-10.8243
▁బాధపడ	-10.8246
▁కలదు	-10.8248
నగర	-10.825
▁సంగీతాన్ని	-10.8252
▁ఉండాలని	-10.8255
▁జేమ్స్	-10.8257
▁నిరోధించ	-10.8259
▁నారద	-10.8262
▁గింజల	-10.8263
▁ఇల్లు	-10.8263
▁నివాసగృహాలు	-10.8264
▁నంద్యాల	-10.8265
▁భీష్ముడు	-10.8268
▁నియమాల	-10.8268
▁గై	-10.8271
▁చిత్రాలకు	-10.8273
▁ఎదురుగా	-10.8276
▁అత్యవసర	-10.8281
▁నాల్గవ	-10.8281
▁తాజా	-10.8284
ake	-10.8284
▁1945	-10.8293
▁మునిగి	-10.8297
▁సంస్కృతుల	-10.8297
▁పరిమాణంలో	-10.83
▁శరణ	-10.83
▁శుక్ర	-10.8301
▁ఉత్పత్తులు	-10.8301
▁డాలర్ల	-10.8301
▁విముక్తి	-10.8301
▁కరిగి	-10.8302
▁ల్యా	-10.8302
▁తీసుకున్నారు	-10.8303
▁పరిష్కరించ	-10.8304
▁కాథలిక్	-10.8308
▁శైలిలో	-10.8311
▁అక్రమ	-10.8312
▁దాచ	-10.8312
▁120	-10.8314
▁మాతృ	-10.8314
▁నీతి	-10.8316
▁చారిత్రాత్మక	-10.8316
▁1987	-10.832
▁నగరాలు	-10.8322
▁గంగరాజు	-10.8322
▁నగరము	-10.8327
▁సతీ	-10.8331
▁మోహన్	-10.8331
▁జాతర	-10.8333
tain	-10.8334
▁యుక్త	-10.8337
ఫోన్	-10.8338
మునందు	-10.834
▁మెక్	-10.8341
▁ప్రతీక	-10.8344
▁సిద్ధాంతాల	-10.8345
▁టిబెట్	-10.8345
ాబాదు	-10.8346
▁గరి	-10.8346
▁టెలి	-10.8351
▁గేయ	-10.8355
▁ప్రదేశాలు	-10.8357
▁ధ్వని	-10.8358
▁పడే	-10.8361
▁కేంద్రము	-10.8361
▁చర్మం	-10.8363
▁పరిపాలనా	-10.8363
త్రో	-10.8366
▁జన్మించింది	-10.8371
నీరు	-10.8374
▁ఎన్నికలు	-10.8375
▁గట్టిగా	-10.8377
▁మూలకాల	-10.8377
▁1982	-10.838
▁అప్పు	-10.8381
కర్మ	-10.8382
ఉపయోగిస్తున్నారు	-10.8383
▁భోజనం	-10.8383
▁మైళ్ళ	-10.8385
▁న్యాయవాది	-10.8387
▁అంశాలను	-10.8389
▁సగ	-10.8393
ురాలిగా	-10.8394
old	-10.8395
హార్	-10.8398
వాదులు	-10.84
▁ఇష్టపడ	-10.84
man	-10.8401
▁లైట్	-10.8402
▁కాశ్మీర్	-10.8403
ఘోష	-10.8403
▁సంక్షోభ	-10.8404
▁దగ్గరలో	-10.8408
▁పంపించ	-10.841
పెద్ద	-10.8411
▁పడమర	-10.8416
gen	-10.8418
▁ఎవర	-10.8419
ద్రా	-10.8421
▁పయన	-10.8421
▁రేవు	-10.8421
సమయంలో	-10.8423
▁కొలత	-10.8427
▁పంచాయతీకి	-10.8433
▁అధ్యక్షుడిగా	-10.8434
▁దళం	-10.8434
బ్లి	-10.8437
▁తగినంత	-10.8438
▁కన్ను	-10.8443
▁1969	-10.8444
▁బోధన్	-10.8446
భాగ్య	-10.8446
▁పోటీలలో	-10.8448
▁పునరుద్ధరించ	-10.8448
▁పిలుపు	-10.8449
▁దర్శనం	-10.845
▁ఆయిల్	-10.8456
▁పులుల	-10.8456
▁ప్రకటించాడు	-10.8458
▁పాఠ్య	-10.8458
▁ఆరవ	-10.8464
బట్టి	-10.8465
▁మోహ	-10.8466
▁ఋ	-10.8467
చేశాడు	-10.8468
▁He	-10.848
▁కూలి	-10.8482
▁ఆలయాన్ని	-10.849
▁రవీంద్ర	-10.8492
▁మత్స్య	-10.8492
▁డేవిడ్	-10.8492
▁రికార్డ్	-10.8492
▁2018	-10.8496
లూరి	-10.8496
row	-10.8497
▁వాద్య	-10.8501
మిడి	-10.8502
▁మేరీ	-10.8505
ram	-10.8509
▁గుట్ట	-10.851
▁వాతావరణంలో	-10.8525
▁విగ్రహాలు	-10.8531
▁ఏర్పాట	-10.8533
ld	-10.8533
▁భార	-10.8536
▁రకరకాల	-10.8537
జియా	-10.8537
▁కాకతీయ	-10.8539
▁పిలిచేవారు	-10.854
land	-10.854
▁పెంపకం	-10.854
▁విజయవాడలో	-10.8541
▁గుర్రాల	-10.855
▁తవ్వ	-10.8552
▁రాబర్ట్	-10.8554
▁నీళ్ళ	-10.8556
రియం	-10.856
▁ఆవిష్కరణ	-10.8563
▁శిల	-10.8563
▁మధు	-10.8565
▁వచన	-10.8572
▁ఆధిక్యత	-10.8572
▁అప్పుడే	-10.8573
దేవుని	-10.8573
▁మహారాజా	-10.8575
గిలి	-10.8577
▁దుస్తుల	-10.8578
▁రీసెర్చ్	-10.8581
▁used	-10.8581
▁అంతస్తు	-10.8586
▁250	-10.8588
▁దుస్తులు	-10.859
▁కోల్పో	-10.8594
▁టూ	-10.8595
▁పూస	-10.8599
▁చెడు	-10.8602
▁రాశాడు	-10.8605
▁ఎత్తి	-10.8607
▁మారిన	-10.8608
ail	-10.8609
▁స్థిరమైన	-10.8613
ice	-10.8616
▁cs	-10.8616
▁వ్యాఖ్యాన	-10.8617
▁అధిపతి	-10.8619
▁తెలుసుకో	-10.8621
ఎల్	-10.8623
▁కాయగూరలు	-10.8626
▁చిత్రీకరణ	-10.863
దీప	-10.863
▁ఇవ్వబడింది	-10.8631
▁ఎలక్ట్రానిక్	-10.8635
▁ఆరోపణల	-10.8635
▁అయ్యారు	-10.8635
▁ఆత్మకూరు	-10.8638
▁సాయుధ	-10.8639
▁రాజ్యాల	-10.8641
▁విక్టోరియా	-10.8644
▁శీర్షిక	-10.8644
▁తమ్ముడు	-10.8652
యానా	-10.8652
▁పెట్టె	-10.8652
రాజా	-10.8656
ోద్	-10.8656
▁విప్లవం	-10.866
లాగే	-10.8661
కెన్	-10.8661
▁ముగించ	-10.8663
pur	-10.8667
▁క్షీణించ	-10.8667
▁డ్రై	-10.8667
▁సర్ప	-10.8668
▁కార్యక్రమాలను	-10.8672
ఘట్ట	-10.8673
▁సమాంతర	-10.8675
కొండలో	-10.8676
▁పద్యం	-10.8678
▁ఇంకొక	-10.8678
▁1957	-10.8681
▁నిరంతరం	-10.8687
▁వ్యాపించ	-10.8689
▁ఖమ్మంలో	-10.8692
▁శ్రీకృష్ణుడు	-10.8695
india	-10.8697
▁కరీంనగర్లో	-10.8701
dy	-10.8703
▁ఇన్స్టిట్యూట్	-10.8707
బొమ్మ	-10.8708
▁తేమ	-10.8709
ుకుంటాయి	-10.871
▁సమస్యలను	-10.8712
ian	-10.8714
జన్మ	-10.8725
▁విజేత	-10.8726
▁నిరోధక	-10.8726
▁వర్ణన	-10.8727
▁కళల	-10.8728
▁నిన్ను	-10.873
▁వశ	-10.8731
▁సదుపాయాల	-10.8733
▁నిపుణులు	-10.8742
▁చేయబడి	-10.8742
▁బంతి	-10.8743
▁అక్షరాల	-10.8744
▁విలియం	-10.8744
▁సాంకేతికత	-10.8745
▁ఒకవేళ	-10.8753
▁ఆరంభించ	-10.8755
▁దళాలు	-10.8756
▁యేసు	-10.8763
▁కాకినాడలో	-10.8765
కుడిగా	-10.877
రీత్యా	-10.8775
▁గేమ్	-10.8779
▁అయిదు	-10.8779
▁మార్గదర్శక	-10.878
▁డీఏ	-10.8783
▁వయస్సులో	-10.8786
▁భీముడు	-10.8788
▁were	-10.8791
▁చెప్పడం	-10.8792
▁అడుగుపెట్ట	-10.8792
గ్గి	-10.8797
▁తెలియదు	-10.8798
▁ద్రవ్యరాశి	-10.8799
▁డాన్	-10.88
మార్గం	-10.8801
▁నిర్వహించెదరు	-10.8801
▁యమ	-10.8801
▁నిరోధ	-10.8804
▁చిహ్నాల	-10.8805
▁నిధులు	-10.8805
▁కలుగుతుంది	-10.8813
▁కాలిఫోర్నియా	-10.8817
▁రంగాలలో	-10.8818
▁తీవ్రత	-10.8826
▁దిగుమతి	-10.8826
▁ఇవన్నీ	-10.8826
▁చెయ్యడం	-10.883
▁ఖురాన్	-10.8835
▁బిలియన్ల	-10.884
▁ఉంద	-10.8841
▁వెంకటగిరి	-10.8842
▁వ్రాత	-10.8844
▁తల్లిదండ్రుల	-10.8844
▁ప్రత్య	-10.8845
▁ఆహ్వాన	-10.8846
ాంశాల	-10.8849
▁Al	-10.885
ుందని	-10.8852
ావధాన	-10.8853
విధానం	-10.8855
▁విడిచిపెట్ట	-10.8855
▁పదార్థ	-10.8859
▁వదల	-10.886
▁ఘర్షణ	-10.8863
▁మూత్ర	-10.8867
▁ఐదవ	-10.8872
▁సైన్యాన్ని	-10.8878
▁వాషింగ్టన్	-10.8881
▁అగ్రహారం	-10.8882
▁క్రైస్తవులు	-10.8883
స్టె	-10.8886
పితామహ	-10.8887
▁శాంత	-10.8888
▁గొంతు	-10.8891
▁సంగమ	-10.8895
▁సంకల్ప	-10.8896
▁కనుగొన్నారు	-10.8896
మరణ	-10.8899
▁క్లోరైడ్	-10.89
▁బిలియన్	-10.89
▁ఏర్పడును	-10.8903
▁1954	-10.8904
▁వెల్డింగు	-10.8909
▁పక్షి	-10.8911
▁సీఆర్	-10.8913
▁కార్తీక	-10.8913
ప్రభుత్వ	-10.8916
▁ఆవరణ	-10.8917
▁వెలువరించ	-10.8918
-6	-10.8919
▁నిలబెట్ట	-10.8919
▁విడిగా	-10.8919
ుడని	-10.8921
▁పెట్టింది	-10.8922
▁ద్వీపాల	-10.8922
▁తగ	-10.8924
▁కచ్చితమైన	-10.8927
బ్యూ	-10.8932
▁ప్రయోజనం	-10.8934
ుకోవటానికి	-10.8936
▁మ్యూజిక్	-10.8936
▁నడిపించ	-10.8942
ప్రదేశ	-10.8943
రచన	-10.8943
జిత్	-10.8948
▁part	-10.8949
▁పరీక్షించ	-10.8954
▁యాంత్రిక	-10.8955
▁1986	-10.8959
▁అందించింది	-10.8964
▁క్రియాశీల	-10.8964
▁సత్యాగ్రహ	-10.8964
▁తుఫాను	-10.8964
▁కార్యకలాపాలు	-10.8965
కర్ణ	-10.8967
▁ఘనంగా	-10.8969
▁లక్షణం	-10.8972
▁వసూలు	-10.8974
▁ఇనుము	-10.898
au	-10.898
స్తుంద	-10.898
▁ఆఫ్ఘనిస్తాన్	-10.8983
మండలి	-10.8992
▁ధ్యానం	-10.8993
▁UK	-10.8993
బట్ట	-10.8995
▁నిర్మించబడిన	-10.8996
▁సహాయపడ	-10.8997
▁1966	-10.8997
▁కొట్టి	-10.9002
▁రెట్లు	-10.9004
దారి	-10.9009
▁కాలములో	-10.901
▁ఫార్మ	-10.9011
వెళ్ళ	-10.9011
▁వ్యాధులు	-10.9017
▁మార్చారు	-10.9018
▁నెదర్లాండ్స్	-10.9019
▁కోటి	-10.902
▁డౌన్	-10.902
▁ఆలోచించ	-10.9021
▁మారే	-10.9023
▁నడిచే	-10.9025
▁పొలాల	-10.9027
▁డాలర్లు	-10.9028
▁ఆలయాలు	-10.9028
▁అట్లాంటిక్	-10.903
▁అవుత	-10.9032
▁ఇస్తారు	-10.9032
▁నైపుణ్యం	-10.9033
▁ఉపరితలం	-10.9033
▁స్నానం	-10.9035
▁శత్రు	-10.9037
▁వస్త్రాల	-10.9038
▁స్తోత్ర	-10.9039
▁రూపాల	-10.904
▁స్వేచ్ఛా	-10.9042
ual	-10.9047
▁గణనీయంగా	-10.9048
▁కాలేజి	-10.9048
▁ఆపరేషన్	-10.9049
▁వేంకటేశ్వర	-10.9056
▁హైడ్రో	-10.9057
▁పండితుల	-10.9058
▁అవతరించ	-10.9059
▁విస్తారమైన	-10.9061
▁ఆకారంలో	-10.9062
▁రాసి	-10.9063
▁మచిలీపట్నం	-10.9067
రోజుల	-10.9068
▁స్వాతి	-10.907
▁అనువర్తన	-10.9071
▁వెచ్చ	-10.9071
▁రచయితల	-10.9075
పడుతున్న	-10.9077
▁It	-10.9078
ుకోవాలని	-10.9079
▁వైట్	-10.9079
▁సాంప్రదాయిక	-10.908
▁ఆహ్వానించ	-10.9084
▁ఫలితం	-10.9084
▁జీవులు	-10.9086
▁తాళ్ళ	-10.9088
మిత్ర	-10.909
▁పరమేశ్వర	-10.909
▁నెమ్మదిగా	-10.9095
BS	-10.9099
▁పంద	-10.9102
▁వున్నది	-10.9102
right	-10.9103
త్రీ	-10.9105
▁సింగిల్	-10.9106
▁సంగారెడ్డిలోను	-10.9106
▁చనిపోయిన	-10.9107
▁ఆగ్రహ	-10.9109
▁రావట్లేదు	-10.9114
▁Ra	-10.9121
▁కావు	-10.9122
4)	-10.9123
▁క్యాలెండర్	-10.9124
▁మహాసముద్రం	-10.9126
▁చుక్క	-10.9127
▁ఆవిర్భవించ	-10.9133
▁person	-10.9133
▁1953	-10.9135
ప్రధాన	-10.9135
▁మాంసం	-10.9138
▁ప్రదేశము	-10.914
▁పోలాండ్	-10.914
▁విమానాల	-10.9142
▁అతడిని	-10.9145
ful	-10.9149
ావతార	-10.915
▁స్ట్రీట్	-10.9152
line	-10.9157
▁పోలీసులు	-10.9159
▁యుద్ధము	-10.9163
▁అసంతృప్త	-10.9171
▁పతనం	-10.9175
▁మారుతుంది	-10.9177
▁దక్ష	-10.9178
▁పట్టణానికి	-10.918
▁చూచి	-10.918
nu	-10.9183
▁నిర్మిత	-10.9187
▁తేనె	-10.9193
▁ఆకృతి	-10.9194
rd	-10.9197
▁శతాబ్దము	-10.9202
▁అంతరించి	-10.9205
▁పోరు	-10.9206
పోతు	-10.9206
▁గిల్	-10.9207
సంఘ	-10.9209
▁బ్రె	-10.9209
▁వివాదాస్పద	-10.9209
▁ముక్కలు	-10.9211
▁నిర్మాణాలు	-10.9211
▁ఉస్మానియా	-10.9219
▁నౌకాశ్రయ	-10.9219
▁పనిచేసారు	-10.922
మయ్యింది	-10.9222
▁నక్షత్రాల	-10.9223
బడలేదు	-10.9227
▁స్తంభాల	-10.9227
▁తాడేపల్లి	-10.9228
▁యుద్ధాల	-10.9228
▁విస్తారంగా	-10.923
▁నియంత్ర	-10.9237
▁రకాలుగా	-10.9238
▁తెలియజేస్తు	-10.9242
-10	-10.9243
▁జరప	-10.9245
▁చీకటి	-10.9247
▁వోల్	-10.9248
ుఁడు	-10.9264
▁అలవాటు	-10.9266
▁తెలుస్తోంది	-10.9266
▁1973	-10.927
▁ప్రచురిత	-10.9271
▁జాతికి	-10.9272
▁వాళ్ల	-10.9273
▁ఇటాలియన్	-10.9276
▁పంజాబీ	-10.9276
▁ఇంజన్	-10.9279
▁టెర్	-10.928
▁ప్రముఖులు	-10.9281
బియన్	-10.9282
▁524	-10.9284
▁బలవంత	-10.9285
ric	-10.9285
▁అక్షాంశ	-10.9287
▁బహుమతుల	-10.9287
▁ఒడి	-10.9292
▁అరెస్టు	-10.9293
థీ	-10.9293
▁తడి	-10.9294
▁అయస్కాంత	-10.9295
▁1942	-10.93
ింపబడింది	-10.9304
▁సహచర	-10.9304
▁రోజూ	-10.9307
▁గనుల	-10.9308
▁జోడించ	-10.931
▁పెట్టుబడుల	-10.9314
▁చెందాయి	-10.9315
▁మతాల	-10.9317
▁1981	-10.9319
▁వాస్తవానికి	-10.9327
▁ఘనత	-10.9329
▁హాంగ్	-10.933
ప్రాంతాల	-10.9332
▁గుంపు	-10.9337
▁గోత్ర	-10.9338
శర్మ	-10.9339
▁పురస్కారాలు	-10.9341
▁వ్రాశాడు	-10.9343
▁కావాలని	-10.9346
▁ఓటు	-10.9349
▁రూపొందించారు	-10.935
▁మోడల్	-10.9353
▁1949	-10.9355
▁వాయువ్య	-10.9356
▁వహిస్తుంది	-10.9363
▁విశ్వవిద్యాలయాల	-10.9364
▁అందుకున్నాడు	-10.9365
▁తోడ్పడ	-10.9369
షె	-10.9372
▁ఉండవు	-10.9373
▁పర్వతాల	-10.9374
▁నరసరావుపేట	-10.9382
▁1951	-10.9384
యెల్	-10.9386
▁క్యూబా	-10.9391
emb	-10.9392
▁బంధించ	-10.9396
▁మిషన్	-10.9399
▁కాకతీయుల	-10.9401
▁సంక్షిప్త	-10.9401
▁అందుకున్న	-10.9401
▁ఉదాహరణకి	-10.9408
▁బెంగళూరు	-10.9411
▁సురక్షిత	-10.9411
▁వత్తిడి	-10.9411
ుణ్ణి	-10.9412
శతాబ్ద	-10.9412
పరిచి	-10.9412
▁నియోజకవర్గాల	-10.9412
▁సెక్	-10.9413
క్సైడ్	-10.9413
▁బొమ్మలు	-10.9419
డెంట్	-10.9419
▁దానం	-10.9421
▁పిలవబడే	-10.9422
▁gov	-10.9428
▁పద్ధతులను	-10.9429
▁ఖాతా	-10.9435
▁అభ్యాస	-10.9442
▁రాజస్థాన్	-10.9443
▁బోయ	-10.9444
▁వాస్తు	-10.9445
▁వికెట్	-10.9445
▁కృత్రిమ	-10.945
▁వేరొక	-10.945
▁అన్నింటి	-10.9453
▁ఎద్దు	-10.9454
▁ప్రతిష్ఠించ	-10.9459
▁పర్యవేక్ష	-10.946
▁దీవి	-10.9464
▁సమ్మేళనం	-10.9465
▁కలిగివున్న	-10.9469
▁మునుపటి	-10.947
▁స్వీడన్	-10.947
▁లక్షణాలను	-10.9471
▁నీళ్ల	-10.9475
▁సంకలనం	-10.9476
▁కాస్త	-10.948
మీటర్	-10.9482
▁స్థాపించబడిన	-10.9482
▁నియమిత	-10.9487
▁స్టే	-10.9487
▁గరిష్ఠ	-10.949
▁పద్యాలు	-10.9499
▁కేశవ	-10.9502
కైనా	-10.9504
టింగు	-10.9506
ough	-10.9509
▁ఇబ్బంది	-10.9509
6)	-10.9512
▁అంతటి	-10.9514
▁పర్యాయ	-10.9519
▁వ్యాకరణ	-10.9521
▁ఆక్సైడ్	-10.9526
▁సమగ్ర	-10.9527
▁వ్రాశారు	-10.9528
▁విస్తర	-10.9529
గుర్తించబడుతుంది	-10.953
మెయిల్	-10.9531
▁బయో	-10.9531
▁బెల్లంపల్లిలో	-10.9534
▁నిర్వహిస్త	-10.9534
▁భ్రమ	-10.9535
▁నారాయణపేట	-10.9536
▁సముద్రపు	-10.9537
▁సమయములో	-10.9538
▁ఐతే	-10.9545
gi	-10.9548
▁నిఘంటువు	-10.9548
▁పూత	-10.9549
▁కార్యదర్శిగా	-10.9549
ధుల	-10.9553
census	-10.9558
▁ఇంగ్లాండు	-10.9558
▁వుంచ	-10.9563
పాలక	-10.9563
సేపు	-10.9565
రెట్	-10.9568
▁ఘట	-10.9574
ిద్దరూ	-10.9574
▁కమ్యూనిటీ	-10.9578
▁నేపాల్	-10.9578
▁చేసుకోవడం	-10.9578
గలుగుత	-10.9579
▁హెడ్	-10.9579
ాడట	-10.9581
ప్రాంతంలో	-10.9586
▁ఏర్పడే	-10.959
▁పరిశోధనల	-10.9593
▁కొలంబియా	-10.9598
యోగ్య	-10.9606
▁పర్యవేక్షణ	-10.9607
▁లిమిటెడ్	-10.9607
▁సంభవించిన	-10.9609
▁గౌరవించ	-10.9611
ja	-10.9615
,00,000	-10.9619
ారాధన	-10.962
▁సభ్యునిగా	-10.962
స్తుండగా	-10.9621
▁బొమ్మల	-10.9622
ie	-10.9623
సొ	-10.9624
పీడన	-10.9626
▁ఊరేగింపు	-10.9627
▁డిజైన్	-10.9637
ందరికీ	-10.9639
సంవత్సర	-10.9645
▁పనితీరు	-10.9647
▁జీడి	-10.9648
▁మరణశిక్ష	-10.9648
హస్త	-10.9653
▁aspx	-10.9657
▁గర్వ	-10.9658
▁అనుగ్రహ	-10.9664
▁అనువాదం	-10.9667
▁హక్కులు	-10.9667
▁చైనీయుల	-10.9667
అద్దంకి	-10.9668
▁తీవ్రవాద	-10.9671
▁రాజవంశం	-10.9672
▁కరుణ	-10.9672
▁టవర్	-10.9673
▁1961	-10.9674
▁విరివిగా	-10.9677
గుడి	-10.9679
7)	-10.9684
▁చేరాయి	-10.9685
▁విశ్వామిత్ర	-10.9687
▁లక్నో	-10.9687
▁తగిలి	-10.9688
కాదు	-10.9688
8)	-10.969
▁అనుసంధాన	-10.9691
▁హార్డ్	-10.9692
చెప్ప	-10.9695
▁may	-10.9696
శాయి	-10.9704
▁ఇటు	-10.9706
▁సంఘాల	-10.9706
▁బేరియం	-10.9708
▁కట్టడాల	-10.971
▁దొరక	-10.9714
వాళ్లు	-10.9716
▁మానవులు	-10.9717
▁అదుపు	-10.9717
▁వెల్లడించ	-10.9718
▁నామకరణం	-10.9727
mm	-10.9727
▁పంతులు	-10.9728
▁చరిత్రకారులు	-10.9732
వరణ	-10.9735
▁అక్కినేని	-10.9737
కాలిక	-10.9739
▁ఇందిరా	-10.9745
▁ఉపయోగపడుతుంది	-10.9752
▁బలంగా	-10.9754
▁trans	-10.9757
▁స్పందన	-10.9757
▁నూజివీడు	-10.9757
5)	-10.9758
▁సత్కరించ	-10.9759
▁ఉన్నందున	-10.9767
▁శుక్ల	-10.9768
సాగాడు	-10.9769
▁పలికి	-10.9774
▁భాగాలుగా	-10.9776
▁ఫలితాలు	-10.9778
cc	-10.9786
▁సంచిక	-10.9788
▁త్రిపుర	-10.9789
▁కాపర్	-10.9794
▁అవధాన	-10.9797
ef	-10.9798
▁సమూహాలు	-10.98
▁గానం	-10.9805
▁నిర్దేశ	-10.9805
▁వార్తా	-10.9806
▁స్వచ్ఛంద	-10.9808
▁నుంచీ	-10.9808
▁చిత్రాల్లో	-10.9809
▁ముగ్గు	-10.9809
▁నాలుగవ	-10.9811
సాగర	-10.9813
▁మహాభారతం	-10.9815
▁టీవీ	-10.9816
ంటున్న	-10.9817
▁రామానుజ	-10.9818
▁వ్యాప	-10.982
▁హిమాలయ	-10.9821
▁తుది	-10.9823
▁విమర్శించ	-10.9829
భాషా	-10.984
ిస్తాను	-10.9841
▁మూడ	-10.9841
▁పప్పు	-10.9844
▁హోల్	-10.9845
▁మైసూర్	-10.9848
▁ఖైదు	-10.9848
కుటుంబ	-10.9849
▁ఫ్రా	-10.985
▁మౌర్య	-10.9852
ాపన	-10.9852
▁ఆకలి	-10.9852
▁తొలుత	-10.9859
▁చెల్లింపు	-10.9859
9)	-10.9861
▁పోల్చ	-10.9864
▁మురుగు	-10.9864
▁బల్ల	-10.9868
▁శ్రీశైల	-10.9869
▁అత్య	-10.9873
▁వుడ్	-10.9874
▁పాడిన	-10.9874
▁పెట్టాడు	-10.9877
చెయ్య	-10.9882
▁తొక్క	-10.9883
▁ఉక్కు	-10.9887
ాహార	-10.9888
▁చలికాలం	-10.9889
▁ఖలీఫా	-10.9889
▁హనుమంతుడు	-10.9889
▁యూరో	-10.9891
ుకున్నాయి	-10.9896
▁బుద్ధుని	-10.9898
▁మార్గాన్ని	-10.9898
▁వ్రాసి	-10.9906
▁సూత్రం	-10.9912
ిచారు	-10.9914
▁హెక్టార్ల	-10.9917
▁జబ్బు	-10.9922
▁వంటకాల	-10.9924
▁అవినీతి	-10.993
ఁడు	-10.9934
▁పెద్దాపురం	-10.9934
▁జనగామ	-10.9941
మెత్త	-10.9941
▁పాలకులు	-10.9941
▁చెందినవారు	-10.9942
▁సజ్జ	-10.9943
మాంబ	-10.9944
▁లక్ష్యంగా	-10.9945
కొట్ట	-10.9946
▁యంత్రాల	-10.9948
▁నడప	-10.995
▁చొప్పున	-10.995
▁మోతాదు	-10.995
▁2019	-10.9954
▁ఎప్పుడు	-10.9956
▁కలవాడు	-10.9961
▁బ్రాండ్	-10.9961
▁గాత్ర	-10.9966
hu	-10.9966
▁పాల్గొన్నాడు	-10.9967
ాపక	-10.9967
Population	-10.9971
▁శ్రామిక	-10.9971
మౌత	-10.9972
▁వీసా	-10.9972
▁1959	-10.9973
▁శరీరము	-10.9973
▁ప్రేమించ	-10.9974
▁ప్రసాదించ	-10.9979
▁మహల్	-10.998
▁టాక్సీ	-10.9981
▁హిప్	-10.9983
Districts	-10.9983
▁వుంది	-10.9984
▁విగ్రహాన్ని	-10.9988
▁సదాశివ	-10.9992
▁know	-10.9992
▁కీర్తనల	-10.9992
▁సంజీవ	-10.9994
కాలనీ	-10.9995
ఘాత	-11
▁విగ్రహాల	-11.0002
▁ఆక్సిజన్	-11.0002
▁శతాబ్ధ	-11.0002
AT	-11.0005
Master	-11.0012
▁మంగళగిరి	-11.0015
రీతి	-11.0016
▁రూపము	-11.0021
▁వేగంతో	-11.0021
sc	-11.0024
మంతటా	-11.0029
▁జంతువు	-11.0029
▁ట్రాక్	-11.0029
king	-11.0029
▁పన్నెండు	-11.0033
▁మహమ్మద్	-11.0033
▁వస్తే	-11.0035
ఉండ	-11.0039
రక్షణ	-11.0043
▁స్తుత	-11.0043
ించువాడు	-11.0052
ఘర్	-11.0055
med	-11.0057
▁అనుసంధానించ	-11.0057
▁పులులు	-11.0064
▁ముద్దు	-11.0064
▁వివరాల	-11.0068
,500	-11.0074
శ్రుత	-11.0075
▁పొందే	-11.0079
కాలపు	-11.0081
మెంట	-11.0083
▁ఫౌండేషన్	-11.0085
▁సంక్లిష్ట	-11.0085
▁ఆశ్రయ	-11.0087
▁1976	-11.009
▁నార్త్	-11.0092
clusion	-11.0095
▁కెరీర్	-11.0095
ook	-11.0096
▁భారతదేశపు	-11.0102
▁శాప	-11.0107
పోర్ట్	-11.0111
▁భూములు	-11.0114
▁రూపొందించబడింది	-11.0118
మర్రి	-11.0123
▁ఆకుపచ్చ	-11.0126
▁అరుదైన	-11.0126
▁శ్వేత	-11.0126
ness	-11.0129
▁సిరియస్	-11.0138
పరిచారు	-11.0139
cul	-11.0144
▁ఫిన్లాండ్	-11.0147
▁తైవాన్	-11.0148
▁its	-11.0148
▁డ్రైనేజీ	-11.0158
▁చార్లెస్	-11.0159
▁పక్షులు	-11.0162
▁ఇస్తా	-11.0164
▁అంతరకృషి	-11.0168
▁ఆరాధన	-11.0168
▁చంద్రగుప్త	-11.0169
▁నిర్ధారణ	-11.0171
▁బండి	-11.0172
చరణ	-11.0175
▁రాజవంశ	-11.0178
▁ఇంధనం	-11.0179
▁but	-11.0182
▁వివాదం	-11.0189
▁గుర్తించబడింది	-11.0189
Find	-11.0192
aw	-11.0196
▁దేశవ్యాప్తంగా	-11.02
▁హైడ్రోజన్	-11.02
ata	-11.0208
▁సమాధానం	-11.0209
బస్తీ	-11.0211
▁జారీచేసింది	-11.0211
▁కార్మికుల	-11.0212
ory	-11.0214
ంటున్నారు	-11.0214
▁గ్యా	-11.0216
▁వర్గాలు	-11.0218
▁బోర్డ్	-11.0219
▁చదివాడు	-11.0221
▁ప్రతికూల	-11.0221
వతేదీ	-11.0224
=28	-11.0224
గలరు	-11.0227
ves	-11.0227
▁పాలించిన	-11.0228
▁బాలబడులు	-11.0231
▁అభిషేక	-11.0231
▁పరిరక్షణ	-11.0233
▁బ్రో	-11.0239
▁మరొకటి	-11.0242
▁విధానము	-11.0244
▁మంజూరు	-11.0245
చెట్టు	-11.0247
▁సందర్భాల్లో	-11.0247
మేనేజ్మెంట్	-11.0253
▁మిగిలినవి	-11.0256
▁పావు	-11.0258
పోతాడు	-11.0261
▁గోడల	-11.0262
న్యాస	-11.0264
▁సివిల్	-11.0264
▁దశకంలో	-11.0264
▁ఫీల్డ్	-11.0264
మోహన్	-11.0266
మంత్రి	-11.0267
▁బంధువుల	-11.0267
మంచి	-11.0269
▁సారిగా	-11.0272
wiki	-11.0274
▁భగవంతుని	-11.0274
▁శిశువు	-11.0277
▁అధికరించ	-11.0278
▁కుట్ర	-11.0279
▁సవరణ	-11.028
▁కీలకమైన	-11.0281
▁ఘోర	-11.0285
▁కమలా	-11.0287
▁వ్యాఖ్య	-11.0296
▁గుడ్డ	-11.0298
▁సంవత్సరాల్లో	-11.0299
▁చదువుకున్న	-11.0305
▁స్టీము	-11.0305
▁విశ్రాంతి	-11.0306
▁దహన	-11.0309
▁యువకుల	-11.0309
ations	-11.0309
▁భారం	-11.0311
▁నన్నయ	-11.0312
▁చర్చించ	-11.0315
▁గొర్రె	-11.0316
▁ముక్కు	-11.0317
▁ముత్త	-11.0323
టైల్	-11.0326
సూత్ర	-11.0329
▁ఇంకో	-11.033
ాభిమాన	-11.0334
శైలి	-11.0334
గంట	-11.0335
▁వివరించారు	-11.0335
▁రాజేంద్ర	-11.0339
▁నాలుగ	-11.0346
జులై	-11.0348
▁పర్యటించ	-11.0348
▁డిమాండ్	-11.0348
▁ఫైల్	-11.035
▁ఉంటా	-11.0351
▁లొంగ	-11.0358
▁నిలబడి	-11.0358
▁ఏదేమైనా	-11.0359
▁పౌరాణిక	-11.0359
▁సింగపూర్	-11.0364
టూరి	-11.0369
ition	-11.0376
▁వేటాడ	-11.0378
▁చౌదరి	-11.038
▁భద్రతా	-11.0382
▁రీతిలో	-11.0382
పోవడంతో	-11.0382
▁కార్తె	-11.0388
▁డివిజను	-11.0391
▁లయ	-11.0392
▁సంపర్క	-11.0393
▁కదల	-11.0395
▁ఎన్టీఆర్	-11.0402
▁పచ్చి	-11.0407
▁ఏడవ	-11.0411
▁నర్సీపట్నం	-11.0412
▁4%	-11.0416
కుప్పం	-11.0427
స్థులు	-11.0428
▁ఆదేశించ	-11.0429
▁అమరిక	-11.0432
జూన్	-11.0434
▁పోర్చుగల్	-11.0434
▁రాష్ట్రాల్లో	-11.0434
▁కావాలి	-11.0439
▁ప్రతాప	-11.0443
▁నెట్వర్క్	-11.0445
▁పంచాంగం	-11.0445
▁బృహ	-11.0445
ex	-11.045
▁కపిల	-11.045
శాంతి	-11.0452
కావ్య	-11.0454
▁రావణ	-11.0455
▁బదులు	-11.0458
▁హెన్రీ	-11.0466
శెట్టి	-11.0467
▁సరిగ్గా	-11.0477
▁వదలి	-11.0479
▁లవణ	-11.0479
▁మచ్చ	-11.048
▁నిలుప	-11.0485
▁time	-11.0488
లిటీ	-11.0489
శంకర	-11.049
▁త్రవ్వకాల	-11.0492
▁అనుబంధం	-11.0501
▁విశాలమైన	-11.0501
▁గ్యాస్	-11.0507
▁జవహర్	-11.051
▁విలాస	-11.0512
▁జాగ	-11.0514
▁త్రవ్వ	-11.0521
▁ఫిలిప్	-11.0521
▁ఫాల్	-11.0522
▁కృప	-11.0522
▁వారాల	-11.0527
▁ఐక్యరాజ్యసమితి	-11.0531
▁వదుల	-11.0532
▁స్థిరంగా	-11.0532
▁విపరీత	-11.0533
▁మార్చబడింది	-11.0534
▁లార్డ్	-11.0535
నూనె	-11.0536
▁పర్వతాలు	-11.0536
▁సాంప్రదాయక	-11.0538
▁కుదుర్చ	-11.0542
▁వెదురు	-11.0547
ేంద్రియ	-11.0548
యున్నది	-11.0552
▁స్టాక్	-11.0553
చేసారు	-11.0555
▁1958	-11.0556
▁వర్గీకరణ	-11.0556
▁గుర్తించింది	-11.0559
▁జన్మించ	-11.0562
▁ఏర్పడతాయి	-11.0567
oll	-11.0569
ిద్దరి	-11.0571
ava	-11.0577
▁దిద్ద	-11.0579
▁గవర్నరు	-11.058
▁పీటర్	-11.0581
▁హిందు	-11.0582
pan	-11.0583
▁రద్దీ	-11.0586
▁సమాధాన	-11.0588
▁తట్ట	-11.0589
▁ఎన్నికైన	-11.0592
ప్రభ	-11.0593
▁భవనాలు	-11.0598
▁ప్రాప్తి	-11.0605
ుండగా	-11.0605
▁పంది	-11.0608
▁కూచిపూడి	-11.0608
▁కార్యక్రమాన్ని	-11.0608
▁600	-11.0608
▁గ్రహీత	-11.0608
▁సుగ్రీవ	-11.0609
▁సమానమైన	-11.061
రెన్స్	-11.0617
▁పొటాషియం	-11.0619
▁1,2	-11.0619
ెుక్క	-11.0622
▁తీసుకునే	-11.0625
▁ప్లాస్టిక్	-11.0631
▁తిరుగుతూ	-11.0631
▁విస్తృతమైన	-11.0639
▁బ్రౌన్	-11.0641
▁ఎన్నికయ్యారు	-11.0642
▁చేసాయి	-11.0642
▁వాల్వు	-11.0645
▁అరుణ	-11.0646
▁రాజ్యాలు	-11.0646
▁భజన	-11.0648
▁భూమిపై	-11.0648
▁Wiktionary	-11.0652
సత్య	-11.0653
▁కలిగింది	-11.0654
▁కోపం	-11.0655
▁సన్మాన	-11.0656
▁పక్షుల	-11.0656
▁1931	-11.0657
▁పొట్ట	-11.0659
▁దిగి	-11.066
▁మేయర్	-11.0666
SA	-11.0671
▁పరిసరాల	-11.0671
▁ప్రతిపక్ష	-11.0674
▁తగు	-11.0674
▁భీముని	-11.0674
▁1936	-11.0676
▁గాయకుడు	-11.0681
▁పండితుడు	-11.0683
▁పోగొట్ట	-11.0684
▁చదివే	-11.0686
▁name	-11.0687
▁their	-11.0689
▁మంజ	-11.0691
▁మరోవైపు	-11.0691
▁ఇటుకల	-11.0705
‘	-11.071
▁పాండవులు	-11.0712
▁తదనంతర	-11.0718
▁పరిమితమైన	-11.0718
శ్యామ	-11.0723
▁వెయ్యి	-11.073
▁ముఖ్యమైనది	-11.0731
▁సహజంగా	-11.0737
▁కచేరీ	-11.074
▁ప్రగతి	-11.0741
హరణ	-11.0742
▁విరామ	-11.0745
▁పార్వతీ	-11.0747
శిల్ప	-11.0749
TT	-11.0751
▁ప్రయోగాలు	-11.0751
▁హిట్లర్	-11.0753
▁ఫిల్	-11.0753
▁విరాట	-11.0754
▁రావడానికి	-11.0758
▁విచిత్ర	-11.0758
▁Re	-11.0762
▁అలంకార	-11.0764
▁అందించాడు	-11.0767
▁1968	-11.0768
▁భర్తీ	-11.077
ారంభ	-11.0771
వైశాల్య	-11.0772
▁పంచాయితీ	-11.0774
▁1939	-11.0776
▁1963	-11.0781
▁బతుకమ్మ	-11.0785
▁యూరోప్	-11.0792
▁జీత	-11.0793
▁బయటపడ	-11.0795
===	-11.0798
▁దేశపు	-11.0804
▁ఆవిష్కరించ	-11.0807
▁ఇస్లామిక్	-11.0807
▁ఏటియం	-11.0807
▁స్కూలు	-11.0807
▁ఏటా	-11.0808
▁ఏర్పడ్డాయి	-11.0811
▁బుట్ట	-11.0813
▁ఉపనిషత్తు	-11.0818
▁సమైక్య	-11.0818
▁గులాబీ	-11.0818
▁వచ్చినప్పుడు	-11.0821
ోత్తమ	-11.0826
సామర్ధ్య	-11.0826
▁చైనీస్	-11.0829
▁మరుగుదొడ్ల	-11.0829
▁గుర్రం	-11.083
ప్రజల	-11.083
text	-11.0832
▁సంసార	-11.0835
▁చాళుక్యుల	-11.0835
▁కారణము	-11.0837
▁ఘటన	-11.0838
▁సరుకు	-11.0842
ku	-11.085
▁ఇంగ్లండ్	-11.0852
▁చిరంజీవి	-11.0852
▁థామస్	-11.0852
▁అఖిల	-11.0852
▁నిర్వహించాడు	-11.0859
▁అనబడే	-11.0859
▁వెలువడిన	-11.0862
ుకొన్నారు	-11.0862
మిల్లి	-11.0864
▁పరమాణువు	-11.0864
▁కోతలు	-11.0868
▁ఆదిలాబాదు	-11.0874
▁చట్టాల	-11.0877
▁కృష్ణమూర్తి	-11.0882
▁మాట్లాడుతూ	-11.0883
▁తీర్చిదిద్ద	-11.0886
▁కోణం	-11.0891
▁బానిసత్వ	-11.0891
▁గాంధార	-11.0894
▁అల్ప	-11.0894
▁పోలిష్	-11.0896
ప్రసాద్	-11.0896
▁ఉత్తీర్ణ	-11.0898
▁తరంగాల	-11.0899
▁నటుడిగా	-11.0901
▁యేట	-11.0902
▁పార్లమెంట్	-11.0908
▁మనుగడ	-11.0908
TV	-11.0911
▁వృద్ధ	-11.0915
▁పూర్వపు	-11.0919
పోతూ	-11.0923
ure	-11.0929
▁ఉపవాస	-11.093
▁సమేత	-11.0933
▁జ్వర	-11.0936
▁సార్వత్రిక	-11.0942
▁పోషించాడు	-11.0943
▁అంధ	-11.0944
▁ఉందో	-11.0947
▁వ్యతిరేకత	-11.0952
▁గింజలు	-11.0958
ేటివ్	-11.0959
గోపుర	-11.0961
▁తప్పనిసరిగా	-11.0964
▁సిరిసిల్ల	-11.0965
▁రూపాంతరం	-11.0965
▁అర్జునుడి	-11.0966
▁ఇనుప	-11.0968
▁పేర్లతో	-11.097
1,000	-11.097
▁కింగ్డం	-11.097
ేసరికి	-11.0971
▁పరుగుల	-11.0977
▁ప్రకట	-11.0978
▁సూచిక	-11.0979
చిహ్న	-11.0982
విశ్వాస	-11.0987
▁వెంక	-11.0989
▁వేతన	-11.0989
▁బౌద్ధమత	-11.0993
▁దుష్	-11.0995
▁ప్రిన్స్	-11.0997
▁పొద్దుతిరుగుడు	-11.0999
▁గుమ్మడి	-11.0999
▁స్పేస్	-11.0999
▁శతాబ్దానికి	-11.0999
కలిగి	-11.1003
▁నిపుణ	-11.1009
▁గన్నవరం	-11.101
▁చూస్త	-11.1011
▁పునాది	-11.1011
▁అంతిమ	-11.1011
▁నిండిన	-11.1014
టప్పుడు	-11.1016
▁వెనక్కి	-11.1022
pos	-11.103
▁ఆభరణాల	-11.1033
▁సంహరించ	-11.1035
దుర్తి	-11.104
▁చేపట్టారు	-11.104
చేయడం	-11.1042
▁కేవలము	-11.1045
▁శివాజీ	-11.1045
▁పాలించారు	-11.1045
ix	-11.1048
gar	-11.1052
▁ఇద్దరి	-11.1056
▁చూపిస్తుంది	-11.1057
▁దినోత్సవం	-11.1057
▁కొలువు	-11.1074
▁వివాహమాడ	-11.108
▁సభ్యత్వం	-11.1083
లక్ష్మీ	-11.1085
▁కర్నాటక	-11.109
▁మిత్రుల	-11.1093
▁ఉంటున్న	-11.1095
కొరకు	-11.1098
▁పుస్తకము	-11.1103
▁రకము	-11.1104
▁బోరు	-11.1106
▁పాలకుల	-11.1108
▁అనిపించ	-11.1113
▁గర్భాశయ	-11.1114
▁సమీకరణ	-11.1114
ore	-11.1116
▁టైమ్స్	-11.1117
▁కార్బో	-11.1119
ism	-11.1121
▁ఆంగ్లేయుల	-11.1125
▁వస్తారు	-11.1126
▁పతన	-11.1126
▁1941	-11.1129
▁గూడా	-11.1131
▁దేవాలయాలు	-11.1135
▁నోట్	-11.1135
▁దొరుకు	-11.1136
▁నాగయ్య	-11.1137
▁స్థానము	-11.1138
▁ముట్టడి	-11.114
▁గంధ	-11.114
ui	-11.1144
వర్ధన	-11.1145
ాదిత్య	-11.1146
స్త్రీ	-11.1147
▁విత్తనం	-11.1148
▁సదస్సు	-11.116
▁అవుట్	-11.1161
▁గమ్య	-11.1163
▁విడుదలైంది	-11.1164
ాచార్యుడు	-11.1166
con	-11.1168
▁రాజ్యానికి	-11.1176
▁అతుక	-11.1177
▁ఉద్దేశంతో	-11.1181
▁ఆమదాలవలస	-11.1183
▁నివసిస్త	-11.1184
▁గుంటూరులోను	-11.1184
▁మాత్రము	-11.1185
▁క్లై	-11.1194
▁ఆవశ్యక	-11.1195
▁భరించ	-11.1195
▁నియోజకవర్గ	-11.1201
వేసిన	-11.1205
▁వెలుపలి	-11.1217
శాతం	-11.122
త్తూరు	-11.1229
▁ఓవర్	-11.1232
▁ఇల్ల	-11.1235
▁పునరుద్ధరణ	-11.1241
▁కార్మికులు	-11.1253
▁మార్కాపురం	-11.1253
▁నరేంద్ర	-11.1255
యితే	-11.1264
▁సికింద్రాబాద్	-11.1264
▁మృదు	-11.1265
▁సెలవు	-11.1266
▁కర్ణుడు	-11.1267
▁బయటికి	-11.1268
▁హార్మోన	-11.1268
▁కొమర	-11.1272
▁దాల్చ	-11.1276
▁మహిమ	-11.1278
ection	-11.128
▁ముత్యాల	-11.128
▁అవలంబించ	-11.1288
▁దరఖాస్తు	-11.1288
▁సమన్వయ	-11.1288
▁భద్రపరచ	-11.129
▁కాపీ	-11.129
మైలవరం	-11.129
▁పార్వతి	-11.1291
▁నరస	-11.1293
▁కలిగ	-11.1293
▁కుతుబ్	-11.13
▁స్పష్టమైన	-11.13
▁కర్బన	-11.1302
▁అంగీకర	-11.1306
ుకొను	-11.1309
▁అభివర్ణించ	-11.1312
▁కనిపించింది	-11.1315
▁మాసంలో	-11.1318
▁దాడులు	-11.1324
▁బంగార	-11.1329
▁భావించబడుతుంది	-11.133
▁అమృత్	-11.1334
▁మహాభారత	-11.1334
NA	-11.1339
▁పుస్తకాన్ని	-11.134
▁బీడీలు	-11.1359
ార్కట్	-11.1366
▁బుద్ధుడు	-11.137
lic	-11.137
▁గడప	-11.1373
▁లోతైన	-11.1383
▁థియ	-11.1385
మడుగు	-11.1391
▁అమిత	-11.1393
cent	-11.1397
▁మరియూ	-11.1398
▁ఫ్రాన్సిస్	-11.1406
-9	-11.1414
▁మనుమ	-11.1415
▁నిరుద్యోగ	-11.1418
▁శకం	-11.1421
మాసం	-11.1424
▁వెర్షన్	-11.143
▁విత్తుట	-11.143
▁బీహార్	-11.1431
నాళ	-11.1432
చింత	-11.1434
▁కూటమి	-11.1442
▁మధ్యయుగ	-11.1442
శిక్ష	-11.1445
▁ఎన్నుకో	-11.1445
▁వారసుల	-11.1449
▁అద్దె	-11.1451
▁నిశ్చయించ	-11.1451
▁సమయాన్ని	-11.1453
తరువాత	-11.1454
▁సిస్టమ్	-11.1454
▁ఆకాశవాణి	-11.1454
▁1937	-11.1457
col	-11.1465
▁ధారావాహిక	-11.1465
▁సరస్వతీ	-11.1465
PA	-11.1466
▁దేవాలయాల	-11.1466
▁మెట్రో	-11.1467
▁అనుచరుల	-11.1468
▁సందర్శకుల	-11.1477
▁బ్యాక్	-11.1481
▁మహాసభ	-11.1482
▁సాగిన	-11.1483
ేశ్వరస్వామి	-11.1488
▁ఆర్మేనియన్	-11.1489
▁అహింస	-11.1489
గఢ్	-11.1494
▁టాటా	-11.1503
మూడి	-11.1519
▁తారక	-11.1522
▁చురుకుగా	-11.1525
▁మధ్యాహ్న	-11.1525
ాశ్రమ	-11.1525
▁కొనసాగుతున్న	-11.1527
▁గోల్కొండ	-11.1528
▁తెలిసింది	-11.1533
eng	-11.1534
యంత్ర	-11.1537
▁ఇంజిన్	-11.1537
▁విభజించబడింది	-11.1538
▁పోషిస్త	-11.1538
▁లభిస్తున్న	-11.154
▁1933	-11.1546
▁అచ్చు	-11.1549
▁విరుద్ధంగా	-11.1549
▁సాత్యకి	-11.1549
▁కొరత	-11.1552
▁గ్రె	-11.1554
▁వానర	-11.1563
▁శంకరులు	-11.1563
▁విహార	-11.1563
▁ఆడపిల్ల	-11.1564
▁బీమా	-11.1573
▁గ్రామపంచాయతి	-11.1573
▁కామర్సు	-11.1574
▁హైవే	-11.1575
▁భాస్కర	-11.1576
మంత్ర	-11.1576
ific	-11.1592
▁ప్రొడక్షన్	-11.1598
▁హైకోర్టు	-11.1598
▁ప్రాంగణ	-11.1598
▁కాల్పుల	-11.1598
▁నైతిక	-11.16
▁వీరభద్ర	-11.1601
▁ఉద్యమాల	-11.1601
▁ఎక్స	-11.1602
oss	-11.1609
▁శల్య	-11.1614
▁పద్యాల	-11.1617
▁సైన్యాల	-11.1618
▁కార్యాచరణ	-11.1622
భట్టు	-11.1622
▁ప్రవర్తించ	-11.1622
▁ఆలయాల	-11.1624
▁చీలి	-11.1627
▁తిక్కన	-11.1629
▁పనిచేసాడు	-11.1635
▁యాత్రికుల	-11.1638
▁పీడనం	-11.1638
▁ఏమిటి	-11.1641
▁హేమ	-11.1646
▁ధోరణి	-11.1646
▁some	-11.1647
▁మంగోల	-11.1648
▁1938	-11.1648
▁కమాండ	-11.1651
▁వైదిక	-11.1651
▁కళాకారుడ	-11.1657
▁జవాబు	-11.1658
▁పునర్నిర్మాణ	-11.1659
▁నిలబడ	-11.1659
▁ఫేస్	-11.166
▁నేత్ర	-11.1664
▁అడుగ	-11.1669
సాహెబ్	-11.1671
కపోవడంతో	-11.1673
బెల్	-11.1677
wi	-11.1681
▁ఇంజనీర్	-11.1683
▁పంజాబు	-11.1683
▁దేవస్థానం	-11.1684
మయింది	-11.1687
▁జైపూర్	-11.1694
ోన్నత	-11.1694
▁ఛైర్మన్	-11.1695
▁నందిగామ	-11.1695
▁సామర్థ్యాన్ని	-11.1697
▁రూపుదిద్ద	-11.1707
▁ప్రాంగణంలో	-11.1707
▁సుగంధ	-11.1707
ick	-11.171
▁సౌకర్యము	-11.171
▁ఆల్బం	-11.172
▁జ్యూ	-11.172
పాణి	-11.172
▁కండరాల	-11.1721
ేషను	-11.1723
▁కొత్తపల్లి	-11.1724
CO	-11.1728
▁అధీనంలో	-11.1732
▁ఎలక్ట్రాన్	-11.1732
▁స్క్రీన్	-11.1732
▁బలవంతంగా	-11.1732
చేస్తుంది	-11.1737
▁లక్క	-11.1741
▁జయించ	-11.1743
tro	-11.1744
▁గేట్	-11.1751
▁1934	-11.176
▁ఫ్రాంక్	-11.1762
▁నారాయణరావు	-11.1768
▁ముగిసింది	-11.1769
▁రెవిన్యూ	-11.1769
▁మాధ్యమం	-11.1769
▁స్థూప	-11.1769
▁1944	-11.1772
▁విద్యుద	-11.1773
▁జీవించి	-11.1779
▁పక్షం	-11.178
▁ట్రాఫిక్	-11.1781
2,000	-11.1786
▁been	-11.1789
▁ఫెడరల్	-11.1793
▁ఒకటైన	-11.1795
▁పరిగణిస్తారు	-11.1797
థ్య	-11.1797
▁వ్యాఖ్యానించ	-11.1804
▁ఇతిహాస	-11.1805
▁నిజామాబాదు	-11.1805
▁ఇంద్రియ	-11.1806
▁తిన్న	-11.1808
▁పిఠాపురం	-11.1818
▁రిచర్డ్	-11.1818
▁సంకలన	-11.1822
మవుతాయి	-11.1823
▁కానోపస్	-11.183
▁ఎగుమతుల	-11.183
▁ముగిసిన	-11.183
▁అలంకరణ	-11.183
▁మొట్టమొదట	-11.1831
▁న్యాయమూర్తి	-11.1835
▁లెక్కించ	-11.1839
▁సామూహిక	-11.1843
▁తెలిపింది	-11.1843
▁క్రూర	-11.1854
▁పెదబయలు	-11.1855
▁బూడిద	-11.1855
▁విశ్వసించ	-11.1859
▁మినహాయింపు	-11.1867
▁సుదూర	-11.1867
▁సర్వీస్	-11.1868
▁స్థిరపడ్డారు	-11.1869
ుతుండగా	-11.1869
వినియోగ	-11.1873
ft	-11.1874
▁బడ్జెట్	-11.188
▁రామగుండం	-11.188
▁రాజీవ్	-11.188
▁కల్యాణ	-11.188
▁పిమ్మట	-11.1881
▁పరమాత్మ	-11.1884
▁దక్షణాన	-11.1892
▁రావణుడు	-11.1894
▁కూడలి	-11.1901
▁డైరెక్ట	-11.1912
▁శ్రీకాళహస్తి	-11.1917
▁శీతల	-11.1917
▁అయోధ్య	-11.1917
▁వ్యయ	-11.1918
▁తలసరి	-11.1921
▁1932	-11.1926
cle	-11.1927
▁స్థాపక	-11.1929
న్నింటినీ	-11.1931
▁గడించ	-11.1931
▁ఎదుట	-11.1933
▁వైభవ	-11.1934
ఫలితాల	-11.1935
▁సంతృప్తి	-11.1939
▁కాల్చి	-11.1941
నైపుణ్య	-11.1947
▁sub	-11.1947
▁1921	-11.1952
▁పటేల్	-11.1955
▁గాంధీజీ	-11.196
▁మిర్యాలగూడ	-11.1967
▁ప్యాలెస్	-11.1968
వ్రత	-11.1973
ved	-11.1975
కలాప	-11.1976
▁క్రోధ	-11.1977
▁చిలక	-11.1979
ju	-11.198
▁బసవ	-11.1983
▁1935	-11.1984
AM	-11.1991
▁ధ్వంసం	-11.1993
▁టెన్నిస్	-11.1993
▁తాండూరు	-11.1993
▁ఇబ్బందులు	-11.1993
▁అతిథి	-11.1996
▁1928	-11.1997
▁చున్న	-11.2002
;---	-11.2005
▁టోర్నమెంట్	-11.2005
స్తుంటాడు	-11.2006
▁క్లిష్టమైన	-11.2007
కిరణాల	-11.2009
▁హైదర్	-11.201
ుకుంటా	-11.2014
▁మెచ్చ	-11.2018
▁చాలావరకు	-11.2019
▁ప్రధానమైనవి	-11.2029
▁ఆరాధించ	-11.203
▁పరాజయం	-11.203
▁పరిపూర్ణ	-11.2032
▁పదార్థము	-11.2035
▁తీరప్రాంత	-11.2038
▁ఫెస్టివల్	-11.2043
▁గనుక	-11.2046
▁నిపుణుల	-11.2047
▁కేంద్రాల్లో	-11.2052
▁ఎలక్ట్రో	-11.2056
▁కళింగ	-11.2057
▁గోల్డ్	-11.2062
▁సోదరులు	-11.2063
▁ముస్లిములు	-11.207
▁మోటార్	-11.2074
▁జ్యోతిష	-11.2077
▁క్రూ	-11.2078
▁ట్రేడ్	-11.2081
▁రాయబార	-11.2084
▁1929	-11.2086
▁గిరిజనుల	-11.209
▁స్వీకర	-11.2095
▁సమర్ప	-11.2103
▁సంగతి	-11.2105
pec	-11.2109
▁ప్రహ్లాద	-11.211
▁సంబంధమైన	-11.211
▁పీపుల్స్	-11.2119
mer	-11.2121
పూర్ణ	-11.2124
▁తలుపు	-11.213
▁స్టేడియం	-11.2132
▁టీకా	-11.2133
▁దోహదపడ	-11.2136
▁పెళ్ళ	-11.214
పూర్వకంగా	-11.214
▁చేపట్టాడు	-11.2144
▁ఆత్మహత్య	-11.2145
▁చుట్టుపక్కల	-11.2145
▁అమ్మకాల	-11.2146
▁పెరగడం	-11.2149
▁బీదర్	-11.2149
▁వ్యక్తిత్వ	-11.2151
▁బిగించ	-11.2157
▁మునగ	-11.216
▁పీల్చ	-11.2162
మౌతుంది	-11.2166
ఋ	-11.2167
వెల్లి	-11.2169
▁గొలుసు	-11.2171
▁ఫలితాలను	-11.2171
▁జగ్గ	-11.2178
▁అశ్వత్థామ	-11.2183
▁ఉత్తేజ	-11.2183
▁హనుమాన్	-11.2183
▁ఘాట్	-11.2185
▁డిస్నీ	-11.2189
గోపాల	-11.2191
▁ఇబ్రహీంపట్నం	-11.2196
సాగారు	-11.2197
▁టెస్టు	-11.2199
వృక్ష	-11.2199
▁నడవ	-11.2202
▁వేషం	-11.2203
▁చెరుకు	-11.2203
▁బాండ్	-11.2204
▁సార్వభౌమ	-11.2209
▁బలగాల	-11.221
▁డయా	-11.2212
▁నేటికీ	-11.2218
జ్యోతి	-11.222
▁వ్యవధి	-11.2222
▁నాయకత్వ	-11.2225
▁మారుతూ	-11.2226
మామిడి	-11.2229
▁ఆదేశాల	-11.2237
ward	-11.2242
▁ప్రదానం	-11.2245
ఉత్తర	-11.2247
▁పేదరికం	-11.2248
▁పాదరస	-11.2252
▁చాళుక్య	-11.2254
▁జెండా	-11.2258
▁శనివారం	-11.226
▁వదిలే	-11.2261
పర్య	-11.2269
గ్రాడ్యుయేట్	-11.2273
▁స్పియర్	-11.2273
▁అంకె	-11.2276
▁తీసుకోవడం	-11.2276
ినేని	-11.2278
▁ద్రవీభవన	-11.2286
▁అందిస్తున్న	-11.2288
▁ప్రచుర	-11.2289
▁ప్రాబల్య	-11.2299
▁దర్శకుడిగా	-11.2303
▁ప్రశ్నించ	-11.2307
జాతుల	-11.231
▁పెంపొందించ	-11.2312
▁గమనించి	-11.2313
▁వాయిస్	-11.2313
▁చెబుతుంది	-11.2315
పోవడానికి	-11.2316
ani	-11.2322
▁పెక్కు	-11.2324
▁ఆంధ్రదేశ	-11.2325
▁బొబ్బిలి	-11.2325
▁పరివర్తన	-11.233
▁1919	-11.2339
▁ప్రార్థించ	-11.234
▁pri	-11.2342
▁బయలుదేరి	-11.2344
▁This	-11.2352
AD	-11.2354
▁నాటకరంగ	-11.2359
▁సాపేక్ష	-11.2364
▁నైరుతి	-11.2364
▁పరంపర	-11.2365
▁సిద్దాంత	-11.2369
సాహిత్య	-11.2377
▁సన్నిధి	-11.2378
▁ప్రదేశాన్ని	-11.2378
▁వెంబడి	-11.238
▁పరాక్రమ	-11.2381
aj	-11.2385
▁శ్లోకాల	-11.2391
▁దినపత్రిక	-11.2392
▁భగవంతుడ	-11.2392
▁సభ్యుడిగా	-11.2394
▁తీసే	-11.2398
▁వన్డే	-11.2404
ుకునేవారు	-11.2404
▁అదేవిధంగా	-11.2408
▁గెలుచుకుంది	-11.2417
▁క్రిస్టియన్	-11.2418
▁పవిత్రమైన	-11.2424
▁మెరుగైన	-11.243
▁దౌత్య	-11.243
▁చేసుకోవడానికి	-11.2431
▁పనిచేసింది	-11.2439
▁ఋగ్వేద	-11.2443
▁విస్తీర్ణము	-11.2443
అవనిగడ్డ	-11.2444
▁నరసింహారావు	-11.2444
జన్య	-11.2445
▁కేశ	-11.2448
▁5311	-11.2449
లేకపోయింది	-11.2451
▁ప్రీమియర్	-11.2456
met	-11.2456
వ్యవసాయ	-11.2457
▁పట్టభద్ర	-11.2459
ద్రవ్య	-11.246
▁విధముగా	-11.2467
▁తీసుకువచ్చి	-11.2474
▁వేస్తారు	-11.2478
▁ఏకాదశి	-11.2483
తెలుగు	-11.2486
▁ఉంటుంద	-11.2494
▁బహిష్కరించ	-11.2496
▁అన్వేషణ	-11.2496
round	-11.2503
▁వేల్స్	-11.2505
▁స్విట్జర్లాండ్	-11.2509
▁గెలుపొందిన	-11.2513
▁పరిశీలించి	-11.252
▁నిర్మించబడ్డాయి	-11.2521
▁చూస్తూ	-11.2523
▁రకాలైన	-11.2527
ావసరాల	-11.2529
▁చూస్తున్న	-11.2539
▁నిరాశ	-11.2546
ాగ్ని	-11.2546
▁కవరేజి	-11.2549
▁వ్యాయామ	-11.2549
▁ధృవ	-11.2549
▁ఉపకరణాల	-11.2551
▁గరుడ	-11.2555
▁అమలాపురం	-11.2562
ీంద్ర	-11.2565
▁ఉల్లి	-11.2565
▁జయంతి	-11.2566
▁ప్రారంభమై	-11.2568
▁తప్పకుండా	-11.2572
▁మొత్తాన్ని	-11.2576
▁తప్పనిసరి	-11.2577
▁పాఠకుల	-11.2579
▁పోల్చి	-11.2585
▁కమ్యూనిస్ట్	-11.2589
▁హరిశ్చంద్ర	-11.2589
పబ్లిక్	-11.2589
▁నగదు	-11.2589
ందువలన	-11.2591
▁పెరుగ	-11.2595
ాలనుకున్న	-11.2596
▁జయించి	-11.2598
▁హుస్సేన్	-11.2602
▁నాణేల	-11.2603
నగర్లోనూ	-11.2614
ోద్యమంలో	-11.2615
▁సరికొత్త	-11.2616
విషయ	-11.2617
▁లఘు	-11.2617
▁ప్రభాకర	-11.2619
▁1857	-11.2624
▁అందుకుంది	-11.2628
భ్యాస	-11.2629
▁తెలుస్తున్నది	-11.2629
▁ముంబాయి	-11.2629
▁కనీస	-11.2636
▁లోహాల	-11.2637
▁మొదలుపెట్టి	-11.2638
▁1,1	-11.264
▁1,0	-11.2641
▁లూయిస్	-11.2643
▁శిల్పకళ	-11.2644
▁కుమారుడైన	-11.265
▁సంకీర్ణ	-11.2656
▁పనిచేస్తూ	-11.2656
▁ఉత్పన్న	-11.2656
▁క్వీన్	-11.2656
▁రామలింగ	-11.268
వారిపాలెం	-11.2682
▁అహ్మద్	-11.2683
▁జగ్గయ్యపేట	-11.2683
▁శ్రేణుల	-11.2683
▁నిలిచారు	-11.2683
▁సూచిస్తారు	-11.2686
▁సంఘర్షణ	-11.2696
వాయువు	-11.2701
▁హామీ	-11.2704
▁Indian	-11.2704
▁అక్బర్	-11.271
▁ఆదరించ	-11.271
▁మహాత్మ	-11.2711
▁ఖడ్గ	-11.2712
▁అనువైన	-11.2733
▁BBC	-11.2737
▁నిలిచాడు	-11.2737
▁గుర్తించబడ	-11.2745
▁ఆధిపత్య	-11.2749
▁దుర్యోధన	-11.2751
▁సోడియం	-11.2753
▁బీచ్	-11.2753
other	-11.2754
ాయుధ	-11.2758
▁ట్రె	-11.2761
▁5071	-11.2761
▁పాత్రికేయ	-11.2764
▁త్వరలో	-11.2764
▁నడిపి	-11.2767
▁అభయ	-11.277
గుప్త	-11.2775
▁అంబేద్కర్	-11.2778
▁కుమారుని	-11.2787
▁two	-11.2791
▁సువాసన	-11.2792
▁సౌకర్య	-11.2801
’’	-11.2807
▁విధాలుగా	-11.281
▁గౌర	-11.2813
▁5082	-11.2814
▁ఎప్పుడ	-11.2818
▁తర్క	-11.2818
▁అంగీకార	-11.2819
▁ఆశించ	-11.2821
▁సూఫీ	-11.2822
▁మొదలై	-11.2822
▁బహిర్గత	-11.2832
▁ఇబ్న్	-11.2833
▁గార్డెన్	-11.2834
▁కవచ	-11.2834
▁తెరిచి	-11.2838
▁రక్షక	-11.284
పూర్వక	-11.2841
▁అవతరించింది	-11.2845
▁ఎల్లప్పుడూ	-11.2846
▁మద్రాస్	-11.2846
▁కోస్తా	-11.2846
ప్రారంభించబడింది	-11.2848
మోహన	-11.2849
ావస్థ	-11.2855
▁సన్నివేశ	-11.2855
▁అందిస్తున్నాయి	-11.2859
▁వైమానిక	-11.286
▁అవకాశము	-11.286
ారట	-11.2864
▁పాడేరు	-11.2869
▁రోడ్దురవాణా	-11.2874
▁గ్రెగొర	-11.2874
▁గావించ	-11.2875
▁ఇంటిపేరు	-11.2876
▁చేస్తుంటారు	-11.2878
▁ప్రయత్నాల	-11.2879
▁అనంతగిరి	-11.2879
▁జగద	-11.288
▁తరచు	-11.2886
▁బెజవాడ	-11.2887
▁మార్టిన్	-11.2887
▁నివేదించ	-11.2889
▁దుష్ట	-11.2898
▁అమ్మోనియం	-11.2901
▁ఎంచుకున్న	-11.2911
▁ధృతరాష్ట్ర	-11.2915
▁స్కాట్లాండ్	-11.2915
▁జోసెఫ్	-11.2915
▁ఖైదీ	-11.2915
▁వినుకొండ	-11.2916
▁నలుపు	-11.2918
▁దుంప	-11.2926
▁ఎదిగి	-11.2932
▁సంప్రదించ	-11.2942
▁అన్నపూర్ణ	-11.2945
▁గ్రేడ్	-11.2948
స్వరూప	-11.2955
స్వామ్య	-11.2956
▁బహదూర్	-11.2956
▁కణజాల	-11.2959
ోత్తర	-11.2968
వుంటుంది	-11.2968
▁అప్పుడప్పుడు	-11.297
▁వాల్మీకి	-11.297
అలోపతీ	-11.297
▁కాగజ్	-11.2971
▁పిదప	-11.2971
▁సమాధుల	-11.2972
ాభిషేక	-11.2983
▁నిర్మూలన	-11.2984
▁అస్థిర	-11.2984
▁భద్రాద్రి	-11.2985
▁వైఎస్ఆర్	-11.2985
▁ఫౌ	-11.2988
fa	-11.299
▁పెంట	-11.2996
▁అమలులోకి	-11.2996
▁అభ్యర్థుల	-11.2998
▁ఐరిష్	-11.2998
▁లోకసభ	-11.2999
▁పగటి	-11.3
▁ఆధారాల	-11.3002
▁ద్రౌపది	-11.3012
▁కలెక్టర్	-11.3012
▁కార్టూన్	-11.3012
దొడ్డి	-11.3016
▁ప్రబంధ	-11.3024
▁ఇండోనేషియా	-11.3026
▁చక్కటి	-11.3026
▁మరణానంతరం	-11.3027
▁మృత్యు	-11.3028
▁ఆటంక	-11.3032
▁ప్రాముఖ్య	-11.3032
ఫిబ్రవరి	-11.3034
▁మహాయాన	-11.3036
▁అగస్త్య	-11.304
▁నడుస్తుంది	-11.304
సాక్షాత్	-11.3043
▁ఇస్లామ	-11.3051
▁ఉభయ	-11.3054
▁డ్రైవర్	-11.3057
▁పొరపాటు	-11.3057
▁చిలుక	-11.3063
ప్రతిష్ఠ	-11.3064
▁ప్రెసిడెన్సీ	-11.3068
▁సంవత్సరాంతమున	-11.3068
pla	-11.3071
▁సాక్షి	-11.3072
▁జన్యువు	-11.3075
▁పతకాల	-11.3077
▁గీస	-11.3081
und	-11.3085
ound	-11.3087
▁ఒకానొక	-11.3096
▁చిల్ల	-11.3099
▁నాలుగో	-11.3102
▁వీణ	-11.3109
గలిగారు	-11.3112
▁తక్షణ	-11.3119
▁ఇప్పటికే	-11.3121
▁చికాగో	-11.3124
▁ఖచ్చిత	-11.3124
▁స్కోరు	-11.3125
▁జరుగుతూ	-11.3131
▁మండపం	-11.3133
▁అచ్యుత	-11.3138
ద్రావణ	-11.3139
▁వివక్ష	-11.3141
arch	-11.3144
▁Com	-11.3148
▁సిక్ఖు	-11.3152
▁మొదలగునవి	-11.3152
▁gra	-11.3154
హెచ్	-11.3163
▁లైఫ్	-11.3164
▁మిశ్ర	-11.3165
పదార్థం	-11.3166
లోపల	-11.3166
▁మరుసటి	-11.3166
▁ఎదుర్కో	-11.3166
▁స్థానానికి	-11.3167
▁Th	-11.3169
▁మానవుని	-11.317
▁రాక్షసుల	-11.317
▁గడుప	-11.3173
▁ఆర్గనైజేషన్	-11.3181
▁కాల్షియం	-11.3181
ుటకై	-11.3183
▁ఛానల్	-11.3187
▁చెప్పాలంటే	-11.3189
▁శ్రీకృష్ణుని	-11.3195
▁తీర్ధ	-11.3198
▁కనిపిస్తున్న	-11.3201
▁శివాలయం	-11.3203
▁Windows	-11.3209
▁వియత్నాం	-11.3209
▁ఎంతగానో	-11.3209
▁కెప్టెన్	-11.3223
గర్భ	-11.3224
గలిగాడు	-11.3224
▁సేవలందించ	-11.3224
▁సలహాదారు	-11.3224
▁వెంకటేశ్వరరావు	-11.3229
▁OS	-11.3232
ార్జున	-11.3233
▁పదున	-11.3233
▁కేంద్రీకరించ	-11.3233
▁సౌకర్యాల	-11.3236
▁త్రిభుజ	-11.3237
▁నైవేద్య	-11.3237
▁జోక్యం	-11.3238
▁అంతర్భాగ	-11.3248
▁వాటితోపాటు	-11.3248
▁ఇతివృత్త	-11.3252
▁హాస్పిటల్	-11.3252
▁మధ్యప్రదేశ్	-11.3252
▁ఇంజను	-11.3253
▁తెలియకుండా	-11.3258
▁సజీవ	-11.326
▁వెలుగులోకి	-11.327
▁first	-11.328
▁పిక్చర్స్	-11.328
▁ఫ్రాన్సు	-11.328
▁వెలసిన	-11.3283
కొచ్చి	-11.3284
▁సవాలు	-11.3292
▁వార్షికోత్సవ	-11.3295
▁రాళ్ల	-11.3295
▁ప్రతిస్పందన	-11.3309
▁నిర్దేశించ	-11.3311
▁వెనుకబడిన	-11.3313
IT	-11.3315
▁మేనమామ	-11.3323
▁గణతంత్ర	-11.3325
▁గూగుల్	-11.3338
▁వివరిస్తుంది	-11.3346
సంపద	-11.3346
హృద	-11.3351
▁ప్రయోగశాల	-11.3357
▁దుగ్గిరాల	-11.3367
▁ఋతువు	-11.3367
▁ఆరోపించ	-11.3367
▁పతకం	-11.3367
▁ఎగుర	-11.3367
▁దసరా	-11.3367
శ్వాస	-11.3369
▁విస్తార	-11.3375
బుద్ధ	-11.3376
▁క్రెడిట్	-11.3381
▁స్టిట్యూట్	-11.3381
▁మదీనా	-11.3381
▁తాలూకాలోని	-11.3383
▁పిలిచి	-11.3384
▁జరిపించ	-11.3389
▁తేల్చ	-11.3391
ఆంధ్ర	-11.3395
▁స్పందించ	-11.3396
▁మనోహర	-11.3407
▁సుయోధనుడు	-11.341
▁ప్రయాణికుల	-11.3414
▁తెలిపాడు	-11.3416
▁దోపిడీ	-11.3425
▁పొంగ	-11.3436
కృత్య	-11.3436
▁ఫార్ములా	-11.3439
▁అప్పారావు	-11.344
▁1,3	-11.3449
▁విపరీతమైన	-11.3452
శ్రేణి	-11.3454
ప్రసాద	-11.3454
▁మూడింట	-11.3457
▁సరసన	-11.3462
▁బాలీవుడ్	-11.3468
ానుసారం	-11.3471
▁కోల్పోయిన	-11.3475
▁కలిపే	-11.3479
▁తయారైన	-11.3482
▁లభిస్తాయి	-11.3483
▁వ్యంగ్య	-11.3483
▁భవనాల	-11.3487
▁ముదురు	-11.3488
▁శుక్రవారం	-11.3497
ాక్షర	-11.3498
▁మహానగర	-11.3499
▁కానుక	-11.3501
ఖై	-11.3507
▁ప్రీతి	-11.3507
శారద	-11.3509
స్తుంటే	-11.3511
▁ద్వీపకల్పం	-11.3512
▁under	-11.3513
▁ఎలుక	-11.3515
▁అధ్యక్షునిగా	-11.3518
ముక్కల	-11.3526
▁work	-11.3527
▁పడమటి	-11.3527
▁ద్వేష	-11.3529
▁చిరుత	-11.3537
▁ఆదోని	-11.3542
ోపాధ్యాయ	-11.3556
▁ఎడ్వర్డ్	-11.3556
▁ఐఐటీ	-11.3556
▁ఇస్రో	-11.3557
▁గొడవ	-11.3557
▁నిర్మింప	-11.3569
▁ప్రేరేపించ	-11.3571
▁అలెగ్జాండర్	-11.3571
▁పోర్చుగీస్	-11.3571
▁వైఫల్య	-11.3571
▁అన్యాయ	-11.3571
▁విషాద	-11.3573
▁స్టోన్	-11.3574
▁ఉద్గార	-11.3578
▁మలుపు	-11.3579
▁మహావీర	-11.3595
▁జలాశయ	-11.36
▁దట్టమైన	-11.36
ative	-11.3603
▁భాగస్వామ్య	-11.3612
▁సోమవారం	-11.3615
▁చేసుకోవచ్చు	-11.3615
▁మహాసముద్ర	-11.3616
▁చంద్రబాబు	-11.3618
▁ప్రదక్షిణ	-11.3619
▁బైబిల్	-11.363
▁పరిశీలిస్త	-11.3634
హ్లాద	-11.3642
ాయపాలెం	-11.3644
▁బిజినెస్	-11.3645
▁బాపట్ల	-11.3653
▁ఫండ్	-11.3654
▁నివాసితుల	-11.3655
▁రౌండ్	-11.3659
▁పౌర్ణమి	-11.366
▁పైకప్పు	-11.366
▁ప్రతిష్ఠాత్మక	-11.3663
పార్టీ	-11.3669
▁మహోత్సవ	-11.3673
▁విధ్వంస	-11.3675
▁బాధపడుతున్న	-11.3675
▁అవకాశాల	-11.3675
▁ఋషి	-11.3677
▁సామర్ధ్యం	-11.368
_{	-11.3681
▁ప్రాకృత	-11.3684
ాధిపత	-11.3685
▁వైఖరి	-11.369
▁జగన్నాథ	-11.369
▁సొమ్ము	-11.3694
▁అందజేస	-11.3694
▁కవాట	-11.3701
▁జరిమానా	-11.3704
▁విచ్ఛిన్న	-11.3704
▁ఆతిథ్య	-11.3704
▁భంగిమ	-11.3704
▁సంకీర్తన	-11.3719
▁గాంచిన	-11.3721
▁కాల్చ	-11.3722
▁వెతుక	-11.3727
▁term	-11.3734
▁డెవలప్	-11.3734
▁పంచాయతి	-11.3734
▁ధరిస్తారు	-11.3735
▁సంక్రాంతి	-11.3749
మవుతున్న	-11.3751
▁ఇరాక్	-11.3752
▁ఇస్తున్న	-11.376
▁భారతదేశములో	-11.376
▁వైకుంఠ	-11.3764
▁ట్యూబు	-11.3764
▁బజార్	-11.378
▁అవార్డ్	-11.378
ద్రోహ	-11.3782
▁తెలుసుకుని	-11.3789
▁బళ్ళారి	-11.3794
▁సౌలభ్య	-11.3794
▁ముఖర్జీ	-11.3794
▁గ్రామస్థులు	-11.3799
ానికై	-11.3805
▁నియోజక	-11.3809
▁హనుమంతుని	-11.3809
▁యాంటీ	-11.381
▁సర్వసాధారణ	-11.3825
▁temple	-11.3825
▁జోర్డాన్	-11.3825
▁మహమ్మదు	-11.3825
▁సంచలన	-11.3825
▁సయ్యద్	-11.3825
▁రాజ్యసభ	-11.3827
▁సవరించ	-11.3829
▁సరిపడ	-11.383
▁వాస్తవిక	-11.3838
▁సైన్సు	-11.384
▁శస్త్ర	-11.3842
▁నమ్ముతారు	-11.3845
▁చరిత్రకారుడు	-11.386
▁విలసిల్ల	-11.387
▁ధాతువు	-11.3885
▁కిరీట	-11.3887
▁బ్రతుక	-11.3895
▁తీసుకుంటే	-11.3896
▁నీటిపారుదల	-11.39
▁స్వాతంత్య్ర	-11.39
పెడతా	-11.3911
▁వారసుడ	-11.3912
▁ముగుస్తుంది	-11.3916
▁దొరికిన	-11.3916
▁గోల్డెన్	-11.3917
▁తొలిసారి	-11.3918
▁రేపల్లె	-11.3921
▁పురోగతి	-11.3931
▁దక్షిణాసియా	-11.3931
▁నడుస్తున్న	-11.3937
▁see	-11.3937
▁రాధాకృష్ణ	-11.3946
▁త్వరిత	-11.3946
▁అణిచి	-11.3946
▁స్మిత్	-11.3946
▁తీయుట	-11.3952
▁మేడ్చల్	-11.3962
▁క్వార్టర్	-11.3962
▁ఏర్పాట్లు	-11.3962
రాశుల	-11.3964
▁5324	-11.3966
▁నార్వేజియన్	-11.3977
▁శూన్య	-11.3977
▁హెల్త్	-11.3992
▁నాస్తిక	-11.3992
4,000	-11.3994
▁అర్చక	-11.3997
మాధ్యమిక	-11.4
పరిషత్	-11.4002
▁విడిపోయి	-11.4004
put	-11.4007
▁తీసింది	-11.4007
▁లైబ్రరీ	-11.4008
▁విశ్లేషించ	-11.401
సరోవర	-11.4022
▁వధించ	-11.4036
క్సైడు	-11.4039
▁స్వాధీన	-11.4042
▁==	-11.4046
▁అత్యల్ప	-11.4054
▁హంస	-11.4057
▁కొల్లూరు	-11.4059
▁అంతకంటే	-11.4061
▁సల్ఫేట్	-11.4069
▁సుపరిచిత	-11.407
▁గంధర్వ	-11.4075
▁more	-11.4077
▁యాదాద్రి	-11.4085
▁అరబిక్	-11.4085
▁ఓడరేవు	-11.4085
▁పలాస	-11.41
▁అద్వైత	-11.41
▁చుట్టుప్రక్కల	-11.41
▁క్షార	-11.4102
వ్యాధి	-11.4111
▁తొందర	-11.4113
air	-11.4113
▁భగవద్గీత	-11.4116
www	-11.4116
left	-11.4119
▁మునుపు	-11.412
సంపన్న	-11.4125
▁బాస్కెట్	-11.4132
▁చెప్తారు	-11.4132
▁అర్జెంటీనా	-11.4147
▁క్షిపణుల	-11.4147
▁మాండలిక	-11.4147
▁place	-11.4148
▁వేగవంతమైన	-11.4148
▁కుంకుమ	-11.415
▁టెట్రా	-11.415
వ్యాపారాత్మక	-11.4151
▁అందుకని	-11.4163
▁వాయించ	-11.417
▁ఆటగాళ్ళ	-11.4171
▁ఈస్టిండియా	-11.4178
▁మహేష్	-11.4182
▁పద్మనాభ	-11.4194
▁రబ్బరు	-11.4194
▁చిత్రలేఖన	-11.4194
▁తీసుకువెళ్ళ	-11.4196
▁కొన్నాళ్ళ	-11.4211
▁found	-11.4212
▁km	-11.4221
▁కంప్యూటరు	-11.4226
▁ప్రెసిడెంట్	-11.4226
▁శ్రవణ	-11.4226
▁బయలు	-11.4228
▁ప్రదేశాల్లో	-11.4236
▁1,4	-11.4241
▁రాచరిక	-11.4241
▁రుసుము	-11.4243
▁వికాస	-11.4246
▁IBM	-11.4257
▁కార్యక్రమానికి	-11.4257
▁వెనుజులా	-11.4257
▁జమ్మూ	-11.4257
▁వ్యర్థ	-11.4268
▁సుప్రీం	-11.4273
▁కాల్సియం	-11.4273
▁భాగస్వామి	-11.4282
▁మరియొక	-11.4287
▁జర్నల్	-11.4289
▁ఋషుల	-11.429
▁తయారీదారు	-11.4293
కూడదని	-11.4294
▁కూతుర	-11.4296
▁పునర్నిర్మించ	-11.4305
▁మిషనరీ	-11.4305
▁రిజర్వ్	-11.4305
▁అంగుళాల	-11.4305
▁had	-11.432
▁తిలక్	-11.4321
▁చేబ్రోలు	-11.4336
▁నవాబ్	-11.4337
▁ఉష్ణమండల	-11.4338
▁అంతర్జాల	-11.4338
▁నమస్కరించ	-11.4352
▁అస్సాం	-11.4354
▁ఎవరో	-11.436
నిచ్చింది	-11.4365
▁ఎలిజబెత్	-11.4368
▁కథానాయిక	-11.4368
▁తల్లితండ్రుల	-11.4368
▁ద్రావిడ	-11.4369
▁like	-11.4369
▁విడాకుల	-11.438
▁డెన్మార్క్	-11.4384
▁పెంపుడు	-11.4386
వ్యాస	-11.4391
▁ఆటగాడు	-11.44
▁హరికథ	-11.4405
▁కీర్తించ	-11.4407
▁ఉంటాయని	-11.4417
▁స్వరాజ్య	-11.4423
▁కొంతవరకు	-11.4426
▁విలీన	-11.4431
▁మక్కువ	-11.4433
▁చిత్రకళ	-11.4433
▁వందలాది	-11.4435
▁ఒక్కసారి	-11.4441
▁రెక్కల	-11.4445
▁తెలిపే	-11.4446
▁after	-11.4448
▁most	-11.445
▁వెంకయ్య	-11.4455
▁అనుమతిస్తుంది	-11.4455
▁రావణుని	-11.4459
▁అందజేస్త	-11.4464
▁భైరవ	-11.4465
▁కైలాస	-11.4468
▁అసలైన	-11.4486
▁హెచ్చు	-11.45
▁నవీన	-11.4507
▁టెక్కలి	-11.4513
▁షేర్	-11.4515
▁బేగం	-11.4515
▁ఉపశమన	-11.4529
▁మొఘలు	-11.4529
▁ఒకేసారి	-11.4538
▁నందమూరి	-11.4545
▁పథకాల	-11.4546
ైజేషన్	-11.4548
▁సహకరిస్త	-11.4549
▁1,5	-11.4565
▁నడిపే	-11.4571
▁shall	-11.4578
▁సావిత్రి	-11.4578
▁డెల్టా	-11.4578
▁పరోక్ష	-11.4578
▁పాండిత్య	-11.4578
▁దారుణ	-11.4579
▁వికారాబాదు	-11.4594
▁ఆముదం	-11.4595
▁పాల్పడ	-11.4598
▁సామర్థ్య	-11.4598
▁పాతాళ	-11.4599
▁రాజపుత్ర	-11.46
▁సెర్బియా	-11.4611
▁ట్రెంచ్	-11.4611
▁తట్టుకో	-11.4611
▁బేసిన్	-11.4611
▁తేలింది	-11.4611
▁బైజాన్	-11.4612
ities	-11.4612
▁సర్వస్వ	-11.4614
ందువల్ల	-11.4614
▁ఫిర్యాదు	-11.4627
▁ఉత్తరప్రదేశ్	-11.4627
▁తటస్థ	-11.4627
సహాయ	-11.463
▁నెలకొని	-11.4631
▁ప్రయోగాత్మక	-11.4633
▁సిఫార్సు	-11.4643
▁పర్షియా	-11.4645
బడతారు	-11.4655
▁కోడూరు	-11.466
నొప్పి	-11.4662
▁CPU	-11.4676
▁ఉపసంహరించ	-11.4676
▁ఏర్పరుస్త	-11.4676
▁ట్రాన్స	-11.4677
▁నిశ్చయ	-11.468
▁దాసరి	-11.4682
▁కదులు	-11.4682
▁కొమరంభీం	-11.4693
▁మరాఠా	-11.4693
వృత్త	-11.4695
▁నెలకొన్న	-11.4696
▁బాధితుల	-11.4697
పండిత	-11.4697
చిత్తూరు	-11.4699
▁సృజనాత్మక	-11.4709
▁సిడ్నీ	-11.4709
▁ఈవిడ	-11.4715
▁అవక్షేప	-11.4715
▁years	-11.4726
వాహిక	-11.4726
▁కీటకాల	-11.4728
గమనం	-11.4729
▁ఉత్తర్వు	-11.4742
▁నిరంకుశ	-11.4742
▁స్వచ్ఛమైన	-11.4742
▁లాహోర్	-11.4742
▁than	-11.4744
▁సదుపాయం	-11.4745
▁పార్వతీపురం	-11.4751
ద్విబంధ	-11.4754
▁డబ్బింగ్	-11.4759
▁పెట్రోలియం	-11.4759
▁పేరొందిన	-11.4759
▁సెకండరీ	-11.4759
▁సోమాలియా	-11.4759
▁సాయిబాబా	-11.4775
▁అదృశ్య	-11.4775
▁జయశంకర్	-11.4775
▁డిపార్ట్	-11.4775
▁సమక్షంలో	-11.4775
▁అలాస్కా	-11.4776
▁నిర్మూలించ	-11.4776
▁గ్లూకోజ్	-11.4792
▁గ్లోబల్	-11.4792
▁విరాళాల	-11.4792
▁యెడల	-11.4793
▁యార్క్	-11.4793
3,000	-11.4807
▁ప్రావిన్సు	-11.4809
▁లభ్యమవ	-11.4811
▁మౌంట్	-11.4814
▁మైనారిటీ	-11.4825
▁యురేపియన్	-11.4825
▁మదనపల్లె	-11.4826
▁సైకిల్	-11.4826
▁సంపుటి	-11.4827
▁మొదలవుతుంది	-11.4827
▁హింసాత్మక	-11.4829
▁సంస్కార	-11.483
▁స్తూప	-11.4832
▁ఎలక్ట్రిక్	-11.4842
▁బాక్టీరియా	-11.4842
▁అశ్వమేధ	-11.4842
▁సరోజ	-11.4853
▁విభజ	-11.4855
▁భాగస్వాముల	-11.4859
▁సుమతీ	-11.4859
▁కేంద్రీకృతమై	-11.4859
▁information	-11.4876
▁సోయాబీన్	-11.4876
▁ఇంటర్వ్యూ	-11.4876
▁పరశురామ	-11.4876
▁సైప్రస్	-11.4876
▁ఇప్పటివరకు	-11.4878
▁పెరుగుతాయి	-11.4879
బలిజ	-11.4883
▁గొట్టం	-11.4884
▁కాలేయ	-11.4887
▁అదృష్ట	-11.4892
▁ప్రభావము	-11.4893
▁ఇంకనూ	-11.4893
▁వ్యూహాత్మక	-11.4895
ద్వీప	-11.4897
▁మళ్ళి	-11.4901
▁చదువుతున్న	-11.4907
▁మున్నగు	-11.491
▁నావికా	-11.4911
▁స్పష్టం	-11.4911
▁ఇంతవరకు	-11.4914
▁ఛాయాచిత్ర	-11.4926
▁షూటింగ్	-11.4926
కపోవచ్చు	-11.4929
సుందర	-11.4939
▁బ్రహ్మాండ	-11.4944
ుకొనుటకు	-11.4957
▁వెంకటాపురం	-11.496
▁మొదలుపెట్టారు	-11.496
గ్రాఫిక్	-11.497
▁భూలోక	-11.4974
▁వరాహ	-11.498
▁తత్వవేత్త	-11.498
▁నిర్వర్తించ	-11.4994
▁విచ్చేస	-11.5005
▁ఐసోటోపు	-11.5011
▁భైంసా	-11.5011
▁గ్రీక్	-11.5012
▁వినియోగిస్తున్న	-11.5026
▁నడక	-11.5028
▁తీసుకుంటారు	-11.5033
▁నశించ	-11.5037
▁విండోస్	-11.5045
▁పీఠభూమి	-11.5046
▁ప్రసన్న	-11.505
▁ఒప్పించ	-11.5051
▁భస్మ	-11.5052
సైన్య	-11.5059
▁అసిస్టెంట్	-11.5062
▁మాంచెస్టర్	-11.5062
▁వ్యాఖ్యాత	-11.5065
▁శిఖరాల	-11.5079
▁కర్తవ్య	-11.5079
కుంట్ల	-11.5082
▁నిర్వహించబడుతు	-11.5088
▁తెచ్చుకున్న	-11.509
▁ఊపిరితిత్తుల	-11.5096
▁అమాయక	-11.5096
▁తప్పించుకు	-11.5109
▁ఆకర్షిత	-11.511
▁కాంక్రీటు	-11.5114
▁కాలక్రమేణా	-11.5114
▁చిలకలూరిపేట	-11.5114
▁రిజిస్ట్రేషన్	-11.5114
▁లౌకిక	-11.5114
▁స్పటిక	-11.5114
▁అంతేకాదు	-11.5114
▁పట్టాభిషేక	-11.5115
చేసుకున్న	-11.5125
press	-11.5125
▁క్రమశిక్షణ	-11.5131
▁చెలరేగ	-11.5131
▁స్వాగత	-11.5131
▁యూరప్	-11.5131
▁అడగ	-11.5138
▁ఆక్సీకరణ	-11.5148
▁అధినేత	-11.5148
లేకపోయాడు	-11.5154
▁మనస్తత్వ	-11.5156
▁కాళిదాసు	-11.5165
▁రచయిత్రి	-11.5166
మొత్తం	-11.5173
▁తృప్తి	-11.5183
▁ఆవిర్భావ	-11.5183
▁ఆర్మూర్	-11.5183
▁చట్టపరమైన	-11.5187
▁కట్టుబడి	-11.5188
పరిమాణ	-11.519
▁గవర్న	-11.5216
▁వినాశ	-11.5218
▁పద్మశ్రీ	-11.522
▁వీక్షించ	-11.5221
మండప	-11.5222
ఖ్యాత	-11.5228
నక్షత్ర	-11.5231
▁topic	-11.5235
▁యోధుల	-11.5251
▁సామ్యవాద	-11.5252
▁సమ్మె	-11.5253
▁బ్రతికి	-11.5262
▁ఇబ్బందుల	-11.5269
▁సియాటెల్	-11.527
▁విభజింప	-11.5275
▁ఏడుగురు	-11.529
పదార్థాల	-11.5299
▁ఐస్లాండ్	-11.5306
▁కలిసే	-11.5306
దక్షిణ	-11.531
చేసాడు	-11.531
▁అసాధ్య	-11.5322
▁చోదక	-11.5323
▁శివరాత్రి	-11.5325
▁కూలీల	-11.5338
▁డాక్టరేట్	-11.5357
▁పునరుజ్జీవ	-11.5357
▁వివేకానంద	-11.5357
▁నియామక	-11.5357
▁కాశ్మీర	-11.537
▁సాధిస్త	-11.5371
▁వాజపేయి	-11.5375
▁అజ్ఞాత	-11.5375
▁దిగుబడి	-11.5375
▁గల్ఫ్	-11.5375
▁క్షీర	-11.5396
▁తణుకు	-11.5428
▁చాంపియన్	-11.5428
▁వాయవ్య	-11.5428
▁ఏమాత్రం	-11.5428
▁కొలువై	-11.5433
పద్మ	-11.5449
▁కలిగివుండ	-11.5461
సాధక	-11.5462
▁కిర్గిజిస్తాన్	-11.5464
▁జహీరాబాద్	-11.5464
▁శాస్త్రజ్ఞులు	-11.5464
▁మోటారు	-11.5464
▁కెన్యా	-11.5465
▁గడియార	-11.5465
ాన్సీ	-11.548
▁ప్రావీణ్య	-11.5499
▁జనసాంద్రత	-11.5517
▁సెంచరీ	-11.5517
▁భగత్	-11.5517
▁అనువుగా	-11.5518
▁స్కోర్	-11.552
ship	-11.5523
ుకొంది	-11.5532
▁నెరవేర్చ	-11.5536
▁నెయ్యి	-11.5536
▁సూర్యనారాయణ	-11.5538
▁తెలియజేయ	-11.5539
▁వర్షాకాల	-11.5542
▁నరసాపురం	-11.5551
▁సోషల్	-11.5553
▁విరమించ	-11.5553
▁పెరుగుతూ	-11.5557
light	-11.5557
▁అరబ్బు	-11.5559
▁సెక్యూరిటీ	-11.5571
▁కూర్పు	-11.5572
ానంతర	-11.5575
▁ఎందుక	-11.5579
▁ముడిపడి	-11.5581
ిస్టులు	-11.5586
▁చేనేత	-11.559
▁made	-11.559
▁ద్రావణం	-11.5598
ttle	-11.5605
▁పార్లమెంటరీ	-11.5607
▁స్టీఫెన్	-11.5607
▁మధుమేహ	-11.5607
▁గురువారం	-11.5607
▁వాహకనౌక	-11.5607
▁షరతు	-11.5608
▁పొడిగించ	-11.561
ఆధారిత	-11.5621
▁మిగిల	-11.5621
▁ఈజిప్ట్	-11.5625
▁ముంబయి	-11.5625
▁ఆశ్రయించ	-11.5625
▁ఉంగుటూరు	-11.5643
▁మహబూబాబాద్	-11.5643
▁శ్మశాన	-11.5643
పెనమలూరు	-11.5643
▁వారణాసి	-11.5643
▁ప్రోగ్రాం	-11.5643
▁మమ్మీ	-11.5644
background	-11.5661
▁రికార్డింగ్	-11.5661
▁space	-11.5661
▁ప్రోత్సహిస్త	-11.5661
▁శ్లోకం	-11.5661
▁ఆస్ట్రియా	-11.5661
▁సెకన్ల	-11.5665
▁పాలియోలిథికు	-11.568
▁జగన్నాధ	-11.568
▁క్షేమ	-11.568
▁house	-11.568
ఫార్మ	-11.5687
▁cause	-11.5698
▁హయాంలో	-11.5698
▁ప్రశంసించ	-11.5702
జేశారు	-11.5709
▁ఎదుర్కొంటున్న	-11.5715
position	-11.5716
▁ముఖద్వార	-11.5735
▁1,6	-11.5735
▁క్రీడాకారుడు	-11.5736
▁గెలుచ	-11.5738
▁జరిగ	-11.5768
▁water	-11.5771
▁తీసుకోవాలి	-11.5771
▁బాంబే	-11.5771
▁తరిమి	-11.5771
▁సమ్మతి	-11.578
▁భవిష్యత్	-11.5785
నిరోధక	-11.5789
▁అభినయ	-11.5792
ప్రథమ	-11.5795
▁పట్టించుకో	-11.5799
▁పేర్కొంటారు	-11.5808
▁గాంచింది	-11.5808
నౌక	-11.581
ుకొంటారు	-11.5819
▁when	-11.5826
▁భూపాలపల్లి	-11.5826
▁వేగవంతం	-11.5841
తక్కువ	-11.5844
▁number	-11.5845
▁నిర్వచనము	-11.5845
▁ప్రాచ్య	-11.5845
▁వాసుదేవ	-11.5846
▁అరబ్బీ	-11.5847
▁వర్తించ	-11.585
▁సమృద్ధి	-11.5863
▁టెక్సాస్	-11.5863
▁ప్రోటీన్	-11.5863
▁పొందుపరచ	-11.5863
▁గంభీర	-11.5864
▁సారవంతమైన	-11.5866
▁నిదర్శనం	-11.5869
▁అభ్యుదయ	-11.5882
▁గమనార్హం	-11.5882
▁రాజమహేంద్రవరం	-11.5882
▁శ్రావణ	-11.5882
▁మేనేజర్	-11.5882
▁అంతకుముందు	-11.5883
▁కిరణాలు	-11.5886
▁ప్యూర్టో	-11.59
▁దశరథ	-11.5901
వృద్ధి	-11.5917
▁ధ్వజస్తంభ	-11.5919
▁ఖరీదైన	-11.5919
▁హంగేరి	-11.5919
బ్రాహ్మణ	-11.5919
▁కారాగార	-11.592
▁సంభోగ	-11.592
సాగింది	-11.5937
▁కలుషిత	-11.5938
▁ప్రతిరోజూ	-11.5938
▁విస్ఫోట	-11.5938
▁తాడికొండ	-11.5938
▁అన్వయ	-11.5938
▁చక్రవర్తుల	-11.5938
▁పండిట్	-11.5939
▁కమ్యూనికేషన్	-11.5975
▁లావాదేవీ	-11.5975
▁చదివారు	-11.5975
▁హెచ్చరించ	-11.5975
▁శారదా	-11.5979
▁5334	-11.5979
▁ఫ్యాక్టరీ	-11.5994
▁about	-11.5994
▁మట్టానికి	-11.5994
ఊ	-11.5995
ible	-11.6
▁గెలాక్సీ	-11.6013
▁ఫోటోగ్రఫీ	-11.6013
▁ధర్మనందనా	-11.6013
▁బృహత్తర	-11.6013
▁శూద్ర	-11.6013
▁ప్రదేశానికి	-11.6013
▁మెరుపు	-11.6014
పర్వత	-11.6014
▁ఏర్పడ్డ	-11.6029
▁గర్భగుడి	-11.6033
▁కదిరి	-11.6033
▁బారిన	-11.6041
▁ఇంచుమించు	-11.605
▁మిగుల	-11.6062
▁ఆస్ట్రేలియన్	-11.6069
▁మునిసిపల్	-11.6069
▁మైక్రోసాఫ్ట్	-11.6069
▁కెనడియన్	-11.6069
▁ఎదిరించ	-11.6069
▁మంగోలియా	-11.607
▁కనుమల	-11.6078
▁హుకుంపేట	-11.6088
▁తాత్విక	-11.6088
▁అభిరుచి	-11.6107
▁కంట్రోల్	-11.6107
▁మాతృభాష	-11.6118
మహిష	-11.6122
▁appears	-11.6126
▁గుంతకల్లు	-11.6126
▁కార్యనిర్వాహక	-11.6126
▁ఫుడ్	-11.6129
బడుచున్న	-11.6145
▁జనాదరణ	-11.6145
▁డయాక్సైడ్	-11.6145
భగవానుడ	-11.6157
▁నైజీరియా	-11.6164
▁దెబ్బతిన్న	-11.6168
▁గంగాధర	-11.6177
▁ఇథియోపియా	-11.6183
▁లిథువేనియా	-11.6183
▁సంతరించుకుంది	-11.6183
▁హనుమంతరావు	-11.6183
▁బృహస్పతి	-11.6183
గ్రహణం	-11.6187
▁క్లిష్ట	-11.62
▁period	-11.6203
▁అచ్చంపేట	-11.6204
▁శంకరాచార్య	-11.6213
▁between	-11.6241
▁high	-11.6241
▁శ్రేయ	-11.6241
▁సారూప్య	-11.6241
పహాడ్	-11.6243
▁క్లోరిన్	-11.6261
▁పల్లవుల	-11.6262
•	-11.6264
▁ఇండస్ట్రీ	-11.628
▁హెచ్చరిక	-11.628
▁ప్రకాష్	-11.628
▁ఉదహరించ	-11.628
నాట్య	-11.6285
▁విద్యార్ధుల	-11.6286
షైర్	-11.6298
▁కనిష్ఠ	-11.6299
▁స్థితిగతుల	-11.63
▁ద్రవిడ	-11.6306
శుద్ధి	-11.6311
▁వేణుగోపాల	-11.6318
▁ఆసుపత్రుల	-11.6318
▁కంభం	-11.6319
బృంద	-11.6323
ుతుంటే	-11.6327
▁మాదిరి	-11.6328
▁తయారుచేస్తారు	-11.6338
▁ఇన్నింగ్స్	-11.6338
▁సువార్త	-11.6338
▁స్వప్న	-11.634
▁కూర్చున్న	-11.6345
▁మిసిసిపీ	-11.6357
▁పూర్తయిన	-11.6357
▁ఢీ	-11.6359
▁కోణాల	-11.6375
▁people	-11.6377
▁అల్పసంఖ్యాక	-11.6377
▁దృక్పథ	-11.6377
▁రెస్టారెంట్	-11.6377
ననుసరించి	-11.6377
▁సాధ్యపడ	-11.6398
6,000	-11.6401
▁విశద	-11.6413
▁ఇబ్రహీం	-11.6415
▁large	-11.6416
▁ఫెడరేషన్	-11.6416
▁ప్రసిద్ధిచెందిన	-11.6416
▁వధువు	-11.6416
▁అనుభూతి	-11.6416
▁అడ్డతీగల	-11.6435
▁బద్వేలు	-11.6435
▁దూరదర్శన్	-11.6435
▁తెప్పించ	-11.6437
▁విశ్వసిస్తున్న	-11.6442
lass	-11.6447
▁అలహాబాద్	-11.6455
▁గురుత్వాకర్షణ	-11.6455
▁ఉగ్రవాద	-11.6455
▁కనుమరుగ	-11.6455
ోద్యోగ	-11.6457
▁ఫొటో	-11.6459
రచయిత	-11.6462
▁ఫుల్	-11.6464
▁కోయిల	-11.6469
▁తుర్క	-11.6471
▁కొల్లిపర	-11.6475
▁బ్యాంకింగ్	-11.6475
▁సీరీస్	-11.6475
రోహిణి	-11.6475
▁పక్షము	-11.6489
ిస్తానని	-11.6492
▁ప్రళయ	-11.6496
▁ట్యాంకు	-11.6497
▁సంక్రమించ	-11.6498
▁శిబిరాల	-11.6514
▁సెకండ్	-11.6518
వ్యాధుల	-11.6522
▁సుభాష్	-11.6534
▁దేవరకొండ	-11.6534
▁అరవింద	-11.6536
▁ద్రావ	-11.6538
▁మహావిష్ణువు	-11.6554
▁లంబాడీ	-11.6554
▁మార్షల్	-11.6554
▁called	-11.6574
▁హర్యానా	-11.6574
▁పొన్నూరు	-11.6574
▁శోధన	-11.6574
▁జోగులాంబ	-11.6594
▁తాడిపత్రి	-11.6594
▁మిలిటరీ	-11.6594
▁మధ్యధరా	-11.6594
▁దండెత్తి	-11.6598
▁సత్తెనపల్లి	-11.6614
▁ఐశ్వర్య	-11.6614
▁నిరాకరణ	-11.6614
▁నలభై	-11.6614
error	-11.6615
▁కజకస్తాన్	-11.6634
▁రమేష్	-11.6634
▁image	-11.6654
▁సర్పంచ్	-11.6654
▁గువేరా	-11.6654
▁ఏజెన్సీ	-11.6674
▁ముంచింగిపుట్టు	-11.6674
▁నిమగ్న	-11.6674
▁ఆళ్వారు	-11.6674
▁ఎస్టేట్	-11.6674
▁దురదృష్ట	-11.6694
▁ఊపిరి	-11.6694
▁తోడేళ్ళ	-11.6696
ాగారం	-11.6708
▁స్క్వేర్	-11.6714
▁పక్షాల	-11.6716
▁సార్వ	-11.6722
▁ద్వాదశ	-11.6734
▁డిస్ట్రిక్	-11.6735
▁సన్నివేశాల	-11.6741
▁నిర్ణయించుకున్న	-11.6742
సమాజ	-11.6751
▁ముస్లిముల	-11.6751
▁యక్షగాన	-11.6754
▁సికింద్రాబాదు	-11.6754
▁పారదర్శక	-11.6754
▁రొట్టె	-11.6754
▁ఆస్పత్రి	-11.6754
▁సామగ్రి	-11.6755
▁ఇదొక	-11.6761
▁మల్లికార్జున	-11.6775
▁మురళీ	-11.6775
▁పింగళి	-11.6775
ోత్పత్తి	-11.6776
▁కంబోడియా	-11.6795
▁చతురస్ర	-11.6795
▁తీసుకెళ్ల	-11.6795
▁ఫ్యూర్టో	-11.6795
▁బుధవారం	-11.6795
▁మైఖేల్	-11.6795
▁చవిచూ	-11.6795
లాజికల్	-11.6795
▁అధిష్టించ	-11.6796
▁కశ్యప	-11.6798
పరిగణించబడుతుంది	-11.6806
ఉపయోగించబడుతుంది	-11.6813
▁ధూళి	-11.6815
▁కొయ్యూరు	-11.6816
▁ఫ్లోరైడ్	-11.6816
▁విత్తిన	-11.6816
▁కత్తిరించ	-11.682
▁ఒకరైన	-11.6823
▁గుండెపోటు	-11.6836
▁న్యూఢిల్లీ	-11.6836
▁పెదకాకాని	-11.6836
▁ఉయ్యాలో	-11.6836
▁కదిలే	-11.6837
వాహక	-11.6841
▁పాలకొల్లు	-11.6856
▁ప్రతాపరుద్ర	-11.6856
▁word	-11.6877
▁గ్రౌండ్	-11.6877
▁కింగ్డమ్	-11.6877
▁తపాలా	-11.6877
▁స్థావరాల	-11.6885
▁మెప్పించ	-11.6886
▁సైన్సెస్	-11.6897
▁కళాఖండాల	-11.6899
▁అనురాగ	-11.6905
▁రైల్వేస్టేషను	-11.6918
▁పటిష్ఠ	-11.6918
▁హేతువాద	-11.6918
▁ఉగాది	-11.692
▁ఉదజని	-11.6939
▁కలుగజేస	-11.6944
▁హతమార్చ	-11.6959
▁పనిముట్ల	-11.6968
▁చోటుచేసుకు	-11.6968
▁చీల్చ	-11.6973
▁నౌకాదళ	-11.698
▁సులువుగా	-11.698
▁అన్నదమ్ముల	-11.698
▁ఇత్తడి	-11.698
▁ఏమైనా	-11.6982
పరీక్ష	-11.6993
HTML	-11.7001
▁చిరునామా	-11.7001
▁భాజపా	-11.7001
▁సనాతన	-11.7001
▁బ్యూరో	-11.7001
▁సిల్వర్	-11.7001
▁అపూర్వ	-11.7002
తర్వాత	-11.7015
డిసెంబరు	-11.7015
▁తుంగభద్ర	-11.7021
▁ప్రాదేశిక	-11.7021
▁ఎనర్జీ	-11.7021
▁నలుమూలల	-11.7022
▁అతీత	-11.7023
▁తెలప	-11.7041
▁అధిరోహించ	-11.7042
▁రిజర్వేషన్	-11.7042
▁విమోచన	-11.7042
▁కరాచీ	-11.7042
▁పిలిపించ	-11.7043
▁అహంకార	-11.7043
విద్యుత్	-11.7055
▁ఫ్లోరిడా	-11.7063
▁కుమ్మరి	-11.7064
▁మంత్రిత్వశాఖ	-11.7084
▁మాధ్యమాల	-11.7084
వయసు	-11.7101
▁సెక్రటరీ	-11.7105
▁రక్తపోటు	-11.7105
▁స్కాటిష్	-11.7105
▁ప్రాధమిక	-11.7105
▁పరమపదించ	-11.7106
▁ఇంగ్లండు	-11.7126
▁పురాతత్వ	-11.7126
▁లెబనాన్	-11.7126
▁పనిచేస్తాయి	-11.7147
▁కాల్పనిక	-11.7168
▁గడువు	-11.7168
▁చుట్టుముట్ట	-11.7169
▁తీసుకెళ్ళ	-11.7189
▁సల్ఫైడ్	-11.7189
▁హీరోయిన్	-11.7191
ాశ్రయ	-11.7194
చేసుకో	-11.7202
▁బురుజు	-11.7211
▁పదకొండు	-11.7211
▁గుజ్జు	-11.7211
సృష్టి	-11.7216
సరిహద్దు	-11.7228
▁where	-11.7232
▁పరిశుభ్ర	-11.7232
▁శైలుల	-11.7232
▁డైరక్ట	-11.7233
▁మొదలుపెట్టాడు	-11.7253
▁దృష్ట్యా	-11.7253
▁criteria	-11.7274
▁formatt	-11.7274
▁కామన్వెల్త్	-11.7274
▁ఏర్పరుచు	-11.7274
▁copie	-11.7276
▁విద్యావంతుల	-11.7281
వస్తువు	-11.7293
▁భృగు	-11.7296
▁శ్రోతల	-11.7296
▁గుర్రపు	-11.7296
▁పదిహేను	-11.7296
▁రుజువు	-11.7296
▁మాసపత్రిక	-11.7297
▁నైపుణ్యాల	-11.7303
▁వెన్నెల	-11.7306
▁చురుకైన	-11.7317
▁కాంగ్రేసు	-11.7317
▁కలుసుకున్న	-11.7317
▁meets	-11.7339
▁suited	-11.7339
▁రిపబ్లికన్	-11.7339
▁హైస్కూల్	-11.7339
▁కమ్యూన	-11.7358
▁హైడ్రాక్సైడ్	-11.736
▁మరికొంత	-11.736
▁విసిరి	-11.7362
పౌర	-11.7374
▁విఠల	-11.7378
▁ఫిరంగి	-11.7382
హెక్ట	-11.7394
▁కుళాయి	-11.7401
▁మరికొందరు	-11.7403
▁through	-11.7425
▁డిప్యూటీ	-11.7425
▁పుష్కలంగా	-11.7425
▁లైసెన్స్	-11.7425
▁యవ్వన	-11.7426
▁ఓటర్ల	-11.743
ింగ్టన్	-11.7442
▁dictionary	-11.7447
▁లిఖిత	-11.7447
▁స్వస్థలం	-11.7447
భరణి	-11.7455
ology	-11.7468
▁ఇంజినీరింగ్	-11.7468
▁న్యూజిలాండ్	-11.7468
▁శివరావుగారి	-11.7468
▁బురద	-11.7469
▁టెర్మినల్	-11.749
▁వీరేశలింగం	-11.749
▁సంతానోత్పత్తి	-11.749
▁పరిశోధించ	-11.7491
▁ఉసిరి	-11.7493
▁మద్యపాన	-11.7494
పోరాట	-11.7502
ప్రమాణ	-11.7511
▁అంత్యక్రియల	-11.7512
▁ఆనవాయితీ	-11.7512
▁మేడికొండూరు	-11.7512
▁రెహమాన్	-11.7512
▁పొదిలి	-11.7512
▁ఆఫీస్	-11.7512
▁లక్ష్మ	-11.7517
▁గెలవ	-11.752
▁extend	-11.7534
▁నిలిచాయి	-11.7534
ోగ్రఫీ	-11.7538
▁వంశీయుల	-11.7544
▁దొరికే	-11.7548
▁బతుకు	-11.7554
▁appropriately	-11.7556
▁కంచికచర్ల	-11.7556
▁మెమోరియల్	-11.7556
▁లక్ష్మీనరసింహ	-11.7556
▁అమ్మోనియా	-11.7556
▁పరిగణనలోకి	-11.7556
▁అనవసర	-11.7556
▁చైత్ర	-11.7556
▁పేలుడు	-11.7557
▁follow	-11.7578
▁ప్రొఫెషనల్	-11.7578
▁రుగ్మత	-11.7578
▁వామపక్ష	-11.7578
▁కుబేర	-11.7581
ుతుంటుంది	-11.7597
▁రెండేళ్ళ	-11.7601
▁దాఖలు	-11.7622
▁చదరంగ	-11.7628
▁షెడ్యూల్	-11.7639
▁ఔత్సాహిక	-11.7644
▁నామవాచక	-11.7644
▁నిర్ణీత	-11.7644
▁సరిదిద్ద	-11.7644
▁క్రమేణా	-11.7666
▁యునెస్కో	-11.7688
▁శాస్త్రజ్ఞుడు	-11.7688
▁కమీషన్	-11.7688
వలసిందిగా	-11.769
ఆషాఢ	-11.769
▁వెదజల్ల	-11.7711
▁నరసన్నపేట	-11.7711
▁అపురూప	-11.7711
▁వికిరణ	-11.7729
▁వారణాశి	-11.7733
▁అంటరాని	-11.7733
▁ఆఖరు	-11.7734
▁స్క్రిప్ట్	-11.7755
▁నారింజ	-11.7755
నిర్వహణ	-11.7758
▁సంతృప్త	-11.7761
▁విదేశీయుల	-11.7763
▁ఈజిప్షియన్	-11.7778
▁ఎగ్జిక్యూటివ్	-11.7778
▁ఎడ్యుకేషన్	-11.7778
▁తంజావూరు	-11.7778
▁ఛేదించ	-11.7778
▁జస్టిస్	-11.7778
▁వర్తమాన	-11.7778
▁లినక్స్	-11.7778
▁తుపాకీ	-11.78
▁పౌరసత్వం	-11.78
▁నాణ్యమైన	-11.78
▁నక్సల	-11.7802
▁నావికుల	-11.7803
▁would	-11.7823
▁ఎనిమిదవ	-11.7823
▁ఇందిర	-11.7829
gree	-11.7838
▁అలహాబాదు	-11.7845
▁చెప్పుకోదగ్గ	-11.7845
▁వ్యభిచార	-11.7845
▁human	-11.7845
▁స్పెషల్	-11.7845
▁మిలటరీ	-11.7845
శాస్త్రజ్ఞుల	-11.7851
▁కుడ్య	-11.786
▁మార్కండేయ	-11.7868
▁వితంతు	-11.7868
▁లభ్యం	-11.7869
▁మిడిల్	-11.787
▁అధ్యాయం	-11.7891
▁తారీఖు	-11.7891
▁టిబెటన్	-11.7891
▁నిజాయితీ	-11.7891
▁పానీయాల	-11.7902
▁ప్రజాభిప్రాయ	-11.7913
▁ఇండెక్స్	-11.7913
▁కేన్సర్	-11.7913
▁Hindu	-11.7913
▁పోలవరం	-11.7915
▁ముచ్చట	-11.792
ురాలైన	-11.7927
▁అధునాతన	-11.7936
▁అభ్యంతర	-11.7936
▁పులివెందుల	-11.7936
▁హాలీవుడ్	-11.7936
▁ఛాంపియన్షిప్	-11.7936
▁వేడెక్క	-11.7936
▁కోనేరు	-11.7937
▁ఆకృతుల	-11.7958
▁విరాళం	-11.7959
▁చెవుల	-11.7979
తాత్పర్యం	-11.7982
థెరపీ	-11.7982
▁వట్టిచెరుకూరు	-11.7982
సంతనూతలపాడు	-11.8005
▁ఎమ్మెల్యే	-11.8005
▁విద్యుదయస్కాంత	-11.8005
▁ఉపఖండంలో	-11.8005
▁జపనీస్	-11.8028
▁ఫిన్నిష్	-11.8028
▁చోడవరం	-11.8028
▁మనుష్యుల	-11.8028
▁అయోమయ	-11.8028
▁దెబ్బతిన	-11.8047
▁ఇనిస్టిట్యూట్	-11.8051
▁న్యూక్లియర్	-11.8051
లోకెల్లా	-11.8054
▁యురేనియం	-11.8074
▁బ్రయంట్	-11.8074
▁ఇమామ్	-11.8074
▁కాడ్మియం	-11.8097
▁వెన్నెముక	-11.8097
▁South	-11.8097
▁తక్కిన	-11.8097
పాఠశాల	-11.8105
▁LED	-11.812
▁ఔరంగజేబు	-11.812
▁కందుకూరి	-11.812
▁నైట్రోజన్	-11.812
▁సారస్వత	-11.812
▁ఆస్టిన్	-11.8121
▁దేవుళ్ళ	-11.8139
▁century	-11.8143
▁either	-11.8143
▁అమితాబ్	-11.8143
▁స్పోర్ట్స్	-11.8143
▁ట్యూబ్	-11.8144
▁ఇక్ష్వాకు	-11.8167
▁డాక్యుమెంటరీ	-11.8167
▁పునరుత్పత్తి	-11.8167
▁కంకిపాడు	-11.8167
▁కొలిచే	-11.8167
స్వాతంత్ర్యోద్యమ	-11.8183
▁డబ్ల్యు	-11.819
▁భట్టిప్రోలు	-11.819
▁కరెన్సీ	-11.819
▁వయోజన	-11.819
▁అరెస్ట	-11.8209
▁నమః	-11.8214
▁వర్తిస్తుంది	-11.8214
▁రాజభవన	-11.8214
▁పరిమళ	-11.8214
గింజల	-11.8223
▁క్రీస్తుపూర్వం	-11.8237
▁యురోపియన్	-11.8237
గౌరవ	-11.8247
▁పరిశుద్ధ	-11.8251
|-|	-11.8263
▁world	-11.8284
▁విశ్వసనీయ	-11.8284
▁బైబిలు	-11.8284
▁కళారూపాల	-11.829
▁వరుణ	-11.8295
▁విముక్త	-11.8302
▁సామాగ్రి	-11.8308
▁అప్లికేషన్	-11.8308
▁శిరస్సు	-11.8308
▁వైజ్ఞానిక	-11.8308
▁వేరువేరు	-11.8308
▁పాండ్య	-11.8309
సదుపాయ	-11.8309
విధానాల	-11.8316
▁నెంబరు	-11.8332
▁భోజ	-11.8332
▁శృంగవరపుకోట	-11.8355
ాంజనేయ	-11.8355
▁సంస్థానాధీశుల	-11.8355
▁గుజరాతీ	-11.8379
▁మున్సిపల్	-11.8379
▁రాజశేఖరరెడ్డి	-11.8379
▁ముగిసే	-11.838
▁ఒడంబడిక	-11.8403
▁కొత్తవీధి	-11.8403
▁ఆఫీసర్	-11.8403
▁కలిగివుంటాయి	-11.8403
▁ఉక్రెయిన్	-11.8427
▁స్పర్శ	-11.8427
▁విభేదాలు	-11.8427
self	-11.8429
graph	-11.8429
పరిశ్రమ	-11.8439
Telugu	-11.8451
▁తైమూర్	-11.8451
ఏప్రిల్	-11.8464
▁కలెక్టరు	-11.8475
▁స్పృహ	-11.8475
▁ప్రత్యర్థుల	-11.8475
గ్రాహక	-11.8481
Google	-11.8499
ఞ	-11.9938
ఔ	-13.0156
·	-13.9618
