<unk>	0
<s>	0
</s>	0
.	-2.66226
,	-3.3235
▁	-4.24945
▁నుండి	-4.70314
▁కి	-4.72296
లో	-4.73621
ం	-4.80166
▁ఉన్నాయి	-4.91101
▁మీ	-4.97913
▁ఉంది	-5.0089
▁గ్రామం	-5.08035
▁దూరంలో	-5.14532
లు	-5.23098
▁10	-5.25033
▁ఈ	-5.29551
ను	-5.31801
ని	-5.38027
▁గ్రామంలో	-5.41326
ల	-5.50205
గా	-5.52587
▁మరియు	-5.55505
▁5	-5.5964
కు	-5.61791
న	-5.64448
ు	-5.66571
స్	-5.71848
▁కేంద్రం	-5.72341
ి	-5.77278
▁సమీప	-5.7784
▁ఒక	-5.80202
వ	-5.80446
▁ఆ	-5.85158
ా	-5.89057
ము	-5.93833
క	-5.9725
ర్	-5.98495
▁కూడా	-5.99274
న్	-6.03875
▁ద్వారా	-6.05464
ాలు	-6.0578
్	-6.0811
తో	-6.11748
కి	-6.13037
▁సౌకర్యం	-6.15535
ారు	-6.15569
ర	-6.19522
ాన్ని	-6.20161
▁లో	-6.21264
ల్	-6.22579
-	-6.23081
▁పైబడిన	-6.23332
▁సంఖ్య	-6.23509
త	-6.25674
▁పాఠశాల	-6.26235
▁కళాశాల	-6.28525
మ	-6.29281
ంగా	-6.31622
▁అ	-6.31908
▁"	-6.33646
ే	-6.37024
▁ప్రభుత్వ	-6.3721
▁జిల్లా	-6.38313
క్	-6.38747
▁యొక్క	-6.43852
▁వ్యవస్థ	-6.45141
రి	-6.45871
▁గ్రామానికి	-6.4914
▁లేదు	-6.50148
▁రహదారి	-6.50428
▁ఇది	-6.51652
▁సరఫరా	-6.54446
ట్	-6.54794
ది	-6.58639
వి	-6.59
▁వి	-6.60538
:	-6.60955
▁ఉన్న	-6.61234
ీ	-6.62352
ానికి	-6.64146
▁ప్రాథమిక	-6.65844
గ	-6.65894
ప	-6.66536
స	-6.669
రు	-6.68244
ట	-6.69573
▁ఆరోగ్య	-6.69767
ుడు	-6.70879
నే	-6.71733
రా	-6.72742
▁సామాజిక	-6.73517
ుల	-6.7622
లను	-6.76272
మైన	-6.77346
ాడు	-6.79554
య	-6.79683
▁లోపు	-6.80506
"	-6.83062
డ	-6.83114
ిన	-6.83806
▁తన	-6.84228
▁ప్రైవేటు	-6.84432
ాల	-6.85167
▁వైద్య	-6.8539
▁కింది	-6.85815
డ్	-6.87232
s	-6.87752
▁ఎక్కువ	-6.89534
ులు	-6.89661
నా	-6.90264
▁వ	-6.90343
▁క	-6.91506
ంలో	-6.91771
▁పాటు	-6.918
;	-6.91851
▁అని	-6.92045
లి	-6.92803
ింది	-6.93246
▁న	-6.93387
లా	-6.95398
పు	-6.96
డి	-6.97254
▁ఇతర	-6.99895
▁నీరు	-7
ద	-7.00471
▁కంటే	-7.0069
▁విద్యా	-7.0088
▁కు	-7.02107
▁/	-7.02428
▁-	-7.02698
▁వ్యవసాయ	-7.04204
▁ప్రధాన	-7.0429
▁మ	-7.07587
సి	-7.08695
డం	-7.08894
▁చెందిన	-7.10585
ాయి	-7.11342
▁ప	-7.11889
▁కోడ్	-7.12068
▁అనే	-7.12409
▁బ్యాంకు	-7.12577
మా	-7.1259
లోనూ	-7.12726
ాలను	-7.12974
▁తరువాత	-7.13039
▁ఉన్నారు	-7.13533
▁విద్యుత్	-7.13788
▁సినిమా	-7.14083
టి	-7.15286
▁జనగణన	-7.15524
లోను	-7.16074
▁ఆసుపత్రి	-7.16099
▁వాణిజ్య	-7.1643
▁పబ్లిక్	-7.16606
▁వారం	-7.17208
డు	-7.17538
వా	-7.17672
▁పథకం	-7.17819
▁ఫోన్	-7.18375
▁లేదా	-7.18403
▁ప్రకారం	-7.18603
▁షెడ్యూల్డ	-7.18643
▁ఎ	-7.18682
▁సంస్థ	-7.19327
కా	-7.19328
మి	-7.19473
▁గంటల	-7.20733
▁భారత	-7.21748
▁1	-7.21805
▁కా	-7.22223
▁ఒకటి	-7.22227
▁బి	-7.22584
▁ఆఫీసు	-7.22598
▁కోసం	-7.22866
▁రెండు	-7.23039
▁స్టేషన్	-7.23262
▁పోస్టాఫీసు	-7.23997
లలో	-7.25175
▁ఆయన	-7.25451
▁7	-7.2581
▁వైద్యశాల	-7.26918
▁అభివృద్ధి	-7.27033
▁ఏ	-7.28105
▁ఇ	-7.28487
మ్	-7.28589
▁·	-7.2889
రీ	-7.28928
త్	-7.29827
▁2	-7.30797
నీ	-7.32308
▁ని	-7.32527
డానికి	-7.32609
▁వ్యవసాయానికి	-7.32706
▁రాష్ట్ర	-7.32708
ూ	-7.32871
▁మా	-7.331
పై	-7.3414
▁బ	-7.34392
లకు	-7.3477
▁రోడ్లు	-7.34953
తి	-7.35316
▁డిగ్రీ	-7.35634
▁గా	-7.35682
▁19	-7.36119
▁the	-7.36122
▁ఉప	-7.36265
ప్	-7.37043
▁జాతీయ	-7.37058
వు	-7.37167
హ	-7.37932
▁స	-7.38192
జ్	-7.38593
▁తిరిగి	-7.39978
▁నుంచి	-7.40717
▁ను	-7.40842
న్న	-7.41095
▁వారి	-7.42929
యా	-7.43523
▁లు	-7.43841
లోని	-7.44157
▁రా	-7.4488
▁భూ	-7.44896
▁3	-7.45022
చ	-7.45489
▁18	-7.45865
▁విధంగా	-7.46962
జ	-7.47076
▁ఉంటుంది	-7.47622
▁చాలా	-7.47937
▁మధ్య	-7.48293
దు	-7.49378
▁కలిగి	-7.49476
▁జరుగుతోంది	-7.5003
▁రైల్వే	-7.50153
సు	-7.50595
▁కొన్ని	-7.50669
▁ప్రత్యేక	-7.50958
▁నా	-7.5186
/	-7.51965
▁టి	-7.5217
▁పెద్ద	-7.53043
ణ	-7.54066
▁ఉత్పత్తి	-7.54981
▁ఏడాది	-7.552
▁లోని	-7.55339
▁సి	-7.55468
▁నీటి	-7.55842
▁వంటి	-7.5603
▁ప్ర	-7.56294
వే	-7.57776
గు	-7.58143
▁అనేక	-7.59398
మ్మ	-7.59652
గ్	-7.60083
▁ఉ	-7.60249
▁మురుగునీటి	-7.60261
▁4	-7.60315
▁అందుతుంది	-7.60493
▁కుటుంబ	-7.60826
n	-7.61413
రో	-7.61996
▁స్	-7.62221
▁కో	-7.62241
▁పొడుగునా	-7.62358
▁వరకు	-7.62368
'	-7.62991
▁6	-7.63459
▁త	-7.63863
లే	-7.64547
▁పేరు	-7.6551
▁ము	-7.65597
ో	-7.65636
ల్లో	-7.65958
▁బస్సు	-7.66039
▁జ	-7.66242
▁పౌర	-7.66451
▁మండల	-7.66554
▁శ్రీ	-7.66835
▁వారు	-7.67205
▁పి	-7.67699
▁బా	-7.67981
ద్	-7.68917
▁of	-7.69196
▁2011	-7.69653
▁వృత్తి	-7.70001
▁తెలుగు	-7.70099
చే	-7.70166
పా	-7.70837
▁మె	-7.70837
▁వా	-7.71165
:.	-7.71416
▁ప్రతి	-7.715
▁శిక్షణ	-7.71505
▁అండ్	-7.71999
▁'	-7.72124
▁పా	-7.72363
▁సంత	-7.72706
టం	-7.72893
రే	-7.73012
మే	-7.73029
▁జరుగుతుంది	-7.73208
పి	-7.73265
▁సా	-7.73272
▁సంఘం	-7.74053
▁ఆమె	-7.74185
▁ల	-7.7432
▁కొరకు	-7.74623
య్య	-7.74953
ళ్ళ	-7.75128
కో	-7.75281
▁విస్తరించి	-7.7543
▁నమోదు	-7.75495
▁ప్రవహిస్తుంది	-7.75553
▁రవాణా	-7.75584
▁కాలువల	-7.76035
▁సామాన్య	-7.76381
▁మాధ్యమిక	-7.7639
▁గణాంకాల	-7.76408
ండ	-7.76968
▁డాక్టర్లు	-7.77131
▁శ	-7.77522
▁సహకార	-7.77701
సా	-7.77934
▁మురుగునీరు	-7.77937
▁స్వయం	-7.78144
ాలలో	-7.78314
▁బృందం	-7.78343
చి	-7.78428
ధ	-7.79037
▁మంది	-7.79218
▁ఔషధ	-7.79519
▁కాగా	-7.79594
▁కేంద్రాలు	-7.79669
▁8	-7.79723
ుని	-7.79835
▁కార్యాలయం	-7.80069
▁మీద	-7.80413
▁సం	-7.81217
శ	-7.81267
▁సంరక్షణ	-7.81521
▁కులాల	-7.81715
▁వినియోగం	-7.81734
▁చేసిన	-7.81935
న్నాయి	-7.81957
జి	-7.82048
▁సొసైటీ	-7.82208
▁సంపూర్ణ	-7.82287
▁తెగల	-7.82352
▁మొదలైన	-7.82399
▁శిశు	-7.82418
▁సేవా	-7.82495
▁లైన్	-7.82669
▁సహాయక	-7.82778
▁జనన	-7.82869
▁మొదటి	-7.82895
ించ	-7.82955
ములు	-7.83025
▁పశు	-7.83044
బ	-7.8306
తా	-7.83122
▁సబ్	-7.83319
▁ప్రత్యామ్నాయ	-7.83508
▁పె	-7.83557
దా	-7.83726
▁ఆటల	-7.83923
▁చిన్న	-7.84061
▁సైన్స్	-7.84181
భ	-7.8421
▁ప్రాథమికోన్నత	-7.84537
▁మైదానం	-7.84581
బడింది	-7.84719
క్ష	-7.85124
▁బాలల	-7.85145
ట్ట	-7.85371
▁ఆటో	-7.85392
▁గ్రంథాలయం	-7.85461
▁కార్యకర్త	-7.85522
▁పిన్	-7.85635
▁ఇంటర్నెట్	-7.85701
▁నిమిత్తం	-7.85731
▁సంక్షేమ	-7.85804
▁వార్తాపత్రిక	-7.85894
▁హ	-7.86026
▁జనాభా	-7.86075
▁మే	-7.86151
లీ	-7.86241
▁మొబైల్	-7.86396
▁మరణాల	-7.86703
▁సంచార	-7.86732
▁ఆర్ట్స్	-7.86762
▁పంపిణీ	-7.8683
▁మార్కెటింగ్	-7.86961
▁లొకేషన్	-7.86996
బ్	-7.87044
▁ఆశా	-7.87283
▁లోను	-7.87499
▁తో	-7.87525
▁మగవారి	-7.87528
▁జనాభాతో	-7.87564
▁కొ	-7.8759
ంది	-7.87769
▁పారామెడికల్	-7.87977
▁ఆడవారి	-7.87982
▁రీడింగ్	-7.88154
▁హెక్టార్లలో	-7.88312
▁మార్కెట్	-7.88361
▁పోలింగ్	-7.88388
▁జూనియర్	-7.88396
▁రూం	-7.88477
▁ఇళ్లతో	-7.88551
▁లాండ్	-7.88599
▁తమ	-7.8865
▁పారిశుధ్య	-7.89034
▁మాతా	-7.89071
▁వీధుల	-7.89079
▁టెలిఫోన్	-7.89257
▁అంగన్	-7.89345
▁వాడీ	-7.89376
యి	-7.89655
▁పోస్ట్	-7.89836
టు	-7.89884
▁సరఫరాల	-7.89899
▁చ	-7.89902
▁ఉత్పాదక	-7.90067
ిక	-7.90077
▁ఓ	-7.90261
యు	-7.90592
▁కొరియర్	-7.90748
▁కెఫె	-7.90817
▁పోషకాహార	-7.9112
▁చేస్తున్నారు	-7.91152
▁హాలు	-7.91279
▁ది	-7.91281
▁గృహావసరాల	-7.91425
▁దూరం	-7.91542
▁గ	-7.9159
▁పక్కనే	-7.91639
▁తర్వాత	-7.91666
▁అవసరాల	-7.91798
▁సేకరించే	-7.91802
▁కంకర	-7.92242
▁వస్తువులు	-7.92275
▁ఇంటింటిక	-7.92332
▁పరపతి	-7.92468
▁అనియత	-7.92479
▁సమీకృత	-7.92609
▁పై	-7.92615
▁వ్యర్థాలను	-7.92631
అ	-7.92924
▁బయోగ్యాస్	-7.92945
▁మరుగుదొడ్డి	-7.93084
▁దివ్యాంగ	-7.93219
▁ఏటీఎమ్	-7.93255
▁డిస్పెన్సరీ	-7.93265
▁అలోపతి	-7.93302
▁పాలీటెక్నిక్	-7.93497
▁చెత్తను	-7.93679
ె	-7.93887
▁టెలిగ్రాఫ్	-7.94005
▁పో	-7.94119
▁పట్టణమైన	-7.94135
▁పారబోస్త	-7.94146
▁in	-7.94682
తు	-7.94752
▁వే	-7.9509
▁మూడు	-7.95408
▁కేంద్రమైన	-7.95424
▁మేనేజిమెంటు	-7.95555
ై	-7.95765
▁వనరుల	-7.95806
▁వలన	-7.95919
లతో	-7.9592
▁దాని	-7.95948
▁గ్రామ	-7.95992
▁బాలబడి	-7.96106
▁గ్రామాల	-7.96243
▁రోజుకు	-7.96727
▁జల	-7.97064
▁మి	-7.9711
▁ప్రాంతాల	-7.97124
ౌ	-7.97361
▁అమలవుతోంది	-7.97372
యం	-7.97435
జా	-7.97871
▁ఆర్	-7.98199
▁దీని	-7.98236
ళ	-7.98333
▁ఉంటాయి	-7.98839
▁ఆఫ్	-7.9937
▁చేయ	-7.99497
▁కిలోమీటర్ల	-7.99671
u	-7.99831
ష	-7.9987
ంతో	-8.00044
▁15	-8.00346
▁కుళాయిల	-8.00381
త్త	-8.00936
▁వద్ద	-8.01042
▁వరి	-8.01188
▁పాఠశాలలు	-8.01492
ప్ర	-8.0178
పల్లి	-8.01931
▁అసెంబ్లీ	-8.01978
కే	-8.02017
▁బస్సులు	-8.0251
▁9	-8.02516
▁--	-8.02721
▁సు	-8.02741
▁అయితే	-8.02764
▁ఐ	-8.02857
▁అతని	-8.02885
%	-8.03386
▁చేతిపంపుల	-8.03393
▁రోజువారీ	-8.03571
▁12	-8.03815
▁గుండా	-8.03816
▁అయిన	-8.03875
బా	-8.04204
ంత	-8.04282
▁a	-8.04337
er	-8.04721
రం	-8.04882
y	-8.04972
▁కానీ	-8.05238
▁అవుతున్నాయి	-8.05595
▁దూరంలోనూ	-8.06021
▁ఇక్కడ	-8.06124
ించి	-8.06898
ష్	-8.06941
ఫ్	-8.06964
▁మొత్తం	-8.07663
▁చె	-8.07877
▁ఇంజనీరింగ్	-8.08041
A	-8.0806
ట్లు	-8.08399
ంద	-8.08999
t	-8.09027
టీ	-8.0954
ాల్లో	-8.09592
ాలకు	-8.10392
▁అది	-8.11137
▁గు	-8.11198
▁మండలం	-8.11387
i	-8.11388
▁ఆంధ్ర	-8.11438
▁డి	-8.11575
o	-8.11841
▁అంటారు	-8.12183
మీ	-8.12213
▁s	-8.1225
లేదు	-8.12497
▁ఉత్తర	-8.12566
▁చేసి	-8.12629
▁సమయంలో	-8.12775
▁వ్యవసాయం	-8.12988
▁సిబ్బంది	-8.13069
ed	-8.13343
స్ట్	-8.13609
▁దక్షిణ	-8.1365
బడిన	-8.13846
▁సౌకర్యాలు	-8.13933
2	-8.14122
గి	-8.14123
▁చెప్ప	-8.14205
▁తా	-8.14209
▁కాని	-8.1432
టర్	-8.14549
▁లేని	-8.14951
యో	-8.15026
▁గురించి	-8.1505
▁లా	-8.15489
ాలి	-8.15642
▁తారు	-8.15779
▁ప్రపంచ	-8.15846
▁మొదలైనవి	-8.1633
నం	-8.16368
బి	-8.1686
▁జరిగిన	-8.16932
వచ్చు	-8.17197
▁లేరు	-8.17329
వారు	-8.17977
పో	-8.18042
మని	-8.18261
▁నేరుగా	-8.18981
కీ	-8.193
కం	-8.193
రె	-8.19938
▁మాత్రమే	-8.20159
ుతుంది	-8.20273
ిత	-8.2038
ంగ్	-8.20487
▁మహా	-8.20652
c	-8.20886
▁తెలంగాణ	-8.20989
▁సె	-8.21394
ములో	-8.21427
నో	-8.21509
▁ప్రముఖ	-8.21564
al	-8.21674
▁A	-8.21747
ing	-8.21823
ళ్ల	-8.21844
సీ	-8.21892
▁శాల	-8.22056
▁అను	-8.22123
▁S	-8.22125
త్ర	-8.22184
నూ	-8.22215
▁అన్ని	-8.22233
▁పూ	-8.22367
ధి	-8.22431
▁17	-8.22449
▁య	-8.2258
జీ	-8.226
▁16	-8.2275
క్క	-8.22995
e	-8.23394
▁and	-8.23537
▁అతను	-8.23581
▁బహిరంగ	-8.23699
నె	-8.23777
ండి	-8.23852
▁ముందు	-8.24148
ప్ప	-8.24158
▁ఎస్	-8.2417
▁:	-8.24416
ట్టు	-8.24458
▁14	-8.24555
▁రాష్ట్రం	-8.24623
▁ద	-8.24956
ిస్తుంది	-8.25073
కొ	-8.25263
▁కాలంలో	-8.25365
▁రాజ	-8.25465
మో	-8.25685
డా	-8.25753
దీ	-8.25848
▁శుద్ధి	-8.25922
▁అతి	-8.25988
▁to	-8.26018
d	-8.26027
▁వచ్చిన	-8.26117
టా	-8.26133
▁0	-8.26481
1	-8.2652
▁భాష	-8.26626
▁11	-8.2695
▁జా	-8.2708
▁తిరుగుతున్నాయి	-8.27615
▁ఇద్దరు	-8.27982
▁ప్రభుత్వం	-8.28085
C	-8.28183
▁ర	-8.28572
▁మంచినీటి	-8.28915
▁పలు	-8.28961
వ్	-8.29061
▁కొత్త	-8.29226
ంచ	-8.29235
00	-8.29255
▁చిత్ర	-8.29382
▁సంవత్సరాల	-8.29527
ాలని	-8.29681
▁పార్టీ	-8.29887
▁20	-8.30144
▁కథ	-8.30256
▁రక్షిత	-8.30435
▁పరి	-8.30649
▁కె	-8.31046
▁వల్ల	-8.31238
▁అన్న	-8.31527
▁వై	-8.31623
▁మన	-8.32278
▁మండలానికి	-8.32405
సం	-8.32654
▁గో	-8.33227
▁దీనిని	-8.33263
ండ్	-8.33285
తీ	-8.33393
ంగ	-8.33527
కుండా	-8.33548
వనరుల్లోకి	-8.33866
▁వె	-8.34072
ూరు	-8.34121
▁ఒ	-8.34447
▁చే	-8.34729
▁రామ	-8.34772
▁ఇందులో	-8.34875
▁అందుబాటులో	-8.35367
మును	-8.35415
▁వివిధ	-8.35761
పూర్	-8.36152
ద్ద	-8.36251
▁లే	-8.36308
▁పని	-8.36336
▁ట్రాక్టర్లు	-8.36434
థ	-8.3646
ించిన	-8.36555
▁చేశారు	-8.36765
▁పాత్ర	-8.36813
▁ఒకరు	-8.36825
▁ఇవి	-8.36853
▁లోనూ	-8.36933
▁సంగీత	-8.36999
ిస్తారు	-8.37392
్లో	-8.37528
a	-8.38068
ైన	-8.38182
చు	-8.38472
▁వదులుతున్న	-8.38665
ar	-8.39206
▁మంచి	-8.3924
▁13	-8.39256
టానికి	-8.39521
p	-8.39668
దే	-8.39742
▁దా	-8.39866
▁అధిక	-8.40035
ేందుకు	-8.40318
▁భారతీయ	-8.40562
రణ	-8.40615
▁చేసే	-8.4076
▁యు	-8.4102
▁పొ	-8.41103
▁పు	-8.41301
▁కాల	-8.41645
▁రాజకీయ	-8.42298
▁50	-8.42375
గల	-8.42425
▁కలిగిన	-8.42708
▁వాడేందుక	-8.42713
▁రెండవ	-8.42901
టో	-8.42961
▁దేవ	-8.42987
g	-8.43008
ంబ	-8.43723
▁మో	-8.43726
k	-8.44069
▁భ	-8.4409
వారి	-8.44102
రావు	-8.44132
▁అంత	-8.4442
▁అనేది	-8.44571
▁ఆర్థిక	-8.4466
ంజ	-8.44689
▁రి	-8.44808
▁ఉండే	-8.45051
M	-8.45215
re	-8.46099
▁పూర్తి	-8.46237
▁నాలుగు	-8.46246
▁చి	-8.46275
S	-8.46548
▁తయారు	-8.46702
▁ప్రజలు	-8.46749
▁కారణంగా	-8.46829
▁సంవత్సరం	-8.46981
▁వాటి	-8.47002
ముగా	-8.47161
▁గల	-8.4727
రాజు	-8.47283
మె	-8.47328
or	-8.47361
▁పొంద	-8.47461
▁ఏర్పాటు	-8.47514
▁దేశ	-8.4802
▁జి	-8.48078
3	-8.48759
బడి	-8.48796
▁మత	-8.49011
ిస్తూ	-8.49132
▁అవ	-8.49153
▁ముగ్గురు	-8.4917
ఖ	-8.49213
▁ఉండ	-8.49521
▁వాడ	-8.49562
▁అదే	-8.49569
కర	-8.49628
ొ	-8.49737
▁కే	-8.49782
మై	-8.49804
▁అవి	-8.49874
▁గ్రామము	-8.4996
వాడు	-8.49966
▁తూర్పు	-8.50701
▁మూల	-8.50824
వ్వ	-8.50908
▁ఖ	-8.50908
ుతూ	-8.51064
h	-8.51127
▁చేర	-8.51438
▁C	-8.51584
▁హా	-8.51675
ముల	-8.51917
r	-8.52007
డే	-8.52018
వర్	-8.52296
ష్ట	-8.52543
▁c	-8.53215
▁చేసింది	-8.533
ులకు	-8.54095
▁వీరు	-8.54245
▁సాధారణంగా	-8.54289
చ్	-8.5429
▁అంటే	-8.54402
▁తక్కువ	-8.54446
▁పెట్ట	-8.54505
▁ధర్మ	-8.54725
▁ప్రాంతంలో	-8.54924
▁ఎక్కువగా	-8.55002
▁జరిగింది	-8.55197
▁తండ్రి	-8.55363
m	-8.55407
▁ప్రాంతం	-8.55471
▁అత్యంత	-8.55613
క్స్	-8.55686
▁యా	-8.55906
ట్ల	-8.55962
ప్పుడు	-8.55966
స్త	-8.56129
▁బె	-8.56266
సె	-8.564
పల్లిలో	-8.56646
▁బావుల	-8.56682
in	-8.56917
▁మొ	-8.57103
▁కేంద్ర	-8.57466
l	-8.5774
ంటి	-8.57977
నుండి	-8.58056
▁ఇలా	-8.583
గో	-8.58309
ాలతో	-8.58374
ేశ్వర	-8.58594
▁ఎం	-8.5868
ఆ	-8.5879
▁చరిత్ర	-8.59037
▁తు	-8.59329
ళ్ళు	-8.59504
▁వీ	-8.59504
▁కార్	-8.59605
?	-8.59614
్య	-8.59774
వీ	-8.59904
5	-8.60075
హా	-8.60076
▁రాజు	-8.60172
లుగా	-8.60179
▁బో	-8.60439
▁అంద	-8.60439
▁రే	-8.60597
I	-8.6073
▁నీ	-8.60845
ుకుని	-8.60933
లోకి	-8.6097
▁మండలంలోని	-8.60979
▁బహిరంగంగా	-8.60995
ులను	-8.61024
an	-8.61268
▁భూమి	-8.61407
ేవారు	-8.6157
▁కలిసి	-8.61594
▁కొండ	-8.62189
ృ	-8.62219
b	-8.62637
▁చా	-8.63035
▁గుర్తించ	-8.63546
▁ప్రజల	-8.63621
▁నిర్వహించ	-8.63641
▁శివ	-8.63669
ుకొని	-8.64237
▁అక్కడ	-8.64252
▁చిత్రం	-8.64271
ించారు	-8.64342
ల్ల	-8.64432
▁వచ్చింది	-8.64485
▁బ్రహ్మ	-8.64684
▁అలాగే	-8.64722
▁బోరుబావుల	-8.64794
▁డాక్టరు	-8.64811
ుడి	-8.64827
▁ప్రా	-8.65111
▁ప్రస్తుతం	-8.65269
▁దు	-8.65477
ంటే	-8.65709
▁కచ్చా	-8.65822
వాస	-8.66136
కాల	-8.66551
బడ్డాయి	-8.66644
ించాడు	-8.66673
ించే	-8.67067
!	-8.67453
le	-8.67857
▁కన్నా	-8.6793
▁శక్తి	-8.67938
సే	-8.68022
కర్	-8.68093
th	-8.68179
కార	-8.68191
▁M	-8.68207
▁లేక	-8.68348
▁తొలి	-8.68654
▁చూప	-8.68753
▁పడ	-8.68771
▁నగర	-8.68809
▁కాకుండా	-8.68985
▁బు	-8.68986
▁ముఖ్య	-8.69064
బో	-8.69249
చ్చ	-8.69357
▁కొంత	-8.69367
4	-8.69368
▁పాల	-8.6953
ra	-8.69597
D	-8.69621
▁డ	-8.69706
▁57	-8.69823
▁అనగా	-8.69854
▁కల	-8.69863
▁పంప	-8.69867
▁పోతోంది	-8.70314
▁f	-8.70344
▁మానవ	-8.70415
en	-8.70517
es	-8.70573
▁P	-8.7068
▁లోకి	-8.70752
▁రో	-8.70756
లె	-8.70826
▁స్వ	-8.71057
▁ఫ	-8.71323
టే	-8.7142
▁డా	-8.71494
▁ఇంకా	-8.71513
▁పశ్చిమ	-8.71609
ుకో	-8.71641
కె	-8.71726
వె	-8.71816
లోనే	-8.71935
ఎ	-8.72051
న్స్	-8.72107
▁B	-8.72265
▁అమెరికా	-8.72354
▁జీవ	-8.72379
గ్రామంలో	-8.72386
▁హిందూ	-8.72451
ంచి	-8.72554
▁కేంద్రంలో	-8.72882
త్తు	-8.72914
▁దగ్గర	-8.73344
▁కాలం	-8.73374
’	-8.73399
▁బాగా	-8.73407
▁ఈయన	-8.73572
ుడైన	-8.73573
▁పట్ట	-8.73959
▁యుద్ధ	-8.74141
పాడు	-8.74191
▁ప్రదేశ్	-8.74209
కులు	-8.74262
▁వచ్చి	-8.7428
▁ఎన్	-8.74449
బు	-8.74458
▁చైనా	-8.74686
▁శాసనసభ	-8.74785
f	-8.74867
రియా	-8.74908
▁వ్యక్తి	-8.74936
కూ	-8.75187
ాయ	-8.75288
ఘ	-8.75614
▁కాదు	-8.75624
హ్	-8.76355
జన	-8.76659
స్తూ	-8.76742
▁రచయిత	-8.76767
ందు	-8.76791
▁నిర్మాణ	-8.76972
ంప	-8.77097
రూప	-8.77132
▁వీరి	-8.77184
▁తి	-8.77279
▁పత్రిక	-8.77285
▁వారికి	-8.77332
6	-8.77375
▁దీనికి	-8.77459
డో	-8.77517
ీయ	-8.77586
త్వ	-8.77604
ండు	-8.77803
▁కట్ట	-8.77914
▁పోటీ	-8.7804
శి	-8.78046
▁అన	-8.78288
▁చేయడం	-8.78391
▁p	-8.78441
య్	-8.78491
▁గి	-8.7855
హి	-8.78674
▁నది	-8.78736
▁విద్య	-8.78746
▁తల	-8.78786
▁నె	-8.78822
▁చెరువు	-8.78874
▁30	-8.78907
▁శాఖ	-8.79022
▁పేరుతో	-8.79098
▁వచ్చే	-8.79218
స్తుంది	-8.79339
▁క్రీ	-8.79454
వాద	-8.79549
▁•	-8.796
▁2001	-8.79627
P	-8.79655
పురం	-8.79942
▁కృష్ణ	-8.80056
▁సుమారు	-8.80451
స్వామి	-8.80686
▁25	-8.80687
ాత్మక	-8.80889
దేశ	-8.8117
ుతున్న	-8.81393
ింప	-8.81479
ఇ	-8.81524
▁ఉపయోగించ	-8.8158
ల్లి	-8.81592
▁అంతర్జాతీయ	-8.81609
▁సంబంధించిన	-8.81645
▁ఎత్తు	-8.8176
సన్	-8.81765
▁హో	-8.81865
షి	-8.81875
తే	-8.81877
▁సమ	-8.82024
▁కోట	-8.82124
శ్	-8.82224
▁నివాస	-8.82227
ుకున్న	-8.82288
లం	-8.82314
▁ప్లాంట్	-8.82595
▁బీ	-8.82616
▁జె	-8.82944
▁అమ్మ	-8.83022
డీ	-8.83041
▁సీ	-8.83312
▁భావ	-8.83365
▁పాట	-8.83465
▁సాధారణ	-8.83568
▁n	-8.83904
డంతో	-8.84085
▁బ్ర	-8.84173
పోయింది	-8.84352
▁కాంగ్రెస్	-8.8442
షన్	-8.8456
▁చేశాడు	-8.84617
▁విడుదల	-8.84682
▁వున్న	-8.84725
నది	-8.84791
ిస్తున్న	-8.85184
▁లభిస్తుంది	-8.85185
▁సముద్ర	-8.8522
▁పురుషుల	-8.85368
ూర్	-8.85403
▁నగరం	-8.85455
ట్టి	-8.85529
▁పూర్వ	-8.85579
▁రూప	-8.85582
▁మహ	-8.856
▁రైలు	-8.85656
▁మార్చ	-8.85981
▁మరొక	-8.86277
త్వం	-8.86313
▁be	-8.86466
ంట	-8.86551
E	-8.8663
ల్లా	-8.86826
తం	-8.86859
▁is	-8.86867
▁విశాఖపట్నం	-8.86912
పె	-8.86947
పీ	-8.87001
▁తల్లి	-8.87286
▁గుంటూరు	-8.8735
▁షా	-8.87401
at	-8.87438
యే	-8.8756
▁స్వామి	-8.87561
ాను	-8.8758
▁అప్పటి	-8.87674
ంట్	-8.87895
▁తీసుకు	-8.87919
▁వ్యాపార	-8.8798
▁మాత్రం	-8.88007
▁నగర్	-8.88083
పద	-8.88102
▁జన	-8.88168
▁తప్ప	-8.8817
ాన	-8.88192
గిరి	-8.8823
మన్	-8.88336
il	-8.88525
▁ఉంచ	-8.88589
▁కోర	-8.88719
బడ	-8.88968
▁సంప్రదాయ	-8.89168
▁or	-8.89226
▁రంగు	-8.8934
▁సర్వ	-8.89407
▁రోజు	-8.89662
▁భాగంగా	-8.89733
▁కనుక	-8.89776
▁గొప్ప	-8.89889
మాన	-8.90047
స్తా	-8.90164
▁=	-8.90173
▁ఫా	-8.90202
▁ఆలయ	-8.90277
▁మరో	-8.9056
▁నాగ	-8.9065
సర్	-8.90788
▁లి	-8.90818
▁కృష్ణా	-8.90968
▁యుద్ధం	-8.91013
▁b	-8.91017
▁చెంద	-8.91023
▁దాదాపు	-8.91152
ుట	-8.91216
▁వెళ్ళ	-8.91392
▁భార్య	-8.91481
▁ప్రదర్శన	-8.91607
▁పే	-8.91607
ణి	-8.91883
▁ఒక్క	-8.92002
ారని	-8.92112
▁ఒకే	-8.92114
స్తారు	-8.92337
▁స్థానిక	-8.92338
▁కాక	-8.92368
ధ్య	-8.92646
▁హైదరాబాదు	-8.92857
▁58	-8.92897
▁చివరి	-8.92949
పే	-8.92982
▁ప్రారంభ	-8.93012
▁పారుదల	-8.93013
▁పెంచ	-8.93131
ంక	-8.93416
▁ట్రాక్టరు	-8.93441
జు	-8.93525
▁సో	-8.93562
ic	-8.93713
చ్చి	-8.9378
మున	-8.93889
▁రె	-8.94008
▁N	-8.94074
▁పంపిస్తున్నారు	-8.94074
మర్	-8.94127
▁వెంకట	-8.94283
▁చంద్ర	-8.94714
ధా	-8.94861
క్రమ	-8.94877
N	-8.95023
బడుతుంది	-8.95084
దని	-8.95257
10	-8.95335
▁ఉండేది	-8.95338
▁సభ	-8.95447
▁పొందిన	-8.95453
▁ఉన్నత	-8.95741
నియా	-8.95801
ad	-8.96003
రామ	-8.96004
ఫ	-8.96007
▁ఇం	-8.96161
▁సాహిత్య	-8.96171
▁పాడ	-8.9619
▁‘	-8.96208
న్నా	-8.96235
▁బల	-8.96444
▁ముఖ్యమైన	-8.96488
▁D	-8.96536
బీ	-8.96824
on	-8.96951
కుడు	-8.96987
▁తెలియ	-8.97203
▁లోపే	-8.97336
పర్	-8.97349
▁ఆడ	-8.97403
మూ	-8.97429
త్య	-8.97485
టన్	-8.9754
్యూ	-8.9761
▁రాజ్య	-8.97736
▁వాటిని	-8.97797
గానే	-8.97902
లై	-8.97911
జర్	-8.97934
▁m	-8.98009
7	-8.98017
8	-8.98112
▁ప్రత్తి	-8.9812
▁మూ	-8.98131
స్థాన	-8.98153
గం	-8.98256
▁ఇన్	-8.98499
▁భాగం	-8.98569
▁వైపు	-8.98588
లూ	-8.98613
▁నెల్లూరు	-8.98896
▁బాల	-8.99037
▁!	-8.991
▁పంచ	-8.99127
సర	-8.99347
▁నెల	-8.99477
▁నే	-8.99682
▁మిగిలిన	-8.99707
▁విజయ	-8.99765
▁కేవలం	-9.0005
క్కు	-9.00157
▁రంగ	-9.0018
ీకరణ	-9.00244
▁మరింత	-9.00257
▁యూ	-9.00292
▁డె	-9.00419
సో	-9.005
▁ఈమె	-9.0051
కల్	-9.00522
▁నిర్మించ	-9.00596
▁ఆధునిక	-9.00605
se	-9.00906
▁నాటికి	-9.00956
▁మై	-9.01014
▁దుకాణం	-9.01027
యర్	-9.01068
▁The	-9.01103
పడ	-9.01204
▁కంపెనీ	-9.01259
0	-9.01413
ార్	-9.01452
▁సై	-9.01457
▁శా	-9.0185
▁గోదావరి	-9.01958
▁శి	-9.0228
▁మార	-9.02297
▁ఇవ్వ	-9.02314
▁విజయవాడ	-9.02424
▁తాను	-9.02557
▁జిల్లాలో	-9.02631
▁శాలలో	-9.02869
▁దేశం	-9.02965
▁హై	-9.03095
▁వార	-9.03119
రూ	-9.03154
▁ఆలయం	-9.03242
▁24	-9.03248
▁59	-9.03286
▁నాటక	-9.03444
ur	-9.03448
T	-9.03471
రంగ	-9.03548
ri	-9.036
it	-9.03613
ఫి	-9.03627
▁జీవిత	-9.03734
▁I	-9.03743
▁విశ్వవిద్యాలయం	-9.03935
▁వెళ్ళి	-9.03988
ును	-9.04042
సై	-9.04183
బ్బ	-9.04408
▁మార్చి	-9.04502
కొండ	-9.04507
11	-9.04508
▁వీర	-9.04517
▁న్యూ	-9.04663
▁ముఖ్యంగా	-9.04687
▁21	-9.04707
▁చూడ	-9.05025
పోయిన	-9.05203
▁పీ	-9.05258
v	-9.05317
ాలుగా	-9.05334
జె	-9.05546
▁సాగ	-9.05678
▁ఈనాడు	-9.05715
కుల	-9.05731
ప్పు	-9.05738
ుతారు	-9.05808
▁ఎన్నో	-9.05929
మైనది	-9.0593
▁బ్రిటిష్	-9.06017
▁చెయ్య	-9.06018
ంటు	-9.06092
O	-9.06155
ిని	-9.06203
▁ఆధారంగా	-9.06402
▁తే	-9.06419
▁రకాల	-9.06425
▁చేత	-9.0644
▁గుర్తింపు	-9.0655
▁సౌకర్యాలున్నాయి	-9.06679
ation	-9.06861
టె	-9.07356
రాయ	-9.07506
▁మట్టిరోడ్ల	-9.07533
▁పరిశోధన	-9.07565
▁నేను	-9.07582
▁జూలై	-9.07602
ించింది	-9.07654
డె	-9.07708
మునకు	-9.07721
ch	-9.07765
▁పట్టణ	-9.0786
▁సర్	-9.08125
▁ఐదు	-9.0829
పుడు	-9.08353
వ్య	-9.08465
▁హె	-9.08567
▁స్థానంలో	-9.08575
▁అధికంగా	-9.08617
వరం	-9.08644
తారు	-9.08671
భా	-9.08763
▁అలా	-9.08891
▁చేయని	-9.0901
▁నిర్	-9.09054
▁తాగునీరు	-9.09102
▁ఉండి	-9.09115
వో	-9.09202
▁పోతున్నాయి	-9.09532
పేట	-9.09772
పెట్ట	-9.09779
ుకునే	-9.0992
▁ఫి	-9.09946
▁దేశంలో	-9.09977
ly	-9.10001
ద్ర	-9.10074
తులు	-9.10117
దేవి	-9.10145
ంధ	-9.10177
టిక్	-9.10453
_	-9.10512
▁భారతదేశంలో	-9.10534
▁ఆరు	-9.1061
▁వలస	-9.10721
పతి	-9.10756
▁లేకుండా	-9.10764
ల్స్	-9.10797
లేక	-9.10864
▁సేవ	-9.10926
▁ఘన	-9.11027
వర	-9.1116
▁దానిని	-9.11166
▁22	-9.11305
▁లెక్కల	-9.11348
▁విశ్వ	-9.11539
▁పరీక్ష	-9.117
▁G	-9.11765
చె	-9.1188
చేయ	-9.11959
ణం	-9.12062
▁మంత్రి	-9.12106
ించడం	-9.12174
ుగా	-9.1219
ెను	-9.12401
థి	-9.1241
▁H	-9.12451
▁సంస్కృత	-9.12489
▁చేస్తారు	-9.12499
us	-9.12586
షా	-9.12749
ుటకు	-9.12892
ేషన్	-9.12902
▁అందులో	-9.1298
▁శాతం	-9.13092
▁ప్రక్రియ	-9.13097
▁కొనసాగ	-9.13142
”	-9.13175
▁ప్రజా	-9.13291
▁for	-9.13292
▁g	-9.13381
et	-9.13403
▁ష	-9.13419
▁సిబ్బంద	-9.13433
▁జో	-9.13517
▁విజయం	-9.13546
am	-9.13616
▁అల్	-9.13695
▁గాంధీ	-9.137
▁పర్వత	-9.13705
20	-9.13732
▁లలో	-9.13775
▁నాటి	-9.13945
క్షణ	-9.14083
రై	-9.14134
▁బొ	-9.14171
▁ఎంతో	-9.14184
పాలెం	-9.14202
▁ఉపయోగ	-9.1426
▁నిర్మాణం	-9.14344
తుల	-9.1443
▁2009	-9.14464
▁వేద	-9.14524
ుకున్నారు	-9.14524
ందని	-9.14545
జ్ఞ	-9.14708
ంగి	-9.15337
▁R	-9.1544
లేని	-9.15447
▁అవుతోంది	-9.15535
▁దశ	-9.15546
తన	-9.15695
▁23	-9.15804
▁చింత	-9.15968
▁పద	-9.15986
▁తె	-9.16006
▁స్టేషను	-9.16033
▁ఇప్పుడు	-9.16127
▁ఉత్తమ	-9.16137
ుడిగా	-9.1618
▁స్థాయి	-9.16267
▁రాయ	-9.16348
ట్స్	-9.16351
▁లాంటి	-9.16385
▁ప్రసిద్ధి	-9.16516
▁నిర్వహణ	-9.16531
un	-9.16667
▁ప్రేమ	-9.16672
▁చంప	-9.1668
ః	-9.16684
el	-9.16979
ికి	-9.16985
ునిగా	-9.17004
వరకు	-9.17041
ent	-9.17053
రవ	-9.1714
▁లను	-9.17184
12	-9.17227
▁ఏక	-9.17264
▁అల	-9.17327
కల	-9.17421
43	-9.17439
▁వలె	-9.17516
ియన్	-9.17578
▁జీ	-9.17737
రక	-9.17846
9	-9.17882
తాయి	-9.17886
19	-9.179
▁చట్ట	-9.17928
▁విధ	-9.18097
R	-9.18323
రస	-9.18335
▁యునైటెడ్	-9.18438
▁అంచనా	-9.18438
▁పూర్తిగా	-9.18572
రాజ	-9.18659
▁re	-9.18705
▁నూనె	-9.18712
ములను	-9.1872
▁వీటిలో	-9.18747
ాడని	-9.18784
▁తగ్గ	-9.18802
టింగ్	-9.18839
ఉ	-9.18932
▁కారణ	-9.18971
▁అవకాశం	-9.19007
▁మార్	-9.19034
▁నగరంలో	-9.19037
▁ఆహార	-9.19075
▁తమిళ	-9.19082
▁వేయ	-9.19098
▁అందించ	-9.19159
▁ఉపయోగిస్తారు	-9.19162
▁భా	-9.19268
జం	-9.194
యిన	-9.19421
▁చేయడానికి	-9.19587
▁కాం	-9.19641
భవ	-9.19734
▁కారణం	-9.19786
వాడ	-9.20002
▁ప్రాణ	-9.20018
ాడ	-9.20037
రిక	-9.2007
ళ్లు	-9.20085
▁L	-9.20089
▁వర్ణ	-9.20137
▁కవి	-9.20187
▁T	-9.20206
▁అర్థం	-9.20473
▁వారిని	-9.20505
▁లె	-9.20703
స్థ	-9.20997
▁ప్రయోగ	-9.21047
▁సత్య	-9.21081
▁సాంకేతిక	-9.21085
▁2007	-9.21175
ున్న	-9.21194
▁రాజా	-9.21202
▁స్త్రీల	-9.21254
ుకున్నాడు	-9.21325
50	-9.21344
)	-9.21361
▁ఐరోపా	-9.21402
సారి	-9.21452
ఢ	-9.21479
▁తీ	-9.21567
▁అత్యధిక	-9.21569
▁కం	-9.21602
30	-9.21718
లపై	-9.21748
▁ఇతని	-9.21778
▁దేశాల	-9.21966
▁న్యాయ	-9.21978
ిస్తాయి	-9.22155
▁అతిపెద్ద	-9.22196
▁రూ	-9.222
▁రచన	-9.22391
స్తు	-9.22413
▁ఇండియా	-9.22453
్యం	-9.22491
హార	-9.22702
▁స్వతంత్ర	-9.22806
▁చేసారు	-9.22825
▁రెడ్డి	-9.22842
▁తీర	-9.22979
▁నూతన	-9.23013
▁కళ	-9.23095
▁బే	-9.23146
▁2008	-9.23386
▁E	-9.23475
▁హి	-9.23659
22	-9.23663
▁సహ	-9.23739
పాల	-9.23747
▁జనవరి	-9.23771
▁ఎల్	-9.23813
ha	-9.23937
శా	-9.23945
▁h	-9.23977
▁అప్పుడు	-9.24039
▁చేర్చ	-9.2408
▁w	-9.24143
▁ధ	-9.24222
18	-9.24249
▁టా	-9.24295
▁53	-9.24329
▁ఇదే	-9.24338
▁కలిపి	-9.24399
▁శాసన	-9.24459
ఁ	-9.2447
ిస్తాడు	-9.24476
తర	-9.24552
▁l	-9.24679
నగర్	-9.24769
▁మహబూబ్	-9.24837
▁ఊ	-9.24885
|	-9.24938
▁కనిపించ	-9.2494
మీద	-9.24957
▁ప్రస్తుత	-9.24958
ందుకు	-9.25001
▁26	-9.25084
▁40	-9.2518
పోయి	-9.25327
▁సంగీతం	-9.25422
ండ్ల	-9.25443
14	-9.25451
మైంది	-9.25528
ండా	-9.25559
▁వీటిని	-9.25597
▁ఖండ	-9.25614
▁సైనిక	-9.25711
గర్	-9.25928
▁శతాబ్దం	-9.25969
▁సృష్టించ	-9.25996
నని	-9.26028
▁జాతి	-9.26154
నల్	-9.26231
్యా	-9.26236
=	-9.26292
▁2013	-9.26324
▁F	-9.26368
▁సూచించ	-9.26424
గే	-9.26493
వార	-9.26546
ుడ	-9.26595
▁శాస్త్ర	-9.26822
▁దృష్టి	-9.26864
▁భారతదేశ	-9.26881
ంగు	-9.26908
▁వేరు	-9.26981
▁సంఘ	-9.27071
▁రాజధాని	-9.27275
la	-9.27503
▁దారి	-9.27546
B	-9.27571
▁అస	-9.27573
▁అమలు	-9.27574
▁వంశ	-9.27578
▁క్ర	-9.27598
స్ట	-9.27612
▁సూర్య	-9.27621
ir	-9.27653
▁ఆంగ్ల	-9.27734
న్ని	-9.2787
ులైన	-9.27895
▁కృషి	-9.27917
▁రై	-9.28003
▁కావ	-9.28033
▁చేస్తుంది	-9.28094
ులుగా	-9.28171
ద్ధ	-9.28186
మన	-9.28236
21	-9.28244
▁ఎలా	-9.28295
బె	-9.28331
▁27	-9.28517
తాడు	-9.2856
▁ఛా	-9.28601
ంపై	-9.28618
▁వ్యాధి	-9.28767
▁జూన్	-9.28843
▁కళా	-9.28853
▁కీ	-9.29016
▁W	-9.29172
▁సిద్ధ	-9.29274
మూర్తి	-9.29387
ప్త	-9.2941
పల్లె	-9.29471
లైన	-9.29484
న్నీ	-9.2956
▁నో	-9.29613
▁నవల	-9.29801
ిస్తున్నారు	-9.29822
▁హరి	-9.29852
▁ప్రభావం	-9.29893
▁ధర	-9.29932
▁నారాయణ	-9.30002
▁U	-9.30042
▁సహజ	-9.3018
24	-9.30199
పరి	-9.30257
15	-9.303
▁కుల	-9.30497
▁ఉష్ణోగ్రత	-9.30662
as	-9.30702
▁భర్త	-9.30736
▁ఎన్నికలలో	-9.30777
ro	-9.30803
▁సంస్కృతి	-9.30841
తను	-9.30864
భాగ	-9.3102
▁కష్ట	-9.3106
▁బహు	-9.3107
ఫీ	-9.312
▁మందుల	-9.31203
రోజు	-9.31244
ol	-9.31256
చిన	-9.31335
▁28	-9.31339
▁పురాతన	-9.31415
▁వివాహం	-9.31415
▁దానికి	-9.31425
▁ఎక్స్	-9.31526
▁వేల	-9.31542
శాల	-9.31551
భాష	-9.31662
▁సంవత్సరంలో	-9.31784
▁అవార్డు	-9.31804
▁గ్రామాలు	-9.31837
▁పదం	-9.32007
పరచ	-9.32036
▁అమెరికన్	-9.32083
▁కుమార	-9.32101
13	-9.32288
▁భారతదేశం	-9.32298
▁స్థానం	-9.32317
ంలోని	-9.32366
▁స్త్రీ	-9.32416
▁పెళ్ళి	-9.32549
▁వరంగల్	-9.32644
యె	-9.32712
ూరి	-9.32753
▁పాత	-9.32789
▁శ్రీకాకుళం	-9.3281
▁శతాబ్దంలో	-9.32811
ప్పటికీ	-9.32859
▁d	-9.32873
▁k	-9.33045
పూడి	-9.33096
40	-9.33177
▁పైగా	-9.33246
23	-9.33306
▁కుమారుడు	-9.3331
▁తొలగించ	-9.33389
32	-9.33394
33	-9.33432
▁బౌద్ధ	-9.33482
▁సరిహద్దు	-9.33594
▁ఇతడు	-9.33601
▁ఇంటి	-9.3362
63	-9.33625
కర్త	-9.33659
▁సూ	-9.3376
▁గాయ	-9.33803
చేసి	-9.33887
దో	-9.33914
17	-9.33956
▁మొట్టమొదటి	-9.3417
గ్గ	-9.34186
▁జ్ఞాన	-9.34273
చన	-9.34402
▁ఆంధ్రప్రదేశ్	-9.34568
ీకరించ	-9.34591
▁ఆట	-9.34643
కై	-9.34656
▁వరకూ	-9.34667
▁మాట	-9.34677
▁తర	-9.34737
▁పూర్	-9.34775
▁as	-9.35074
బర్	-9.35086
▁రక్షణ	-9.351
మంది	-9.3511
ంపు	-9.35153
▁చూసి	-9.35274
▁కొద్ది	-9.35366
ంటారు	-9.3539
ితే	-9.35401
లూరు	-9.35468
పం	-9.35486
కారం	-9.35647
▁కౌ	-9.35648
ఒక	-9.35658
వచ్చును	-9.35678
▁చికిత్స	-9.3568
L	-9.35681
▁పరిమిత	-9.35716
డుగు	-9.35717
బుల్	-9.35724
▁పంట	-9.35729
ter	-9.35773
▁మొదట	-9.35806
▁ఉద్యోగ	-9.35867
పాద	-9.36045
▁ప్రాంతాలలో	-9.36132
▁మద్రాసు	-9.36144
మార్	-9.36276
▁భాగ	-9.36303
▁పద్య	-9.36316
▁శరీర	-9.36402
▁వీటి	-9.36414
▁రసాయన	-9.36506
▁ఆసియా	-9.36514
లక	-9.36566
16	-9.36723
▁గాలి	-9.36751
▁గాని	-9.36755
st	-9.36778
ుకోవడం	-9.3684
▁అయినప్పటికీ	-9.36999
వపేజీ	-9.37
▁సార	-9.37111
F	-9.37153
▁పర	-9.37185
లర్	-9.37226
నర్	-9.37309
▁విలువ	-9.37368
▁పొందింది	-9.37414
స్తాయి	-9.37468
▁మూడవ	-9.3749
▁నామ	-9.37564
ce	-9.37585
ఠ	-9.37587
▁టె	-9.37712
▁చేసాడు	-9.37822
ర్స్	-9.37917
టై	-9.37959
వై	-9.37987
▁చీ	-9.38115
గ్రామానికి	-9.38142
▁స్థితి	-9.38395
▁నిర్ణయించ	-9.38432
▁వస్తుంది	-9.38441
▁with	-9.38476
▁సమయ	-9.38479
▁ధన	-9.38506
▁నక్షత్ర	-9.38516
▁సంవత్సరాలు	-9.38536
▁సాధించ	-9.38673
65	-9.38683
▁టై	-9.38801
▁తయారీ	-9.3885
▁సహా	-9.38882
im	-9.38959
▁K	-9.39037
▁2006	-9.39045
క్త	-9.3906
▁కూ	-9.39083
▁అయ్య	-9.3914
▁ప్రసిద్ధ	-9.39143
▁త్రి	-9.39152
థా	-9.39213
▁ఖమ్మం	-9.39235
▁ఎంత	-9.3924
ఫా	-9.39284
▁కొందరు	-9.39292
▁నల్ల	-9.39424
దేవ	-9.39453
▁అవసరం	-9.39528
నై	-9.3953
▁ఉదాహరణ	-9.39548
ేవాడు	-9.39579
▁v	-9.39595
ముఖ	-9.39615
ర్తి	-9.39617
▁దాడి	-9.39654
▁2010	-9.39812
▁విషయం	-9.39825
▁ప్రాచీన	-9.39914
▁గ్	-9.39957
▁ఏప్రిల్	-9.40114
▁అగ్ని	-9.40221
25	-9.40344
దర	-9.40393
▁లింగ	-9.40424
చర	-9.40425
▁కార్య	-9.40478
▁క్రమ	-9.40523
త్తి	-9.40567
గ్ర	-9.40591
▁విమాన	-9.40597
లిక	-9.40664
47	-9.40724
is	-9.40729
దళ	-9.40747
ర్ల	-9.40794
▁గె	-9.40878
▁లీ	-9.40894
శ్ర	-9.4091
ంటుంది	-9.40949
▁రోజుల	-9.4097
▁ఏర్పడ	-9.4111
▁ఉద్యమ	-9.41193
▁టీ	-9.41258
▁t	-9.41287
ాది	-9.41315
▁చేస్తున్న	-9.41316
▁మహిళల	-9.41324
75	-9.41399
68	-9.41488
మత	-9.41494
▁మారింది	-9.41598
▁విడి	-9.4166
▁ఆనంద	-9.41742
▁చిత్తూరు	-9.41777
▁వివరించ	-9.41822
నాడు	-9.41882
▁కలి	-9.41886
▁వాటిలో	-9.41896
▁రోడ్డు	-9.41933
వేత్త	-9.42041
కరణ	-9.42043
▁పది	-9.42085
▁దేశాలలో	-9.42161
ుడిని	-9.42226
పొ	-9.42355
▁బ్రిటీష్	-9.42378
పక్ష	-9.42401
స్టర్	-9.42558
యన్	-9.42566
▁ఉండటం	-9.42566
చో	-9.42586
0,000	-9.42612
ుతాయి	-9.42671
సూ	-9.42682
▁ఆత్మ	-9.42723
ణా	-9.42741
గూడ	-9.42799
రికి	-9.42812
34	-9.42992
న్నది	-9.43057
▁కోల్	-9.43071
▁ముఖ	-9.43154
▁అతడి	-9.43189
H	-9.43299
60	-9.43331
కాలు	-9.4334
▁చర్య	-9.43382
న్య	-9.43482
▁బ్యా	-9.43605
▁మద్దతు	-9.43706
▁ఆది	-9.43714
డమే	-9.43744
ువు	-9.43908
▁సంస్థలు	-9.44025
▁అధ్యక్ష	-9.44034
▁గౌరవ	-9.44073
గడ	-9.44129
▁బ్రాహ్మణ	-9.44187
స్టు	-9.4422
దె	-9.44233
▁గీత	-9.44233
▁సామ్రాజ్యం	-9.44267
▁బట్టి	-9.44301
w	-9.44318
చార	-9.44371
▁ఇంత	-9.44403
▁దేవాలయ	-9.4444
రెడ్డి	-9.44551
▁ఫలితంగా	-9.44593
జో	-9.44619
మాన్	-9.44621
▁అర్	-9.44634
గొ	-9.44648
కాలం	-9.44686
▁జరిగే	-9.44716
▁భారీ	-9.4472
▁by	-9.44833
55	-9.44865
31	-9.44902
తల	-9.45055
li	-9.45104
71	-9.45191
▁జాబితా	-9.45213
▁చక్ర	-9.45235
▁అభి	-9.45257
▁ఏడు	-9.45263
▁స్టా	-9.45264
ళి	-9.45324
▁కాలువ	-9.45418
ృత	-9.45508
ర్డ్	-9.45535
▁అతడు	-9.45629
▁మొదల	-9.45661
▁అప	-9.4569
ేంద్ర	-9.45723
ుకుంది	-9.45816
▁పైన	-9.45825
ప్రైవేటు	-9.45886
x	-9.4602
▁సమావేశ	-9.46052
ల్డ్	-9.46123
▁అయింది	-9.46136
▁పొడవు	-9.46138
▁ఫల	-9.46305
▁భావించ	-9.46355
▁పరిశ్రమ	-9.46476
దం	-9.46539
▁ఫై	-9.46712
ినట్లు	-9.46773
▁రక్త	-9.46773
om	-9.46821
▁మారి	-9.46843
▁సే	-9.46976
ల్లు	-9.47033
▁కర్నూలు	-9.47084
49	-9.47101
▁సంబంధ	-9.47118
▁క్రింద	-9.47159
▁ఢిల్లీ	-9.47171
్యు	-9.47206
ఫో	-9.47229
▁పాప	-9.47232
▁వ్యతిరేకంగా	-9.4726
▁ఆల్	-9.47271
జాల	-9.473
వలసిన	-9.47335
గారు	-9.47355
▁ప్రదర్శించ	-9.47381
▁కాంతి	-9.47427
దర్	-9.47448
▁లేవు	-9.47498
▁బయట	-9.47545
▁ఫిబ్రవరి	-9.47652
కాయ	-9.47736
▁మద్య	-9.47801
పాటు	-9.4785
▁సామ్రాజ్య	-9.47914
▁ఏర్పడిన	-9.47979
▁యంత్ర	-9.48002
▁పిలుస్తారు	-9.48018
41	-9.48126
▁తొ	-9.48191
స్తే	-9.48292
▁పుట్ట	-9.48377
దల	-9.48399
▁వేరుశనగ	-9.48543
ూరులో	-9.48557
▁రూపంలో	-9.48571
▁పాలన	-9.48603
44	-9.48696
కోట	-9.48707
um	-9.4874
64	-9.4881
▁గ్రా	-9.48822
▁రూపొందించ	-9.48898
▁యె	-9.48947
▁51	-9.48981
▁నిర్వహించారు	-9.49305
85	-9.49377
▁గురు	-9.49426
శాస్త్ర	-9.49435
రియ	-9.49476
ండే	-9.49501
▁పూజ	-9.49565
01	-9.49625
▁చర్చ	-9.49628
▁బై	-9.49651
▁జీవన	-9.49809
▁చుట్టూ	-9.49854
26	-9.49927
▁ప్రదేశాల	-9.49958
గూడెం	-9.49985
▁మొక్కజొన్న	-9.50025
▁ప్రపంచంలో	-9.50094
▁గొ	-9.50177
▁తిరుగుబాటు	-9.50203
▁హిందీ	-9.5029
▁క్రీడ	-9.50297
చ్ఛ	-9.50325
▁కూడిన	-9.50397
▁52	-9.50457
గ్రా	-9.50478
భావ	-9.50591
▁చేస్తూ	-9.50609
▁నేషనల్	-9.50648
▁అర్ధ	-9.50673
▁గారు	-9.50688
▁విధానం	-9.50704
▁సైన్య	-9.50741
▁అల్ల	-9.50789
ర్ర	-9.50976
▁ప్రకాశం	-9.51009
▁విదేశీ	-9.51056
రాజ్య	-9.51113
▁స్థిర	-9.5112
▁రీ	-9.51369
▁చాల	-9.51392
ఏ	-9.51398
▁29	-9.51419
▁వెనుక	-9.51496
▁జన్మ	-9.51523
▁సమాన	-9.51765
28	-9.51854
▁సరి	-9.51971
▁విశేష	-9.51982
ండ్ర	-9.52092
చీ	-9.52093
▁de	-9.52108
వేయ	-9.52232
న్నె	-9.52253
29	-9.52323
▁వ్యతిరేక	-9.52331
▁జట్టు	-9.52356
వులు	-9.52444
▁కణ	-9.52501
ద్య	-9.52517
▁అక్షర	-9.52637
మెంట్	-9.52682
▁భవన	-9.52745
35	-9.5293
▁ట్ర	-9.52968
ునికి	-9.53048
▁అధికార	-9.53103
▁కొట్ట	-9.53109
ంబు	-9.5311
▁తెర	-9.53116
ాపురం	-9.53117
▁ప్రవేశ	-9.53121
▁జయ	-9.53166
▁శాంతి	-9.53205
62	-9.53286
వార్	-9.53406
▁గుర్తు	-9.53458
▁జన్మించాడు	-9.53482
▁2004	-9.53556
▁con	-9.53585
sh	-9.53593
భ్య	-9.53621
క్షి	-9.53651
▁రు	-9.53758
▁వర	-9.53769
టరు	-9.53789
▁తనకు	-9.53808
▁సింగ్	-9.53813
▁చేపట్ట	-9.5383
ర్య	-9.54002
▁చేయబడింది	-9.54013
చూ	-9.54022
స్టి	-9.54072
▁సంపాదించ	-9.54092
ాంగ	-9.5418
ాలయం	-9.54232
▁తిరుపతి	-9.54237
▁గర్భ	-9.54276
▁ప్రతీ	-9.54288
▁వాస్తవ	-9.54349
000	-9.54364
వలసి	-9.54429
id	-9.54429
▁ముస్లిం	-9.54542
▁లక్షల	-9.54586
నాథ	-9.54633
▁చెట్టు	-9.54685
▁గారి	-9.5471
▁పడి	-9.54725
▁బొమ్మ	-9.54805
▁ప్రవేశపెట్ట	-9.54844
▁31	-9.54886
▁ఎంపిక	-9.54973
61	-9.54983
ిగా	-9.54983
ధు	-9.5511
తూ	-9.55113
ఫె	-9.55194
డియా	-9.55243
▁అందు	-9.55249
దన	-9.55268
77	-9.55275
పుర	-9.55307
ార్ధ	-9.55356
▁అన్నాడు	-9.55363
వైపు	-9.55367
67	-9.55385
లియ	-9.55417
▁అక్టోబరు	-9.55473
▁ఆయనకు	-9.55519
▁తగ్గించ	-9.55522
ైనా	-9.5554
▁ప్రధానంగా	-9.5555
స్య	-9.55603
▁గురువు	-9.55609
▁సమస్య	-9.55655
▁నమ్మ	-9.55716
మర	-9.5575
27	-9.5586
▁వాడు	-9.55888
72	-9.55953
36	-9.55972
జ్ఞాన	-9.56001
▁సైన్యం	-9.56044
▁తెల్ల	-9.56079
▁ఇక్కడి	-9.56119
▁నిర్మించిన	-9.5613
బే	-9.56152
▁పర్వము	-9.56173
▁V	-9.5619
08	-9.56203
తోపాటు	-9.56222
▁ప్రణాళిక	-9.56291
▁రాత్రి	-9.56315
▁క్యా	-9.56328
▁పట్ల	-9.56333
▁ఫ్ర	-9.56355
▁కంప్యూటర్	-9.56362
▁ఆగస్టు	-9.56386
▁సమీపంలో	-9.56394
70	-9.56549
▁నేల	-9.56566
▁పిల్లల	-9.56595
▁కన్	-9.56639
▁ఆధార	-9.56655
▁మార్పు	-9.56668
37	-9.56688
▁ఉపగ్రహ	-9.5673
80	-9.56765
▁సంవత్సరము	-9.56782
58	-9.56796
▁మంత్ర	-9.56796
▁సాంప్రదాయ	-9.56812
▁దుర్	-9.56822
▁గృహాలు	-9.56875
▁పరిస్థితి	-9.56946
▁ఉదాహరణకు	-9.56985
కాలంలో	-9.5701
39	-9.5716
▁ఉంటే	-9.57262
▁పాటలు	-9.57365
▁వాతావరణం	-9.57519
▁పరిధిలో	-9.57583
▁మార్గ	-9.57597
▁రేడియో	-9.57681
▁గుణ	-9.57713
లిన్	-9.57715
82	-9.57747
ందున	-9.57807
వంత	-9.5783
పోయారు	-9.57884
▁కుమార్తె	-9.57895
▁తెలి	-9.57906
▁భాషా	-9.57987
పాటి	-9.57999
▁గ్రామములో	-9.58001
▁సంయుక్త	-9.58035
తె	-9.58044
▁తెలుస	-9.58239
▁వివాహ	-9.58296
▁సాంస్కృతిక	-9.58325
▁హైదరాబాద్	-9.58349
▁ఆఫ్రికా	-9.58423
హర	-9.58454
ట్రో	-9.58525
▁బాధ్యత	-9.58557
మొ	-9.58759
వల్ల	-9.58789
99	-9.58819
▁ఘ	-9.58822
ాపూర్లో	-9.58876
ాక	-9.58912
స్కో	-9.59034
▁సందర్భంగా	-9.59087
▁ఎందుకంటే	-9.59177
▁సంబంధం	-9.59265
కంగా	-9.59284
54	-9.59289
▁రాజ్యం	-9.59392
▁జొన్న	-9.59395
▁సాధన	-9.59401
42	-9.59406
▁ద్రవ	-9.59449
▁ప్రాంత	-9.59455
▁గుడి	-9.59599
ాం	-9.59666
▁35	-9.59797
ెంట్	-9.598
▁శాస్త్రం	-9.59817
స్థాయి	-9.59856
▁ప్రయాణ	-9.59889
కృత	-9.60022
▁ఆలోచన	-9.60038
▁నియమించ	-9.60071
▁యువ	-9.60101
ాయని	-9.6019
▁ఒప్పందం	-9.60258
▁లక్ష్మీ	-9.60314
▁నియోజకవర్గం	-9.60326
▁100	-9.60355
సిన	-9.60438
గతి	-9.60525
▁మార్గం	-9.60561
స్త్ర	-9.60574
▁మూస	-9.60618
▁వ్య	-9.60625
▁డై	-9.60652
▁నేర	-9.60652
▁మొక్క	-9.60676
▁on	-9.6069
మయ	-9.60833
ుంది	-9.60865
▁ప్రకృతి	-9.60868
▁క్రి	-9.6092
▁వ్యాస	-9.60943
▁ఆసక్తి	-9.60947
ta	-9.61012
▁ఇప్పటికీ	-9.6104
▁సినీ	-9.61062
ులతో	-9.61065
▁కార్యక్రమం	-9.61121
▁సూక్ష్మ	-9.61195
▁కొల	-9.61209
హో	-9.61242
▁పద్ధతి	-9.61245
▁సోమ	-9.61276
▁కాబట్టి	-9.61292
▁జగ	-9.61327
▁అతనికి	-9.61363
▁హు	-9.61373
మల	-9.61405
▁నవ	-9.61406
▁డిసెంబరు	-9.61416
°	-9.61465
▁అయి	-9.61497
▁అంగీకరించ	-9.61619
కము	-9.61621
▁శిల్ప	-9.6171
▁2014	-9.61725
▁అనుభవ	-9.61782
▁2005	-9.61929
▁రెండో	-9.61984
▁సూచి	-9.61986
చా	-9.62004
38	-9.62026
▁మాట్లాడ	-9.62029
డంలో	-9.62066
▁రాసిన	-9.62082
నాటి	-9.62083
V	-9.62113
వల	-9.62133
ాంత	-9.62139
▁చెప్పిన	-9.62158
▁దూ	-9.62163
▁కల్పించ	-9.62171
98	-9.62185
▁ఉంటారు	-9.62203
78	-9.62298
హం	-9.62329
▁కూడ	-9.62354
నొ	-9.62355
▁ఖాన్	-9.62417
డర్	-9.62509
▁స్థాయిలో	-9.6251
▁చట్టం	-9.62524
▁పండుగ	-9.62524
భేద	-9.62574
▁భౌతిక	-9.62598
▁అనుమతి	-9.62611
▁చెప్పాడు	-9.62613
▁O	-9.62632
▁కల్ప	-9.62641
▁గృహ	-9.62743
▁చదువు	-9.62748
ంతా	-9.6275
ంటాయి	-9.62784
▁an	-9.62815
▁పారి	-9.62819
69	-9.62857
ార్థ	-9.62873
ఎస్	-9.62899
▁విమర్శ	-9.6291
▁వెంటనే	-9.62952
▁that	-9.62978
83	-9.63044
బద్ధ	-9.63082
ములలో	-9.63097
07	-9.63149
స్తున్న	-9.63166
74	-9.63192
▁కరీంనగర్	-9.63257
వంతమైన	-9.6337
▁పాకిస్థాన్	-9.63384
▁భాషలో	-9.63553
▁బాల్	-9.63593
▁వర్	-9.63604
కార్	-9.63609
66	-9.63685
▁కార్యక్రమాల	-9.6371
నీయ	-9.63785
▁తిరు	-9.63794
వలన	-9.63913
84	-9.63942
▁నట	-9.63953
95	-9.63956
▁ఫె	-9.6401
▁అనంత	-9.64017
లింగ్	-9.64034
▁సెప్టెంబరు	-9.64057
▁ప్రచురించ	-9.64077
93	-9.64106
▁60	-9.64179
క్ర	-9.64223
▁డీ	-9.64223
90	-9.64224
గ్రహ	-9.64245
జే	-9.64274
▁ఉన్నది	-9.64469
▁పరిపాలన	-9.64549
▁వృక్ష	-9.6455
▁మరణ	-9.64666
81	-9.6494
ఖా	-9.64953
05	-9.65003
▁నవంబరు	-9.65025
▁పాకిస్తాన్	-9.65051
ment	-9.65078
గె	-9.65085
▁క్ల	-9.65107
▁వ్యాసం	-9.65184
03	-9.65221
▁ప్రయత్న	-9.65232
▁వెళ్ల	-9.65233
76	-9.65268
▁ద్వీప	-9.65317
▁చెక్క	-9.65317
పూ	-9.65333
▁ఎయిర్	-9.65337
▁బాధ	-9.65363
పురంలో	-9.6538
▁ఉపయోగించి	-9.65424
▁అర	-9.65432
▁కామ	-9.65439
ందో	-9.65475
96	-9.65488
కవి	-9.65545
లింగ	-9.65553
▁చివర	-9.65598
▁అర్థ	-9.65696
యూ	-9.65788
▁చక్రవర్తి	-9.65807
▁కావ్య	-9.65843
పించ	-9.65852
▁దేవాలయం	-9.65927
ేది	-9.65932
రుగు	-9.65955
▁నలుగురు	-9.65961
lo	-9.65989
కూరు	-9.66067
▁చూ	-9.66127
▁ఇప్పటి	-9.66135
▁అంతర్	-9.66151
91	-9.66167
యాన్	-9.66277
▁కాలనీ	-9.66333
జీవ	-9.66338
ల్లె	-9.66363
ాల్సి	-9.66389
▁ప్రమాద	-9.66475
▁హార్	-9.66551
శు	-9.66564
06	-9.6665
▁డిస్	-9.66682
దాన	-9.66712
▁పద్మ	-9.66714
▁లోహ	-9.66764
▁it	-9.66776
0%	-9.66778
▁చల్ల	-9.66807
▁com	-9.66808
}	-9.66814
▁స్థల	-9.66852
▁పట్టు	-9.66854
▁శైలి	-9.66862
▁చూస	-9.66924
గొట్ట	-9.66924
మయ్య	-9.66928
▁జు	-9.66934
▁అందుకు	-9.66969
ినప్పుడు	-9.66988
ుకుంటారు	-9.67002
పరిచ	-9.67032
▁2016	-9.6707
▁ఇక	-9.6724
▁సంఘటన	-9.67325
▁పత్ర	-9.67332
ష్ఠ	-9.67346
▁లై	-9.67418
87	-9.67456
ిస్తే	-9.67461
▁పుస్తక	-9.67475
▁శిక్ష	-9.67534
ందే	-9.67623
-1	-9.67692
ారెడ్డి	-9.67708
ట్రా	-9.67765
▁ప్రజలకు	-9.67803
09	-9.67815
కరమైన	-9.67848
▁వేడి	-9.67861
▁దీన్ని	-9.67885
▁సహాయ	-9.67903
▁వాయువు	-9.67907
శ్రీ	-9.67916
▁విభజించ	-9.67935
▁వ్యా	-9.67937
▁యూనియన్	-9.67974
▁నియంత్రణ	-9.67998
vi	-9.67998
▁సొ	-9.68077
92	-9.68144
▁విగ్రహ	-9.68152
▁సమయం	-9.68163
లాండ్	-9.68195
▁విప్లవ	-9.68258
▁జాన్	-9.68264
▁నిజ	-9.68289
పల్లిలోను	-9.68311
86	-9.68317
▁సభ్యులు	-9.68336
▁ప్రెస్	-9.68344
▁నియమ	-9.68358
▁విడుదలైన	-9.68363
▁అనంతపురం	-9.68404
te	-9.68451
▁కన్న	-9.68454
▁ప్రమాణ	-9.68571
రియన్	-9.68602
▁రావ	-9.68684
ma	-9.68688
ot	-9.68717
▁ప్రవేశించ	-9.68771
▁రచించిన	-9.68943
▁జై	-9.69091
▁తరచుగా	-9.69115
▁వేసవి	-9.6919
▁నమూనా	-9.69191
▁ఉన్నాడు	-9.69234
▁గ్రహ	-9.69264
▁జరుప	-9.69323
▁నిర్మించారు	-9.69466
శారు	-9.69475
దేశాల	-9.69483
▁ప్రో	-9.69493
▁అక్కడి	-9.69496
▁చెప్పవచ్చు	-9.69559
▁చేస	-9.69569
▁విషయాల	-9.69661
02	-9.69685
క్షన్	-9.69714
షియ	-9.69771
▁ప్రొ	-9.69806
పోయాడు	-9.69826
97	-9.70055
▁శంకర	-9.70085
▁స్వా	-9.70136
▁తెలుగులో	-9.70157
▁ప్రారంభించారు	-9.70157
▁నాడు	-9.70266
73	-9.70327
▁2000	-9.70434
▁మల్ల	-9.70438
మ్ము	-9.70479
▁రికార్డు	-9.70499
లక్ష్మి	-9.70501
▁ఉద్దేశ	-9.70527
▁అనుసరించి	-9.70575
▁మరి	-9.70587
▁ఉద్యమం	-9.7063
▁పుష్ప	-9.70719
▁పోషించ	-9.7072
▁విజయనగరం	-9.70781
▁రావు	-9.70808
ల్ని	-9.70826
▁వంటివి	-9.70834
హిత	-9.70853
▁పసుపు	-9.7091
▁హెచ్	-9.70937
▁విజ్ఞాన	-9.70997
శక్తి	-9.70997
57	-9.71015
విద్య	-9.71104
▁జపాన్	-9.71132
▁తెచ్చ	-9.71147
▁కలసి	-9.7121
▁చిత్రంలో	-9.71279
▁కలుప	-9.71283
▁ఫర్	-9.71311
▁గడి	-9.71332
▁మొదలు	-9.71463
▁ముందుగా	-9.71464
ినా	-9.7148
▁తక్కువగా	-9.71533
▁క్రింది	-9.71583
▁వర్ష	-9.71651
▁నై	-9.71722
▁st	-9.71753
▁మర	-9.7183
▁భావిస్తున్నారు	-9.71841
బడే	-9.71859
94	-9.71867
భి	-9.71892
తిని	-9.71907
▁నడి	-9.71938
▁ఆధారపడి	-9.71951
సిస్	-9.71972
స్సు	-9.71981
▁అభిప్రాయ	-9.71986
క్తి	-9.71987
▁పెద	-9.72048
▁వీలు	-9.72063
▁విశ్వవిద్యాలయ	-9.72106
ాచార్య	-9.72107
▁రష్యా	-9.72124
▁ప్రకటించ	-9.72158
స్తాడు	-9.72164
88	-9.7218
వతి	-9.72278
▁పుస్తకం	-9.72297
పర	-9.72299
▁నష్ట	-9.72344
▁నల్గొండ	-9.72373
పరమైన	-9.72377
89	-9.72436
▁స్వీకరించ	-9.72446
నున్న	-9.72454
యన	-9.72457
▁గ్రంథ	-9.72473
▁యోగ	-9.725
▁ఎన్నిక	-9.72606
▁కొడుకు	-9.7262
04	-9.72797
▁శాస్త్రీయ	-9.72845
▁నౌక	-9.72864
శాస్త్రం	-9.72884
త్స	-9.72948
▁ప్రయోజన	-9.73015
na	-9.73021
▁కర్ణాటక	-9.73043
▁అయినా	-9.73154
వైన	-9.73195
▁ప్రకటన	-9.73205
తుంది	-9.73283
▁స్వాతంత్ర్య	-9.73402
రాన్	-9.73415
▁ప్రాంతాలు	-9.73458
డ్డ	-9.73566
ow	-9.73572
▁రోజులు	-9.73616
▁కనిపిస్తుంది	-9.73665
hi	-9.73668
▁తయార	-9.73694
బడతాయి	-9.7372
▁భక్తులు	-9.7377
79	-9.7381
▁పవిత్ర	-9.73831
ద్దు	-9.73851
పోతుంది	-9.73853
▁జర్మనీ	-9.73916
▁వున్నవి	-9.73971
▁ఎక్కడ	-9.73986
▁మౌ	-9.7402
▁అనంతరం	-9.74066
తికి	-9.74096
▁దీనిలో	-9.74204
▁పేజీ	-9.74264
▁చెందింది	-9.74301
▁పోలీసు	-9.74313
▁దూర	-9.74341
ేరు	-9.74368
▁పిల్ల	-9.74391
▁పచ్చ	-9.74524
గానూ	-9.74534
ొక్క	-9.74537
▁పరిచయం	-9.74616
ర్యా	-9.74646
▁యుద్ధంలో	-9.74658
▁రాష్ట్రంలో	-9.74687
చర్	-9.74698
▁{	-9.74705
యోగ	-9.7486
▁కర్మ	-9.74893
▁కల్	-9.7496
రాల	-9.75054
▁సగటు	-9.7511
{	-9.75114
▁హే	-9.75144
లిక్	-9.7521
▁సమాజ	-9.75235
ించు	-9.75236
▁విష్ణు	-9.75251
45	-9.7527
▁జిల్లాకు	-9.7536
▁క్షేత్ర	-9.75451
కృతి	-9.75453
em	-9.75499
▁డే	-9.75512
వాగు	-9.7555
ంటా	-9.75586
48	-9.75607
సియా	-9.75638
ుడికి	-9.75665
▁దర్శకత్వం	-9.7567
▁దిగ	-9.75681
▁was	-9.7572
▁జీవితం	-9.75731
▁r	-9.75806
కోసం	-9.75838
▁తరగతి	-9.75896
▁అంశాల	-9.75922
వలె	-9.75923
ర్ధ	-9.75938
▁క్రైస్తవ	-9.75946
▁వ్యాసాలు	-9.76028
డము	-9.76034
ందా	-9.76043
ుకోవడానికి	-9.76062
శాస్త్రి	-9.76137
▁నిజాం	-9.76142
కంటే	-9.76155
తనం	-9.76176
▁are	-9.76225
▁pro	-9.7629
▁కూర్చ	-9.76382
▁వివర	-9.76385
▁గత	-9.76489
▁from	-9.76492
▁|	-9.76505
భాగం	-9.76537
and	-9.76583
రాయి	-9.7661
▁he	-9.76611
▁సౌ	-9.76639
బీయెస్	-9.76666
▁కథలు	-9.76682
డూ	-9.76697
▁బంగారు	-9.7672
▁అసలు	-9.76785
ుతున్నారు	-9.76809
▁బంధ	-9.76951
దిగా	-9.77009
న్నారు	-9.7701
▁సొంత	-9.77017
▁దొర	-9.77102
శ్వ	-9.77134
ాపూర్	-9.77145
▁భక్తి	-9.77166
గుణ	-9.77177
▁పురుష	-9.77196
▁స్టీ	-9.77249
▁తీసుకో	-9.77279
▁చిత్రాల	-9.77281
▁ఎమ్బీ	-9.77285
▁కాయ	-9.77344
▁మంద	-9.77353
▁at	-9.77395
జ్జ	-9.77401
▁ముక్క	-9.77424
▁ప్రాంతాల్లో	-9.77507
▁భాగంలో	-9.77519
▁32	-9.77542
▁వేస	-9.77549
▁క్రీడా	-9.77551
గారి	-9.77568
ఖ్	-9.77618
ate	-9.77626
▁సార్లు	-9.7763
▁వ్రాసిన	-9.77656
▁అధ్యయనం	-9.77674
▁పట్టణం	-9.7773
▁ఎర్ర	-9.77753
▁ప్రచారం	-9.7779
▁ఉండవచ్చు	-9.77795
స్టా	-9.77801
▁వ్రాయ	-9.77802
ప్రాంత	-9.7781
▁పాద	-9.77887
ండర్	-9.77894
ac	-9.77948
పల్లెలో	-9.7796
ve	-9.77981
వాన్	-9.78038
56	-9.78053
▁ఔ	-9.78066
ka	-9.78098
▁అడ్డ	-9.78143
▁చేతి	-9.78205
ti	-9.78259
వారికి	-9.7828
▁కోట్ల	-9.78305
▁సినిమాలో	-9.78335
▁మతం	-9.78368
పరంగా	-9.78412
▁చదివిన	-9.78439
▁జరగ	-9.7847
ాలనే	-9.78483
▁నగరాల	-9.78529
ist	-9.78557
▁తిరుమల	-9.78561
▁సిద్ధాంత	-9.78588
ాంశ	-9.78638
దేశం	-9.78652
▁నెహ్రూ	-9.7875
▁ప్రత్యక్ష	-9.78804
▁మనం	-9.78909
▁రస	-9.78964
నప్పుడు	-9.79013
▁వెలి	-9.79036
▁మగ	-9.79074
వేశ	-9.79177
▁చిత్రాలు	-9.79179
▁పోలి	-9.79273
మండల	-9.79299
▁ఉష్ణ	-9.79353
పాయ	-9.79361
▁కాకినాడ	-9.79405
చ్చు	-9.79425
▁e	-9.79541
పరు	-9.79588
పోయే	-9.7967
పట్ట	-9.79739
ru	-9.79761
▁అభ్యర్థి	-9.79854
▁mo	-9.79865
ant	-9.79902
▁దర్శన	-9.80021
శ్య	-9.80041
▁చరిత్రలో	-9.80052
యాన	-9.80152
▁వయస్సు	-9.80154
▁సోదర	-9.80159
పడి	-9.80179
ంచు	-9.802
▁వ్యక్తిగత	-9.802
నప్పటికీ	-9.8026
▁కింద	-9.80308
▁జరిప	-9.80332
▁తీసి	-9.80363
▁వైద్యశాలలో	-9.80371
ేలా	-9.80375
▁ప్రసార	-9.80456
▁అర్బన్	-9.8046
గల్	-9.80476
▁పురాణ	-9.80476
గీ	-9.80537
ive	-9.80581
ద్ది	-9.80584
▁తరువాతి	-9.80648
కొని	-9.80678
▁వుండ	-9.80687
▁అవసరమైన	-9.8073
త్రి	-9.80878
▁ట్రా	-9.80895
▁1990	-9.80984
▁మిలియన్	-9.81035
ాకార	-9.81046
▁ప్లా	-9.81102
ైతే	-9.81126
▁తేదీ	-9.81165
యము	-9.81169
▁చేయబడిన	-9.81179
▁ma	-9.81216
దార	-9.81223
నిక్	-9.81282
▁సాధ్య	-9.81323
▁వదిలి	-9.81353
▁జూ	-9.81358
ాబాద్	-9.81387
▁మల	-9.81405
▁వెల్	-9.8143
▁దో	-9.81527
▁అంతే	-9.81538
హు	-9.8154
▁పొందారు	-9.81541
▁పదవి	-9.81593
కుంట	-9.81595
శాఖ	-9.81633
రిక్	-9.81662
▁వస్త్ర	-9.81714
▁దిన	-9.81717
నూరు	-9.81718
▁పరిస్థితుల	-9.81776
▁ఇస్లాం	-9.81822
▁దృశ్య	-9.81853
▁నీవు	-9.819
చిత్ర	-9.81905
▁అభిమాన	-9.81913
ింపబడ	-9.81933
లియా	-9.81973
చేత	-9.81973
▁చర్చి	-9.82061
జన్	-9.82064
U	-9.82082
51	-9.82096
దర్శన	-9.82137
▁లభించింది	-9.82169
▁జన్మించారు	-9.82335
మయిన	-9.82417
▁రాగ	-9.82493
ాధికార	-9.82545
దానం	-9.82585
రేట్	-9.8264
ia	-9.82658
▁తోట	-9.82665
est	-9.82676
▁ఉండాలి	-9.82701
▁గే	-9.82704
▁అవుతుంది	-9.8273
వాదం	-9.82853
షు	-9.82932
▁ఆహారం	-9.83013
▁శబ్ద	-9.83024
▁మనిషి	-9.83056
సేన	-9.83095
▁ఆక్రమించ	-9.83224
▁తత్వ	-9.83226
మైనవి	-9.83246
క్కి	-9.83364
▁దిగువ	-9.8337
▁కాపాడ	-9.83411
▁ఆమ్ల	-9.83463
▁నృత్య	-9.83499
▁టో	-9.83513
▁సర్వీసు	-9.83519
▁గణ	-9.83541
ముతో	-9.83609
▁రంగంలో	-9.83647
▁జిల్లాలోని	-9.83679
▁భారత్	-9.83712
res	-9.83739
▁ఇచ్చిన	-9.83792
▁క్రో	-9.84009
▁కోరిక	-9.84013
▁ఖర్చు	-9.84018
▁భీమ	-9.84104
▁ఆస్ట్రేలియా	-9.84111
▁ప్రశ్న	-9.84231
▁పర్యాటక	-9.8426
▁కమిటీ	-9.84269
▁ప్రదేశం	-9.84272
దార్	-9.84351
▁పెరుగు	-9.84402
ొక	-9.84499
ున్నారు	-9.84503
▁దైవ	-9.8452
▁ఉండగా	-9.84537
పోవ	-9.84546
ాలయ	-9.84555
▁పరమ	-9.84593
▁ప్రవాహ	-9.84602
▁పిల్లలు	-9.84641
▁యే	-9.84642
▁సూత్ర	-9.84643
▁రిపబ్లిక్	-9.84713
▁స్కూల్	-9.84772
ంతి	-9.84855
కొన	-9.84891
▁మధ్యలో	-9.84971
▁45	-9.8499
▁జే	-9.85043
కారుడు	-9.8507
▁యి	-9.85129
▁వారిలో	-9.85137
డాన్ని	-9.85209
గత	-9.85265
▁వార్త	-9.85319
▁అడుగు	-9.85327
▁తీయ	-9.85396
▁నిర్మాత	-9.85404
ధ్వ	-9.85444
▁ఆలయంలో	-9.85486
టూ	-9.85488
46	-9.8549
▁పుట్టిన	-9.85532
చేసిన	-9.85615
▁ఉన్నా	-9.85618
ాలంటే	-9.85789
ాంతర	-9.85799
▁మీటర్ల	-9.8583
G	-9.85855
▁వ్రాస	-9.85887
▁చేరి	-9.85901
▁ప్లే	-9.85904
▁సుందర	-9.8605
ప్రా	-9.86058
▁ప్రాంతీయ	-9.86117
▁పుణ్య	-9.86248
▁సాధించింది	-9.8625
▁పరిమాణం	-9.86253
pa	-9.86262
▁అన్నది	-9.86294
▁గతంలో	-9.863
ోత్సవ	-9.86305
▁అందువలన	-9.86368
ect	-9.86396
▁కొంతమంది	-9.86419
▁వార్	-9.86424
▁ఏమి	-9.86435
బడ్డాడు	-9.8646
కృష్ణ	-9.86463
ఘా	-9.86474
53	-9.86554
▁సభ్యుల	-9.86556
▁కాల్	-9.8669
ers	-9.86706
▁రాక్షస	-9.86728
▁సాంఘిక	-9.86743
▁2017	-9.86753
▁మిలియన్ల	-9.86763
▁క్రికెట్	-9.86812
పాడులో	-9.86944
▁రొ	-9.86963
▁దర్శకుడు	-9.87018
52	-9.87018
తున్న	-9.87089
▁రచనలు	-9.87178
▁సత్	-9.87183
▁స్వర	-9.8724
దూ	-9.8725
▁ప్రయత్నించ	-9.87343
తృ	-9.87391
▁పనిచేశాడు	-9.87429
▁లాల్	-9.87453
ారం	-9.87483
▁ప్రాజెక్టు	-9.87517
▁దూరములో	-9.87558
▁నాకు	-9.87664
▁అడుగుల	-9.87666
▁పండ	-9.87673
▁స్త్రీలు	-9.87681
▁ఖా	-9.87756
▁చలనచిత్ర	-9.87879
ఈ	-9.87911
age	-9.87926
▁చంద	-9.8793
▁గంగ	-9.87955
▁అర్ధం	-9.87996
▁నీటిని	-9.88042
దారు	-9.88096
క్ష్య	-9.88104
▁విషయ	-9.88185
నాధ	-9.88215
▁ఛ	-9.88241
ay	-9.88286
▁వహించ	-9.88319
▁యాత్ర	-9.88393
ఫల	-9.88399
▁గమనించ	-9.884
రన్	-9.88453
▁అంగ	-9.88499
యల్	-9.88523
పత్తి	-9.88523
▁ప్రత్యేకంగా	-9.88545
▁ఆమెను	-9.8858
▁ముఖ్యమంత్రి	-9.88592
▁పొందాడు	-9.88595
▁మర్	-9.8875
రువు	-9.88766
▁పార్	-9.88781
▁స్వంత	-9.88792
▁వ్యవహరించ	-9.88801
▁చెబుత	-9.88846
▁ఏర్పడింది	-9.88847
▁అఫ్	-9.8885
హీ	-9.88855
▁వర్గం	-9.88881
▁ఉండేవి	-9.88909
▁పన్ను	-9.88909
▁సృష్టి	-9.88922
గడ్డ	-9.88939
▁సాగు	-9.88962
ెన్	-9.88971
▁ఓడ	-9.88983
పాత్ర	-9.88984
టంతో	-9.89
▁విష	-9.89028
ul	-9.89032
▁చెరకు	-9.89056
కట్ట	-9.8907
▁అధికారం	-9.89079
▁అంతా	-9.89089
గుంట	-9.89106
▁గణిత	-9.89115
▁కీలక	-9.89155
▁భూగర్భ	-9.89182
ానంద	-9.89246
▁ఫోర్	-9.89298
▁స్టేట్స్	-9.89302
▁అమరావతి	-9.89314
▁గుర	-9.89332
టరీ	-9.89366
▁వాయు	-9.89439
▁చేసుకున్న	-9.89444
▁మారు	-9.8951
▁కింగ్	-9.89523
కింగ్	-9.89591
▁which	-9.89611
▁కర	-9.89619
పాలెంలో	-9.89626
దారులు	-9.89659
ర్థ	-9.89691
▁ప్రాంతాన్ని	-9.89724
▁విషయంలో	-9.89725
▁ఇలాంటి	-9.89857
పడిన	-9.89867
▁వన	-9.89886
▁లకు	-9.89902
▁చెన్నై	-9.89931
di	-9.8996
▁నిర్ణయ	-9.89977
గురు	-9.90023
▁నంది	-9.90028
షణ	-9.90043
▁పూర్వం	-9.90152
▁1980	-9.90164
▁కాన్	-9.9021
వచ్చ	-9.90228
ారా	-9.90242
▁నటుడు	-9.90305
▁గౌ	-9.9031
నాయక	-9.90345
▁2012	-9.90393
▁నాయక	-9.9043
▁గంగా	-9.90431
ంద్ర	-9.90466
▁ఏరియా	-9.90495
ab	-9.90501
all	-9.90584
వేష	-9.90609
▁చారిత్రక	-9.90642
▁దీప	-9.90651
కథ	-9.90708
▁పాల్	-9.9075
▁వ్యక్త	-9.90785
▁కన్నడ	-9.90799
▁వంట	-9.90836
▁ఉందని	-9.90846
▁పురస్కారం	-9.90911
ప్రసాద	-9.9095
వడం	-9.90954
ity	-9.90982
59	-9.91003
▁బరువు	-9.91082
▁ఇతను	-9.91083
▁పర్	-9.91127
ంటూ	-9.91133
▁నిర్వహించిన	-9.91175
▁సముద్రం	-9.91295
▁కలిగించ	-9.91341
నియన్	-9.91384
చై	-9.91396
ఫర్	-9.91492
▁చలన	-9.91538
▁లండన్	-9.91549
du	-9.91567
▁ఊరి	-9.91578
▁పనిచేశారు	-9.91598
▁అధ్యక్షుడు	-9.91643
▁పల్లె	-9.91657
▁సాధించిన	-9.91812
op	-9.91875
▁భావన	-9.91976
▁చేతిలో	-9.91982
▁గూ	-9.92045
దారుల	-9.92089
పులు	-9.92113
▁పేర్లు	-9.92116
▁ప్రక్క	-9.92139
రుగ	-9.92153
▁దాన్ని	-9.92175
ండీ	-9.92218
నామ	-9.92403
▁మాన్	-9.92436
శీ	-9.9244
రల్	-9.92492
షియా	-9.92502
▁పారిశ్రామిక	-9.92503
▁గ్రామీణ	-9.92565
▁హక్కు	-9.92616
▁ప్యా	-9.92664
▁నివేదిక	-9.927
ak	-9.92838
▁కడప	-9.92869
దశ	-9.92911
▁సున్న	-9.92937
▁ప్రతిష్ఠ	-9.92953
షీ	-9.92966
▁33	-9.92998
▁ఆమెకు	-9.93024
ేష్	-9.93106
▁ఉపయోగించే	-9.93107
మార్గ	-9.93108
per	-9.93179
▁మనసు	-9.93199
ఖ్య	-9.93206
▁తదితర	-9.93213
ణ్	-9.93242
▁ఇంగ్లీషు	-9.93282
బడుతున్న	-9.93428
▁వాహన	-9.9344
ఆర్	-9.93495
▁సంబంధిత	-9.93522
▁చివరకు	-9.93536
j	-9.9355
ుకుంటున్న	-9.93591
▁80	-9.93659
▁ఫ్రెంచ్	-9.9366
▁తేడా	-9.93731
మ్స్	-9.93754
య్యారు	-9.93819
▁పరా	-9.93921
సెస్	-9.93958
▁ఇండియన్	-9.93977
ish	-9.93985
▁ఆమ్లం	-9.93995
▁ఎదురు	-9.94
▁వచ్చ	-9.94018
ఋ	-9.94036
ఐ	-9.94065
ga	-9.94068
▁పరిసర	-9.94113
▁ఆప	-9.94116
▁జైలు	-9.94122
W	-9.94132
▁పలక	-9.9427
▁కేసు	-9.9436
యింది	-9.94379
మణి	-9.94464
▁దర్శక	-9.94478
పేటలో	-9.94514
▁పదార్థం	-9.94523
ఖండ	-9.94536
▁విన	-9.94557
చ్చే	-9.94557
▁ఎవరి	-9.9457
ాల్సిన	-9.94576
బంధ	-9.94738
▁ఇరు	-9.94765
▁తగ్గి	-9.94867
వరంలో	-9.94871
▁పద్ధతుల	-9.9491
కాంత	-9.94968
ప్రభావ	-9.95029
ంటె	-9.9505
డెన్	-9.95132
▁రకాలు	-9.95152
▁దశలో	-9.95154
▁కై	-9.95171
▁తగిన	-9.95209
▁సభ్య	-9.95352
ాలపై	-9.95369
▁మామిడి	-9.95397
▁ఉద్	-9.95401
▁బర్	-9.95466
▁రథ	-9.95485
▁సమాచార	-9.95493
▁గోడ	-9.95589
▁ప్రయత్నం	-9.95594
▁కార్యకలాపాల	-9.95607
▁36	-9.95643
ాభి	-9.95648
▁దేశాలు	-9.9568
▁దక్క	-9.95681
▁అడవి	-9.95683
▁పొడి	-9.95719
బడ్డారు	-9.95724
▁మ్యాచ్	-9.95796
క్సి	-9.95868
▁వర్గ	-9.95895
oc	-9.9599
ప్రాథమిక	-9.96013
పోవడం	-9.96028
▁ఏర్పరచ	-9.96064
▁గాను	-9.96095
▁కార్యక్రమాలు	-9.96147
▁మిశ్రమ	-9.96205
▁బాణ	-9.96249
▁హత్య	-9.96264
▁తార	-9.96288
▁ప్రాధాన్యత	-9.96382
▁నరసింహ	-9.9645
నంద	-9.9645
▁ఆచార	-9.96458
బడ్డ	-9.9646
▁మార్పులు	-9.96461
▁పురస్కార	-9.96496
▁వేసి	-9.96522
మ్మి	-9.96531
య్యా	-9.96641
రొ	-9.96685
▁సోవియట్	-9.96701
▁పెడ	-9.96707
▁మట్టి	-9.96721
భారత	-9.96744
వెన్	-9.96795
ంపేట	-9.96918
▁అణు	-9.96976
▁In	-9.97022
▁జాతుల	-9.97026
▁జనరల్	-9.97038
గొండ	-9.97127
▁డో	-9.97189
న్నాడు	-9.97205
▁వరల్డ్	-9.97284
▁పనిచేస్తున్న	-9.97344
ఛ	-9.97356
▁ఎఫ్	-9.97388
చ్చిన	-9.97398
▁యజ్ఞ	-9.97406
▁°	-9.97418
▁మళ్ళీ	-9.97486
▁ఇంధన	-9.97526
▁కోర్టు	-9.97627
▁ప్రథమ	-9.9765
ించడానికి	-9.97729
▁అగ్ర	-9.97766
up	-9.97819
ుకుంటూ	-9.97869
దృ	-9.97904
ధర్మ	-9.97907
▁అందుకే	-9.97931
▁సింహ	-9.97934
▁వేంకట	-9.97966
▁వస్తువు	-9.97992
▁నిల్వ	-9.97998
▁విధాన	-9.98075
▁పెట్టి	-9.98091
▁నిజామాబాద్	-9.98095
▁సేవలు	-9.98154
రణం	-9.98227
సార	-9.98239
▁బౌ	-9.98242
ెం	-9.98248
▁రేఖ	-9.98312
pr	-9.98316
▁సామెత	-9.9842
ళ్	-9.98441
▁లక్ష్య	-9.98481
▁దేవత	-9.98485
థ్	-9.98527
▁షె	-9.98532
▁వయసు	-9.98535
▁గ్రీకు	-9.98611
▁వరుస	-9.98644
▁సేన	-9.98649
▁రౌ	-9.98667
▁జరిగాయి	-9.98708
▁అధికారిక	-9.98764
డ్స్	-9.98775
▁ఇంద్ర	-9.98807
▁నంద	-9.98831
లుగు	-9.98843
▁వాతావరణ	-9.98907
▁మనకు	-9.98908
▁2003	-9.98942
భూత	-9.98958
▁ఇష్ట	-9.99028
రుగా	-9.99056
▁ప్రవక్త	-9.99108
▁కనిపించే	-9.99148
▁నిత్య	-9.99238
ణీ	-9.99244
▁మాజీ	-9.99245
ురాలు	-9.99263
▁జానపద	-9.9929
ాత్మ	-9.99316
▁నూ	-9.99319
▁అందరి	-9.99321
ిణి	-9.99349
▁వచ్చాయి	-9.99414
▁వర్ణించ	-9.99572
▁వృద్ధి	-9.99576
▁మరణించ	-9.9959
బొ	-9.996
▁కుటుంబం	-9.99654
▁తిన	-9.99698
బల	-9.99699
▁దర్శకత్వంలో	-9.9976
▁వందల	-9.99779
తకు	-9.99869
ుకొన్న	-9.99893
క్షేత్ర	-9.99914
▁బార్	-9.9994
పాక	-9.99943
▁సారి	-9.99968
శీల	-9.99998
▁విస్తరించ	-10.0027
▁పొర	-10.003
▁అలీ	-10.0037
▁దేవి	-10.004
▁లాభ	-10.0042
వెల్	-10.0047
ుచున్న	-10.0051
▁సంస్కరణ	-10.0057
ాపురంలో	-10.0058
ుతుందని	-10.0059
ారంలో	-10.0066
▁కోప	-10.0072
▁స్నేహితు	-10.0074
▁సంస్థాన	-10.0075
▁వీరికి	-10.008
▁తీసుకుని	-10.0089
▁గోపాల	-10.0092
సింగ్	-10.0093
▁సెంటర్	-10.0094
▁ప్రతిపాదించ	-10.0095
ధ్	-10.0099
▁చదువ	-10.0104
▁తిరుగు	-10.0104
ట్లుగా	-10.0108
▁this	-10.0109
▁ఒకటిగా	-10.011
క్యూ	-10.0114
▁సుఖ	-10.0116
▁వుండును	-10.0118
▁1970	-10.013
▁కొనసాగించ	-10.0131
రియల్	-10.0136
▁పాలు	-10.014
▁అడవుల	-10.0146
ుడై	-10.015
▁క్లా	-10.0153
▁సిటీ	-10.0153
ag	-10.0157
▁రోగ	-10.0161
▁మొదలగు	-10.017
▁గోల్	-10.018
▁గుండె	-10.0181
▁పోరాట	-10.0184
▁రక్షించ	-10.0185
శం	-10.0188
▁ఇచ్చే	-10.019
▁నాట్య	-10.019
▁బహుమతి	-10.0195
▁చెప్పి	-10.0195
▁కర్ణ	-10.0195
ca	-10.0204
▁వెళ్లి	-10.0208
▁సీత	-10.0209
▁బెంగాల్	-10.0218
▁ఉంట	-10.0221
టల్	-10.0222
▁పొట్టి	-10.0228
▁వివరణ	-10.0234
▁సంపద	-10.0238
▁చర్మ	-10.0239
ుకోవచ్చు	-10.0241
ut	-10.0243
▁వెలువడ	-10.0244
▁స్థాపించ	-10.0245
▁హాస్య	-10.0247
▁ప్రారంభంలో	-10.0248
▁రాణి	-10.0252
▁నెలల	-10.0253
దగిన	-10.0259
ill	-10.0261
▁కీర్తి	-10.0264
▁పాల్గొన	-10.0265
▁పర్యావరణ	-10.0266
▁శాస్త్రవేత్త	-10.0272
సంబంధ	-10.0273
▁పనులు	-10.0276
▁సమాచారం	-10.028
▁అనుబంధ	-10.0284
▁కంది	-10.0284
▁ఎదుర్కొ	-10.0285
భూ	-10.0286
ence	-10.029
గన్	-10.029
▁సంబంధించి	-10.0295
▁సంకేత	-10.0296
▁ఇచ్చి	-10.0297
▁పాలనలో	-10.0298
▁పనిచేయ	-10.0299
▁వ్యాసాల	-10.0305
▁తమిళనాడు	-10.0306
▁వృత్త	-10.0306
సులు	-10.0307
▁మానసిక	-10.0308
జూ	-10.0309
▁పరిణామ	-10.0315
▁రోజున	-10.0316
▁లోక	-10.0318
మంత	-10.032
▁భాగాలు	-10.0331
▁తీవ్ర	-10.0336
▁ఎటువంటి	-10.0337
▁జైన	-10.0339
వేద	-10.0341
▁విద్యుత్తు	-10.0342
▁స్నాన	-10.0343
▁అమృత	-10.0349
▁తేదీన	-10.0355
▁వేదిక	-10.0355
▁దర్	-10.0356
▁సహాయం	-10.0358
he	-10.0365
▁విభాగ	-10.0377
▁కర్	-10.0379
▁వెబ్	-10.0379
▁నటించిన	-10.038
▁నటి	-10.0381
పంచ	-10.0386
▁శ్రీలంక	-10.0388
▁నెట్	-10.0392
ge	-10.0397
▁కెనడా	-10.0399
si	-10.04
▁రామాయణ	-10.0403
పోయాయి	-10.0403
▁నాలుగ	-10.0404
▁నాయకుడు	-10.0405
ింపు	-10.0409
▁దాన	-10.0409
▁li	-10.0415
▁దివ్య	-10.0417
▁కప్ప	-10.042
▁మహారాష్ట్ర	-10.042
▁ఆయా	-10.0421
ci	-10.0425
▁వేగ	-10.0426
ni	-10.0428
▁రాతి	-10.0429
▁రాస	-10.0429
మవుతుంది	-10.0431
▁వాడి	-10.0432
▁స్వేచ్ఛ	-10.0433
▁నిర్మల్	-10.0442
▁జంతువుల	-10.0442
▁ఇచ్చారు	-10.0451
▁వ్యాధుల	-10.0455
▁వెళ	-10.0461
▁అమెరికాలో	-10.0462
de	-10.0463
▁వేర్	-10.0464
▁భూభాగం	-10.0464
ధాన	-10.0464
సన	-10.0466
▁అధ్యయన	-10.0473
▁ఆధ్వర్యంలో	-10.0475
▁నటన	-10.0478
▁సరైన	-10.0482
▁హక్కుల	-10.0484
కోణ	-10.0484
▁బ్రిటన్	-10.0488
▁నేర్చ	-10.0491
▁సమస్యల	-10.0494
మణ	-10.0504
స్తుందని	-10.0506
▁మిరప	-10.051
▁పరిధిలోకి	-10.0512
మూల	-10.0513
▁ఉపాధ్యాయ	-10.0514
▁అంట	-10.0515
▁37	-10.0519
నారాయణ	-10.0521
▁విద్యార్థులు	-10.0522
దైన	-10.0522
▁తెలిసిన	-10.0525
లేఖ	-10.0526
నుంచి	-10.0527
దాయ	-10.0528
▁లోపల	-10.0534
▁మొక్కల	-10.0536
▁ఇంటర్	-10.0542
గ్గు	-10.0549
▁ఉన్నప్పటికీ	-10.0549
▁గానీ	-10.0552
lu	-10.0559
▁రకం	-10.0559
▁వచ్చారు	-10.0561
▁కార్యదర్శి	-10.0569
▁అనువాద	-10.057
▁కనుగొన	-10.0571
▁వీడియో	-10.0574
▁సంపాదక	-10.0576
▁స్కా	-10.0582
రెన్	-10.0583
▁ఉన్నట్లు	-10.0583
▁గట్టి	-10.0588
ted	-10.0589
▁నివసించ	-10.0591
▁నిలిచి	-10.0592
లెక్	-10.0594
గ్రామ	-10.0608
▁ఉత్సవ	-10.0615
విధంగా	-10.0616
▁వాడుకలో	-10.0621
▁మన్	-10.0622
ke	-10.0624
▁ఎన్న	-10.0624
▁ఎన్నికల	-10.0629
▁సాహిత్యం	-10.0632
▁డివిజన్	-10.0634
▁నిధుల	-10.0634
▁కమల	-10.0638
నాథ్	-10.0639
▁లోక్	-10.0643
▁చేయుట	-10.0647
▁మరణం	-10.0647
▁ఉండడం	-10.0649
▁పీఠ	-10.0653
▁శిలా	-10.0654
||	-10.0658
▁రాజ్యాంగ	-10.066
పైన	-10.0666
▁చూపించ	-10.0675
ఫై	-10.0681
▁హీరో	-10.0686
▁శ్రీనివాస	-10.069
ea	-10.0695
▁రుద్ర	-10.0699
▁ఉపరితల	-10.0701
ష్య	-10.0702
-2	-10.0704
▁గజ	-10.0712
▁జీవితంలో	-10.0713
▁పులి	-10.0713
▁స్వరూప	-10.0715
▁ex	-10.0722
▁ఇటువంటి	-10.0731
▁డాక్టర్	-10.0732
▁క్రమంగా	-10.0742
end	-10.075
▁కథా	-10.0752
▁నీల	-10.0753
▁దెబ్బ	-10.0756
▁ధర్మరాజు	-10.0758
▁ఆకాశ	-10.0764
▁సమ్మేళన	-10.0764
ధీ	-10.0767
▁ప్రశంస	-10.0772
▁ప్రైవేట్	-10.0776
యున్న	-10.078
▁ఎక్క	-10.0782
▁వాళ్ళ	-10.0783
▁US	-10.0797
కాశ	-10.0799
▁లీగ్	-10.0799
కారుల	-10.0807
కరించ	-10.0809
బాటు	-10.0812
ాంధ్ర	-10.0816
▁సంభవించ	-10.0818
▁పోరాడ	-10.0824
▁||	-10.0828
▁రాష్ట్రంలోని	-10.0828
▁పాత్రలు	-10.0829
మయ్యాయి	-10.0833
▁లక్షణ	-10.084
▁నేటి	-10.0843
▁ప్రాంతానికి	-10.0845
గణ	-10.0846
ప్పి	-10.0847
▁కళ్యాణ	-10.0848
▁యో	-10.0852
▁స్థానాల	-10.0853
▁విస్తృత	-10.0857
▁భావిస్తారు	-10.086
▁మండ	-10.086
▁ఎనిమిది	-10.0864
భ్ర	-10.087
▁సాయం	-10.087
▁ప్రాముఖ్యత	-10.0872
▁రాజమండ్రి	-10.0872
జయ	-10.0875
▁వైవిధ్య	-10.0884
▁గ్రంథం	-10.0886
our	-10.0887
▁మల్	-10.0889
త్రా	-10.089
▁విస్తీర్ణం	-10.0892
▁అచ్చ	-10.0895
▁లక్ష్మణ	-10.0896
▁శక్తిని	-10.0898
▁రోజుల్లో	-10.0898
▁ఆకర్షణ	-10.0899
▁బ్రి	-10.0899
bo	-10.0902
▁బయటకు	-10.0903
ధర	-10.0905
▁నదీ	-10.0916
▁విద్యార్థి	-10.0916
మూరు	-10.0921
▁మెరుగు	-10.0923
దురు	-10.0927
ములకు	-10.0934
వర్తన	-10.0935
▁దర్శించ	-10.0938
▁పేద	-10.094
▁యూరోపియన్	-10.0944
▁సెల్	-10.0948
▁తాలూకా	-10.0952
▁మిగతా	-10.0952
▁డబ్బు	-10.0956
సాయి	-10.0957
▁కాశీ	-10.0957
యస్	-10.096
▁మరణించాడు	-10.0967
▁భోజన	-10.098
▁co	-10.0983
మాల	-10.0986
da	-10.0995
ష్ణ	-10.1001
▁ఏదైనా	-10.1005
▁వస్తున్న	-10.1005
▁రాజ్	-10.1006
▁అప్ప	-10.1007
▁గుహ	-10.1016
▁శాస్త్రి	-10.1019
▁బుద్ధ	-10.1019
ుతున్నాయి	-10.102
యైన	-10.1027
▁ఆధ్యాత్మిక	-10.1029
▁నిరంతర	-10.1037
దాసు	-10.104
్యత	-10.1042
మంతా	-10.1044
▁వద్దకు	-10.1045
▁2002	-10.1048
▁లక్షణాలు	-10.1048
▁బెర్	-10.1048
▁మిత్ర	-10.1051
▁అశ్వ	-10.1053
▁అనకాపల్లి	-10.1053
లపాడు	-10.1054
▁వెలుపల	-10.1058
బూ	-10.1058
▁ఏనుగు	-10.1066
క్యు	-10.1067
▁1999	-10.1076
▁మిల్	-10.1078
▁ప్రపంచంలోని	-10.1079
▁ఒక్కొక్క	-10.108
▁పద్ధతిలో	-10.108
▁చూసిన	-10.1085
▁వాద	-10.1087
ైంది	-10.1089
▁పురుషులు	-10.1089
▁వీరిలో	-10.109
స్థల	-10.1094
▁34	-10.1094
▁ప్రి	-10.1105
▁ఆరంభ	-10.1109
▁సందర్శించ	-10.1111
▁జరుగ	-10.1111
శ్లేష	-10.1111
▁రోమన్	-10.1113
▁వెంట	-10.1122
▁శ్రీరామ	-10.1126
ండును	-10.1131
▁అందరూ	-10.1132
▁రహస్య	-10.1135
▁ఒకసారి	-10.1136
కారులు	-10.1138
▁జరుగుతున్న	-10.1141
▁ఆశ	-10.1141
ంటాడు	-10.1142
▁పండిత	-10.1146
▁వ్యక్తుల	-10.1148
పట్నం	-10.1157
ry	-10.1162
నింగ్	-10.1164
▁వేడుక	-10.1164
కళ	-10.1168
▁సంవత్సర	-10.1181
▁సెయింట్	-10.1185
ne	-10.1186
▁ఉనికి	-10.1186
గిన	-10.1196
▁అమర్చ	-10.1198
▁కారణాల	-10.1199
తంత్ర	-10.12
▁ముందుకు	-10.1201
చర్ల	-10.1202
▁దళాల	-10.1212
▁దుకాణాలు	-10.1213
▁స్వాధీనం	-10.1217
ుతాడు	-10.1218
▁ఒప్ప	-10.1227
▁అనుకూల	-10.1233
▁స్వయంగా	-10.1238
▁రాష్ట్రాల	-10.1238
బడుతున్నాయి	-10.125
▁పోరాటం	-10.1253
▁చేసుకుని	-10.1254
▁కృ	-10.1257
▁1960	-10.126
▁అష్ట	-10.1264
pe	-10.1267
భీ	-10.1269
▁సన్న	-10.1269
▁టెలివిజన్	-10.1276
▁ప్రకాశ	-10.1277
▁రామారావు	-10.1278
▁ఫ్రాన్స్	-10.128
▁అవసర	-10.1281
▁చౌ	-10.1284
ుదురు	-10.1289
▁చెరువులు	-10.129
▁ప్రతిభ	-10.129
▁పాడేరులోనూ	-10.1293
క్ట్	-10.1304
▁మంచు	-10.131
▁70	-10.131
ig	-10.1311
▁ఉన్నప్పుడు	-10.1312
▁విగ్రహం	-10.1314
▁కనబడ	-10.1317
▁ప్రోత్సహించ	-10.1318
లొ	-10.1321
▁ప్రారంభించ	-10.133
▁లభించ	-10.1337
▁కొనుగోలు	-10.1339
▁విశిష్ట	-10.1343
▁38	-10.1353
▁చెల్లించ	-10.1354
ములోని	-10.1359
▁ఉప్పు	-10.1367
ుకుంటుంది	-10.1369
▁రద్దు	-10.1372
▁తీసుకున్న	-10.1373
క్టర్	-10.1375
ear	-10.138
రింగ్	-10.138
▁ఫో	-10.1383
▁కావలసిన	-10.1383
▁me	-10.1383
▁సందేశ	-10.1385
జేయ	-10.1389
▁కత	-10.1391
▁అలాంటి	-10.1392
▁తీసుకొ	-10.1393
య్యే	-10.1393
▁బూ	-10.1398
▁తీసుకొని	-10.1401
▁దండ	-10.1404
▁not	-10.1409
▁కలుగ	-10.1412
iv	-10.1416
మిక్	-10.1417
▁ముద్ర	-10.1422
ందరి	-10.1423
▁తూర్పున	-10.1425
▁2014,	-10.1428
▁ధ్యాన	-10.1429
▁1950	-10.1431
▁సమితి	-10.1432
ోద్యమ	-10.1434
▁విభిన్న	-10.144
▁జారీ	-10.1443
▁బానిస	-10.1445
▁క్లబ్	-10.1456
ine	-10.1459
der	-10.146
▁సరస్సు	-10.1462
ధార	-10.1464
గ్రీ	-10.1466
▁విభాగం	-10.1467
▁సింగ	-10.1468
▁తీర్చ	-10.1472
▁కొత్తగా	-10.148
▁రావణ	-10.1481
▁శాశ్వత	-10.1482
▁సర	-10.1485
▁దేవతల	-10.1486
▁కేరళ	-10.1487
యుక్త	-10.1491
రాష్ట్ర	-10.1499
వాటి	-10.1499
ప్రపంచవ్యాప్తంగా	-10.15
▁2015,	-10.1501
▁మోహ	-10.1502
ess	-10.1504
బ్రా	-10.1507
▁ఇజ్రాయిల్	-10.1512
▁చెప్పారు	-10.1513
style	-10.1516
▁గూడూరు	-10.1517
ఫు	-10.1518
▁దొంగ	-10.152
డియ	-10.1521
పడింది	-10.1523
▁జవాహర్	-10.1525
▁ప్రత్యేకత	-10.1536
▁రాయి	-10.1537
స్థి	-10.154
▁విధమైన	-10.1542
▁తీవ్రమైన	-10.1552
▁సీతారామ	-10.1557
▁తాము	-10.1558
ఫే	-10.1563
ధ్ధ	-10.1564
▁వుంటుంది	-10.1564
▁వెలుగు	-10.1569
▁పుస్తకాల	-10.1579
ies	-10.1587
▁అమ్మవారి	-10.1593
క్షేప	-10.1594
▁మండలాలు	-10.1601
-20	-10.1603
▁వరుసగా	-10.1607
▁హింస	-10.1609
ప్పటి	-10.161
ిస్తున్నాయి	-10.1619
▁ప్రేక్షకుల	-10.1624
▁స్టేట్	-10.1625
▁విధించ	-10.163
▁నాటకం	-10.1642
▁సూచిస్తుంది	-10.1648
▁ప్రత్యేకమైన	-10.1658
▁కాలము	-10.166
▁2015	-10.1663
్యాల	-10.1664
ట్యూ	-10.1664
▁గురి	-10.1664
▁ఫ్రాం	-10.1665
ంచె	-10.1666
ేశ	-10.1666
▁భక్తుల	-10.1669
▁ఇటీవల	-10.167
▁హౌస్	-10.1673
రోగ	-10.1673
యోధ	-10.1675
ell	-10.17
▁సమూహాల	-10.1701
▁ప్రభ	-10.1702
▁లతో	-10.1704
▁నాయుడు	-10.1705
▁42	-10.1705
టువంటి	-10.1708
▁నటించారు	-10.1713
▁ప్రదర్శ	-10.1715
లెస్	-10.1715
▁దేశంలోని	-10.1719
▁కనీసం	-10.1721
▁అందిస్తుంది	-10.1723
▁సీజన్	-10.1726
వలస	-10.1727
▁నిండి	-10.1731
▁హాజర	-10.1732
▁ప్రభావితం	-10.1732
▁శతాబ్దాల	-10.1735
▁ఒప్పంద	-10.1736
▁పోత	-10.1738
▁రోడ్	-10.1738
▁పనిచేసే	-10.1743
రిగి	-10.1749
▁చిక్క	-10.1751
ణ్య	-10.1757
వీర	-10.1759
▁శ్రీరాములు	-10.1765
▁చాలామంది	-10.1767
లోనికి	-10.1791
ోప	-10.1795
▁చేసుకోవ	-10.1796
▁వినియోగ	-10.1797
▁జీవుల	-10.1801
▁కొనసాగింది	-10.1804
▁జర్మన్	-10.1807
▁ప్రారంభించాడు	-10.1811
చాడు	-10.1812
త్వాన్ని	-10.1813
▁పుత్ర	-10.1813
రత్న	-10.1814
▁చేస్తాయి	-10.1815
▁పేర	-10.1815
▁భాగాల	-10.1816
యొక్క	-10.1818
▁తరచూ	-10.1822
▁ముడి	-10.1826
యాత్ర	-10.1829
▁రామకృష్ణ	-10.1832
▁లక్ష్యం	-10.1835
ల్లీ	-10.1843
▁సౌకర్య	-10.1843
▁నిర	-10.1846
▁నార్	-10.1846
ద్వార	-10.185
లెట్	-10.1851
ట్రిక్	-10.1854
▁చేసుకుంట	-10.1854
బండ	-10.1856
▁చివరికి	-10.1863
▁వేగంగా	-10.1868
స్తుంటారు	-10.1875
su	-10.1878
▁నటించ	-10.1882
పేరు	-10.1882
ion	-10.1888
బోధ	-10.1889
▁మానవుల	-10.189
▁200	-10.1892
▁పైకి	-10.1893
▁విజయనగర	-10.1899
▁ఆశ్రమ	-10.1904
▁నిలువ	-10.1904
కూడా	-10.1905
▁కార్యాలయ	-10.1908
టెన్	-10.1908
▁ఆదాయం	-10.1914
శ్చ	-10.1916
▁రామచంద్ర	-10.1919
▁వయసులో	-10.1921
ార్థం	-10.1924
▁చార్	-10.1928
▁హృదయ	-10.1931
▁గ్రే	-10.1934
▁ఋణ	-10.1935
ver	-10.1936
▁సెంట్రల్	-10.1939
▁సాధించాడు	-10.1942
పూరు	-10.1947
▁భద్రత	-10.1951
ast	-10.1952
▁పునర్	-10.1963
టిల్	-10.1975
మయ్యే	-10.1976
▁పేర్కొన	-10.1977
▁తరలించ	-10.1993
▁మరల	-10.1995
▁వర్గాల	-10.1998
▁విఫల	-10.1999
▁బలమైన	-10.2003
స్థితి	-10.2005
ుకొనే	-10.2006
▁ప్రచురణ	-10.2008
▁తిమ్మ	-10.2009
యీ	-10.2011
▁పరిమాణ	-10.2022
▁కోర్	-10.2023
▁జరిగి	-10.2025
▁సంతోష	-10.2025
▁నిలిచింది	-10.2029
స్తున్నారు	-10.2036
▁సస్యరక్షణ	-10.2042
▁పరిగణించ	-10.2043
▁బెల్	-10.2045
పోతున్న	-10.205
▁బహుళ	-10.2051
ధారణ	-10.2051
▁పక్క	-10.2053
▁నాటు	-10.2055
ల్యాండ్	-10.2057
ెదరు	-10.206
▁అంతరిక్ష	-10.206
co	-10.206
ష్టి	-10.2061
▁డాలర్ల	-10.2064
▁అధి	-10.2067
▁కురు	-10.2067
▁ఉండదు	-10.2069
▁రకమైన	-10.207
▁వాటికి	-10.2077
▁వుండే	-10.2083
▁భాషలలో	-10.2086
▁మొక్కలు	-10.2087
▁ఏకైక	-10.2092
ిరెడ్డి	-10.2092
గలదు	-10.2093
▁రాజులు	-10.2093
భక్త	-10.2095
▁బ్లాక్	-10.2099
▁భక్త	-10.2101
▁కూర	-10.2104
దత్త	-10.2105
▁విష్ణువు	-10.2106
▁పెట్టారు	-10.2106
బడు	-10.2108
▁మార్గము	-10.2109
▁నీకు	-10.211
ెత్త	-10.2113
▁చేతుల	-10.2116
కాని	-10.2116
▁గ్యా	-10.2116
▁పార్లమెంటు	-10.2119
▁భుజ	-10.2121
వంతు	-10.213
▁కాలేదు	-10.2134
▁ప్రాంతము	-10.2134
స్సా	-10.2141
▁ప్రయాణం	-10.2143
5%	-10.2149
▁ఏలూరు	-10.215
▁ఉత్తరాన	-10.2153
▁అరబ్	-10.2155
▁ప్రజాదరణ	-10.2164
▁కొమ్మ	-10.2168
▁అంబ	-10.2172
తీర్థ	-10.2175
▁పాండవుల	-10.2183
▁క్రా	-10.2184
▁దేశానికి	-10.2185
హె	-10.2186
▁అంటూ	-10.2192
ంబర	-10.2201
▁ప్రాచుర్యం	-10.2201
▁అంతర్గత	-10.2202
▁విడ	-10.2202
▁శిష్య	-10.2209
▁బిల్	-10.2209
▁ప్రఖ్యాత	-10.2214
డింగ్	-10.2214
ev	-10.2217
▁నగరానికి	-10.222
▁స్వల్ప	-10.2224
▁దొ	-10.2225
▁పేర్కొన్నారు	-10.223
భై	-10.2231
మనే	-10.2233
▁విధానాల	-10.2236
స్థుల	-10.224
▁పార	-10.2241
త్తా	-10.2245
▁కొవ్వు	-10.2248
▁రూపం	-10.2248
▁నిబంధన	-10.2256
▁సరిహద్దులో	-10.2256
▁సిద్ధాంతం	-10.2257
▁సూపర్	-10.2259
▁విశాల	-10.2261
▁90	-10.2265
▁వేట	-10.2266
▁బిలియన్	-10.2272
▁పేరును	-10.2274
ap	-10.2279
▁ప్ల	-10.2279
▁సీతా	-10.2282
▁56	-10.2283
▁ఆర్ధిక	-10.2284
▁ఒక్కో	-10.2284
▁సందర్భంలో	-10.2293
▁స్వాతంత్ర్యం	-10.2296
▁ఇండో	-10.2303
▁ప్రియ	-10.2304
▁ప్రకటించింది	-10.2305
▁పొంది	-10.2308
నార్	-10.231
కేంద్ర	-10.231
భో	-10.2311
▁వచ్చాడు	-10.2312
బియా	-10.2314
▁ప్రారంభమైంది	-10.2319
▁చేసుకో	-10.2322
ర్చి	-10.2324
▁హీ	-10.233
▁వసతి	-10.233
▁హాల్	-10.2332
code	-10.2332
av	-10.234
▁షో	-10.2346
మహ	-10.2347
▁ఉద్యోగం	-10.2348
▁పరిశీలించ	-10.2349
▁1947	-10.2354
▁మించి	-10.2358
న్నింటి	-10.2362
▁నాగరికత	-10.2362
▁అభిప్రాయం	-10.2363
▁విద్యార్థుల	-10.2363
▁ఫ్రెంచి	-10.2363
▁జనతా	-10.2364
▁సమర్పించ	-10.2367
▁అంతకు	-10.2368
▁రచనల	-10.2375
వేసి	-10.2376
వర్త	-10.2381
▁కుమార్	-10.2387
▁లేదని	-10.239
▁ఉచిత	-10.2395
▁తరఫున	-10.24
▁కవిత	-10.24
▁లక్ష	-10.2402
సార్లు	-10.2403
▁విషయాలు	-10.2408
ుతోంది	-10.2413
▁కనిపిస్తాయి	-10.2416
▁పేర్ల	-10.2418
ినపుడు	-10.242
▁శతక	-10.2422
▁ఉదా	-10.2423
ous	-10.2424
▁ఫోటో	-10.2425
▁వేగం	-10.2428
▁యుగ	-10.2432
▁నిర్దిష్ట	-10.2432
▁కారు	-10.2436
▁పరిధి	-10.2436
ంగో	-10.2439
▁మద	-10.2439
▁జన్మించిన	-10.244
గోళ	-10.2441
ఘ్	-10.2451
▁చేసేందుకు	-10.2451
▁నక్షత్రం	-10.2456
▁దంపతులకు	-10.246
▁కాలువలు	-10.2461
▁జంట	-10.2462
శేష	-10.2463
ంబర్	-10.2467
▁సలహా	-10.2469
▁సమర్థ	-10.2472
▁ఎండ	-10.2474
భూమి	-10.2478
▁అధికారులు	-10.2481
జాన్	-10.2486
▁మెదక్	-10.2493
▁ద్రవ్య	-10.2497
▁లోనే	-10.2499
▁వార్షిక	-10.2503
▁మీదుగా	-10.2512
రాజ్	-10.2516
సింహ	-10.2518
▁తెచ్చి	-10.2518
్యము	-10.2521
డుతూ	-10.2523
▁బుక్	-10.2527
▁ముందే	-10.2529
▁బదులుగా	-10.2531
ee	-10.2533
వ్యవస్థ	-10.2536
▁ద్వీపం	-10.2537
▁బాబా	-10.2538
▁విభజన	-10.2539
ితమైన	-10.2541
▁ఉదయం	-10.2542
విధ	-10.2543
పోత	-10.2545
▁వినియోగించ	-10.2551
జాతి	-10.2554
▁శరీరం	-10.2555
▁రాఘవ	-10.256
▁అంశం	-10.2565
▁గృహాల	-10.2567
▁లెక్క	-10.2568
▁ప్రార్థన	-10.2575
▁భౌగోళిక	-10.2588
▁గిరిజన	-10.2588
స్టో	-10.2594
▁కావడం	-10.2598
▁టే	-10.2601
▁పార్క్	-10.2611
▁అండ	-10.2612
▁చేయాలని	-10.2612
▁శుద్ధ	-10.2613
▁సర్పంచిగా	-10.2616
తులను	-10.2619
▁వంతెన	-10.2621
వంతంగా	-10.2623
▁తెలుగుదేశం	-10.2624
▁తెనాలి	-10.2631
▁చేయు	-10.2631
▁రత్న	-10.2631
no	-10.2632
ff	-10.2633
మోద	-10.2635
▁ప్రతిపాదన	-10.264
▁చేరుకున్న	-10.2641
▁39	-10.265
య్యాయి	-10.2655
▁వివరాలు	-10.2657
లియన్	-10.2661
▁సమాధి	-10.2662
▁స్టార్	-10.2666
ud	-10.2668
▁బయలుదేర	-10.2669
చేశారు	-10.2674
▁లోపలి	-10.2674
▁వారసత్వ	-10.2679
డ్డు	-10.2685
ెయిన్	-10.2687
ువాడు	-10.2687
tu	-10.2691
▁జీవించ	-10.2693
▁అణువు	-10.2695
బాబు	-10.2696
▁ఎదుర	-10.2699
▁పెట్టుబడి	-10.2703
బెర్	-10.2706
▁తపస్సు	-10.2717
▁శ్రేణి	-10.2721
▁విశ్వాస	-10.2724
▁తెగ	-10.2726
పడ్డారు	-10.2728
▁ఫ్ల	-10.2729
ho	-10.2731
రహిత	-10.2735
▁మంగళ	-10.2737
▁పెరిగింది	-10.274
▁వాదన	-10.2747
▁ప్రతిబింబ	-10.2751
▁India	-10.2751
▁పుస్తకాలు	-10.2753
▁అనీ	-10.2766
▁విధానాన్ని	-10.2773
ండె	-10.2774
ated	-10.278
▁అనుమతించ	-10.2791
tion	-10.2791
వద్ద	-10.2792
-19	-10.2796
▁ch	-10.2797
▁స్థాపించారు	-10.2797
▁ప్రకారము	-10.2799
▁1991	-10.2801
▁రావడం	-10.2803
▁శ్రీకృష్ణ	-10.2809
▁మహర్షి	-10.2809
▁ప్రసాద్	-10.2809
▁ఆచార్య	-10.2813
▁వేయుట	-10.2816
శో	-10.2818
▁ధరించ	-10.2818
▁బంగార	-10.2818
▁అప్పటికే	-10.2822
▁కొంతకాలం	-10.2824
▁సుర	-10.2824
ాలన్న	-10.2825
▁తప్పు	-10.2826
చేసే	-10.2826
▁కంప	-10.283
▁చేరాడు	-10.2831
▁మంచిర్యాల	-10.2833
▁అనుసరించ	-10.2835
od	-10.2836
ోపనిషత్తు	-10.2838
▁అతనిని	-10.2838
▁కొల్ల	-10.284
ద్వారా	-10.2842
▁పదార్థాల	-10.2842
://	-10.2843
కుమార	-10.2845
▁ఏదో	-10.2846
▁పాలి	-10.2853
▁రాజుల	-10.2854
వల్లి	-10.2855
▁చేయబడ్డాయి	-10.2855
▁కలప	-10.286
▁ప్రారంభించింది	-10.2861
▁కాలేజీ	-10.2862
▁బిరుదు	-10.2863
▁రూపకల్పన	-10.2867
▁అదనంగా	-10.2867
▁అక్క	-10.2875
os	-10.288
▁సమాజం	-10.288
ోంది	-10.2881
▁అకాడమీ	-10.2887
▁స్థావర	-10.2887
▁బృంద	-10.2891
వర్ణ	-10.2893
కూర్	-10.2894
డై	-10.2895
ఓ	-10.2896
▁సత్యనారాయణ	-10.2903
▁ఉపయోగపడ	-10.2905
▁బ్యాంక్	-10.2907
▁విషయాన్ని	-10.2907
హే	-10.291
▁గార్	-10.2916
▁తెలుస్తుంది	-10.2916
▁రూపాయల	-10.2928
▁ప్రే	-10.293
ందరూ	-10.293
▁పదాల	-10.2942
ya	-10.2951
▁సమాఖ్య	-10.2956
▁బాబు	-10.2958
రాత్రి	-10.2958
ానికీ	-10.2973
▁ప్రాంతాలకు	-10.2975
▁నెలకొల్ప	-10.298
▁రంగం	-10.2981
▁సూచన	-10.2983
▁దేశీయ	-10.2989
▁అధికారి	-10.299
పణ	-10.2993
▁44	-10.2994
▁మహిళా	-10.3004
▁వ్యాప్తి	-10.3005
సంపన్న	-10.3007
▁అటు	-10.3009
▁హోదా	-10.3011
▁ఇచ్చ	-10.3012
బర్గ్	-10.3014
▁తీవ్రంగా	-10.3014
పరిషత్	-10.3016
▁మరణించారు	-10.3018
లియో	-10.3018
▁డ్ర	-10.3019
sa	-10.3019
ల్యూ	-10.3021
▁వో	-10.3022
▁మాదిరిగా	-10.3025
able	-10.3026
▁విశేషం	-10.3029
ొచ్చు	-10.3032
జ్యోతి	-10.3035
ముందు	-10.3036
▁ఫీ	-10.3044
▁ఎమ్	-10.3044
▁సాహితీ	-10.3045
▁వేసిన	-10.3045
ుచు	-10.3046
▁పెరుగుదల	-10.3047
పొంద	-10.3048
▁వ్యాపారం	-10.305
▁పొగాకు	-10.3051
▁పనుల	-10.3053
▁గెలుపొంద	-10.3055
▁వేర్వేరు	-10.3055
▁తెలంగాణా	-10.3056
▁బట్ట	-10.3057
▁ఎకరాల	-10.306
▁పదార్థ	-10.3065
▁ఆగ్నేయ	-10.3065
▁దీంతో	-10.3071
బై	-10.3072
వర్మ	-10.3073
▁జన్యు	-10.3079
▁అంక	-10.308
▁వదల	-10.3084
▁క్రమంలో	-10.3085
▁కొన్నిసార్లు	-10.3086
▁ప్రజలను	-10.3089
▁స్వామివారి	-10.3091
▁బలహీన	-10.3095
▁అత్యధికంగా	-10.31
కొన్న	-10.31
సేవ	-10.3102
▁ఎల్ల	-10.3104
▁వరద	-10.3104
▁ఒత్తిడి	-10.3105
▁లక్షణాల	-10.3107
▁ఇంట్లో	-10.3108
ep	-10.3109
▁లూ	-10.3111
▁తీసిన	-10.3112
▁కుడి	-10.3116
▁అన్నీ	-10.3117
ిందని	-10.3119
▁ఎరువులు	-10.312
▁యుగం	-10.312
▁టెక్	-10.3124
other	-10.3124
▁మళ్లీ	-10.313
▁పదవీ	-10.313
కూడ	-10.3133
▁క్రితం	-10.3138
▁దాడుల	-10.3138
▁పాలించ	-10.314
కపోవడం	-10.3147
ew	-10.3147
మధ్య	-10.3147
▁చేసుకున్నారు	-10.3149
పుత్ర	-10.315
▁సంబంధాలు	-10.3151
▁వాల్	-10.3153
కపోతే	-10.3154
పేట్	-10.3159
దొ	-10.3169
▁అడిగ	-10.3169
▁అరణ్య	-10.3171
▁దూరంగా	-10.3175
▁మంట	-10.3176
mp	-10.3177
▁వడ్డ	-10.3178
ారావు	-10.3189
▁ముద్ద	-10.319
▁ప్రామాణిక	-10.3195
▁చేరు	-10.3197
▁తాత	-10.32
స్పష్ట	-10.3202
▁కార్బన్	-10.3202
మెంటు	-10.3203
▁కెమెరా	-10.3205
డ్యూ	-10.3205
▁పట్టా	-10.321
▁పాశ్చాత్య	-10.321
▁పోర్ట్	-10.3211
▁లోయ	-10.3212
జై	-10.322
▁విద్యను	-10.3222
పాత	-10.3223
▁ఉదయ	-10.3227
మాంస	-10.3237
▁వుంట	-10.3237
▁నడుప	-10.3243
▁his	-10.3244
▁పాటల	-10.3244
త్యం	-10.3245
ari	-10.3246
▁తను	-10.3246
▁కొబ్బరి	-10.3251
▁పులుల	-10.3253
▁షి	-10.3255
వాడి	-10.3256
ide	-10.3257
▁నిద్ర	-10.3258
▁తాగునీటి	-10.3261
▁తద్వారా	-10.3261
య్యింది	-10.3264
▁ఎత్తైన	-10.3266
display	-10.3271
▁వహించిన	-10.3271
▁విశాఖపట్నంలోను	-10.3276
▁స్వభావ	-10.328
▁చెందినది	-10.3284
▁దాంతో	-10.3287
▁పెరగ	-10.3292
చెర్ల	-10.3294
▁ఘట	-10.3297
▁ద్వి	-10.3299
▁వీధి	-10.3302
▁బాధ్యతలు	-10.3305
ాయన	-10.3308
▁కప్	-10.331
▁హైదరాబాదులో	-10.3313
▁షిప్	-10.3321
▁రాజవంశ	-10.3325
▁తరు	-10.3325
టెక్	-10.3329
▁దేశము	-10.333
▁ముంబై	-10.3332
చరిత్ర	-10.3335
▁ఇంటర్నేషనల్	-10.3337
పట్ల	-10.334
▁మేరకు	-10.3344
▁భవనం	-10.3347
▁మార్గంలో	-10.3353
▁స్థాపించబడింది	-10.3358
బాల్	-10.3361
ఉన్న	-10.3362
▁భాషలు	-10.3365
▁పిలువబడ	-10.3365
ాచల	-10.3366
▁ప్రచార	-10.3367
▁చుట్ట	-10.337
▁చర్యలు	-10.3371
▁గుర్త	-10.3372
▁మాట్లాడే	-10.3373
మూస	-10.3375
▁సైతం	-10.3379
▁సిద్ద	-10.338
rit	-10.3385
▁భారతదేశంలోని	-10.3388
▁సముదాయ	-10.3389
▁ఫుట్	-10.3395
▁వికారాబాద్	-10.3399
▁సంయోగ	-10.3402
ధో	-10.3405
▁వనరులు	-10.341
▁ప్రసంగ	-10.3411
▁లిం	-10.3417
▁కదా	-10.3423
▁కనిపిస్త	-10.3426
బ్రహ్మ	-10.3432
▁వస్తువుల	-10.3441
▁చనిపో	-10.3443
ాద్రి	-10.3443
శయ	-10.3444
▁సమస్యలు	-10.3445
▁గ్రంథాల	-10.345
ములతో	-10.3455
నూర్	-10.3456
▁స్థానాన్ని	-10.3457
▁సంతానం	-10.3459
▁అమర	-10.3463
▁Ma	-10.3466
వరకూ	-10.3466
▁ప్రయాణించ	-10.3467
ానిక	-10.3475
▁గవర్నర్	-10.3476
▁1998	-10.3479
▁నైట్	-10.3486
▁అటువంటి	-10.3488
▁మ్యా	-10.3488
▁తొమ్మిది	-10.3492
▁ఊర	-10.3494
ూర్లో	-10.3496
▁నవాబు	-10.3498
▁వనపర్తి	-10.3498
▁j	-10.3502
▁బహ	-10.3516
▁నమ్మకం	-10.3525
ేతర	-10.3525
▁ప్రమాదం	-10.3525
లన్నీ	-10.3527
▁చెట్ల	-10.3528
▁నేత	-10.3536
▁48	-10.3537
శోధ	-10.3538
▁అద్భుత	-10.3538
సిద్ధ	-10.3538
▁యూనివర్సిటీ	-10.3539
▁వాడుక	-10.3539
fe	-10.3547
ong	-10.3553
▁గురించిన	-10.3556
ృష్ట	-10.3558
▁41	-10.356
▁ఇచ్చింది	-10.356
▁సంవత్సరానికి	-10.3567
▁సన్	-10.3567
▁చేసుకొ	-10.3569
▁బోధన	-10.3569
▁పురపాలక	-10.3576
▁చేసుకున్నాడు	-10.358
▁http	-10.3586
▁వహించాడు	-10.3589
▁శేష	-10.3595
▁వేరే	-10.3595
▁సన్యాస	-10.3597
▁జాగ్రత్త	-10.3597
ుచున్నది	-10.3598
▁అర్జునుడు	-10.3598
▁స్పెయిన్	-10.3602
▁గది	-10.3603
▁మందు	-10.3606
స్తంభ	-10.3615
▁దాటి	-10.3617
▁చోటు	-10.3621
▁వ్ర	-10.3623
▁బోస్	-10.3623
య్యాడు	-10.3623
▁ధ్రువ	-10.3623
▁శివుడు	-10.3624
▁స్థిరపడ	-10.3632
పడ్డాడు	-10.3633
▁చేయవచ్చు	-10.3635
▁బాల్య	-10.3637
▁టెక్నాలజీ	-10.3639
va	-10.3648
▁రుచి	-10.3652
చంద్ర	-10.3656
▁క్రీస్తు	-10.3665
టార్	-10.3673
పత్ర	-10.3675
చిత	-10.3675
లేదని	-10.3678
వంశ	-10.3683
▁ఎలాంటి	-10.3689
▁నేర్ప	-10.3698
▁శుభ	-10.37
▁నటించాడు	-10.3704
▁సమూహం	-10.3705
ునకు	-10.3705
▁మరణించిన	-10.3709
స్తున్నాయి	-10.3715
ఎం	-10.3717
▁చోట	-10.3718
pi	-10.3719
▁మోస	-10.3725
▁కారక	-10.3726
▁చెన్న	-10.3727
▁Ch	-10.3731
▁ట్రి	-10.3732
▁క్రియ	-10.3738
▁ట్యా	-10.3739
ోత్సవం	-10.374
▁మెంట్	-10.3743
▁కుటుంబంలో	-10.3747
▁బిడ్డ	-10.3753
▁పాత్రను	-10.3754
చింది	-10.3755
▁రైతు	-10.3757
ind	-10.376
▁నన్ను	-10.376
▁రచించ	-10.3761
▁బోధించ	-10.3766
▁పరిపాలించ	-10.3767
టివ్	-10.3773
▁సినిమాల్లో	-10.3783
▁ఆమోదించ	-10.3788
▁కటక	-10.3789
▁కార్డు	-10.3792
▁పనిచేసి	-10.3794
▁అర్జున	-10.3797
▁ముగింపు	-10.3799
▁సమాధాన	-10.3799
▁చైతన్య	-10.3804
▁బోర్డు	-10.3804
ప్రదేశ	-10.3813
డైన	-10.3815
ాదుల	-10.3815
▁అయ్యింది	-10.3817
▁ఆశ్చర్య	-10.382
▁500	-10.382
▁భాగస్వామ్య	-10.382
చ్చారు	-10.3823
భద్ర	-10.3826
తీయ	-10.3827
నెల్	-10.3827
▁గుర్తించారు	-10.3831
▁1996	-10.3839
▁మాటలు	-10.384
కన్నా	-10.3841
▁46	-10.385
▁వెస్ట్	-10.3853
▁ఇంటికి	-10.3861
▁వజ్ర	-10.3864
లేరు	-10.3869
▁జరుగు	-10.3869
▁వెండి	-10.3869
బ్ర	-10.3872
▁వ్యూహ	-10.3874
▁చిత్రీకరించ	-10.3876
ింపబడిన	-10.3878
▁పక్షుల	-10.3879
▁ఆస్తి	-10.3882
▁మణి	-10.3883
▁1930	-10.3889
ఠా	-10.3904
▁పెరిగి	-10.3905
pos	-10.3906
▁ఏళ్ల	-10.3912
▁భయం	-10.3912
▁ఇచ్చాడు	-10.3914
ాల్ని	-10.3915
▁సందర్భ	-10.3918
tor	-10.3918
స్తాన్	-10.392
▁ఖనిజ	-10.3921
▁ప్రవేశించి	-10.3921
▁క్రొత్త	-10.3923
▁చిత్త	-10.3923
▁గౌతమ	-10.3926
▁దేవుడు	-10.3927
ip	-10.393
ెన	-10.3933
▁కాలి	-10.3937
▁పల్ల	-10.394
▁గొల్ల	-10.3944
▁నాయకులు	-10.3946
ందర్	-10.3946
int	-10.3947
▁పూజలు	-10.3948
▁మహాభారత	-10.3949
▁వంతు	-10.3954
▁వెంకటేశ్వర	-10.3959
చర్య	-10.3961
ప్పటికి	-10.3969
▁కుటుంబానికి	-10.3971
▁లిపి	-10.3972
▁అమ్మాయి	-10.3973
▁రూపొంద	-10.3975
▁జత	-10.3975
▁రెండూ	-10.3976
▁పూర్ణ	-10.3976
ical	-10.3977
▁మనుషుల	-10.3983
▁సంకలన	-10.3983
ight	-10.3984
▁అనువదించ	-10.3988
▁జాతులు	-10.3989
▁ఫిలిం	-10.399
పురి	-10.3993
ట్లయితే	-10.3999
▁అంతేకాక	-10.3999
ొచ్చ	-10.3999
▁చేయించ	-10.3999
కెట్	-10.4001
▁di	-10.4004
ప్రె	-10.4012
▁సమాచారాన్ని	-10.4014
▁విస్తృతంగా	-10.4019
▁ప్రాతినిధ్యం	-10.4021
▁బ్రిటిషు	-10.4021
టాన్	-10.4022
▁డ్రై	-10.4026
han	-10.4027
▁పరంగా	-10.403
▁బదిలీ	-10.4032
▁ఉందిసమీప	-10.4039
}}	-10.405
▁తెలుసు	-10.4052
వచ్చని	-10.4053
▁స్వర్ణ	-10.4055
సమూహ	-10.4058
▁ఆకర్ష	-10.4058
▁వినియోగదారు	-10.4066
కార్య	-10.4066
▁do	-10.4067
ang	-10.4071
▁వెల	-10.4071
▁నియంత్రించ	-10.4072
▁ఆధారాలు	-10.4081
▁పాము	-10.4086
▁బోధ	-10.4087
▁టౌన్	-10.4087
సంస్థ	-10.409
రాదు	-10.4091
▁ప్రయత్నాలు	-10.4091
యిల్	-10.4093
▁నేపథ్య	-10.4099
▁డచ్	-10.41
▁వాళ్ళు	-10.41
▁పరచ	-10.4102
ath	-10.4104
▁అయ్యాడు	-10.4121
▁వాడే	-10.413
▁ఒకదాని	-10.4134
దేవత	-10.4135
ఫార్మ	-10.4143
దేవుడు	-10.4144
▁కొన	-10.4144
sion	-10.4148
▁చెల్ల	-10.4155
▁ఆధారిత	-10.4163
లాంటి	-10.4172
▁జంక్షన్	-10.4176
▁అవతరించ	-10.4177
థర్	-10.4177
ఒ	-10.4179
▁వైశాల్యం	-10.4184
చారి	-10.4184
▁విలీనం	-10.4187
▁బలవంత	-10.4188
రాశి	-10.419
▁భద్ర	-10.4192
▁రాజధానిగా	-10.4192
▁ఆచరించ	-10.4192
▁పరిధిలోని	-10.4195
▁అంశ	-10.4196
కాండ	-10.4197
మున్న	-10.4197
నిష్	-10.4198
▁స్థలం	-10.4198
▁అనకాపల్లిలోను	-10.4198
ిస్తుంటారు	-10.4199
▁దాకా	-10.42
▁అయ్యాయి	-10.4203
▁ప్రారంభం	-10.4204
▁క్లో	-10.4204
టెడ్	-10.4216
తొ	-10.4217
▁మూసి	-10.4217
▁గోవింద	-10.4221
out	-10.4225
bl	-10.4225
ph	-10.4226
▁ప్రవేశం	-10.4228
▁ప్రవహించ	-10.4232
▁సుబ్బ	-10.4235
▁సామర్థ్యం	-10.4236
▁విశ్వాసం	-10.4236
ఉంది	-10.4237
జిల్	-10.4242
▁బలి	-10.4243
▁అక్కడే	-10.4246
▁నార్వే	-10.4253
▁న్యూయార్క్	-10.4254
▁వైద్యుడు	-10.4258
▁నటించింది	-10.4263
▁సంతాన	-10.4266
▁కొరియా	-10.4269
▁అధికారికంగా	-10.4272
▁దగ్గరగా	-10.4278
ుకోవాలి	-10.4281
రైడ్	-10.4283
ంగళ	-10.4285
▁పనిచేసిన	-10.4285
-3	-10.429
▁నాయకుల	-10.43
మంత్ర	-10.4301
▁భాగము	-10.4308
▁పదాలు	-10.4314
▁వ్యక్తులు	-10.4318
నైనా	-10.433
▁అభ్యసించ	-10.4333
▁సౌకర్యాలేమ	-10.4333
▁నృత్యం	-10.4337
▁భిన్న	-10.4338
మిష	-10.434
▁రంగస్థల	-10.434
▁నిలబడ	-10.4341
రంగంలో	-10.4344
▁హిమ	-10.4347
▁ఈశాన్య	-10.435
▁వెళ్ళే	-10.4351
▁వాడతారు	-10.4353
▁ఉత్పత్తుల	-10.4355
▁ఫ్లో	-10.4355
బన్	-10.436
▁ఆకుల	-10.436
▁గద్వాల	-10.4361
తుండ	-10.4362
▁టన్నుల	-10.4363
జింగ్	-10.4366
▁ఆయుధ	-10.4372
▁అంతటా	-10.4381
▁నిజానికి	-10.4384
▁వెన్న	-10.4385
▁భయ	-10.4388
పత్రిక	-10.4389
ాభివృద్ధి	-10.439
స్తుల	-10.4392
▁గమన	-10.4394
▁కాలానికి	-10.4395
▁ఎవర	-10.4396
▁సాహిత్యంలో	-10.4398
▁వైద్యులు	-10.4399
▁అవగాహన	-10.4401
▁రెండింటి	-10.4401
one	-10.4404
▁రష్యన్	-10.4407
▁చదివి	-10.4415
సాగర్	-10.4421
▁రాగి	-10.4422
▁వెళ్ళాడు	-10.4424
▁చోళ	-10.4429
▁గోధుమ	-10.443
▁భారతదేశానికి	-10.4432
▁పాలనా	-10.4434
ుడయ్యాడు	-10.4434
▁అవతార	-10.4446
▁చదరపు	-10.4447
▁రసాయనిక	-10.4449
పోవటం	-10.445
▁కలగ	-10.4452
ాహార	-10.4458
▁ఉద్భవించ	-10.4458
▁చదవ	-10.4464
▁భావించి	-10.4467
▁వర్క్	-10.4468
▁తొలగి	-10.4469
▁మాల్	-10.4471
▁ప్రస్తావించ	-10.4475
▁కనుగొన్న	-10.4479
▁బోరుబావులు	-10.448
▁1994	-10.4483
▁జాబితాలో	-10.4483
▁సేవలను	-10.4495
శివ	-10.4497
వ్యాప్త	-10.4498
▁పర్యటన	-10.4498
▁అన్నారు	-10.4503
▁విన్న	-10.4504
▁మోక్ష	-10.4504
ానని	-10.4506
ీశ్వర	-10.4508
ధాన్య	-10.4509
▁కూతురు	-10.4509
▁రఘు	-10.451
నీటి	-10.4515
▁తిరస్కరించ	-10.4516
▁పలువురు	-10.4516
▁సర్వే	-10.4517
ానికే	-10.4527
వ్రత	-10.4528
▁సమర్ధ	-10.453
నగర	-10.453
ంఛ	-10.4534
▁వినియోగదారుల	-10.4535
▁జిల్లాలలో	-10.4538
▁దీక్ష	-10.4538
ేశ్వరరావు	-10.4539
▁సేవల	-10.454
▁పోల్చ	-10.4543
వర్తి	-10.4545
▁నిర్మ	-10.4546
▁రేటు	-10.4547
▁ఉంటాడు	-10.4552
బాయి	-10.4552
▁సంస్కృతం	-10.4561
▁కౌన్సిల్	-10.4562
▁ఖాళీ	-10.4562
గలిగే	-10.4564
▁చిత్రానికి	-10.4572
▁అనుగుణంగా	-10.4573
▁తదుపరి	-10.4573
▁పరిశోధనలు	-10.4578
▁చెబుతారు	-10.4582
▁ప్రధానమంత్రి	-10.4585
▁దేశంగా	-10.4586
▁చిత్రాలలో	-10.4588
▁జోన్	-10.4592
▁సమీపంలోని	-10.4596
తాయని	-10.46
వెళ్ళ	-10.4601
▁ఇంగ్లాండ్	-10.4602
▁పండు	-10.4605
▁ప్రకటించారు	-10.4607
▁అందువల్ల	-10.461
▁స్వర్గ	-10.4612
▁ఎప్పుడూ	-10.4612
▁చూస్తే	-10.4613
▁నర్స	-10.4614
▁అదనపు	-10.4614
▁జీవితాన్ని	-10.4617
భాగంలో	-10.4617
▁మన్న	-10.4622
▁తెలిసి	-10.4622
ture	-10.4622
ాలైన	-10.4623
ళీ	-10.4624
▁మహాసముద్ర	-10.4626
▁సాధించి	-10.4629
ec	-10.4635
యుద్ధ	-10.4646
▁వినోద	-10.4647
▁విమానాశ్రయం	-10.4647
▁మందికి	-10.4648
▁సీనియర్	-10.4655
▁చేరిన	-10.4657
▁ప్రవర్తన	-10.4657
ుకుంటాడు	-10.4657
▁An	-10.4659
▁pl	-10.4659
▁కాళ	-10.466
▁భూమిని	-10.4663
▁మూలంగా	-10.4666
▁చేతిపంపులు	-10.4669
▁రవి	-10.4673
▁నిర్మాణానికి	-10.4674
మెన్	-10.4677
▁వంద	-10.4678
మింగ్	-10.4679
ty	-10.4683
▁సకల	-10.4688
▁ఆందోళన	-10.469
▁తాత్కాలిక	-10.4696
▁దేశాల్లో	-10.4713
▁చూడండి	-10.4713
district	-10.4713
▁దుర్గ	-10.4716
▁అప్పట్లో	-10.472
▁చేస్తే	-10.472
▁po	-10.4721
▁అక్షరాస్యత	-10.4725
▁1989	-10.4727
▁చేయటం	-10.4732
▁బొగ్గు	-10.4733
▁బీజ	-10.4733
▁పువ్వు	-10.4734
▁తప్పించ	-10.4739
▁పశువుల	-10.474
▁నాయకత్వంలో	-10.4742
art	-10.4747
▁యస్	-10.475
వృత్తి	-10.4751
▁ఊహించ	-10.4752
▁తీగ	-10.4755
▁సేకరణ	-10.4763
▁చొ	-10.4769
▁one	-10.4771
▁శతాబ్ది	-10.4773
▁ఆకర్షించ	-10.4775
▁ఉంటుందని	-10.4775
▁సాఫ్ట్	-10.4776
▁ఉండేవారు	-10.4778
ary	-10.4781
▁1948	-10.4786
▁తరలి	-10.4788
కల్ప	-10.479
▁స్పానిష్	-10.479
▁ఆర్య	-10.4791
▁పేర్కొన్నాడు	-10.4795
▁సప్త	-10.4795
▁దీర్ఘకాల	-10.4795
మహా	-10.4798
▁1997	-10.4798
▁నిర్దేశ	-10.4802
▁సందర్భాలలో	-10.4802
▁విభాగంలో	-10.4806
▁ఎడ్	-10.4809
▁ఈశ్వర	-10.4811
టికీ	-10.4814
▁has	-10.4816
▁జంతు	-10.4821
▁కొడ	-10.4823
▁వైష్ణవ	-10.4826
▁చెప్పే	-10.483
బ్రి	-10.483
ాంతం	-10.4835
▁దేహ	-10.4839
▁గోప	-10.484
▁సమాజంలో	-10.484
▁తూ	-10.4842
▁భువనగిరి	-10.4844
▁పనిచేస్తుంది	-10.4844
డియో	-10.4846
▁మాయ	-10.4847
▁ఆదాయ	-10.4847
▁భాగవత	-10.4848
▁సుబ్రహ్మణ్య	-10.485
▁చేపల	-10.4853
▁ఇసుక	-10.4856
▁దీర్ఘ	-10.4857
▁అంకిత	-10.486
▁బాధపడ	-10.4864
▁మిగిలి	-10.4864
▁కంటి	-10.4866
▁కఠిన	-10.4868
▁కంద	-10.4869
క్రియ	-10.4869
▁అందించారు	-10.4872
మోహన	-10.4877
▁మాతృ	-10.488
act	-10.4882
▁చేసుకొని	-10.489
▁పాలకుల	-10.4894
▁అంశాలు	-10.4896
▁పిలవ	-10.4896
▁చెంది	-10.4896
▁ఒకప్పుడు	-10.4897
▁నాశనం	-10.4897
▁ఇందు	-10.4898
▁గ్రేట్	-10.4903
▁కమ్మ	-10.4903
▁పదాన్ని	-10.4905
▁ప్రారంభమైన	-10.4909
▁పట్టిక	-10.4911
ue	-10.4915
▁పంటలు	-10.4915
▁లోతు	-10.4916
పేట్లో	-10.4918
▁తేలిక	-10.4925
▁విస్తరణ	-10.4927
▁అంటు	-10.4932
▁నిపుణ	-10.4932
▁ఫ్రీ	-10.4933
▁ఎడమ	-10.4938
▁విధానంలో	-10.4938
▁విచారణ	-10.4939
▁దాదాపుగా	-10.4941
▁1995	-10.4942
▁వికీ	-10.4943
▁పంజాబ్	-10.4945
ుకునేందుకు	-10.4947
▁సగం	-10.4951
▁హైదరాబాదులోను	-10.4952
▁ఆదిలాబాద్లో	-10.4954
▁ప్రదేశంలో	-10.4959
కూడదు	-10.4968
▁ఎగుమతి	-10.4969
▁సమకూర్చ	-10.497
▁తిప్ప	-10.4974
▁విభాగాలు	-10.4975
▁ధాన్య	-10.4976
▁కాగిత	-10.4976
▁లాగ	-10.4979
▁భాగాన్ని	-10.4985
ేటప్పుడు	-10.4987
▁కేంద్రాల	-10.499
▁మొగ	-10.4994
▁కలకత్తా	-10.4994
ame	-10.4996
▁భావించారు	-10.4996
▁పుల్ల	-10.4998
▁ఉర్దూ	-10.5
▁పౌ	-10.5
▁పాటించ	-10.5007
▁మండలి	-10.5007
శాడు	-10.5009
▁కుక్క	-10.5012
▁ఇందుకు	-10.5013
gu	-10.5013
టూరు	-10.5017
▁సుబ్బారావు	-10.5018
▁సరళ	-10.502
▁పునర	-10.5022
ధ్ర	-10.5025
చ్చాడు	-10.5027
▁గ్రీన్	-10.5031
▁భరత	-10.5032
▁వస్తాయి	-10.5032
▁మలయాళ	-10.5036
▁సూర్యాపేట	-10.5036
▁చిహ్నం	-10.504
▁సల్	-10.5042
▁మూడో	-10.5043
▁అనుసంధానం	-10.5043
▁1992	-10.5044
ాళ్	-10.5052
బెట్ట	-10.5052
▁అబ్దుల్	-10.5054
▁ప్రాంగణ	-10.5054
▁నిలిపి	-10.5054
▁స్పష్టంగా	-10.5055
వాసుల	-10.5061
▁పదార్ధాల	-10.5063
▁మహారాజు	-10.5064
▁కుమారులు	-10.5065
▁కమ్యూనిస్టు	-10.5066
▁సాగించ	-10.5067
▁చేస్తాడు	-10.5067
▁అందించే	-10.507
▁వర్తక	-10.5071
కుమారి	-10.5072
స్తులు	-10.5075
▁రాయ్	-10.5075
▁ద్రోణ	-10.5079
▁నాగార్జున	-10.5079
టికల్	-10.5092
▁దీవుల	-10.5093
▁ఏళ్ళ	-10.5094
▁క్షేత్రం	-10.5097
▁మధ్యకాలంలో	-10.51
state	-10.5102
▁రాజీనామా	-10.5109
▁మరిన్ని	-10.5112
▁నిరూపించ	-10.5118
పూజ	-10.5127
▁ఇటలీ	-10.5128
కరంగా	-10.5129
ాధార	-10.5129
▁దేవతలు	-10.5131
▁ఉండును	-10.5133
▁మ్యూజియం	-10.5134
▁సెప్టెంబర్	-10.5134
▁విశ్వనాథ	-10.5134
▁త్యాగ	-10.5134
ాచార్యులు	-10.5135
▁తప్పనిసరి	-10.514
▁రైల్వేస్టేషన్	-10.5146
చేసింది	-10.5148
▁బెల్లం	-10.5149
▁డొ	-10.5149
▁సంభవ	-10.5159
▁అబ్బ	-10.5163
▁మొదటిసారిగా	-10.5164
▁అనుభవించ	-10.5166
▁పుట్టి	-10.5167
గలవు	-10.5167
▁ప్రత్యేకించి	-10.5173
▁పంచాయతీ	-10.5179
▁వాటా	-10.518
ావళి	-10.518
శక్తుల	-10.518
▁గ్రంథాలయ	-10.5181
▁వస్తు	-10.5183
▁ఫెర్	-10.5183
మాసం	-10.5188
దర్శి	-10.5189
▁ఎందుకు	-10.5194
త్వము	-10.5197
ten	-10.5198
▁సహాయంతో	-10.5202
▁300	-10.5203
టమే	-10.5203
యుత	-10.5203
▁పరికరాల	-10.5208
▁ఉపయోగించారు	-10.5208
▁tr	-10.5216
▁కిందకు	-10.5218
▁గుజరాత్	-10.522
ప్రతి	-10.5225
▁దారితీసింది	-10.5226
▁స్థాపించిన	-10.5233
▁ప్రసారం	-10.5233
▁పెరుగుతుంది	-10.5246
▁అద్ద	-10.5247
▁నాటకాల	-10.5248
▁రాష్ట్రపతి	-10.5254
▁ఫ్యా	-10.5255
▁కావచ్చు	-10.5263
ara	-10.5265
▁వెల్ల	-10.5267
▁శాస్త్రము	-10.5271
▁ఉత్తర్వులు	-10.5271
▁ఆరంభం	-10.5273
బంద	-10.5276
▁కలవ	-10.5279
▁కార్మికుల	-10.5282
▁ముహమ్మద్	-10.5282
▁బావులు	-10.5287
ీకృత	-10.5293
గీత	-10.5302
▁150	-10.5303
▁కాదని	-10.5313
▁నేడు	-10.5317
▁థియేటర్	-10.5319
ుతుంటారు	-10.5324
▁can	-10.5325
▁రమణ	-10.5332
▁ఆనాటి	-10.5338
వేసింది	-10.5338
ance	-10.5348
ణ్ణ	-10.535
▁చేస్తా	-10.5351
▁రాముడు	-10.5356
▁గురై	-10.5358
▁ఆమోద	-10.536
▁సినిమాలలో	-10.536
▁అల్యూమినియం	-10.5363
▁స్టూడియో	-10.5363
ాచార	-10.5368
▁గ్రహించ	-10.537
▁షేక్	-10.5372
▁మొదట్లో	-10.5372
▁హోటల్	-10.5372
ple	-10.5375
▁నగర్లో	-10.5378
శాసన	-10.5382
▁బ్లూ	-10.5387
ts	-10.539
▁జనసంఖ్య	-10.5396
▁ఒలింపిక్	-10.5401
జిల్లా	-10.5406
▁ఆగష్టు	-10.5407
▁తెలుప	-10.5407
▁నొప్పి	-10.5407
▁జీర్ణ	-10.5414
టొ	-10.5414
స్థానంలో	-10.5424
థో	-10.5428
లాండు	-10.5438
▁మృత	-10.5445
▁II	-10.5453
▁ట్రాన్స్	-10.5453
▁వెళ్	-10.5453
ప్రాయ	-10.5456
▁అసోసియేషన్	-10.5458
▁రక్తం	-10.5458
▁who	-10.5459
▁పొద	-10.5461
▁ఇక్కడికి	-10.5466
▁నాయకత్వం	-10.5467
▁పరిష్కార	-10.5477
▁వ్యాప్తంగా	-10.5477
ob	-10.548
▁దయ	-10.5482
జెన్	-10.5483
▁చేరింది	-10.5483
న్నిటి	-10.5485
▁పశ్చిమాన	-10.5488
▁కవిత్వం	-10.55
▁విడిచి	-10.5503
ana	-10.5506
▁స్థాపించాడు	-10.5508
▁శర్మ	-10.5511
ణువు	-10.5512
▁వారీ	-10.5512
మూర్తుల	-10.5517
▁5310	-10.552
ాంక	-10.5523
▁నిర్వచ	-10.5526
▁ప్రయోగించ	-10.5526
బోయే	-10.5528
▁నివసిస్తున్న	-10.5533
▁మరికొన్ని	-10.5534
▁పెట్టిన	-10.5539
▁వ్యయం	-10.5545
▁ఎదుర్కొన్న	-10.5547
▁ట్రై	-10.5547
▁1940	-10.5555
▁హ్యా	-10.5556
app	-10.5556
▁పేర్కొన్న	-10.5556
▁పాల్వంచ	-10.5559
▁మొహ	-10.5563
▁రచించారు	-10.5566
▁ఉంటూ	-10.5567
ting	-10.5572
▁ఐర్లాండ్	-10.5572
▁ఉమ్మడి	-10.5572
▁సుమారుగా	-10.5576
▁మనస్సు	-10.5578
▁తల్లిదండ్రులు	-10.5579
▁ఇరాన్	-10.5583
▁తానే	-10.5588
▁కాశ్మీరు	-10.5588
▁శీతాకాల	-10.5591
▁అయ్యే	-10.5592
▁వాక్య	-10.5593
బడినవి	-10.5594
▁సేకరించ	-10.5595
▁పరిశోధనా	-10.5597
▁అసాధారణ	-10.5604
ba	-10.5607
▁గుర్తించిన	-10.5608
▁నింప	-10.5616
▁అనుకూలంగా	-10.562
▁చేయాలి	-10.563
కళా	-10.5632
▁పట్టణంలో	-10.5635
▁గ్రూప్	-10.5636
▁చక్కగా	-10.5643
▁మాధవ	-10.5643
▁వృత్తులు	-10.5644
▁కూరగాయలు	-10.5649
▁గంట	-10.565
▁తిరువ	-10.5658
▁man	-10.5666
ాంశం	-10.5667
▁స్నేహ	-10.5667
▁లాటిన్	-10.5669
▁చర్యల	-10.5688
ial	-10.5692
ముద్ర	-10.5692
▁శంఖ	-10.5697
▁ఆకులు	-10.5702
▁బుద్ధి	-10.5705
యాగ	-10.5705
▁విభాగాల	-10.571
▁చేసేవారు	-10.5711
సంఖ్య	-10.5711
▁సరిగా	-10.5712
▁శర	-10.5713
▁మహిళలు	-10.5713
▁కాంగ్రెసు	-10.5714
▁ముస్లింల	-10.5714
▁పాల్గొన్నారు	-10.5714
▁చూడవచ్చు	-10.5718
▁శివుని	-10.5718
▁పార్టీకి	-10.5718
▁పర్యాటకుల	-10.5729
ిస్తోంది	-10.5731
యిడ్	-10.5733
యొ	-10.5735
▁చేసుకుంది	-10.5735
▁వీటికి	-10.5735
చక్ర	-10.5736
▁ప్రొఫెసర్	-10.574
▁బంగ్లాదేశ్	-10.574
▁ఆంగ్లంలో	-10.5741
ition	-10.5743
▁మనో	-10.5743
నగరం	-10.5744
▁హెక్టారులు	-10.5747
▁శ్రద్ధ	-10.5747
▁మంగ	-10.5747
కృత్	-10.5748
▁నిర్మించాడు	-10.575
▁అధికారుల	-10.5754
కంఠ	-10.5757
పిల్ల	-10.5761
▁వలయ	-10.5763
▁విజయవంతంగా	-10.5765
▁యూనివర్శిటీ	-10.5766
▁సింధు	-10.5766
▁కామారెడ్డి	-10.5768
▁సౌందర్య	-10.5773
▁ఆంజనేయ	-10.5779
▁ఆఫ్రికన్	-10.5779
▁దోష	-10.5782
ాసుర	-10.5783
▁చేరారు	-10.5785
▁లంక	-10.5794
▁ముప్ప	-10.5802
▁వసంత	-10.5808
▁వ్యవహార	-10.5811
పుచ్చ	-10.5815
▁సూర్యుని	-10.5818
▁ఎముక	-10.5819
▁తమ్మ	-10.5828
▁ప్రారంభించిన	-10.583
▁నిషేధ	-10.5831
▁విద్వాంసు	-10.5832
▁సమానంగా	-10.5833
డియన్	-10.5837
▁so	-10.584
▁త్రాగ	-10.5844
▁పరస్పర	-10.5845
వర్గ	-10.585
▁రాయల్	-10.5855
▁ప్రోత్సాహ	-10.5858
ాలజీ	-10.5858
▁మీటర్లు	-10.586
▁స్ట్ర	-10.5861
▁ఏమీ	-10.5867
adj	-10.5869
▁ముద్రించ	-10.587
రియో	-10.5872
ించుట	-10.5872
శేఖర	-10.5878
▁విజయవంతమైన	-10.5879
▁కావడంతో	-10.5879
▁ఆశ్రయ	-10.5879
▁అవసరమ	-10.5882
if	-10.5891
▁రెడ్	-10.5892
▁డ్రా	-10.5895
▁చేసుకునే	-10.5895
▁వైరస్	-10.5898
rn	-10.59
ుతుంటాయి	-10.59
▁నిర్వహిస్తారు	-10.5902
▁శక్తివంతమైన	-10.5909
▁విమర్శకుల	-10.5912
▁స్థాపించి	-10.5913
▁పండ్లు	-10.5917
▁అరేబియా	-10.5917
▁సంభాషణ	-10.5924
▁దక్షిణాన	-10.5926
▁విషయము	-10.5932
నాటికి	-10.5935
▁దంత	-10.5943
థె	-10.5944
▁దేవుని	-10.5946
▁పార్వతీ	-10.5951
fi	-10.5951
▁ముద్రణ	-10.5953
▁నిర్ధారించ	-10.5957
▁1952	-10.597
భూషణ	-10.5973
పడుతున్న	-10.5983
▁కాంగ్	-10.5984
▁పూజా	-10.5986
▁శాన్	-10.599
over	-10.5993
▁శరణ	-10.5994
▁లభించిన	-10.5996
▁అటవీ	-10.5997
▁నారాయణ్	-10.6002
▁సాంద్రత	-10.6004
▁నిషేధించ	-10.6004
స్థాప	-10.6007
▁వృ	-10.6013
▁నాటకాలు	-10.6015
▁చేస్తోంది	-10.602
▁కొద్దిగా	-10.6021
▁ముస్లింలు	-10.6027
▁అడిగాడు	-10.6032
▁వస్తువులను	-10.6033
▁విధానాలు	-10.6041
K	-10.6042
▁దాట	-10.6043
▁ఎవరు	-10.6044
▁యుద్ధానికి	-10.6048
▁శ్రమ	-10.6049
▁చేరుకుంది	-10.6051
▁సూర	-10.6053
ction	-10.6056
రాణి	-10.6058
ally	-10.6059
మందు	-10.6059
పాలక	-10.6062
▁నిర్ణయం	-10.6066
వున్న	-10.6071
▁ఊహ	-10.6072
▁యందు	-10.6073
▁పిలువబడే	-10.6075
▁భూముల	-10.6079
షియన్	-10.6084
▁అరటి	-10.6086
జాతీయ	-10.6088
▁క్వా	-10.6092
ard	-10.6095
▁స్ట్రా	-10.6102
▁నేపథ్యంలో	-10.6103
▁చక్కెర	-10.6105
▁ఖగోళ	-10.6108
హైడ్ర	-10.6112
▁పొగ	-10.6112
▁గుర్తిస్తూ	-10.6114
▁any	-10.612
▁also	-10.6125
▁పునః	-10.6125
▁కవుల	-10.6126
▁మామూలు	-10.6126
▁విద్యాలయ	-10.6128
▁అనునది	-10.6128
గలిగిన	-10.613
▁విత్తనాల	-10.6139
▁ఇవ్వడం	-10.614
షే	-10.6141
ood	-10.6147
▁సంతకం	-10.6152
▁మొదలైంది	-10.6153
పదార్ధ	-10.6156
▁సమయానికి	-10.6163
జీవిత	-10.6165
కపోయినా	-10.6166
పాలన	-10.6168
▁మధుర	-10.6171
▁నాగర్	-10.6171
▁గెలిచి	-10.6174
▁గ్రంధ	-10.6174
పూరిత	-10.6175
▁పురాణాల	-10.6178
▁అత్యున్నత	-10.6179
▁ఆదర్శ	-10.6182
▁నేతృత్వంలో	-10.6186
▁రంధ్రము	-10.619
▁ఆదిలాబాద్	-10.6197
▁శత్రువు	-10.6198
▁మైసూరు	-10.62
▁దండయాత్ర	-10.62
▁భూభాగంలో	-10.6201
రేఖ	-10.6211
▁సాధించారు	-10.6212
▁ఎన్నికల్లో	-10.6219
▁గూర్చి	-10.6228
▁ముఖ్యమైనవి	-10.6228
red	-10.623
▁పరిషత్తు	-10.6234
▁నవంబర్	-10.6235
▁మార్గాల	-10.6235
▁యాగ	-10.6236
▁ముంద	-10.6238
▁సుదీర్ఘ	-10.6241
చెంద	-10.6242
హ్లాద	-10.6248
▁ఎగువ	-10.6248
▁పొడవైన	-10.6255
▁రామ్	-10.6257
▁అవకాశాలు	-10.6257
▁భగవ	-10.6259
▁కొంచెం	-10.6262
tra	-10.6262
▁కర్ర	-10.6264
▁ఉద్యోగుల	-10.6266
▁అశోక	-10.6267
▁లభించాయి	-10.6268
▁సుప్రసిద్ధ	-10.6268
ిచారు	-10.6273
▁చమురు	-10.6276
▁కన్య	-10.6276
▁వినాయక	-10.6277
▁పరిచయ	-10.628
▁డిసెంబర్	-10.6282
▁అతన్ని	-10.6282
▁సంగ్రహ	-10.6286
▁ఫ్లా	-10.6289
▁మార్క్	-10.629
▁సామర్థ్య	-10.6291
బ్యూ	-10.6291
▁మినహా	-10.6296
▁విశ్లేషణ	-10.6303
▁కళాకారులు	-10.6306
▁మాటల	-10.6311
▁దశాబ్ద	-10.6316
▁అక్బరు	-10.6323
▁ఇతడి	-10.6331
పురుష	-10.6334
▁టాప్	-10.6336
▁ఫిల్మ్	-10.6344
చెరువు	-10.6345
▁పురాణం	-10.635
▁అత్యుత్తమ	-10.6351
▁రచించాడు	-10.6352
▁పార్కు	-10.6356
▁పద్ధతులు	-10.6357
▁హ్యూ	-10.6358
▁తీర్మాన	-10.6358
▁సముద్రతీర	-10.6358
బద్ద	-10.6362
unt	-10.6364
min	-10.6367
▁అప్పగించ	-10.6367
▁కార్మిక	-10.637
▁నిర్మించబడింది	-10.6378
సెంట్	-10.6379
▁రాజ్యాంగం	-10.638
▁రూపొందించిన	-10.6383
▁లేకపోవడం	-10.6386
▁బాహ్య	-10.6386
▁శోభ	-10.6387
▁నివసిస్తున్నారు	-10.6388
▁టెస్ట్	-10.6389
▁ఉపయోగించడం	-10.6392
▁అరకులోయలో	-10.6393
▁మహిళ	-10.64
▁లలిత	-10.6405
▁హనుమ	-10.6407
▁కల్గి	-10.6409
▁పాల్గొన్న	-10.6411
▁పిల్లలకు	-10.6411
▁కోర్సు	-10.6416
▁జయించ	-10.6417
▁అక్టోబర్	-10.642
▁ఇంగ్లీష్	-10.642
▁రెవెన్యూ	-10.642
ala	-10.643
సియన్	-10.6431
▁సంగారెడ్డి	-10.6433
▁పరిశ్రమలు	-10.6434
▁త్వరగా	-10.6434
▁మరీ	-10.6439
▁అనుకున్న	-10.644
▁పిండి	-10.6441
▁రంగారెడ్డి	-10.6445
▁నిర్వాహక	-10.6448
▁వెడల్పు	-10.6448
▁గణపతి	-10.6451
str	-10.6454
▁నువ్వు	-10.6455
▁నాణ్యత	-10.6455
▁ఇరవై	-10.6455
▁దశాబ్దాల	-10.6455
▁నివసించే	-10.6456
పడ్డ	-10.6461
eg	-10.6461
ుచున్నారు	-10.6464
▁చేయబడ	-10.6466
▁ఐదుగురు	-10.6472
▁చెట్లు	-10.6472
▁ఉద్యానవన	-10.6476
▁చుట్టు	-10.6478
పోతాయి	-10.6479
▁ఓడించి	-10.6482
▁నగరాన్ని	-10.6487
ుకుంటే	-10.6488
▁రోడ్డుతో	-10.6489
▁శరీరంలో	-10.6489
▁అందరు	-10.649
▁డేటా	-10.6491
▁పోలిస్తే	-10.6492
▁సాక్ష్య	-10.6493
▁వుంటాయి	-10.6495
▁స్పా	-10.6495
▁నడుమ	-10.6496
టీఎం	-10.6497
▁శుభ్ర	-10.6498
▁ఫైనల్	-10.6503
▁ఊరు	-10.6503
▁విజయవంత	-10.6506
▁చూస్త	-10.6516
▁ఆదరణ	-10.6519
లెన్	-10.6524
▁ఓపెన్	-10.6526
▁నివారణ	-10.6526
▁కార్పొరేషన్	-10.6533
▁ఆధీనంలో	-10.6533
tic	-10.6547
tal	-10.6549
▁మార్పుల	-10.6552
▁గ్రంథాలు	-10.6553
▁శ్రీమతి	-10.6561
▁నందు	-10.6565
▁పాయింట్	-10.6568
▁బియ్యం	-10.6577
నిర్మాణ	-10.6581
▁కమిషన్	-10.6582
▁పరిశ్రమల	-10.6584
▁గాజు	-10.6589
port	-10.6596
▁తెలుపు	-10.6597
▁క్వి	-10.6598
▁భవిష్యత్తు	-10.6598
mi	-10.6601
▁పాక్షిక	-10.6604
▁రాష్ట్రాలలో	-10.6605
▁హిల్	-10.6608
▁చీర	-10.6609
▁సుల్తాన్	-10.661
▁ధరించి	-10.6611
▁మఠ	-10.6617
5,000	-10.6617
▁అడ్డు	-10.6623
form	-10.663
రేషన్	-10.6634
▁పద్ధతిని	-10.6635
▁భూభాగాల	-10.664
▁న్యాయస్థాన	-10.664
▁రాశారు	-10.664
▁దుఃఖ	-10.6646
▁1983	-10.665
▁గెలుచుకున్న	-10.6653
▁పాఠ్య	-10.6657
దర్శ	-10.6658
సాగింది	-10.6661
▁తై	-10.6662
▁నవ్వ	-10.6662
నిరోధక	-10.6666
▁అనుసంధానమై	-10.667
▁పోషక	-10.667
▁తోడు	-10.6674
ద్రావణ	-10.6675
▁దిక్కు	-10.6678
▁అర్హత	-10.6682
▁వ్యవహర	-10.6684
ఫ్ట్	-10.6691
▁pre	-10.6692
పోర్ట్	-10.6693
స్తోంది	-10.6695
▁వ్యాపించి	-10.6696
▁మాస్టర్	-10.6698
▁కనిపెట్ట	-10.6703
▁పరుగులు	-10.6705
▁సులభంగా	-10.6707
▁మతపరమైన	-10.6709
▁St	-10.6715
▁మేఘ	-10.6718
▁బ్లా	-10.6718
▁దిశలో	-10.672
▁తీరు	-10.6722
▁అలంకరించ	-10.6725
▁మసీదు	-10.6725
▁స్థాపన	-10.6726
▁రజ	-10.6727
▁పరిగణ	-10.6731
▁అందుకున్నారు	-10.6736
▁మినుము	-10.6741
వీడు	-10.6741
▁గాథ	-10.6744
▁గదుల	-10.6745
▁సభ్యుడు	-10.675
▁జలపాత	-10.6752
▁వర్షపాతం	-10.6754
▁ఎన్నికైనారు	-10.676
ound	-10.6763
Sub	-10.6763
ome	-10.6765
▁వుండి	-10.6766
▁1962	-10.6766
▁ఉత్సాహ	-10.6768
▁పడుతుంది	-10.6774
▁పొరుగు	-10.6774
▁జంతువులు	-10.6778
పడ్డాయి	-10.678
జెర్	-10.6782
▁ఈజిప్టు	-10.6782
▁మొఘల్	-10.6782
వెంట్	-10.6785
▁తీరంలో	-10.6789
▁గణనీయమైన	-10.679
▁have	-10.6797
ef	-10.6798
▁ప్రేరణ	-10.68
▁అంచు	-10.6805
-4	-10.6809
▁ఆచరణ	-10.6812
▁1985	-10.6825
చోట	-10.6829
▁శాస్త్రవేత్తలు	-10.6832
▁హిందువులు	-10.6833
▁సైట్	-10.6833
▁ఆర్మేనియా	-10.684
▁మైక్రో	-10.684
ారణ్య	-10.6841
నాయుడు	-10.6843
▁పాఠ	-10.6844
▁కణాల	-10.6844
▁అందమైన	-10.6849
▁విక్రయ	-10.6849
▁అంజ	-10.685
▁నిరాకరించ	-10.6855
ోదయ	-10.6857
mon	-10.686
ack	-10.6862
▁1971	-10.6862
▁జగిత్యాల	-10.687
వర్గం	-10.6871
రకాల	-10.6871
దై	-10.6871
▁చేతులు	-10.6874
ric	-10.688
▁చోట్ల	-10.6886
యందు	-10.6887
▁మాడుగుల	-10.6892
రోధ	-10.6893
పర్తి	-10.6894
▁రాష్ట్రములోని	-10.6896
సౌ	-10.6899
▁ఇబ్బందుల	-10.6899
▁వాయిద్య	-10.6899
▁పెసర	-10.6899
▁రహదారుల	-10.6899
▁సమస్త	-10.69
▁సులభ	-10.6903
▁1920	-10.6907
రంగు	-10.6908
▁బ్రాహ్మణుల	-10.6912
▁బర్మా	-10.6913
▁కేటాయించ	-10.6921
▁బిందువు	-10.6928
ద్దీన్	-10.6936
▁ఉత్సవాల	-10.6937
▁సంధి	-10.6942
▁బెంగాలీ	-10.6943
▁భోగ	-10.6947
▁కాలేజ్	-10.6958
▁నిమ్మ	-10.6961
▁నిర్వహిస్తున్న	-10.6968
▁అందించిన	-10.6968
▁పోలీస్	-10.6972
▁ప్రశాంత	-10.6977
▁శైవ	-10.6981
▁హిందువుల	-10.6981
▁సాహస	-10.6985
▁నిరోధ	-10.6988
▁కోల్పో	-10.699
▁జరుగుతాయి	-10.699
▁వోల్	-10.6992
▁సందేహ	-10.6995
▁తిరిగ	-10.7
ron	-10.7005
▁అనారోగ్య	-10.7009
▁సముద్రమట్టానిక	-10.7009
▁వీజీ	-10.7009
▁విమానాశ్రయ	-10.7011
▁చాట	-10.7022
▁అద్భుతమైన	-10.7026
▁dis	-10.7032
▁ఉత్సవాలు	-10.7037
bu	-10.7039
▁పరిస్థితులు	-10.7042
▁రైతులు	-10.7043
▁దిశగా	-10.7044
ేశాడు	-10.7045
▁ఎడారి	-10.7046
▁నమ్మక	-10.7048
▁పరిశోధకులు	-10.7051
▁గణన	-10.7052
▁నచ్చ	-10.7053
▁నాయిక	-10.7054
▁రంధ్రం	-10.7057
pur	-10.7059
▁దిశ	-10.7064
దగ్గ	-10.7065
▁వంగ	-10.7065
▁రోగి	-10.7068
▁ప్రాజెక్ట్	-10.7068
▁వ్యవహారాల	-10.707
డియం	-10.7072
▁నోబెల్	-10.7076
▁శనగ	-10.7077
▁రాజ్యాన్ని	-10.7078
▁కావున	-10.7079
▁దంపతుల	-10.7084
▁గుడివాడ	-10.7094
▁వహించారు	-10.7095
▁టర్కీ	-10.7099
టెల్	-10.7101
▁పరిశీలన	-10.7106
▁ఐక్య	-10.7107
▁1984	-10.7109
ach	-10.7112
సెల్	-10.7114
▁ఓట్ల	-10.7114
▁శిథిల	-10.7121
▁1956	-10.7122
యింగ్	-10.7123
▁1993	-10.7124
▁అందరికీ	-10.7125
▁మేళ	-10.7125
▁భద్రాచలం	-10.7128
▁1967	-10.7133
ian	-10.7142
▁కొందరి	-10.7143
▁పండించ	-10.7155
▁స్థాయికి	-10.7157
▁తరహా	-10.7158
▁స్పె	-10.7163
▁వేలాది	-10.717
▁మూత్ర	-10.7172
గృహ	-10.7173
▁పేరిట	-10.7173
▁వృష	-10.7174
▁రుణ	-10.7174
టూరి	-10.7175
▁ఆఖరి	-10.7182
▁స్మారక	-10.7188
▁సమీక్ష	-10.7188
▁వాటర్	-10.7197
▁చేయటానికి	-10.72
▁బాగు	-10.7202
భంగ	-10.7203
▁పేర్కొంది	-10.7203
▁యువత	-10.7205
▁సిక్కు	-10.7208
▁కవులు	-10.721
▁చేపట్టిన	-10.7211
▁నుండే	-10.7213
సీమ	-10.7213
▁నిర్బంధ	-10.7213
▁బాంబు	-10.7215
పూర్వక	-10.7215
పర్చ	-10.7218
▁వైభవంగా	-10.7218
▁చతుర్	-10.7219
▁పిలిచే	-10.7223
▁కలయిక	-10.7226
ెల్ల	-10.7229
▁మంగోల	-10.7233
▁ప్రస్తావన	-10.7241
▁గ్రూపు	-10.7242
మియా	-10.7243
▁నిమిషాల	-10.7244
▁అంతేకాకుండా	-10.7248
▁పొందాయి	-10.7258
▁ఇస్తుంది	-10.7258
▁ధైర్య	-10.7264
▁ఒడిషా	-10.7264
▁పవర్	-10.7264
▁కృష్ణుడు	-10.7265
mu	-10.727
▁ప్రభువు	-10.7273
▁నివారించ	-10.7273
▁విద్యార్థులకు	-10.7278
▁భక్తులకు	-10.7278
▁హైడ్రో	-10.7278
▁పండ్ల	-10.7285
▁క్లిష్ట	-10.7286
▁తరంగ	-10.7288
▁క్షత్రియ	-10.7294
▁క్షయ	-10.7294
▁కవితా	-10.7295
హెక్ట	-10.7295
బెట్టి	-10.7298
▁అందిస్తున్న	-10.7299
▁అగ్నిపర్వత	-10.7302
▁1972	-10.7307
▁అధ్యాపక	-10.7309
▁జ్ఞాపక	-10.7309
▁పదవ	-10.731
▁తీసుకురా	-10.7317
mo	-10.732
▁ఉన్నాయని	-10.7321
▁విరమణ	-10.7325
▁కొత్తగూడెం	-10.7325
▁అనుమాన	-10.7327
ుకోవటం	-10.7329
▁శిష్యుల	-10.7329
▁ప్రత్యర్థి	-10.7332
కొద్దీ	-10.7336
▁విక్రమ	-10.7336
▁చేపలు	-10.7338
కారణ	-10.7343
▁ఆరుగురు	-10.735
▁పరమాణు	-10.7357
ులయ్యారు	-10.7358
▁ప్రభావిత	-10.7365
▁జింక	-10.7366
స్ట్రో	-10.7371
సముద్రం	-10.7374
ళిక	-10.7382
ub	-10.7393
ాభిషేక	-10.7393
▁ఆధారపడ	-10.7397
▁అన్నమయ్య	-10.7399
▁యూనిట్	-10.7407
▁ఘంటసాల	-10.7409
▁సమకాలీన	-10.7409
బడుతోంది	-10.741
▁ప్రచురించారు	-10.7412
▁దక్షిణాఫ్రికా	-10.7416
▁మెడికల్	-10.7417
▁పుష్కర	-10.7417
▁ఫ్రె	-10.7419
▁ఆలయానికి	-10.7429
▁1975	-10.7433
ుచుండ	-10.7433
▁బ్యాండ్	-10.7437
న్యాస	-10.7437
▁సంరక్ష	-10.7439
▁అవమాన	-10.744
▁చక్కని	-10.7448
పింగ్	-10.7448
▁పదము	-10.7451
▁జరిపిన	-10.7455
▁విజయాన్ని	-10.7464
▁వాడకం	-10.7466
▁400	-10.7467
low	-10.747
▁గ్రంథము	-10.747
▁కనక	-10.7473
▁కత్తి	-10.7477
ానంతరం	-10.748
▁ఆధిపత్యం	-10.7484
▁ఛాంపియన్	-10.7486
▁హౌ	-10.7492
▁విస్తరించింది	-10.7493
▁పఠ	-10.7499
▁ప్రజాస్వామ్య	-10.7502
▁కుంభ	-10.751
▁తులసి	-10.751
ాన్నే	-10.7513
తెలంగాణ	-10.7514
▁అనేకమంది	-10.7514
▁రాకెట్	-10.7519
amu	-10.7523
▁మెజారిటీ	-10.7525
▁అల్లాహ్	-10.7525
▁సాయంత్రం	-10.7525
▁ఇటీవలి	-10.7527
▁వేదాంత	-10.7532
▁పరిష్కరించ	-10.7533
▁part	-10.7536
▁విటమిన్	-10.754
▁ముస్లిముల	-10.7541
▁1977	-10.7546
▁రైతుల	-10.7546
▁శస్త్రచికిత్స	-10.7548
▁నాటిక	-10.7555
▁తలెత్త	-10.7559
▁తాళ	-10.7566
har	-10.757
▁చేశా	-10.7572
▁పుట్టుక	-10.7575
ధేయ	-10.7576
▁పండితులు	-10.7578
▁హెర్	-10.7579
పురాణ	-10.7585
▁ఎవరైనా	-10.7588
▁మౌలిక	-10.759
▁పక్కన	-10.7591
జియా	-10.7593
▁సిరీస్	-10.7596
▁ఉంద	-10.7602
▁article	-10.7603
▁పసిఫిక్	-10.7603
▁సిద్ధిపేట	-10.7603
▁ఎరుపు	-10.7604
కెక్క	-10.7606
8%	-10.7606
▁అమిత	-10.7607
▁విలువైన	-10.7613
▁కలిగే	-10.7614
ఇతర	-10.7617
▁తొలిసారిగా	-10.7619
▁నిజమైన	-10.7631
output	-10.7634
▁స్థూల	-10.7634
▁క్షిపణి	-10.7634
గలిగి	-10.7637
▁క్రిస్ట	-10.7645
భిక్ష	-10.7646
▁పోర్చుగీసు	-10.765
▁ఎంచ	-10.7652
▁క్షీణ	-10.7656
▁బ్రిటీషు	-10.7658
▁యాజమాన్య	-10.7658
▁రంపచోడవరం	-10.7658
▁కళాకారుల	-10.7658
▁నిర్వహిస్త	-10.7659
▁సరిపో	-10.766
▁సౌత్	-10.7663
man	-10.7666
▁అధిగమించ	-10.7666
▁ఏమిటంటే	-10.7666
కోశ	-10.7668
నైపుణ్య	-10.7669
▁సైనికులు	-10.7671
▁ఫిలిప్	-10.7675
▁పతాక	-10.7676
▁సహకారంతో	-10.7677
▁దళిత	-10.7682
▁వహిస్త	-10.7683
దుర్గ	-10.7696
▁మస్జిద్	-10.7698
▁into	-10.7706
ral	-10.7707
▁బ్ల	-10.7709
▁తిరగ	-10.771
▁సరాసరి	-10.7713
▁నాగేశ్వరరావు	-10.7715
మరియు	-10.7716
▁బెంగుళూరు	-10.7729
▁మిక్కిలి	-10.7729
▁తెలిపారు	-10.7729
▁బ్రాడ్	-10.773
ాధికారి	-10.7732
wa	-10.7732
▁గ్రహించి	-10.7736
▁సేకరించి	-10.7739
▁నుంచే	-10.7739
▁సహకరించ	-10.774
ాధిపతి	-10.774
▁స్వీయ	-10.7742
▁ప్రయాణీకుల	-10.7746
దక్షిణ	-10.7746
రీత్యా	-10.7747
స్తుంటాయి	-10.7759
▁అరుదుగా	-10.7761
▁ఆల్బమ్	-10.7769
▁రంధ్ర	-10.777
▁నదులు	-10.7771
ign	-10.7773
▁మెక్సికో	-10.7777
▁మెదడు	-10.7777
▁విగ్రహాల	-10.7778
ram	-10.7785
▁తీర్పు	-10.7794
▁శతాబ్దపు	-10.7801
the	-10.7805
▁చిన్నతనం	-10.7805
▁mw	-10.7806
▁అధికారాన్ని	-10.7808
▁ఆయుర్వేద	-10.7809
▁హిట్	-10.7811
▁ప్రారంభించి	-10.7815
▁చెప్పబడింది	-10.7816
▁పదానికి	-10.7821
▁కర్నూల్	-10.7825
▁సంతృప్త	-10.7833
▁కర్మాగార	-10.7833
▁తరపున	-10.7833
▁ద్వితీయ	-10.7834
▁చెందుతున్న	-10.7836
ever	-10.7837
▁ప్రై	-10.7838
▁ఉద	-10.7849
గ్రంథ	-10.7851
▁మార్గాలు	-10.7852
ేటట్లు	-10.7862
▁వేళ	-10.7866
▁టైటిల్	-10.7867
▁ఒడ్డున	-10.7867
▁నదుల	-10.7872
▁ఉపాధి	-10.7874
▁హొ	-10.7876
▁తెలియజేస	-10.7878
▁పరికరం	-10.7879
▁వాహనాల	-10.788
parser	-10.7882
▁బ్రెజిల్	-10.7882
▁బ్యాటరీ	-10.7883
▁మొదటిసారి	-10.7885
▁ఉండేవాడు	-10.7887
ప్పుడే	-10.7906
సమీప	-10.7907
▁శ్రీరంగ	-10.7907
▁సింహాసన	-10.7914
▁క్యాన్సర్	-10.7914
▁పురుగు	-10.7914
▁విశాఖ	-10.7917
▁ఆదివారం	-10.7922
▁ప్రభావాల	-10.7924
▁ధరించిన	-10.7925
▁ద్వారక	-10.7927
▁ఒంటరి	-10.793
▁To	-10.7932
▁శాతవాహన	-10.7938
▁వర్గీకరించ	-10.794
▁బొంబాయి	-10.7946
▁నిర్వహిస్తుంది	-10.7947
▁విశ్వవిద్యాలయము	-10.7949
▁చేశాయి	-10.795
▁వ్యవస్థాపక	-10.7952
▁చిట్ట	-10.7958
▁కథానాయక	-10.7964
▁ప్రమాణాల	-10.7966
▁1974	-10.7967
▁మరాఠీ	-10.7971
▁సరస్వతి	-10.7971
▁దోహద	-10.7973
▁we	-10.7978
ుకొన్నాడు	-10.7985
▁నిరసన	-10.7988
▁ప్రవహిస్త	-10.799
కార్బను	-10.799
▁శృంగార	-10.7995
ust	-10.7997
▁ఏర్పడుతుంది	-10.7998
▁రోగుల	-10.8001
▁వహిస్తున్న	-10.8002
ite	-10.8003
▁వ్యవసాయాధారిత	-10.8003
▁విద్యాభ్యాసం	-10.8003
▁ఎందరో	-10.8003
▁will	-10.8005
▁యాదవ	-10.8007
▁సన్నివేశ	-10.8011
▁పాల్గొని	-10.8011
▁ప్రతినిధి	-10.802
▁నిలయ	-10.8024
యుండ	-10.8026
▁వ్యత్యాస	-10.8028
▁నిష్పత్తి	-10.8028
▁తరగతుల	-10.8029
▁మలేషియా	-10.8044
▁జమీందార	-10.8044
▁జరుపుకుంటారు	-10.8046
▁ఉప్ప	-10.8052
▁వినిపించ	-10.8053
▁కాఫీ	-10.8061
▁చేయగల	-10.8062
▁పెరిగిన	-10.8072
ప్రియ	-10.8073
▁గుండ	-10.8074
▁ప్రఖ్యాతి	-10.8075
▁1955	-10.8076
▁నోటి	-10.8089
mit	-10.809
▁1946	-10.8094
బట్టి	-10.8094
▁వ్యవహరిస్తారు	-10.8096
ice	-10.8098
▁కరువు	-10.8106
▁పర్వ	-10.811
బాహు	-10.811
▁పెరుగుతున్న	-10.8112
పయోగ	-10.8114
▁ప్రతినిధుల	-10.8118
▁రాజ్యాల	-10.8121
▁విక్రయించ	-10.8125
▁ఇద్దరూ	-10.8127
▁ఓటమి	-10.8127
▁1988	-10.8129
▁పర్వతాల	-10.8131
▁గ్రాండ్	-10.8136
▁ఓట్లు	-10.814
▁కచ్చితంగా	-10.8143
▁ప్రభావాన్ని	-10.8144
▁ఎన్నికయ్యాడు	-10.8144
▁you	-10.8145
2)	-10.8152
▁మక్కా	-10.8161
old	-10.8164
▁పురస్కారాన్ని	-10.8174
▁నేర్చుకున్న	-10.8175
▁రూపాయలు	-10.8175
▁చారిత్రిక	-10.8176
▁కదలిక	-10.8176
▁ఉపన్యాస	-10.8183
▁సుల్తాను	-10.8185
gen	-10.8186
▁మందిరం	-10.8189
▁ద్వ	-10.8189
cent	-10.8192
▁సంబంధాల	-10.8192
▁డిజిటల్	-10.8193
▁పురావస్తు	-10.8193
థ్య	-10.8193
▁లైంగిక	-10.8193
mar	-10.8195
▁పోషించారు	-10.8199
▁ద్వారం	-10.8205
▁వాడుతారు	-10.8218
గొట్టపు	-10.8223
▁ఆయుధాల	-10.8224
▁హిందు	-10.8226
▁ద్రాక్ష	-10.8226
▁పెరిగే	-10.8235
au	-10.8235
▁భూకంప	-10.8236
▁కథనం	-10.8239
వాళ్ళు	-10.824
వాహన	-10.8244
▁ఆవిరి	-10.8247
▁శంకర్	-10.8248
ింపజేస	-10.8256
▁చేయబడుతుంది	-10.826
పోతు	-10.8269
▁విభజ	-10.8274
be	-10.8276
▁మూలకం	-10.8284
▁ఒంగోలు	-10.8285
▁ఇస్లామీయ	-10.8295
▁ఇంద్రుడు	-10.8296
▁బాయిలరు	-10.8302
▁ఆనకట్ట	-10.8302
ాధ్యక్ష	-10.8302
▁పూజించ	-10.8303
▁పదార్థాలు	-10.831
▁రెండ	-10.8312
▁యజమాని	-10.8319
▁1978	-10.8323
▁గ్లా	-10.8325
▁1964	-10.8326
▁such	-10.8327
▁పాల్గొంట	-10.8327
▁సోదరుడు	-10.8328
▁చంద్రశేఖర	-10.8329
▁Ra	-10.8331
▁వికీపీడియా	-10.8335
ీయులు	-10.8337
▁గడ్డి	-10.8338
▁గలవాడు	-10.8341
▁సూర్యుడు	-10.8343
▁ఓడించ	-10.8349
▁కవిత్వ	-10.8352
▁దృఢ	-10.8361
▁ధార్మిక	-10.8369
▁థాయ్	-10.8369
▁తెలుసుకున్న	-10.837
▁ఆక్రమణ	-10.8372
▁కలిగించే	-10.8373
▁నిర్వచించ	-10.8373
▁భీష్మ	-10.8374
▁శారీరక	-10.8378
ధారి	-10.8386
▁gov	-10.8391
▁కడుపు	-10.8404
▁పర్షియన్	-10.8404
▁ప్రపంచంలోనే	-10.8407
▁తయారుచేయ	-10.8408
▁వాసన	-10.841
▁1979	-10.8414
గఢ్	-10.8414
▁086	-10.8416
tri	-10.8424
rd	-10.8426
▁సంబ	-10.8426
ుఁడు	-10.8431
వైద్య	-10.8435
▁బహుశా	-10.8437
▁వ్యతిరేకించ	-10.8437
▁రాయలసీమ	-10.8437
▁జార్జ్	-10.8437
▁ఏకీకృత	-10.8439
hy	-10.8442
▁కౌరవ	-10.8443
1)	-10.8443
▁సౌదీ	-10.8445
పీఠ	-10.845
▁డైరెక్టర్	-10.846
▁కౌంటీ	-10.8463
▁సన్నిహిత	-10.8463
▁ఉద్దేశించి	-10.8468
▁వైఎస్	-10.8471
▁వెనక	-10.8471
▁ప్రోగ్రామ్	-10.8471
▁భిన్నంగా	-10.8474
▁కావలి	-10.8478
విజయ	-10.8492
▁పరికరాలు	-10.8493
▁బృహ	-10.8497
▁ప్రబల	-10.8499
▁భయపడ	-10.8501
▁కనపడ	-10.8502
▁పురాతనమైన	-10.8506
▁శివలింగ	-10.8513
▁ఖ్యాతి	-10.8516
▁రాముని	-10.8517
▁ఇల్లు	-10.8521
▁సైనికుల	-10.8523
▁అన్నింటి	-10.8524
▁స్వీకరించి	-10.8528
▁లభించే	-10.8528
▁మహాత్మా	-10.8532
▁అపరాలు	-10.8532
▁1965	-10.8533
▁సౌర	-10.8541
▁రంగారావు	-10.8542
▁వాదించ	-10.8549
భరిత	-10.8555
▁సామంత	-10.856
▁జార్జి	-10.8563
▁ఎవరూ	-10.8567
శారద	-10.8572
▁భీమవరం	-10.8573
▁కాలుష్య	-10.8575
మృగ	-10.8575
way	-10.8576
మునందు	-10.8576
3)	-10.8576
క్రమణ	-10.8577
▁భాషల్లో	-10.859
▁కలదు	-10.859
▁ఉండాలని	-10.8593
▁జేమ్స్	-10.8593
▁నివాసగృహాలు	-10.8601
▁నంద్యాల	-10.8602
▁నారద	-10.8602
▁భీష్ముడు	-10.8604
▁అత్యవసర	-10.8618
▁నాల్గవ	-10.8618
▁విముక్తి	-10.8618
▁మునిగి	-10.8621
వాణి	-10.8626
▁120	-10.8627
▁ల్యా	-10.8631
▁శుక్ర	-10.8635
▁తాజా	-10.8636
▁ఉత్పత్తులు	-10.8636
▁1945	-10.8637
▁తీసుకున్నారు	-10.864
▁కాథలిక్	-10.8644
▁చారిత్రాత్మక	-10.8653
▁గంగరాజు	-10.8658
▁కరిగి	-10.8662
▁1987	-10.8665
▁గై	-10.8665
ult	-10.8668
tain	-10.8671
▁వ్యాపించ	-10.8677
▁టిబెట్	-10.868
వేసే	-10.8683
▁కొలత	-10.8685
▁జాతర	-10.8686
ాబాదు	-10.8687
▁సతీ	-10.8691
▁నీతి	-10.8697
▁ధ్వని	-10.8697
▁జన్మించింది	-10.8709
▁టెలి	-10.8723
▁న్యాయవాది	-10.8723
▁1982	-10.8728
▁కాశ్మీర్	-10.8739
▁సంక్షోభ	-10.874
ురాలిగా	-10.874
పెద్ద	-10.8741
▁నిరోధించ	-10.8742
సమయంలో	-10.8747
▁గేయ	-10.8752
▁పడమర	-10.8756
ja	-10.8759
ఘోష	-10.8761
▁అప్పు	-10.8766
▁అధ్యక్షుడిగా	-10.8771
▁పంచాయతీకి	-10.8772
▁తగినంత	-10.8775
▁పయన	-10.8782
▁పునరుద్ధరించ	-10.8784
▁బోధన్	-10.8785
▁పోటీలలో	-10.8786
▁పిలుపు	-10.8786
▁1969	-10.8789
▁ఇష్టపడ	-10.8791
చేశాడు	-10.8793
▁ప్రకటించాడు	-10.8795
▁ఆయిల్	-10.8797
▁రేవు	-10.8799
ఉపయోగిస్తున్నారు	-10.8805
▁కాకతీయ	-10.881
▁రవీంద్ర	-10.8829
▁డేవిడ్	-10.8829
▁రికార్డ్	-10.8829
▁మత్స్య	-10.8829
▁2018	-10.8833
▁కూలి	-10.8836
land	-10.8837
row	-10.8838
▁లైట్	-10.8839
▁వ్యాఖ్యాన	-10.8844
▁వాద్య	-10.8846
▁మూలకాల	-10.8848
ుతుంద	-10.8849
▁మైళ్ళ	-10.8851
భాగ్య	-10.8865
▁ఏర్పాట	-10.8868
▁రకరకాల	-10.8873
▁పిలిచేవారు	-10.8876
▁మధు	-10.8885
▁గుర్రాల	-10.8887
▁నీళ్ళ	-10.889
▁రాబర్ట్	-10.8891
▁అవుత	-10.8893
▁సూత్రాల	-10.8896
లాగే	-10.8899
▁ఆవిష్కరణ	-10.89
▁ఆధిక్యత	-10.8909
▁మహారాజా	-10.8909
▁తవ్వ	-10.891
▁అప్పుడే	-10.8913
▁దుస్తుల	-10.8917
▁రీసెర్చ్	-10.8918
▁used	-10.8918
దేవుని	-10.8921
▁వచన	-10.8923
▁దుస్తులు	-10.8929
con	-10.8932
▁250	-10.8938
▁రాశాడు	-10.8944
▁గ్రె	-10.8949
▁అధిపతి	-10.8956
▁తీవ్రత	-10.8962
▁కాయగూరలు	-10.8962
▁అంతస్తు	-10.8963
▁ఎత్తి	-10.8968
▁ఇవ్వబడింది	-10.897
▁చిత్రీకరణ	-10.897
ఖ్యాత	-10.8971
▁ఎలక్ట్రానిక్	-10.8971
▁ఆరోపణల	-10.8972
▁ఆత్మకూరు	-10.8974
▁సాయుధ	-10.8977
బొమ్మ	-10.8979
▁విక్టోరియా	-10.898
▁శీర్షిక	-10.898
col	-10.8981
▁స్థిరమైన	-10.8988
▁తమ్ముడు	-10.8989
▁ముగించ	-10.8995
▁క్షీణించ	-10.9001
▁సమాంతర	-10.9012
▁ఇంకొక	-10.9016
▁సదుపాయాల	-10.9017
▁పెట్టె	-10.9027
▁1957	-10.9028
india	-10.9034
ుకుంటాయి	-10.9039
▁శ్రీకృష్ణుడు	-10.9039
▁ఇన్స్టిట్యూట్	-10.9044
▁నిపుణులు	-10.9055
▁విజేత	-10.9062
▁ప్రసాదించ	-10.9064
▁సర్ప	-10.9065
▁నిన్ను	-10.9067
జన్మ	-10.9077
▁He	-10.9078
▁విలియం	-10.9081
▁చేయబడి	-10.9086
▁ఒకవేళ	-10.9089
▁బంతి	-10.9091
▁యేసు	-10.9106
▁మార్గదర్శక	-10.9117
వాళ్లు	-10.9118
▁అయిదు	-10.9119
▁చిహ్నాల	-10.9119
▁డీఏ	-10.9119
బడలేదు	-10.9123
▁Al	-10.9123
▁భీముడు	-10.9125
▁ఆహ్వాన	-10.9126
▁were	-10.9128
▁అడుగుపెట్ట	-10.9129
▁ద్రవ్యరాశి	-10.9135
▁నిర్వహించెదరు	-10.9138
▁నియమాల	-10.9145
▁తెలియదు	-10.9146
▁గేమ్	-10.9147
▁కలుగుతుంది	-10.915
▁కాలిఫోర్నియా	-10.9153
▁పంపించ	-10.9156
▁రంగాలలో	-10.916
▁దిగుమతి	-10.9162
▁ఇవన్నీ	-10.9162
▁చెయ్యడం	-10.9169
▁ఖురాన్	-10.9171
▁ఆరంభించ	-10.9179
▁తల్లిదండ్రుల	-10.918
విధానం	-10.918
▁వ్రాత	-10.9181
▁వెంకటగిరి	-10.9181
▁విడిచిపెట్ట	-10.9191
▁ఘర్షణ	-10.9199
▁ప్రత్య	-10.9204
ావధాన	-10.9204
▁ఐదవ	-10.9209
▁సంగమ	-10.9216
▁వాషింగ్టన్	-10.9217
▁అగ్రహారం	-10.9218
పితామహ	-10.922
▁క్రైస్తవులు	-10.9225
▁గొంతు	-10.9227
▁ఆవరణ	-10.9229
ుకోవటానికి	-10.9232
▁కనుగొన్నారు	-10.9233
▁సంకల్ప	-10.9233
▁క్లోరైడ్	-10.9236
ప్రభుత్వ	-10.9241
▁ఏర్పడును	-10.9242
▁నడిపించ	-10.9242
▁వెల్డింగు	-10.9245
▁సీఆర్	-10.9249
▁1954	-10.9251
▁కార్తీక	-10.9252
▁వెలువరించ	-10.9254
▁నిలబెట్ట	-10.9256
▁కచ్చితమైన	-10.9264
▁పక్షి	-10.9265
▁మ్యూజిక్	-10.9273
ాపక	-10.9285
▁నిర్మించబడిన	-10.9287
▁యాంత్రిక	-10.9291
▁క్రియాశీల	-10.9301
▁సత్యాగ్రహ	-10.9301
▁తుఫాను	-10.9301
▁1986	-10.9304
▁వసూలు	-10.931
▁కేశవ	-10.9312
▁అంతరించి	-10.9315
▁ఆఫ్ఘనిస్తాన్	-10.9319
▁ఇనుము	-10.932
▁శాంత	-10.9328
▁UK	-10.933
▁1966	-10.9343
▁రెట్లు	-10.9345
▁నెదర్లాండ్స్	-10.9347
▁దీవి	-10.9349
▁డౌన్	-10.9357
▁సహాయపడ	-10.9357
▁ఆలోచించ	-10.9357
cul	-10.9361
▁పట్టణాల	-10.9362
▁అట్లాంటిక్	-10.9366
▁శత్రు	-10.937
▁నైపుణ్యం	-10.9372
ుకోవాలని	-10.9375
▁స్తోత్ర	-10.9376
▁ఇస్తారు	-10.938
▁గణనీయంగా	-10.9385
▁కాలేజి	-10.9385
▁ఆపరేషన్	-10.9385
▁వేంకటేశ్వర	-10.9395
▁నడిచే	-10.9397
▁విస్తారమైన	-10.9398
▁ఆకారంలో	-10.9399
▁మచిలీపట్నం	-10.9404
BS	-10.9406
▁అనువర్తన	-10.941
▁స్వాతి	-10.9419
▁ఫలితం	-10.942
▁పరమేశ్వర	-10.9422
▁సాంప్రదాయిక	-10.9423
▁వెచ్చ	-10.9423
▁It	-10.9427
▁ఆదేశించ	-10.9431
▁నెమ్మదిగా	-10.9432
▁సింగిల్	-10.9443
▁సంగారెడ్డిలోను	-10.9443
▁చనిపోయిన	-10.9444
right	-10.9449
▁రావట్లేదు	-10.9451
▁పొలాల	-10.946
▁క్యాలెండర్	-10.946
▁చుక్క	-10.9462
ప్రధాన	-10.9463
▁person	-10.947
▁ఆవిర్భవించ	-10.947
▁సిద్ధాంతాల	-10.9477
▁మాంసం	-10.9477
▁1953	-10.9479
▁ఆహ్వానించ	-10.9479
▁పోలాండ్	-10.9482
▁స్ట్రీట్	-10.9488
▁పరీక్షించ	-10.9494
▁ప్రదేశము	-10.9494
ావతార	-10.9495
▁స్తంభాల	-10.9507
▁అసంతృప్త	-10.9507
▁నిర్మిత	-10.951
ful	-10.9516
▁మారుతుంది	-10.9519
4)	-10.952
▁తేనె	-10.9535
▁శతాబ్దము	-10.9537
▁వివాదాస్పద	-10.9545
▁ఉస్మానియా	-10.9555
▁నౌకాశ్రయ	-10.9555
▁పనిచేసారు	-10.9557
▁నియంత్ర	-10.9559
▁గోత్ర	-10.9561
▁అరెస్టు	-10.9565
▁తాడేపల్లి	-10.9565
▁విస్తారంగా	-10.9567
▁తెలియజేస్తు	-10.9578
▁పండితుల	-10.9578
▁జరప	-10.9583
▁చీకటి	-10.9584
▁గుడ్డ	-10.9588
line	-10.9593
▁ప్రచురిత	-10.96
▁చూచి	-10.9602
▁తెలుస్తోంది	-10.9603
▁అలవాటు	-10.9603
కర్ణ	-10.9606
▁ఇటాలియన్	-10.9612
▁పంజాబీ	-10.9612
▁1973	-10.9616
▁ఇంజన్	-10.9617
▁అక్షాంశ	-10.9623
ుణ్ణి	-10.9624
▁అయస్కాంత	-10.9632
▁సహచర	-10.964
▁రోజూ	-10.9646
▁సంప్రదాయాల	-10.9646
▁1942	-10.9647
▁జోడించ	-10.9648
▁పెట్టుబడుల	-10.9651
ake	-10.9654
శర్మ	-10.9665
▁1981	-10.9665
▁హాంగ్	-10.9674
▁బెల్లంపల్లిలో	-10.968
▁వ్రాశాడు	-10.968
▁గుంపు	-10.9682
▁కావాలని	-10.9684
▁మోడల్	-10.969
▁వాయువ్య	-10.9693
▁వహిస్తుంది	-10.97
స్తుంద	-10.9702
ేటివ్	-10.9703
▁అందుకున్నాడు	-10.9703
▁తోడ్పడ	-10.9705
▁1949	-10.9708
▁తెలుసుకో	-10.9716
▁నరసరావుపేట	-10.9718
▁క్యూబా	-10.9719
▁1951	-10.9729
▁సంక్షిప్త	-10.9738
శతాబ్ద	-10.9738
▁బంధించ	-10.9738
▁మిషన్	-10.974
▁బెంగళూరు	-10.9748
▁వత్తిడి	-10.9748
▁సురక్షిత	-10.9748
▁పిలవబడే	-10.9759
emb	-10.976
▁రాజస్థాన్	-10.9777
▁అభ్యాస	-10.978
▁ఖాతా	-10.9782
▁కృత్రిమ	-10.9787
▁వేరొక	-10.9787
▁స్థాపించబడిన	-10.9789
▁వికెట్	-10.9789
▁వాస్తు	-10.9792
▁పర్యవేక్ష	-10.9796
▁బ్రె	-10.9797
▁ఎద్దు	-10.9801
▁మునుపటి	-10.9806
▁స్వీడన్	-10.9806
▁కాకతీయుల	-10.981
▁కలిగివున్న	-10.9813
AT	-10.9816
▁నీళ్ల	-10.982
▁అందుకున్న	-10.9823
▁నియమిత	-10.9824
▁గరిష్ఠ	-10.9826
▁గనుల	-10.9828
▁విస్తర	-10.9831
▁నియోజకవర్గాల	-10.9833
ough	-10.9845
▁ఇబ్బంది	-10.9845
▁ఎప్పుడ	-10.9848
ఆంధ్ర	-10.985
▁పర్యాయ	-10.9856
▁వ్యాకరణ	-10.9858
▁వ్రాశారు	-10.9865
▁సమగ్ర	-10.9873
▁భ్రమ	-10.9874
▁నారాయణపేట	-10.9876
▁ఐతే	-10.9885
▁నిఘంటువు	-10.9885
▁అరుణ	-10.9892
census	-10.9894
▁ఇంగ్లాండు	-10.9894
మెయిల్	-10.9913
▁కమ్యూనిటీ	-10.9914
▁నేపాల్	-10.9914
ిద్దరూ	-10.9918
6)	-10.9926
▁తీవ్రవాద	-10.9929
▁సంభవించిన	-10.9931
గలుగుత	-10.9931
▁వుంచ	-10.9933
▁కొలంబియా	-10.9934
,00,000	-10.9939
▁ఉత్తీర్ణ	-10.9944
▁లిమిటెడ్	-10.9944
▁పర్యవేక్షణ	-10.9945
ారాధన	-10.9954
▁సభ్యునిగా	-10.9957
ప్రాంతంలో	-10.9961
▁ఊరేగింపు	-10.9964
స్తుండగా	-10.9964
పీడన	-10.9971
సంవత్సర	-10.9972
ందరికీ	-10.9973
▁డిజైన్	-10.9974
▁మరణశిక్ష	-10.9984
▁పనితీరు	-10.9984
▁చేసుకోవడం	-10.9988
▁గౌరవించ	-10.9989
▁aspx	-10.9994
యోగ్య	-11
▁చైనీయుల	-11.0004
▁ఇందిరా	-11.0004
గుర్తించబడుతుంది	-11.0004
▁అనుగ్రహ	-11.0005
అద్దంకి	-11.0006
▁టవర్	-11.0006
▁కరుణ	-11.0012
▁విరివిగా	-11.0014
▁1961	-11.0021
▁తగిలి	-11.0022
▁విశ్వామిత్ర	-11.0024
▁లక్నో	-11.0024
ాపన	-11.0035
▁may	-11.0035
▁బేరియం	-11.0044
▁అదుపు	-11.0054
▁వెల్లడించ	-11.0055
శాస్త్రజ్ఞుల	-11.0057
▁కట్టడాల	-11.0063
▁నామకరణం	-11.0064
▁పంతులు	-11.0065
▁చరిత్రకారులు	-11.0068
▁అక్కినేని	-11.0074
▁అనుసంధాన	-11.0084
fa	-11.0088
▁ఉపయోగపడుతుంది	-11.0089
చెప్ప	-11.0091
▁trans	-11.0094
▁నూజివీడు	-11.0094
▁స్పందన	-11.0094
▁సత్కరించ	-11.0096
,500	-11.0099
ex	-11.0102
▁శుక్ల	-11.0104
▁వ్యాఖ్య	-11.0109
▁ఫలితాలు	-11.0114
7)	-11.0124
▁సంచిక	-11.0125
ాయుధ	-11.0125
▁త్రిపుర	-11.0127
ిస్తాను	-11.0127
▁అవధాన	-11.0134
▁స్వచ్ఛంద	-11.0144
▁నుంచీ	-11.0145
▁ముగ్గు	-11.0146
▁టీవీ	-11.0154
▁రామానుజ	-11.0155
▁జంతువు	-11.0156
▁హిమాలయ	-11.0157
8)	-11.0166
కుటుంబ	-11.0174
5)	-11.0181
▁ఖైదు	-11.0185
▁మైసూర్	-11.0185
▁ఆకలి	-11.0191
▁మౌర్య	-11.0191
▁చలికాలం	-11.0196
▁తొలుత	-11.0196
▁చెల్లింపు	-11.0196
▁మురుగు	-11.0205
▁శ్రీశైల	-11.0205
ించువాడు	-11.0211
టింగు	-11.0222
▁వుడ్	-11.0223
సాగాడు	-11.0224
▁ఖలీఫా	-11.0226
▁హనుమంతుడు	-11.0226
dy	-11.0236
▁తొక్క	-11.024
ook	-11.0251
▁బుద్ధుని	-11.0254
▁జబ్బు	-11.026
▁అవినీతి	-11.0267
▁జనగామ	-11.0277
▁పెద్దాపురం	-11.0282
▁సజ్జ	-11.0283
aj	-11.0283
▁చొప్పున	-11.0287
▁మోతాదు	-11.0287
▁నడప	-11.0289
▁ప్రతిష్ఠించ	-11.0292
▁2019	-11.0293
▁కలవాడు	-11.0297
▁బ్రాండ్	-11.0298
▁పలికి	-11.0298
▁పాల్గొన్నాడు	-11.0303
▁శ్రామిక	-11.0307
Population	-11.0308
▁1959	-11.0317
Districts	-11.0318
▁టాక్సీ	-11.0318
9)	-11.0321
▁అనుసంధానించ	-11.0323
▁వంటకాల	-11.0323
▁know	-11.0328
▁సదాశివ	-11.0328
▁కీర్తనల	-11.0328
▁సంజీవ	-11.0338
ava	-11.0338
▁ఆక్సిజన్	-11.0338
▁శతాబ్ధ	-11.0338
Master	-11.0349
▁మంగళగిరి	-11.0352
మంతటా	-11.0366
▁పన్నెండు	-11.0369
▁మహమ్మద్	-11.0369
కాలిక	-11.0384
ఉండ	-11.039
▁ప్రేమించ	-11.039
▁స్తుత	-11.0407
▁ఫౌండేషన్	-11.0421
▁సంక్లిష్ట	-11.0421
శ్రుత	-11.0428
clusion	-11.0432
▁కెరీర్	-11.0432
▁నార్త్	-11.0433
మౌత	-11.0434
▁1976	-11.0436
▁విమర్శించ	-11.0437
med	-11.0441
ness	-11.0444
▁రూపొందించబడింది	-11.0461
▁ఆకుపచ్చ	-11.0463
▁అరుదైన	-11.0463
▁శ్వేత	-11.0463
▁సిరియస్	-11.0473
▁ఫిన్లాండ్	-11.0484
▁తైవాన్	-11.0485
▁డ్రైనేజీ	-11.0494
▁చార్లెస్	-11.0495
pec	-11.0499
జులై	-11.0504
▁అంతరకృషి	-11.0505
▁చంద్రగుప్త	-11.0505
▁ఆరాధన	-11.0505
▁నిర్ధారణ	-11.0507
▁but	-11.0519
▁క్షీర	-11.052
ోత్పత్తి	-11.0526
Find	-11.0529
▁దేశవ్యాప్తంగా	-11.0536
▁హైడ్రోజన్	-11.0537
మెంట	-11.0538
▁బోర్డ్	-11.0546
▁జారీచేసింది	-11.0547
బస్తీ	-11.0553
▁చదివాడు	-11.0557
▁ప్రతికూల	-11.0558
వతేదీ	-11.056
=28	-11.0562
▁బాలబడులు	-11.0568
▁పరిరక్షణ	-11.0568
▁అభిషేక	-11.0568
చెట్టు	-11.0577
▁మంజూరు	-11.0578
▁సందర్భాల్లో	-11.0584
మేనేజ్మెంట్	-11.0589
▁కుట్ర	-11.0597
▁దశకంలో	-11.0601
▁సివిల్	-11.0601
▁ఫీల్డ్	-11.0601
▁బంధువుల	-11.0604
wiki	-11.061
▁భగవంతుని	-11.061
▁సవరణ	-11.061
▁ఘోర	-11.0622
▁అధికరించ	-11.0622
aw	-11.0631
▁పాలించిన	-11.0632
▁విశ్రాంతి	-11.0642
▁దహన	-11.0647
ాభిమాన	-11.0652
▁గొర్రె	-11.0653
శైలి	-11.0659
ుండగా	-11.0659
సూత్ర	-11.0664
కిరణాల	-11.0674
▁రాజేంద్ర	-11.0676
▁నన్నయ	-11.0679
▁పర్యటించ	-11.0685
▁డిమాండ్	-11.0685
▁లొంగ	-11.0695
▁ఏదేమైనా	-11.0695
▁పౌరాణిక	-11.0695
కాలపు	-11.0699
▁సింగపూర్	-11.0701
▁వేటాడ	-11.0715
▁చౌదరి	-11.0717
▁రీతిలో	-11.0717
▁యువకుల	-11.0719
▁కార్తె	-11.0725
▁డివిజను	-11.0727
▁సంపర్క	-11.0731
▁ఎన్టీఆర్	-11.0738
▁ఏడవ	-11.0748
▁నర్సీపట్నం	-11.0749
శాంతి	-11.0761
▁అమరిక	-11.0768
▁పోర్చుగల్	-11.077
▁కావాలి	-11.0778
▁నెట్వర్క్	-11.0781
▁పంచాంగం	-11.0781
▁ప్రతాప	-11.0785
కుప్పం	-11.0792
▁బదులు	-11.0794
▁హెన్రీ	-11.0803
శెట్టి	-11.0803
▁కపిల	-11.0807
▁సరిగ్గా	-11.0814
▁లవణ	-11.0817
▁చదువుకున్న	-11.0819
▁time	-11.0825
▁త్రవ్వ	-11.0835
▁జవహర్	-11.0846
▁త్రవ్వకాల	-11.0847
▁నిలుప	-11.0863
▁ఐక్యరాజ్యసమితి	-11.0868
▁విలాస	-11.0869
▁లార్డ్	-11.0874
▁కుదుర్చ	-11.0879
చేసారు	-11.088
ేంద్రియ	-11.0882
▁వెదురు	-11.0886
▁వర్గీకరణ	-11.0893
▁ఏర్పడతాయి	-11.0906
▁గవర్నరు	-11.0919
▁రద్దీ	-11.0922
▁వదుల	-11.0926
▁జన్మించ	-11.0931
▁చర్చించ	-11.0932
▁ఇటుకల	-11.0934
▁ఎన్నికైన	-11.0937
▁కూచిపూడి	-11.0944
▁కార్యక్రమాన్ని	-11.0944
▁సుగ్రీవ	-11.0944
▁గ్రహీత	-11.0944
▁పొటాషియం	-11.0955
▁ప్లాస్టిక్	-11.0966
▁తిరుగుతూ	-11.0968
▁ప్రాప్తి	-11.0973
▁బ్రౌన్	-11.0977
▁1,2	-11.0978
▁ఎన్నికయ్యారు	-11.0979
▁వాల్వు	-11.0988
▁Wiktionary	-11.0988
ెుక్క	-11.0989
▁సన్మాన	-11.0993
▁భజన	-11.0997
▁భీముని	-11.0998
శంకర	-11.1008
▁గాయకుడు	-11.1018
▁name	-11.1023
▁పోగొట్ట	-11.1026
▁మరోవైపు	-11.1028
▁చదివే	-11.1029
‘	-11.1033
ారంభ	-11.1041
TT	-11.1046
▁తదనంతర	-11.1054
▁వెయ్యి	-11.1066
▁కచేరీ	-11.1077
శిల్ప	-11.1079
▁హిట్లర్	-11.1089
సాగర	-11.1092
▁అలంకార	-11.11
వైశాల్య	-11.1108
▁పంచాయితీ	-11.111
శ్యామ	-11.1112
===	-11.1121
▁బతుకమ్మ	-11.1121
▁యూరోప్	-11.1121
ేసరికి	-11.1139
▁ఆవిష్కరించ	-11.1143
▁ఇస్లామిక్	-11.1144
▁ఏటియం	-11.1144
▁స్కూలు	-11.1144
▁ఏర్పడ్డాయి	-11.1148
▁ఉపనిషత్తు	-11.1155
▁సమైక్య	-11.1155
▁గులాబీ	-11.1155
▁సంసార	-11.1161
సామర్ధ్య	-11.1161
▁చైనీస్	-11.1166
▁మరుగుదొడ్ల	-11.1166
▁గుర్రం	-11.1167
ోత్తమ	-11.1168
▁జ్యోతిష	-11.1177
ప్రజల	-11.118
▁సరుకు	-11.1181
▁విరాట	-11.1185
▁ఇంగ్లండ్	-11.1188
▁చిరంజీవి	-11.1188
▁థామస్	-11.1188
▁అఖిల	-11.1188
▁ఉంటున్న	-11.1191
▁కోతలు	-11.1192
▁అనబడే	-11.1195
text	-11.1206
▁పరమాణువు	-11.1207
▁ఆదిలాబాదు	-11.1211
▁మాట్లాడుతూ	-11.122
▁కృష్ణమూర్తి	-11.122
▁బానిసత్వ	-11.1222
▁తీర్చిదిద్ద	-11.1222
▁గాంధార	-11.1231
▁పోలిష్	-11.1234
▁నటుడిగా	-11.1238
▁వృద్ధ	-11.1244
▁పార్లమెంట్	-11.1245
▁మనుగడ	-11.1245
▁సమేత	-11.127
TV	-11.1273
▁జ్వర	-11.1275
▁చాళుక్యుల	-11.1277
▁సార్వత్రిక	-11.1279
▁అర్జునుడి	-11.1293
▁సిరిసిల్ల	-11.1301
▁రూపాంతరం	-11.1301
▁ఇనుప	-11.1306
ుకొను	-11.1313
1,000	-11.1314
▁ప్రకట	-11.1315
▁పరుగుల	-11.1316
▁వివరాల	-11.1327
▁ప్రిన్స్	-11.1329
▁బౌద్ధమత	-11.133
▁పొద్దుతిరుగుడు	-11.1335
▁గుమ్మడి	-11.1335
▁స్పేస్	-11.1336
▁శతాబ్దానికి	-11.1336
కలిగి	-11.1338
చిహ్న	-11.1346
పోతూ	-11.1346
▁గన్నవరం	-11.1347
▁పునాది	-11.1347
▁అంతిమ	-11.1348
▁వెనక్కి	-11.1358
▁ఆభరణాల	-11.137
▁బయటపడ	-11.1371
▁సంహరించ	-11.1372
▁కేవలము	-11.1381
▁శివాజీ	-11.1381
ism	-11.1391
▁ఇద్దరి	-11.1393
▁దినోత్సవం	-11.1394
▁నియోజకవర్గ	-11.1396
లక్ష్మీ	-11.1411
▁కొలువు	-11.1412
గోపుర	-11.1415
▁వివాహమాడ	-11.1417
▁సభ్యత్వం	-11.142
కొరకు	-11.1424
▁కర్నాటక	-11.1427
▁గర్భాశయ	-11.145
▁సమీకరణ	-11.1451
▁టైమ్స్	-11.1453
▁రకము	-11.1461
▁ఆంగ్లేయుల	-11.1462
ాదిత్య	-11.1469
▁ముట్టడి	-11.1481
▁విత్తనం	-11.1485
▁దొరుకు	-11.1487
▁సదస్సు	-11.1496
▁అవుట్	-11.1499
▁విడుదలైంది	-11.15
▁గమ్య	-11.1501
ix	-11.1504
▁ఆమదాలవలస	-11.1519
▁ఆవశ్యక	-11.1531
▁స్థానము	-11.1535
▁భరించ	-11.1537
వర్ధన	-11.1538
శాతం	-11.155
▁నివసిస్త	-11.1561
▁పునరుద్ధరణ	-11.1578
▁మార్కాపురం	-11.1589
▁నరేంద్ర	-11.1589
▁సికింద్రాబాద్	-11.1601
▁మృదు	-11.1601
▁సెలవు	-11.1603
▁అంగీకర	-11.1604
▁హార్మోన	-11.1609
▁ముత్యాల	-11.1619
▁దాల్చ	-11.1622
▁దరఖాస్తు	-11.1624
▁అవలంబించ	-11.1624
▁సమన్వయ	-11.1624
▁భద్రపరచ	-11.1626
▁పార్వతి	-11.1627
మైలవరం	-11.1629
▁కుతుబ్	-11.1636
▁స్పష్టమైన	-11.1637
▁కర్బన	-11.1639
▁అభివర్ణించ	-11.1648
▁భావించబడుతుంది	-11.1667
▁అతుక	-11.1676
▁మిత్రుల	-11.1685
▁బీడీలు	-11.1695
▁గడప	-11.17
▁మధ్యయుగ	-11.1707
▁లోతైన	-11.1719
▁మహిమ	-11.1721
ార్కట్	-11.173
▁మరియూ	-11.1734
▁నిరుద్యోగ	-11.1754
▁మనుమ	-11.1761
▁వెర్షన్	-11.1766
▁బీహార్	-11.1766
▁విత్తుట	-11.1767
▁కూటమి	-11.1778
తరువాత	-11.1778
▁అద్దె	-11.1787
▁సిస్టమ్	-11.179
▁ఆకాశవాణి	-11.1791
▁కొనసాగుతున్న	-11.1793
▁వారసుల	-11.1796
▁థియ	-11.1799
▁ధారావాహిక	-11.1802
▁సరస్వతీ	-11.1802
▁నిశ్చయించ	-11.1804
▁అనుచరుల	-11.1805
▁సందర్శకుల	-11.1814
▁మహాసభ	-11.1814
▁ఎన్నుకో	-11.1821
▁ఆర్మేనియన్	-11.1826
▁అహింస	-11.1826
ాశ్రమ	-11.1855
ection	-11.186
▁చురుకుగా	-11.1862
▁మధ్యాహ్న	-11.1862
▁గోల్కొండ	-11.1866
▁తెలిసింది	-11.187
▁ఇంజిన్	-11.1874
▁లభిస్తున్న	-11.1877
▁some	-11.188
▁విరుద్ధంగా	-11.1886
▁సాత్యకి	-11.1886
▁తరంగాల	-11.1899
▁ఆడపిల్ల	-11.19
▁ఎక్స	-11.1907
▁వానర	-11.1908
▁గ్రామపంచాయతి	-11.191
▁కామర్సు	-11.191
▁భాస్కర	-11.1915
▁హైకోర్టు	-11.1934
▁ప్రొడక్షన్	-11.1934
▁నైతిక	-11.1934
మెత్త	-11.1935
▁వీరభద్ర	-11.1937
ific	-11.1943
▁శల్య	-11.195
▁కార్యాచరణ	-11.1958
▁ప్రవర్తించ	-11.1959
▁పనిచేసాడు	-11.1971
▁తిక్కన	-11.1971
▁అడుగ	-11.1973
▁యాత్రికుల	-11.1976
▁పీడనం	-11.1976
ేషను	-11.1982
▁ధోరణి	-11.1983
▁వైదిక	-11.1989
▁జవాబు	-11.1995
▁పునర్నిర్మాణ	-11.1995
▁ఫేస్	-11.1997
▁కమాండ	-11.2002
స్తుంటాడు	-11.2003
సాహెబ్	-11.2007
▁దేవస్థానం	-11.2017
▁ఇంజనీర్	-11.2019
▁పంజాబు	-11.2019
▁ఛైర్మన్	-11.2031
▁నందిగామ	-11.2032
▁రూపుదిద్ద	-11.2044
▁సుగంధ	-11.2044
ోన్నత	-11.2054
▁ఆల్బం	-11.2056
▁కండరాల	-11.2057
▁అధీనంలో	-11.2068
▁ఎలక్ట్రాన్	-11.2068
▁స్క్రీన్	-11.2068
▁కాల్పుల	-11.2075
▁పోషిస్త	-11.2079
▁ముగిసింది	-11.2105
▁రెవిన్యూ	-11.2105
▁స్థూప	-11.2105
▁మాధ్యమం	-11.2105
▁ట్రాఫిక్	-11.2117
▁ఫెడరల్	-11.213
▁ఇంద్రియ	-11.213
▁ఒకటైన	-11.2132
▁పరిగణిస్తారు	-11.2134
▁ఇతిహాస	-11.2142
▁నిజామాబాదు	-11.2142
▁పిఠాపురం	-11.2154
▁రిచర్డ్	-11.2154
మవుతాయి	-11.2162
▁మొట్టమొదట	-11.2164
▁కానోపస్	-11.2167
▁ఎగుమతుల	-11.2167
▁ముగిసిన	-11.2167
▁అలంకరణ	-11.2167
▁విద్యుద	-11.2169
▁న్యాయమూర్తి	-11.2174
▁పక్షం	-11.2175
▁సామూహిక	-11.2179
▁తెలిపింది	-11.2179
2,000	-11.2187
▁పెదబయలు	-11.2191
▁బూడిద	-11.2192
▁విశ్వసించ	-11.2198
వినియోగ	-11.2199
▁మినహాయింపు	-11.2204
▁సుదూర	-11.2204
▁సర్వీస్	-11.2204
▁స్థిరపడ్డారు	-11.2206
▁లెక్కించ	-11.2209
▁బడ్జెట్	-11.2216
▁రామగుండం	-11.2216
▁రాజీవ్	-11.2217
▁కల్యాణ	-11.2217
▁పిమ్మట	-11.2217
▁పరమాత్మ	-11.2221
▁దక్షణాన	-11.2229
▁నిరాశ	-11.2231
ుతుండగా	-11.2235
▁డైరెక్ట	-11.2246
▁కళాకారుడ	-11.2248
▁శ్రీకాళహస్తి	-11.2254
▁శీతల	-11.2254
▁అయోధ్య	-11.2254
▁తలసరి	-11.2254
▁స్థాపక	-11.2268
ుకుంటా	-11.2275
▁ఎదుట	-11.2279
▁sub	-11.2285
▁తీరప్రాంత	-11.2286
▁పటేల్	-11.2292
▁వ్యాఖ్యానించ	-11.2296
▁మిర్యాలగూడ	-11.2304
▁ప్యాలెస్	-11.2305
▁బసవ	-11.2321
▁ధ్వంసం	-11.2329
▁టెన్నిస్	-11.2329
▁తాండూరు	-11.2329
ఫలితాల	-11.2331
;---	-11.2342
▁టోర్నమెంట్	-11.2342
▁హైదర్	-11.2349
▁పరాజయం	-11.2367
▁పరిపూర్ణ	-11.2367
▁ఆరాధించ	-11.2367
▁ఫెస్టివల్	-11.2379
▁గనుక	-11.2385
▁ఎలక్ట్రో	-11.2392
▁కళింగ	-11.2394
▁సమర్ప	-11.24
కలాప	-11.2403
▁మోటార్	-11.2411
▁ట్రేడ్	-11.2418
▁రాయబార	-11.2421
▁స్వీకర	-11.2455
▁పీపుల్స్	-11.2456
ినేని	-11.2461
▁తలుపు	-11.2468
▁స్టేడియం	-11.2468
▁చాళుక్య	-11.2471
▁ఆత్మహత్య	-11.2481
▁చుట్టుపక్కల	-11.2481
▁పీల్చ	-11.2484
▁దోహదపడ	-11.2491
▁బిగించ	-11.25
మౌతుంది	-11.2504
▁గొలుసు	-11.2507
▁ఫలితాలను	-11.2508
▁అశ్వత్థామ	-11.252
▁ఉత్తేజ	-11.252
▁హనుమాన్	-11.252
▁ఘాట్	-11.2524
నగర్లోనూ	-11.253
▁ఇబ్రహీంపట్నం	-11.2533
▁నాయకత్వ	-11.2535
▁టెస్టు	-11.2538
▁నడవ	-11.254
▁చెరుకు	-11.2541
▁సార్వభౌమ	-11.2545
▁వేషం	-11.2548
▁వ్యవధి	-11.2558
▁మునగ	-11.2559
ఉత్తర	-11.2572
▁పేదరికం	-11.2584
▁పాదరస	-11.2591
ward	-11.2592
▁శనివారం	-11.2597
▁వదిలే	-11.2598
గ్రాడ్యుయేట్	-11.261
▁స్పియర్	-11.261
▁తీసుకోవడం	-11.2613
▁ద్రవీభవన	-11.2623
▁ప్రాబల్య	-11.2636
▁దర్శకుడిగా	-11.264
▁పెంపొందించ	-11.2649
▁చెబుతుంది	-11.2652
▁బొబ్బిలి	-11.2662
▁ప్రార్థించ	-11.2678
▁బలగాల	-11.2684
▁This	-11.2688
▁నైరుతి	-11.2701
▁సాపేక్ష	-11.2701
▁పరంపర	-11.2702
సాహిత్య	-11.2702
▁ప్రచుర	-11.2704
▁సిద్దాంత	-11.2705
▁సన్నిధి	-11.2714
▁ప్రదేశాన్ని	-11.2715
▁పరాక్రమ	-11.2719
▁వెంబడి	-11.2719
▁శ్లోకాల	-11.2728
▁దినపత్రిక	-11.2728
▁భగవంతుడ	-11.2729
▁సభ్యుడిగా	-11.2731
▁వన్డే	-11.2741
▁గెలుచుకుంది	-11.2753
▁క్రిస్టియన్	-11.2755
▁మెరుగైన	-11.2766
▁దౌత్య	-11.2766
▁ఋగ్వేద	-11.278
▁విస్తీర్ణము	-11.278
అవనిగడ్డ	-11.278
▁నరసింహారావు	-11.2781
వ్యవసాయ	-11.2782
▁ప్రీమియర్	-11.2793
▁పట్టభద్ర	-11.2797
తెలుగు	-11.2811
▁తీసుకువచ్చి	-11.2813
▁ఏకాదశి	-11.2819
▁మనస్తత్వ	-11.2819
▁ఉంటుంద	-11.2832
▁అన్వేషణ	-11.2832
▁బహిష్కరించ	-11.2832
▁ప్రశ్నించ	-11.2836
▁స్విట్జర్లాండ్	-11.2846
ాగ్ని	-11.2861
ావసరాల	-11.2871
▁కవరేజి	-11.2885
▁వ్యాయామ	-11.2886
▁ధృవ	-11.2886
▁ఉపకరణాల	-11.289
▁వాయిస్	-11.2891
round	-11.2891
▁గరుడ	-11.2893
▁అమలాపురం	-11.2899
▁జయంతి	-11.2903
▁మొత్తాన్ని	-11.2912
పబ్లిక్	-11.2914
▁హరిశ్చంద్ర	-11.2925
▁కమ్యూనిస్ట్	-11.2925
▁నగదు	-11.2926
▁పాఠకుల	-11.293
▁చూస్తున్న	-11.2931
▁హుస్సేన్	-11.2939
▁నాణేల	-11.2939
విషయ	-11.2948
▁సరికొత్త	-11.2952
▁లఘు	-11.2954
▁ప్రభాకర	-11.2957
▁కనీస	-11.2962
భ్యాస	-11.2963
▁తెలుస్తున్నది	-11.2966
▁ముంబాయి	-11.2966
▁మొదలుపెట్టి	-11.2978
▁శిల్పకళ	-11.2978
▁లూయిస్	-11.2979
▁సంకీర్ణ	-11.2992
▁పనిచేస్తూ	-11.2992
▁క్వీన్	-11.2993
▁అహ్మద్	-11.3019
▁జగ్గయ్యపేట	-11.3019
▁శ్రేణుల	-11.3019
▁నిలిచారు	-11.3019
వాయువు	-11.3026
▁1,0	-11.3026
▁సంఘర్షణ	-11.3033
▁అక్బర్	-11.3047
▁ఆదరించ	-11.3048
▁ఖడ్గ	-11.305
▁ఆధిపత్య	-11.3063
▁BBC	-11.3073
▁నిలిచాడు	-11.3073
▁దుర్యోధన	-11.3087
▁సోడియం	-11.309
▁పాత్రికేయ	-11.3101
▁త్వరలో	-11.3101
▁అభయ	-11.3109
▁అంబేద్కర్	-11.3114
▁two	-11.3128
▁సువాసన	-11.3128
▁అంగీకార	-11.3155
▁బహిర్గత	-11.3169
▁ఇబ్న్	-11.3169
▁తర్క	-11.317
▁గార్డెన్	-11.317
▁కవచ	-11.3173
▁రక్షక	-11.3174
▁తెరిచి	-11.3176
▁ఎల్లప్పుడూ	-11.3183
▁మద్రాస్	-11.3183
▁వైమానిక	-11.3196
▁అవకాశము	-11.3196
ావస్థ	-11.3199
ప్రారంభించబడింది	-11.3209
▁రోడ్దురవాణా	-11.321
▁గ్రెగొర	-11.3211
▁ఇంటిపేరు	-11.3213
▁బెజవాడ	-11.3224
▁మార్టిన్	-11.3224
▁నివేదించ	-11.3226
▁అమ్మోనియం	-11.3238
▁ఎంచుకున్న	-11.3249
▁గావించ	-11.3249
▁ధృతరాష్ట్ర	-11.3251
▁స్కాట్లాండ్	-11.3251
▁జోసెఫ్	-11.3251
▁ఖైదీ	-11.3251
▁వినుకొండ	-11.3252
▁నలుపు	-11.3256
▁ఎదిగి	-11.327
▁సంప్రదించ	-11.3279
స్వామ్య	-11.3293
▁బహదూర్	-11.3293
▁ఆశించ	-11.3299
▁అప్పుడప్పుడు	-11.3307
▁వాల్మీకి	-11.3307
▁సమాధుల	-11.3307
అలోపతీ	-11.3307
▁కాగజ్	-11.3307
▁పిదప	-11.3307
ోత్తర	-11.3311
▁నిర్మూలన	-11.3321
▁అస్థిర	-11.3321
▁వైఎస్ఆర్	-11.3321
▁భద్రాద్రి	-11.3321
▁అభ్యర్థుల	-11.3334
▁లోకసభ	-11.3335
▁ఐరిష్	-11.3335
▁ద్రౌపది	-11.3348
▁కలెక్టర్	-11.3348
▁కార్టూన్	-11.3348
దొడ్డి	-11.3352
ఫిబ్రవరి	-11.3359
▁ఇండోనేషియా	-11.3362
▁చక్కటి	-11.3362
▁ప్రాముఖ్య	-11.3363
▁మరణానంతరం	-11.3364
▁మృత్యు	-11.3364
▁అగస్త్య	-11.3376
▁నడుస్తుంది	-11.3376
సాక్షాత్	-11.3381
ప్రతిష్ఠ	-11.3389
▁ఇస్లామ	-11.3389
▁ఉభయ	-11.3391
▁పొరపాటు	-11.3393
▁ప్రెసిడెన్సీ	-11.3404
▁సంవత్సరాంతమున	-11.3404
▁చిలుక	-11.3417
▁పతకాల	-11.3424
▁ఒకానొక	-11.3432
గలిగారు	-11.3449
▁చికాగో	-11.3461
▁ఖచ్చిత	-11.3461
▁స్కోరు	-11.3462
▁గీస	-11.3467
▁మండపం	-11.3471
▁అచ్యుత	-11.3475
▁వివక్ష	-11.3479
▁సిక్ఖు	-11.3489
▁పదున	-11.3489
▁మొదలగునవి	-11.3489
▁మరుసటి	-11.3503
▁ఎదుర్కో	-11.3503
▁స్థానానికి	-11.3505
▁గడుప	-11.3514
▁ఆర్గనైజేషన్	-11.3517
▁కాల్షియం	-11.3517
▁కనిపిస్తున్న	-11.354
▁Windows	-11.3545
▁వియత్నాం	-11.3545
▁ఎంతగానో	-11.3546
▁కెప్టెన్	-11.356
గలిగాడు	-11.356
▁సేవలందించ	-11.3561
▁సలహాదారు	-11.3563
▁త్రిభుజ	-11.3574
▁నైవేద్య	-11.3574
▁జోక్యం	-11.3574
ార్జున	-11.3581
▁ఇతివృత్త	-11.3588
▁హాస్పిటల్	-11.3588
▁మధ్యప్రదేశ్	-11.3588
▁ఇంజను	-11.359
▁ఫ్రాన్సు	-11.3617
▁first	-11.3617
▁పిక్చర్స్	-11.3617
▁వెలసిన	-11.3619
▁వార్షికోత్సవ	-11.363
▁సవాలు	-11.3635
▁మనోహర	-11.3637
▁ప్రతిస్పందన	-11.3645
▁నిర్మింప	-11.365
▁మేనమామ	-11.366
▁గణతంత్ర	-11.3662
▁గూగుల్	-11.3674
▁ఋతువు	-11.3703
▁దుగ్గిరాల	-11.3703
▁ఆరోపించ	-11.3703
▁దసరా	-11.3704
▁పతకం	-11.3704
▁విస్తార	-11.3712
▁క్రెడిట్	-11.3718
▁స్టిట్యూట్	-11.3718
▁మదీనా	-11.3718
▁పిలిచి	-11.3721
▁తేల్చ	-11.3726
▁స్పందించ	-11.3732
▁సుయోధనుడు	-11.3746
▁ప్రయాణికుల	-11.3752
▁ఎగుర	-11.3752
▁దోపిడీ	-11.3761
▁ఫార్ములా	-11.3776
▁అప్పారావు	-11.3777
శ్రేణి	-11.3778
▁మూడింట	-11.3792
▁సరసన	-11.3799
▁బాలీవుడ్	-11.3805
ానుసారం	-11.3807
▁లభిస్తాయి	-11.3819
▁వ్యంగ్య	-11.3819
▁శుక్రవారం	-11.3834
▁under	-11.3849
▁ద్వీపకల్పం	-11.3849
▁work	-11.3863
▁పడమటి	-11.3863
▁ద్వేష	-11.3865
▁చిరుత	-11.3878
▁ఆదోని	-11.3879
ోపాధ్యాయ	-11.3893
▁ఐఐటీ	-11.3893
▁ఎడ్వర్డ్	-11.3893
▁ఇస్రో	-11.3894
▁గొడవ	-11.3894
హృద	-11.3894
▁అలెగ్జాండర్	-11.3907
▁పోర్చుగీస్	-11.3907
▁ప్రేరేపించ	-11.3907
▁వైఫల్య	-11.3907
▁అన్యాయ	-11.3908
▁విషాద	-11.391
▁స్టోన్	-11.3911
▁ఉద్గార	-11.3914
▁జలాశయ	-11.3937
▁దట్టమైన	-11.3937
▁సోమవారం	-11.3952
▁బైబిల్	-11.3967
▁బిజినెస్	-11.3981
▁పరిశీలిస్త	-11.3982
▁నివాసితుల	-11.3993
▁పౌర్ణమి	-11.3996
▁పైకప్పు	-11.3996
▁విధ్వంస	-11.4011
ాధిపత	-11.4014
▁సామర్ధ్యం	-11.4018
▁వైఖరి	-11.4026
▁జగన్నాథ	-11.4027
▁అందజేస	-11.4033
▁జరిమానా	-11.4041
▁విచ్ఛిన్న	-11.4041
▁ఆతిథ్య	-11.4041
▁భంగిమ	-11.4041
▁కవాట	-11.4042
▁సంకీర్తన	-11.4056
▁గాంచిన	-11.4058
▁అవకాశాల	-11.4066
▁డెవలప్	-11.4071
▁పంచాయతి	-11.4071
▁term	-11.4071
▁సంక్రాంతి	-11.4086
▁ఇరాక్	-11.4091
▁వైకుంఠ	-11.4101
▁ట్యూబు	-11.4101
మవుతున్న	-11.4108
▁అవార్డ్	-11.4117
ద్రోహ	-11.4119
▁బళ్ళారి	-11.4131
▁సౌలభ్య	-11.4131
▁ముఖర్జీ	-11.4131
▁నియోజక	-11.4145
▁హనుమంతుని	-11.4146
▁యాంటీ	-11.4146
▁temple	-11.4161
▁జోర్డాన్	-11.4161
▁సర్వసాధారణ	-11.4161
▁మహమ్మదు	-11.4161
▁సంచలన	-11.4161
▁సయ్యద్	-11.4161
▁సవరించ	-11.4166
▁సైన్సు	-11.4176
పెడతా	-11.4192
▁విలసిల్ల	-11.4207
▁స్వాతంత్య్ర	-11.4237
▁నీటిపారుదల	-11.4237
▁బ్రతుక	-11.4242
▁వెతుక	-11.4246
స్వాతంత్ర్యోద్యమ	-11.4247
▁ముగుస్తుంది	-11.4252
▁దొరికిన	-11.4253
ాక్షర	-11.4258
▁దక్షిణాసియా	-11.4267
▁పురోగతి	-11.4267
▁నడుస్తున్న	-11.4273
▁వారసుడ	-11.4278
▁రాధాకృష్ణ	-11.4283
▁త్వరిత	-11.4283
▁అణిచి	-11.4283
▁స్మిత్	-11.4283
▁మేడ్చల్	-11.4298
▁క్వార్టర్	-11.4298
▁ఏర్పాట్లు	-11.4298
▁నార్వేజియన్	-11.4313
▁శూన్య	-11.4313
మాధ్యమిక	-11.4324
▁నాస్తిక	-11.4329
▁హెల్త్	-11.4329
▁అర్చక	-11.4334
▁లైబ్రరీ	-11.4344
▁స్వాధీన	-11.4361
క్సైడు	-11.4375
సరోవర	-11.4382
▁వధించ	-11.4387
▁అత్యల్ప	-11.439
4,000	-11.4401
▁గంధర్వ	-11.4406
▁సల్ఫేట్	-11.4406
▁సుపరిచిత	-11.4406
▁యాదాద్రి	-11.4421
▁అరబిక్	-11.4421
▁ఓడరేవు	-11.4421
▁అద్వైత	-11.4437
▁చుట్టుప్రక్కల	-11.4437
▁క్షార	-11.4439
▁పలాస	-11.4441
▁తొందర	-11.4449
▁భగవద్గీత	-11.4452
www	-11.4452
▁బాస్కెట్	-11.4468
▁చెప్తారు	-11.4468
▁అర్జెంటీనా	-11.4484
▁క్షిపణుల	-11.4484
▁మాండలిక	-11.4484
▁place	-11.4484
▁కుంకుమ	-11.4486
▁అందుకని	-11.45
▁ఆటగాళ్ళ	-11.4509
▁ఈస్టిండియా	-11.4515
▁వాయించ	-11.4521
▁పద్మనాభ	-11.4531
▁రబ్బరు	-11.4531
▁చిత్రలేఖన	-11.4531
రాశుల	-11.4541
▁కొన్నాళ్ళ	-11.4548
▁కంప్యూటరు	-11.4562
▁ప్రెసిడెంట్	-11.4562
▁శ్రవణ	-11.4562
▁రాచరిక	-11.4578
▁రుసుము	-11.458
▁IBM	-11.4594
▁వెనుజులా	-11.4594
▁కార్యక్రమానికి	-11.4594
▁జమ్మూ	-11.4594
▁సుప్రీం	-11.4609
▁కాల్సియం	-11.4609
▁మరియొక	-11.4623
▁ఋషుల	-11.4625
▁జర్నల్	-11.4626
వ్యాపారాత్మక	-11.4629
▁కూతుర	-11.4635
▁పునర్నిర్మించ	-11.4641
▁మిషనరీ	-11.4641
▁రిజర్వ్	-11.4641
▁అంగుళాల	-11.4641
▁తిలక్	-11.4658
▁చేబ్రోలు	-11.4673
▁నవాబ్	-11.4673
▁నమస్కరించ	-11.4689
▁అస్సాం	-11.4691
▁వికాస	-11.4698
▁ఎలిజబెత్	-11.4705
▁కథానాయిక	-11.4705
▁తల్లితండ్రుల	-11.4705
▁ద్రావిడ	-11.4705
▁డెన్మార్క్	-11.4721
▁విడాకుల	-11.4721
వ్యాస	-11.4724
▁ఆటగాడు	-11.4737
▁మక్కువ	-11.4769
▁after	-11.4785
నిచ్చింది	-11.4786
▁రెక్కల	-11.479
▁భైరవ	-11.4801
▁కైలాస	-11.4805
▁అందజేస్త	-11.4811
▁టెక్కలి	-11.4849
▁షేర్	-11.4852
▁నవీన	-11.4865
▁ఉపశమన	-11.4866
▁మొఘలు	-11.4866
▁నందమూరి	-11.4882
▁పథకాల	-11.4884
ైజేషన్	-11.4885
▁సహకరిస్త	-11.4914
▁సావిత్రి	-11.4914
▁shall	-11.4914
▁డెల్టా	-11.4914
▁పరోక్ష	-11.4915
▁పాండిత్య	-11.4915
▁దారుణ	-11.4916
▁వికారాబాదు	-11.4931
▁ఆముదం	-11.4931
▁పాతాళ	-11.4936
▁ట్రెంచ్	-11.4947
▁సెర్బియా	-11.4947
▁బేసిన్	-11.4947
▁తేలింది	-11.4948
సహాయ	-11.4957
▁ఫిర్యాదు	-11.4963
▁ఉత్తరప్రదేశ్	-11.4963
▁తటస్థ	-11.4964
▁సిఫార్సు	-11.498
▁ట్రాన్స	-11.4988
▁నిశ్చయ	-11.4993
▁ఉపసంహరించ	-11.5013
▁CPU	-11.5013
▁ఏర్పరుస్త	-11.5013
▁కొమరంభీం	-11.5029
▁మరాఠా	-11.5029
పండిత	-11.5031
▁బాధితుల	-11.5034
▁సృజనాత్మక	-11.5046
▁సిడ్నీ	-11.5046
▁years	-11.5062
▁కీటకాల	-11.5064
వాహిక	-11.5064
▁ఉత్తర్వు	-11.5075
▁నిరంకుశ	-11.5079
▁స్వచ్ఛమైన	-11.5079
▁లాహోర్	-11.5079
▁డబ్బింగ్	-11.5095
▁పెట్రోలియం	-11.5095
▁పేరొందిన	-11.5095
▁సెకండరీ	-11.5095
▁సోమాలియా	-11.5095
ద్విబంధ	-11.5105
▁అదృశ్య	-11.5112
▁జయశంకర్	-11.5112
▁డిపార్ట్	-11.5112
▁సాయిబాబా	-11.5112
▁సమక్షంలో	-11.5112
▁నిర్మూలించ	-11.5112
▁అలాస్కా	-11.5112
▁గ్లూకోజ్	-11.5129
▁గ్లోబల్	-11.5129
▁విరాళాల	-11.5129
▁యెడల	-11.5129
▁యార్క్	-11.5129
మండప	-11.5144
▁ప్రావిన్సు	-11.5145
▁లభ్యమవ	-11.5148
▁మైనారిటీ	-11.5162
▁యురేపియన్	-11.5162
▁మదనపల్లె	-11.5162
▁సంపుటి	-11.5162
▁సైకిల్	-11.5163
▁సంస్కార	-11.5166
▁ఎలక్ట్రిక్	-11.5179
▁బాక్టీరియా	-11.5179
▁అశ్వమేధ	-11.5179
▁భాగస్వాముల	-11.5195
▁సుమతీ	-11.5196
▁కేంద్రీకృతమై	-11.5196
▁సరోజ	-11.5196
3,000	-11.5196
▁information	-11.5212
▁పరశురామ	-11.5212
▁సోయాబీన్	-11.5212
▁ఇంటర్వ్యూ	-11.5212
▁సైప్రస్	-11.5212
ద్వీప	-11.5223
▁అదృష్ట	-11.5229
▁ఇంకనూ	-11.5229
▁మున్నగు	-11.5246
▁నావికా	-11.5247
సుందర	-11.5259
▁ఛాయాచిత్ర	-11.5263
▁షూటింగ్	-11.5263
ుకొనుటకు	-11.5264
కపోవచ్చు	-11.5274
▁బ్రహ్మాండ	-11.528
▁మొదలుపెట్టారు	-11.5296
గ్రాఫిక్	-11.5307
▁వరాహ	-11.5317
▁నిర్వర్తించ	-11.5331
▁ఐసోటోపు	-11.5347
▁భైంసా	-11.5347
▁విండోస్	-11.5381
▁నశించ	-11.5383
▁ప్రసన్న	-11.5389
▁అసిస్టెంట్	-11.5399
▁మాంచెస్టర్	-11.5399
▁శిఖరాల	-11.5416
▁కర్తవ్య	-11.5416
▁ఊపిరితిత్తుల	-11.5433
▁అమాయక	-11.5433
▁విచ్చేస	-11.5441
▁తప్పించుకు	-11.5449
▁కాంక్రీటు	-11.545
▁కాలక్రమేణా	-11.545
▁చిలకలూరిపేట	-11.545
▁రిజిస్ట్రేషన్	-11.545
▁లౌకిక	-11.545
▁స్పటిక	-11.545
▁క్రమశిక్షణ	-11.5467
▁చెలరేగ	-11.5467
▁యూరప్	-11.5467
చేసుకున్న	-11.547
▁ఆక్సీకరణ	-11.5484
▁అధినేత	-11.5485
మొత్తం	-11.5499
▁కాళిదాసు	-11.5502
▁రచయిత్రి	-11.5502
పరిమాణ	-11.5515
▁కట్టుబడి	-11.5517
▁తృప్తి	-11.5519
▁ఆవిర్భావ	-11.5519
▁ఆర్మూర్	-11.5519
▁వినాశ	-11.5533
▁వీక్షించ	-11.5559
నక్షత్ర	-11.5563
▁topic	-11.5571
▁గవర్న	-11.5587
▁సామ్యవాద	-11.5589
▁సమ్మె	-11.5589
▁సియాటెల్	-11.5606
పదార్థాల	-11.5625
▁చోదక	-11.5659
▁అసాధ్య	-11.5659
▁కూలీల	-11.5676
▁డాక్టరేట్	-11.5694
▁పునరుజ్జీవ	-11.5694
▁వివేకానంద	-11.5694
▁నియామక	-11.5694
▁కాశ్మీర	-11.5705
▁అజ్ఞాత	-11.5711
▁వాజపేయి	-11.5711
▁దిగుబడి	-11.5712
▁గల్ఫ్	-11.5712
▁చాంపియన్	-11.5764
▁ఏమాత్రం	-11.5764
▁తణుకు	-11.5764
▁వాయవ్య	-11.5765
▁కొలువై	-11.5772
▁కిర్గిజిస్తాన్	-11.58
▁జహీరాబాద్	-11.58
▁కెన్యా	-11.5801
▁గడియార	-11.5802
▁కలిగివుండ	-11.5804
▁ప్రావీణ్య	-11.5836
▁జనసాంద్రత	-11.5854
▁సెంచరీ	-11.5854
▁భగత్	-11.5854
ుకొంది	-11.5872
▁నెరవేర్చ	-11.5872
▁నెయ్యి	-11.5872
▁వర్షాకాల	-11.5878
▁సోషల్	-11.589
▁విరమించ	-11.589
ానంతర	-11.5902
▁సెక్యూరిటీ	-11.5907
▁ఎందుక	-11.592
▁పార్లమెంటరీ	-11.5944
▁స్టీఫెన్	-11.5944
▁మధుమేహ	-11.5944
▁గురువారం	-11.5944
▁షరతు	-11.5945
ఆధారిత	-11.5945
▁పొడిగించ	-11.5947
▁ఈజిప్ట్	-11.5962
▁ముంబయి	-11.5962
▁ఉంగుటూరు	-11.598
▁మహబూబాబాద్	-11.598
▁శ్మశాన	-11.598
▁వారణాసి	-11.598
పెనమలూరు	-11.598
▁ప్రోగ్రాం	-11.598
background	-11.5998
ఊ	-11.6319
•	-11.6589
ఞ	-12.0275
ఔ	-13.0481
·	-13.9943
