<unk>	0
<s>	0
</s>	0
.	-2.61554
,	-3.28002
▁	-4.35334
▁నుండి	-4.65648
▁కి	-4.67835
లో	-4.76952
▁ఉన్నాయి	-4.86437
▁మీ	-4.93996
▁ఉంది	-4.96224
ం	-5.00223
▁గ్రామం	-5.03387
▁దూరంలో	-5.09871
▁10	-5.20756
▁ఈ	-5.25822
ను	-5.29332
లు	-5.3244
▁గ్రామంలో	-5.36617
ని	-5.46737
▁మరియు	-5.50841
▁5	-5.56132
గా	-5.58073
కు	-5.61032
ల	-5.63221
▁కేంద్రం	-5.6903
▁సమీప	-5.73452
ు	-5.74235
న	-5.76124
▁ఒక	-5.77746
స్	-5.83625
ి	-5.91656
▁ఆ	-5.93575
▁కూడా	-5.94605
వ	-5.99772
ము	-6.00477
▁ద్వారా	-6.00796
ా	-6.04725
్	-6.06998
▁సౌకర్యం	-6.1086
తో	-6.12048
▁లో	-6.16438
ారు	-6.17741
▁పైబడిన	-6.18668
కి	-6.20367
▁సంఖ్య	-6.20966
▁పాఠశాల	-6.21619
న్	-6.25328
ర్	-6.25552
▁కళాశాల	-6.25634
క	-6.26962
-	-6.27071
ాన్ని	-6.27548
▁"	-6.28898
ాలు	-6.29176
▁ప్రభుత్వ	-6.34309
▁జిల్లా	-6.34948
▁యొక్క	-6.39185
▁వ్యవస్థ	-6.40474
ే	-6.43483
ంగా	-6.43542
▁గ్రామానికి	-6.44464
▁లేదు	-6.45443
▁రహదారి	-6.45764
▁ఇది	-6.46969
ర	-6.48971
త	-6.49597
▁సరఫరా	-6.49832
ల్	-6.53067
:	-6.56079
▁ఉన్న	-6.57894
▁అ	-6.61046
▁ప్రాథమిక	-6.61176
క్	-6.6256
మ	-6.64213
▁ఆరోగ్య	-6.65103
వి	-6.68476
▁సామాజిక	-6.68859
ానికి	-6.69369
ీ	-6.71362
ది	-6.73358
ట్	-6.74579
▁లోపు	-6.75804
లను	-6.76874
ుడు	-6.76879
నే	-6.78472
"	-6.78537
▁తన	-6.7898
▁ప్రైవేటు	-6.79759
రి	-6.80143
▁వైద్య	-6.80754
▁కింది	-6.81021
ుల	-6.83485
▁ఎక్కువ	-6.84888
ాడు	-6.87048
▁పాటు	-6.87104
▁వి	-6.87139
;	-6.87187
రా	-6.87699
▁అని	-6.89261
మైన	-6.91504
▁నీరు	-6.95354
గ	-6.95858
▁కంటే	-6.95992
లా	-6.96434
s	-6.96945
▁విద్యా	-6.97142
▁ఇతర	-6.97157
▁/	-6.9767
▁-	-6.97809
▁వ్యవసాయ	-6.99717
స	-6.99852
రు	-7.00192
ప	-7.00298
ిన	-7.02113
ట	-7.02739
ాల	-7.0276
▁ప్రధాన	-7.04059
▁వ	-7.04782
▁కు	-7.05794
డ్	-7.05982
▁న	-7.06556
▁కోడ్	-7.07383
▁బ్యాంకు	-7.07914
▁చెందిన	-7.07941
ద	-7.08073
నా	-7.08206
▁తరువాత	-7.08416
▁ఉన్నారు	-7.08853
▁విద్యుత్	-7.09144
డ	-7.09145
ింది	-7.10257
▁అనే	-7.10626
▁జనగణన	-7.1086
లి	-7.10915
▁ఆసుపత్రి	-7.11436
▁వాణిజ్య	-7.11767
▁పబ్లిక్	-7.1194
▁వారం	-7.12748
ంలో	-7.13084
▁పథకం	-7.13156
ులు	-7.13204
డం	-7.13637
▁ఫోన్	-7.13737
▁లేదా	-7.13759
▁ప్రకారం	-7.13938
య	-7.14261
▁షెడ్యూల్డ	-7.14345
▁గంటల	-7.16064
లోనూ	-7.16291
▁సినిమా	-7.16423
▁భారత	-7.17081
లోను	-7.17102
▁ఒకటి	-7.17529
▁ఆఫీసు	-7.17935
▁కోసం	-7.18208
▁రెండు	-7.1837
▁స్టేషన్	-7.18599
పు	-7.18784
▁పోస్టాఫీసు	-7.19334
▁బి	-7.2009
సి	-7.2039
▁సంస్థ	-7.22062
▁వైద్యశాల	-7.22283
▁7	-7.2387
▁·	-7.24227
▁ఆయన	-7.24699
ాయి	-7.24997
డు	-7.25144
▁అభివృద్ధి	-7.26061
▁ఎ	-7.27453
▁వ్యవసాయానికి	-7.28034
ాలను	-7.28237
▁2	-7.28474
పై	-7.29078
▁రోడ్లు	-7.30286
డి	-7.3045
▁క	-7.31432
లలో	-7.32428
▁1	-7.32693
▁the	-7.33858
మ్	-7.34072
▁జాతీయ	-7.34412
వా	-7.34484
మా	-7.34691
మి	-7.3496
▁తిరిగి	-7.35244
▁ఉప	-7.35519
▁గా	-7.3569
టి	-7.35742
▁డిగ్రీ	-7.35858
▁నుంచి	-7.36041
▁లు	-7.36788
▁ను	-7.3694
▁రాష్ట్ర	-7.38055
▁మ	-7.39534
▁ఏ	-7.40294
లకు	-7.40667
▁కా	-7.41005
▁ని	-7.41188
ూ	-7.4119
డానికి	-7.41259
జ్	-7.41502
▁విధంగా	-7.42244
▁3	-7.42703
▁ఉంటుంది	-7.42972
▁18	-7.43336
లోని	-7.43339
▁వారి	-7.43798
▁ఇ	-7.43987
▁మధ్య	-7.45137
▁జరుగుతోంది	-7.45366
▁రైల్వే	-7.4549
▁చాలా	-7.45633
▁కొన్ని	-7.45938
▁టి	-7.46902
▁ప్రత్యేక	-7.47436
/	-7.48568
▁ప	-7.49228
▁ఉత్పత్తి	-7.50318
▁లోని	-7.5035
▁ఏడాది	-7.50537
రీ	-7.51341
▁వంటి	-7.51413
▁కలిగి	-7.51456
▁పెద్ద	-7.51722
▁భూ	-7.53534
నీ	-7.53857
కా	-7.54078
▁అనేక	-7.54609
▁స	-7.54943
▁మురుగునీటి	-7.55598
▁అందుతుంది	-7.55825
▁మా	-7.55852
న్న	-7.5593
▁నా	-7.56569
ప్	-7.57046
▁కుటుంబ	-7.57105
తి	-7.57392
▁వరకు	-7.57559
▁పొడుగునా	-7.57695
▁నీటి	-7.57702
'	-7.58468
n	-7.60686
త్	-7.60907
▁బస్సు	-7.61422
▁4	-7.61793
▁వారు	-7.62173
▁పేరు	-7.63291
సు	-7.63803
▁శ్రీ	-7.64289
▁2011	-7.64989
▁వృత్తి	-7.65324
▁తెలుగు	-7.65559
▁of	-7.65881
▁బ	-7.66399
▁శిక్షణ	-7.66838
▁మండల	-7.67089
▁అండ్	-7.67275
▁'	-7.67308
మ్మ	-7.67384
చ	-7.67509
గ్	-7.67801
▁పౌర	-7.68003
:.	-7.68101
▁6	-7.68221
దు	-7.68403
▁జరుగుతుంది	-7.68544
యా	-7.68546
▁సంత	-7.68573
ల్లో	-7.69238
▁సంఘం	-7.69262
▁ఆమె	-7.6942
▁కొరకు	-7.69955
▁పి	-7.70201
▁విస్తరించి	-7.70732
▁నమోదు	-7.70832
▁ప్రవహిస్తుంది	-7.7089
▁రవాణా	-7.70921
▁కాలువల	-7.71392
▁సి	-7.71397
హ	-7.71594
▁మాధ్యమిక	-7.71723
▁సామాన్య	-7.71734
▁గణాంకాల	-7.71745
▁డాక్టర్లు	-7.72463
జ	-7.72907
మే	-7.72978
▁సహకార	-7.73063
▁మురుగునీరు	-7.73274
▁స్వయం	-7.73494
▁బృందం	-7.73662
▁మంది	-7.74506
▁కాగా	-7.74715
వే	-7.74835
▁ఔషధ	-7.74855
▁8	-7.74923
▁కేంద్రాలు	-7.74958
▁ప్రతి	-7.75222
▁కార్యాలయం	-7.75361
▁మీద	-7.75592
టం	-7.76617
వు	-7.76683
▁సంరక్షణ	-7.76855
▁కులాల	-7.76993
▁వినియోగం	-7.77034
▁సొసైటీ	-7.77545
▁సంపూర్ణ	-7.77625
▁తెగల	-7.77686
▁మొదలైన	-7.77763
▁సేవా	-7.77817
▁చేసిన	-7.7785
▁బా	-7.7795
▁లైన్	-7.7803
▁జనన	-7.78181
▁మొదటి	-7.78213
లే	-7.78305
▁సహాయక	-7.78404
▁సబ్	-7.78625
▁ప్రత్యామ్నాయ	-7.78844
▁ఆటల	-7.79108
య్య	-7.79308
▁పశు	-7.79344
▁చిన్న	-7.79349
▁సైన్స్	-7.79517
▁ప్రాథమికోన్నత	-7.79874
▁మైదానం	-7.79946
▁బాలల	-7.80426
▁ఆటో	-7.80693
▁గ్రంథాలయం	-7.80785
▁కార్యకర్త	-7.80859
▁పిన్	-7.80865
ో	-7.81035
▁ఇంటర్నెట్	-7.81051
▁నిమిత్తం	-7.81067
▁సంక్షేమ	-7.81141
▁వార్తాపత్రిక	-7.81231
▁మొబైల్	-7.81732
▁శిశు	-7.81771
▁మరణాల	-7.81965
▁సంచార	-7.82066
▁ఆర్ట్స్	-7.82111
▁పంపిణీ	-7.82167
▁మార్కెటింగ్	-7.82297
▁లొకేషన్	-7.82332
▁లోను	-7.82457
▁ఆశా	-7.82601
▁తో	-7.82806
▁మగవారి	-7.82864
▁జనాభాతో	-7.8288
రో	-7.83233
▁పారామెడికల్	-7.83313
▁ఆడవారి	-7.83318
▁రీడింగ్	-7.8349
గు	-7.83521
▁హెక్టార్లలో	-7.83658
▁మార్కెట్	-7.83698
▁పోలింగ్	-7.83722
▁జూనియర్	-7.83733
▁రూం	-7.83756
▁లాండ్	-7.83823
▁ఇళ్లతో	-7.83887
▁పారిశుధ్య	-7.84371
▁మాతా	-7.84385
▁వీధుల	-7.84416
▁టెలిఫోన్	-7.84603
▁అంగన్	-7.84675
▁వాడీ	-7.84697
▁రా	-7.8484
▁సరఫరాల	-7.85044
▁పోస్ట్	-7.85161
▁ఉత్పాదక	-7.85404
▁కొరియర్	-7.86085
▁కెఫె	-7.86153
ములు	-7.86163
▁హాలు	-7.86415
▁పోషకాహార	-7.86457
▁చేస్తున్నారు	-7.86487
▁గృహావసరాల	-7.86762
▁దూరం	-7.86906
▁పక్కనే	-7.86974
▁తర్వాత	-7.87
▁అవసరాల	-7.87074
▁సేకరించే	-7.87118
▁ప్ర	-7.87361
▁కంకర	-7.87576
▁వస్తువులు	-7.87602
▁ఇంటింటిక	-7.87667
▁పై	-7.87737
▁పరపతి	-7.87804
▁అనియత	-7.87816
కో	-7.87928
▁సమీకృత	-7.87945
▁వ్యర్థాలను	-7.87969
ణ	-7.88045
▁బయోగ్యాస్	-7.88282
▁మరుగుదొడ్డి	-7.8842
▁దివ్యాంగ	-7.88556
▁ఏటీఎమ్	-7.88592
▁డిస్పెన్సరీ	-7.88601
▁అలోపతి	-7.88639
లీ	-7.88776
▁పాలీటెక్నిక్	-7.88832
న్నాయి	-7.88917
▁చెత్తను	-7.89015
ద్	-7.89105
▁టెలిగ్రాఫ్	-7.89342
▁పట్టణమైన	-7.89457
▁పారబోస్త	-7.89482
▁ము	-7.89495
▁ల	-7.89553
చే	-7.90077
అ	-7.90165
▁కేంద్రమైన	-7.90738
▁మూడు	-7.90752
▁జనాభా	-7.90823
▁మేనేజిమెంటు	-7.90892
▁పా	-7.90941
▁వలన	-7.91178
▁వనరుల	-7.91276
▁తమ	-7.91441
▁బాలబడి	-7.91442
ుని	-7.91646
▁రోజుకు	-7.92063
▁అమలవుతోంది	-7.92708
జి	-7.92764
▁ది	-7.92859
రే	-7.93101
▁జల	-7.93102
▁జ	-7.93111
▁in	-7.93734
▁చేయ	-7.93795
తా	-7.93908
▁ఉంటాయి	-7.94164
బడింది	-7.94747
చి	-7.9475
▁15	-7.95021
పి	-7.9504
▁కుళాయిల	-7.95728
▁a	-7.95976
▁వరి	-7.96327
▁వద్ద	-7.96332
▁ఆఫ్	-7.9636
▁సా	-7.96386
▁కో	-7.96509
▁పాఠశాలలు	-7.96553
▁స్	-7.96565
▁9	-7.97106
▁అసెంబ్లీ	-7.97315
▁మె	-7.97766
▁బస్సులు	-7.97778
▁వా	-7.9785
▁12	-7.98059
▁అయితే	-7.98107
▁గ్రామాల	-7.9827
▁అతని	-7.9831
▁చేతిపంపుల	-7.98769
▁దాని	-7.9878
▁రోజువారీ	-7.98907
▁మే	-7.98911
లతో	-7.99055
▁గుండా	-7.9914
▁సం	-7.994
▁అయిన	-7.99428
▁ప్రాంతాల	-7.99633
▁కానీ	-8.00532
▁శ	-8.00546
▁గ్రామ	-8.00634
▁అవుతున్నాయి	-8.00932
ధ	-8.01048
▁కిలోమీటర్ల	-8.01153
▁దూరంలోనూ	-8.01286
పా	-8.02974
▁మొత్తం	-8.02995
బ్	-8.03221
క్ష	-8.03222
▁ఇంజనీరింగ్	-8.03375
శ	-8.04166
▁--	-8.04493
▁కొ	-8.04834
ించ	-8.04959
బ	-8.05523
ాలలో	-8.06009
▁ఓ	-8.06103
▁అది	-8.06164
▁చేసి	-8.06921
ిక	-8.07081
▁అంటారు	-8.07484
యి	-8.07527
2	-8.07728
▁త	-8.07772
▁వ్యవసాయం	-8.07819
▁సమయంలో	-8.08089
సా	-8.0817
▁ఇక్కడ	-8.08351
▁సిబ్బంది	-8.08386
▁దక్షిణ	-8.08937
▁ఉత్తర	-8.09178
▁సౌకర్యాలు	-8.09266
▁కాని	-8.09355
▁డి	-8.0942
▁హ	-8.09543
▁లేని	-8.10151
▁గురించి	-8.10424
▁దీని	-8.10445
▁ఉ	-8.10666
ాలి	-8.10738
▁తారు	-8.10748
▁సు	-8.1091
▁ఆర్	-8.10939
▁ఆంధ్ర	-8.11118
ె	-8.11629
▁మొదలైనవి	-8.11648
▁చ	-8.12009
బా	-8.12155
▁జరిగిన	-8.12299
▁వే	-8.12424
మని	-8.125
▁మండలం	-8.12599
▁లేరు	-8.12608
లేదు	-8.12781
దా	-8.12848
ఫ్	-8.1347
ed	-8.13568
యు	-8.13607
er	-8.14314
▁నేరుగా	-8.14317
కే	-8.14391
టు	-8.14716
తు	-8.15125
ై	-8.15424
▁మాత్రమే	-8.15498
y	-8.15664
▁పో	-8.16131
▁ఐ	-8.16241
▁తెలంగాణ	-8.16358
ంతో	-8.16405
ించి	-8.16849
ళ్ళ	-8.16993
▁శాల	-8.17024
ౌ	-8.17049
▁17	-8.17051
ంత	-8.17144
▁అన్ని	-8.17298
▁19	-8.17378
▁16	-8.17613
ంది	-8.18018
ప్ర	-8.18154
▁14	-8.18525
▁:	-8.18582
▁and	-8.1883
▁చె	-8.1894
▁అతను	-8.18952
▁బహిరంగ	-8.19057
▁ఎస్	-8.19082
▁రాష్ట్రం	-8.19171
ంద	-8.19223
▁ప్రపంచ	-8.20243
టీ	-8.20466
బి	-8.2078
▁ముందు	-8.2087
▁శుద్ధి	-8.21248
▁to	-8.21278
ండ	-8.21354
▁గ	-8.21389
▁0	-8.21765
జా	-8.21877
▁ప్రభుత్వం	-8.21984
▁మి	-8.22195
ట్లు	-8.22505
ష్	-8.22518
భ	-8.22831
▁తిరుగుతున్నాయి	-8.22952
▁11	-8.22978
▁ఇద్దరు	-8.23319
▁ప్రముఖ	-8.23536
ష	-8.23672
▁S	-8.23674
వారు	-8.23982
▁మంచినీటి	-8.24251
యో	-8.24746
▁పార్టీ	-8.25297
▁రక్షిత	-8.25772
మో	-8.26134
▁20	-8.26185
▁వల్ల	-8.26271
▁పలు	-8.26292
కీ	-8.26378
▁మన	-8.26406
▁కె	-8.26582
ాలని	-8.26583
▁కాలంలో	-8.26622
సీ	-8.26676
▁వచ్చిన	-8.2697
ిత	-8.27275
ాలకు	-8.27422
▁A	-8.27562
▁మండలానికి	-8.27717
రం	-8.279
నో	-8.28381
▁దీనిని	-8.28456
యం	-8.28521
ప్ప	-8.28956
వనరుల్లోకి	-8.29203
పల్లి	-8.29235
పో	-8.30004
ళ్ల	-8.30094
ంగ్	-8.30123
▁ఇందులో	-8.30187
ing	-8.30244
▁అందుబాటులో	-8.30704
▁వివిధ	-8.31091
త్త	-8.31126
▁అను	-8.31374
▁లోనూ	-8.31405
▁రాజ	-8.31508
ంచ	-8.31544
▁ఒకరు	-8.31673
▁ట్రాక్టర్లు	-8.31771
బడిన	-8.3187
▁అతి	-8.31891
▁చేశారు	-8.32075
▁ఇవి	-8.32083
గి	-8.32094
టర్	-8.32249
▁ర	-8.32353
వచ్చు	-8.32789
ళ	-8.3317
▁కొత్త	-8.33406
జీ	-8.3341
మీ	-8.33469
C	-8.33551
%	-8.33915
కం	-8.33958
▁వదులుతున్న	-8.33964
్లో	-8.34002
1	-8.34328
▁చెప్ప	-8.34363
▁13	-8.34632
▁య	-8.3464
వ్	-8.34656
ండి	-8.34679
ాల్లో	-8.3499
▁గో	-8.34994
▁మహా	-8.35198
▁లా	-8.35329
A	-8.35884
▁గు	-8.35936
డా	-8.36709
▁ద	-8.36749
al	-8.37132
నూ	-8.37152
కొ	-8.37206
▁కథ	-8.37242
స్ట్	-8.37404
▁రాజకీయ	-8.37668
రె	-8.38033
▁కలిగిన	-8.38085
▁వాడేందుక	-8.38339
▁రామ	-8.38427
▁s	-8.39107
▁చేసే	-8.39495
▁ఒ	-8.39594
▁అనేది	-8.39824
టా	-8.40066
▁ఉండే	-8.40111
e	-8.40128
ేందుకు	-8.40301
▁సంవత్సరాల	-8.40582
o	-8.40709
మును	-8.41038
▁కాల	-8.41396
▁నాలుగు	-8.41505
▁తయారు	-8.41892
ములో	-8.41915
3	-8.41944
▁ప్రజలు	-8.42009
టానికి	-8.42045
▁మంచి	-8.4211
▁అన్న	-8.42126
▁కారణంగా	-8.42133
▁సంవత్సరం	-8.42277
▁యు	-8.42353
దే	-8.42415
ైన	-8.42646
▁ఏర్పాటు	-8.42843
▁గల	-8.42899
ంగ	-8.42997
▁సంగీత	-8.43146
ిస్తారు	-8.43593
u	-8.43816
▁జా	-8.44296
▁పాత్ర	-8.44408
▁ముగ్గురు	-8.44503
▁గ్రామము	-8.45002
00	-8.45467
క్క	-8.45642
నం	-8.45833
▁రెండవ	-8.45874
కుండా	-8.46098
▁తూర్పు	-8.46105
▁పూర్తి	-8.46105
▁భారతీయ	-8.46201
బడి	-8.46356
▁అవి	-8.46385
a	-8.46395
ట్ట	-8.4684
d	-8.46907
▁పని	-8.47059
రాజు	-8.47196
M	-8.47223
▁లే	-8.47288
గల	-8.47668
▁ఆర్థిక	-8.47957
▁వాటి	-8.48039
▁పూ	-8.48065
▁దేవ	-8.48516
▁చేసింది	-8.48559
ించిన	-8.48815
ిస్తుంది	-8.49102
థ	-8.49332
ద్ద	-8.49397
వాడు	-8.49423
▁వీరు	-8.49594
▁సాధారణంగా	-8.4961
▁వాడ	-8.49636
▁అంటే	-8.49651
▁జి	-8.49841
▁తక్కువ	-8.49845
ిస్తూ	-8.49876
▁50	-8.50023
▁ధర్మ	-8.5003
▁ఎక్కువగా	-8.5025
▁చే	-8.50386
▁జరిగింది	-8.50534
▁తండ్రి	-8.50699
▁అత్యంత	-8.50953
▁అదే	-8.51177
▁అవ	-8.51188
▁రి	-8.51231
సం	-8.51351
కర	-8.51612
ుతుంది	-8.51663
▁వై	-8.51672
▁తా	-8.51678
నె	-8.51818
▁ప్రాంతం	-8.51954
ముగా	-8.51985
▁బావుల	-8.52046
నుండి	-8.52288
▁చిత్ర	-8.52853
టో	-8.52986
▁అధిక	-8.53225
▁ఇలా	-8.53499
▁మొ	-8.54011
దీ	-8.54241
▁భ	-8.54338
▁ఖ	-8.5486
▁చేర	-8.54988
▁రాజు	-8.55118
▁భాష	-8.55295
సె	-8.55345
▁మో	-8.56284
▁బహిరంగంగా	-8.56301
▁మండలంలోని	-8.56304
రావు	-8.568
▁కలిసి	-8.56885
ట్టు	-8.57175
ముల	-8.57373
మై	-8.57792
t	-8.57842
▁పరి	-8.58065
▁చిత్రం	-8.58175
S	-8.58663
g	-8.59156
▁ఎం	-8.59382
ేవారు	-8.59677
▁వచ్చింది	-8.59805
▁బ్రహ్మ	-8.59995
పల్లిలో	-8.60007
▁అలాగే	-8.60054
▁డాక్టరు	-8.60148
▁బోరుబావుల	-8.60158
ఆ	-8.60334
▁చరిత్ర	-8.60387
▁ప్రస్తుతం	-8.60524
▁ఉండ	-8.60655
ar	-8.60727
▁కచ్చా	-8.61159
ఖ	-8.61298
ుతూ	-8.61301
▁ప్రాంతంలో	-8.6141
ధి	-8.61471
▁కల	-8.61491
ేశ్వర	-8.61947
▁చా	-8.6225
▁బె	-8.62475
r	-8.62501
▁కన్నా	-8.6293
!	-8.6293
ుకొని	-8.62959
ులకు	-8.63173
▁శక్తి	-8.63259
▁పు	-8.63283
ొ	-8.63332
తీ	-8.63568
▁C	-8.63735
చ్	-8.63818
or	-8.6385
▁అక్కడ	-8.63962
▁నీ	-8.63969
i	-8.64073
▁కాకుండా	-8.64289
▁పొ	-8.64354
▁మత	-8.64369
వీ	-8.64678
ుడి	-8.64805
▁57	-8.64863
లుగా	-8.64902
▁అనగా	-8.65104
▁కార్	-8.65258
k	-8.65329
▁భూమి	-8.65363
▁లోకి	-8.65389
▁పోతోంది	-8.6565
4	-8.65824
▁దేశ	-8.66059
▁చి	-8.66393
▁లేక	-8.6656
ప్పుడు	-8.66776
▁ఇంకా	-8.66828
▁పశ్చిమ	-8.66943
ష్ట	-8.66953
▁కేంద్రంలో	-8.67345
▁అమెరికా	-8.67502
వారి	-8.67522
మె	-8.67803
వ్వ	-8.67898
▁బాగా	-8.68443
▁ఈయన	-8.68543
▁రో	-8.68567
గో	-8.68698
గ్రామంలో	-8.68792
▁కాలం	-8.68927
c	-8.6923
▁ప్రదేశ్	-8.69546
క్స్	-8.69588
?	-8.69678
పూర్	-8.69823
in	-8.69996
ాలతో	-8.70004
▁శాసనసభ	-8.70122
బడ్డాయి	-8.70124
th	-8.70362
లె	-8.70397
▁మూల	-8.7041
▁తొలి	-8.70639
▁P	-8.70686
▁తల	-8.70757
p	-8.70865
▁కాదు	-8.71005
▁వె	-8.71019
▁కొంత	-8.71072
▁ముఖ్య	-8.71128
▁తు	-8.71329
▁కే	-8.71368
▁M	-8.71471
▁సె	-8.71571
ుకుని	-8.71951
ళ్ళు	-8.72425
▁వారికి	-8.72501
▁దీనికి	-8.72694
▁రే	-8.73229
▁పె	-8.73325
▁నది	-8.73452
▁చూప	-8.73467
ంబ	-8.73527
▁చేయడం	-8.73776
ూరు	-8.73876
▁వచ్చే	-8.74103
▁శాఖ	-8.74229
▁చెరువు	-8.74236
▁పంప	-8.74384
▁పేరుతో	-8.74644
▁క్రీ	-8.74742
▁హిందూ	-8.74765
▁కృష్ణ	-8.74766
▁•	-8.74929
▁2001	-8.74965
▁30	-8.75007
▁ప్రజల	-8.75325
an	-8.7555
▁వచ్చి	-8.75628
వర్	-8.75756
▁25	-8.75799
▁సుమారు	-8.75809
ుకో	-8.75934
లోనే	-8.76113
▁పెట్ట	-8.76247
హ్	-8.76962
▁సంబంధించిన	-8.76997
ుడైన	-8.77405
▁పాట	-8.77696
re	-8.7779
▁ప్లాంట్	-8.77931
ులను	-8.78024
▁విద్య	-8.78029
్య	-8.78045
▁శివ	-8.78109
▁f	-8.78151
తే	-8.78277
▁వ్యక్తి	-8.78686
▁సాధారణ	-8.78924
▁B	-8.7897
హా	-8.79104
▁హా	-8.79109
h	-8.79168
వె	-8.79195
ండు	-8.79527
▁కాంగ్రెస్	-8.79757
▁చేశాడు	-8.79933
▁డ	-8.79946
▁అంద	-8.79957
▁డా	-8.80017
▁విడుదల	-8.80022
▁పోటీ	-8.80231
▁లభిస్తుంది	-8.80523
▁పురుషుల	-8.80716
▁ఎన్	-8.80761
▁c	-8.80844
▁n	-8.80897
ండ్	-8.80921
▁రైలు	-8.80943
▁నగరం	-8.81421
లోకి	-8.81567
▁భావ	-8.81683
షన్	-8.81706
ీయ	-8.81741
బు	-8.81937
▁is	-8.82
▁స్వామి	-8.82255
న్స్	-8.82488
▁షా	-8.82536
▁తల్లి	-8.82591
▁కోట	-8.82929
▁నగర్	-8.82978
ిస్తున్న	-8.83042
డే	-8.83281
ింప	-8.83438
▁మాత్రం	-8.83448
ించే	-8.83498
5	-8.83511
▁ప్రా	-8.83692
▁వ్యాపార	-8.83883
▁అంత	-8.83979
E	-8.84005
యే	-8.84007
▁చైనా	-8.84179
య్	-8.84272
▁కేంద్ర	-8.84352
సన్	-8.84551
b	-8.84596
పాడు	-8.84839
ఇ	-8.84868
▁భాగంగా	-8.85028
జన	-8.8512
’	-8.85175
▁గొప్ప	-8.85224
▁రోజు	-8.85537
▁యుద్ధం	-8.8575
▁అన	-8.85877
▁or	-8.85938
▁పాల	-8.86457
▁కనుక	-8.86499
▁దాదాపు	-8.8651
స్తూ	-8.86545
es	-8.86637
▁భార్య	-8.86798
▁కొండ	-8.868
▁కాక	-8.86846
▁కృష్ణా	-8.86847
▁దా	-8.86848
ట్ల	-8.86972
డో	-8.87084
▁యా	-8.87303
పె	-8.87409
▁అమ్మ	-8.87624
▁స్థానిక	-8.87674
▁నె	-8.87703
▁నగర	-8.87892
▁అంతర్జాతీయ	-8.88035
ంటి	-8.88093
చు	-8.88196
ించాడు	-8.88265
▁చివరి	-8.88279
l	-8.88302
▁58	-8.88304
ra	-8.88347
▁పారుదల	-8.8835
▁పెంచ	-8.88411
ాను	-8.88706
▁ట్రాక్టరు	-8.88779
కర్	-8.88961
▁పంపిస్తున్నారు	-8.89408
డీ	-8.89427
▁బో	-8.89812
▁ఉన్నత	-8.89865
ాన	-8.89877
▁ఆడ	-8.90071
▁జీవ	-8.901
ాయ	-8.90227
హి	-8.90246
ంచి	-8.90251
▁కోర	-8.90264
▁జె	-8.90369
బో	-8.90392
▁వీరి	-8.90395
త్తు	-8.90501
▁ఉండేది	-8.90644
D	-8.90727
▁పొందిన	-8.90788
డంతో	-8.91128
ుతున్న	-8.91137
▁తి	-8.91185
స్త	-8.91334
▁బు	-8.91429
▁సీ	-8.91603
రణ	-8.91607
▁నివాస	-8.91654
6	-8.91733
కులు	-8.91781
▁సాహిత్య	-8.91789
బడుతుంది	-8.91833
కాల	-8.9192
▁విశాఖపట్నం	-8.92105
▁ఉపయోగించ	-8.92126
▁లోపే	-8.92608
▁మరో	-8.9264
▁తప్ప	-8.92917
▁వాటిని	-8.93031
I	-8.93162
▁ప్రత్తి	-8.93444
▁మరొక	-8.93453
▁భాగం	-8.93476
▁గుంటూరు	-8.935
▁పంచ	-8.93531
▁=	-8.93555
8	-8.93605
▁వున్న	-8.93833
ారని	-8.93955
ుట	-8.9414
▁వీ	-8.94147
▁నెల్లూరు	-8.94232
▁!	-8.94244
▁పూర్వ	-8.94489
▁జన	-8.94532
▁వీర	-8.94685
▁మానవ	-8.94748
ించారు	-8.94904
▁ఒకే	-8.95019
▁సో	-8.95149
P	-8.95198
కె	-8.9523
▁విజయ	-8.95337
▁కేవలం	-8.95387
కూ	-8.95404
▁సర్వ	-8.95436
▁మరింత	-8.95591
▁ఈమె	-8.95683
m	-8.9578
▁ఆధునిక	-8.95942
▁అప్పటి	-8.96076
▁నాటికి	-8.96257
▁దగ్గర	-8.96322
▁దుకాణం	-8.96364
▁The	-8.96544
▁కంపెనీ	-8.96596
▁నిర్మాణ	-8.96749
కల్	-8.96832
▁సముద్ర	-8.96856
▁ఫ	-8.96998
▁దేశం	-8.97001
మన్	-8.97063
ఎ	-8.97165
▁నాగ	-8.9719
▁గోదావరి	-8.97295
లం	-8.9733
ుకున్న	-8.97348
ీకరణ	-8.97394
▁జిల్లాలో	-8.97461
▁24	-8.97502
▁తాను	-8.97695
▁be	-8.97721
▁ఇన్	-8.97872
సే	-8.97941
▁ఆలయం	-8.9802
▁శాలలో	-8.98067
▁హైదరాబాదు	-8.98096
▁‘	-8.98125
ంటే	-8.98276
▁ప్రారంభ	-8.98278
▁విశ్వవిద్యాలయం	-8.98283
▁59	-8.98627
దని	-8.98637
సర్	-8.98772
నది	-8.98872
▁మార్చి	-8.99168
▁డె	-8.99261
▁21	-8.99351
సో	-8.99466
▁జీవిత	-8.99507
ల్లా	-8.99529
పురం	-8.99607
మాన	-8.99649
▁పడ	-8.99786
▁చూడ	-8.99887
▁ముఖ్యంగా	-8.99978
▁పొంద	-9.00253
▁ఉంచ	-9.0036
మున	-9.00481
▁D	-9.00615
▁ఈనాడు	-9.01061
చ్చ	-9.0112
వాద	-9.01135
▁ఎన్నో	-9.01256
▁బ్రిటిష్	-9.01354
ri	-9.01448
▁చేత	-9.0148
టే	-9.01512
▁చెయ్య	-9.01515
ట్టి	-9.01526
గానే	-9.01744
▁ఆధారంగా	-9.01793
జు	-9.0184
▁గుర్తింపు	-9.01886
▁సౌకర్యాలున్నాయి	-9.02009
స్వామి	-9.02104
కార	-9.02119
త్వం	-9.02134
▁రె	-9.02393
శి	-9.02605
▁పట్ట	-9.02753
▁నేను	-9.02845
▁మట్టిరోడ్ల	-9.0287
▁బాల	-9.02909
ును	-9.02923
ధా	-9.02966
▁ముఖ్యమైన	-9.03117
▁p	-9.0312
▁ఐదు	-9.03579
ఘ	-9.03609
on	-9.03669
▁అలా	-9.03699
▁స్థానంలో	-9.03861
▁అధికంగా	-9.03937
లూ	-9.04023
▁ఉండి	-9.04084
ly	-9.04125
▁ఒక్క	-9.04129
▁చేయని	-9.04245
▁తాగునీరు	-9.04439
చ్చి	-9.04451
7	-9.04533
బ్బ	-9.04762
▁పోతున్నాయి	-9.04869
జర్	-9.05066
le	-9.05178
▁యుద్ధ	-9.0529
▁సమ	-9.05467
▁దేశంలో	-9.05715
▁స్వ	-9.05728
▁సేవ	-9.0582
▁22	-9.05914
0	-9.0606
▁లేకుండా	-9.06087
▁ఇవ్వ	-9.06124
ధ్య	-9.06144
▁భారతదేశంలో	-9.06232
▁b	-9.06238
▁లలో	-9.0627
▁దానిని	-9.06288
ందు	-9.06417
▁లెక్కల	-9.06589
at	-9.06607
త్వ	-9.06668
ఫి	-9.06927
మునకు	-9.06948
▁I	-9.07017
▁N	-9.07097
▁for	-9.07139
▁రంగ	-9.07225
▁ప్రదర్శన	-9.07387
▁అందులో	-9.07391
▁సంప్రదాయ	-9.07502
కుడు	-9.07758
▁వైపు	-9.07798
▁చేస్తారు	-9.07814
▁గుర్తించ	-9.0788
ెను	-9.08103
▁సై	-9.08103
▁రూప	-9.08163
▁m	-9.08191
ుటకు	-9.08286
▁వేద	-9.08295
T	-9.08323
మూ	-9.08343
▁శాతం	-9.08401
▁ప్రక్రియ	-9.08429
పీ	-9.08481
”	-9.08512
ందుకు	-9.08527
▁విజయం	-9.0858
షి	-9.0859
▁జో	-9.08612
ల్ల	-9.08658
▁మిగిలిన	-9.08676
▁బీ	-9.0874
▁నాటి	-9.08771
20	-9.08785
▁సిబ్బంద	-9.08825
▁మార్చ	-9.08881
ంట్	-9.09093
us	-9.09153
▁వెళ్ళ	-9.09392
▁లి	-9.09413
నియా	-9.09424
▁ఎంతో	-9.0943
▁23	-9.096
▁చెంద	-9.09675
▁యూ	-9.09709
▁2009	-9.09801
▁పత్రిక	-9.09838
▁లను	-9.09899
en	-9.09906
రియా	-9.10201
ృ	-9.10392
▁పే	-9.10602
లేని	-9.10667
▁దశ	-9.10711
వో	-9.10812
▁అవుతోంది	-9.10872
▁నే	-9.11054
am	-9.11109
▁స్థాయి	-9.11199
▁స్టేషను	-9.11369
▁ఇప్పుడు	-9.1143
పద	-9.11461
▁ఉత్తమ	-9.11466
ంజ	-9.11628
▁లాంటి	-9.1166
▁G	-9.11772
▁ప్రసిద్ధి	-9.11806
▁నిర్వహణ	-9.11858
▁పద	-9.11905
▁హై	-9.12265
11	-9.12419
se	-9.12447
కుల	-9.12561
త్ర	-9.12579
జ్ఞ	-9.12712
ిని	-9.13007
మైనది	-9.13029
వాడ	-9.13201
▁నాటక	-9.13398
▁బొ	-9.13469
▁పీ	-9.13501
స్తా	-9.13585
▁ఆరు	-9.1361
▁ఎత్తు	-9.13636
జె	-9.13648
▁వెళ్ళి	-9.13678
f	-9.1372
పతి	-9.13745
▁ప్రజా	-9.13746
▁యునైటెడ్	-9.13774
▁అంచనా	-9.13775
R	-9.13805
▁పూర్తిగా	-9.13836
బీ	-9.13915
▁రకాల	-9.14033
▁వీటిలో	-9.14093
▁పాడ	-9.14128
▁వలె	-9.14223
▁నూనె	-9.14239
▁మూ	-9.14293
షా	-9.14298
O	-9.14313
▁అవకాశం	-9.14344
▁వలస	-9.14393
ాడని	-9.14481
వరం	-9.14485
▁ఉపయోగిస్తారు	-9.14492
▁ఏక	-9.14499
▁కారణం	-9.14546
▁కవి	-9.14558
▁విజయవాడ	-9.14607
▁ఫా	-9.14713
▁చేయడానికి	-9.14907
▁ఆహార	-9.14962
▁నిర్వహించ	-9.15466
ad	-9.15581
▁అర్థం	-9.15657
▁వారిని	-9.15818
స్తుంది	-9.15863
▁ష	-9.15933
▁సర్	-9.15942
యర్	-9.15966
▁హో	-9.1631
▁బ్ర	-9.16408
▁స్త్రీల	-9.16449
_	-9.16464
▁2007	-9.16513
నని	-9.16586
ణి	-9.16607
గిరి	-9.16893
ుతారు	-9.16903
▁అత్యధిక	-9.16927
ంట	-9.17034
కొండ	-9.17103
il	-9.17154
ాత్మక	-9.17182
▁ప్రేమ	-9.17216
▁H	-9.17274
▁శా	-9.17316
ic	-9.17386
▁వెంకట	-9.17523
▁అతిపెద్ద	-9.17532
▁చంద్ర	-9.1763
ch	-9.17669
తులు	-9.17678
▁re	-9.17781
▁ఇండియా	-9.17785
ur	-9.17904
▁రెడ్డి	-9.18021
▁చేసారు	-9.18093
▁స్వతంత్ర	-9.18141
డె	-9.18289
ంగి	-9.18345
ూర్	-9.18345
▁మార	-9.18374
ుకునే	-9.1865
▁2008	-9.18724
▁ఎల్	-9.18732
50	-9.18733
▁L	-9.18996
▁మై	-9.19012
▁పరిశోధన	-9.19017
ుకున్నారు	-9.1906
▁జనవరి	-9.19107
▁దు	-9.19214
పోయింది	-9.19228
▁అప్పుడు	-9.19245
▁శి	-9.19251
▁కలిపి	-9.19453
టన్	-9.1948
టింగ్	-9.19486
మీద	-9.19505
▁ఇదే	-9.19632
నగర్	-9.19727
▁న్యూ	-9.19738
▁అల	-9.19794
▁తె	-9.19855
ించింది	-9.19895
త్య	-9.19898
▁ఖండ	-9.19956
ల్లి	-9.1997
చేయ	-9.20007
)	-9.20038
▁26	-9.2005
▁సహ	-9.20064
▁మహబూబ్	-9.20174
ములను	-9.204
▁ప్రస్తుత	-9.20442
▁మహ	-9.20593
▁రాయ	-9.20812
▁అల్	-9.20825
▁కొనసాగ	-9.20853
▁విశ్వ	-9.20863
▁వీటిని	-9.20901
మైంది	-9.20924
N	-9.20932
బడ	-9.20946
రై	-9.2117
▁శతాబ్దం	-9.21315
రామ	-9.21359
▁సైనిక	-9.21361
తారు	-9.21434
▁F	-9.21517
ళ్లు	-9.21523
▁40	-9.21562
▁2013	-9.21662
▁సూచించ	-9.21692
లై	-9.22044
▁రచయిత	-9.22195
▁E	-9.22197
▁గాంధీ	-9.22212
▁సత్య	-9.22237
▁జూలై	-9.22419
తాయి	-9.22549
▁రాజధాని	-9.22627
▁గి	-9.22654
▁కట్ట	-9.22696
et	-9.22771
▁వంశ	-9.22814
▁కీ	-9.22946
▁దారి	-9.23026
B	-9.23031
▁కృషి	-9.23322
▁27	-9.23323
▁ఇం	-9.2343
▁చేస్తుంది	-9.23601
▁సభ	-9.23626
v	-9.23798
▁R	-9.23865
▁నిర్	-9.24037
ుగా	-9.24097
▁వేయ	-9.24116
▁వ్యాధి	-9.2418
ిస్తాడు	-9.24264
ః	-9.24269
ట్స్	-9.24279
▁జూన్	-9.24368
ుకున్నాడు	-9.24437
10	-9.24505
▁సిద్ధ	-9.2454
తం	-9.24623
▁ఫి	-9.247
ent	-9.24713
రూ	-9.24796
15	-9.25054
▁పరీక్ష	-9.25088
▁ప్రభావం	-9.25204
▁శాస్త్ర	-9.25227
▁నవల	-9.2523
▁వేల	-9.25403
పే	-9.25576
▁సంస్కృతి	-9.25711
▁ఉష్ణోగ్రత	-9.25993
▁ఎన్నికలలో	-9.26025
▁మందుల	-9.26186
మర్	-9.26248
▁వార	-9.26443
▁దానికి	-9.26574
▁వివాహం	-9.26607
▁భారతదేశం	-9.2664
12	-9.26683
30	-9.26686
13	-9.26693
▁పురాతన	-9.26726
▁రూ	-9.26815
రాయ	-9.26865
ునిగా	-9.26898
లర్	-9.26943
పడ	-9.26956
▁పదం	-9.2699
పెట్ట	-9.2706
▁సంవత్సరంలో	-9.27084
▁అవార్డు	-9.2714
▁28	-9.27164
▁పాత	-9.2723
▁రంగు	-9.27242
▁ఊ	-9.27383
19	-9.27399
▁అమెరికన్	-9.27411
వాస	-9.27419
▁గ్రామాలు	-9.27623
తుల	-9.27825
ులైన	-9.27908
▁స్థానం	-9.27938
▁పెళ్ళి	-9.27969
▁శతాబ్దంలో	-9.28137
▁స్త్రీ	-9.28205
వర	-9.2827
▁రై	-9.28363
ించడం	-9.28437
▁పైగా	-9.28496
▁కుమారుడు	-9.28566
▁నిర్మించ	-9.28605
▁చూసి	-9.28617
రూప	-9.28747
▁బౌద్ధ	-9.2882
రిక	-9.28826
▁బే	-9.28837
▁ఇంటి	-9.28843
▁ఇతడు	-9.28938
▁సరిహద్దు	-9.28939
ation	-9.29006
40	-9.29195
▁నిర్మాణం	-9.29221
ంగు	-9.2928
▁తెలియ	-9.29319
▁సంస్కృత	-9.29326
బుల్	-9.29406
లపై	-9.29468
స్థ	-9.29469
▁మొట్టమొదటి	-9.295
న్నా	-9.29549
జం	-9.29663
▁వేరు	-9.29732
సర	-9.29735
▁ఎక్స్	-9.29767
▁మాట	-9.29827
తాడు	-9.29828
రక	-9.2992
▁వరకూ	-9.2995
▁ఆంధ్రప్రదేశ్	-9.29985
▁న్యాయ	-9.30107
మంది	-9.30144
▁ఎలా	-9.30161
కల	-9.30175
ఢ	-9.30276
▁కాం	-9.30347
▁పంట	-9.30602
దో	-9.30603
▁లె	-9.30642
చె	-9.30651
▁రక్షణ	-9.30662
▁as	-9.30692
▁కొద్ది	-9.30715
న్ని	-9.3076
9	-9.3087
▁చికిత్స	-9.31017
▁ప్రాంతాలలో	-9.31054
ఒక	-9.31084
ుడిగా	-9.3125
ఫ	-9.31402
ఉ	-9.31515
▁గాని	-9.31586
ప్పటికీ	-9.31662
16	-9.31667
▁వీటి	-9.31689
▁రసాయన	-9.31852
▁గాలి	-9.31873
రాజ	-9.31958
▁కళా	-9.32267
▁చంప	-9.32301
▁అయినప్పటికీ	-9.32336
వపేజీ	-9.32336
దేశ	-9.3249
ఫా	-9.32495
పాలెం	-9.32522
భా	-9.32532
▁విలువ	-9.32606
▁పొందింది	-9.32619
▁మూడవ	-9.32924
▁నగరంలో	-9.33045
▁హె	-9.33125
ప్పు	-9.33162
|	-9.33166
▁ఆలయ	-9.33189
14	-9.33224
▁చేసాడు	-9.33272
22	-9.33292
▁సంవత్సరాలు	-9.33295
్యం	-9.33296
▁తగ్గ	-9.33356
▁టా	-9.33501
▁ధ	-9.3356
ులుగా	-9.33603
గ్రామానికి	-9.33606
శా	-9.33671
▁వస్తుంది	-9.33692
▁నూతన	-9.33777
▁with	-9.33814
▁పర	-9.33839
▁రాజా	-9.33859
ంప	-9.33921
▁ఉపయోగ	-9.34173
గే	-9.34299
▁K	-9.34332
ిస్తాయి	-9.34358
▁ప్రాణ	-9.34381
▁2006	-9.34382
▁ఎంత	-9.34406
▁నల్ల	-9.34417
L	-9.34419
▁విషయం	-9.34462
▁ప్రసిద్ధ	-9.34533
25	-9.34592
▁కొందరు	-9.34629
▁ఆంగ్ల	-9.34643
▁g	-9.34679
as	-9.34747
▁అవసరం	-9.34758
ాడ	-9.34827
వ్య	-9.34968
శ్	-9.35124
▁దాడి	-9.35135
▁2010	-9.35139
▁దేశాల	-9.3515
▁ప్రాచీన	-9.35251
▁కార్య	-9.35315
▁లింగ	-9.35338
పూడి	-9.35346
▁ఏప్రిల్	-9.35439
▁అగ్ని	-9.35556
ఁ	-9.35592
స్తారు	-9.357
ాలుగా	-9.35858
ుకోవడం	-9.35864
▁తమిళ	-9.35965
కర్త	-9.36031
▁సహా	-9.36044
ల్స్	-9.36111
▁రచన	-9.36148
▁కనిపించ	-9.3635
▁సంగీతం	-9.36501
▁మహిళల	-9.36526
▁అమలు	-9.36581
లేక	-9.36694
▁సాంకేతిక	-9.3673
▁చేస్తున్న	-9.36735
▁పది	-9.36774
లూరు	-9.36833
వచ్చును	-9.36841
▁మారింది	-9.36873
▁మార్	-9.36993
▁ఆనంద	-9.37008
▁దేశాలలో	-9.37133
నాడు	-9.37141
▁వాటిలో	-9.37152
la	-9.37157
▁రోడ్డు	-9.37257
▁చిత్తూరు	-9.37273
కరణ	-9.37343
0,000	-9.37467
నల్	-9.37486
పొ	-9.37554
▁వర్ణ	-9.37613
▁కౌ	-9.37623
పర్	-9.37663
▁ఉండటం	-9.37697
▁తీర	-9.37698
▁బ్రిటీష్	-9.37714
▁ఆది	-9.37892
దర	-9.37917
▁ఆత్మ	-9.38033
▁W	-9.38067
F	-9.38077
టిక్	-9.38253
▁T	-9.38337
చేసి	-9.38415
ha	-9.38525
▁పాప	-9.38553
తర	-9.38554
స్టర్	-9.38661
కాలం	-9.38713
తను	-9.38735
▁సంస్థలు	-9.38764
▁చర్య	-9.38826
▁మద్దతు	-9.39043
బె	-9.39124
▁నెల	-9.39445
▁ఇతని	-9.39473
నై	-9.3948
ంటు	-9.39509
▁బట్టి	-9.39514
▁గీత	-9.39521
▁గాయ	-9.39653
▁ధర	-9.39659
▁ఫల	-9.39904
▁ఫలితంగా	-9.39926
▁చేర్చ	-9.39932
▁జాతి	-9.39962
60	-9.39999
వార	-9.40033
▁భారీ	-9.40038
కారం	-9.40078
▁by	-9.40155
వై	-9.40229
▁గౌరవ	-9.4041
ేవాడు	-9.40424
▁జాబితా	-9.40582
▁పైన	-9.40714
▁కాలువ	-9.40814
▁నో	-9.40838
▁జరిగే	-9.40935
▁అతడు	-9.40992
▁w	-9.41012
▁నారాయణ	-9.41056
శాల	-9.4111
=	-9.41326
ప్రైవేటు	-9.41364
▁అయింది	-9.4141
▁పొడవు	-9.41475
▁సహజ	-9.41579
21	-9.41582
్యు	-9.41689
్యా	-9.42173
▁తే	-9.4218
▁పరిశ్రమ	-9.42313
▁ఐరోపా	-9.42349
యిన	-9.42394
▁ధన	-9.42407
▁పట్టణ	-9.42421
▁కర్నూలు	-9.42421
23	-9.42444
థా	-9.42489
▁ఢిల్లీ	-9.42507
▁ప్రదర్శించ	-9.42526
▁వ్యతిరేకంగా	-9.42542
▁కాంతి	-9.42577
▁పుట్ట	-9.42599
▁క్రింద	-9.42794
వలసిన	-9.42908
క్కు	-9.42917
▁ఫిబ్రవరి	-9.42967
▁లేవు	-9.42984
ర్స్	-9.43002
▁లీ	-9.43033
▁కుల	-9.43156
కాయ	-9.43353
▁పిలుస్తారు	-9.43355
85	-9.43592
బర్	-9.43621
ద్ర	-9.43625
24	-9.4367
17	-9.43691
▁పాలన	-9.43718
▁కం	-9.43741
▁ఏర్పడిన	-9.43748
స్తాయి	-9.4379
▁రూపంలో	-9.4387
▁వేరుశనగ	-9.43879
ముఖ	-9.43996
▁గురు	-9.44037
▁భర్త	-9.44058
▁51	-9.44079
▁t	-9.44079
▁నిర్ణయించ	-9.44151
రవ	-9.44182
పల్లె	-9.44184
▁తీసుకు	-9.44319
▁U	-9.44348
▁సూర్య	-9.44398
▁నిర్వహించారు	-9.44419
ంపై	-9.44439
01	-9.44453
▁అల్ల	-9.44459
▁పూజ	-9.44507
ాక	-9.44544
▁దృష్టి	-9.44546
▁పూర్	-9.44687
▁d	-9.44765
▁గారు	-9.44915
ro	-9.44934
ుడిని	-9.44956
రెడ్డి	-9.45108
పేట	-9.4513
▁గొ	-9.4517
▁విధానం	-9.4518
▁చుట్టూ	-9.45188
ృత	-9.45293
▁మొక్కజొన్న	-9.45355
ర్ల	-9.45494
▁హిందీ	-9.45627
శాస్త్ర	-9.45646
▁పర్వత	-9.45804
క్రమ	-9.45836
▁కూడిన	-9.45853
ండ్ల	-9.45889
▁ఆట	-9.45892
▁చేస్తూ	-9.45933
▁నేషనల్	-9.45984
▁చాల	-9.4599
▁అర్ధ	-9.46139
▁బల	-9.46153
▁ప్రకాశం	-9.46176
H	-9.46223
▁టై	-9.46291
దేవి	-9.46364
it	-9.46474
▁అస	-9.46507
ద్య	-9.4653
ుతాయి	-9.46567
▁జన్మ	-9.46821
▁29	-9.46883
▁కూ	-9.47271
పుడు	-9.47291
▁కారణ	-9.47382
గ్ర	-9.4762
ంబు	-9.47631
ుకుంది	-9.47647
▁బహు	-9.47648
▁తయారీ	-9.47654
▁జట్టు	-9.4772
▁వర	-9.47729
▁బ్రాహ్మణ	-9.47754
▁విశేష	-9.4776
త్తి	-9.47906
చార	-9.47962
▁ప్రపంచంలో	-9.47969
పోయిన	-9.47973
న్నీ	-9.48029
▁సాధించ	-9.48102
▁చింత	-9.48108
▁de	-9.48268
▁సాగ	-9.48464
ce	-9.48528
▁లక్షల	-9.48574
▁గుర్తు	-9.48618
33	-9.48727
▁శాంతి	-9.48736
▁భాగ	-9.4879
▁జన్మించాడు	-9.48814
▁2004	-9.48888
▁గారి	-9.48935
▁అధికార	-9.49034
▁సింగ్	-9.49045
డుగు	-9.49076
▁సైన్యం	-9.49078
▁పిల్లల	-9.492
క్షణ	-9.49239
▁తగ్గించ	-9.49281
▁చేయబడింది	-9.49324
▁సంపాదించ	-9.49426
▁31	-9.49485
ీకరించ	-9.49486
▁హరి	-9.49498
▁ఘన	-9.49564
▁తిరుపతి	-9.49573
భవ	-9.49606
గం	-9.49623
▁తెర	-9.49638
▁h	-9.49663
63	-9.49692
0%	-9.49755
వేత్త	-9.49886
పరచ	-9.49916
▁రక్త	-9.49929
▁చెట్టు	-9.4994
కోట	-9.49955
▁జ్ఞాన	-9.50006
61	-9.50044
▁ముస్లిం	-9.50045
▁అయ్య	-9.50052
▁జయ	-9.50152
▁తొలగించ	-9.50156
▁ప్రవేశ	-9.50169
పరి	-9.50247
నాథ	-9.50296
▁ఎంపిక	-9.5031
ాది	-9.5037
77	-9.50457
▁వాడు	-9.50469
▁ప్రధానంగా	-9.50538
▁అన్నాడు	-9.50593
▁నేల	-9.50651
వైపు	-9.50742
దేవ	-9.50743
తన	-9.50795
▁అక్టోబరు	-9.508
▁సమీపంలో	-9.50826
▁గురువు	-9.50908
చర	-9.50959
▁సూ	-9.51081
ిస్తున్నారు	-9.51101
▁అర్	-9.51155
67	-9.51199
▁ఇక్కడి	-9.512
▁పట్ల	-9.51259
మత	-9.5131
▁కళ	-9.51332
▁ఆయనకు	-9.51455
నర్	-9.5151
▁పర్వము	-9.51556
▁నిర్మించిన	-9.51567
18	-9.5158
▁శ్రీకాకుళం	-9.51589
▁ప్రణాళిక	-9.51627
▁కంప్యూటర్	-9.51698
▁గ్రా	-9.51708
▁k	-9.51764
ుడ	-9.51807
▁ఆగస్టు	-9.51842
ర్డ్	-9.51887
ంలోని	-9.51945
ాం	-9.5197
▁మంత్ర	-9.52032
▁తనకు	-9.52056
▁ఉదాహరణకు	-9.52128
08	-9.52133
el	-9.52169
▁గృహాలు	-9.52172
▁మొదట	-9.5218
కాలంలో	-9.52244
▁గుణ	-9.52258
▁పరిస్థితి	-9.52279
జో	-9.52298
▁సృష్టించ	-9.52429
▁ఉంటే	-9.52462
99	-9.52485
▁ఇంత	-9.52496
▁మార్పు	-9.52591
▁పాటలు	-9.52606
▁టీ	-9.52635
st	-9.52727
▁మంత్రి	-9.52849
70	-9.52871
ువు	-9.52924
లియ	-9.52967
is	-9.52972
80	-9.53023
స్తు	-9.53032
▁రేడియో	-9.53037
▁ఏడు	-9.53157
▁పరిధిలో	-9.53172
▁కుమార్తె	-9.53231
▁రాజ్య	-9.53247
▁గ్రామములో	-9.53288
▁భాషా	-9.53325
మొ	-9.53353
▁సంయుక్త	-9.53359
▁వరంగల్	-9.53507
▁V	-9.53554
▁శరీర	-9.53555
▁మద్య	-9.53647
▁రు	-9.53658
▁సాంస్కృతిక	-9.53662
▁హైదరాబాద్	-9.53686
▁ఆఫ్రికా	-9.53759
ఏ	-9.53796
▁వివాహ	-9.53812
▁రీ	-9.5382
▁బాధ్యత	-9.5394
▁సంబంధం	-9.54056
టరు	-9.54116
ఠ	-9.5439
▁సందర్భంగా	-9.54414
పాటి	-9.54459
▁35	-9.54466
ున్న	-9.54502
▁ఎందుకంటే	-9.54513
▁నేర	-9.54617
హం	-9.54703
్యూ	-9.54731
▁జొన్న	-9.54731
మన	-9.54868
▁ఆల్	-9.54916
▁సాధన	-9.5493
▁గుడి	-9.54949
వలసి	-9.54957
▁నవ	-9.5501
▁అప	-9.5511
▁మార్గం	-9.55125
ండే	-9.55194
▁ఒప్పందం	-9.55287
ితే	-9.55294
▁కామ	-9.5534
ార్	-9.55347
సూ	-9.55348
▁ఉద్యోగ	-9.55366
▁మూస	-9.55391
▁నట	-9.55427
▁అయి	-9.55427
ందని	-9.55527
▁నియోజకవర్గం	-9.55534
పాటు	-9.55586
▁on	-9.55609
▁డై	-9.55651
వార్	-9.55789
▁సోమ	-9.55878
▁భాషలో	-9.5604
▁ప్రయాణ	-9.56099
▁కల్పించ	-9.56158
▁ప్రకృతి	-9.56182
▁సినీ	-9.56233
▁కొల	-9.5624
▁చట్టం	-9.56247
▁ఆసక్తి	-9.56283
తె	-9.5629
▁ఇప్పటికీ	-9.5635
▁ముఖ	-9.56359
▁భావించ	-9.56385
▁పడి	-9.56386
డమే	-9.56411
▁త్రి	-9.56426
కై	-9.56446
▁ఆలోచన	-9.56455
▁మొక్క	-9.56593
▁వ్యాస	-9.56594
▁కాబట్టి	-9.56624
▁అతనికి	-9.56626
న్నె	-9.56692
▁డిసెంబరు	-9.56736
గడ	-9.56763
▁పద్ధతి	-9.56764
▁100	-9.56823
▁అంగీకరించ	-9.56886
▁2014	-9.56895
▁విదేశీ	-9.56902
ద్ధ	-9.56904
li	-9.56919
ఫె	-9.56986
▁ప్రాంత	-9.56994
▁భారతదేశ	-9.57066
95	-9.57178
▁మద్రాసు	-9.57216
un	-9.5724
▁2005	-9.57265
▁రెండో	-9.57321
▁చెప్పిన	-9.57337
▁సమస్య	-9.57394
▁ఉంటారు	-9.57438
థి	-9.5744
నాటి	-9.57442
▁v	-9.57442
▁మాట్లాడ	-9.57453
రంగ	-9.57525
▁తొ	-9.57541
98	-9.57612
ినట్లు	-9.57681
07	-9.57693
▁ఖాన్	-9.57693
మెంట్	-9.57695
▁పారి	-9.57715
ూరి	-9.57786
05	-9.57787
▁చెప్పాడు	-9.57815
ol	-9.57871
▁పండుగ	-9.57876
▁an	-9.57887
ఎస్	-9.57919
▁రాసిన	-9.57938
గొ	-9.57967
▁క్ర	-9.57989
డర్	-9.57996
▁భౌతిక	-9.58023
స్టు	-9.5803
69	-9.58119
▁స్థాయిలో	-9.58186
ter	-9.58207
90	-9.58228
te	-9.58244
రస	-9.58252
▁వెంటనే	-9.58284
▁that	-9.58315
▁బాల్	-9.58388
▁గృహ	-9.58439
ళి	-9.58477
93	-9.58477
▁l	-9.58637
74	-9.58652
▁రాత్రి	-9.58676
▁పాకిస్థాన్	-9.5872
66	-9.58726
83	-9.58778
▁ఆసియా	-9.58781
▁డీ	-9.58853
ూరులో	-9.58877
ేంద్ర	-9.589
లైన	-9.58911
భాష	-9.59005
96	-9.59144
▁దేవాలయం	-9.59161
71	-9.59208
క్ర	-9.59259
76	-9.59348
▁ఉన్నది	-9.59349
▁కోల్	-9.59375
▁సెప్టెంబరు	-9.59383
▁ఉద్యమ	-9.5939
చన	-9.59429
దం	-9.59554
▁ఖమ్మం	-9.59558
వేయ	-9.59658
84	-9.59662
లిక	-9.5974
▁తిరుగుబాటు	-9.59851
ంక	-9.59869
▁జు	-9.59957
▁మారి	-9.59973
81	-9.60097
68	-9.60117
91	-9.60119
▁వృక్ష	-9.60142
కవి	-9.60183
▁వ్యాసం	-9.60185
▁చెక్క	-9.60232
చా	-9.60245
స్ట	-9.60297
▁పాకిస్తాన్	-9.60388
తల	-9.60419
ఖా	-9.60436
▁నవంబరు	-9.60477
▁st	-9.605
x	-9.60501
▁ఎయిర్	-9.60673
06	-9.60678
ణం	-9.60705
▁చివర	-9.60738
పోయి	-9.60744
▁యె	-9.60794
▁హి	-9.60859
▁వెళ్ల	-9.60949
▁జీ	-9.61089
యూ	-9.61127
▁ఇక	-9.6114
▁చక్రవర్తి	-9.61143
▁అర్థ	-9.612
26	-9.61217
▁నలుగురు	-9.61297
03	-9.61382
రికి	-9.61395
▁అందించ	-9.61399
▁విమర్శ	-9.6151
▁చల్ల	-9.61561
▁పత్ర	-9.61622
టె	-9.61658
▁సామ్రాజ్యం	-9.61698
▁సహాయ	-9.61738
ిస్తే	-9.61801
ధు	-9.61885
యాన్	-9.61888
వంత	-9.61908
▁కాలనీ	-9.61944
ti	-9.6201
క్త	-9.62025
▁మల్ల	-9.62033
▁60	-9.62035
w	-9.62092
▁com	-9.62115
▁సమయం	-9.62165
టై	-9.62175
ారెడ్డి	-9.62221
▁ప్రమాద	-9.62372
▁2016	-9.62408
ార్థ	-9.62424
32	-9.62479
09	-9.62479
▁స్థల	-9.62533
▁గ్	-9.62543
▁స్వాతంత్ర్య	-9.62576
ంతా	-9.62658
▁జాన్	-9.62801
id	-9.6289
▁con	-9.62912
▁ప్రజలకు	-9.63003
86	-9.63071
92	-9.63075
తుంది	-9.63117
87	-9.63138
▁వేడి	-9.63139
▁శిక్ష	-9.63148
▁వాయువు	-9.6319
▁దీన్ని	-9.63227
▁యోగ	-9.63229
చీ	-9.63247
▁యూనియన్	-9.63308
▁మరి	-9.63314
▁నియంత్రణ	-9.63329
▁విధ	-9.63333
▁చట్ట	-9.63356
పం	-9.63426
వులు	-9.63518
▁అతడి	-9.63532
▁చదువు	-9.63542
▁కల్	-9.63601
42	-9.63674
▁సభ్యులు	-9.63676
▁ప్రెస్	-9.63678
▁బాధ	-9.63682
▁విడుదలైన	-9.63693
31	-9.63724
▁అనంతపురం	-9.63724
97	-9.63774
▁రావు	-9.63877
▁వెనుక	-9.63947
చిన	-9.64028
ంపు	-9.64068
సిన	-9.6424
▁తీ	-9.64277
▁సంబంధ	-9.64283
▁రచించిన	-9.643
▁ఉన్నాడు	-9.64342
ుకుంటారు	-9.64451
▁వేసవి	-9.64508
▁తరచుగా	-9.64527
▁నమూనా	-9.6453
▁తెలుగులో	-9.64569
▁చెప్పవచ్చు	-9.64642
▁జరుప	-9.64652
▁పుస్తకం	-9.64655
▁నిర్మించారు	-9.64675
▁క్రి	-9.64698
55	-9.64726
ment	-9.64823
▁నాడు	-9.64878
బడే	-9.64965
ర్ర	-9.65061
▁క్యా	-9.65116
యె	-9.65146
గారు	-9.65313
వతి	-9.65453
▁ప్రారంభించారు	-9.65478
ినా	-9.65648
▁మొదలు	-9.65659
స్థాన	-9.65664
ణా	-9.65686
▁2000	-9.65711
▁ఫర్	-9.65783
లక	-9.65807
▁అనుసరించి	-9.65844
▁దూ	-9.65882
కాలు	-9.65884
▁విజయనగరం	-9.65936
▁చక్ర	-9.65991
కరమైన	-9.66003
ల్లు	-9.66013
▁వంటివి	-9.66061
94	-9.66107
▁గె	-9.66153
▁తెల్ల	-9.66198
▁సూక్ష్మ	-9.66218
▁విజ్ఞాన	-9.66242
▁పసుపు	-9.66246
▁రికార్డు	-9.66397
▁కలసి	-9.66439
శక్తి	-9.6645
▁చిత్రంలో	-9.66464
▁జపాన్	-9.66467
ందే	-9.6647
▁క్రింది	-9.66606
▁కావ	-9.6665
▁భా	-9.66655
గూడ	-9.66696
ాలయం	-9.66738
02	-9.66854
▁తక్కువగా	-9.66861
భాగ	-9.66875
}	-9.66884
▁ఆధారపడి	-9.66914
▁అభి	-9.67133
▁తిరు	-9.6714
▁భావిస్తున్నారు	-9.67172
▁వర్ష	-9.67192
▁he	-9.67228
▁సంఘ	-9.67271
హో	-9.67332
um	-9.67352
▁రష్యా	-9.6746
వరకు	-9.67461
▁సామ్రాజ్య	-9.67489
▁ప్రకటించ	-9.67566
ాంత	-9.67601
▁నల్గొండ	-9.6771
చ్ఛ	-9.67935
▁52	-9.67939
▁కొడుకు	-9.67957
ma	-9.67991
89	-9.68023
▁స్థితి	-9.6805
▁దుర్	-9.68066
ల్లె	-9.68107
మూర్తి	-9.68163
▁శాస్త్రీయ	-9.68179
▁ద్రవ	-9.68189
▁నమ్మ	-9.68198
▁ప్రాంతాలు	-9.68236
ండ్ర	-9.68268
ుంది	-9.68295
స్తాడు	-9.68344
ునికి	-9.68352
▁కర్ణాటక	-9.6838
▁e	-9.68394
▁అయినా	-9.68402
▁గత	-9.68417
లింగ్	-9.68464
▁ఎక్కడ	-9.68473
▁ప్రకటన	-9.68542
▁రోజులు	-9.68592
ేషన్	-9.68619
బడతాయి	-9.68682
▁ఫై	-9.68725
▁దీనిలో	-9.68745
▁సే	-9.68764
▁నియమించ	-9.6882
డము	-9.68843
04	-9.68883
పాల	-9.68896
ాపురం	-9.68962
ండా	-9.68976
79	-9.68997
▁కనిపిస్తుంది	-9.69002
బే	-9.69004
▁డే	-9.69047
▁భక్తులు	-9.69073
88	-9.69085
గ్గ	-9.69093
ాల్సి	-9.6918
గల్	-9.69189
▁దూర	-9.69232
▁వున్నవి	-9.69237
▁జర్మనీ	-9.69252
హార	-9.69264
పరు	-9.69367
▁అనంతరం	-9.69389
29	-9.69412
మాన్	-9.69488
▁చెందింది	-9.69558
▁కన్	-9.69562
▁పేజీ	-9.69581
వాగు	-9.69659
▁అర	-9.69699
27	-9.6973
▁యుద్ధంలో	-9.69795
▁పరిచయం	-9.69864
ికి	-9.69897
▁రాష్ట్రంలో	-9.69932
తూ	-9.69946
▁చీ	-9.69998
43	-9.7001
▁గ్రంథ	-9.70025
పోతుంది	-9.701
పర	-9.70114
▁హు	-9.70141
45	-9.70297
గానూ	-9.70324
తోపాటు	-9.70327
నిక్	-9.70329
▁జీవితం	-9.7036
▁కర్మ	-9.70437
28	-9.70443
సారి	-9.70445
▁సగటు	-9.70456
▁రూపొందించ	-9.70506
ములలో	-9.70532
ంచు	-9.70582
▁జిల్లాకు	-9.70608
35	-9.70651
65	-9.70663
▁తెలుస	-9.70669
మం	-9.70687
°	-9.70716
న్నది	-9.70728
-1	-9.70737
▁బై	-9.70751
▁మతం	-9.70858
▁గ్రహ	-9.70886
గె	-9.7093
రియన్	-9.70938
▁సమాన	-9.70983
▁క్షేత్ర	-9.71016
▁దర్శకత్వం	-9.71023
▁was	-9.71055
▁{	-9.71119
చూ	-9.7112
▁కోట్ల	-9.71144
స్తే	-9.71216
డ్డ	-9.71217
▁తరగతి	-9.71226
పట్ట	-9.71235
కోసం	-9.71243
గుణ	-9.71244
పురంలో	-9.71281
▁క్రైస్తవ	-9.71305
▁ప్రవేశించ	-9.71364
▁వ్యాసాలు	-9.71412
▁జీవన	-9.71443
▁బ్యా	-9.71452
▁పట్టణం	-9.71456
శాస్త్రి	-9.71461
▁నిజాం	-9.71472
▁32	-9.71473
▁కొట్ట	-9.71476
ినప్పుడు	-9.71532
▁ప్రొ	-9.71655
ాయని	-9.71701
▁కథలు	-9.7172
▁బంధ	-9.7176
▁సమాజ	-9.71819
▁from	-9.71829
▁కష్ట	-9.71831
▁అసలు	-9.71862
కము	-9.71863
▁గర్భ	-9.71867
▁తీసుకో	-9.71898
▁బంగారు	-9.71914
బీయెస్	-9.72003
▁మంద	-9.72034
వేశ	-9.72134
▁పిల్ల	-9.72172
▁వర్	-9.722
▁అధ్యయనం	-9.72254
▁సొంత	-9.72333
48	-9.72398
భావ	-9.72442
▁సినిమాలో	-9.72451
▁పెద	-9.72484
▁రస	-9.72493
▁పురుష	-9.72537
▁మగ	-9.72573
▁యువ	-9.72592
▁ఎమ్బీ	-9.72621
నీయ	-9.72667
▁చేతి	-9.72682
▁ప్రచారం	-9.72761
▁భాగంలో	-9.7277
▁వ్యతిరేక	-9.72824
▁ప్రాంతాల్లో	-9.72856
▁నక్షత్ర	-9.72862
▁సార్లు	-9.72872
శాస్త్రం	-9.72931
▁ఉండవచ్చు	-9.72945
రోజు	-9.73098
▁వ్రాయ	-9.73129
వారికి	-9.73236
▁ఔ	-9.73397
▁వ్రాసిన	-9.73405
▁మనం	-9.73454
47	-9.73674
ate	-9.73706
▁అభిప్రాయ	-9.73798
▁|	-9.73815
ల్డ్	-9.73818
▁జరగ	-9.73818
▁చదివిన	-9.73846
గారి	-9.73851
పరంగా	-9.73851
75	-9.73858
▁తిరుమల	-9.73901
▁చిత్రాలు	-9.73923
▁రాగ	-9.7397
▁నెహ్రూ	-9.74087
రియ	-9.74105
▁ప్రత్యక్ష	-9.7412
hi	-9.74127
▁అందుకు	-9.74143
▁ఎర్ర	-9.74173
ఫో	-9.74272
కుంట	-9.74278
56	-9.7433
ేది	-9.74367
ాపూర్లో	-9.74456
డంలో	-9.74555
ిగా	-9.74563
ka	-9.74591
▁రోజుల	-9.74664
సై	-9.74788
▁are	-9.74805
▁అనుమతి	-9.75064
▁కింద	-9.75109
54	-9.7511
గ్రా	-9.75122
యన్	-9.75186
ాలనే	-9.7519
ru	-9.75239
▁సౌ	-9.75316
▁వైద్యశాలలో	-9.7533
▁తరువాతి	-9.75361
ొక్క	-9.75444
▁వ్యక్తిగత	-9.75532
▁చరిత్రలో	-9.75553
శ్ర	-9.75667
and	-9.75791
▁అర్బన్	-9.75796
▁పట్టు	-9.7582
▁నై	-9.75829
▁కల్ప	-9.75844
▁జూ	-9.75897
▁దిన	-9.75968
▁ప్రసార	-9.75974
చర్	-9.75981
82	-9.76005
నప్పుడు	-9.76008
▁అవసరమైన	-9.76047
▁1990	-9.76279
▁చర్చి	-9.76285
▁తేదీ	-9.76341
▁వుండ	-9.7636
▁r	-9.76363
▁ప్లా	-9.76408
▁పొందారు	-9.7651
ర్య	-9.76529
▁అధ్యక్ష	-9.76572
▁మిలియన్	-9.76586
▁వదిలి	-9.76682
▁పదవి	-9.76749
▁O	-9.76799
na	-9.76817
▁సాంప్రదాయ	-9.76829
▁ఛా	-9.77052
జే	-9.77103
▁నీవు	-9.77156
▁ఇస్లాం	-9.77159
ులతో	-9.77161
▁స్టా	-9.7718
▁ఆహారం	-9.77187
▁చేయబడిన	-9.77189
▁అభిమాన	-9.77228
▁రాజ్యం	-9.77254
సేన	-9.77291
▁భక్తి	-9.77298
రన్	-9.7738
64	-9.77395
జ్జ	-9.77444
▁లభించింది	-9.77495
దన	-9.77508
ాపూర్	-9.77525
U	-9.7756
క్షి	-9.77561
44	-9.77637
▁జన్మించారు	-9.77664
▁టో	-9.77685
భాగం	-9.77769
ాలయ	-9.77806
▁వివరించ	-9.77868
జాల	-9.77917
మయిన	-9.7801
కార్	-9.78012
▁ఉండాలి	-9.78026
37	-9.78067
▁అవుతుంది	-9.78094
ైతే	-9.78146
▁కాపాడ	-9.782
▁పురాణ	-9.7822
▁ప్రచురించ	-9.78236
▁at	-9.78249
41	-9.78324
▁శబ్ద	-9.78361
▁మనిషి	-9.78391
మల	-9.78438
ాధికార	-9.78463
▁వెల్	-9.78499
51	-9.78516
▁రంగంలో	-9.78536
▁ఆక్రమించ	-9.78539
దేశాల	-9.78549
▁దిగువ	-9.78682
▁యి	-9.78685
▁పద్మ	-9.78692
▁తర	-9.78697
▁వేస	-9.78705
రాల	-9.7879
▁హెచ్	-9.78797
ద్దు	-9.788
పుర	-9.78825
▁సర్వీసు	-9.78856
▁జిల్లాలోని	-9.78905
▁సార	-9.7893
రాయి	-9.78937
▁టె	-9.79004
36	-9.79011
▁ఉపయోగించి	-9.7904
▁భారత్	-9.79085
వాన్	-9.79108
▁నృత్య	-9.79197
▁కోరిక	-9.79284
కొన	-9.79319
▁ఉండగా	-9.79326
▁భీమ	-9.79353
▁ఖర్చు	-9.7936
స్టా	-9.79375
sh	-9.79405
▁ఆస్ట్రేలియా	-9.79448
ంటారు	-9.79509
▁45	-9.79517
▁ప్రదేశం	-9.79554
డాన్ని	-9.7957
▁పరమ	-9.79577
▁కర	-9.79592
▁వారిలో	-9.79604
▁కమిటీ	-9.79605
▁యంత్ర	-9.79665
▁వెలి	-9.79756
39	-9.79815
▁జే	-9.79851
▁మధ్యలో	-9.79852
▁పిల్లలు	-9.79862
▁దైవ	-9.79864
▁ప్రయత్నించ	-9.7997
▁ఇచ్చిన	-9.79998
▁చేరి	-9.80027
▁అనంత	-9.80045
▁రిపబ్లిక్	-9.8005
▁ప్రశ్న	-9.80076
▁స్కూల్	-9.80108
శ్రీ	-9.8011
గుంట	-9.80132
నప్పటికీ	-9.80175
ంటా	-9.80266
▁ఆలయంలో	-9.80272
ాంగ	-9.80388
పూ	-9.80485
▁ఉపగ్రహ	-9.80597
ంటుంది	-9.80647
▁నియమ	-9.80705
▁నిర్మాత	-9.80741
వలన	-9.80777
▁శిల్ప	-9.80798
ir	-9.80815
▁స్థిర	-9.80879
▁పర్యాటక	-9.80887
72	-9.80914
గీ	-9.80962
62	-9.80963
▁పుష్ప	-9.80974
డూ	-9.80975
49	-9.80992
వల	-9.81043
పల్లెలో	-9.81062
బద్ధ	-9.81079
దర్	-9.8108
విద్య	-9.81081
▁మీటర్ల	-9.8119
▁ప్లే	-9.81243
▁సుందర	-9.81265
▁లకు	-9.81303
G	-9.81332
58	-9.81333
▁అన్నది	-9.81344
రువు	-9.81356
▁పుట్టిన	-9.81431
▁ప్రాంతీయ	-9.81458
46	-9.81522
▁సరి	-9.81524
▁సాధించింది	-9.81538
▁సభ్యుల	-9.81542
▁పుణ్య	-9.81576
▁గతంలో	-9.81608
▁అందువలన	-9.81732
▁కొంతమంది	-9.81755
క్షన్	-9.81849
▁మిలియన్ల	-9.81868
▁వాతావరణం	-9.81869
▁ఫె	-9.81895
రాన్	-9.81934
హిత	-9.81958
▁స్వర	-9.81976
▁సాంఘిక	-9.8208
స్తున్న	-9.8211
ాంతర	-9.82114
▁ముందుగా	-9.82114
▁క్రికెట్	-9.82148
ta	-9.82231
▁రచనలు	-9.82246
▁దర్శకుడు	-9.82348
ల్ని	-9.82358
లింగ	-9.82487
▁ఉన్నా	-9.82553
▁పార్	-9.82623
▁స్వంత	-9.82642
శు	-9.82699
పాడులో	-9.82724
▁నీటిని	-9.82733
▁పనిచేశాడు	-9.82765
▁లాల్	-9.82821
▁నాకు	-9.82837
▁ప్రాజెక్టు	-9.82854
▁స్త్రీలు	-9.82879
రుగు	-9.82886
▁దూరములో	-9.8289
▁వర్గం	-9.83034
▁అర్ధం	-9.83049
▁విష	-9.83066
▁లక్ష్మీ	-9.83095
పాద	-9.8314
రిక్	-9.83162
ుకోవడానికి	-9.83166
ానంద	-9.83211
▁వార్	-9.8329
V	-9.83355
▁యాత్ర	-9.83364
ఈ	-9.83389
లియా	-9.83422
ంధ	-9.83473
▁నామ	-9.83553
▁అంతా	-9.83631
▁ప్రత్యేకంగా	-9.83634
▁కణ	-9.83706
▁పొందాడు	-9.83712
▁గంగ	-9.83729
యోగ	-9.8375
ాకార	-9.8381
▁అఫ్	-9.8382
▁ప్రో	-9.83861
ియన్	-9.83968
ారా	-9.84003
ించు	-9.84014
▁ఆమెను	-9.84022
▁మరణ	-9.84023
శ్వ	-9.8405
సిస్	-9.84054
▁ఏర్పడింది	-9.84111
సియా	-9.84131
▁పన్ను	-9.84173
ist	-9.84184
▁ఉండేవి	-9.84193
▁గడి	-9.84294
▁సృష్టి	-9.84333
▁సాగు	-9.84341
▁చెరకు	-9.84391
▁లోహ	-9.84411
కూరు	-9.84439
▁గణిత	-9.84447
ంటూ	-9.84529
▁భూగర్భ	-9.84531
▁అక్షర	-9.84546
im	-9.84595
▁స్టేట్స్	-9.84614
▁వాయు	-9.84616
మయ	-9.8463
53	-9.84632
▁అమరావతి	-9.84651
జన్	-9.84771
▁పూర్వం	-9.84775
లిక్	-9.84853
పోయే	-9.84863
52	-9.84878
ముతో	-9.84902
▁which	-9.84948
▁విషయంలో	-9.84992
▁నంది	-9.85032
▁ప్రాంతాన్ని	-9.85034
▁చేసుకున్న	-9.85046
రాజ్య	-9.85051
▁ఇలాంటి	-9.85169
▁చెన్నై	-9.85264
న్నారు	-9.85275
▁శాస్త్రం	-9.85281
▁పురస్కారం	-9.85364
▁నిర్ణయ	-9.85447
▁1980	-9.85451
38	-9.85462
పరమైన	-9.85472
ుడికి	-9.85617
▁నటుడు	-9.85636
త్స	-9.85708
▁కన్నడ	-9.85708
▁2012	-9.85725
▁ఏరియా	-9.85742
▁మార్గ	-9.85758
చో	-9.85784
▁33	-9.859
పోయారు	-9.8591
నాయక	-9.85923
చేసిన	-9.85936
▁శాసన	-9.85957
▁చారిత్రక	-9.85978
న్య	-9.86014
▁పల్లె	-9.86038
▁ఊరి	-9.86059
ద్ది	-9.86071
▁ఉందని	-9.86076
▁వంట	-9.86181
▁ప్రయత్న	-9.86236
ay	-9.86251
ఫర్	-9.8634
▁ఇతను	-9.86383
వడం	-9.86397
▁బరువు	-9.86401
ంతి	-9.86405
▁నిర్వహించిన	-9.86417
▁అక్కడి	-9.8644
లిన్	-9.86453
దె	-9.86562
▁సున్న	-9.86609
దిగా	-9.86631
ఖ్	-9.86652
59	-9.86678
స్య	-9.86706
రేట్	-9.86747
▁నిజ	-9.86763
▁చలన	-9.86864
▁లండన్	-9.86885
▁అధ్యక్షుడు	-9.86911
▁పనిచేశారు	-9.86933
34	-9.87006
▁అడ్డ	-9.87192
వచ్చ	-9.87196
▁భావన	-9.872
▁చేతిలో	-9.87206
▁సాధించిన	-9.87235
▁దాన్ని	-9.87262
▁పేర్లు	-9.87313
▁గణ	-9.87492
నొ	-9.87587
నామ	-9.87588
▁ఉపయోగించే	-9.87611
▁విభజించ	-9.87651
ఫీ	-9.87719
▁బర్	-9.87771
▁తగ్గి	-9.87815
▁పారిశ్రామిక	-9.87826
మర	-9.87873
▁మారు	-9.87891
▁గ్రామీణ	-9.87901
▁నివేదిక	-9.88037
షీ	-9.8806
గర్	-9.88076
▁ఆమ్లం	-9.88082
▁క్రీడా	-9.88116
ెం	-9.88252
శ్య	-9.88256
ac	-9.88302
▁కలిగించ	-9.88308
ఆర్	-9.88409
▁కడప	-9.88415
▁దీప	-9.88445
▁ఇంగ్లీషు	-9.88618
op	-9.88637
▁క్రమ	-9.88639
▁మనసు	-9.88755
▁ఆమెకు	-9.88831
▁చివరకు	-9.88851
▁పదార్థం	-9.88852
em	-9.88907
▁ఎవరి	-9.88941
▁సేన	-9.88949
▁ప్రయత్నం	-9.88964
▁ఫ్రెంచ్	-9.88997
వని	-9.89019
▁తేడా	-9.89056
▁సంబంధిత	-9.89084
ప్త	-9.89095
దారు	-9.89104
▁చూస	-9.89135
▁జైలు	-9.8925
మణి	-9.89281
▁పరా	-9.89288
▁ఇండియన్	-9.89456
ప్రా	-9.89468
ైనా	-9.89481
షు	-9.89497
▁పలక	-9.89502
ఐ	-9.89543
▁విన	-9.89583
ity	-9.89583
▁కేసు	-9.89588
▁it	-9.89627
ొక	-9.89692
ers	-9.89767
ia	-9.89799
▁దర్శక	-9.89809
ot	-9.8984
ారం	-9.89962
భ్య	-9.90191
దూ	-9.90232
▁సంస్థల	-9.90305
▁బయట	-9.90309
▁దేశాలు	-9.90333
▁ఇరు	-9.90352
▁విడి	-9.90368
▁దశలో	-9.90418
తలు	-9.90486
▁అనుభవ	-9.90486
▁కావ్య	-9.90487
▁సంఘటన	-9.9051
దల	-9.90511
▁బాణ	-9.90512
▁36	-9.90573
మార్	-9.90578
క్కి	-9.90584
ow	-9.90612
▁తయార	-9.90636
▁రథ	-9.90732
ge	-9.90803
▁వేసి	-9.90807
▁జై	-9.90821
▁దక్క	-9.9087
▁తగిన	-9.90872
▁పొడి	-9.90882
పడి	-9.90966
▁అడవి	-9.91016
బడ్డారు	-9.91069
▁గాను	-9.91094
▁మామిడి	-9.91105
▁మ్యాచ్	-9.91131
di	-9.9114
▁సమాచార	-9.91165
పించ	-9.91298
వైన	-9.91314
▁కార్యక్రమాలు	-9.9135
▁నాయక	-9.91374
బడ్డ	-9.91389
▁ఏర్పరచ	-9.91401
▁డో	-9.9147
ప్రాథమిక	-9.91491
▁హత్య	-9.91548
▁కరీంనగర్	-9.91568
పల్లిలోను	-9.91596
▁నూ	-9.91603
కంటే	-9.9161
▁మిశ్రమ	-9.91645
▁ఆచార	-9.91652
▁ప్రాధాన్యత	-9.91719
▁నరసింహ	-9.91788
▁మార్పులు	-9.91797
▁సీత	-9.91882
▁మట్టి	-9.91948
▁వర్ణించ	-9.92002
▁80	-9.92007
▁నెలల	-9.92019
▁సోవియట్	-9.92038
▁తిన	-9.92143
▁మర	-9.92177
▁పచ్చ	-9.92211
ండర్	-9.92266
వల్ల	-9.92294
ందా	-9.92295
▁వీలు	-9.92299
▁విమాన	-9.92313
▁°	-9.92318
సార	-9.92324
▁జనరల్	-9.9237
ట్రా	-9.92374
78	-9.92386
▁In	-9.92405
▁కార్యక్రమాల	-9.92405
్ని	-9.92407
om	-9.92428
▁కుటుంబం	-9.92463
▁53	-9.92496
▁జాతుల	-9.92549
హు	-9.92582
ంటె	-9.9259
000	-9.9259
▁వరల్డ్	-9.92617
▁అగ్ర	-9.92629
▁ఎఫ్	-9.92631
సన	-9.92659
పాక	-9.92666
▁యజ్ఞ	-9.92714
▁నంద	-9.92759
▁అంగ	-9.9282
▁మళ్ళీ	-9.92822
▁ప్రథమ	-9.92935
▁కోర్టు	-9.92947
▁ఛ	-9.92966
est	-9.92985
ుతుందని	-9.92995
కలు	-9.93036
▁మాన్	-9.93078
రాం	-9.93126
▁మరణించ	-9.93152
▁మొదల	-9.93208
శాఖ	-9.93215
▁వేంకట	-9.93232
▁అందుకే	-9.93243
▁తెచ్చ	-9.93302
▁సేవలు	-9.93326
▁నిల్వ	-9.9333
▁పవిత్ర	-9.93345
ve	-9.93355
▁నిజామాబాద్	-9.93431
భి	-9.93451
గూడెం	-9.93471
▁కొనసాగించ	-9.93505
కింగ్	-9.93511
57	-9.93552
▁దేవి	-9.93562
కృత	-9.93574
▁రేఖ	-9.93578
▁విష్ణు	-9.93607
▁పాలు	-9.93673
▁బౌ	-9.93706
▁సామెత	-9.93757
▁సింహ	-9.93776
▁తెలి	-9.93926
▁గ్రీకు	-9.93943
▁వయసు	-9.93965
పులు	-9.93973
▁వరుస	-9.94
▁దేవత	-9.94008
యల్	-9.9402
ధర్మ	-9.94048
▁జరిగాయి	-9.94058
▁ఉద్	-9.94069
▁దిగ	-9.94122
▁అధికారిక	-9.94124
▁ఇంద్ర	-9.9416
▁వస్తువు	-9.94233
▁కనిపించే	-9.94248
▁2003	-9.94281
▁మల	-9.94291
▁పొర	-9.94352
హీ	-9.94379
శీ	-9.94411
ుకుంటూ	-9.94437
▁ప్రవక్త	-9.94444
▁మాజీ	-9.94456
ధ్	-9.94479
కంగా	-9.94492
▁నిత్య	-9.94536
▁మనకు	-9.94551
▁అడుగుల	-9.9456
▁లోక	-9.94568
▁కన్న	-9.94618
▁జానపద	-9.94626
ant	-9.94682
▁ఉదాహరణ	-9.94706
▁పరిపాలన	-9.94712
▁వచ్చాయి	-9.9473
▁బార్	-9.94746
కొని	-9.9479
▁కాన్	-9.94794
▁ప్రవేశపెట్ట	-9.94821
▁వృద్ధి	-9.94854
ుడై	-9.94969
▁పోలి	-9.95021
వెన్	-9.95032
▁దర్శకత్వంలో	-9.95073
▁అలీ	-9.95189
పేటలో	-9.95191
టల్	-9.95214
▁చంద	-9.9531
డియా	-9.95313
యస్	-9.95344
▁స్వా	-9.95427
▁ఉష్ణ	-9.95452
టంతో	-9.95474
▁ఎన్నిక	-9.95484
▁తీసుకుని	-9.95512
ేలా	-9.95576
ారంలో	-9.95718
నకు	-9.95738
ార్ధ	-9.95759
age	-9.95819
▁విస్తరించ	-9.95869
▁వీరికి	-9.9594
▁భవన	-9.9597
▁ఓడ	-9.96044
▁అంతే	-9.96067
బడుతున్న	-9.96072
సులు	-9.96089
▁ఒకటిగా	-9.96108
▁పెట్టి	-9.96197
ాల్సిన	-9.96235
▁ప్రతిపాదించ	-9.96284
▁సెంటర్	-9.96297
▁సుఖ	-9.96343
ణీ	-9.96368
▁ఇచ్చే	-9.96394
స్టి	-9.96415
క్సి	-9.96426
▁this	-9.9643
▁గోపాల	-9.96459
రాలు	-9.96475
▁చర్చ	-9.96481
▁వుండును	-9.96522
▁1970	-9.96582
▁వెళ్లి	-9.9664
▁క్లా	-9.96699
లని	-9.96742
▁సిటీ	-9.96769
▁అడవుల	-9.96776
▁గుర	-9.96829
గన్	-9.96844
▁జైన	-9.96861
సింగ్	-9.96868
పోయాడు	-9.96927
▁ఏర్పడ	-9.96962
మాల	-9.96967
▁మొదలగు	-9.9699
▁ద్వీప	-9.97002
▁పాద	-9.97007
▁వాతావరణ	-9.97038
▁వాడి	-9.97061
▁ఘ	-9.97082
▁గుండె	-9.97144
దశ	-9.97156
▁రక్షించ	-9.97182
▁ఇచ్చి	-9.97223
▁తీసి	-9.97232
▁బహుమతి	-9.97289
▁ప్యా	-9.97318
▁స్థాపించ	-9.97346
▁రోగ	-9.97385
▁స్వీకరించ	-9.9747
▁నాట్య	-9.97478
▁కంది	-9.97508
▁బెంగాల్	-9.97511
▁కేంద్రంగా	-9.97565
ందో	-9.97568
73	-9.97579
కాంత	-9.97599
▁వివరణ	-9.97671
▁తీవ్ర	-9.97725
▁పొట్టి	-9.97728
▁ప్రారంభంలో	-9.9773
ci	-9.97745
▁వ్యాసాల	-9.97759
▁హాస్య	-9.97769
నికి	-9.97792
▁సమాచారం	-9.97794
▁క్ల	-9.97943
▁పర్యావరణ	-9.97997
▁సంపద	-9.98006
▁పాల్గొన	-9.98007
▁తత్వ	-9.98045
▁పనులు	-9.98058
హర	-9.98079
▁పాలనలో	-9.98081
▁శాస్త్రవేత్త	-9.98106
▁సంబంధించి	-9.98126
▁పోరాట	-9.98131
▁శైలి	-9.9816
▁పరిస్థితుల	-9.98201
ష్ఠ	-9.98236
▁ఆయా	-9.98254
▁సంకేత	-9.983
▁మన్	-9.98316
ేరు	-9.98339
▁చెప్పి	-9.98362
▁తమిళనాడు	-9.98391
▁మానసిక	-9.98413
▁సహాయం	-9.98448
▁రోజున	-9.98518
▁పరిణామ	-9.98627
▁విద్యుత్తు	-9.98636
ca	-9.9868
▁ఎటువంటి	-9.987
▁వృత్త	-9.9875
▁విప్లవ	-9.98845
▁జంతువుల	-9.98861
▁వేదిక	-9.98872
ుకుంటున్న	-9.98883
పాలెంలో	-9.98912
▁రాతి	-9.98965
▁విషయాల	-9.99011
▁వెబ్	-9.9903
▁జరిప	-9.99044
▁తేదీన	-9.9905
▁వేర్	-9.99111
per	-9.99112
▁కార్యక్రమం	-9.99126
▁నటించిన	-9.99132
ట్లుగా	-9.99184
▁శ్రీలంక	-9.99233
▁కెనడా	-9.99325
▁నెట్	-9.99325
▁చూపించ	-9.99379
▁నాయకుడు	-9.99379
▁రొ	-9.99379
▁దివ్య	-9.99473
▁మహారాష్ట్ర	-9.99536
▁ఖా	-9.99582
▁మొక్కల	-9.996
▁ఫ్ర	-9.99607
▁37	-9.99628
ంక్	-9.99668
▁pro	-9.9968
▁నీల	-9.99723
▁నిర్మల్	-9.99733
▁పనిచేయ	-9.99779
పోయాయి	-9.99822
▁ఇచ్చారు	-9.99827
మ్స్	-9.99833
▁వెళ	-9.99865
▁వాస్తవ	-9.99903
▁లోక్	-9.9994
▁అడుగు	-9.99959
జ్ఞాన	-10.0005
బడ్డాడు	-10.0005
నున్న	-10.0006
▁ఆధ్వర్యంలో	-10.0009
నుంచి	-10.0009
▁రకం	-10.001
▁నటి	-10.0015
▁సరైన	-10.0015
ab	-10.0018
▁బ్రిటన్	-10.0022
బల	-10.0022
తున్న	-10.0028
▁ఆప	-10.0028
డ్స్	-10.0029
సమ	-10.0039
▁ఉద్యమం	-10.0041
▁నేర్చ	-10.0041
▁పరిధిలోకి	-10.0043
యము	-10.0043
▁మిరప	-10.0044
▁ఉపాధ్యాయ	-10.0048
▁విద్యార్థులు	-10.0052
తకు	-10.0053
▁మరణం	-10.0056
▁గానీ	-10.006
గ్గు	-10.0061
▁అమెరికాలో	-10.0067
▁దో	-10.0068
వరంలో	-10.0068
▁ఇంటర్	-10.0072
▁సాహిత్యం	-10.0075
▁మండ	-10.0077
▁నటన	-10.0078
▁ఉండడం	-10.008
▁ఉన్నప్పటికీ	-10.0083
▁కలుప	-10.009
▁వచ్చారు	-10.009
బొ	-10.0093
▁విభాగ	-10.0098
lu	-10.01
▁తెలిసిన	-10.0101
▁కనుగొన	-10.0105
చ్చే	-10.0106
▁వీడియో	-10.0107
▁సంపాదక	-10.011
▁వాడుకలో	-10.011
కట్ట	-10.011
▁ఉన్నట్లు	-10.0117
జీవ	-10.0118
▁ma	-10.0122
W	-10.0126
థ్	-10.0126
▁నిలిచి	-10.0127
▁సొ	-10.0134
▁లోపల	-10.0139
end	-10.0142
▁భూభాగం	-10.0143
▁వచ్చ	-10.0146
▁వివర	-10.0158
▁డివిజన్	-10.0168
ఫై	-10.0169
సెస్	-10.0171
▁కథా	-10.0179
▁లై	-10.0185
ea	-10.0186
కాశ	-10.0197
చేత	-10.0202
ర్తి	-10.0212
స్తుందని	-10.0223
▁సత్	-10.0224
ైంది	-10.0226
▁పులి	-10.023
▁సెల్	-10.0236
▁రాజ్యాంగ	-10.0248
▁ex	-10.0248
▁కూడ	-10.0249
ుతున్నారు	-10.0251
▁సర	-10.0264
▁ఇటువంటి	-10.0264
▁డాక్టర్	-10.027
▁క్రమంగా	-10.0272
▁జీవితంలో	-10.0273
▁చేయుట	-10.0274
lo	-10.0279
▁కై	-10.0282
▁ధర్మరాజు	-10.0292
▁స్థానాల	-10.0294
▁తీయ	-10.0295
గ్రహ	-10.0296
▁స్వరూప	-10.0305
▁మల్	-10.0307
▁ప్రైవేట్	-10.031
స్వ	-10.031
▁గ్రంథం	-10.031
▁యో	-10.0319
{	-10.0319
▁అధికారం	-10.0321
పైన	-10.0322
▁లీగ్	-10.0331
▁పాత్రలు	-10.0331
కారుల	-10.0339
ుచు	-10.0345
▁||	-10.0349
మంత	-10.035
▁సంభవించ	-10.035
▁సభ్య	-10.0351
▁వాళ్ళ	-10.0351
▁రాష్ట్రంలోని	-10.0352
▁పోరాడ	-10.0354
బూ	-10.0357
▁అందు	-10.0358
మయ్యాయి	-10.0366
ga	-10.0369
||	-10.0369
మవుతుంది	-10.0371
▁పుస్తకాల	-10.0376
▁ప్రాంతానికి	-10.0377
▁34	-10.0383
▁భావిస్తారు	-10.0393
దాసు	-10.0393
▁కళ్యాణ	-10.0396
▁ఎనిమిది	-10.0397
రస్	-10.0401
▁ప్రాముఖ్యత	-10.0403
▁రాజమండ్రి	-10.0405
ిణి	-10.0406
నూరు	-10.0411
▁బయటకు	-10.0411
▁ఇప్పటి	-10.0414
కథ	-10.0414
▁శక్తిని	-10.0416
ంటాడు	-10.0416
▁విస్తీర్ణం	-10.0426
▁రోజుల్లో	-10.0428
▁నదీ	-10.0432
-2	-10.0438
▁పేద	-10.0445
▁ప్రయోగ	-10.0448
▁విద్యార్థి	-10.045
▁లక్ష్మణ	-10.045
▁పోత	-10.0455
▁స్టీ	-10.0458
వల్	-10.0459
లపాడు	-10.0462
నియన్	-10.0465
▁అణు	-10.0469
▁దర్శించ	-10.047
▁యూరోపియన్	-10.0478
▁రాజ్	-10.0481
▁వస్తున్న	-10.0483
▁హే	-10.0483
▁కత	-10.0484
▁ప్రి	-10.0484
▁ట్ర	-10.0485
▁మిగతా	-10.0486
▁కాశీ	-10.0489
▁డబ్బు	-10.049
చ్చిన	-10.0493
▁సంఖ్యలో	-10.0496
▁అభ్యర్థి	-10.0497
గొండ	-10.0498
▁మరణించాడు	-10.0499
▁ప్రతీ	-10.0506
▁శాస్త్రి	-10.0507
▁US	-10.0507
వేద	-10.0508
పాత్ర	-10.052
▁పోలీసు	-10.0524
▁విశ్వవిద్యాలయ	-10.0526
రల్	-10.0527
ుచున్న	-10.0535
▁ట	-10.0538
▁ఏదైనా	-10.0538
▁గుహ	-10.0539
▁లక్షణాలు	-10.0542
మంతా	-10.0553
▁వీరిలో	-10.0558
▁ఆధ్యాత్మిక	-10.0563
▁వేడుక	-10.0563
▁వ్యక్తుల	-10.0577
▁వద్దకు	-10.058
▁వెంట	-10.0582
▁2002	-10.0582
ధార	-10.0583
he	-10.0584
▁విధించ	-10.0585
▁అనకాపల్లి	-10.0587
ురాలు	-10.0596
▁1999	-10.0604
▁ప్రపంచంలోని	-10.0608
▁పురుషులు	-10.061
▁పద్ధతిలో	-10.0611
▁ఒక్కొక్క	-10.0613
చ్చు	-10.0626
ఫల	-10.0628
▁గే	-10.063
▁ఒకసారి	-10.064
▁సందర్శించ	-10.0644
▁రోమన్	-10.0646
మ్ము	-10.0647
చర్ల	-10.0647
ఖ్య	-10.0648
▁సైన్య	-10.0651
▁శ్రీరామ	-10.0656
▁వ్యా	-10.0657
▁అందరూ	-10.0659
▁వహించ	-10.066
▁రహస్య	-10.0669
▁జరుగుతున్న	-10.0671
ాలంటే	-10.069
పట్నం	-10.069
▁కలి	-10.0695
▁విగ్రహం	-10.0698
▁అశ్వ	-10.0701
లుగు	-10.0705
▁అప్ప	-10.0705
▁పోరాటం	-10.0705
ఫే	-10.0709
తిని	-10.0712
తంత్ర	-10.0714
ుతున్నాయి	-10.0717
▁సెయింట్	-10.0718
▁లక్ష్య	-10.072
▁మిత్ర	-10.072
▁ఉనికి	-10.0722
▁అమర్చ	-10.073
▁ముందుకు	-10.0731
▁రావ	-10.0736
ండును	-10.0738
▁భాగాల	-10.074
▁స్వాధీనం	-10.0744
▁చూ	-10.0745
తికి	-10.0747
▁దుకాణాలు	-10.0747
▁స్వయంగా	-10.075
నంద	-10.0751
▁ఆరంభ	-10.0762
శీల	-10.0764
నింగ్	-10.0765
▁మౌ	-10.0765
లొ	-10.0768
▁అనుకూల	-10.0768
bo	-10.0769
కారులు	-10.0774
▁ఎన్న	-10.0777
ెన్	-10.0778
▁1960	-10.0786
▁చేసుకుని	-10.0786
▁రాక్షస	-10.079
▁అంశాల	-10.0794
▁కనబడ	-10.0796
▁చౌ	-10.0805
▁చెరువులు	-10.0805
▁టెలివిజన్	-10.081
▁రామారావు	-10.0812
▁రాస	-10.0813
▁ఫ్రాన్స్	-10.0814
▁ఫో	-10.0818
య్యే	-10.0818
res	-10.0824
▁పాడేరులోనూ	-10.0829
ేష్	-10.0829
ాలపై	-10.0836
▁సందేశ	-10.0837
▁ఉన్నప్పుడు	-10.0838
▁దండ	-10.084
ak	-10.0843
▁చూసిన	-10.0847
▁చెబుత	-10.0848
▁కలుగ	-10.0849
▁తిరుగు	-10.0849
▁లాభ	-10.0851
▁ప్రోత్సహించ	-10.0851
▁మంచు	-10.0857
▁సిద్ధాంత	-10.0863
▁చెల్లించ	-10.0865
యన	-10.0868
▁నాటకం	-10.0868
రొ	-10.0869
▁కొనుగోలు	-10.0872
పోవ	-10.0873
▁ఉప్పు	-10.0876
▁విశిష్ట	-10.0877
▁లభించ	-10.0878
▁ప్రారంభించ	-10.0884
▁దర్	-10.0895
స్సు	-10.0897
▁దేవతల	-10.0898
భ్ర	-10.0901
కృష్ణ	-10.0904
▁రద్దు	-10.0905
▁కావలసిన	-10.0914
▁ప్రభ	-10.0917
▁అలాంటి	-10.092
▁తీసుకొ	-10.0923
యాన	-10.0923
దగిన	-10.0928
▁తీసుకొని	-10.0931
▁ముద్ర	-10.0936
ుకుంటుంది	-10.0938
ne	-10.0941
▁not	-10.0943
▁క్లబ్	-10.0944
▁తూర్పున	-10.0945
▁38	-10.0949
శారు	-10.0949
గణ	-10.0955
▁1950	-10.0955
▁జారీ	-10.096
▁విభాగం	-10.0962
▁సమితి	-10.0965
కన్	-10.0972
▁విభిన్న	-10.0974
▁బానిస	-10.0974
▁కొత్తగా	-10.098
▁ట్రా	-10.0982
▁70	-10.0985
మ్మి	-10.0989
▁2014,	-10.0989
ున్నారు	-10.099
▁ఆశ	-10.099
చిత్ర	-10.0991
▁కర్	-10.0994
▁సరస్సు	-10.0995
▁తాము	-10.0996
▁తీర్చ	-10.0996
▁లతో	-10.0998
ట్రో	-10.1003
ుతోంది	-10.1006
▁చెప్పారు	-10.1009
క్తి	-10.101
ప్రాంత	-10.1011
▁శాశ్వత	-10.1016
▁పండ	-10.1017
▁కేరళ	-10.102
ప్రపంచవ్యాప్తంగా	-10.1033
నాథ్	-10.1036
▁వాద	-10.1041
▁ఇజ్రాయిల్	-10.1046
రాష్ట్ర	-10.1047
style	-10.105
▁2015,	-10.105
దృ	-10.1053
ంటాయి	-10.1054
▁జవాహర్	-10.1059
లాండ్	-10.1059
కృతి	-10.106
▁విధమైన	-10.106
▁co	-10.1061
▁తోట	-10.1071
ియా	-10.1075
▁ప్రత్యేకత	-10.1077
▁వన	-10.1081
▁మండలాలు	-10.1082
▁తీవ్రమైన	-10.1086
▁సీతారామ	-10.109
▁శంకర	-10.1096
j	-10.11
భూత	-10.1105
ములకు	-10.1108
▁గురి	-10.1117
▁గమనించ	-10.112
▁42	-10.1121
-20	-10.1125
ుతాడు	-10.1128
ion	-10.1129
▁పర్	-10.1131
ఖండ	-10.1132
భారత	-10.1134
ప్పటి	-10.1135
▁వరుసగా	-10.1138
▁వుంటుంది	-10.1138
ాపురంలో	-10.1146
▁చిక్క	-10.1152
లక్ష్మి	-10.1154
▁ప్రత్యేకమైన	-10.1156
▁ప్రేక్షకుల	-10.1157
▁చేసుకుంట	-10.116
▁ఆమ్ల	-10.1164
▁గౌ	-10.1167
▁రాణి	-10.1167
▁స్టేట్	-10.1168
దారులు	-10.117
▁దృశ్య	-10.1176
▁అమ్మవారి	-10.1178
▁సూచిస్తుంది	-10.118
దార్	-10.118
▁2015	-10.118
ell	-10.1183
ap	-10.1188
▁భక్తుల	-10.1196
▁ఏమి	-10.1202
రిగి	-10.1202
ill	-10.1205
▁ఇటీవల	-10.1208
స్థాయి	-10.1218
▁హౌస్	-10.122
పూరు	-10.122
ర్థ	-10.1233
▁చదువ	-10.1238
▁నాయుడు	-10.1238
▁దేశంలోని	-10.1242
▁నటించారు	-10.1245
▁నార్	-10.1247
▁కనీసం	-10.1249
▁సన్న	-10.125
▁అందిస్తుంది	-10.1252
▁ప్రభావితం	-10.1256
▁ప్రదర్శ	-10.1259
▁సీజన్	-10.1259
టువంటి	-10.1259
వెల్	-10.126
దత్త	-10.1263
▁శతాబ్దాల	-10.1263
▁రోడ్	-10.127
▁పనిచేసే	-10.1276
▁సింగ	-10.1281
▁బూ	-10.1287
▁పుత్ర	-10.1288
ish	-10.1289
టక	-10.1291
గొట్ట	-10.1292
దేశం	-10.1294
▁శ్రీరాములు	-10.1297
ోప	-10.1299
ాత్మ	-10.13
▁చాలామంది	-10.1301
గతి	-10.1302
గత	-10.1304
త్రి	-10.1306
▁రచనల	-10.1308
▁హాజర	-10.1312
మూరు	-10.1315
ాంశ	-10.1317
భక్త	-10.1323
▁ఒప్పంద	-10.1323
యాత్ర	-10.1324
▁కొనసాగింది	-10.133
▁రాష్ట్రాల	-10.1335
శం	-10.1335
▁జర్మన్	-10.134
▁ప్రారంభించాడు	-10.1342
మూల	-10.1347
▁చేస్తాయి	-10.1347
▁తరచూ	-10.1354
యొక్క	-10.1364
▁రామకృష్ణ	-10.1365
ine	-10.1367
▁హక్కు	-10.1372
▁వేగంగా	-10.1376
▁నటించ	-10.1388
▁చివరికి	-10.139
ంపేట	-10.1394
పేరు	-10.1396
▁హక్కుల	-10.1399
బడు	-10.141
▁పైకి	-10.1412
▁ఆదాయం	-10.1412
▁వ్యవహరించ	-10.1412
▁చార్	-10.1416
బాటు	-10.1417
ho	-10.142
▁అవసర	-10.1422
▁200	-10.1423
▁బ్రి	-10.1427
▁రుద్ర	-10.1428
▁స్కా	-10.1428
కూడా	-10.1435
▁ఆశ్రమ	-10.1438
ణు	-10.1441
ంచె	-10.1444
▁మద	-10.1445
▁కాకినాడ	-10.1446
విన్	-10.145
▁రామచంద్ర	-10.1453
వలె	-10.1458
▁బెల్	-10.1459
▁విజయనగర	-10.1462
▁దాన	-10.1464
▁హృదయ	-10.1465
▁వయసులో	-10.147
ింపు	-10.1471
▁సాధించాడు	-10.1471
▁సెంట్రల్	-10.1473
▁ఋణ	-10.1476
▁మార్గము	-10.148
▁బొమ్మ	-10.1481
▁ప్రమాణ	-10.1488
▁హార్	-10.1492
▁బలమైన	-10.1497
▁పెడ	-10.15
పోతున్న	-10.1503
ధాన	-10.1506
▁నిర	-10.151
▁పేర్కొన	-10.1511
▁బిల్	-10.1511
ించడానికి	-10.1515
ేశ	-10.1517
▁విని	-10.1517
గలదు	-10.1519
ాబాద్	-10.152
క్షేత్ర	-10.1523
▁తదితర	-10.1523
▁తరలించ	-10.1524
▁విఫల	-10.1525
స్థితి	-10.1526
ాంధ్ర	-10.1532
▁నౌక	-10.1533
▁వయస్సు	-10.1535
దురు	-10.1536
▁నష్ట	-10.1539
▁ప్రచురణ	-10.154
▁నాటు	-10.1556
▁పరిగణించ	-10.1557
▁సంతోష	-10.1557
▁మించి	-10.156
▁చేతుల	-10.1561
▁నిలిచింది	-10.1561
▁క్రా	-10.1562
▁విషయ	-10.1566
▁ప్రాంతము	-10.1571
▁ఫోర్	-10.1573
▁తిమ్మ	-10.1573
ింపబడ	-10.1575
ధారణ	-10.1576
▁సస్యరక్షణ	-10.1576
▁రాజులు	-10.1576
▁బహుళ	-10.1582
ect	-10.159
▁తార	-10.159
ెదరు	-10.1591
▁ఉండదు	-10.1593
▁పొంది	-10.1594
▁అంతరిక్ష	-10.1594
▁వాటికి	-10.1598
▁పద్య	-10.1598
▁పేర	-10.1599
▁కారు	-10.16
▁రకమైన	-10.1604
▁కొమ్మ	-10.1604
▁ప్రయాణం	-10.1604
బడుతున్నాయి	-10.1605
ిరెడ్డి	-10.1606
▁మొక్కలు	-10.1608
కాని	-10.161
▁పెట్టారు	-10.1611
▁పార	-10.1616
▁వేట	-10.1616
▁ఎన్నికల	-10.1622
▁రూపం	-10.1625
మైనవి	-10.1625
▁ఏకైక	-10.1626
దారుల	-10.1629
▁బ్లాక్	-10.163
▁వ్రాస	-10.1631
▁విష్ణువు	-10.1633
▁నీకు	-10.164
▁ఆధార	-10.1643
షణ	-10.1643
▁భక్త	-10.1644
▁సిద్ధాంతం	-10.1647
▁భుజ	-10.1647
▁పక్క	-10.165
▁చేస	-10.1653
▁పార్లమెంటు	-10.1653
▁ప్రతిష్ఠ	-10.1655
▁కాలేదు	-10.1655
ంద్ర	-10.1657
తృ	-10.1658
▁me	-10.1661
no	-10.1662
▁సంవత్సర	-10.1668
▁ద్వీపం	-10.1671
తీర్థ	-10.1673
vi	-10.1676
▁ఉద్యోగం	-10.1679
▁వస్త్ర	-10.1679
▁ఏలూరు	-10.1681
▁ఉత్తరాన	-10.1682
నార్	-10.1684
▁మిల్	-10.1692
▁ఉదా	-10.1692
య్యారు	-10.1693
నట్లు	-10.1698
▁ప్రజాదరణ	-10.1698
▁దేశానికి	-10.17
▁ప్ల	-10.1708
▁li	-10.1713
▁అంటూ	-10.1718
ందరి	-10.1729
▁అంతర్గత	-10.1735
ధీ	-10.1735
▁నగరానికి	-10.1739
▁కూర	-10.1746
ంబర్	-10.1748
▁ఎండ	-10.1752
▁ప్రఖ్యాత	-10.1753
▁నక్షత్రం	-10.1753
▁స్వల్ప	-10.1758
ul	-10.1759
▁కాయ	-10.1763
▁పేర్కొన్నారు	-10.1763
ధ్వ	-10.1766
▁ప్రాచుర్యం	-10.1768
▁హీ	-10.1782
▁హాల్	-10.1782
▁సరిహద్దులో	-10.1785
ువాడు	-10.1788
▁నిబంధన	-10.179
▁సూపర్	-10.1791
▁56	-10.18
ast	-10.1803
▁కొవ్వు	-10.1803
ధ్ధ	-10.1806
▁కింగ్	-10.181
▁స్వాతంత్ర్యం	-10.181
▁పేరును	-10.181
sa	-10.1812
▁ఒక్కో	-10.1813
▁ఆర్ధిక	-10.1819
షియా	-10.182
▁రాం	-10.1822
ష్ణ	-10.1822
ర్యా	-10.1823
▁సందర్భంలో	-10.1824
న్నాడు	-10.1826
▁వర్గ	-10.1827
భూ	-10.1831
డెన్	-10.1831
ికా	-10.1832
▁శిష్య	-10.1834
▁అభిప్రాయం	-10.1836
▁ప్రకటించింది	-10.1836
▁ఇండో	-10.1839
▁వచ్చాడు	-10.1841
▁దేవాలయ	-10.1843
▁ప్రారంభమైంది	-10.1854
కేంద్ర	-10.1856
code	-10.1862
▁వసతి	-10.1864
ag	-10.1867
▁లోనే	-10.1867
ర్ధ	-10.1869
▁దొ	-10.1871
ఘా	-10.1872
▁షో	-10.1876
▁1947	-10.1877
భేద	-10.1877
టరీ	-10.1881
▁సుర	-10.1884
▁సమర్పించ	-10.189
నాధ	-10.1892
దైన	-10.1893
▁జనతా	-10.1895
▁నాగరికత	-10.1896
▁ఫ్రెంచి	-10.1897
▁విద్యార్థుల	-10.19
▁లేదని	-10.1909
▁పరిధి	-10.1912
యీ	-10.1913
▁ప్రియ	-10.1913
▁బుక్	-10.1919
▁పాల్	-10.1921
▁విషయాలు	-10.1921
▁టే	-10.1922
▁కుమార్	-10.1932
▁శరీరం	-10.1933
da	-10.1933
▁తరఫున	-10.1933
ుకొనే	-10.1934
▁అష్ట	-10.1935
బంధ	-10.1937
▁పరిమాణ	-10.1938
ear	-10.194
▁పదార్థాల	-10.1942
▁ముఖ్యమంత్రి	-10.1943
▁కనిపిస్తాయి	-10.1949
▁కాలువలు	-10.1952
గ్రామ	-10.1953
▁ఫోటో	-10.1959
ియ	-10.196
దాన	-10.1965
▁అంశం	-10.1969
▁వినియోగించ	-10.1974
▁జన్మించిన	-10.1976
▁నిర్దిష్ట	-10.1981
▁చేసేందుకు	-10.1985
సార్లు	-10.1987
▁ఆకర్షణ	-10.1988
ాభి	-10.1993
▁దంపతులకు	-10.1994
▁భాషలలో	-10.1995
విధ	-10.1998
జాతి	-10.1998
▁జంట	-10.2002
లియన్	-10.2004
▁సలహా	-10.2006
ష్య	-10.2011
శేష	-10.2013
ంభ	-10.2014
▁అధికారులు	-10.2015
▁ధరించ	-10.2017
లెట్	-10.2018
టిల్	-10.2019
▁కవిత	-10.2021
▁మెదక్	-10.2027
▁వార్షిక	-10.203
▁గృహాల	-10.2033
▁అంతర్	-10.2038
▁ఉదయం	-10.2042
▁మీదుగా	-10.2043
▁ముందే	-10.2056
రాజ్	-10.206
▁విభజన	-10.206
▁ద్రవ్య	-10.2061
డింగ్	-10.2062
▁బదులుగా	-10.2064
▁బాబా	-10.2065
సింహ	-10.2066
▁యుగ	-10.2075
పాయ	-10.2075
వ్యవస్థ	-10.2083
▁కంప	-10.2084
▁వందల	-10.2089
▁నడి	-10.2092
▁చలనచిత్ర	-10.2102
కోణ	-10.2108
రింగ్	-10.2108
▁ప్రార్థన	-10.2108
su	-10.2111
▁తప్పు	-10.2117
▁కావడం	-10.2119
పోవడం	-10.2121
▁రత్న	-10.2126
ted	-10.2129
ాలన్న	-10.2134
▁పార్క్	-10.2138
సంబంధ	-10.2139
టికి	-10.214
▁అనీ	-10.2143
▁చేయాలని	-10.2147
▁లెక్క	-10.2149
▁సర్పంచిగా	-10.215
▁లోపలి	-10.215
▁శుద్ధ	-10.2151
▁వంతెన	-10.2155
▁తెలుగుదేశం	-10.2155
▁పోషించ	-10.2157
చాడు	-10.2158
దళ	-10.2159
▁39	-10.216
▁స్టార్	-10.2163
▁కీలక	-10.2164
య్యాయి	-10.2164
▁తెనాలి	-10.2164
▁ప్రతిపాదన	-10.2174
▁తెగ	-10.2174
▁రావడం	-10.2175
వద్ద	-10.218
▁రౌ	-10.2186
▁పాలి	-10.2186
▁సినిమాలు	-10.2194
▁ఫ్ల	-10.2195
ిందని	-10.2197
▁పదాల	-10.2197
▁సమాధి	-10.2198
▁వివరాలు	-10.2204
▁అందరి	-10.2207
▁అణువు	-10.2211
చేశారు	-10.2212
▁వారసత్వ	-10.2213
▁మాన	-10.2216
రుగా	-10.2218
బ్రా	-10.2224
▁90	-10.2234
▁డ్ర	-10.2239
రహిత	-10.2239
▁చేయు	-10.2241
▁శతక	-10.2246
▁శ్రేణి	-10.225
▁తపస్సు	-10.2251
▁పుస్తకాలు	-10.2255
▁తాత	-10.2259
పడ్డారు	-10.2262
▁ఎదుర్కొ	-10.2265
▁జనాభాలో	-10.2266
▁పెరిగింది	-10.2273
▁44	-10.2278
▁వాదన	-10.2279
▁రాజుల	-10.2289
వలస	-10.2291
క్టర్	-10.2292
▁విధానాన్ని	-10.2294
▁ఎదుర	-10.2306
చేసే	-10.2309
▁గార్	-10.2311
▁మంగళ	-10.2311
హే	-10.2319
▁అనుమతించ	-10.232
▁పరిమాణం	-10.2325
-19	-10.2328
▁1991	-10.2328
▁దొంగ	-10.2329
▁స్థాపించారు	-10.2331
ry	-10.2332
▁ప్రకారము	-10.2335
పూర్లో	-10.2337
▁అతనిని	-10.2337
వేష	-10.2341
ళ్ళలో	-10.2342
▁ఆచార్య	-10.2346
▁వేయుట	-10.2347
▁విశ్వాస	-10.2349
▁సమాజం	-10.2351
▁అప్పటికే	-10.2353
▁చేరాడు	-10.2355
▁కొంతకాలం	-10.2357
▁సముద్రం	-10.2358
లెక్	-10.2359
మిక్	-10.2361
ండీ	-10.2363
▁ఫీ	-10.2365
▁మంచిర్యాల	-10.2367
▁మహర్షి	-10.2367
వర్ణ	-10.2368
వర్మ	-10.2375
://	-10.2377
▁ఏదో	-10.2377
▁అక్క	-10.2378
▁అనుసరించ	-10.238
వాదం	-10.2385
▁తను	-10.2386
▁పట్టా	-10.2386
▁చేయబడ్డాయి	-10.2388
▁ప్రారంభించింది	-10.2391
▁కాలేజీ	-10.2396
▁రూపకల్పన	-10.2401
▁అదనంగా	-10.2401
▁పనుల	-10.2405
వల్లి	-10.2408
▁ఉపయోగపడ	-10.2412
▁ప్రసాద్	-10.2416
▁వ్యాపారం	-10.2418
లోనికి	-10.242
▁అకాడమీ	-10.2421
ళ్	-10.2431
▁విషయాన్ని	-10.2431
▁బాబు	-10.2433
▁సత్యనారాయణ	-10.2436
▁బ్యాంక్	-10.2441
▁సీతా	-10.2441
▁బృంద	-10.2442
ఓ	-10.2444
ిస్తున్నాయి	-10.2448
▁తెలుస్తుంది	-10.245
▁అటు	-10.2451
▁రూపాయల	-10.2462
▁విశేషం	-10.2463
ందరూ	-10.2464
త్రా	-10.2467
స్కో	-10.2474
▁రంగం	-10.2479
ణ్	-10.2482
ారావు	-10.2487
బై	-10.2487
కరించ	-10.2489
▁కారణాల	-10.2489
▁సమాఖ్య	-10.249
▁ప్రాంతాలకు	-10.2491
▁కలప	-10.2499
య్యా	-10.25
ట్ర	-10.25
▁బిరుదు	-10.2501
▁అధికారి	-10.2509
డియ	-10.251
▁కీర్తి	-10.2513
ud	-10.2514
▁నెలకొల్ప	-10.2514
▁సూచన	-10.2516
ొచ్చు	-10.2518
▁అమర	-10.252
▁దేశము	-10.252
▁దేశీయ	-10.2521
▁లూ	-10.2523
ep	-10.2524
యింది	-10.2526
▁మహిళా	-10.2535
ానికీ	-10.2535
ల్లీ	-10.2535
▁జరుగ	-10.2536
▁టెక్	-10.2538
▁హోదా	-10.2539
▁వ్యాప్తి	-10.2539
▁వాల్	-10.2542
▁తీవ్రంగా	-10.2545
▁చేపట్ట	-10.2548
▁మరణించారు	-10.255
▁లోయ	-10.255
▁కుమార	-10.255
▁కుడి	-10.2553
▁తెలంగాణా	-10.2555
▁ఎల్ల	-10.2556
తనం	-10.2559
▁భవనం	-10.2559
▁పాటల	-10.2561
ya	-10.2573
▁లిం	-10.2576
able	-10.2578
▁సాహితీ	-10.2578
▁పెరుగుదల	-10.2579
▁యుగం	-10.258
ంగో	-10.2581
▁పనిచేస్తున్న	-10.2583
▁పొగాకు	-10.2584
ver	-10.2588
▁వేర్వేరు	-10.2588
▁ప్రజలను	-10.2589
▁ఎకరాల	-10.2591
స్సా	-10.2607
▁వరద	-10.2609
వాటి	-10.2611
▁దీంతో	-10.2612
▁శ్రీనివాస	-10.2612
▁అన్నీ	-10.2614
మయ్యే	-10.2618
కున్న	-10.2619
▁కొన్నిసార్లు	-10.2619
▁అత్యధికంగా	-10.2627
▁బలహీన	-10.2628
▁ఆన్	-10.263
ందున	-10.263
ద్వారా	-10.2632
▁దొర	-10.2635
సేవ	-10.2637
▁ఒత్తిడి	-10.2638
▁బెర్	-10.264
▁ఇంట్లో	-10.264
▁అంట	-10.2647
▁తీసిన	-10.2652
▁ఎరువులు	-10.2653
▁ఇచ్చ	-10.2656
▁మాదిరిగా	-10.2657
త్వాన్ని	-10.2658
రుగ	-10.2661
▁పదవీ	-10.2662
▁మళ్లీ	-10.2663
▁చేరు	-10.2667
▁క్రితం	-10.267
టూ	-10.2672
క్ట్	-10.2673
▁అడిగ	-10.2676
మధ్య	-10.2677
▁బట్ట	-10.2677
▁వ్య	-10.2677
▁మర్	-10.2679
▁చేసుకున్నారు	-10.2681
▁షి	-10.2683
▁దూరంగా	-10.2683
ew	-10.269
▁యే	-10.2691
▁స్వామివారి	-10.2695
▁వేసిన	-10.2695
▁ఒకరి	-10.2696
▁గ్రంథాల	-10.2697
▁సంబంధాలు	-10.2704
ాయన	-10.2704
▁అరణ్య	-10.2704
మనే	-10.2713
ఛ	-10.2714
va	-10.2718
గురు	-10.2722
▁క్రమంలో	-10.2723
▁పోర్ట్	-10.2724
పత్తి	-10.2728
▁ప్రామాణిక	-10.2729
ive	-10.2732
▁కార్బన్	-10.2735
▁పరిసర	-10.2736
▁భాషలు	-10.2736
▁సూత్ర	-10.2738
▁కెమెరా	-10.2739
▁పాశ్చాత్య	-10.2744
▁జగ	-10.2745
▁విద్యను	-10.2751
స్థల	-10.2754
▁చెందినది	-10.2758
fe	-10.2758
▁మంట	-10.2762
ములోని	-10.2768
▁కోప	-10.2771
దాయ	-10.2774
▁నడుప	-10.2774
ావు	-10.2783
▁పీఠ	-10.2784
▁కొబ్బరి	-10.2784
iv	-10.2792
▁తద్వారా	-10.2793
▁తాగునీటి	-10.2795
▁వహించిన	-10.2799
▁ఎత్తైన	-10.28
▁దాంతో	-10.28
display	-10.2805
▁కళాశాలలు	-10.2805
▁విశాఖపట్నంలోను	-10.2806
▁నీటిలో	-10.2807
నపుడు	-10.2807
▁కూర్చ	-10.2809
స్తున్నారు	-10.2811
బాల్	-10.2817
▁వీధి	-10.2828
ితమైన	-10.2828
▁బాధ్యతలు	-10.2829
▁గజ	-10.2832
పణ	-10.2832
▁మెరుగు	-10.2835
ోత్సవ	-10.2837
▁సంతానం	-10.2839
▁ద్వి	-10.2844
రోగ	-10.2849
▁సన్	-10.2849
ెంట్	-10.2854
▁షిప్	-10.2863
▁ముంబై	-10.2866
▁మార్గంలో	-10.2869
ence	-10.287
ధో	-10.287
ోంది	-10.2871
ఎం	-10.2871
▁ఇంటర్నేషనల్	-10.2871
▁నిద్ర	-10.2872
ప్రభావ	-10.2876
▁ఎమ్	-10.2876
▁నైట్	-10.2877
▁మేరకు	-10.2877
మూస	-10.288
రణం	-10.2881
చరిత్ర	-10.2881
▁పిలువబడ	-10.2882
▁వస్తువుల	-10.2883
▁41	-10.2883
టెన్	-10.2889
వాడి	-10.2889
▁మాట్లాడే	-10.2889
▁స్థాపించబడింది	-10.2891
▁చర్యలు	-10.2892
▁స్థిరపడ	-10.2893
▁విల్	-10.2897
▁కదా	-10.2904
pe	-10.2904
▁ప్రకాశ	-10.2904
▁భారతదేశంలోని	-10.2909
ేతర	-10.2909
▁his	-10.291
▁సైతం	-10.2911
యైన	-10.2918
▁విడ	-10.2919
▁ప్రయాణించ	-10.2922
▁సముదాయ	-10.2923
ాద్రి	-10.2925
od	-10.2926
▁వనరులు	-10.2926
▁ఫుట్	-10.2928
▁వికారాబాద్	-10.2933
▁సంయోగ	-10.2934
▁సమస్యలు	-10.294
▁ప్రమాదం	-10.2946
▁ప్రసంగ	-10.2946
▁కనిపిస్త	-10.295
▁di	-10.2952
ుకొన్న	-10.2956
▁ప్రచార	-10.2958
దార	-10.2965
కారుడు	-10.2965
ous	-10.2966
జల	-10.2973
▁సిం	-10.2979
బ్రహ్మ	-10.298
▁గుర్త	-10.2985
ుదురు	-10.2986
ధర	-10.2987
▁కను	-10.2987
▁స్థానాన్ని	-10.299
▁చుట్ట	-10.2994
▁1998	-10.3006
▁ప్రతిభ	-10.3007
▁గవర్నర్	-10.3008
▁మ్యా	-10.3011
వరకూ	-10.3012
▁పునర్	-10.3014
పేట్	-10.3015
▁అటువంటి	-10.3016
tion	-10.3018
▁తొమ్మిది	-10.3026
▁నవాబు	-10.3031
▁వనపర్తి	-10.3032
▁నమ్మకం	-10.3033
▁వో	-10.3038
▁కప్	-10.3044
▁చెట్ల	-10.3049
▁గురించిన	-10.3054
▁గం	-10.3059
చెర్ల	-10.3067
▁దాటి	-10.307
▁గది	-10.3071
▁యూనివర్సిటీ	-10.3073
▁అద్భుత	-10.3075
రత్న	-10.308
సిద్ధ	-10.3088
▁ఇచ్చింది	-10.3091
▁శేష	-10.3092
ందర్	-10.3092
నెల్	-10.3092
ుకోవచ్చు	-10.3093
డికి	-10.3093
▁సంవత్సరానికి	-10.3098
all	-10.3098
▁బోధన	-10.31
నూర్	-10.3108
▁పురపాలక	-10.311
చంద్ర	-10.311
▁వేరే	-10.3111
▁చేసుకున్నాడు	-10.3112
▁48	-10.3113
▁వహించాడు	-10.3118
▁http	-10.312
స్తంభ	-10.3121
▁బాల్య	-10.3125
కాండ	-10.3126
▁అర్జునుడు	-10.3131
పురి	-10.3136
▁స్పెయిన్	-10.3136
▁వాడుక	-10.3142
మనీ	-10.3142
▁శివుడు	-10.3142
ండె	-10.3144
▁హైదరాబాదులో	-10.3144
▁చోటు	-10.3144
▁విగ్రహ	-10.3146
▁క్రియ	-10.3146
▁సెం	-10.3147
▁నివసించ	-10.3148
▁ప్రతిబింబ	-10.3152
▁మందు	-10.3152
▁నేటి	-10.3156
▁ధ్రువ	-10.3157
▁చేయవచ్చు	-10.316
పడ్డాడు	-10.3167
▁గోడ	-10.3167
▁టెక్నాలజీ	-10.3173
స్తుల	-10.3175
సుకు	-10.3175
వంశ	-10.318
▁రుచి	-10.3181
▁గంగా	-10.3185
ind	-10.3188
▁మెంట్	-10.3194
▁పాము	-10.3195
▁క్రీస్తు	-10.3198
లేరు	-10.3209
పక్ష	-10.3212
▁కారక	-10.3213
▁ఎలాంటి	-10.322
▁సంస్థాన	-10.3222
▁నేర్ప	-10.3223
బెర్	-10.3224
▁చెన్న	-10.3227
ట్యూ	-10.3228
▁సమూహం	-10.3234
▁నటించాడు	-10.3236
▁సారి	-10.3237
▁పెరిగి	-10.3242
లేదని	-10.3244
▁జత	-10.3251
▁పాత్రను	-10.3252
▁కుటుంబంలో	-10.3256
▁సాగించ	-10.3258
▁బోధించ	-10.3259
▁శుభ	-10.326
ల్యూ	-10.3264
రాదు	-10.3266
▁మరణించిన	-10.3268
▁సూచి	-10.3268
▁క్రీడ	-10.3273
ఫు	-10.328
▁ప్రవాహ	-10.3281
co	-10.3283
▁రాఘవ	-10.3284
▁బిడ్డ	-10.3287
▁రచించ	-10.3291
▁నన్ను	-10.3293
▁కటక	-10.3295
▁రకాలు	-10.3296
▁చేయించ	-10.3298
డ్డు	-10.3298
▁పరిపాలించ	-10.3301
ni	-10.3304
▁సినిమాల్లో	-10.3305
▁గుర్తించారు	-10.3316
▁కార్డు	-10.3316
ig	-10.3327
▁అర్జున	-10.3329
▁500	-10.3331
▁ముగింపు	-10.3332
▁46	-10.3333
▁అయ్యింది	-10.3335
కన్నా	-10.3341
▁బోర్డు	-10.3343
ari	-10.3343
▁43	-10.3347
our	-10.3348
▁మోస	-10.3351
▁బోధ	-10.3352
ష్టి	-10.3353
▁ఆశ్చర్య	-10.3354
▁చైతన్య	-10.3357
▁మాటలు	-10.3359
పత్ర	-10.3359
రాశి	-10.3361
▁గూ	-10.3363
▁ఆమోదించ	-10.3363
ut	-10.3363
▁పల్లి	-10.3365
▁1996	-10.3365
▁చిత్త	-10.3371
▁మణి	-10.3373
▁భయం	-10.3374
▁వెస్ట్	-10.3374
▁ఏళ్ల	-10.3382
▁రైతు	-10.3389
▁ఇంటికి	-10.3391
ర్చి	-10.3392
▁వెండి	-10.3394
▁జీవుల	-10.3395
ఘ్	-10.3396
▁వజ్ర	-10.3396
గడ్డ	-10.3398
డైన	-10.3405
మార్గ	-10.3405
చిత	-10.3406
▁చిత్రీకరించ	-10.3407
భద్ర	-10.3409
▁1930	-10.3411
కుమార	-10.3411
▁ఆస్తి	-10.3413
▁వంతు	-10.3415
▁మానవుల	-10.3422
చర్య	-10.3423
▁దేవుడు	-10.3434
▁ఇచ్చాడు	-10.3446
▁ప్రయోగించ	-10.345
▁దర్శన	-10.3451
▁ఖనిజ	-10.3453
▁సమయ	-10.3456
▁పరచ	-10.3456
▁క్రొత్త	-10.3456
▁చు	-10.3457
▁సందర్భ	-10.3458
▁గౌతమ	-10.3458
▁Ma	-10.3467
స్తాన్	-10.3468
▁పూజలు	-10.347
▁నాయకులు	-10.3472
▁గొల్ల	-10.3478
▁ఇంధన	-10.3484
జిల్	-10.3484
▁పద్ధతుల	-10.3484
ూర్లో	-10.3484
ాచల	-10.3486
స్తున్నాయి	-10.3492
▁కుటుంబానికి	-10.3492
▁రూపొంద	-10.3498
▁అమ్మాయి	-10.3498
బంద	-10.3499
దాని	-10.3502
▁రెండూ	-10.3509
▁మనుషుల	-10.3516
▁అనువదించ	-10.3522
▁జాతులు	-10.3523
▁ఫిలిం	-10.3524
▁అత	-10.3524
▁డిగ్రీలు	-10.3527
మయ్య	-10.3528
▁పరంగా	-10.353
▁అంతేకాక	-10.3535
▁ఆకాశ	-10.3535
▁అధ్యయన	-10.3538
▁ప్రే	-10.3539
▁ఒప్ప	-10.354
▁విస్తృతంగా	-10.3542
▁విన్న	-10.3545
▁సమాచారాన్ని	-10.3546
మున్న	-10.3551
▁బ్రిటిషు	-10.3555
▁ఆకుల	-10.3556
త్యం	-10.3558
లెస్	-10.3565
▁బదిలీ	-10.3566
▁ప్రాతినిధ్యం	-10.3568
దానం	-10.3568
▁వేగ	-10.3569
వచ్చని	-10.357
▁ఉందిసమీప	-10.3575
▁65	-10.3577
▁కర్ణ	-10.358
▁డిస్	-10.3584
▁ఎక్క	-10.3586
▁స్వర్ణ	-10.3587
చింది	-10.359
్యత	-10.359
థర్	-10.3592
▁వాడే	-10.3595
బాయి	-10.3596
▁వాహన	-10.3597
▁లిపి	-10.3599
▁నియంత్రించ	-10.3599
▁j	-10.3599
సంస్థ	-10.3602
▁స్థలం	-10.3606
శయ	-10.3607
▁సంస్కృతం	-10.3608
▁వాళ్ళు	-10.361
▁డచ్	-10.3611
▁చోట	-10.3611
▁రాయి	-10.3612
▁ప్రయత్నాలు	-10.3618
▁వినియోగదారు	-10.3619
▁టౌన్	-10.3621
త్తా	-10.3625
టివ్	-10.3625
▁ప్రారంభం	-10.3626
▁సంస్కరణ	-10.3634
నాల్	-10.3635
భీ	-10.3635
▁నేపథ్య	-10.3636
▁అయ్యాడు	-10.3641
▁సామర్థ్యం	-10.3642
తోనే	-10.3643
▁దీ	-10.3644
ఠా	-10.3644
జయ	-10.3646
లాంటి	-10.3647
జేయ	-10.3654
▁వెల	-10.3655
▁వు	-10.3659
si	-10.3659
దేవత	-10.3665
కార్య	-10.3671
కారి	-10.3673
తొ	-10.3675
▁do	-10.3675
▁ఆధారాలు	-10.3679
▁కాళ	-10.368
▁ఆధారిత	-10.3681
▁కాలి	-10.3684
▁పట	-10.3685
దేవుడు	-10.3685
ంకా	-10.3687
▁జం	-10.369
out	-10.3695
av	-10.3696
▁ప్రవేశం	-10.37
▁కాన	-10.3702
▁సాధ్య	-10.3703
▁సమావేశ	-10.3705
▁భాషల	-10.3706
▁భావించి	-10.3709
ప్పి	-10.371
▁జంక్షన్	-10.371
▁వైశాల్యం	-10.3717
వాసుల	-10.372
▁రాజధానిగా	-10.372
మెన్	-10.3724
▁2017,	-10.3724
▁ఆచరించ	-10.3725
▁అయ్యాయి	-10.3726
నైనా	-10.3727
▁విశ్వాసం	-10.3731
▁అనకాపల్లిలోను	-10.3732
▁పరిధిలోని	-10.3733
ెన	-10.3735
▁ch	-10.3735
▁దెబ్బ	-10.3741
ఒ	-10.3742
▁దగ్గరగా	-10.3746
▁మాల్	-10.3747
భో	-10.375
▁భాగము	-10.3752
▁గోవింద	-10.3753
విధంగా	-10.3754
▁ప్రక్క	-10.3754
▁విలీనం	-10.3759
▁తాలూకా	-10.3759
▁దాకా	-10.3763
▁వైద్యుడు	-10.3765
▁ప్రవహించ	-10.3765
▁సుబ్బ	-10.3767
▁mo	-10.3767
▁అక్కడే	-10.3769
▁75	-10.3772
▁వెళ్ళే	-10.3778
ఉంది	-10.378
▁నార్వే	-10.3786
▁న్యూయార్క్	-10.3788
▁నాయకుల	-10.3791
▁కొరియా	-10.3794
▁నటించింది	-10.3795
▁పోయి	-10.3798
▁అధికారికంగా	-10.3802
▁నృత్యం	-10.3805
der	-10.3807
▁పనిచేసిన	-10.381
▁పల్ల	-10.3823
పోత	-10.383
ff	-10.3831
▁కురు	-10.3831
తిక	-10.3832
▁వ్యక్తులు	-10.3834
వేల	-10.3835
▁అధి	-10.3837
పుల్	-10.3839
▁కార్యకలాపాల	-10.3839
▁వ్యక్త	-10.384
తులను	-10.3851
▁వెలువడ	-10.3851
▁వైద్యులు	-10.3855
pa	-10.3858
▁అభ్యసించ	-10.3867
గిన	-10.3868
▁సౌకర్యాలేమ	-10.3868
▁భిన్న	-10.3873
▁బోస్	-10.3874
▁రంగస్థల	-10.3874
యిల్	-10.3874
డుతూ	-10.3876
▁పదాలు	-10.3878
▁ఈశాన్య	-10.3884
ద్వార	-10.3884
▁వాడతారు	-10.3885
-3	-10.3885
బర్గ్	-10.3888
▁ఉత్పత్తుల	-10.389
టాన్	-10.3892
క్యు	-10.3892
▁బలి	-10.3894
▁గద్వాల	-10.3895
▁టన్నుల	-10.3897
▁వర్గాల	-10.3897
▁మరల	-10.3898
▁నిర్మ	-10.3899
ినది	-10.3899
ోద్యమ	-10.3902
▁అంతటా	-10.3906
▁ఎదురు	-10.3907
▁నిజానికి	-10.391
▁పెట్టుబడి	-10.3912
టెడ్	-10.3914
▁కొడ	-10.3915
▁శత	-10.3918
▁కాలానికి	-10.3918
▁పురస్కార	-10.3921
▁తీసుకున్న	-10.3923
ాభివృద్ధి	-10.3924
ాంక	-10.3924
▁చదివి	-10.393
▁అవగాహన	-10.3935
▁రెండింటి	-10.3935
▁సాహిత్యంలో	-10.3935
ాలున్నాయి	-10.3938
▁నగరాల	-10.3939
▁పుస్తక	-10.394
▁రాగి	-10.394
ీశ్వర	-10.394
▁రష్యన్	-10.394
▁వెళ్ళాడు	-10.3945
పోవటం	-10.3945
▁పాలనా	-10.3947
▁పండు	-10.395
▁భారతదేశానికి	-10.3952
ుకోవాలి	-10.3953
కాన్	-10.3953
▁వర్క్	-10.3955
▁నేత	-10.3958
ిస్తుంటారు	-10.3961
స్టో	-10.3962
▁గోధుమ	-10.3963
▁చోళ	-10.3974
▁అవతార	-10.3979
▁పుర	-10.3979
▁చదరపు	-10.398
▁రసాయనిక	-10.398
▁సమస్యల	-10.3981
ంబర	-10.3987
▁చిత్రాలలో	-10.3988
సరి	-10.3991
▁మన్న	-10.3995
▁చదవ	-10.3996
▁కలగ	-10.3996
ప్రె	-10.3996
▁బోరుబావులు	-10.3997
▁అన్నారు	-10.4001
▁నాటకాల	-10.4008
▁జాబితాలో	-10.4008
▁ప్రస్తావించ	-10.4009
▁1994	-10.4009
ాంతం	-10.4014
▁సేవలను	-10.4022
వ్యాప్త	-10.4024
రగ	-10.4025
తాయని	-10.4026
▁మోక్ష	-10.4028
ేయ	-10.4028
▁పర్యటన	-10.4032
▁వినియోగదారుల	-10.4037
▁వచ్చు	-10.4039
▁కూతురు	-10.4042
▁రఘు	-10.4044
▁బీజ	-10.4048
▁తిరస్కరించ	-10.4049
▁పలువురు	-10.4049
}}	-10.4052
▁జిల్లాలలో	-10.4054
▁తూ	-10.4055
తుండ	-10.406
▁సమర్ధ	-10.4062
▁ఆకర్షించ	-10.4064
▁చనిపో	-10.4068
పడిన	-10.4071
▁రేటు	-10.4072
de	-10.4072
▁చిత్రానికి	-10.4072
▁ఉంటాడు	-10.4076
వర్తన	-10.4077
▁ఈస్ట్	-10.4077
▁దేశంగా	-10.4078
▁పరిశోధనలు	-10.4083
▁ముడి	-10.4083
▁తెలిసి	-10.4084
▁సోదర	-10.4087
int	-10.4088
ానికే	-10.4091
లన్నీ	-10.4095
▁కౌన్సిల్	-10.4096
▁ఖాళీ	-10.4096
గలిగే	-10.4098
▁ఆవు	-10.4098
షియ	-10.4102
▁నర	-10.4104
▁దీక్ష	-10.4105
▁సమీపంలోని	-10.4105
ుచున్నది	-10.4107
▁చెబుతారు	-10.4107
▁తదుపరి	-10.4107
▁అనుగుణంగా	-10.4107
▁జోన్	-10.4112
▁తీగ	-10.4117
సాయి	-10.4121
▁ప్రధానమంత్రి	-10.4124
▁హింస	-10.4124
▁సాధించి	-10.413
▁స్వర్గ	-10.4132
▁ఇంగ్లాండ్	-10.4136
▁అనుబంధ	-10.4136
స్త్ర	-10.414
▁ప్రకటించారు	-10.414
▁చూస్తే	-10.414
▁వంద	-10.414
▁జీవితాన్ని	-10.4144
▁అనుభవించ	-10.4144
▁ఎప్పుడూ	-10.4144
క్షేప	-10.4146
▁అందువల్ల	-10.4147
▁అదనపు	-10.4148
▁విమానాశ్రయం	-10.4151
▁భూమిని	-10.4151
వడానికి	-10.4151
▁మీరు	-10.4158
▁రవి	-10.4158
▁మందికి	-10.4158
డ్యూ	-10.4162
▁చేతిపంపులు	-10.4172
పాత	-10.4173
▁రాక	-10.4178
ములతో	-10.4179
్యము	-10.418
▁యస్	-10.4181
▁ప్రవర్తన	-10.4187
మల్	-10.4188
▁నిర్మాణానికి	-10.4189
▁ఆయనను	-10.4192
▁తెలుసు	-10.4192
▁వినోద	-10.4195
ాళ్	-10.4203
జై	-10.4205
రిన్	-10.4206
కెట్	-10.4212
▁సకల	-10.4212
▁చెల్ల	-10.4214
▁సీనియర్	-10.4216
▁ఆయుధ	-10.4223
▁ఆందోళన	-10.4224
ph	-10.4224
▁మూలంగా	-10.4225
▁చెప్పే	-10.4226
▁47	-10.4226
▁తాత్కాలిక	-10.423
▁పశువుల	-10.4231
లచే	-10.4235
▁గూడూరు	-10.4235
du	-10.4236
▁దేశాల్లో	-10.4236
▁చూడండి	-10.4245
district	-10.4247
▁చేరిన	-10.4251
▁చేస్తే	-10.4251
▁చేయటం	-10.4252
ష్క	-10.4252
▁1989	-10.4253
▁అప్పట్లో	-10.4253
▁టు	-10.4253
▁one	-10.4256
నంత	-10.4263
▁పువ్వు	-10.4266
▁బొగ్గు	-10.4267
పంచ	-10.4267
▁భాగాలు	-10.427
▁అక్షరాస్యత	-10.4271
ang	-10.4279
▁వుంట	-10.4281
▁కొన	-10.4285
▁నాయకత్వంలో	-10.4287
▁భద్ర	-10.4289
▁ఊహించ	-10.4289
డియో	-10.4289
ath	-10.4295
▁చేసుకో	-10.4295
▁సేకరణ	-10.4296
▁కమ్మ	-10.4297
మెంటు	-10.4298
▁భయ	-10.4302
వాల్	-10.4303
▁త్ర	-10.4305
▁శతాబ్ది	-10.4307
▁ఉంటుందని	-10.4307
కల్ప	-10.4309
▁ఉండేవారు	-10.4309
▁సాఫ్ట్	-10.4309
▁1948	-10.4312
▁తరలి	-10.4313
మహా	-10.4314
▁సప్త	-10.4316
ధ్ర	-10.4317
▁సల్	-10.432
▁స్పానిష్	-10.4324
▁1997	-10.4324
▁పేర్కొన్నాడు	-10.4328
▁విభాగంలో	-10.4328
ుకుంటాడు	-10.4328
ముగ	-10.4329
▁ఈశ్వర	-10.4334
▁సందర్భాలలో	-10.4334
ెత్త	-10.4339
▁అంశ	-10.4346
▁చెంది	-10.4348
▁has	-10.435
వృత్తి	-10.4354
▁జరిగి	-10.4355
▁వైష్ణవ	-10.436
గలవు	-10.4365
▁చేపల	-10.4366
▁జంతు	-10.4366
tu	-10.4367
▁ఎడ్	-10.4368
▁దేహ	-10.4371
యాగ	-10.4371
▁అందించారు	-10.4372
▁అందించే	-10.4377
▁భువనగిరి	-10.4377
▁పనిచేస్తుంది	-10.4378
▁భాగవత	-10.4381
▁సమాజంలో	-10.4381
▁లోతు	-10.4382
టార్	-10.4382
▁సుబ్రహ్మణ్య	-10.4383
▁అంకిత	-10.4384
5%	-10.4387
gu	-10.4391
ated	-10.4393
▁ఇసుక	-10.4394
▁అంశాలు	-10.4395
చ్చారు	-10.4397
▁చేసుకొని	-10.4402
▁ట్రి	-10.4402
వర్తి	-10.4403
▁ఒకప్పుడు	-10.4405
▁గ్ర	-10.4407
ఉన్న	-10.4415
▁ఆదాయ	-10.4415
కళ	-10.4422
ళు	-10.4423
ొచ్చ	-10.4425
క్రియ	-10.4425
▁గ్రేట్	-10.4427
▁పిలవ	-10.4429
▁నాశనం	-10.4431
▁వికీ	-10.4431
▁పదాన్ని	-10.4431
▁పంటలు	-10.4435
▁se	-10.4437
ప్పటికి	-10.4439
ee	-10.444
▁తిప్ప	-10.4442
▁55	-10.4443
▁కుక్క	-10.4444
▁మండలి	-10.4445
▁కేంద్రాల	-10.4451
▁ఫ్రీ	-10.4451
డై	-10.4454
కూడదు	-10.4455
▁విధానంలో	-10.4457
▁తేలిక	-10.4457
▁పాటించ	-10.4457
▁సిద్ద	-10.4459
▁విస్తరణ	-10.4459
▁దాదాపుగా	-10.4464
▁1995	-10.4468
▁ధాన్య	-10.4469
▁ఎడమ	-10.447
▁సంవత్సరము	-10.447
మ్మా	-10.4472
▁విచారణ	-10.4473
▁పంజాబ్	-10.4479
▁హైదరాబాదులోను	-10.4482
▁పుల్ల	-10.4483
ary	-10.4487
▁ప్రదేశంలో	-10.4489
▁ఏళ్ళ	-10.4496
▁ఎగుమతి	-10.4503
▁సమకూర్చ	-10.4503
▁కాల్	-10.4504
▁పట్టిక	-10.4504
▁భాగాన్ని	-10.4505
▁కంటి	-10.4507
యత్	-10.451
▁భావించారు	-10.4518
▁క్షేత్రం	-10.4521
▁పౌ	-10.4521
▁శిలా	-10.4523
▁ఆదిలాబాద్లో	-10.4523
▁పరిమిత	-10.4525
▁కలకత్తా	-10.4527
▁గమన	-10.453
సార్	-10.453
▁ఉర్దూ	-10.4533
▁అనుసంధానం	-10.4539
▁ఇందుకు	-10.4541
▁వినియోగ	-10.4541
వీర	-10.4548
▁సుబ్బారావు	-10.4552
స్థి	-10.4553
ానని	-10.4554
యుత	-10.4555
కట్టు	-10.4555
▁సరళ	-10.4558
▁వస్తాయి	-10.4558
▁ప్రారంభమైన	-10.456
▁భరత	-10.4562
▁గ్రీన్	-10.4564
▁మలయాళ	-10.457
▁సూర్యాపేట	-10.457
▁1992	-10.457
▁చిహ్నం	-10.4571
▁పూల	-10.4572
▁బెల్లం	-10.4573
▁మూడో	-10.4577
▁సగం	-10.4578
ప్రతి	-10.4579
ోపనిషత్తు	-10.4582
▁గ్రామాలను	-10.4587
▁రాయ్	-10.4587
▁నున్న	-10.4588
▁విభాగాలు	-10.4589
గీత	-10.4593
▁మహారాజు	-10.4593
▁నిలిపి	-10.4594
▁సర్వే	-10.4598
▁చేస్తాడు	-10.4599
▁వర్తక	-10.46
▁ఆగ్నేయ	-10.46
▁కమ్యూనిస్టు	-10.4601
▁లక్ష్యం	-10.4604
one	-10.461
బెట్ట	-10.4612
▁ద్రోణ	-10.4612
శక్తుల	-10.4613
▁నాగార్జున	-10.4613
మండల	-10.4616
▁కుమారులు	-10.4617
▁వాని	-10.4618
▁స్పష్టంగా	-10.4619
▁లక్ష	-10.463
యార్	-10.4631
▁మధ్యకాలంలో	-10.4634
▁అవసరమ	-10.4634
▁విశ్వనాథ	-10.4641
▁రాజీనామా	-10.4643
▁మరిన్ని	-10.4646
స్తులు	-10.4646
ోత్సవం	-10.4648
▁నిరూపించ	-10.465
state	-10.4651
▁డొ	-10.4651
ాంశం	-10.4654
▁కావచ్చు	-10.4656
▁దేవతలు	-10.4656
▁ఇటలీ	-10.4661
▁ఉండును	-10.4662
▁సెప్టెంబర్	-10.4667
▁త్యాగ	-10.4667
▁వెలుగు	-10.4671
మాట	-10.4672
▁సంభవ	-10.4673
ాధార	-10.4674
▁వెల్ల	-10.4675
▁ఆరంభం	-10.4678
▁రైల్వేస్టేషన్	-10.468
వాని	-10.4681
▁అంతకు	-10.4683
▁వాటా	-10.4692
▁మొదటిసారిగా	-10.4696
▁అద్ద	-10.4697
▁300	-10.4698
▁ప్రత్యేకించి	-10.4698
▁so	-10.4699
ture	-10.47
బ్ర	-10.47
▁నర్	-10.4701
▁బహ	-10.4708
▁పుట్టి	-10.4709
ావళి	-10.4711
ీకృత	-10.4714
పేట్లో	-10.4714
ev	-10.4714
▁పంచాయతీ	-10.4715
▁ఉపయోగించారు	-10.472
▁దీవుల	-10.472
▁రక్తం	-10.472
పొంద	-10.4722
▁గ్రంథాలయ	-10.4723
యిడ్	-10.4724
▁ఎందుకు	-10.4726
▁ప్రసారం	-10.4726
▁కథల	-10.4732
బోధ	-10.4734
▁మృత	-10.4737
ుకునేందుకు	-10.474
▁కడ	-10.4741
▁పరికరాల	-10.4742
▁సహాయంతో	-10.4745
భాగంలో	-10.4746
▁మ్యూజియం	-10.4747
▁కిందకు	-10.4752
▁గుజరాత్	-10.4753
▁లాగ	-10.4754
ke	-10.4759
▁దారితీసింది	-10.476
టమే	-10.4765
టెక్	-10.4773
▁pl	-10.4774
▁కంద	-10.4779
యున్న	-10.4779
▁పెరుగుతుంది	-10.478
▁చిత్రాల	-10.4782
▁రాష్ట్రపతి	-10.4784
▁ఫ్యా	-10.4787
శ్చ	-10.4787
▁పెం	-10.4789
▁తెచ్చి	-10.4796
▁బావులు	-10.4796
▁స్థాపించిన	-10.4797
▁అనువాద	-10.4802
▁ఉత్తర్వులు	-10.4803
ba	-10.4809
పట	-10.4811
▁కప్ప	-10.4813
▁ముహమ్మద్	-10.4815
▁మిగిలి	-10.4816
▁49	-10.4821
ుంటారు	-10.4821
▁శాస్త్రము	-10.4826
వారిని	-10.4826
▁గోప	-10.4828
హర్	-10.4829
▁can	-10.4833
▁పాత్రల	-10.4834
▁ఆమోద	-10.4834
▁దయ	-10.4835
▁కాదని	-10.4837
ten	-10.4839
ినపుడు	-10.4841
▁నేడు	-10.4842
వేసింది	-10.4842
▁బుద్ధ	-10.4846
▁మాస	-10.4851
▁వెన్న	-10.4852
▁థియేటర్	-10.4853
▁సినిమాలలో	-10.4855
ింపబడిన	-10.4856
▁రమణ	-10.4858
▁An	-10.486
▁ఆనాటి	-10.4865
▁భూత	-10.4865
పత్	-10.4868
▁నగర్లో	-10.487
act	-10.4871
▁రాముడు	-10.4873
art	-10.4874
▁విభాగాల	-10.4883
▁గ్రహించ	-10.4886
▁చేస్తా	-10.4894
▁అల్యూమినియం	-10.4897
▁స్టూడియో	-10.4897
▁విధాన	-10.49
మోద	-10.4901
▁మొదట్లో	-10.4904
▁షేక్	-10.4905
▁హోటల్	-10.4905
▁సూర	-10.4908
▁మార్గాల	-10.4908
▁ప్రపంచం	-10.4909
▁వెలుపల	-10.4909
▁ఎదుర్కొన్న	-10.491
ుడయ్యాడు	-10.4911
▁150	-10.4915
▁వాక్య	-10.4916
▁i	-10.4917
▁బ్లూ	-10.492
▁హిమ	-10.4921
చ్చాడు	-10.4922
▁ప్రజలలో	-10.4923
▁విస్తృత	-10.4924
▁జనసంఖ్య	-10.4929
▁pa	-10.4934
▁ఒలింపిక్	-10.4934
వంతు	-10.4938
▁శర	-10.494
▁జీర్ణ	-10.4947
జిల్లా	-10.4949
▁అంతర	-10.4954
mp	-10.4957
▁ముప్ప	-10.4958
▁విడిచి	-10.496
▁ఆగష్టు	-10.4961
▁రంగుల	-10.4961
▁వస్తు	-10.4964
▁మొహ	-10.4965
▁నాయకత్వం	-10.4973
▁కవిత్వం	-10.4986
▁ట్రాన్స్	-10.4987
▁ఇక్కడికి	-10.499
▁నొప్పి	-10.499
▁అసోసియేషన్	-10.4991
▁who	-10.4992
▁వెళ్	-10.4996
లియో	-10.4997
▁చేరింది	-10.4998
▁పర్యాటకుల	-10.5
▁పరిష్కార	-10.501
▁తెలుప	-10.501
▁వ్యాప్తంగా	-10.501
▁వారీ	-10.5011
వున్న	-10.5011
ts	-10.5012
▁తరు	-10.5014
పుచ్చ	-10.5015
కుండ	-10.5016
▁పశ్చిమాన	-10.502
ుడే	-10.5022
▁ప్రసాద	-10.5022
జింగ్	-10.5029
oc	-10.503
▁శర్మ	-10.5031
▁ప్రభుత్వానికి	-10.5035
▁స్థాపించాడు	-10.5041
▁దీర్ఘ	-10.5041
ంటో	-10.5041
ting	-10.5042
ies	-10.5042
దర్శన	-10.5043
▁అయ్యే	-10.5044
▁నింప	-10.5047
▁5310	-10.505
ేపల్లి	-10.5053
▁తమ్మ	-10.506
▁ట్రై	-10.5065
▁నివసిస్తున్న	-10.5067
▁మరికొన్ని	-10.5067
▁తానే	-10.5069
▁అడ్	-10.5075
▁1940	-10.5077
మాంస	-10.5081
▁స్నాన	-10.5082
▁హ్యా	-10.5084
▁పెట్టిన	-10.5085
▁మంగ	-10.5088
▁ఉంటూ	-10.5091
▁పేర్కొన్న	-10.5091
▁పాల్వంచ	-10.5093
▁సుమారుగా	-10.5098
▁జరుగు	-10.5098
▁రచించారు	-10.5099
▁మాయ	-10.5104
▁ఐర్లాండ్	-10.5106
▁ఏనుగు	-10.5106
▁ఉమ్మడి	-10.5106
మణ	-10.5108
▁మనస్సు	-10.511
ame	-10.5111
▁తల్లిదండ్రులు	-10.5111
▁ఇరాన్	-10.5112
▁కార్యదర్శి	-10.5113
ance	-10.5113
ాల్ని	-10.5114
▁కార్యాలయ	-10.5116
▁చర్యల	-10.5121
▁పరిశోధనా	-10.5123
▁అబ్బ	-10.5128
▁అసాధారణ	-10.5138
▁కాశ్మీరు	-10.5138
▁పట్టణంలో	-10.5145
▁మొగ	-10.5145
ాసుర	-10.5145
మహ	-10.5149
▁అనుకూలంగా	-10.5151
▁సాయం	-10.5162
▁స్నేహ	-10.5164
▁పొద	-10.5164
▁చేయాలి	-10.5165
నారాయణ	-10.5168
ళీ	-10.5169
▁మాధవ	-10.517
▁గ్రూప్	-10.517
app	-10.5173
▁పగ	-10.5174
▁వృత్తులు	-10.5174
▁చక్కగా	-10.5177
▁ఆకులు	-10.518
▁అధికారుల	-10.5182
య్యాడు	-10.5182
▁కూరగాయలు	-10.5183
ార్థం	-10.5185
▁సామ	-10.5187
mi	-10.5188
rn	-10.5188
ుతుంటారు	-10.5189
▁దళ	-10.5191
▁ఐస్	-10.5192
▁po	-10.5194
యిన్	-10.5194
▁జీవించ	-10.5196
▁ఇష్ట	-10.52
▁సరిగా	-10.5201
▁లాటిన్	-10.5202
టికల్	-10.5204
▁శివుని	-10.5208
వంతంగా	-10.5214
పిల్ల	-10.5217
▁చేసుకునే	-10.5218
▁ముస్లింల	-10.522
▁బుద్ధి	-10.5221
▁క్రో	-10.5226
కరంగా	-10.5227
▁స్వేచ్ఛ	-10.5228
▁శంఖ	-10.523
▁ఆంగ్లంలో	-10.5231
▁మనో	-10.5232
▁మహిళలు	-10.5233
సిల్	-10.5237
▁పార్టీకి	-10.5237
కంఠ	-10.5237
ముద్ర	-10.5241
▁చేసేవారు	-10.5241
▁వుండే	-10.5241
కణ	-10.5242
▁చూడవచ్చు	-10.5246
▁పాల్గొన్నారు	-10.5248
▁కాంగ్రెసు	-10.5248
▁సేకరించ	-10.525
శాడు	-10.5252
▁కలవ	-10.5264
▁tr	-10.5265
ాలజీ	-10.5265
▁వీటికి	-10.5266
▁నిర్మించాడు	-10.5266
▁దాట	-10.5268
▁చేసుకుంది	-10.5268
▁గుర్తించిన	-10.5269
▁man	-10.527
▁ప్రొఫెసర్	-10.5274
▁బంగ్లాదేశ్	-10.5274
▁అండ	-10.5274
▁వ్యాధుల	-10.5276
చక్ర	-10.5277
వర్త	-10.5277
▁హెక్టారులు	-10.528
▁శ్రద్ధ	-10.528
▁ఎత్తులో	-10.5289
▁దోష	-10.5289
▁విషయము	-10.529
▁తప్పించ	-10.5291
▁సంప్రదాయం	-10.5293
pr	-10.5294
ty	-10.5296
▁విజయవంతంగా	-10.5297
భూమి	-10.5297
▁యూనివర్శిటీ	-10.53
▁చేరారు	-10.5301
▁సింధు	-10.5301
నిష్	-10.5301
▁కామారెడ్డి	-10.5302
▁సౌందర్య	-10.5306
▁స్ట్ర	-10.5309
▁పురాణాల	-10.5312
1-	-10.5312
▁ఆంజనేయ	-10.5313
▁ఆఫ్రికన్	-10.5313
▁కమల	-10.5317
▁సూర్యుని	-10.5326
యుడు	-10.5339
▁వసంత	-10.534
▁ఒకదాని	-10.5344
▁సమానంగా	-10.535
యొ	-10.5351
▁రాయల్	-10.5352
▁ఎముక	-10.5352
▁నిషేధ	-10.5365
▁విద్వాంసు	-10.5365
▁ఏది	-10.537
▁గ్రే	-10.5372
▁ఏమీ	-10.5375
వర్గ	-10.5376
pi	-10.5378
▁పరస్పర	-10.5378
▁?	-10.538
▁మీటర్లు	-10.5387
adj	-10.5389
▁ప్రోత్సాహ	-10.5392
గోళ	-10.5396
▁చర్మ	-10.5399
▁పెను	-10.5403
▁ముని	-10.5404
min	-10.5404
▁విజయవంతమైన	-10.541
▁రెడ్	-10.541
▁వ్యయం	-10.541
▁కావడంతో	-10.5412
ునకు	-10.5414
▁అభివృద్ధికి	-10.5416
▁ప్రారంభించిన	-10.542
▁డ్రా	-10.5421
వుతుంది	-10.5422
▁పెరుగు	-10.543
▁దేవుని	-10.5431
ue	-10.5431
▁కోర్	-10.5431
▁నిర్వహిస్తారు	-10.5432
భూషణ	-10.5434
బ్రి	-10.5434
బన్	-10.5435
▁వైరస్	-10.5435
▁చిన	-10.5435
రంగంలో	-10.5437
▁రంధ్రము	-10.5438
▁షె	-10.5439
▁శక్తివంతమైన	-10.544
జాన్	-10.544
▁బస్	-10.5444
▁ముద్రించ	-10.5448
▁దక్షిణాన	-10.5448
▁పొగ	-10.545
▁అరేబియా	-10.5451
▁పండ్లు	-10.5453
ాచార	-10.5454
ళా	-10.5455
▁కాంగ్	-10.5456
▁సంభాషణ	-10.5458
▁దంత	-10.5458
ical	-10.5461
▁హాని	-10.5462
▁దీనితో	-10.5465
▁రంగులో	-10.5466
యోధ	-10.5467
▁స్థాపించి	-10.5474
▁వారితో	-10.5478
▁ముద్రణ	-10.5482
ana	-10.5483
▁శాన్	-10.5483
▁పండిత	-10.549
▁చొ	-10.5491
▁నిర్ధారించ	-10.5491
బద్ద	-10.5491
నాటికి	-10.5492
▁1952	-10.5497
శివ	-10.55
▁గంట	-10.55
పాలు	-10.5501
▁అజ	-10.5504
▁ఊహ	-10.5509
▁నాటకాలు	-10.5509
బల్	-10.5509
▁సమ్మేళన	-10.5511
▁దుర్గ	-10.5513
▁దానితో	-10.5513
మందు	-10.5518
▁ముక్క	-10.5523
పాలన	-10.5523
▁నారాయణ్	-10.5524
▁అటవీ	-10.5531
స్థాప	-10.5531
▁యాగ	-10.5532
షియన్	-10.5536
▁సాంద్రత	-10.5538
▁నిర్ణయం	-10.5538
▁నిషేధించ	-10.5538
▁మెడ	-10.5539
▁ముస్లింలు	-10.5541
▁లభించిన	-10.5544
▁కొద్దిగా	-10.5549
▁చేస్తోంది	-10.5553
▁యుద్ధానికి	-10.5553
▁విధానాలు	-10.5556
▁పోయింది	-10.5559
▁పూర్ణ	-10.5562
▁ఎవరు	-10.5563
▁అడిగాడు	-10.5565
రియో	-10.5567
▁వస్తువులను	-10.5571
స్తోంది	-10.5573
చెంద	-10.5576
▁శ్రమ	-10.5581
▁చేరుకుంది	-10.5584
tal	-10.5584
▁యందు	-10.5585
K	-10.559
▁ప్రదర్శనలు	-10.5596
రంగు	-10.56
▁Ch	-10.5601
థె	-10.5608
▁కవుల	-10.5609
▁క్వా	-10.5612
▁పిలువబడే	-10.5613
గలిగిన	-10.5614
▁వృ	-10.5618
హరి	-10.5624
▁చేసుకోవ	-10.5626
▁స్ట్రా	-10.5627
▁నేపథ్యంలో	-10.5634
▁అరటి	-10.5634
▁ఇవ్వడం	-10.5634
▁మార్క్	-10.5638
▁చక్కెర	-10.5638
▁ఖగోళ	-10.564
▁కర్ర	-10.5643
జాతీయ	-10.5644
వేసి	-10.5644
తీర	-10.5646
os	-10.5646
▁గుర్తిస్తూ	-10.5648
ముందు	-10.5649
▁నాగర్	-10.565
▁ఉత్సవాల	-10.565
▁any	-10.5653
▁అనునది	-10.5658
▁also	-10.5659
▁పునః	-10.5659
▁మామూలు	-10.5659
▁విద్యాలయ	-10.566
బడినవి	-10.566
▁లంక	-10.5663
▁వ్యవహార	-10.5665
▁సమయానికి	-10.5667
▁విధానాల	-10.5671
▁సంతకం	-10.5675
కపోయినా	-10.5681
▁పూజా	-10.5681
ob	-10.5683
▁దశాబ్దాల	-10.5683
▁మొదలైంది	-10.5688
హె	-10.5689
▁ఆదిలాబాద్	-10.569
ood	-10.5693
▁మాటల	-10.5697
పూరిత	-10.5699
త్వము	-10.57
▁ఆదర్శ	-10.5701
▁మధుర	-10.5702
▁సేవల	-10.5707
▁గెలిచి	-10.5707
జీవిత	-10.5709
▁ప్రధానమైన	-10.5711
▁ఉపరితల	-10.5713
▁అత్యున్నత	-10.5713
▁గ్రంధ	-10.5714
▁స్థితిలో	-10.5717
▁అన్	-10.5717
ప్స్	-10.5718
▁నిధుల	-10.5719
రేఖ	-10.5723
షే	-10.5726
▁శత్రువు	-10.573
▁భూభాగంలో	-10.573
మింగ్	-10.573
▁రామ్	-10.5732
▁మైసూరు	-10.5733
▁సాధించారు	-10.5734
▁దండయాత్ర	-10.5734
▁క్యూ	-10.5735
▁పురాణం	-10.5741
వంతమైన	-10.5743
▁ముఖ్యమైనవి	-10.5747
▁ఎన్నికల్లో	-10.5748
▁గూర్చి	-10.5761
▁నవంబర్	-10.5769
▁అంబ	-10.577
▁సుదీర్ఘ	-10.5774
ంఛ	-10.5774
▁పరిషత్తు	-10.5776
కుమారి	-10.578
▁ఆర్య	-10.578
▁ఎగువ	-10.5782
▁ఏట	-10.5786
▁పొడవైన	-10.5788
mu	-10.5792
▁ఇందు	-10.5794
▁కొంచెం	-10.5795
▁ప్రదేశాల	-10.5795
▁అశోక	-10.5797
▁లభించాయి	-10.58
▁సుప్రసిద్ధ	-10.5802
▁వినాయక	-10.5803
▁ఫ్లా	-10.5808
▁చమురు	-10.5809
▁గోల్	-10.5811
▁పేట	-10.5814
▁అవకాశాలు	-10.5815
▁డిసెంబర్	-10.5816
▁రాజ్యాంగం	-10.5816
▁అతన్ని	-10.5817
▁నివసించే	-10.5823
కపోతే	-10.5823
జెర్	-10.5824
▁ఉంచి	-10.5827
▁శు	-10.5828
▁మినహా	-10.583
దర్శి	-10.583
▁పరిచయ	-10.5833
▁నిలువ	-10.5835
mon	-10.5839
▁విశ్లేషణ	-10.5841
▁కళాకారులు	-10.5842
▁మరీ	-10.5855
▁ఉదయ	-10.5856
▁విర	-10.5856
▁అక్బరు	-10.5857
▁పద్ధతులు	-10.5858
▁కోస	-10.5859
క్య	-10.5862
▁టాప్	-10.5863
్యాల	-10.5864
▁ఇతడి	-10.5865
▁తమకు	-10.5866
సియన్	-10.5872
▁కల్గి	-10.5873
▁లేఖ	-10.5875
▁నేతృత్వంలో	-10.5875
య్యింది	-10.5878
▁అనుకున్న	-10.588
ara	-10.588
▁వలయ	-10.5883
పురుష	-10.5884
▁పార్కు	-10.5884
▁రచించాడు	-10.5884
▁అత్యుత్తమ	-10.5885
▁గూడ	-10.5888
▁వాహనాల	-10.5889
▁ఫిల్మ్	-10.5889
▁తీర్మాన	-10.5892
▁ఉపయోగించడం	-10.5893
▁సముద్రతీర	-10.5893
▁మార్పుల	-10.5896
చెరువు	-10.5898
▁అప్పగించ	-10.59
▁రూపొందించిన	-10.5902
▁నిర్మించబడింది	-10.5905
▁హిల్	-10.5905
పడ్డ	-10.5905
▁రజ	-10.5905
▁పోర్	-10.5907
red	-10.5915
▁రచయితలు	-10.5916
▁టెస్ట్	-10.5918
ala	-10.5919
▁బాహ్య	-10.5919
▁శోభ	-10.592
▁చీర	-10.5921
▁నివసిస్తున్నారు	-10.5921
▁అంటు	-10.5923
ec	-10.5924
స్తుంటారు	-10.5928
ess	-10.593
నీటి	-10.593
▁ప్రాంతాలను	-10.5931
▁హనుమ	-10.5932
▁లలిత	-10.5934
వరు	-10.5936
▁ఫెర్	-10.5937
▁ఊరు	-10.5937
ణ్య	-10.5939
▁కోర్సు	-10.594
మతి	-10.5941
▁ప్రమాణాల	-10.5943
ాలైన	-10.5944
▁పాల్గొన్న	-10.5947
▁బండ	-10.5947
▁పిల్లలకు	-10.5947
▁పరిశ్రమలు	-10.595
▁అక్టోబర్	-10.5954
▁ఇంగ్లీష్	-10.5954
▁రెవెన్యూ	-10.5954
▁సంగ్రహ	-10.5957
▁ఓడించి	-10.5958
▁సభలో	-10.5962
▁సంగారెడ్డి	-10.5967
▁త్వరగా	-10.5968
▁గట్టి	-10.5976
నగరం	-10.5977
▁రంగారెడ్డి	-10.5978
పార్	-10.5979
లిపి	-10.5981
▁అందరు	-10.5982
▁వెడల్పు	-10.5982
▁నగరాన్ని	-10.5982
▁చో	-10.5984
▁గణపతి	-10.5984
▁నిర్వాహక	-10.5985
ాచార్యులు	-10.5987
▁నువ్వు	-10.5987
▁64	-10.5989
▁నాణ్యత	-10.5989
▁ఇరవై	-10.5989
▁నిండి	-10.5996
▁మహిళ	-10.5998
▁చెట్లు	-10.5998
▁శరీరంలో	-10.6001
క్యూ	-10.6004
▁ఐదుగురు	-10.6005
▁లాస్	-10.6009
▁ఉద్యానవన	-10.601
▁పరిశ్రమల	-10.601
▁II	-10.6011
▁మూర్తి	-10.6012
▁నడుమ	-10.6013
tor	-10.6013
▁వూ	-10.6014
▁చుట్టు	-10.6015
పోతాయి	-10.6016
▁పిండి	-10.6016
వెంట్	-10.6018
▁పట్టి	-10.6019
▁సాక్ష్య	-10.6021
▁చేరుకున్న	-10.6022
▁డేటా	-10.6023
▁పోలిస్తే	-10.6025
▁రోడ్డుతో	-10.6026
▁రామాయణ	-10.6029
టీఎం	-10.603
▁శుభ్ర	-10.6032
▁ఫైనల్	-10.6035
▁వుంటాయి	-10.6035
▁విజయవంత	-10.6043
ుకుంటే	-10.6044
ధర్	-10.6045
తరం	-10.605
▁ఆదరణ	-10.6052
▁తెలుపు	-10.6053
▁ఓపెన్	-10.6059
▁నివారణ	-10.6059
స్థానంలో	-10.6062
▁ఆధీనంలో	-10.6066
▁కార్పొరేషన్	-10.6066
▁సంవత్సరములో	-10.6067
▁గ్రంథాలు	-10.6068
ండో	-10.6077
▁రాష్ట్రాలలో	-10.6082
టూరు	-10.6091
▁5%	-10.6097
▁శ్రీమతి	-10.61
▁పాయింట్	-10.6102
5,000	-10.6104
ధన	-10.6106
హారం	-10.6109
▁బియ్యం	-10.611
▁వెళ్ళిన	-10.6112
▁గాజు	-10.6114
ినీ	-10.6114
▁తీరు	-10.6116
▁కమిషన్	-10.6116
ధాన్య	-10.6121
▁మఠ	-10.6123
నాగ	-10.6123
శోధ	-10.6124
దై	-10.6125
ాదేవి	-10.6125
నిర్మాణ	-10.6128
మిష	-10.6129
స్థానం	-10.613
▁అనా	-10.613
▁భవిష్యత్తు	-10.6132
▁ధరించి	-10.6134
▁పాక్షిక	-10.6137
▁తై	-10.6141
▁క్వి	-10.6142
▁సుల్తాన్	-10.6144
థో	-10.615
▁పద్ధతిని	-10.6158
ట్లే	-10.6161
▁దశాబ్ద	-10.6161
▁అడ్డు	-10.6164
ేశ్వరరావు	-10.6165
▁భద్రత	-10.6165
▁రాశారు	-10.6165
ఫ్ట్	-10.6165
▁నవ్వ	-10.6166
సీమ	-10.6166
ుచున్నారు	-10.6172
▁1983	-10.6173
▁వడ	-10.6176
▁దుఃఖ	-10.618
▁కొల్ల	-10.6181
over	-10.6182
▁ఉచిత	-10.6182
కాక	-10.6188
▁తోడు	-10.6191
ట్రిక్	-10.6192
గ్రీ	-10.6197
సమూహ	-10.62
▁పోషక	-10.6201
▁అంజ	-10.6202
▁అనుసంధానమై	-10.6202
▁దిక్కు	-10.6202
▁మేఘ	-10.6205
▁లేకపోవడం	-10.621
▁ప్రవేశించి	-10.622
▁స్పా	-10.6221
▁ఫ్రాం	-10.6222
ిస్తోంది	-10.6224
▁కార్యక్రమంలో	-10.6224
టాన్ని	-10.6225
▁మాస్టర్	-10.6227
▁న్యాయస్థాన	-10.6228
కూడ	-10.6231
కళా	-10.6232
వీడు	-10.6234
▁St	-10.6236
సభ	-10.6236
▁పరుగులు	-10.6236
▁బ్లా	-10.6237
బండ	-10.6238
▁కనిపెట్ట	-10.6238
▁సులభంగా	-10.6239
ెర	-10.624
▁మతపరమైన	-10.6241
▁అర్హత	-10.6248
▁వ్యవహారాల	-10.6252
▁నెలలో	-10.6255
బాబు	-10.6256
ach	-10.6256
▁దిశలో	-10.6257
▁పెర్	-10.6257
▁అలంకరించ	-10.6258
▁మసీదు	-10.6258
పర్తి	-10.6259
▁స్థాపన	-10.626
ong	-10.6263
▁చాట	-10.6264
స్పష్ట	-10.6265
రోధ	-10.6266
▁అందుకున్నారు	-10.6267
▁వ్యవహర	-10.6269
▁రాష్ట్రాలు	-10.6271
పదార్ధ	-10.6272
▁మినుము	-10.6272
▁పరిగణ	-10.6274
▁సైట్	-10.6275
ుతుంటాయి	-10.6279
▁గాథ	-10.6279
▁సభ్యుడు	-10.6279
▁జలపాత	-10.6285
▁1962	-10.6286
▁వర్షపాతం	-10.6287
▁ప్రాంతంలోని	-10.6289
▁ఎన్నికైనారు	-10.6294
▁పడుతుంది	-10.6298
▁పరిశీలించ	-10.63
▁ఉత్సాహ	-10.6302
ణ్ణ	-10.6305
▁పొరుగు	-10.6306
▁హస్త	-10.6306
Sub	-10.6306
▁మరు	-10.6307
▁మీడియా	-10.6308
if	-10.6311
పడ్డాయి	-10.6312
▁జంతువులు	-10.6313
▁ఈజిప్టు	-10.6316
▁మొఘల్	-10.6316
▁గుడ్	-10.632
▁అంచు	-10.632
▁గణనీయమైన	-10.6323
జూ	-10.6324
▁సంధి	-10.6326
▁have	-10.6331
▁ప్రేరణ	-10.6332
▁రాక్	-10.6335
యందు	-10.6336
-4	-10.6337
▁అందమైన	-10.6337
వర్గం	-10.6342
▁un	-10.6343
▁సంవత్సరాలలో	-10.6344
▁పెసర	-10.6347
▁1985	-10.6347
▁అరకులోయలో	-10.6348
▁భౌగోళిక	-10.635
▁శాస్త్రవేత్తలు	-10.6356
▁నందు	-10.636
▁పండించ	-10.636
▁సంపన్న	-10.6362
▁హిందువులు	-10.6362
▁ఆచరణ	-10.6364
▁గెలుచుకున్న	-10.6366
▁బలం	-10.6366
ోదయ	-10.6374
▁ఆర్మేనియా	-10.6374
▁మైక్రో	-10.6375
▁పనికి	-10.6375
▁పాఠ	-10.6377
▁62	-10.6379
▁విక్రయ	-10.6382
▁వుండి	-10.6382
▁1971	-10.6382
▁లాగా	-10.6384
ట్టే	-10.6386
▁చేతులు	-10.6388
▁అనేవి	-10.6388
▁నిరాకరించ	-10.6389
▁sp	-10.639
పుత్ర	-10.6397
▁ఎర్	-10.6399
▁జగిత్యాల	-10.6403
▁పల్	-10.6405
ard	-10.6414
▁నచ్చ	-10.6414
పరిచ	-10.642
▁పనిచేసి	-10.642
▁వ్యాపించి	-10.642
నాయుడు	-10.6422
▁1920	-10.6424
▁ట్యా	-10.6424
up	-10.6425
▁సమస్త	-10.6425
▁మాడుగుల	-10.6425
▁రాష్ట్రములోని	-10.6427
ులై	-10.6432
▁వాయిద్య	-10.6432
▁రహదారుల	-10.6433
ack	-10.6433
▁పరిషత్	-10.6433
▁నష్టం	-10.6435
పర్చ	-10.6436
▁సులభ	-10.6439
ాచార్య	-10.644
▁బర్మా	-10.6443
▁తాగ	-10.6445
డియం	-10.6445
▁చేసుకొ	-10.6451
▁శాసనం	-10.6451
▁కేటాయించ	-10.6454
tic	-10.6455
▁బిందువు	-10.6462
రియల్	-10.6462
▁అందించిన	-10.6463
▁సరిపో	-10.6469
▁నిర్వహిస్తున్న	-10.647
▁వంగ	-10.6472
▁నిమ్మ	-10.6475
▁నమ్మక	-10.6475
▁బెంగాలీ	-10.6476
▁భోగ	-10.6478
▁చోట్ల	-10.6481
▁యువత	-10.6483
వత్	-10.6486
క్కా	-10.6489
▁కాలేజ్	-10.6491
▁నిర్మాణంలో	-10.6492
పెట్టి	-10.6494
▁ప్రశాంత	-10.6497
▁పోలీస్	-10.6506
▁అచ్చ	-10.6506
▁మండలంతో	-10.6513
▁శైవ	-10.6514
▁సాహస	-10.6516
▁తీరంలో	-10.6517
వలెను	-10.6519
▁హిందువుల	-10.6519
▁జరుగుతాయి	-10.6523
▁సందేహ	-10.6528
యుక్త	-10.6529
▁గణన	-10.6529
▁రోగి	-10.6529
▁ఎన్ని	-10.6533
▁వీజీ	-10.6534
▁ఉత్సవాలు	-10.654
సెల్	-10.654
▁శ్రీకృష్ణ	-10.6541
▁అనారోగ్య	-10.6543
▁సముద్రమట్టానిక	-10.6543
▁మంత్రిగా	-10.6549
▁పరిస్థితులు	-10.655
▁ఐరోపాలో	-10.6553
▁రాజ్యాన్ని	-10.6557
▁అద్భుతమైన	-10.6558
▁రంధ్రం	-10.656
▁రైతులు	-10.6565
▁పోయిన	-10.6573
▁దిశగా	-10.6576
▁ఎడారి	-10.658
▁నిరంతర	-10.6581
▁విమానాశ్రయ	-10.6584
▁పరిశోధకులు	-10.6584
క్లి	-10.6591
▁నాయిక	-10.6593
▁తప	-10.6595
▁పాలించ	-10.6601
▁ప్రాజెక్ట్	-10.6602
▁జ్యోతి	-10.6607
▁శ్వాస	-10.6609
▁నోబెల్	-10.661
▁శనగ	-10.661
కోశ	-10.6611
▁మేక	-10.6611
మగు	-10.6612
▁దంపతుల	-10.6617
▁వహించారు	-10.6617
▁ఐక్య	-10.6625
టొ	-10.6627
ుంటాయి	-10.6628
▁గుడివాడ	-10.6628
▁ఆదేశ	-10.663
▁వీరిని	-10.6632
▁సూత్రాల	-10.6632
▁టర్కీ	-10.6632
▁1984	-10.6633
కూర్	-10.6633
▁ఓట్ల	-10.6635
▁పరిశీలన	-10.6639
ేశాడు	-10.6642
▁1956	-10.6646
▁దిశ	-10.6647
▁1993	-10.6648
▁నగరాలలో	-10.6649
▁అబ్	-10.665
▁1000	-10.6652
▁అందరికీ	-10.6653
▁శిథిల	-10.6654
▁1967	-10.6656
రకాల	-10.6657
కారణ	-10.6658
▁కావున	-10.6658
▁భద్రాచలం	-10.6662
▁ఉద	-10.6663
▁కాలము	-10.6664
▁లక్ష్మి	-10.6666
rit	-10.6666
గూడెంలో	-10.6668
▁చేపట్టిన	-10.6669
▁కొందరి	-10.6675
▁రుణ	-10.6676
ేటట్లు	-10.6677
రెన్	-10.6678
▁స్థాయికి	-10.6683
▁తరహా	-10.6688
యుద్ధ	-10.6692
రాణి	-10.6693
యింగ్	-10.6693
సింది	-10.6698
చేసింది	-10.6699
▁వృష	-10.67
▁వేలాది	-10.6703
▁వాటర్	-10.6707
▁పేరిట	-10.6707
8%	-10.6707
బెట్టి	-10.6709
ట్రి	-10.6711
▁శిష్యుల	-10.6712
ాదుల	-10.6713
▁ఆఖరి	-10.6715
గృహ	-10.6721
▁ఊర	-10.6722
▁స్మారక	-10.6722
▁సమీక్ష	-10.6722
▁కవులు	-10.6722
▁సిక్కు	-10.6723
▁India	-10.6729
▁చేయటానికి	-10.6733
▁పేర్కొంది	-10.6737
▁వెంకటేశ్వర	-10.6743
▁ఉద్దేశ	-10.6745
▁బాంబు	-10.6746
▁నిర్బంధ	-10.6746
▁విధి	-10.6748
చారి	-10.6749
ట్టుగా	-10.675
▁పొందాయి	-10.6752
▁పిలిచే	-10.6757
▁చతుర్	-10.6759
▁కలయిక	-10.676
▁పవర్	-10.676
▁నుండే	-10.6761
▁వైభవంగా	-10.6762
▁భోజన	-10.677
mo	-10.677
▁ఇస్తుంది	-10.6771
▁ప్రస్తావన	-10.6775
▁గ్రూపు	-10.6775
▁నిమిషాల	-10.6776
▁వేగం	-10.6777
మియా	-10.6781
▁అంతేకాకుండా	-10.6782
కొన్న	-10.6784
▁2017	-10.6793
▁కృష్ణుడు	-10.6794
యుండ	-10.6795
▁ధైర్య	-10.6797
▁పండ్ల	-10.6798
▁ఒడిషా	-10.6798
▁బయలుదేర	-10.6802
▁సమూహాల	-10.6804
▁నివారించ	-10.6806
▁ప్రభువు	-10.6806
▁తీసుకురా	-10.6809
ుచుండ	-10.6811
▁క్షయ	-10.6811
▁భక్తులకు	-10.6812
▁విద్యార్థులకు	-10.6812
▁నిర్మించి	-10.6816
▁కవితా	-10.682
▁విక్రమ	-10.6823
▁కన్య	-10.6824
to	-10.6824
▁1972	-10.6827
▁క్షత్రియ	-10.6828
▁గిరిజన	-10.6828
▁భారతీయుల	-10.683
▁అమృత	-10.6834
టికీ	-10.6835
▁అగ్నిపర్వత	-10.6836
▁సంబంధాల	-10.6841
▁అధ్యాపక	-10.6843
▁జ్ఞాపక	-10.6843
▁రాళ్ళ	-10.6843
▁ఉన్నాయని	-10.6849
▁పదవ	-10.685
▁అనుమాన	-10.6852
▁భగవ	-10.6853
ial	-10.6857
▁విరమణ	-10.6859
▁చేయబడ	-10.6864
▁ప్రత్యర్థి	-10.6866
▁చేపలు	-10.6867
కొద్దీ	-10.6868
▁కొత్తగూడెం	-10.6874
▁మేళ	-10.6878
▁అగు	-10.6878
▁ఆరుగురు	-10.6883
దనం	-10.6886
▁అప్	-10.6892
▁పరమాణు	-10.6895
క్ష్య	-10.6895
ction	-10.6899
▁క్రిస్ట	-10.6899
దొ	-10.6903
▁ప్రవాహం	-10.6904
▁గిరి	-10.6905
sion	-10.6906
▁పాస్	-10.6911
▁ప్రభావిత	-10.6914
▁ఆధారపడ	-10.6914
▁ఉపయోగం	-10.6922
ఎన్	-10.6926
▁అన్నమయ్య	-10.6927
▁ఆలయానికి	-10.6929
ండ్లు	-10.6932
▁ప్రచురించారు	-10.6933
తీయ	-10.6936
form	-10.6937
▁యూనిట్	-10.6939
▁రైతుల	-10.6941
▁ఘంటసాల	-10.6942
▁సమకాలీన	-10.6942
ally	-10.6943
▁ఫ్రె	-10.6945
▁lo	-10.6946
▁పఠ	-10.6948
▁1975	-10.695
▁దక్షిణాఫ్రికా	-10.695
▁మెడికల్	-10.695
▁పుష్కర	-10.695
ృష్ట	-10.6951
▁పట్టణాల	-10.6951
పింగ్	-10.6952
▁పదము	-10.6952
ాన్నే	-10.6953
బడుతోంది	-10.6955
▁జరిపిన	-10.696
ులయ్యారు	-10.6964
లెన్	-10.6965
▁బ్యాండ్	-10.6966
▁అవమాన	-10.6971
▁కనక	-10.6972
▁గడ్డ	-10.6976
▁గుండ	-10.6977
▁హౌ	-10.6978
▁చక్కని	-10.6981
▁గుప్త	-10.6984
కృత్	-10.6988
▁విజయాన్ని	-10.6989
▁వహిస్త	-10.6991
▁వాడకం	-10.6992
▁కత్తి	-10.6993
▁తాళ	-10.6998
▁ఆధిపత్యం	-10.6999
▁400	-10.7
▁ధ్యాన	-10.7001
▁విస్తరించింది	-10.7004
▁సంతాన	-10.7009
▁జన్యు	-10.7013
▁స్క్	-10.7019
▁ఛాంపియన్	-10.702
▁వడ్డ	-10.7025
▁వ్రత	-10.7025
ార్ధం	-10.7026
▁పాండవుల	-10.7033
▁భాషను	-10.7035
▁ప్రజాస్వామ్య	-10.7036
రైడ్	-10.7038
▁పరిమితం	-10.7038
▁పడవ	-10.7039
▁జింక	-10.7041
the	-10.7042
స్థుల	-10.7042
▁తులసి	-10.7044
ral	-10.7047
▁అనేకమంది	-10.7049
▁రాకెట్	-10.7049
▁వార్త	-10.705
▁హెర్	-10.705
కెక్క	-10.7051
▁కుంభ	-10.7052
▁ఇటీవలి	-10.7053
ానంతరం	-10.7053
▁స్టె	-10.7056
▁మూసి	-10.7057
ించుట	-10.7057
▁మెజారిటీ	-10.7059
▁అల్లాహ్	-10.7059
▁సాయంత్రం	-10.7059
సముద్రం	-10.7061
▁గ్రంథము	-10.7061
▁మిస్	-10.7061
తెలంగాణ	-10.7062
పడింది	-10.7067
▁1977	-10.7068
▁చిత్రాన్ని	-10.7069
▁పెన్	-10.7072
▁ఎంచ	-10.7073
▁విటమిన్	-10.7074
▁వేదాంత	-10.7076
▁క్లో	-10.7079
టెల్	-10.708
▁శస్త్రచికిత్స	-10.7082
▁పండితులు	-10.7083
▁ప్రయోజనాల	-10.7085
▁మార్పిడి	-10.7087
ight	-10.7088
సాన్	-10.7091
పత్రిక	-10.7091
▁తలెత్త	-10.7092
ునితో	-10.7102
▁హిట్	-10.7103
▁స్ఫూర్తి	-10.7113
▁ప్రమాణం	-10.7114
▁గ్రహించి	-10.7118
ుకోవటం	-10.7119
▁చేశా	-10.712
tra	-10.712
▁ఎవరైనా	-10.7121
▁మౌలిక	-10.7122
పురాణ	-10.7125
▁సిరీస్	-10.7129
▁పక్కన	-10.7129
▁గుర్తించి	-10.7133
▁ఆధారం	-10.7136
స్ట్రో	-10.7136
▁article	-10.7137
▁పసిఫిక్	-10.7137
▁సిద్ధిపేట	-10.7137
▁ఎరుపు	-10.7137
ple	-10.7137
వృ	-10.714
▁ఫ్లో	-10.7142
▁విలువైన	-10.7146
▁నిజమైన	-10.7149
వంటి	-10.7151
rt	-10.7152
▁క్షీణ	-10.7158
▁సేకరించి	-10.716
ఇతర	-10.7163
▁ప్రదేశాలలో	-10.7164
రేషన్	-10.7166
▁క్షిపణి	-10.7168
▁స్థూల	-10.7168
output	-10.7168
▁తొలిసారిగా	-10.7172
పట్ల	-10.7172
▁మూలం	-10.7174
▁నిర్వహించే	-10.7177
తాను	-10.718
▁పోర్చుగీసు	-10.7184
▁నాటిక	-10.7185
▁సౌత్	-10.7185
ానిక	-10.7187
▁బాగు	-10.7187
▁పొందు	-10.7188
▁కళాకారుల	-10.7189
జార్	-10.7191
▁సైనికులు	-10.7191
▁రంపచోడవరం	-10.7192
▁బ్రిటీషు	-10.7192
▁యాజమాన్య	-10.7192
దగ్గ	-10.7199
▁అధిగమించ	-10.72
▁ఏమిటంటే	-10.72
▁సహకారంతో	-10.72
పూజ	-10.7202
▁పతాక	-10.7209
▁వ్యతిరేకించ	-10.7212
▁పుట్టుక	-10.7212
▁తెలియజేస	-10.7213
▁హీరో	-10.7216
▁జిల్లాల్లో	-10.722
▁దళిత	-10.722
▁మస్జిద్	-10.7231
▁కష్టం	-10.7234
▁into	-10.7244
▁తిరగ	-10.7247
▁సరాసరి	-10.7247
▁నాగేశ్వరరావు	-10.7249
లేఖ	-10.7249
▁చైనాలో	-10.725
ాధికారి	-10.7253
▁72	-10.7255
▁దె	-10.7256
▁బెంగుళూరు	-10.7263
▁మిక్కిలి	-10.7263
▁తెలిపారు	-10.7263
▁బ్రాడ్	-10.7263
సెంట్	-10.7264
మరియు	-10.7264
▁పేర్ల	-10.7265
▁స్వీయ	-10.7271
▁నుంచే	-10.7272
ాధిపతి	-10.7272
▁ప్రారంభించి	-10.7273
▁సహకరించ	-10.7273
ign	-10.7278
▁ప్రయాణీకుల	-10.7279
▁వ్యూహ	-10.7286
▁78	-10.7287
▁other	-10.7291
▁అరుదుగా	-10.7295
▁విశాల	-10.7295
సౌ	-10.7298
▁గెలుపొంద	-10.7301
▁ఆల్బమ్	-10.7303
▁విషయాలను	-10.7303
▁సాల్	-10.7304
▁ఆయుధాల	-10.7307
▁నదులు	-10.7309
▁మెక్సికో	-10.7311
▁మెదడు	-10.7311
మెట్	-10.7314
▁dis	-10.7315
▁పౌరులు	-10.7315
లాల్	-10.7318
న్నింటి	-10.732
▁విశ్వవిద్యాలయము	-10.7326
▁తీర్పు	-10.7327
▁కృ	-10.7328
▁చిత్రాలను	-10.7329
▁చెప్పబడింది	-10.7333
▁చిన్నతనం	-10.7334
▁శతాబ్దపు	-10.7335
▁అధికారాన్ని	-10.7336
▁చెందుతున్న	-10.7337
▁mw	-10.734
▁ఉపయోగించిన	-10.7342
▁ఆయుర్వేద	-10.7343
▁ఇక్కడే	-10.7346
▁రోగుల	-10.7349
▁we	-10.735
▁పదానికి	-10.735
డియన్	-10.7351
▁పడిన	-10.7354
▁తరంగ	-10.7355
▁కర్నూల్	-10.7359
తోనూ	-10.7364
▁తరపున	-10.7367
▁ద్వితీయ	-10.7367
▁ఉద్దేశించి	-10.7375
బియా	-10.7376
ెయిన్	-10.7377
▁కర్మాగార	-10.7377
unt	-10.738
▁కార్మిక	-10.738
▁నదుల	-10.7383
bl	-10.7388
▁వేళ	-10.7392
▁హొ	-10.7394
▁భాషగా	-10.7396
గ్రంథ	-10.7399
▁టైటిల్	-10.7401
▁ప్రభావాల	-10.7401
▁ఒడ్డున	-10.7401
▁పరికరం	-10.7404
▁మార్గాలు	-10.7406
▁To	-10.7406
▁లక్షణ	-10.7407
▁కలిగే	-10.7407
▁ఉపాధి	-10.7413
▁మొదటిసారి	-10.7413
parser	-10.7415
▁బ్రెజిల్	-10.7415
▁బ్యాటరీ	-10.7416
▁ఉండేవాడు	-10.742
రంగం	-10.7421
▁దుర	-10.7425
స్తుంటాయి	-10.7426
▁సమా	-10.7431
మంటే	-10.7433
ధిక	-10.7434
▁విశాఖ	-10.7438
రూపం	-10.7439
ప్పుడే	-10.7442
▁పురుగు	-10.7445
▁సింహాసన	-10.7448
▁క్యాన్సర్	-10.7448
▁అంక	-10.7449
amu	-10.7449
▁ఏర్పడి	-10.7451
సమీప	-10.7451
ప్రో	-10.7451
▁ఆదివారం	-10.7456
har	-10.7457
▁తొలగి	-10.7459
▁శాస్త్రంలో	-10.746
▁ఒంటరి	-10.7464
▁ఉద్యమంలో	-10.7467
▁దళాల	-10.7469
▁వర్గీకరించ	-10.7473
ip	-10.7476
mar	-10.7476
జెన్	-10.7476
▁పాలక	-10.7478
▁బొంబాయి	-10.748
▁నిర్వహిస్తుంది	-10.748
▁ధరించిన	-10.7484
▁చేశాయి	-10.7485
▁వ్యవస్థాపక	-10.7485
▁పర్వ	-10.7488
▁1974	-10.7489
▁స్వీకరించి	-10.749
▁ఉత్సవ	-10.749
▁వ్ర	-10.7491
▁పత్రికలో	-10.7497
▁కథానాయక	-10.7497
▁త్రాగ	-10.7504
▁అమె	-10.7504
▁మరాఠీ	-10.7504
▁సరస్వతి	-10.7504
▁సమర్థ	-10.7514
str	-10.7517
2)	-10.7519
▁నిరసన	-10.7522
కార్బను	-10.7522
▁వహిస్తున్న	-10.7523
▁ఏర్పడుతుంది	-10.7525
eg	-10.7528
▁శృంగార	-10.7529
▁ఉప్ప	-10.7533
▁సిద్ధాంతాల	-10.7534
▁వ్యవసాయాధారిత	-10.7537
▁విద్యాభ్యాసం	-10.7537
▁ఎందరో	-10.7537
బడినది	-10.7537
▁will	-10.7538
▁యాదవ	-10.7539
▁పాల్గొని	-10.754
▁నగరంలోని	-10.754
▁బోర్	-10.7544
▁ఓడించ	-10.7546
▁---	-10.7548
▁నిలయ	-10.7548
▁ప్రతినిధి	-10.7553
▁దోహద	-10.7559
లాండు	-10.7559
▁శ్రీరంగ	-10.7561
▁వ్యత్యాస	-10.7561
▁నిష్పత్తి	-10.7561
▁తరగతుల	-10.7562
న్నిటి	-10.7572
దర్శ	-10.7578
▁జమీందార	-10.7578
▁మలేషియా	-10.7578
▁జరుపుకుంటారు	-10.758
▁తిరువ	-10.7583
▁వినిపించ	-10.7588
▁1955	-10.7595
▁ప్రఖ్యాతి	-10.7597
ప్రియ	-10.7608
ింపజేస	-10.7608
▁ఆసియాలో	-10.7609
▁అప్పటికి	-10.7613
▁జూలైలో	-10.7613
▁1946	-10.7618
fi	-10.7619
-5	-10.7622
mit	-10.7624
▁చిట్ట	-10.7628
▁వ్యవహరిస్తారు	-10.763
▁కరువు	-10.7631
▁స్పె	-10.7632
పయోగ	-10.7632
▁you	-10.7639
▁ఉత్సవం	-10.764
▁అన్నా	-10.7643
▁నిర్వచించ	-10.7645
▁అత్త	-10.7648
▁ప్రతినిధుల	-10.7652
▁1988	-10.7652
▁ఓట్లు	-10.7654
▁నోటి	-10.7656
▁విక్రయించ	-10.766
▁ఇద్దరూ	-10.766
▁ఓటమి	-10.766
▁గ్రాండ్	-10.7666
▁ప్రయోజన	-10.7666
ust	-10.7669
▁ఉదాహరణలు	-10.767
▁పెరుగుతున్న	-10.7671
▁బ్ల	-10.7674
▁కచ్చితంగా	-10.7677
▁ప్రభావాన్ని	-10.7677
▁ఎన్నికయ్యాడు	-10.7677
▁రంధ్ర	-10.7683
▁పురస్కారాన్ని	-10.7688
ప్రాయ	-10.7688
పల్లిలోనూ	-10.769
ite	-10.7697
ళిక	-10.7698
ుతుంద	-10.7699
▁బంగారం	-10.77
▁మక్కా	-10.7701
దేవ్	-10.7704
▁పోషించారు	-10.7705
▁ఇష్టం	-10.7705
▁మందిరం	-10.7705
▁కిలోమీటర్లు	-10.7705
▁వరంగల్లో	-10.7705
▁రూపాయలు	-10.7707
▁హోమ	-10.7707
▁చారిత్రిక	-10.771
▁కదలిక	-10.7713
పోయ	-10.7715
▁ఉపన్యాస	-10.7715
▁సుల్తాను	-10.7718
▁అధికం	-10.772
▁డిజిటల్	-10.7727
▁లైంగిక	-10.7727
▁పురావస్తు	-10.7727
▁నేర్చుకున్న	-10.7728
▁సెట్	-10.7732
▁ద్వారం	-10.7735
గొట్టపు	-10.7741
▁పూజించ	-10.7747
▁వాడుతారు	-10.7749
▁మతము	-10.775
▁పోయ	-10.7752
▁శంకర్	-10.7756
▁సంప్రదాయాల	-10.7756
1)	-10.7756
▁కథనం	-10.7757
▁ద్రాక్ష	-10.776
స్థాయిలో	-10.776
ub	-10.7764
▁భూకంప	-10.7769
ens	-10.7769
▁సముద్రంలో	-10.777
▁మూలకం	-10.7771
▁పెరిగే	-10.7778
▁ఆవిరి	-10.7779
▁భూముల	-10.7783
▁రామాయణం	-10.7789
▁స్నేహితు	-10.7789
▁ఇతనికి	-10.7791
ల్యాండ్	-10.7791
▁దాచ	-10.7792
▁చేయబడుతుంది	-10.7793
వాళ్ళు	-10.7798
వాహన	-10.7798
▁అరు	-10.7801
▁దగ్గరి	-10.7805
▁వాదించ	-10.7805
▁ఎత్తున	-10.781
▁కట్టి	-10.7811
ాన్నీ	-10.7812
▁పదార్థాలు	-10.7813
▁ఆకర్ష	-10.7816
▁ఒంగోలు	-10.7819
▁కారణాలు	-10.782
tt	-10.782
▁సంబ	-10.7823
▁కుండ	-10.7825
▁తెలుసుకున్న	-10.7827
▁ఇంద్రుడు	-10.7828
▁ఇస్లామీయ	-10.7829
▁గ్లా	-10.7829
▁సన్యాస	-10.7833
▁ఆర్ట్	-10.7833
▁బాయిలరు	-10.7835
▁ఆనకట్ట	-10.7836
ాధ్యక్ష	-10.7836
స్టన్	-10.7839
▁1978	-10.7842
▁1964	-10.7843
▁సిరి	-10.7844
▁సోదరుడు	-10.7844
hy	-10.7847
రాత్రి	-10.7852
▁యజమాని	-10.7852
▁తమిళం	-10.7854
▁భాగస్వామ్యం	-10.786
శ్లేష	-10.786
▁such	-10.7861
▁పాల్గొంట	-10.7861
▁చంద్రశేఖర	-10.7862
▁సూర్యుడు	-10.7863
▁వికీపీడియా	-10.7869
▁గలవాడు	-10.7875
చోట	-10.7878
▁వాసన	-10.7885
▁కలిగించే	-10.7894
▁దృఢ	-10.7894
కపోవడం	-10.7902
▁ధార్మిక	-10.7903
▁థాయ్	-10.7903
ever	-10.7903
▁ఆక్రమణ	-10.7904
▁భీష్మ	-10.7908
దండ	-10.7911
▁శారీరక	-10.7911
▁పెరిగిన	-10.7913
వాణి	-10.7914
▁వెళ్ళారు	-10.7915
▁సైనికుల	-10.7919
పిస్తుంది	-10.792
▁గడ్డి	-10.7925
ran	-10.7925
ణువు	-10.7925
▁పెరగ	-10.7928
3)	-10.7928
▁54	-10.7935
▁1979	-10.7937
▁కడుపు	-10.7937
▁పర్షియన్	-10.7937
షర్	-10.7938
▁ప్రపంచంలోనే	-10.7939
▁ప్రీ	-10.794
▁భూభాగాల	-10.7944
sp	-10.7945
▁చలి	-10.7947
▁కవిత్వ	-10.7948
▁086	-10.7949
▁రచయితగా	-10.7956
ీయులు	-10.7959
▁వ్యక్తం	-10.7959
గంటి	-10.7962
▁ముద్ద	-10.7968
వేసే	-10.797
ధారి	-10.797
▁రాయలసీమ	-10.7971
▁జార్జ్	-10.7971
▁ఏకీకృత	-10.7972
▁vi	-10.7973
▁కౌరవ	-10.7975
▁బహుశా	-10.7976
▁సౌదీ	-10.7977
▁ఉత్	-10.7981
వైద్య	-10.7983
▁మద్రాసులో	-10.7984
▁కావలి	-10.7987
▁దేశాలకు	-10.7988
▁డైరెక్టర్	-10.7991
▁ఉంట	-10.7992
▁సెన్	-10.7994
పీఠ	-10.7995
▁కౌంటీ	-10.7997
▁సన్నిహిత	-10.7997
క్రమణ	-10.7998
▁భయపడ	-10.8002
ేటప్పుడు	-10.8003
▁వైఎస్	-10.8003
▁భిన్నంగా	-10.8004
▁ప్రోగ్రామ్	-10.8005
▁చేయగల	-10.8007
స్థాన్	-10.8014
ించబడిన	-10.8016
▁రాముని	-10.8019
▁సౌర	-10.802
▁లక్షణాల	-10.8021
▁చంపి	-10.8021
▁ప్రబల	-10.8022
▁పరికరాలు	-10.8023
▁కనపడ	-10.8024
▁పంపించ	-10.8025
విజయ	-10.8026
▁చెప్పింది	-10.8031
▁నివాసం	-10.8032
సంఖ్య	-10.8034
▁ప్రతీక	-10.8036
cu	-10.8036
▁అరబ్	-10.8037
నెట్	-10.8038
be	-10.804
▁ప్రక్కన	-10.8043
▁శివలింగ	-10.8044
ake	-10.8045
▁1965	-10.8048
▁ఖ్యాతి	-10.8049
▁పురాతనమైన	-10.8051
లంక	-10.8052
ult	-10.8055
▁all	-10.8058
▁లభించే	-10.8059
మృగ	-10.8061
▁దాడుల	-10.8062
▁నర్స	-10.8066
▁అపరాలు	-10.8067
▁తయారుచేయ	-10.8071
▁రంగారావు	-10.8076
▁మర్రి	-10.8076
▁పునర	-10.8078
▁వాహక	-10.8078
▁మహాత్మా	-10.808
▁సాయి	-10.8081
▁సంవత్సరముల	-10.8083
భరిత	-10.8085
▁భాషల్లో	-10.8096
▁ఎవరూ	-10.8097
ారణ్య	-10.8098
▁సామంత	-10.8102
▁జార్జి	-10.8102
▁సాగింది	-10.8103
కాలము	-10.8104
▁మోహ	-10.8105
▁భీమవరం	-10.8106
▁కాలుష్య	-10.8108
low	-10.811
▁సంగీతాన్ని	-10.8113
నగర	-10.8113
ెల్ల	-10.8113
▁కలదు	-10.8116
▁ఉండాలని	-10.8123
▁నిరోధించ	-10.8124
▁జేమ్స్	-10.8127
▁ఆరో	-10.8129
▁గై	-10.813
▁గింజల	-10.8131
▁నారద	-10.8132
▁ఇల్లు	-10.8132
▁నివాసగృహాలు	-10.8134
▁నంద్యాల	-10.8135
▁భీష్ముడు	-10.8137
▁సంస్కృతుల	-10.8138
స్టిక్	-10.8142
▁చిత్రాలకు	-10.8142
▁తాజా	-10.8144
▁ఎదురుగా	-10.8145
▁నీతి	-10.8151
▁అత్యవసర	-10.8152
▁నాల్గవ	-10.8152
ాధి	-10.8152
ుకొన్నాడు	-10.8153
▁మూలకాల	-10.8153
▁గరి	-10.8154
నీరు	-10.8155
▁73	-10.8157
▁యుక్త	-10.8158
▁తీసుకున్నారు	-10.8159
▁1945	-10.816
man	-10.8163
▁అక్రమ	-10.8166
▁మునిగి	-10.8166
కారము	-10.8167
▁ఉత్పత్తులు	-10.8168
▁సగ	-10.8168
▁పరిమాణంలో	-10.8169
▁కరిగి	-10.8169
▁విముక్తి	-10.8171
ld	-10.8171
▁శుక్ర	-10.8173
▁డాలర్ల	-10.8174
▁పరిష్కరించ	-10.8174
నందున	-10.8175
బార్	-10.8177
▁నగరాలు	-10.8177
▁కాథలిక్	-10.8178
▁మాతృ	-10.8183
▁నగరము	-10.8184
▁శైలిలో	-10.8184
ram	-10.8185
▁చారిత్రాత్మక	-10.8186
▁బాధపడ	-10.8187
▁1987	-10.8187
▁విమానాల	-10.8189
▁గంగరాజు	-10.8192
▁అప్పు	-10.8193
▁సతీ	-10.8193
▁జాతర	-10.8193
▁మోహన్	-10.8199
బ్లి	-10.82
▁హర్	-10.8201
tain	-10.8202
▁శరణ	-10.8202
▁మెక్	-10.8211
▁చర్మం	-10.8211
▁మైళ్ళ	-10.8211
ాబాదు	-10.8212
▁టిబెట్	-10.8215
▁కేంద్రము	-10.8218
సాగర్	-10.8218
▁గేయ	-10.8221
▁టెలి	-10.8222
▁ప్రదేశాలు	-10.8224
▁ధ్వని	-10.8227
▁రాజ్యాల	-10.8229
ఉపయోగిస్తున్నారు	-10.823
▁పరిపాలనా	-10.823
▁120	-10.8231
ురాలిగా	-10.8232
▁కళ్ళ	-10.8233
హార్	-10.8236
భై	-10.8238
▁ల్యా	-10.8238
▁ఎన్నికలు	-10.8239
▁జన్మించింది	-10.8241
▁భోజనం	-10.8242
▁గట్టిగా	-10.8246
▁1982	-10.8247
▁ఎవర	-10.8247
▁కళల	-10.8248
శో	-10.8253
▁లైట్	-10.8254
gen	-10.8254
▁అంశాలను	-10.8259
▁కణాల	-10.8263
rea	-10.8267
మునందు	-10.8267
రూపంలో	-10.8269
భాగ్య	-10.8271
▁కాశ్మీర్	-10.8273
ఘోష	-10.8273
▁సంక్షోభ	-10.8274
▁దళం	-10.8278
▁పయన	-10.8284
▁రేవు	-10.8286
▁పడమర	-10.8286
▁కొలత	-10.8287
▁నీళ్ళ	-10.8289
▁ఇష్టపడ	-10.8291
పెద్ద	-10.8292
సమయంలో	-10.8295
కుడిగా	-10.8296
old	-10.8296
కూర	-10.8296
ice	-10.8299
▁ఉద్భవించ	-10.8301
జియా	-10.8301
▁ఆరవ	-10.8302
▁పంచాయతీకి	-10.8303
▁అధ్యక్షుడిగా	-10.8303
▁న్యాయవాది	-10.8305
మిడి	-10.8306
▁దర్శనం	-10.8307
▁తగినంత	-10.8308
▁పోటీలలో	-10.831
▁1969	-10.831
▁కన్ను	-10.8312
▁పులుల	-10.8313
▁బోధన్	-10.8314
▁దగ్గరలో	-10.8317
▁పడే	-10.8317
▁పునరుద్ధరించ	-10.8318
▁పిలుపు	-10.8319
▁ఆయిల్	-10.8325
▁ప్రకటించాడు	-10.8326
చేశాడు	-10.8326
▁పాఠ్య	-10.8328
ుందని	-10.8329
త్రో	-10.833
బట్టి	-10.8333
▁ఋ	-10.8336
కర్మ	-10.8337
▁భార	-10.834
▁కూలి	-10.8345
లూరి	-10.8346
▁రాష్ట్రానికి	-10.8347
▁తీరం	-10.8349
▁He	-10.8357
▁ఆలయాన్ని	-10.8358
▁దీర్ఘకాల	-10.836
▁రవీంద్ర	-10.8362
▁మత్స్య	-10.8362
▁డేవిడ్	-10.8362
▁2018	-10.8363
▁దృష్టిలో	-10.8364
▁తాక	-10.8366
▁వాద్య	-10.8367
▁రికార్డ్	-10.8369
▁మేరీ	-10.837
▁వర్ణన	-10.8372
▁pre	-10.8372
ద్రా	-10.8377
▁సర్ప	-10.838
దీప	-10.8381
▁వాతావరణంలో	-10.8381
▁పూస	-10.8385
▁విగ్రహాలు	-10.8392
▁శిల	-10.8392
రియం	-10.8399
▁పెంపకం	-10.8406
▁రకరకాల	-10.8407
మూర్తుల	-10.8408
nu	-10.8408
▁ఏర్పాట	-10.841
▁పిలిచేవారు	-10.841
▁మధు	-10.8415
han	-10.8416
▁కాకతీయ	-10.8418
▁గుర్రాల	-10.842
▁విజయవాడలో	-10.8422
▁కొండల	-10.8424
▁రాబర్ట్	-10.8425
land	-10.8429
▁ఆవిష్కరణ	-10.8433
▁తవ్వ	-10.8435
▁వచన	-10.8438
▁గర్	-10.844
గిలి	-10.844
▁అప్పుడే	-10.8442
దేవుని	-10.8442
▁అంతస్తు	-10.8442
▁మహారాజా	-10.8445
▁టూ	-10.8446
యానా	-10.8449
▁దుస్తుల	-10.8449
▁రీసెర్చ్	-10.8451
▁used	-10.8452
▁తెలుసుకో	-10.8452
▁ఆధిక్యత	-10.8456
▁దుస్తులు	-10.8458
▁చెడు	-10.8463
లాగే	-10.8471
▁శ్రీకాకుళంలో	-10.8475
▁రాశాడు	-10.8475
▁స్థిరమైన	-10.8476
▁ఎత్తి	-10.8476
▁రాజ్యంలో	-10.8477
▁cs	-10.8478
ai	-10.8482
▁250	-10.8482
ఎల్	-10.8485
▁జాగ్రత్త	-10.8485
▁అధిపతి	-10.8489
▁వ్యాఖ్యాన	-10.8492
▁మారిన	-10.8493
▁గుట్ట	-10.8494
▁అయ్యారు	-10.8496
▁కాయగూరలు	-10.8496
▁ఇవ్వబడింది	-10.8499
▁చిత్రీకరణ	-10.85
▁విప్లవం	-10.8501
▁ఎలక్ట్రానిక్	-10.8505
▁ఆరోపణల	-10.8506
▁పెట్టె	-10.8506
▁ఆత్మకూరు	-10.8508
▁సాయుధ	-10.8509
శేఖర	-10.8513
▁విక్టోరియా	-10.8514
▁శీర్షిక	-10.8514
▁పద్యం	-10.8517
▁తమ్ముడు	-10.8522
కొండలో	-10.8522
▁నిరంతరం	-10.8522
dy	-10.8531
▁ముగించ	-10.8531
▁చేర్చి	-10.8537
▁డ్రై	-10.8537
▁పరీక్షించ	-10.8541
▁అక్షరాల	-10.8542
▁కార్యక్రమాలను	-10.8543
▁సమాంతర	-10.8545
▁వ్యాపించ	-10.8545
▁ఇంకొక	-10.8548
▁1957	-10.8548
▁తేమ	-10.8552
▁ఖమ్మంలో	-10.8553
▁సంగీతంలో	-10.8557
▁కరీంనగర్లో	-10.8562
▁శ్రీకృష్ణుడు	-10.8564
india	-10.8565
▁కనుగొన్న	-10.8567
▁క్షీణించ	-10.8571
రోజుల	-10.8577
▁ఇన్స్టిట్యూట్	-10.8577
బొమ్మ	-10.8581
▁సమస్యలను	-10.8583
ంగళ	-10.8586
బ్యూ	-10.859
row	-10.8592
▁చెప్పడం	-10.8595
▁విజేత	-10.8596
▁నిరోధక	-10.8596
జన్మ	-10.8597
న్నర	-10.8598
▁నిన్ను	-10.8599
▁సదుపాయాల	-10.8601
▁యమ	-10.8601
▁ఉంద	-10.8606
▁బంతి	-10.8608
▁చేయబడి	-10.8611
▁నిపుణులు	-10.8611
▁సాంకేతికత	-10.8612
▁ఉద్యోగుల	-10.8614
▁విలియం	-10.8614
వనం	-10.8618
▁దళాలు	-10.8622
▁ఒకవేళ	-10.8623
▁తగ	-10.8628
▁యేసు	-10.8633
▁కాకినాడలో	-10.8633
మార్గం	-10.8635
▁ఆరంభించ	-10.8638
▁గేమ్	-10.8642
భిక్ష	-10.8644
గ్గి	-10.8644
రీత్యా	-10.8645
ుకుంటాయి	-10.8645
స్టె	-10.8647
▁అయిదు	-10.8649
▁మార్గదర్శక	-10.865
▁డీఏ	-10.8653
▁భీముడు	-10.8656
▁ద్వారక	-10.866
▁were	-10.8661
▁తెలియదు	-10.8663
ాంశాల	-10.8668
▁తీవ్రత	-10.8669
▁ద్రవ్యరాశి	-10.8669
▁నిర్వహించెదరు	-10.8671
▁చిహ్నాల	-10.8672
▁నిధులు	-10.8673
▁నిరోధ	-10.8678
▁వయస్సులో	-10.8678
▁అడుగుపెట్ట	-10.8682
▁కలుగుతుంది	-10.8682
au	-10.8682
▁రంగాలలో	-10.8683
▁కాలిఫోర్నియా	-10.8687
రాజా	-10.869
▁చెయ్యడం	-10.8692
కెన్	-10.8695
▁దిగుమతి	-10.8696
▁ఇవన్నీ	-10.8696
▁సాగర్	-10.8697
▁ఖురాన్	-10.8705
▁ద్వీపాల	-10.8707
▁ప్రత్య	-10.871
▁వెంకటగిరి	-10.8711
▁బిలియన్ల	-10.8711
క్రో	-10.8714
▁కాళ్ళ	-10.8714
▁వ్రాత	-10.8714
▁ఆహ్వాన	-10.8714
▁ద్వ	-10.8715
▁తల్లిదండ్రుల	-10.8716
వారని	-10.8718
ుడని	-10.8722
ావధాన	-10.8722
▁వదల	-10.8725
విధానం	-10.8727
ప్రదేశ	-10.8729
▁పెరి	-10.8732
▁ఘర్షణ	-10.8733
▁మూత్ర	-10.8734
ోద్	-10.8735
▁జీవి	-10.8736
▁Al	-10.874
▁ఐదవ	-10.8742
▁సైన్యాన్ని	-10.8747
▁శాంత	-10.875
▁వాషింగ్టన్	-10.8751
▁అగ్రహారం	-10.8752
▁క్రైస్తవులు	-10.8752
▁కనుగొన్నారు	-10.8754
పితామహ	-10.8756
మరణ	-10.8758
▁గొంతు	-10.8761
ome	-10.8763
▁విడిచిపెట్ట	-10.8764
▁సంకల్ప	-10.8766
▁1954	-10.8769
▁బిలియన్	-10.8769
▁క్లోరైడ్	-10.877
▁సంగమ	-10.8771
జిత్	-10.8771
▁ఏర్పడును	-10.8773
▁కోల్పో	-10.8779
▁వెల్డింగు	-10.8779
▁పదార్థ	-10.8779
▁పక్షి	-10.8779
▁పెట్టింది	-10.8781
▁కార్తీక	-10.8782
▁సీఆర్	-10.8783
▁ఆవరణ	-10.8786
▁విడిగా	-10.8787
▁వెలువరించ	-10.8788
ప్రభుత్వ	-10.8789
▁నిలబెట్ట	-10.8789
ian	-10.8791
▁రూపాల	-10.8795
▁ప్రయోజనం	-10.8796
▁కచ్చితమైన	-10.8797
-6	-10.8799
▁నామం	-10.8803
రచన	-10.8804
▁మ్యూజిక్	-10.8807
▁నడిపించ	-10.8811
కర్ణ	-10.8816
▁part	-10.8819
▁సినిమాలకు	-10.8821
▁లక్షణం	-10.8824
▁యాంత్రిక	-10.8825
▁అందించింది	-10.8825
▁1986	-10.8826
▁సహాయపడ	-10.8828
బట్ట	-10.8829
wa	-10.883
▁కార్యకలాపాలు	-10.8833
▁ధ్యానం	-10.8833
▁మండలాల	-10.8834
▁వస్త్రాల	-10.8834
▁క్రియాశీల	-10.8834
▁సత్యాగ్రహ	-10.8834
▁తుఫాను	-10.8834
bu	-10.8835
▁ఘనంగా	-10.8835
▁రోజులలో	-10.8836
పడుతున్న	-10.8838
▁ప్రై	-10.8842
▁వసూలు	-10.8844
▁కొట్టి	-10.8848
▁ఇనుము	-10.8849
▁కలుపు	-10.885
▁ఆఫ్ఘనిస్తాన్	-10.8853
▁కోటి	-10.8856
మండలి	-10.8859
▁1966	-10.8863
▁UK	-10.8863
▁నిర్మించబడిన	-10.8868
▁మారే	-10.8869
▁ఫార్మ	-10.887
▁ఉపరితలం	-10.8872
ుకోవటానికి	-10.8874
▁రెట్లు	-10.8874
వెళ్ళ	-10.8874
▁వశ	-10.8874
▁కులం	-10.888
▁ఆలయాలు	-10.8881
▁రాసి	-10.8884
▁వ్యాధులు	-10.8884
▁కాలములో	-10.8885
▁మార్చారు	-10.8885
▁స్వభావ	-10.8885
▁నెదర్లాండ్స్	-10.8888
▁డౌన్	-10.889
▁నడిచే	-10.8894
▁స్నానం	-10.8896
▁డాలర్లు	-10.8896
▁ఇస్తారు	-10.8898
▁పొలాల	-10.8898
▁అట్లాంటిక్	-10.89
▁రచయితల	-10.8901
▁It	-10.8901
▁నైపుణ్యం	-10.8903
▁శత్రు	-10.8905
▁సామ్రాజ్యంలో	-10.8909
▁స్తోత్ర	-10.8909
▁స్వేచ్ఛా	-10.891
చై	-10.891
స్తుంద	-10.8917
▁గణనీయంగా	-10.8918
▁కాలేజి	-10.8919
▁ఆపరేషన్	-10.8919
▁తాళ్ళ	-10.8925
▁పండితుల	-10.8926
▁హైడ్రో	-10.8927
4)	-10.8928
▁వైట్	-10.893
▁అవతరించ	-10.893
▁విస్తారమైన	-10.8931
▁ఆకారంలో	-10.8932
▁వేంకటేశ్వర	-10.8932
▁వెచ్చ	-10.8933
త్రీ	-10.8933
▁కావు	-10.8934
▁జీవులు	-10.8937
▁పంద	-10.8937
▁స్వాతి	-10.8937
▁మచిలీపట్నం	-10.8937
▁పెద్దది	-10.894
▁తెలియని	-10.894
▁అనువర్తన	-10.8941
BS	-10.8942
▁యుద్ధము	-10.8943
▁సాంప్రదాయిక	-10.895
▁పర్వతాల	-10.8952
▁ఫలితం	-10.8955
▁ఆహ్వానించ	-10.8956
▁చక్రం	-10.8956
మిత్ర	-10.8958
బడలేదు	-10.896
▁పరమేశ్వర	-10.896
పాట	-10.8963
▁నెమ్మదిగా	-10.8965
▁వున్నది	-10.8968
aw	-10.8975
▁సింగిల్	-10.8976
▁ఆగ్రహ	-10.8976
▁సంగారెడ్డిలోను	-10.8976
పాలి	-10.8978
▁చనిపోయిన	-10.898
▁మహాసముద్రం	-10.8981
▁రావట్లేదు	-10.8984
▁దార	-10.8991
▁క్యాలెండర్	-10.8994
▁Ra	-10.9001
▁1953	-10.9002
▁person	-10.9003
▁ఆవిర్భవించ	-10.9003
line	-10.9006
▁524	-10.9007
ప్రధాన	-10.9007
▁మాంసం	-10.9008
▁పోలాండ్	-10.901
▁అతడిని	-10.9011
▁అంతగా	-10.9014
ావతార	-10.9017
▁స్ట్రీట్	-10.9022
▁చుక్క	-10.9023
▁కోడ	-10.9024
▁పోలీసులు	-10.9026
▁పడింది	-10.9028
▁గిల్	-10.9031
▁శతాబ్దము	-10.9033
▁పట్టణానికి	-10.9038
ెడి	-10.9039
▁పతనం	-10.9039
▁అసంతృప్త	-10.9041
▁పోరు	-10.9043
▁మారుతుంది	-10.9045
▁దక్ష	-10.9045
▁ప్రదేశము	-10.9047
▁రావి	-10.9052
right	-10.9057
▁నిర్మిత	-10.9059
▁తేనె	-10.906
▁ఆకృతి	-10.9063
పోతు	-10.9077
-10	-10.9078
▁వివాదాస్పద	-10.9079
ుఁడు	-10.908
▁ముక్కలు	-10.9081
మయ్యింది	-10.9082
▁అంతరించి	-10.9085
▁సెక్	-10.9085
▁నిర్మాణాలు	-10.9087
▁ఉస్మానియా	-10.9089
▁నౌకాశ్రయ	-10.9089
సాగర	-10.9089
▁పనిచేసారు	-10.9091
▁స్తంభాల	-10.9092
▁ఇతరులు	-10.9095
▁తాడేపల్లి	-10.9098
▁విస్తారంగా	-10.9099
▁కఠిన	-10.9103
▁బ్రె	-10.9106
▁రకాలుగా	-10.9107
▁నియంత్ర	-10.9112
▁జరప	-10.9114
▁చీకటి	-10.9117
▁వోల్	-10.9119
▁మతాల	-10.912
▁విశ్వవిద్యాలయాల	-10.9134
▁1973	-10.9134
▁అలవాటు	-10.9136
▁తెలుస్తోంది	-10.9136
▁బలవంత	-10.9137
▁ఉపగ్రహం	-10.9137
షె	-10.9138
▁జాతికి	-10.9139
▁ప్రచురిత	-10.9139
▁తడి	-10.9144
▁ప్రముఖులు	-10.9144
▁గనుల	-10.9146
▁ఇటాలియన్	-10.9146
▁పంజాబీ	-10.9146
▁ఇంజన్	-10.9149
దారి	-10.9154
▁టెర్	-10.9154
▁వాళ్ల	-10.9156
ప్రాంతాల	-10.9156
థీ	-10.9156
▁అక్షాంశ	-10.9157
▁అరెస్టు	-10.9162
▁ఒడి	-10.9163
▁అనుభవం	-10.9163
▁అయస్కాంత	-10.9165
▁1942	-10.9166
▁తరం	-10.9171
▁నాయ	-10.9171
▁ప్రశంస	-10.9173
▁సహచర	-10.9175
▁రోజూ	-10.9177
▁జోడించ	-10.918
▁చెందాయి	-10.918
▁డాన్	-10.9184
▁పెట్టుబడుల	-10.9184
▁తొలగించి	-10.9185
▁1981	-10.9185
▁హాంగ్	-10.9196
▁వాస్తవానికి	-10.9196
ide	-10.9196
▁ఘనత	-10.9198
▁గోత్ర	-10.9206
▁గుంపు	-10.9206
▁పురస్కారాలు	-10.9209
శర్మ	-10.9211
▁కావాలని	-10.9213
▁వ్రాశాడు	-10.9213
▁ఓటు	-10.9217
▁రూపొందించారు	-10.9218
▁ల్యాండ్	-10.9219
▁1949	-10.9222
▁మోడల్	-10.9223
▁వాయువ్య	-10.9226
▁దానం	-10.9231
▁అందుకున్నాడు	-10.9233
▁వహిస్తుంది	-10.9234
▁ఉండవు	-10.9238
rd	-10.9239
▁తోడ్పడ	-10.9243
గావ్	-10.9243
▁దీవి	-10.9246
pur	-10.9249
▁బోయ	-10.925
▁1951	-10.9251
▁నరసరావుపేట	-10.9252
ric	-10.9254
▁నియోజకవర్గాల	-10.9254
▁ఆలోచించ	-10.9256
6)	-10.9259
▁కాకతీయుల	-10.9261
▁క్యూబా	-10.9261
▁అన్నింటి	-10.9265
▁మిషన్	-10.9266
▁సంక్షిప్త	-10.9272
▁పరీక్షలు	-10.9272
▁ఉదాహరణకి	-10.9277
▁అందుకున్న	-10.9279
ుణ్ణి	-10.9281
▁ఖాతా	-10.9281
▁బెంగళూరు	-10.9281
▁సురక్షిత	-10.9281
▁వత్తిడి	-10.9281
▁వారే	-10.9283
▁బంధించ	-10.9284
▁బొమ్మలు	-10.9284
▁వసు	-10.9286
▁పిలవబడే	-10.9292
▁gov	-10.9294
సంగ	-10.9296
▁పద్ధతులను	-10.9299
▁పూత	-10.9306
సేపు	-10.9307
ధేయ	-10.9309
▁అభ్యాస	-10.9311
▁సమ్మేళనం	-10.9311
▁వాస్తు	-10.9312
▁వికెట్	-10.9312
▁రాజస్థాన్	-10.9313
▁కృత్రిమ	-10.932
▁వేరొక	-10.932
▁నీళ్ల	-10.9321
శతాబ్ద	-10.9323
నియం	-10.9323
▁ఎద్దు	-10.9323
▁కాస్త	-10.9325
▁మూలాలు	-10.9331
▁పర్యవేక్ష	-10.9331
▁సంకలనం	-10.9332
హైడ్ర	-10.9335
ింపబడింది	-10.9336
▁ప్రతిష్ఠించ	-10.9337
▁కలిగివున్న	-10.9338
▁మునుపటి	-10.934
▁స్వీడన్	-10.934
ట్లయితే	-10.934
▁లక్షణాలను	-10.9341
▁పర్వతం	-10.9347
▁స్టే	-10.9351
▁స్థాపించబడిన	-10.9353
▁నియమిత	-10.9354
▁అబ్దుల్	-10.9356
▁అంతటి	-10.9356
మీటర్	-10.9357
ron	-10.9358
▁ప్రయోగం	-10.9359
▁గరిష్ఠ	-10.936
▁పద్యాలు	-10.9362
ధుల	-10.9365
కైనా	-10.9365
సరు	-10.9366
▁కేశవ	-10.9367
టింగు	-10.9372
గుర్తించబడుతుంది	-10.9372
పాలక	-10.9374
ough	-10.9379
▁ఇబ్బంది	-10.9379
మెయిల్	-10.9387
▁బెల్లంపల్లిలో	-10.9388
▁పర్యాయ	-10.9389
▁ఆక్సైడ్	-10.9389
▁బయో	-10.9389
▁వైవిధ్య	-10.9391
▁వ్యాకరణ	-10.9391
▁సమగ్ర	-10.9394
▁వ్రాశారు	-10.9399
▁నిర్వహిస్త	-10.9403
▁సముద్రపు	-10.9404
▁భ్రమ	-10.9405
▁పరిశోధనల	-10.9405
▁నారాయణపేట	-10.9406
▁విస్తర	-10.9407
▁ఐతే	-10.9414
▁నిఘంటువు	-10.9418
▁కార్యదర్శిగా	-10.9419
ja	-10.942
▁ఇంగ్లాండు	-10.9428
census	-10.9428
రెట్	-10.9431
8)	-10.9432
▁కాఫీ	-10.9436
గలుగుత	-10.9438
ట్టె	-10.9439
▁వీని	-10.9439
7)	-10.9439
▁చేసుకోవడం	-10.9442
ిద్దరూ	-10.9444
▁నిర్వచ	-10.9445
▁హెడ్	-10.9445
▁ఘట	-10.9446
▁కమ్యూనిటీ	-10.9448
▁నేపాల్	-10.9448
ాడట	-10.9451
శాసన	-10.9452
ంటున్న	-10.9454
▁ఏర్పడే	-10.9455
ుకోవాలని	-10.9458
ie	-10.9463
▁బొమ్మల	-10.9464
ప్రాంతంలో	-10.9465
▁కొలంబియా	-10.9468
▁పర్యవేక్షణ	-10.9476
క్కడ	-10.9477
▁లిమిటెడ్	-10.9478
బాహు	-10.9478
▁సంభవించిన	-10.9482
సొ	-10.9484
వరణ	-10.9486
ారాధన	-10.9489
▁సభ్యునిగా	-10.949
5)	-10.9494
పీడన	-10.9496
▁ఊరేగింపు	-10.9498
▁గౌరవించ	-10.9499
,00,000	-10.9499
▁డిజైన్	-10.9507
హస్త	-10.951
sc	-10.9511
గుడి	-10.9514
▁జీడి	-10.9515
▁పనితీరు	-10.9517
▁మరణశిక్ష	-10.9518
సంవత్సర	-10.9518
▁అనువాదం	-10.9523
▁దీనినే	-10.9524
▁aspx	-10.9527
▁హక్కులు	-10.953
▁సమయములో	-10.9532
▁రాజవంశం	-10.9532
▁తీవ్రవాద	-10.9533
▁అనుగ్రహ	-10.9534
▁సమావేశం	-10.9537
▁చైనీయుల	-10.9537
అద్దంకి	-10.9537
▁1961	-10.9539
▁కరుణ	-10.9542
▁టవర్	-10.9543
▁ఫ్రా	-10.9544
సాగాడు	-10.9545
tri	-10.9546
▁విరివిగా	-10.9547
వాళ్లు	-10.955
▁చేరాయి	-10.9553
▁హార్డ్	-10.9554
శాయి	-10.9554
▁తగిలి	-10.9557
▁విశ్వామిత్ర	-10.9557
▁లక్నో	-10.9557
▁up	-10.9558
మెత్త	-10.9563
▁కట్టడాల	-10.9563
▁may	-10.9565
▁మానవులు	-10.9566
▁జ్ఞానం	-10.9572
▁చూచి	-10.9572
▁చర్చించ	-10.9572
▁ఇటు	-10.9573
▁దొరక	-10.9574
▁బేరియం	-10.9578
చెప్ప	-10.9579
యినా	-10.9587
▁అదుపు	-10.9588
▁వెల్లడించ	-10.9589
me	-10.9592
▁నామకరణం	-10.9597
▁పంతులు	-10.9598
▁హ్యూ	-10.96
▁బల్ల	-10.96
▁చరిత్రకారులు	-10.9602
9)	-10.9603
▁బలంగా	-10.9604
▁అక్కినేని	-10.9608
▁విమర్శించ	-10.961
▁ఇందిరా	-10.9619
▁ఉపయోగపడుతుంది	-10.9622
▁trans	-10.9627
▁నూజివీడు	-10.9627
▁స్పందన	-10.9627
▁కండ	-10.9628
▁సత్కరించ	-10.9629
▁ఉన్నందున	-10.9636
▁శుక్ల	-10.9638
▁న్యూస్	-10.9638
▁వార్తా	-10.9641
▁భాగాలుగా	-10.9645
▁పలికి	-10.9647
▁ఫలితాలు	-10.9648
▁నిర్దేశ	-10.9657
▁వార్తల	-10.9657
▁త్రిపుర	-10.9658
▁సంచిక	-10.9658
▁మహాభారతం	-10.9659
▁కాపర్	-10.9659
▁వ్యాప	-10.9662
▁గానం	-10.9662
▁సమూహాలు	-10.9665
▁అవధాన	-10.9667
pu	-10.9675
▁స్వచ్ఛంద	-10.9678
▁నుంచీ	-10.9678
▁పత్తి	-10.9678
ాపన	-10.9679
▁చిత్రాల్లో	-10.968
▁ముగ్గు	-10.968
▁నాలుగవ	-10.968
కాదు	-10.9682
▁టీవీ	-10.9686
▁తుది	-10.9686
▁రామానుజ	-10.9688
▁పొందే	-10.969
▁హిమాలయ	-10.9691
▁హోల్	-10.9692
▁వుంచ	-10.9694
స్తుండగా	-10.9696
బోయే	-10.9705
▁ఆర్థికంగా	-10.9707
▁పప్పు	-10.9708
టిక్స్	-10.9709
భాషా	-10.9713
▁వైపున	-10.9713
▁మైసూర్	-10.9718
▁ఖైదు	-10.9719
కుటుంబ	-10.9722
▁మౌర్య	-10.9722
▁ఆకలి	-10.9722
▁తొక్క	-10.9725
▁పోల్చ	-10.9725
▁తొలుత	-10.9729
▁చెల్లింపు	-10.973
▁అత్య	-10.973
▁విమానం	-10.973
▁మురుగు	-10.9731
▁యంత్రాల	-10.9733
▁పెట్టాడు	-10.9733
▁శ్రీశైల	-10.9739
▁పాడిన	-10.9741
ిస్తాను	-10.9746
దిశ	-10.9753
▁ఉక్కు	-10.9754
▁సూత్రం	-10.9755
ిచారు	-10.9756
▁యూరో	-10.9759
▁ఖలీఫా	-10.9759
▁హనుమంతుడు	-10.9759
▁చలికాలం	-10.9759
▁మార్గాన్ని	-10.9766
▁బుద్ధుని	-10.9767
▁రెండ	-10.9768
మాంబ	-10.9772
▁కాలంలోనే	-10.9774
▁బ్రాహ్మణుల	-10.9774
ాహార	-10.9776
▁ప్రేమించ	-10.9788
▁వ్రాసి	-10.9789
▁ముంద	-10.9791
▁జబ్బు	-10.9792
▁పాలకులు	-10.9795
▁వంటకాల	-10.9797
▁మొదటగా	-10.9799
కొట్ట	-10.9799
▁అవినీతి	-10.98
▁పెద్దాపురం	-10.9802
▁గర్వ	-10.9809
▁జనగామ	-10.9811
▁లక్ష్యంగా	-10.9811
▁చెందినవారు	-10.9811
▁సజ్జ	-10.9811
చరణ	-10.9813
ాపక	-10.9814
▁నడప	-10.982
▁చొప్పున	-10.9821
▁మోతాదు	-10.9821
మౌత	-10.9822
ంటున్నారు	-10.9824
▁2019	-10.9825
▁ఎప్పుడు	-10.9825
రీతి	-10.9826
ఘర్	-10.9828
▁కలవాడు	-10.9829
▁బ్రాండ్	-10.9831
▁వీసా	-10.9833
▁మంచిది	-10.9835
▁గాత్ర	-10.9835
▁పాల్గొన్నాడు	-10.9836
▁దేశాన్ని	-10.9839
▁1959	-10.984
Population	-10.9841
▁శ్రామిక	-10.9841
▁కావ్యం	-10.9845
▁మహల్	-10.9848
ఘాత	-10.9848
▁జీవనం	-10.9849
▁విగ్రహాల	-10.985
▁హిప్	-10.9851
▁టాక్సీ	-10.9851
Districts	-10.9854
▁విగ్రహాన్ని	-10.9857
▁వుంది	-10.986
ఁడు	-10.9861
med	-10.9861
▁know	-10.9862
▁కీర్తనల	-10.9862
▁సదాశివ	-10.9862
▁సంజీవ	-10.9863
కాలనీ	-10.9864
▁వుడ్	-10.9864
▁ప్రసాదించ	-10.9865
▁ఆక్సిజన్	-10.9872
▁శతాబ్ధ	-10.9872
▁వివరాల	-10.9876
▁నిర్వహించి	-10.9876
▁అనుసంధానించ	-10.9881
యుగ	-10.9882
Master	-10.9882
▁చలనచిత్రం	-10.9884
▁మంగళగిరి	-10.9885
cul	-10.9885
▁రూపము	-10.9887
▁శరీరము	-10.9891
▁ట్రాక్	-10.9893
▁వేగంతో	-10.9894
రక్షణ	-10.9894
AT	-10.9894
ుకున్నాయి	-10.9896
మంతటా	-10.9899
కాలపు	-10.99
▁పన్నెండు	-10.9903
▁మహమ్మద్	-10.9903
▁వస్తే	-10.9905
కాలిక	-10.9905
▁స్తుత	-10.9907
మెంట	-10.9908
▁సాధ్యం	-10.9912
les	-10.9917
▁రెండవది	-10.9918
▁జంతువు	-10.992
,500	-10.9922
port	-10.9924
ఉండ	-10.993
▁పులులు	-10.9931
▁ముద్దు	-10.9933
శ్రుత	-10.9943
▁శాప	-10.9948
కుమార్	-10.9949
▁ఆశ్రయ	-10.995
▁సమావేశంలో	-10.9953
▁ఫౌండేషన్	-10.9955
▁సంక్లిష్ట	-10.9955
▁1976	-10.9956
ook	-10.9959
king	-10.9962
▁నార్త్	-10.9962
clusion	-10.9965
▁కెరీర్	-10.9965
▁మాత్ర	-10.9967
▁ఉరి	-10.9969
▁భారతదేశపు	-10.9971
▁భూములు	-10.9971
పోర్ట్	-10.9983
▁రూపొందించబడింది	-10.9989
ness	-10.9991
మర్రి	-10.9991
దుర్గ	-10.9992
పరిచారు	-10.9996
▁ఆకుపచ్చ	-10.9997
▁శ్వేత	-10.9997
▁అరుదైన	-10.9997
▁ఇంధనం	-10.9998
▁దీన	-11
గలరు	-11.0001
ఫోన్	-11.0003
చెయ్య	-11.0004
way	-11.0008
▁సిరియస్	-11.0008
▁its	-11.0017
▁ఫిన్లాండ్	-11.0017
▁అవ్వ	-11.0018
▁తైవాన్	-11.0018
ory	-11.0019
▁దృశ్యం	-11.0024
▁బండి	-11.0025
▁డ్రైనేజీ	-11.0028
▁చార్లెస్	-11.0029
▁పక్షులు	-11.003
▁ఇస్తా	-11.0031
▁ఆరాధన	-11.0038
▁అంతరకృషి	-11.0039
▁రాజాం	-11.0039
▁చంద్రగుప్త	-11.0039
▁గ్యా	-11.004
▁ముత్త	-11.0041
▁నిర్ధారణ	-11.0041
ుండగా	-11.0042
▁యువకుల	-11.0046
▁but	-11.0052
▁వివాదం	-11.0054
భంగ	-11.0055
▁సమాధానం	-11.0057
▁గుర్తించబడింది	-11.0058
▁రాజవంశ	-11.0059
Find	-11.0063
▁దేశవ్యాప్తంగా	-11.007
వాదులు	-11.007
▁హైడ్రోజన్	-11.0071
▁వర్గాలు	-11.0077
▁కార్మికుల	-11.008
▁విధానము	-11.0081
▁జారీచేసింది	-11.0081
న్యూ	-11.0083
▁బోర్డ్	-11.0089
▁చదివాడు	-11.0091
▁ప్రతికూల	-11.0091
▁పాలించిన	-11.0093
=28	-11.0094
వతేదీ	-11.0094
▁బాలబడులు	-11.0102
▁అభిషేక	-11.0102
▁పరిరక్షణ	-11.0103
▁బ్రో	-11.0108
▁పావు	-11.0109
▁మరొకటి	-11.011
▁గోడల	-11.0113
▁జాగ	-11.0113
▁మంజూరు	-11.0115
▁సందర్భాల్లో	-11.0117
మంచి	-11.0117
చెట్టు	-11.0118
మేనేజ్మెంట్	-11.0123
▁మిగిలినవి	-11.0124
న్యాస	-11.0125
▁శిశువు	-11.0128
▁లయ	-11.013
పోతాడు	-11.0133
▁సివిల్	-11.0134
▁దశకంలో	-11.0134
▁ఫీల్డ్	-11.0135
▁బంధువుల	-11.0137
మోహన్	-11.0139
▁సారిగా	-11.014
▁వారాల	-11.014
టైల్	-11.014
మంత్రి	-11.0141
▁As	-11.0143
▁భగవంతుని	-11.0144
▁అధికరించ	-11.0144
▁కుట్ర	-11.0146
▁సవరణ	-11.015
▁గుడ్డ	-11.0151
▁ఘోర	-11.0155
ించువాడు	-11.0156
▁కీలకమైన	-11.0158
▁భారం	-11.0164
▁సంవత్సరాల్లో	-11.0164
ual	-11.0166
▁వ్యాఖ్య	-11.0167
▁ముక్కు	-11.0173
▁స్టీము	-11.0175
▁విశ్రాంతి	-11.0176
▁వెనక	-11.0178
▁దహన	-11.0179
ef	-11.0179
ations	-11.0179
్యమైన	-11.0182
▁నన్నయ	-11.0185
మల్ల	-11.0186
గంట	-11.0186
▁గొర్రె	-11.0186
▁వివరించారు	-11.0187
▁దాస్	-11.0195
ాభిమాన	-11.0197
▁ఇంకో	-11.0198
సూత్ర	-11.0199
బస్తీ	-11.0199
యుగం	-11.02
జులై	-11.0203
శైలి	-11.0207
▁రాజేంద్ర	-11.0207
hu	-11.0209
▁చదువుకున్న	-11.0209
▁ఫైల్	-11.0215
▁నాలుగ	-11.0218
▁పర్యటించ	-11.0218
▁డిమాండ్	-11.0218
▁క్రమం	-11.0223
ex	-11.0223
▁లొంగ	-11.0228
▁నిలబడి	-11.0228
▁ఏదేమైనా	-11.0229
▁పౌరాణిక	-11.0229
▁వెర్	-11.0229
▁కమలా	-11.0232
▁సింగపూర్	-11.0235
ర్చు	-11.0236
▁కక్ష్యలో	-11.0241
▁అంతర్జాతీయంగా	-11.0241
టూరి	-11.0246
పోవడంతో	-11.0246
▁వేటాడ	-11.0247
▁భద్రతా	-11.0249
▁చౌదరి	-11.0251
▁పత్రికా	-11.0251
▁రీతిలో	-11.0252
▁కదల	-11.0252
cc	-11.0253
▁కార్తె	-11.0258
▁ఉంటా	-11.026
▁డివిజను	-11.0261
▁వీలుగా	-11.0262
▁సంపర్క	-11.0263
▁4%	-11.0269
▁ఎన్టీఆర్	-11.0272
పడే	-11.028
▁ఏడవ	-11.0281
▁పచ్చి	-11.0282
▁నర్సీపట్నం	-11.0283
▁చూస్త	-11.0283
▁యున్న	-11.0284
▁మచ్చ	-11.0285
కుప్పం	-11.0286
స్థులు	-11.0294
▁రాష్ట్రాల్లో	-11.0297
▁ఆదేశించ	-11.0299
▁అనుబంధం	-11.0299
▁గ్రాములు	-11.03
జూన్	-11.0301
▁కోడి	-11.0301
▁అమరిక	-11.0302
▁పోర్చుగల్	-11.0304
▁కావాలి	-11.0306
▁ప్రతాప	-11.0311
▁నెట్వర్క్	-11.0315
▁పంచాంగం	-11.0315
▁బృహ	-11.0315
ition	-11.0316
▁కపిల	-11.0317
gi	-11.032
శాంతి	-11.0322
▁రావణ	-11.0323
ata	-11.0326
▁కాయలు	-11.0328
▁బదులు	-11.0329
లిటీ	-11.033
▁హెన్రీ	-11.0337
శెట్టి	-11.0337
కావ్య	-11.0338
▁నిలుప	-11.0342
▁చూసే	-11.0343
▁చర్చలు	-11.0344
▁వదలి	-11.0345
▁సరిగ్గా	-11.0347
▁లవణ	-11.0349
శంకర	-11.0352
▁time	-11.0358
▁త్రవ్వకాల	-11.0363
ందరికీ	-11.0363
▁పర్వతాలు	-11.0363
తత్వ	-11.0364
▁ఫాల్	-11.0366
▁విలాస	-11.0367
▁విశాలమైన	-11.0374
▁కృప	-11.0377
▁జవహర్	-11.038
▁పసి	-11.0384
▁తట్ట	-11.0385
▁త్రవ్వ	-11.0389
▁ఫిలిప్	-11.0391
pan	-11.0392
▁స్థిరంగా	-11.0393
ail	-11.0399
ah	-11.04
▁ఐక్యరాజ్యసమితి	-11.0402
▁లార్డ్	-11.0403
▁సెర్	-11.0404
▁మార్చబడింది	-11.0405
నూనె	-11.0405
▁కుదుర్చ	-11.0412
▁సంఘటనలు	-11.0413
▁గ్యాస్	-11.0413
▁స్టాక్	-11.0414
▁వెదురు	-11.0417
ప్రభ	-11.042
▁1958	-11.0422
▁గుర్తించింది	-11.0423
▁వర్గీకరణ	-11.0426
ేటివ్	-11.0428
▁సాంప్రదాయక	-11.0429
చేసారు	-11.043
▁ప్రయోగాలు	-11.0436
▁ఏర్పడతాయి	-11.0437
▁గవర్నరు	-11.0445
ేంద్రియ	-11.045
▁పీటర్	-11.0451
▁హిందు	-11.0452
▁వదుల	-11.0452
▁రాజ్యాలు	-11.0454
▁అడుగులు	-11.0455
▁రద్దీ	-11.0456
▁Re	-11.0457
▁జన్మించ	-11.0461
▁పంది	-11.0461
▁భవనాలు	-11.0461
▁ఎన్నికైన	-11.0464
▁1,2	-11.0467
▁సమావేశాల	-11.0467
▁ప్రాప్తి	-11.0467
▁600	-11.0468
▁తీసుకునే	-11.047
▁దిద్ద	-11.0471
▁కోపం	-11.0472
ెుక్క	-11.0472
▁పరిసరాల	-11.0473
రెన్స్	-11.0474
col	-11.0475
▁కూచిపూడి	-11.0478
▁కార్యక్రమాన్ని	-11.0478
▁సుగ్రీవ	-11.0478
▁గ్రహీత	-11.0478
▁ముఖ్యమంత్రిగా	-11.0478
▁సమాధాన	-11.0481
▁సమానమైన	-11.0487
▁పొటాషియం	-11.0489
▁శీతాకాల	-11.05
▁ప్లాస్టిక్	-11.0501
▁దిగి	-11.0501
▁తిరుగుతూ	-11.0502
▁Co	-11.0502
▁మంజ	-11.0506
▁కలిగింది	-11.051
▁చేసాయి	-11.051
▁బ్రౌన్	-11.0511
▁విస్తృతమైన	-11.0511
▁ఎన్నికయ్యారు	-11.0512
▁బయటపడ	-11.0513
▁వాల్వు	-11.0516
▁భజన	-11.0516
▁పరిమితమైన	-11.052
▁భూమిపై	-11.0521
ava	-11.0521
▁Wiktionary	-11.0522
▁1931	-11.0523
▁సన్మాన	-11.0526
▁పక్షుల	-11.0526
▁మేయర్	-11.0534
▁ప్రతిపక్ష	-11.0542
▁భీముని	-11.0543
▁1936	-11.0543
▁ఉద్దేశం	-11.0546
▁గాయకుడు	-11.055
▁పోగొట్ట	-11.0551
▁తగు	-11.0552
▁పండితుడు	-11.0552
▁their	-11.0556
▁చదివే	-11.0556
▁name	-11.0558
▁మరోవైపు	-11.0561
▁భూభాగ	-11.0565
సత్య	-11.0565
▁అరుణ	-11.0565
▁ఇటుకల	-11.0571
ey	-11.0577
▁పాండవులు	-11.058
శ్యామ	-11.0586
▁ముఖ్యమైనది	-11.0587
▁తదనంతర	-11.0588
▁వెయ్యి	-11.06
హరణ	-11.06
▁సహజంగా	-11.0603
▁విరామ	-11.0603
▁సంస్కరణల	-11.0605
▁ప్రగతి	-11.061
▁కచేరీ	-11.061
▁బాపు	-11.0616
▁విరాట	-11.0616
▁ఫిల్	-11.0616
▁క్రీడలలో	-11.0618
▁పార్వతీ	-11.0618
శిల్ప	-11.0622
ారంభ	-11.0623
▁హిట్లర్	-11.0623
▁అందించాడు	-11.0623
▁రావడానికి	-11.0624
▁విచిత్ర	-11.0627
TT	-11.0632
▁1968	-11.0634
▁అలంకార	-11.0634
▁భర్తీ	-11.0639
వైశాల్య	-11.0642
▁1939	-11.0643
▁పంచాయితీ	-11.0644
▁1963	-11.0646
▁జీత	-11.0647
▁బతుకమ్మ	-11.0655
▁2%	-11.066
▁దేశపు	-11.0661
▁యూరోప్	-11.0662
▁సమర	-11.0663
===	-11.0669
▁ఏటా	-11.0675
▁ఆవిష్కరించ	-11.0677
▁ఇస్లామిక్	-11.0677
▁ఏటియం	-11.0677
▁స్కూలు	-11.0677
జరు	-11.0678
▁ఏర్పడ్డాయి	-11.0681
gar	-11.0684
ప్రజల	-11.0687
▁స్వభావం	-11.0688
▁ఉపనిషత్తు	-11.0688
▁సమైక్య	-11.0688
▁గులాబీ	-11.0688
▁చాళుక్యుల	-11.0689
▁అందంగా	-11.0691
▁వచ్చినప్పుడు	-11.0691
▁కారణము	-11.0694
▁లేత	-11.0694
సామర్ధ్య	-11.0696
▁యుద్ధాలు	-11.0697
▁చైనీస్	-11.07
▁మరుగుదొడ్ల	-11.07
▁సంసార	-11.07
▁గుర్రం	-11.07
▁వాహనం	-11.0701
text	-11.0702
▁నిర్వహించాడు	-11.0703
మిల్లి	-11.0708
ోత్తమ	-11.0709
▁తరంగాల	-11.0711
▁ఘటన	-11.0712
▁సరుకు	-11.0713
▁బుట్ట	-11.0719
▁ఇంగ్లండ్	-11.0722
▁చిరంజీవి	-11.0722
▁థామస్	-11.0722
▁అఖిల	-11.0722
▁విధానాలను	-11.0724
▁అనబడే	-11.0728
▁వెలువడిన	-11.0731
▁కోతలు	-11.0735
▁పరమాణువు	-11.0736
▁నీడ	-11.074
ాదులు	-11.0744
టప్పుడు	-11.0744
▁ఆదిలాబాదు	-11.0744
▁ఏనుగుల	-11.0745
▁పదార్ధాల	-11.0747
▁అల్ప	-11.0749
▁ఒకరోజు	-11.0751
▁కృష్ణమూర్తి	-11.0751
▁మాట్లాడుతూ	-11.0753
▁కోణం	-11.0753
▁తీర్చిదిద్ద	-11.0756
▁తాటి	-11.0757
▁బానిసత్వ	-11.0762
▁గాంధార	-11.0764
▁పోలిష్	-11.0764
TV	-11.0767
-7	-11.0768
▁ప్రశంసలు	-11.0768
▁ఉత్తీర్ణ	-11.0768
ప్రసాద్	-11.0769
యున్నది	-11.077
▁నటుడిగా	-11.0771
▁స్నేహితుల	-11.0776
▁పార్లమెంట్	-11.0778
-18	-11.0778
▁మనుగడ	-11.0778
▁యాక్	-11.0781
▁అంధ	-11.0782
ure	-11.0785
▁పూర్వపు	-11.0786
▁వృద్ధ	-11.0787
▁యేట	-11.0787
ix	-11.079
▁పొట్ట	-11.0792
▁ఉపవాస	-11.0798
▁ఆస్థాన	-11.08
▁సమేత	-11.0802
▁పోషించాడు	-11.0803
పోతూ	-11.0806
ves	-11.0806
▁జ్వర	-11.0806
▁సార్వత్రిక	-11.0812
▁ఉందో	-11.0815
1,000	-11.0817
▁వ్యతిరేకత	-11.082
ేసరికి	-11.0821
▁గింజలు	-11.0825
▁సూచిక	-11.0826
▁ప్రకట	-11.0827
ui	-11.0828
▁అర్జునుడి	-11.0831
మాసం	-11.0833
▁తప్పనిసరిగా	-11.0833
▁కింగ్డం	-11.0834
మాత్ర	-11.0834
▁సిరిసిల్ల	-11.0835
▁రూపాంతరం	-11.0835
▁ఇనుప	-11.0839
▁పాలకుల	-11.0843
▁పరుగుల	-11.0846
▁పేర్లతో	-11.0846
▁పట్టణము	-11.0846
▁1%	-11.0847
పియన్	-11.0847
▁సదా	-11.0856
చిహ్న	-11.0857
▁యుద్ధాల	-11.0859
▁దుష్	-11.0859
▁వేతన	-11.0859
▁బౌద్ధమత	-11.0863
దుర్తి	-11.0864
▁సభా	-11.0865
▁ప్రిన్స్	-11.0866
లైన్	-11.0867
▁పొద్దుతిరుగుడు	-11.0869
▁గుమ్మడి	-11.0869
▁స్పేస్	-11.0869
▁శతాబ్దానికి	-11.0869
కలిగి	-11.0873
▁రకము	-11.0873
▁గన్నవరం	-11.088
▁పునాది	-11.0881
▁అంతిమ	-11.0881
▁నిండిన	-11.0884
▁నిపుణ	-11.0887
చేయడం	-11.089
విశ్వాస	-11.0891
▁కాగితం	-11.0891
▁వెనక్కి	-11.0892
▁చేపట్టారు	-11.0894
▁ఆభరణాల	-11.0903
▁సంహరించ	-11.0905
గట్ట	-11.0908
▁గురై	-11.0911
oss	-11.0913
▁పాలించారు	-11.0913
▁కేవలము	-11.0915
▁శివాజీ	-11.0915
▁దేవాలయాల	-11.0921
▁చూపిస్తుంది	-11.0926
▁స్థానము	-11.0926
▁ఇద్దరి	-11.0926
▁దినోత్సవం	-11.0927
▁సంస్థానం	-11.0928
▁పుస్తకము	-11.093
▁ఉంటున్న	-11.0931
▁మిత్రుల	-11.0934
దాకా	-11.0937
▁కొలువు	-11.0944
▁వివాహమాడ	-11.095
▁దేవాలయాలు	-11.0951
SA	-11.0952
▁సభ్యత్వం	-11.0953
లక్ష్మీ	-11.0958
▁కర్నాటక	-11.0961
▁బోరు	-11.0965
▁మానవుడు	-11.0967
కొరకు	-11.0971
▁అనిపించ	-11.0978
▁సమీకరణ	-11.0982
▁గర్భాశయ	-11.0984
▁టైమ్స్	-11.0986
▁కార్బో	-11.0988
వర్ధన	-11.0988
▁అతుక	-11.0989
▁వస్తారు	-11.0989
-12	-11.0992
▁నోట్	-11.0994
▁1941	-11.0994
▁ఆంగ్లేయుల	-11.0995
▁నియమాల	-11.0996
ism	-11.0997
▁గంధ	-11.0997
▁పతన	-11.0999
▁మోర్	-11.1002
▁దొరుకు	-11.1007
▁నాగయ్య	-11.1008
▁గూడా	-11.1009
▁ముట్టడి	-11.1009
con	-11.1017
ాదిత్య	-11.1018
▁విత్తనం	-11.1018
ాచార్యుడు	-11.1024
▁సదస్సు	-11.103
▁అవుట్	-11.1031
▁రాజ్యానికి	-11.1032
▁గమ్య	-11.1033
▁విడుదలైంది	-11.1034
యై	-11.1035
▁ఆమ్లాల	-11.1037
▁ఇల్ల	-11.1044
▁దాత	-11.105
▁ఆమదాలవలస	-11.1053
▁నివసిస్త	-11.1054
▁గుంటూరులోను	-11.1054
త్తూరు	-11.106
▁భరించ	-11.1064
▁ఆవశ్యక	-11.1065
▁నరస	-11.1068
స్త్రీ	-11.1073
▁ఉద్దేశంతో	-11.1076
▁వెలుపలి	-11.1077
▁స్వీకరించారు	-11.1084
▁సామ్రాజ్యాన్ని	-11.1085
▁అభ్యర్థిగా	-11.109
శాతం	-11.1092
▁కొమర	-11.1095
▁క్రీడలు	-11.1096
▁ఓవర్	-11.11
▁నౌకా	-11.1109
▁పునరుద్ధరణ	-11.1111
▁అనుసంధాన	-11.1114
వాళ్ళ	-11.1117
▁మహిమ	-11.1119
▁మాత్రము	-11.1121
▁కార్మికులు	-11.1121
▁మార్కాపురం	-11.1123
▁నియోజకవర్గ	-11.1124
▁నరేంద్ర	-11.1124
వేసిన	-11.1129
యితే	-11.1133
▁సికింద్రాబాద్	-11.1135
▁మృదు	-11.1135
▁సెలవు	-11.1136
▁కర్ణుడు	-11.1136
▁దాల్చ	-11.1143
▁తోటల	-11.1144
▁ముత్యాల	-11.115
▁రాలేదు	-11.1156
▁బయటికి	-11.1157
▁దరఖాస్తు	-11.1158
▁అవలంబించ	-11.1158
▁సమన్వయ	-11.1158
▁కోయ	-11.1158
▁కాపీ	-11.1158
మైలవరం	-11.1159
▁భద్రపరచ	-11.116
▁పార్వతి	-11.1161
▁హార్మోన	-11.1164
▁కుతుబ్	-11.117
▁అంగీకర	-11.117
▁స్పష్టమైన	-11.1171
▁కర్బన	-11.1172
oll	-11.1174
▁మాసంలో	-11.1176
▁అభివర్ణించ	-11.1182
▁కనిపించింది	-11.1182
▁అమృత్	-11.1182
▁పంపాడు	-11.1188
▁చంద్రుడు	-11.1192
▁దాడులు	-11.1192
cent	-11.1198
▁భావించబడుతుంది	-11.12
▁534	-11.12
▁థియ	-11.1203
▁పుస్తకాన్ని	-11.1209
ali	-11.1211
▁బంగార	-11.1214
ful	-11.1219
▁బయటి	-11.1224
▁బీడీలు	-11.1229
మడుగు	-11.123
ార్కట్	-11.1232
▁వారసుల	-11.1232
fa	-11.1234
▁మహాభారత	-11.1234
ుకొన్నారు	-11.1238
▁బుద్ధుడు	-11.1239
నాళ	-11.1241
▁గడప	-11.1243
▁లోతైన	-11.1253
▁శిల్పాలు	-11.1254
▁అమిత	-11.1257
-9	-11.1267
▁మరియూ	-11.1267
ore	-11.127
యోగ్య	-11.1272
▁కణాలు	-11.1273
▁హామ్	-11.1279
▁కొనసాగుతున్న	-11.128
▁మనుమ	-11.1283
▁రచనా	-11.1285
▁శకం	-11.1286
▁నిరుద్యోగ	-11.1288
▁నూతనంగా	-11.1291
యెల్	-11.1292
▁సమయాన్ని	-11.1294
ection	-11.1295
▁దుర్గా	-11.1296
చింత	-11.1297
▁విత్తుట	-11.13
▁బీహార్	-11.1301
▁వెర్షన్	-11.1302
▁మధ్యయుగ	-11.1305
యంత్ర	-11.1305
▁కూటమి	-11.1312
▁ఎన్నుకో	-11.1312
▁సాగిన	-11.1312
▁అద్దె	-11.132
▁నిశ్చయించ	-11.1322
▁1937	-11.1323
▁సిస్టమ్	-11.1324
▁ఆకాశవాణి	-11.1324
మయ్యారు	-11.1326
తరువాత	-11.1326
▁మాయా	-11.1333
▁మెట్రో	-11.1334
శిక్ష	-11.1334
▁ధారావాహిక	-11.1336
▁సరస్వతీ	-11.1336
▁అనుచరుల	-11.1338
మూడి	-11.1341
▁మరే	-11.1345
▁బ్యాక్	-11.1345
ేశ్వరస్వామి	-11.1347
▁సందర్శకుల	-11.1348
▁వెడ	-11.1348
▁మహాసభ	-11.1352
▁ఆర్మేనియన్	-11.136
▁అహింస	-11.136
గఢ్	-11.1364
▁ఛార్	-11.1366
ాయణ	-11.1369
NA	-11.1372
▁టాటా	-11.1374
▁ఉద్యమాల	-11.1374
eng	-11.1375
▁జీవించి	-11.1377
▁తారక	-11.1381
ku	-11.1383
ుకొను	-11.1383
▁పోషిస్త	-11.1384
లేదా	-11.139
▁అచ్చు	-11.1391
ాశ్రమ	-11.1394
▁ఎక్కి	-11.1395
▁చురుకుగా	-11.1395
▁మధ్యాహ్న	-11.1395
▁గోల్కొండ	-11.1398
▁తెలిసింది	-11.1402
▁సైన్యాల	-11.1404
▁ఇంజిన్	-11.1408
▁విభజించబడింది	-11.1408
▁విహార	-11.1408
▁1933	-11.141
▁మెట్ల	-11.1415
▁ప్రవేశపెట్టారు	-11.1416
▁విరుద్ధంగా	-11.142
▁సాత్యకి	-11.142
▁గ్రె	-11.1421
గోపుర	-11.1421
▁కొరత	-11.1422
ick	-11.1424
▁వానర	-11.1426
▁ఆలయాల	-11.1428
▁శంకరులు	-11.1431
bi	-11.1431
▁ఆడపిల్ల	-11.1434
మంత్ర	-11.1438
▁పరిజ్ఞానం	-11.1439
▁బీమా	-11.1441
▁గ్రామపంచాయతి	-11.1444
▁కామర్సు	-11.1444
▁హైవే	-11.1445
▁భాస్కర	-11.1446
▁వైవిధ్యం	-11.1453
▁పద్యాల	-11.1454
లేవు	-11.1454
▁శాసనాలు	-11.1458
▁ప్రొడక్షన్	-11.1468
▁హైకోర్టు	-11.1468
▁నైతిక	-11.1469
▁వీరభద్ర	-11.1471
▁కాల్పుల	-11.1472
▁ప్రాంగణ	-11.1475
▁ఆండ్ర	-11.1476
▁విమర్శకుల	-11.148
▁some	-11.148
▁శల్య	-11.1486
▁ఎక్స	-11.1487
వారే	-11.1491
▁కార్యాచరణ	-11.1492
▁ప్రవర్తించ	-11.1492
▁తిక్కన	-11.1497
▁పనిచేసాడు	-11.1506
▁చీలి	-11.1506
▁3%	-11.1507
▁యాత్రికుల	-11.1508
▁పీడనం	-11.1508
బెల్	-11.1509
▁ఏమిటి	-11.151
▁మంగోల	-11.1513
పరిచి	-11.1514
▁1938	-11.1515
▁ధోరణి	-11.1516
▁కమాండ	-11.1517
▁వైదిక	-11.1521
tro	-11.1526
▁నిలబడ	-11.1528
▁జవాబు	-11.1529
▁పునర్నిర్మాణ	-11.1529
థ్య	-11.153
▁ఫేస్	-11.153
▁సంఘాలు	-11.1531
▁నేత్ర	-11.1532
wi	-11.1539
సాహెబ్	-11.1541
పాణి	-11.1545
▁కలిగ	-11.1546
▁హేమ	-11.1548
▁కళాకారుడ	-11.1548
▁దేవస్థానం	-11.155
మయ్యాడు	-11.155
▁బాగ్	-11.1551
మయింది	-11.1551
▁ఇంజనీర్	-11.1553
▁పంజాబు	-11.1553
ోన్నత	-11.156
▁కక్ష్య	-11.1563
▁జైపూర్	-11.1564
▁ఛైర్మన్	-11.1565
▁నందిగామ	-11.1565
▁లభిస్తున్న	-11.1565
▁సామర్థ్యాన్ని	-11.1567
PA	-11.157
▁ప్రాంగణంలో	-11.157
▁సౌకర్యము	-11.1571
ేషను	-11.1573
▁రూపుదిద్ద	-11.1577
CO	-11.1577
▁సుగంధ	-11.1578
▁జ్యూ	-11.1584
▁ఆల్బం	-11.159
▁కొత్తపల్లి	-11.1595
కపోవడంతో	-11.1597
చేస్తుంది	-11.1599
▁అక్కడికి	-11.1599
▁బలవంతంగా	-11.16
▁అధీనంలో	-11.1602
▁ఎలక్ట్రాన్	-11.1602
▁స్క్రీన్	-11.1602
▁జయించ	-11.1603
▁చట్టాలు	-11.1607
▁లక్క	-11.1609
▁సాయంతో	-11.1615
▁గేట్	-11.1619
▁ప్రతిభా	-11.1619
▁1934	-11.1624
▁తిన్న	-11.1629
▁ఫ్రాంక్	-11.1633
lic	-11.1633
▁నారాయణరావు	-11.1637
▁1944	-11.1638
▁110	-11.1638
▁ముగిసింది	-11.1639
▁రెవిన్యూ	-11.1639
▁స్థూప	-11.1639
▁మాధ్యమం	-11.1639
▁పక్షం	-11.164
▁ట్రాఫిక్	-11.1651
wiki	-11.1651
▁been	-11.1658
▁నక్షత్రాల	-11.1659
ft	-11.1659
2,000	-11.1661
▁రికో	-11.1661
▁రాకుండా	-11.1662
▁ఫెడరల్	-11.1663
▁ఒకటైన	-11.1665
▁వ్యాఖ్యానించ	-11.1666
▁పరిగణిస్తారు	-11.1667
▁ఫోర్స్	-11.167
▁నిలువు	-11.1672
▁ఇంద్రియ	-11.1672
▁ఇతిహాస	-11.1676
▁నిజామాబాదు	-11.1676
▁మంచ	-11.1681
▁పిఠాపురం	-11.1688
▁రిచర్డ్	-11.1688
మవుతాయి	-11.169
▁కండరాల	-11.1691
▁br	-11.1697
▁లెక్కించ	-11.1698
▁హీరోగా	-11.1698
▁కానోపస్	-11.17
▁ముగిసిన	-11.17
▁ఎగుమతుల	-11.17
▁అలంకరణ	-11.17
ాస్త్ర	-11.1702
▁మొట్టమొదట	-11.1703
▁న్యాయమూర్తి	-11.1704
▁సంకలన	-11.171
▁సామూహిక	-11.1713
▁తెలిపింది	-11.1713
▁హైదరాబాదులోనూ	-11.1713
cle	-11.1714
pos	-11.1717
▁క్రూర	-11.172
▁పెదబయలు	-11.1725
▁బూడిద	-11.1725
ుద్దీన్	-11.1727
▁విశ్వసించ	-11.1729
▁మినహాయింపు	-11.1738
▁సుదూర	-11.1738
▁కప్పు	-11.1738
▁సర్వీస్	-11.1738
▁స్థిరపడ్డారు	-11.1739
ుతుండగా	-11.1741
నట్లయితే	-11.1742
▁అడుగ	-11.1744
వినియోగ	-11.1746
సంఘ	-11.1749
▁బడ్జెట్	-11.175
▁రామగుండం	-11.175
▁రాజీవ్	-11.175
▁కల్యాణ	-11.175
▁పిమ్మట	-11.1751
▁పరమాత్మ	-11.1754
▁స్పి	-11.1754
▁పరిమితి	-11.1756
▁సోదరి	-11.1758
▁వివరించాడు	-11.1759
▁దక్షణాన	-11.1762
డెంట్	-11.1763
▁రావణుడు	-11.1763
▁కూడలి	-11.1765
▁కుండల	-11.1766
▁నియమాలు	-11.1773
▁పెంట	-11.1776
▁గడించ	-11.1782
▁డైరెక్ట	-11.1784
▁శ్రీకాళహస్తి	-11.1787
▁శీతల	-11.1788
▁అయోధ్య	-11.1788
▁1932	-11.1788
▁కాల్చి	-11.179
▁తలసరి	-11.1791
ved	-11.1793
కిరణాల	-11.1795
ఫలితాల	-11.1798
▁స్థాపక	-11.1798
▁వ్యయ	-11.1799
▁ఎదుట	-11.1802
▁వైభవ	-11.1803
▁క్రోధ	-11.1805
▁సంతృప్తి	-11.1809
▁సృష్టించిన	-11.181
▁1921	-11.1816
AM	-11.1817
నైపుణ్య	-11.1819
కలాప	-11.1825
▁పటేల్	-11.1825
▁గాంధీజీ	-11.183
▁అధ్యక్షత	-11.1835
▁వ్యవహరించారు	-11.1836
▁మిర్యాలగూడ	-11.1838
▁ప్యాలెస్	-11.1839
వ్రత	-11.1844
▁చిలక	-11.1847
▁1935	-11.185
▁బసవ	-11.1852
▁sub	-11.1853
▁మెచ్చ	-11.1861
▁ఇబ్బందులు	-11.1862
▁లోపం	-11.1862
▁అతిథి	-11.1863
▁ధ్వంసం	-11.1863
▁1928	-11.1863
▁టెన్నిస్	-11.1863
▁తాండూరు	-11.1863
▁6%	-11.1867
;---	-11.1875
▁టోర్నమెంట్	-11.1875
▁క్లిష్టమైన	-11.1879
▁హైదర్	-11.188
▁మూడ	-11.1884
▁పదార్థము	-11.1886
▁చాలావరకు	-11.1889
▁తీరప్రాంత	-11.1889
▁రాజ్యము	-11.1897
▁ప్రధానమైనవి	-11.1899
▁విశాఖపట్నంలోనూ	-11.19
▁పరాజయం	-11.1901
▁ఆరాధించ	-11.1901
▁పరిపూర్ణ	-11.1902
స్తుంటాడు	-11.1908
▁నిపుణుల	-11.191
▁ఫెస్టివల్	-11.1913
▁తెచ్చిన	-11.1914
▁గనుక	-11.1916
▁అందిస్తున్న	-11.1917
పర్య	-11.1917
▁సోదరులు	-11.1918
▁సిద్ధాంతాన్ని	-11.1919
▁కేంద్రాల్లో	-11.192
▁ఎలక్ట్రో	-11.1926
▁కళింగ	-11.1927
▁పనిచేస్తున్నారు	-11.1928
▁గిరిజనుల	-11.1929
▁గోల్డ్	-11.1931
▁ముస్లిములు	-11.1939
▁జాగ్రత్తగా	-11.1941
▁దోహదపడ	-11.1943
▁మోటార్	-11.1943
▁క్రూ	-11.195
▁చింతపల్లిలో	-11.1951
▁1929	-11.1951
▁ట్రేడ్	-11.1951
▁రాయబార	-11.1954
▁ఆర్మీ	-11.1954
▁కొండపై	-11.1959
▁సమర్ప	-11.1962
pec	-11.1965
▁సంగతి	-11.1975
▁ప్రహ్లాద	-11.198
▁సంబంధమైన	-11.1985
▁పీపుల్స్	-11.1989
▁No	-11.1991
పూర్ణ	-11.1993
సాగారు	-11.1995
▁పెళ్ళ	-11.1996
▁తలుపు	-11.1999
▁టీకా	-11.2002
▁స్టేడియం	-11.2002
▁చేపట్టాడు	-11.2003
▁నిర్వహించింది	-11.2005
▁జ్యోతిష	-11.2007
వెల్లి	-11.2007
▁పెరగడం	-11.2007
▁మునగ	-11.201
పూర్వకంగా	-11.201
▁తేజ	-11.2011
▁ఆత్మహత్య	-11.2015
▁చుట్టుపక్కల	-11.2015
▁కోరాడు	-11.2018
▁బిగించ	-11.2019
▁బీదర్	-11.202
▁వ్యక్తిత్వ	-11.2021
▁అమ్మకాల	-11.2024
ుకుంటా	-11.2028
▁కాగిత	-11.2029
▁కేప్	-11.2029
▁స్వీకర	-11.2031
▁పీల్చ	-11.2031
▁ప్రాణాలు	-11.2032
▁Mo	-11.2033
మౌతుంది	-11.2036
ఋ	-11.204
▁గొలుసు	-11.2041
▁ఫలితాలను	-11.2041
▁జగ్గ	-11.2042
▁బాండ్	-11.2042
▁క్రీడల	-11.2046
▁బలగాల	-11.2047
▁ఆదేశాల	-11.2049
▁గమనించి	-11.2051
▁అశ్వత్థామ	-11.2053
▁ఉత్తేజ	-11.2053
▁డిస్నీ	-11.2053
▁హనుమాన్	-11.2053
▁ఘాట్	-11.2055
జాతుల	-11.2056
▁కూడి	-11.2058
▁ఇబ్రహీంపట్నం	-11.2066
▁వేషం	-11.2068
▁టెస్టు	-11.2069
▁నడవ	-11.207
వృక్ష	-11.2071
▁చెరుకు	-11.2073
▁డయా	-11.2078
▁సార్వభౌమ	-11.2079
▁మరలా	-11.208
▁పరిజ్ఞాన	-11.2081
▁పొందడానికి	-11.2083
▁130	-11.2086
▁నేటికీ	-11.2087
▁నాయకత్వ	-11.209
▁వాయిస్	-11.2091
▁వ్యవధి	-11.2092
జ్యోతి	-11.2092
మండ్	-11.2094
▁మారుతూ	-11.2095
గోపాల	-11.2098
ినేని	-11.2099
మామిడి	-11.2102
పరిచే	-11.2103
▁విమర్శకులు	-11.2113
▁ప్రదానం	-11.2114
ward	-11.2117
▁పేదరికం	-11.2118
ఉత్తర	-11.2119
▁పాదరస	-11.2121
▁జెండా	-11.2126
▁శనివారం	-11.2131
▁వదిలే	-11.2131
▁చాళుక్య	-11.2143
గ్రాడ్యుయేట్	-11.2143
▁స్పియర్	-11.2145
▁అంకె	-11.2145
▁తీసుకోవడం	-11.2147
▁ద్రవీభవన	-11.2156
▁ప్రశ్నించ	-11.2157
mm	-11.2157
▁ప్రవేశించిన	-11.2162
క్సైడ్	-11.2166
పోవడానికి	-11.2168
▁ప్రాబల్య	-11.217
▁చర్చ్	-11.2173
▁దర్శకుడిగా	-11.2173
▁స్కే	-11.2178
mer	-11.218
▁పెంపొందించ	-11.2182
▁చెబుతుంది	-11.2184
▁పరిశీలించి	-11.2186
▁బయలుదేరి	-11.2187
▁pri	-11.219
▁ఆంధ్రదేశ	-11.2191
▁పెక్కు	-11.2193
▁బొబ్బిలి	-11.2195
▁పరివర్తన	-11.22
▁నిజంగా	-11.22
▁1919	-11.2202
▁కంచి	-11.2207
▁ప్రార్థించ	-11.221
emb	-11.2217
▁This	-11.2222
చూప	-11.2222
▁నక్షత్రాలు	-11.2225
▁1900	-11.2226
▁అంబా	-11.223
▁సాపేక్ష	-11.2235
▁నైరుతి	-11.2235
▁పరంపర	-11.2235
▁కేశ	-11.2237
▁సిద్దాంత	-11.2242
▁సన్నిధి	-11.2248
▁ప్రదేశాన్ని	-11.2248
▁నాటకరంగ	-11.2249
▁వెంబడి	-11.225
సాహిత్య	-11.225
▁పరాక్రమ	-11.2251
హాస	-11.2256
▁శ్లోకాల	-11.2262
▁దినపత్రిక	-11.2262
▁భగవంతుడ	-11.2262
▁బ్రాహ్మణులు	-11.2262
▁సభ్యుడిగా	-11.2264
▁తీసే	-11.2264
▁పోలిక	-11.2265
ific	-11.2266
▁వన్డే	-11.2274
గుట్ట	-11.2275
▁అదేవిధంగా	-11.2279
▁కలిగిస్తుంది	-11.228
▁దేవాలయము	-11.2285
▁గెలుచుకుంది	-11.2287
▁క్రిస్టియన్	-11.2288
▁పదార్ధాలు	-11.2289
▁మెరుగైన	-11.23
▁దౌత్య	-11.23
▁చేసుకోవడానికి	-11.2301
▁చింతపల్లి	-11.2303
▁పవిత్రమైన	-11.2305
లేకపోయింది	-11.2308
▁పనిచేసింది	-11.2309
▁ఋగ్వేద	-11.2313
▁విస్తీర్ణము	-11.2313
అవనిగడ్డ	-11.2314
▁నరసింహారావు	-11.2315
▁5311	-11.2317
▁ప్రీమియర్	-11.2326
▁పట్టభద్ర	-11.2329
వ్యవసాయ	-11.233
ద్రవ్య	-11.233
ీంద్ర	-11.2337
▁విధముగా	-11.2337
చ్చె	-11.2341
AD	-11.2343
▁తీసుకువచ్చి	-11.2344
▁వేస్తారు	-11.2346
▁జాతీయవాద	-11.2349
▁అవుత	-11.2349
▁ఏకాదశి	-11.2353
▁సంరక్ష	-11.2354
▁జంగ్	-11.2354
▁పాదాల	-11.2354
▁హార్ట్	-11.2354
▁అండర్	-11.2356
▁సంఘాల	-11.2356
▁కట్టిన	-11.2357
తెలుగు	-11.2359
▁అన్వేషణ	-11.2366
▁బహిష్కరించ	-11.2366
▁ఉంటుంద	-11.2366
▁గదులు	-11.2367
▁చేరుకున్నారు	-11.2367
▁చూస్తున్న	-11.2368
round	-11.2369
▁వేల్స్	-11.2374
▁చున్న	-11.2378
▁స్విట్జర్లాండ్	-11.2379
▁గెలుపొందిన	-11.2382
▁నిర్మించబడ్డాయి	-11.2391
▁చూస్తూ	-11.2391
▁రకాలైన	-11.2397
▁కట్టడం	-11.2398
ావసరాల	-11.2399
▁ఉద్యోగులు	-11.2404
ాగ్ని	-11.2405
వడమే	-11.2406
▁నిరాశ	-11.2416
▁అయన	-11.2416
▁కవరేజి	-11.2419
▁నిర్మాణాల	-11.2419
▁వ్యాయామ	-11.2419
▁ధృవ	-11.2419
▁ఉపకరణాల	-11.2421
నగర్లోనూ	-11.2421
ith	-11.2422
▁గరుడ	-11.2424
▁ఉల్లి	-11.243
▁విత్తనాలు	-11.2431
జన్య	-11.2431
▁పెట్టడం	-11.2432
▁అమలాపురం	-11.2432
▁ప్రారంభమై	-11.2436
▁జయంతి	-11.2436
▁పెరుగ	-11.2438
▁లోహాల	-11.2439
▁ముందుగానే	-11.2439
▁తప్పకుండా	-11.2441
▁నరక	-11.2442
▁పాఠకుల	-11.2443
▁జయించి	-11.2445
ారట	-11.2446
▁మొత్తాన్ని	-11.2446
▁ప్రచుర	-11.2447
▁తప్పనిసరి	-11.2448
▁కుమారుని	-11.2455
▁చేసేవాడు	-11.2458
▁కమ్యూనిస్ట్	-11.2459
▁హరిశ్చంద్ర	-11.2459
▁నగదు	-11.2459
ాలనుకున్న	-11.246
పబ్లిక్	-11.2462
▁పోల్చి	-11.2466
ందువలన	-11.2467
▁హుస్సేన్	-11.2472
▁నాణేల	-11.2473
▁అందించడం	-11.2473
▁1,1	-11.2474
▁అధ్యయనాలు	-11.2479
▁కళ్ళు	-11.2484
▁శిల్పకళ	-11.2484
▁సరికొత్త	-11.2486
▁లఘు	-11.2487
▁ప్రభాకర	-11.2489
ోత్సవాలు	-11.2492
విషయ	-11.2493
▁1857	-11.2494
▁అందుకుంది	-11.2495
▁జగన్	-11.2498
▁తెలుస్తున్నది	-11.2499
▁ముంబాయి	-11.2499
భ్యాస	-11.25
▁1,0	-11.2502
ోద్యమంలో	-11.2503
న్నింటినీ	-11.2503
▁స్థావరం	-11.2506
▁మొదలుపెట్టి	-11.2508
▁గురైన	-11.2511
▁కనీస	-11.2512
▁లూయిస్	-11.2513
cal	-11.2515
▁కుమారుడైన	-11.2517
▁సంకీర్ణ	-11.2526
▁పనిచేస్తూ	-11.2526
▁క్వీన్	-11.2526
▁ఉచితంగా	-11.253
ుకునేవారు	-11.2531
▁ఉత్పన్న	-11.2531
▁డిస్క్	-11.2534
ani	-11.2537
వారిపాలెం	-11.2548
▁రామలింగ	-11.255
▁అహ్మద్	-11.2553
▁జగ్గయ్యపేట	-11.2553
▁శ్రేణుల	-11.2553
▁నిలిచారు	-11.2553
▁సూచిస్తారు	-11.2555
▁ట్రె	-11.2557
▁పిండ	-11.2562
▁సంఘర్షణ	-11.2567
▁ముక్తి	-11.2567
▁హామీ	-11.2569
వాయువు	-11.2573
▁Indian	-11.2575
▁ఆదరించ	-11.2579
▁అక్బర్	-11.258
▁మహాత్మ	-11.2582
▁ఖడ్గ	-11.2583
other	-11.2596
II	-11.2596
▁అనువైన	-11.2604
▁BBC	-11.2607
▁నిలిచాడు	-11.2607
▁దుర్యోధన	-11.2621
▁బీచ్	-11.2623
▁సోడియం	-11.2623
do	-11.2625
▁కోర్ట్	-11.2629
▁ఆధిపత్య	-11.263
▁5071	-11.2632
▁నడిపి	-11.2633
▁పాత్రికేయ	-11.2634
▁త్వరలో	-11.2635
▁అభయ	-11.264
ాయుధ	-11.264
▁పత్రికలలో	-11.2642
గుప్త	-11.2642
▁అంబేద్కర్	-11.2648
ద్రావణ	-11.2649
బియన్	-11.2652
▁మైదాన	-11.2653
▁సమయము	-11.2658
▁ఆశించ	-11.2659
▁two	-11.2662
▁సువాసన	-11.2662
▁కోస్తా	-11.2666
ార్ద	-11.2668
’’	-11.2677
▁మొదలై	-11.2679
▁విధాలుగా	-11.268
▁తర్క	-11.2682
▁5082	-11.2685
▁ఎప్పుడ	-11.2688
▁అంగీకార	-11.2689
▁సూఫీ	-11.2692
మోహన	-11.2699
▁మోనో	-11.27
పూర్వక	-11.27
▁బహిర్గత	-11.2703
▁ఇబ్న్	-11.2703
▁గార్డెన్	-11.2704
▁కవచ	-11.2704
▁ప్రయత్నాల	-11.2705
ాచారి	-11.2706
▁తెరిచి	-11.2708
▁సౌకర్య	-11.2709
▁గౌర	-11.271
▁రక్షక	-11.271
▁మరణానికి	-11.2714
▁అవతరించింది	-11.2715
▁ఎల్లప్పుడూ	-11.2716
▁మద్రాస్	-11.2716
▁భావించాడు	-11.2721
ావస్థ	-11.2722
▁అందిస్తున్నాయి	-11.2728
▁వైమానిక	-11.273
▁అవకాశము	-11.273
▁తీసుకున్నాడు	-11.273
▁గావించ	-11.274
▁పాడేరు	-11.274
▁రోడ్దురవాణా	-11.2744
▁దున్న	-11.2744
▁గ్రెగొర	-11.2745
ప్రారంభించబడింది	-11.2745
▁ఇంటిపేరు	-11.2747
▁చేస్తుంటారు	-11.2748
▁అనంతగిరి	-11.2748
▁తరచు	-11.2753
▁బెజవాడ	-11.2757
▁మార్టిన్	-11.2758
▁నివేదించ	-11.2759
▁కష్టాల	-11.2762
▁దుష్ట	-11.2765
టేషన్	-11.2771
▁అమ్మోనియం	-11.2771
▁సన్నివేశ	-11.2774
▁భౌగోళికంగా	-11.2775
▁ధృతరాష్ట్ర	-11.2785
▁స్కాట్లాండ్	-11.2785
▁జోసెఫ్	-11.2785
▁ఖైదీ	-11.2785
▁వినుకొండ	-11.2786
▁విత్తనాల	-11.2787
▁నలుపు	-11.2788
▁సృష్టించింది	-11.2791
▁దుంప	-11.2794
▁ఎంచుకున్న	-11.2796
▁ఎదిగి	-11.2802
▁సంప్రదించ	-11.2813
▁అన్నపూర్ణ	-11.2815
▁గ్రేడ్	-11.2818
▁వెంక	-11.2825
▁స్థావర	-11.2825
స్వామ్య	-11.2826
▁బహదూర్	-11.2826
▁కణజాల	-11.2829
▁భూభాగాన్ని	-11.2836
ోత్తర	-11.2836
వుంటుంది	-11.2837
ఉన్నాయి	-11.2838
స్వరూప	-11.284
▁అప్పుడప్పుడు	-11.284
▁వాల్మీకి	-11.284
అలోపతీ	-11.284
▁కాగజ్	-11.2841
▁పిదప	-11.2841
▁సమాధుల	-11.2842
▁మాసాల	-11.2847
▁ఆధారాల	-11.2852
ాభిషేక	-11.2853
▁వీణ	-11.2853
▁నిర్మూలన	-11.2854
▁అస్థిర	-11.2854
▁భద్రాద్రి	-11.2855
▁వైఎస్ఆర్	-11.2855
▁ఫౌ	-11.2855
▁అమలులోకి	-11.2866
▁అభ్యర్థుల	-11.2868
▁ఐరిష్	-11.2868
▁లోకసభ	-11.2869
▁పగటి	-11.287
▁ద్రౌపది	-11.2882
▁కార్టూన్	-11.2882
▁కలెక్టర్	-11.2882
▁పొందడం	-11.2882
దొడ్డి	-11.2885
▁ప్రబంధ	-11.2894
▁ఇండోనేషియా	-11.2896
▁చక్కటి	-11.2896
▁మరణానంతరం	-11.2897
▁మృత్యు	-11.2898
▁ప్రాముఖ్య	-11.2903
▁మ్యూ	-11.2904
▁ఆటంక	-11.2904
▁మహాయాన	-11.2907
ఫిబ్రవరి	-11.2907
▁అగస్త్య	-11.291
▁నడుస్తుంది	-11.291
సాక్షాత్	-11.2913
బౌ	-11.2918
షియల్	-11.2923
pla	-11.2923
▁ఉభయ	-11.2924
▁డ్రైవర్	-11.2927
▁పొరపాటు	-11.2927
▁చిలుక	-11.2929
▁సన్యాసి	-11.2935
▁ఇస్లామ	-11.2935
ప్రతిష్ఠ	-11.2936
▁మానవుని	-11.2937
▁ప్రెసిడెన్సీ	-11.2938
▁సంవత్సరాంతమున	-11.2938
ib	-11.2939
▁సాక్షి	-11.2941
▁జన్యువు	-11.2946
▁పతకాల	-11.2947
▁మరుగు	-11.2952
▁చిల్ల	-11.2959
▁ఒకానొక	-11.2966
ound	-11.2967
▁నాలుగో	-11.2972
గలిగారు	-11.2982
లోపల	-11.2982
▁గీస	-11.2985
▁తక్షణ	-11.2986
▁ఇప్పటికే	-11.299
▁హెక్టార్లు	-11.2993
▁చికాగో	-11.2994
▁ఖచ్చిత	-11.2995
▁స్కోరు	-11.2995
▁రాక్షసుల	-11.2999
▁జరుగుతూ	-11.3001
గలిగి	-11.3001
▁మండపం	-11.3002
▁లంబ	-11.3006
▁అచ్యుత	-11.3008
▁BC	-11.301
arch	-11.301
▁వివక్ష	-11.3011
వరపు	-11.3013
▁పాలకుడు	-11.3014
▁Th	-11.302
▁ఆంగ్లో	-11.302
▁ప్రవేశపెట్టిన	-11.3022
▁సిక్ఖు	-11.3022
▁మొదలగునవి	-11.3023
▁gra	-11.3028
▁మిశ్ర	-11.3032
▁లైఫ్	-11.3033
▁మరుసటి	-11.3037
▁ఎదుర్కో	-11.3037
▁స్థానానికి	-11.3037
పదార్థం	-11.3038
▁గడుప	-11.3042
▁చెబుతాడు	-11.3044
▁లాంగ్	-11.3046
▁గుర్తించబడ	-11.3049
ుటకై	-11.305
▁ఆర్గనైజేషన్	-11.3051
▁కాల్షియం	-11.3051
హెచ్	-11.3052
▁ఛానల్	-11.3055
▁చెప్పాలంటే	-11.3059
▁రాళ్ల	-11.3061
met	-11.3061
▁శ్రీకృష్ణుని	-11.3062
▁తీర్ధ	-11.3067
▁కనిపిస్తున్న	-11.307
▁శివాలయం	-11.3073
▁నిప్పు	-11.3077
▁Windows	-11.3079
▁వియత్నాం	-11.3079
▁ఎంతగానో	-11.3079
గర్భ	-11.3084
▁సౌకర్యాల	-11.3085
▁సిరియా	-11.3087
▁బహుమతులు	-11.3087
▁సలహాదారు	-11.3087
▁యాచ	-11.3087
▁లేచి	-11.3091
▁కెప్టెన్	-11.3093
గలిగాడు	-11.3094
▁సేవలందించ	-11.3094
▁ఉండటానికి	-11.3098
▁వెంకటేశ్వరరావు	-11.3099
▁పదున	-11.31
▁కేంద్రీకరించ	-11.3102
▁త్రిభుజ	-11.3108
▁నైవేద్య	-11.3108
▁జోక్యం	-11.3108
కొచ్చి	-11.3115
▁వాటితోపాటు	-11.3118
▁తిరిగే	-11.3118
▁ఇతివృత్త	-11.3122
▁హాస్పిటల్	-11.3122
▁మధ్యప్రదేశ్	-11.3122
▁ఇంజను	-11.3123
▁తెలియకుండా	-11.3124
▁సజీవ	-11.3128
▁అంతర్భాగ	-11.313
▁దోమ	-11.3131
▁OS	-11.3132
▁కుమారుల	-11.3138
▁వెలుగులోకి	-11.314
▁ఆకాశంలో	-11.3145
▁first	-11.315
▁పిక్చర్స్	-11.315
▁ఫ్రాన్సు	-11.315
▁వెలసిన	-11.3153
▁సవాలు	-11.3161
▁ఉపయోగించవచ్చు	-11.3173
▁ప్రతిస్పందన	-11.3179
హృద	-11.3181
▁వెనుకబడిన	-11.3183
▁వార్షికోత్సవ	-11.3184
▁వడ్డీ	-11.3188
▁హోమ్	-11.319
▁మేనమామ	-11.3194
▁గణతంత్ర	-11.3195
ఘట్ట	-11.3197
IT	-11.3198
శ్వాస	-11.3201
▁నిర్దేశించ	-11.3203
▁జాంబ	-11.3206
▁గూగుల్	-11.3208
▁వివరిస్తుంది	-11.3215
సంపద	-11.3217
▁ప్రయోగశాల	-11.3226
ring	-11.3227
▁car	-11.3229
▁ఎగుర	-11.323
ాక్షర	-11.3232
▁దుగ్గిరాల	-11.3237
▁ఋతువు	-11.3237
▁పతకం	-11.3237
▁దసరా	-11.3237
▁ఆరోపించ	-11.3239
ుడనే	-11.3239
▁విస్తార	-11.3246
బుద్ధ	-11.3248
▁మనోహర	-11.325
und	-11.3251
▁క్రెడిట్	-11.3251
▁స్టిట్యూట్	-11.3251
▁మదీనా	-11.3251
▁తాలూకాలోని	-11.3253
▁తేల్చ	-11.3253
▁మెల్ల	-11.3253
▁పిలిచి	-11.3254
▁జరిపించ	-11.3258
▁Com	-11.3264
▁స్పందించ	-11.3266
ఆంధ్ర	-11.3267
▁గోపురం	-11.328
▁సుయోధనుడు	-11.328
▁వుండేది	-11.3281
▁పండగ	-11.3281
▁ప్రయాణికుల	-11.3284
▁తెలిపాడు	-11.3286
▁దోపిడీ	-11.3295
▁పొంగ	-11.3295
▁కావడానికి	-11.3299
▁1,3	-11.3301
కృత్య	-11.3303
▁విపరీతమైన	-11.3304
▁ఫార్ములా	-11.3309
▁అప్పారావు	-11.331
▁చట్టాల	-11.3312
▁భవనాల	-11.3317
▁inter	-11.3317
▁ట్రీ	-11.3317
ఖై	-11.3322
శ్రేణి	-11.3326
▁మూడింట	-11.3326
ప్రసాద	-11.3327
▁సరసన	-11.3332
IA	-11.3334
▁బాలీవుడ్	-11.3338
ానుసారం	-11.3341
▁కలిపే	-11.3345
▁కోల్పోయిన	-11.3348
▁తయారైన	-11.3353
▁వ్యంగ్య	-11.3353
▁లభిస్తాయి	-11.3354
▁ముదురు	-11.3355
▁1922	-11.336
▁కానుక	-11.3367
▁శుక్రవారం	-11.3368
▁ప్రీతి	-11.3375
శారద	-11.3375
▁మహానగర	-11.3376
▁తదితరులు	-11.338
▁ద్వీపకల్పం	-11.3382
▁under	-11.3383
▁ఎలుక	-11.3384
▁అధ్యక్షునిగా	-11.3387
స్తుంటే	-11.3387
▁work	-11.3397
▁పడమటి	-11.3397
▁ద్వేష	-11.3398
▁కార్యాలయాలు	-11.3402
▁చిరుత	-11.3406
▁ఆదోని	-11.3412
▁నిర్మింప	-11.3417
▁ఎడ్వర్డ్	-11.3426
▁ఐఐటీ	-11.3426
ోపాధ్యాయ	-11.3427
▁ఇస్రో	-11.3427
▁గొడవ	-11.3428
బడటం	-11.3438
▁ప్రేరేపించ	-11.3441
▁అలెగ్జాండర్	-11.3441
▁పోర్చుగీస్	-11.3441
▁వైఫల్య	-11.3441
▁ప్రచురించిన	-11.3441
▁అన్యాయ	-11.3441
▁విషాద	-11.3442
ముక్కల	-11.3443
▁స్టోన్	-11.3444
▁మలుపు	-11.3448
▁ఉద్గార	-11.3448
▁ముక్త	-11.3449
▁మహావీర	-11.3465
▁జలాశయ	-11.3471
▁దట్టమైన	-11.3471
ాచార్యుల	-11.3472
ative	-11.3474
side	-11.3479
▁హసన్	-11.3479
▁మురికి	-11.3479
ాయపాలెం	-11.3483
▁చేసుకోవచ్చు	-11.3484
▁సోమవారం	-11.3485
▁చంద్రబాబు	-11.3487
▁ప్రదక్షిణ	-11.3489
▁బైబిల్	-11.35
▁భాగస్వామ్య	-11.3502
▁పరిశీలిస్త	-11.3504
భట్టు	-11.3509
▁మహాసముద్ర	-11.351
హ్లాద	-11.3512
▁ఫండ్	-11.3513
▁బిజినెస్	-11.3515
▁బాపట్ల	-11.3523
▁నివాసితుల	-11.3523
▁రౌండ్	-11.3527
▁పౌర్ణమి	-11.353
▁పైకప్పు	-11.353
▁పొందవచ్చు	-11.353
▁బాధపడుతున్న	-11.353
సత్వ	-11.3531
▁ప్రతిష్ఠాత్మక	-11.3533
పార్టీ	-11.3541
▁విధ్వంస	-11.3545
▁ఇస్తున్న	-11.3546
▁ఋషి	-11.3547
▁అవకాశాల	-11.3548
▁సామర్ధ్యం	-11.355
▁షెల్	-11.3551
▁ప్రాకృత	-11.3553
_{	-11.3554
▁ఉద్యోగాల	-11.3555
ాధిపత	-11.3555
▁వెతుక	-11.3556
▁వైఖరి	-11.356
▁అందరినీ	-11.3561
▁సొమ్ము	-11.3562
▁అందజేస	-11.3565
▁ప్రతీతి	-11.3565
▁కవాట	-11.3569
▁జరిమానా	-11.3575
▁విచ్ఛిన్న	-11.3575
▁ఆతిథ్య	-11.3575
▁భంగిమ	-11.3575
▁పోషించిన	-11.3581
▁సంకీర్తన	-11.3589
▁గాంచిన	-11.3591
మంగళ	-11.3594
▁కాల్చ	-11.3602
▁term	-11.3602
▁డెవలప్	-11.3604
▁పంచాయతి	-11.3604
▁ధరిస్తారు	-11.3605
మవుతున్న	-11.3613
▁జగన్నాథ	-11.3616
▁సంక్రాంతి	-11.3619
▁ఇరాక్	-11.3622
▁భారతదేశములో	-11.3631
▁వైకుంఠ	-11.3634
▁ట్యూబు	-11.3635
▁స్వదేశీ	-11.3637
▁అవార్డ్	-11.365
ద్రోహ	-11.3651
▁తెలుసుకుని	-11.3658
▁బజార్	-11.3659
▁బళ్ళారి	-11.3665
▁సౌలభ్య	-11.3665
▁ముఖర్జీ	-11.3665
▁గ్రామస్థులు	-11.3669
▁నియోజక	-11.3679
▁హనుమంతుని	-11.368
▁యాంటీ	-11.368
▁కొనసాగుతుంది	-11.3682
▁మహోత్సవ	-11.3694
▁సర్వసాధారణ	-11.3695
▁temple	-11.3695
▁జోర్డాన్	-11.3695
▁మహమ్మదు	-11.3695
▁సంచలన	-11.3695
▁సయ్యద్	-11.3695
▁రాజ్యసభ	-11.3696
▁సవరించ	-11.3698
▁అధికరణ	-11.3702
▁కట్టించ	-11.3706
▁వాస్తవిక	-11.3708
▁శస్త్ర	-11.3708
ానికై	-11.3709
▁సైన్సు	-11.371
▁తగ్గుతుంది	-11.371
▁నమ్ముతారు	-11.3716
▁చరిత్రకారుడు	-11.373
▁విలసిల్ల	-11.374
▁బ్రతుక	-11.3757
▁కిరీట	-11.3759
రాశుల	-11.376
▁సరిపడ	-11.3763
▁తీసుకుంటే	-11.3764
▁వారసుడ	-11.3768
▁నీటిపారుదల	-11.3771
▁ధాతువు	-11.3771
మార్చి	-11.3774
rm	-11.3785
▁ముగుస్తుంది	-11.3786
▁రేపల్లె	-11.3786
▁దొరికిన	-11.3786
▁గోల్డెన్	-11.3787
▁తొలిసారి	-11.3787
air	-11.3788
▁పురోగతి	-11.3801
▁దక్షిణాసియా	-11.3801
▁నడుస్తున్న	-11.3806
▁సాధించడం	-11.3807
బడుతూ	-11.3811
▁త్వరిత	-11.3816
▁రాధాకృష్ణ	-11.3816
▁అణిచి	-11.3816
▁స్మిత్	-11.3816
ండేది	-11.3819
▁తీయుట	-11.3824
▁మేడ్చల్	-11.3832
▁క్వార్టర్	-11.3832
▁ఏర్పాట్లు	-11.3832
▁ప్రతిఫల	-11.3833
▁హిందూపురం	-11.3834
▁5324	-11.3835
▁శూన్య	-11.3847
▁నార్వేజియన్	-11.3847
▁పట్టుకుని	-11.385
▁హెల్త్	-11.3862
▁నాస్తిక	-11.3863
4,000	-11.3865
▁అర్చక	-11.3866
AN	-11.387
మాధ్యమిక	-11.3872
▁గట్టు	-11.3873
పరిషత్	-11.3874
సరోవర	-11.3874
▁తీసింది	-11.3876
▁వైవిధ్యమైన	-11.3877
▁లైబ్రరీ	-11.3878
▁జిన్నా	-11.3878
aj	-11.3887
▁విశ్లేష	-11.3896
▁క్లై	-11.3896
▁వధించ	-11.3906
▁శీతాకాలంలో	-11.3908
క్సైడు	-11.3909
▁హంస	-11.391
▁విడిపోయి	-11.3912
▁వనరు	-11.3912
▁==	-11.3915
▁see	-11.3919
▁స్వాధీన	-11.3921
▁అత్యల్ప	-11.3924
▁కొల్లూరు	-11.3928
▁dr	-11.3928
▁గదుల	-11.393
▁అంతకంటే	-11.393
▁నివసించిన	-11.3935
▁కొండూరు	-11.3936
▁సల్ఫేట్	-11.394
▁సుపరిచిత	-11.394
▁గంధర్వ	-11.394
జియన్	-11.3947
▁more	-11.3947
▁పలాస	-11.3951
▁యాదాద్రి	-11.3955
▁అరబిక్	-11.3955
▁ఓడరేవు	-11.3955
▁బండ్ల	-11.3968
▁అద్వైత	-11.3971
▁చుట్టుప్రక్కల	-11.3971
▁క్షార	-11.3972
▁తొందర	-11.3982
▁భగవద్గీత	-11.3986
www	-11.3986
left	-11.3989
▁మునుపు	-11.399
వ్యాపారాత్మక	-11.3993
సంపన్న	-11.3998
▁బాస్కెట్	-11.4002
▁చెప్తారు	-11.4002
వ్యాధి	-11.4012
▁అర్జెంటీనా	-11.4017
▁క్షిపణుల	-11.4017
▁మాండలిక	-11.4017
▁వేగవంతమైన	-11.4018
▁place	-11.4018
▁టెట్రా	-11.402
▁తీసుకుంది	-11.4023
▁అవుతాయి	-11.4025
▁అందుచేత	-11.403
▁1943	-11.4033
▁అందుకని	-11.4033
▁వాయించ	-11.4037
▁ఆటగాళ్ళ	-11.4041
▁చేపట్టింది	-11.4043
▁ఈస్టిండియా	-11.4049
▁మహేష్	-11.4052
▁అర్హ	-11.4057
▁పద్మనాభ	-11.4064
▁రబ్బరు	-11.4064
▁చిత్రలేఖన	-11.4064
▁విద్యుద	-11.4064
▁తీసుకువెళ్ళ	-11.4066
▁గూడూరులోనూ	-11.4069
▁కొన్నాళ్ళ	-11.4081
▁found	-11.4082
కెళ్ళ	-11.4086
▁km	-11.4089
▁వికాస	-11.4089
▁కంప్యూటరు	-11.4096
▁ప్రెసిడెంట్	-11.4096
▁శ్రవణ	-11.4096
▁బయలు	-11.4097
▁కనుగొన్నాడు	-11.4098
▁కుంకుమ	-11.4103
▁ప్రదేశాల్లో	-11.4105
పెడతా	-11.4106
▁1,4	-11.4107
▁రాచరిక	-11.4111
▁రుసుము	-11.4112
▁తయారీదారు	-11.4121
▁IBM	-11.4127
▁వెనుజులా	-11.4127
▁కార్యక్రమానికి	-11.4127
▁జమ్మూ	-11.4127
▁వ్యర్థ	-11.4137
▁చేసుకొన్న	-11.4142
▁పుంజ	-11.4142
▁1927	-11.4143
▁సుప్రీం	-11.4143
▁కాల్సియం	-11.4143
▁భాగస్వామి	-11.4151
▁మరియొక	-11.4157
కూడదని	-11.4159
▁జర్నల్	-11.4159
▁నిర్వహించబడుతు	-11.4159
▁ఋషుల	-11.416
▁కూతుర	-11.4164
▁మిషనరీ	-11.4175
▁పునర్నిర్మించ	-11.4175
▁అంగుళాల	-11.4175
▁రిజర్వ్	-11.4175
▁had	-11.4183
▁తిలక్	-11.4191
▁స్వదేశ	-11.4194
▁చెందుతుంది	-11.4195
▁చేబ్రోలు	-11.4206
▁నవాబ్	-11.4207
▁ఉష్ణమండల	-11.4208
▁అంతర్జాల	-11.4208
▁ఫాస్ట్	-11.4214
▁కఠినమైన	-11.4215
▁వాస్కో	-11.4218
▁నమస్కరించ	-11.4222
నిచ్చింది	-11.4223
▁అస్సాం	-11.4224
▁ఎవరో	-11.423
▁తిరిగ	-11.4233
▁ఎలిజబెత్	-11.4238
▁కథానాయిక	-11.4238
▁తల్లితండ్రుల	-11.4238
▁ద్రావిడ	-11.4239
▁like	-11.4239
▁విడాకుల	-11.4248
▁కూర్చుని	-11.425
▁డెన్మార్క్	-11.4254
▁వహించింది	-11.4254
▁పెంపుడు	-11.4256
వ్యాస	-11.4269
▁ఆటగాడు	-11.4271
▁శాసనాల	-11.4273
▁హరికథ	-11.4275
▁1917	-11.4275
▁కీర్తించ	-11.4275
▁ఉంటాయని	-11.4288
▁అబ్దుల్లా	-11.4291
▁స్వరాజ్య	-11.4292
▁ఆలోచ	-11.4293
▁విపరీతంగా	-11.4294
▁రంగాల్లో	-11.4296
▁కొంతవరకు	-11.4296
▁మక్కువ	-11.4303
▁వందలాది	-11.4305
▁విలీన	-11.4306
▁ఒక్కసారి	-11.4309
ox	-11.4312
▁రెక్కల	-11.4312
▁తెలిపే	-11.4315
▁after	-11.4318
▁most	-11.4321
▁జమ్ము	-11.4321
▁అనుమతిస్తుంది	-11.4324
▁వెంకయ్య	-11.4324
▁రావణుని	-11.4328
▁అందజేస్త	-11.433
▁చిత్రకళ	-11.433
▁భైరవ	-11.4335
▁కైలాస	-11.4337
▁స్నేహితుడు	-11.4348
▁అసలైన	-11.4357
Di	-11.4367
▁హెచ్చు	-11.4369
▁నవీన	-11.4373
▁పరిస్థితుల్లో	-11.4377
▁శాతవాహన	-11.4377
war	-11.4379
▁టెక్కలి	-11.4383
▁బేగం	-11.4385
▁షేర్	-11.4385
▁ఒక్కటే	-11.4397
▁ఉపశమన	-11.4399
▁మొఘలు	-11.4399
▁వేయించ	-11.4405
▁ఒకేసారి	-11.4407
▁లభి	-11.4408
▁సహకరిస్త	-11.4414
▁నందమూరి	-11.4415
▁పథకాల	-11.4416
ైజేషన్	-11.4418
▁కావటం	-11.442
▁శ్రీహరి	-11.4428
▁శాతవాహనుల	-11.4437
▁నడిపే	-11.4442
ందువల్ల	-11.4448
▁సావిత్రి	-11.4448
▁shall	-11.4448
▁డెల్టా	-11.4448
▁పరోక్ష	-11.4448
▁పాండిత్య	-11.4448
▁దారుణ	-11.4449
▁ప్రబోధ	-11.4458
▁1,5	-11.4459
▁వికారాబాదు	-11.4464
▁ఆముదం	-11.4465
▁పాతాళ	-11.4469
▁రాజపుత్ర	-11.447
▁పోటీచేసి	-11.4474
ప్రపంచ	-11.4474
ities	-11.4479
▁సామర్థ్య	-11.4481
▁ట్రెంచ్	-11.4481
▁బేసిన్	-11.4481
▁తేలింది	-11.4481
▁సెర్బియా	-11.4481
▁బైజాన్	-11.4482
▁పాల్పడ	-11.4484
▁సర్వస్వ	-11.4485
▁తట్టుకో	-11.449
బడతారు	-11.4494
cur	-11.4495
▁ఉద్భవించింది	-11.4496
▁ఫిర్యాదు	-11.4497
▁ఉత్తరప్రదేశ్	-11.4497
▁తటస్థ	-11.4497
▁ప్రాకార	-11.4499
▁నెలకొని	-11.4501
వర్ష	-11.4501
▁ప్రయోగాత్మక	-11.4501
సహాయ	-11.4502
ధ్వజ	-11.4506
▁సుంక	-11.4513
▁సిఫార్సు	-11.4513
▁పర్షియా	-11.4515
భాయ్	-11.4519
▁అందుచే	-11.4524
నొప్పి	-11.4534
▁CPU	-11.4546
▁ఉపసంహరించ	-11.4546
▁ఏర్పరుస్త	-11.4546
▁కదులు	-11.4548
▁నిశ్చయ	-11.4549
▁ట్రాన్స	-11.4549
▁దాసరి	-11.4551
▁1923	-11.4551
▁కోడూరు	-11.4555
▁కొమరంభీం	-11.4563
▁మరాఠా	-11.4563
వృత్త	-11.4563
▁నెలకొన్న	-11.4566
▁బాధితుల	-11.4567
గమనం	-11.4568
పండిత	-11.4569
చిత్తూరు	-11.4571
సుందర	-11.4574
▁సృజనాత్మక	-11.4579
▁సిడ్నీ	-11.4579
▁ఈవిడ	-11.4583
▁అవక్షేప	-11.4585
▁విశ్లేషించ	-11.4585
వాహిక	-11.4596
▁years	-11.4596
ko	-11.4597
▁కీటకాల	-11.4598
▁నిరంకుశ	-11.4612
▁లాహోర్	-11.4612
▁స్వచ్ఛమైన	-11.4612
▁ఉత్తర్వు	-11.4614
▁than	-11.4614
▁సదుపాయం	-11.4615
స్కోప్	-11.4616
▁పార్వతీపురం	-11.462
ద్విబంధ	-11.4626
▁డబ్బింగ్	-11.4629
▁పెట్రోలియం	-11.4629
▁పేరొందిన	-11.4629
▁సెకండరీ	-11.4629
▁సోమాలియా	-11.4629
▁మళ్ళి	-11.4634
▁వచ్చిందని	-11.4642
▁దీనివల్ల	-11.4643
▁అదృశ్య	-11.4646
▁జయశంకర్	-11.4646
▁సాయిబాబా	-11.4646
▁డిపార్ట్	-11.4646
▁సమక్షంలో	-11.4646
▁అలాస్కా	-11.4646
▁నిర్మూలించ	-11.4646
fin	-11.465
less	-11.465
▁గ్లూకోజ్	-11.4662
▁గ్లోబల్	-11.4662
▁విరాళాల	-11.4662
▁యెడల	-11.4663
▁యార్క్	-11.4663
3,000	-11.4668
▁ప్రావిన్సు	-11.4679
▁లభ్యమవ	-11.4681
▁వేమన	-11.4683
▁మౌంట్	-11.4684
బలిజ	-11.4693
▁మైనారిటీ	-11.4696
▁యురేపియన్	-11.4696
▁మదనపల్లె	-11.4696
▁సైకిల్	-11.4696
▁మొదలవుతుంది	-11.4697
▁సంపుటి	-11.4697
▁1926	-11.4697
▁హింసాత్మక	-11.4699
▁స్తూప	-11.4699
▁సంస్కార	-11.4699
▁1914	-11.4703
▁తొండ	-11.4704
▁ఎలక్ట్రిక్	-11.4712
▁బాక్టీరియా	-11.4712
▁అశ్వమేధ	-11.4712
▁సరోజ	-11.4716
▁విభజ	-11.4724
▁భాగస్వాముల	-11.4729
▁సుమతీ	-11.4729
▁శిలాజ	-11.4729
▁కేంద్రీకృతమై	-11.4729
▁ప్రశంసించ	-11.4733
▁information	-11.4746
▁పరశురామ	-11.4746
▁సోయాబీన్	-11.4746
▁ఇంటర్వ్యూ	-11.4746
▁సైప్రస్	-11.4746
▁గొట్టం	-11.4746
▁ఇప్పటివరకు	-11.4748
▁1918	-11.4749
▁పెరుగుతాయి	-11.4749
▁చదువుతున్న	-11.475
▁సారంగ	-11.4751
▁ప్రభావము	-11.4755
▁కాలేయ	-11.4762
▁అదృష్ట	-11.4763
▁ఇంకనూ	-11.4763
▁వ్యూహాత్మక	-11.4765
ద్వీప	-11.477
కీర్తి	-11.4774
▁మున్నగు	-11.478
▁నావికా	-11.478
▁ఉచ్ఛ	-11.4781
▁UN	-11.4781
▁స్పష్టం	-11.4782
bha	-11.4783
▁ఇంతవరకు	-11.4784
▁1910	-11.4789
▁చూచ	-11.4795
▁ఛాయాచిత్ర	-11.4796
▁షూటింగ్	-11.4796
కపోవచ్చు	-11.4804
ెన్నో	-11.4807
▁బలరామ	-11.4814
▁బ్రహ్మాండ	-11.4814
▁వినియోగిస్తున్న	-11.4819
▁ట్రస్ట్	-11.4823
▁వెంకటాపురం	-11.4827
ుకొనుటకు	-11.4828
▁మొదలుపెట్టారు	-11.483
▁వాడుతున్నారు	-11.4839
గ్రాఫిక్	-11.484
▁భూలోక	-11.4843
▁తప్పించుకు	-11.4843
▁విషయమై	-11.4847
▁వరాహ	-11.485
▁తత్వవేత్త	-11.485
▁హరిజన	-11.4864
▁నిర్వర్తించ	-11.4864
▁విచ్చేస	-11.4865
▁కల్పిస్తుంది	-11.4877
▁నడక	-11.4881
▁ఐసోటోపు	-11.4881
▁భైంసా	-11.4881
▁గ్రీక్	-11.4882
ార్జున	-11.4891
▁తెచ్చుకున్న	-11.4901
▁తీసుకుంటారు	-11.4902
▁నశించ	-11.4904
▁విండోస్	-11.4915
▁పీఠభూమి	-11.4916
▁ప్రసన్న	-11.4919
▁భస్మ	-11.4919
▁ఒప్పించ	-11.4923
ములందు	-11.4924
▁అందిస్తాయి	-11.4928
▁అసిస్టెంట్	-11.4932
▁మాంచెస్టర్	-11.4932
సైన్య	-11.4932
▁వ్యాఖ్యాత	-11.4935
▁ఇవ్వబడిన	-11.4941
కుంట్ల	-11.4942
ju	-11.4946
▁శిఖరాల	-11.4949
▁కర్తవ్య	-11.495
▁రాబోయే	-11.4956
▁యువరాజు	-11.4962
▁తండా	-11.4966
▁ఊపిరితిత్తుల	-11.4967
▁అమాయక	-11.4967
▁పెరూ	-11.4972
సైడ్	-11.4976
▁ఆకర్షిత	-11.4979
రాబాద్	-11.4981
▁కాంక్రీటు	-11.4984
▁కాలక్రమేణా	-11.4984
▁చిలకలూరిపేట	-11.4984
▁రిజిస్ట్రేషన్	-11.4984
▁లౌకిక	-11.4984
▁స్పటిక	-11.4984
▁అంతేకాదు	-11.4985
▁పట్టాభిషేక	-11.4985
చేసుకున్న	-11.4993
▁అడగ	-11.4998
▁క్రమశిక్షణ	-11.5001
▁చెలరేగ	-11.5001
▁యూరప్	-11.5001
▁స్వాగత	-11.5001
▁అధినేత	-11.5014
▁ఆక్సీకరణ	-11.5018
లేకపోయాడు	-11.5024
▁మనస్తత్వ	-11.5025
సాధన	-11.5026
▁కాళిదాసు	-11.5035
▁రచయిత్రి	-11.5036
▁సుదర్శన	-11.5045
మొత్తం	-11.5046
▁ఆవిర్భావ	-11.5053
▁తృప్తి	-11.5053
▁ఆర్మూర్	-11.5053
▁కట్టుబడి	-11.5055
▁చట్టపరమైన	-11.5056
పరిమాణ	-11.5063
▁న్యాయవాద	-11.5066
మండప	-11.5073
▁దీర్ఘకాలిక	-11.5077
▁వినాశ	-11.5088
▁వీక్షించ	-11.509
▁పద్మశ్రీ	-11.5091
▁ప్రవహిస్త	-11.5097
▁స్థావరాల	-11.5097
▁గవర్న	-11.5097
ఖ్యాత	-11.5097
▁స్వాతంత్య్ర	-11.5101
నక్షత్ర	-11.5104
▁topic	-11.5105
▁బ్రతికి	-11.5111
▁యోధుల	-11.5111
ium	-11.5112
▁సామ్యవాద	-11.5122
▁సమ్మె	-11.5123
▁విభజింప	-11.5136
▁సియాటెల్	-11.514
▁ఇబ్బందుల	-11.5141
▁ఆరుద్ర	-11.5152
▁ఏడుగురు	-11.516
పదార్థాల	-11.5171
▁కలిసే	-11.5173
▁ఐస్లాండ్	-11.5176
చేసాడు	-11.5182
దక్షిణ	-11.5183
▁భూగోళ	-11.5189
▁అసాధ్య	-11.5192
▁చోదక	-11.5193
▁శివరాత్రి	-11.5195
▁ముఖ్యపాత్ర	-11.5199
▁కూలీల	-11.5205
▁డాక్టరేట్	-11.5227
▁పునరుజ్జీవ	-11.5227
▁వివేకానంద	-11.5227
▁నియామక	-11.5227
▁సాధిస్త	-11.523
▁కాశ్మీర	-11.5242
▁అజ్ఞాత	-11.5245
▁వాజపేయి	-11.5245
▁దిగుబడి	-11.5245
▁గల్ఫ్	-11.5246
bit	-11.5249
▁పెట్రో	-11.5252
▁క్షీర	-11.5265
press	-11.5283
▁బాలకృష్ణ	-11.5286
▁చాంపియన్	-11.5298
▁వాయవ్య	-11.5298
▁తణుకు	-11.5298
▁ఏమాత్రం	-11.5298
▁మంత్రిత్వ	-11.5302
▁కొలువై	-11.5303
▁సందర్శన	-11.5308
పద్మ	-11.5321
సాధక	-11.5324
▁కలిగివుండ	-11.5333
▁కిర్గిజిస్తాన్	-11.5334
▁జహీరాబాద్	-11.5334
▁శాస్త్రజ్ఞులు	-11.5334
▁మోటారు	-11.5334
▁కెన్యా	-11.5335
▁గడియార	-11.5335
ాన్సీ	-11.5346
▁చెప్పుకోవచ్చు	-11.536
▁ప్రావీణ్య	-11.5369
▁పూర్తిస్థాయి	-11.5378
▁సేలం	-11.5384
adv	-11.5385
▁జనసాంద్రత	-11.5387
▁సెంచరీ	-11.5387
▁భగత్	-11.5387
▁అనువుగా	-11.5388
▁స్కోర్	-11.5389
ship	-11.5393
▁గాయకులు	-11.5401
▁జగద	-11.5404
▁నెరవేర్చ	-11.5406
▁నెయ్యి	-11.5406
▁సూర్యనారాయణ	-11.5407
▁తెలియజేయ	-11.5408
▁వర్షాకాల	-11.5412
light	-11.5414
▁నరసాపురం	-11.5421
▁సోషల్	-11.5423
ద్దీన్	-11.5424
▁విరమించ	-11.5425
▁పెరుగుతూ	-11.5427
▁కుమారస్వామి	-11.5428
▁అరబ్బు	-11.5429
▁పేపర్	-11.5433
ిస్టులు	-11.5438
▁సెక్యూరిటీ	-11.5441
▁కూర్పు	-11.5442
▁ముడిపడి	-11.5447
ానంతర	-11.5449
▁రాణించ	-11.5454
▁చేనేత	-11.546
▁made	-11.5461
గలిగింది	-11.5463
▁మిగిల	-11.5463
ttle	-11.5468
▁ద్రావణం	-11.5468
▁ఎందుక	-11.547
▁పార్లమెంటరీ	-11.5477
▁స్టీఫెన్	-11.5477
▁మధుమేహ	-11.5477
▁గురువారం	-11.5477
▁వాహకనౌక	-11.5477
▁షరతు	-11.5479
▁పొడిగించ	-11.548
ఆధారిత	-11.5493
▁ఈజిప్ట్	-11.5495
▁ముంబయి	-11.5495
▁మలచ	-11.5497
▁పొందుతున్న	-11.5503
▁ఆశ్రయించ	-11.5507
పెనమలూరు	-11.5513
▁ఉంగుటూరు	-11.5513
▁మహబూబాబాద్	-11.5513
▁శ్మశాన	-11.5513
▁వారణాసి	-11.5513
▁ప్రోగ్రాం	-11.5513
▁మమ్మీ	-11.5514
▁సాగుతుంది	-11.5515
▁ఉత్ప	-11.5524
vid	-11.5527
background	-11.5531
▁రికార్డింగ్	-11.5532
▁space	-11.5532
▁శ్లోకం	-11.5532
▁ఆస్ట్రియా	-11.5532
▁సెకన్ల	-11.5535
▁పాలియోలిథికు	-11.555
▁క్షేమ	-11.555
▁house	-11.555
▁జగన్నాధ	-11.555
lect	-11.5557
put	-11.5566
▁cause	-11.5568
▁హయాంలో	-11.5568
ఫార్మ	-11.5571
జేశారు	-11.5578
లేకపోయారు	-11.5578
సంబంధిత	-11.5579
▁నిలవ	-11.5581
position	-11.5586
▁ఎదుర్కొంటున్న	-11.5587
▁గెలుచ	-11.5588
▁శివుడి	-11.5597
▁1,6	-11.5606
▁క్రీడాకారుడు	-11.5606
▁ముఖద్వార	-11.5606
▁తిథి	-11.5615
SI	-11.5631
▁water	-11.5641
▁తీసుకోవాలి	-11.5641
▁బాంబే	-11.5641
▁తరిమి	-11.5642
▁రాయితీ	-11.5647
▁సమ్మతి	-11.5648
ప్రథమ	-11.5652
▁భవిష్యత్	-11.5655
▁అభినయ	-11.5661
నిరోధక	-11.5662
వారిపల్లె	-11.5663
ull	-11.5664
నౌక	-11.5668
▁పట్టించుకో	-11.5674
▁పేర్కొంటారు	-11.5678
▁గాంచింది	-11.5678
▁వేగవంతం	-11.5679
ock	-11.5684
▁మరోసారి	-11.5687
vel	-11.5694
▁when	-11.5696
▁భూపాలపల్లి	-11.5697
▁రోజులపాటు	-11.5701
▁మొదలయిన	-11.5701
▁number	-11.5715
▁నిర్వచనము	-11.5715
▁ప్రాచ్య	-11.5715
▁వాసుదేవ	-11.5716
తక్కువ	-11.5716
▁అరబ్బీ	-11.5717
▁వర్తించ	-11.5719
▁శ్రీనివాసరావు	-11.5722
చోట్ల	-11.5728
▁దేవేంద్ర	-11.573
▁సమృద్ధి	-11.5733
▁టెక్సాస్	-11.5733
▁ప్రోటీన్	-11.5733
▁గంభీర	-11.5734
▁సారవంతమైన	-11.5735
▁పొందుపరచ	-11.5735
▁నిదర్శనం	-11.5736
▁కోల్పోయింది	-11.5742
ుకొంటారు	-11.5746
▁అభ్యుదయ	-11.5752
▁గమనార్హం	-11.5752
▁రాజమహేంద్రవరం	-11.5752
▁శ్రావణ	-11.5752
▁మేనేజర్	-11.5752
▁అంతకుముందు	-11.5753
▁కిరణాలు	-11.5756
▁సంరక్షించ	-11.5768
▁ప్యూర్టో	-11.5771
▁దశరథ	-11.5771
▁సీరియల్	-11.5774
▁రూరల్	-11.5775
▁సమయాలలో	-11.5783
▁ఖరీదైన	-11.5789
▁ధ్వజస్తంభ	-11.5789
▁హంగేరి	-11.5789
▁కారాగార	-11.579
▁సంభోగ	-11.579
వృద్ధి	-11.579
బ్రాహ్మణ	-11.5791
▁కలుషిత	-11.5808
▁ప్రతిరోజూ	-11.5808
▁విస్ఫోట	-11.5808
▁తాడికొండ	-11.5808
▁చక్రవర్తుల	-11.5808
▁పండిట్	-11.5809
▁అన్వయ	-11.5809
సాగింది	-11.581
▁లేకపోతే	-11.5814
▁గజపతి	-11.5831
▁అధికారంలోకి	-11.5835
▁లావాదేవీ	-11.5845
▁కమ్యూనికేషన్	-11.5845
▁చదివారు	-11.5845
▁హెచ్చరించ	-11.5846
▁5334	-11.5848
▁శారదా	-11.5852
▁ఫ్యాక్టరీ	-11.5864
▁about	-11.5864
▁మట్టానికి	-11.5864
ఊ	-11.5867
ible	-11.5873
▁గెలాక్సీ	-11.5883
▁ఫోటోగ్రఫీ	-11.5883
▁ధర్మనందనా	-11.5883
▁బృహత్తర	-11.5883
▁శూద్ర	-11.5883
▁ప్రదేశానికి	-11.5883
▁వలసదారుల	-11.5884
▁మెరుపు	-11.5884
▁విష్ణుమూర్తి	-11.5886
పర్వత	-11.5889
▁ఏర్పడ్డ	-11.5899
▁బారిన	-11.5903
▁గర్భగుడి	-11.5903
▁కదిరి	-11.5903
చేస్తున్న	-11.5904
▁him	-11.5907
▁మిగుల	-11.5917
▁పరిమితుల	-11.5917
▁ఇంచుమించు	-11.592
బడుచున్న	-11.5924
▁పడగొట్ట	-11.5926
▁కళాత్మక	-11.5929
ుకొంది	-11.5932
▁ఆస్ట్రేలియన్	-11.5939
▁మునిసిపల్	-11.5939
▁మైక్రోసాఫ్ట్	-11.5939
▁కెనడియన్	-11.5939
▁ఎదిరించ	-11.594
▁మంగోలియా	-11.594
▁హుకుంపేట	-11.5958
▁తాత్విక	-11.5958
మహిష	-11.5973
▁తెలియజేస్తు	-11.5976
▁అభిరుచి	-11.5977
▁కంట్రోల్	-11.5977
▁మెరుగుపరచ	-11.598
▁కనుమల	-11.5987
▁మాతృభాష	-11.5989
▁appears	-11.5996
▁కార్యనిర్వాహక	-11.5996
▁గుంతకల్లు	-11.5996
▁ఫుడ్	-11.5999
▁నిర్వచనం	-11.6002
com	-11.6012
▁జనాదరణ	-11.6015
▁డయాక్సైడ్	-11.6016
భగవానుడ	-11.6026
ెక్కడ	-11.6029
▁సాధ్యపడ	-11.6033
▁గంగాధర	-11.6034
▁నైజీరియా	-11.6034
▁ఫ్రాన్సిస్కో	-11.6037
▁దెబ్బతిన్న	-11.6038
గ్రహణం	-11.6045
▁ఇథియోపియా	-11.6054
▁లిథువేనియా	-11.6054
▁సంతరించుకుంది	-11.6054
▁హనుమంతరావు	-11.6054
▁బృహస్పతి	-11.6054
▁క్లిష్ట	-11.6067
▁period	-11.6073
▁అచ్చంపేట	-11.6074
▁పెడతారు	-11.6077
▁between	-11.6111
▁high	-11.6111
▁సారూప్య	-11.6111
▁శ్రేయ	-11.6112
పహాడ్	-11.6113
▁తెలియజేస్తుంది	-11.6114
▁క్లోరిన్	-11.6131
▁నియమించబడ్డాడు	-11.6134
•	-11.6137
ిద్దరి	-11.6145
▁పల్లవుల	-11.6147
▁ఇండస్ట్రీ	-11.615
▁హెచ్చరిక	-11.615
▁ప్రకాష్	-11.615
▁ఉదహరించ	-11.615
▁హర్ష	-11.6151
నాట్య	-11.6153
▁5332	-11.6154
▁విశ్వనాధ	-11.6154
▁విద్యార్ధుల	-11.6155
షైర్	-11.6166
▁కనిష్ఠ	-11.6169
▁స్థితిగతుల	-11.617
▁ద్రవిడ	-11.6175
▁కూర్చున్న	-11.6177
శుద్ధి	-11.6183
▁వేణుగోపాల	-11.6188
▁ఆసుపత్రుల	-11.6188
▁కంభం	-11.6189
▁యాభై	-11.6192
ుతుంటే	-11.6194
▁మాదిరి	-11.6195
బృంద	-11.6196
బోతున్న	-11.6197
▁తయారుచేస్తారు	-11.6208
▁ఇన్నింగ్స్	-11.6208
▁సువార్త	-11.6208
▁స్వప్న	-11.621
▁లిబియా	-11.6211
▁సారథి	-11.6212
▁గంగానది	-11.6213
▁కోణాల	-11.6222
▁మిసిసిపీ	-11.6227
▁పూర్తయిన	-11.6227
▁ఢీ	-11.6229
▁శంకరాచార్య	-11.6244
▁people	-11.6247
▁అల్పసంఖ్యాక	-11.6247
▁దృక్పథ	-11.6247
▁రెస్టారెంట్	-11.6247
ననుసరించి	-11.6247
▁లక్ష్మీదేవి	-11.6252
▁give	-11.6253
▁ఉదయగిరి	-11.6269
▁కోయిల	-11.6271
6,000	-11.6275
ఉంటుంది	-11.628
▁విశద	-11.628
▁ఇబ్రహీం	-11.6285
▁large	-11.6286
▁ఫెడరేషన్	-11.6286
▁ప్రసిద్ధిచెందిన	-11.6286
▁వధువు	-11.6286
▁అనుభూతి	-11.6286
▁అడ్డతీగల	-11.6306
▁దూరదర్శన్	-11.6306
▁బద్వేలు	-11.6306
▁తెప్పించ	-11.6308
▁క్రమబద్ధ	-11.6309
▁విశ్వసిస్తున్న	-11.631
lass	-11.6317
వెంట	-11.6324
▁అలహాబాద్	-11.6325
▁గురుత్వాకర్షణ	-11.6325
▁ఉగ్రవాద	-11.6325
▁కనుమరుగ	-11.6325
ోద్యోగ	-11.6327
▁ఫొటో	-11.6329
▁తుర్క	-11.6332
▁కాంస్య	-11.6332
▁ఫుల్	-11.6333
రచయిత	-11.6334
0°	-11.6339
▁కొల్లిపర	-11.6345
▁బ్యాంకింగ్	-11.6345
▁సీరీస్	-11.6345
రోహిణి	-11.6345
▁పక్షము	-11.6346
▁long	-11.6347
▁కప్పబడి	-11.6365
▁ప్రళయ	-11.6366
▁ట్యాంకు	-11.6367
▁సంక్రమించ	-11.6367
▁పుష్పించే	-11.638
▁సొరంగ	-11.638
▁శిబిరాల	-11.6385
▁సరియైన	-11.6387
▁సెకండ్	-11.6387
▁పట్టుదల	-11.6392
వ్యాధుల	-11.6394
దృష్టి	-11.6396
▁సుభాష్	-11.6404
▁దేవరకొండ	-11.6404
▁అరవింద	-11.6406
▁కుమారుడి	-11.6415
పాదిస్తున్నారు	-11.642
▁మహావిష్ణువు	-11.6424
▁లంబాడీ	-11.6424
▁మార్షల్	-11.6424
▁called	-11.6444
▁పొన్నూరు	-11.6444
▁శోధన	-11.6444
▁హర్యానా	-11.6444
▁జోగులాంబ	-11.6464
▁తాడిపత్రి	-11.6464
▁మిలిటరీ	-11.6464
▁మధ్యధరా	-11.6464
ిస్తానని	-11.6465
▁దండెత్తి	-11.6468
▁ఐశ్వర్య	-11.6484
▁సత్తెనపల్లి	-11.6484
▁నలభై	-11.6484
▁నిరాకరణ	-11.6484
error	-11.6485
▁జరిగ	-11.6492
▁కజకస్తాన్	-11.6504
▁రమేష్	-11.6504
▁భేదం	-11.6521
▁సత్కార	-11.6522
▁image	-11.6524
▁సర్పంచ్	-11.6524
▁గువేరా	-11.6524
▁సన్నివేశాల	-11.6541
▁ముంచింగిపుట్టు	-11.6544
▁ఏజెన్సీ	-11.6544
▁నిమగ్న	-11.6544
▁ఆళ్వారు	-11.6544
▁ఎస్టేట్	-11.6544
▁‘‘	-11.6545
▁జరిగిందని	-11.6547
ాగారం	-11.6553
▁పక్షాల	-11.6554
▁దురదృష్ట	-11.6564
▁ఊపిరి	-11.6564
▁తోడేళ్ళ	-11.6566
▁వ్యర్ధ	-11.6566
▁ఉద్దేశ్య	-11.6577
▁స్క్వేర్	-11.6584
▁ధనవంత	-11.6585
▁సార్వ	-11.6589
▁ద్వాదశ	-11.6604
ఉపయోగించబడుతుంది	-11.6605
▁డిస్ట్రిక్	-11.6605
▁ఇదొక	-11.6612
సమాజ	-11.662
▁ముస్లిముల	-11.6623
▁సికింద్రాబాదు	-11.6625
▁పారదర్శక	-11.6625
▁యక్షగాన	-11.6625
▁ఆస్పత్రి	-11.6625
▁సామగ్రి	-11.6625
▁రొట్టె	-11.6626
▁తొలగింపు	-11.6626
▁మల్లికార్జున	-11.6645
▁మురళీ	-11.6645
▁పింగళి	-11.6645
ోత్పత్తి	-11.6645
▁కంబోడియా	-11.6665
▁ఫ్యూర్టో	-11.6665
▁బుధవారం	-11.6665
▁మైఖేల్	-11.6665
▁చవిచూ	-11.6665
లాజికల్	-11.6665
▁చతురస్ర	-11.6666
▁అధిష్టించ	-11.6666
▁తీసుకెళ్ల	-11.6666
▁కశ్యప	-11.6667
▁ధూళి	-11.6686
▁కొయ్యూరు	-11.6686
▁ఫ్లోరైడ్	-11.6686
▁విత్తిన	-11.6687
▁కత్తిరించ	-11.669
పరిగణించబడుతుంది	-11.6691
▁టైగర్	-11.6691
▁ఒకరైన	-11.6693
▁న్యూఢిల్లీ	-11.6706
▁పెదకాకాని	-11.6706
▁గుండెపోటు	-11.6706
▁ఉయ్యాలో	-11.6706
▁కదిలే	-11.6708
భారతదేశ	-11.6711
వాహక	-11.6714
▁నిర్ణయించుకున్న	-11.6724
▁పాలకొల్లు	-11.6726
▁ప్రతాపరుద్ర	-11.6726
దలచ	-11.674
▁word	-11.6747
▁గ్రౌండ్	-11.6747
▁కింగ్డమ్	-11.6747
▁తపాలా	-11.6747
▁మెప్పించ	-11.6756
▁సైన్సెస్	-11.6767
▁కళాఖండాల	-11.6769
▁కలుగజేస	-11.6773
▁1,8	-11.6774
▁అనురాగ	-11.6775
▁రైల్వేస్టేషను	-11.6788
▁పటిష్ఠ	-11.6788
▁హేతువాద	-11.6788
▁ఉగాది	-11.679
▁ఉదజని	-11.6809
▁చీల్చ	-11.6825
▁హతమార్చ	-11.683
▁కురుక్షేత్ర	-11.6831
▁పనిముట్ల	-11.684
▁చోటుచేసుకు	-11.6846
▁సులువుగా	-11.685
▁అన్నదమ్ముల	-11.685
▁ఇత్తడి	-11.685
▁నౌకాదళ	-11.6851
▁ఏమైనా	-11.6852
పరీక్ష	-11.6867
HTML	-11.6871
▁చిరునామా	-11.6871
▁భాజపా	-11.6871
▁సనాతన	-11.6871
▁బ్యూరో	-11.6871
▁సిల్వర్	-11.6871
▁అపూర్వ	-11.6872
తర్వాత	-11.6888
డిసెంబరు	-11.6888
▁బతిక	-11.6889
▁తుంగభద్ర	-11.6892
▁ప్రాదేశిక	-11.6892
▁ఎనర్జీ	-11.6892
▁నలుమూలల	-11.6892
▁అతీత	-11.6893
▁రిజర్వేషన్	-11.6912
▁అధిరోహించ	-11.6912
▁విమోచన	-11.6912
▁కరాచీ	-11.6912
▁తెలప	-11.6912
▁పిలిపించ	-11.6913
▁అహంకార	-11.6913
▁జానకి	-11.6914
విద్యుత్	-11.6925
▁ఫ్లోరిడా	-11.6933
▁కుమ్మరి	-11.6934
▁ద్రావ	-11.6937
▁మాధ్యమాల	-11.6954
▁మంత్రిత్వశాఖ	-11.6955
▁సూచిస్తాయి	-11.6957
వయసు	-11.6974
▁సెక్రటరీ	-11.6975
▁రక్తపోటు	-11.6975
▁స్కాటిష్	-11.6975
▁ప్రాధమిక	-11.6975
▁పరమపదించ	-11.6976
▁పేటెంట్	-11.6976
▁తిరుగుబాటుదారుల	-11.6993
▁ఇంగ్లండు	-11.6996
▁లెబనాన్	-11.6996
▁పురాతత్వ	-11.6996
▁పనిచేస్తాయి	-11.7017
▁తీశారు	-11.7021
చేసుకో	-11.7023
▁కాల్పనిక	-11.7038
▁గడువు	-11.7039
▁చుట్టుముట్ట	-11.7039
ాశ్రయ	-11.7048
▁సల్ఫైడ్	-11.7059
▁తీసుకెళ్ళ	-11.706
▁హీరోయిన్	-11.706
▁బురుజు	-11.7081
▁పదకొండు	-11.7081
▁గుజ్జు	-11.7081
సృష్టి	-11.7085
సరిహద్దు	-11.7101
▁where	-11.7102
▁పరిశుభ్ర	-11.7102
▁శైలుల	-11.7102
▁డైరక్ట	-11.7103
▁బెర్లిన్	-11.7104
▁చేకూర	-11.7112
▁మొదలుపెట్టాడు	-11.7123
▁దృష్ట్యా	-11.7123
▁criteria	-11.7144
▁formatt	-11.7144
▁కామన్వెల్త్	-11.7144
▁ఏర్పరుచు	-11.7145
▁copie	-11.7146
▁విద్యావంతుల	-11.7147
▁చుండూరు	-11.7166
▁శ్రోతల	-11.7166
▁పదిహేను	-11.7166
▁భృగు	-11.7166
▁గుర్రపు	-11.7166
▁రుజువు	-11.7166
వస్తువు	-11.7166
▁మాసపత్రిక	-11.7167
▁మూసివేయ	-11.7168
▁అమృతలూరు	-11.7168
▁నైపుణ్యాల	-11.7169
▁మైదానాల	-11.717
▁వెన్నెల	-11.7175
▁చురుకైన	-11.7187
▁కాంగ్రేసు	-11.7187
▁కలుసుకున్న	-11.7187
▁సమర్థవంతంగా	-11.7188
▁meets	-11.7209
▁suited	-11.7209
▁రిపబ్లికన్	-11.7209
▁హైస్కూల్	-11.7209
పౌర	-11.722
▁కమ్యూన	-11.7228
▁మరికొంత	-11.723
▁హైడ్రాక్సైడ్	-11.723
▁విసిరి	-11.7232
▁విఠల	-11.7246
▁ఫిరంగి	-11.7252
హెక్ట	-11.727
▁కుళాయి	-11.7272
▁మరికొందరు	-11.7273
▁through	-11.7295
▁డిప్యూటీ	-11.7295
▁పుష్కలంగా	-11.7295
▁లైసెన్స్	-11.7295
▁యవ్వన	-11.7296
▁పారాయణ	-11.7296
▁విపుల	-11.7297
▁ఓటర్ల	-11.7301
▁dictionary	-11.7317
▁లిఖిత	-11.7317
▁స్వస్థలం	-11.7317
▁చైర్మన్	-11.7318
▁లక్ష్మీనారాయణ	-11.7319
భరణి	-11.7324
ింగ్టన్	-11.733
ology	-11.7338
▁ఇంజినీరింగ్	-11.7338
▁న్యూజిలాండ్	-11.7338
▁శివరావుగారి	-11.7338
▁బురద	-11.7339
▁టెర్మినల్	-11.736
▁వీరేశలింగం	-11.736
▁సంతానోత్పత్తి	-11.736
▁పరిశోధించ	-11.7361
▁నామమాత్ర	-11.7361
▁ఉసిరి	-11.7362
▁భంగం	-11.7364
▁మద్యపాన	-11.7364
పోరాట	-11.7375
▁ఆనవాయితీ	-11.7382
▁మేడికొండూరు	-11.7382
▁రెహమాన్	-11.7382
▁అంత్యక్రియల	-11.7382
▁పొదిలి	-11.7382
▁ఆఫీస్	-11.7383
ప్రమాణ	-11.7385
▁గెలవ	-11.739
▁లక్ష్మ	-11.7401
▁extend	-11.7404
▁నిలిచాయి	-11.7404
ోగ్రఫీ	-11.7415
▁దొరికే	-11.742
▁బతుకు	-11.742
▁appropriately	-11.7426
▁కంచికచర్ల	-11.7426
▁మెమోరియల్	-11.7426
▁అమ్మోనియా	-11.7426
▁పరిగణనలోకి	-11.7426
▁లక్ష్మీనరసింహ	-11.7426
▁చైత్ర	-11.7426
▁తేజస్సు	-11.7427
▁పేలుడు	-11.7427
▁వంశీయుల	-11.7431
ుతుంటుంది	-11.7447
▁రుగ్మత	-11.7448
▁follow	-11.7448
▁ప్రొఫెషనల్	-11.7448
▁వామపక్ష	-11.7448
▁బెంగాలు	-11.745
▁కుబేర	-11.7451
▁రెండేళ్ళ	-11.7471
▁దాఖలు	-11.7492
▁చదరంగ	-11.7497
▁ఔత్సాహిక	-11.7514
▁నామవాచక	-11.7514
▁నిర్ణీత	-11.7514
▁సరిదిద్ద	-11.7514
▁కేదార	-11.7536
▁క్రమేణా	-11.7536
lock	-11.7541
▁ప్రవహిస్తున్న	-11.7548
▁యునెస్కో	-11.7558
▁శాస్త్రజ్ఞుడు	-11.7558
▁కమీషన్	-11.7558
వలసిందిగా	-11.756
ఆషాఢ	-11.756
▁నర్సాపూర్	-11.7561
▁అనవసర	-11.7564
▁షెడ్యూల్	-11.7567
▁నరసన్నపేట	-11.7581
▁వెదజల్ల	-11.7581
▁అపురూప	-11.7581
▁హ్యూస్టన్	-11.7581
▁త్రిమూర్తుల	-11.7583
▁వికిరణ	-11.7598
క్రింద	-11.76
▁వారణాశి	-11.7603
▁అంటరాని	-11.7603
▁ఆఖరు	-11.7604
▁స్క్రిప్ట్	-11.7625
▁నారింజ	-11.7626
▁ముందస్తు	-11.7627
▁విదేశీయుల	-11.763
నిర్వహణ	-11.7631
▁సంతృప్త	-11.7632
▁ఈజిప్షియన్	-11.7648
▁ఎగ్జిక్యూటివ్	-11.7648
▁ఎడ్యుకేషన్	-11.7648
▁తంజావూరు	-11.7648
▁ఛేదించ	-11.7648
▁జస్టిస్	-11.7648
▁వర్తమాన	-11.7648
▁లినక్స్	-11.7648
▁ప్రకాశవంతమైన	-11.7649
▁తుపాకీ	-11.767
▁నాణ్యమైన	-11.767
▁పౌరసత్వం	-11.767
▁నావికుల	-11.7671
▁నక్సల	-11.7672
▁imp	-11.769
▁ఇందిర	-11.769
▁would	-11.7693
▁ఎనిమిదవ	-11.7693
▁మిలన్	-11.7695
gree	-11.7697
▁అలహాబాదు	-11.7715
▁చెప్పుకోదగ్గ	-11.7715
▁వ్యభిచార	-11.7715
▁human	-11.7715
▁స్పెషల్	-11.7715
▁మిలటరీ	-11.7715
భూముల	-11.7716
శాస్త్రజ్ఞుల	-11.7722
▁కుడ్య	-11.7729
▁మార్కండేయ	-11.7738
▁వితంతు	-11.7738
▁లభ్యం	-11.7739
▁మిడిల్	-11.774
▁ముచ్చట	-11.7742
▁అధ్యాయం	-11.7761
▁తారీఖు	-11.7761
▁టిబెటన్	-11.7761
▁నిజాయితీ	-11.7761
▁వారిద్దరి	-11.7762
ురాలైన	-11.7768
▁పానీయాల	-11.7771
Sh	-11.7782
▁ప్రజాభిప్రాయ	-11.7783
▁ఇండెక్స్	-11.7783
▁కేన్సర్	-11.7783
▁Hindu	-11.7784
▁పోలవరం	-11.7785
▁అభ్యంతర	-11.7806
▁అధునాతన	-11.7806
▁పులివెందుల	-11.7806
▁హాలీవుడ్	-11.7806
▁ఛాంపియన్షిప్	-11.7806
▁వేడెక్క	-11.7806
▁కోనేరు	-11.7807
▁ఆకృతుల	-11.7828
▁విరాళం	-11.7829
తాత్పర్యం	-11.7852
థెరపీ	-11.7852
▁వట్టిచెరుకూరు	-11.7852
▁మటుకు	-11.7853
▁చెవుల	-11.7858
సంతనూతలపాడు	-11.7875
▁ఎమ్మెల్యే	-11.7875
▁విద్యుదయస్కాంత	-11.7875
▁కలియుగ	-11.7875
▁ఉపఖండంలో	-11.7875
▁జపనీస్	-11.7898
▁చోడవరం	-11.7898
▁ఫిన్నిష్	-11.7898
▁మనుష్యుల	-11.7898
▁అయోమయ	-11.7898
▁సమర్థవంతమైన	-11.7899
▁స్టోర్	-11.7906
లోకెల్లా	-11.7907
▁దెబ్బతిన	-11.7909
▁ఇనిస్టిట్యూట్	-11.7921
▁న్యూక్లియర్	-11.7921
▁వారందరి	-11.793
▁శోక	-11.7936
▁యురేనియం	-11.7944
▁బ్రయంట్	-11.7944
▁ఇమామ్	-11.7944
ాస్పద	-11.7948
▁కాడ్మియం	-11.7967
▁వెన్నెముక	-11.7967
▁తక్కిన	-11.7967
▁South	-11.7967
పాఠశాల	-11.7978
▁LED	-11.799
▁ఔరంగజేబు	-11.799
▁కందుకూరి	-11.799
▁నైట్రోజన్	-11.799
▁సారస్వత	-11.7991
▁ఆస్టిన్	-11.7991
▁దేవుళ్ళ	-11.8007
▁century	-11.8014
▁either	-11.8014
▁అమితాబ్	-11.8014
▁స్పోర్ట్స్	-11.8014
▁ట్యూబ్	-11.8014
▁ఇక్ష్వాకు	-11.8037
▁డాక్యుమెంటరీ	-11.8037
▁పునరుత్పత్తి	-11.8037
▁కంకిపాడు	-11.8037
▁కొలిచే	-11.8038
▁భట్టిప్రోలు	-11.806
▁కరెన్సీ	-11.806
▁డబ్ల్యు	-11.806
▁వయోజన	-11.806
▁అరెస్ట	-11.8076
▁నమః	-11.8084
▁వర్తిస్తుంది	-11.8084
▁రాజభవన	-11.8084
▁పరిమళ	-11.8084
గింజల	-11.8087
స్వాతంత్ర్యోద్యమ	-11.8105
▁క్రీస్తుపూర్వం	-11.8107
▁యురోపియన్	-11.8107
గౌరవ	-11.812
▁ఘట్టం	-11.812
▁పరిశుద్ధ	-11.8122
|-|	-11.8131
▁world	-11.8154
▁విశ్వసనీయ	-11.8154
▁బైబిలు	-11.8154
▁కళారూపాల	-11.8159
జెంట	-11.8165
▁వరుణ	-11.8166
▁విముక్త	-11.8174
▁అప్లికేషన్	-11.8178
▁సామాగ్రి	-11.8178
▁శిరస్సు	-11.8178
▁వైజ్ఞానిక	-11.8178
▁వేరువేరు	-11.8178
▁స్టెయిన్	-11.8179
▁పాండ్య	-11.8179
సదుపాయ	-11.8185
విధానాల	-11.8192
▁భోజ	-11.8201
▁నెంబరు	-11.8202
▁లెనిన్	-11.8203
▁జాతక	-11.8215
ాతీత	-11.8223
▁శృంగవరపుకోట	-11.8225
ాంజనేయ	-11.8225
▁సంస్థానాధీశుల	-11.8225
▁గుజరాతీ	-11.8249
▁మున్సిపల్	-11.8249
▁రాజశేఖరరెడ్డి	-11.8249
▁ముగిసే	-11.825
▁చైర్	-11.8273
▁ఒడంబడిక	-11.8273
▁కొత్తవీధి	-11.8273
▁ఆఫీసర్	-11.8273
▁కలిగివుంటాయి	-11.8273
▁ఉక్రెయిన్	-11.8297
▁స్పర్శ	-11.8297
▁విభేదాలు	-11.8297
self	-11.8299
graph	-11.83
పరిశ్రమ	-11.8312
▁తైమూర్	-11.8321
Telugu	-11.8321
▁బిరుద	-11.8323
ఏప్రిల్	-11.8337
సాగాయి	-11.8337
కలహాల	-11.8342
▁కలెక్టరు	-11.8345
▁స్పృహ	-11.8345
▁ప్రత్యర్థుల	-11.8345
గ్రాహక	-11.835
Google	-11.8369
▁సమరయోధుడు	-11.8369
▁పామర్రు	-11.8369
▁ఆలపించ	-11.8371
▁రాత్రుల	-11.8377
▁బెరీలియం	-11.8393
▁క్లుప్తంగా	-11.8417
▁వగైరా	-11.8417
▁శ్రీకృష్ణదేవరాయ	-11.8417
▁great	-11.8418
▁మేధావుల	-11.8418
▁కొనియాడ	-11.8419
▁ఇచట	-11.8433
▁మాంసాహార	-11.8442
▁సర్క్యూట్	-11.8442
▁అసంఖ్యాక	-11.8466
▁స్వయంప్రతిపత్తి	-11.8466
▁పిలిచారు	-11.8466
ాధీశ	-11.847
▁ఘట్టాల	-11.8482
▁సేవలందిస్త	-11.8485
▁group	-11.849
▁వెలువడ్డాయి	-11.849
▁అడ్డంకుల	-11.8506
▁నెరవేర	-11.8514
▁పెనుగంచిప్రోలు	-11.8515
▁బెల్జియం	-11.8515
పద్ధతి	-11.8533
▁ఇంజనీరు	-11.8539
▁బాష్పీభవన	-11.8539
▁సమూహము	-11.854
▁రప్పించ	-11.8548
▁ఆపాదించ	-11.855
▁బహిష్కరణ	-11.8564
▁during	-11.8564
▁ఆస్కార్	-11.8565
▁సృజ	-11.8565
▁సంపుటాల	-11.8567
▁వెంకటరమణ	-11.8589
▁వర్ధిల్ల	-11.8589
▁భేదాలు	-11.8594
▁పూరించ	-11.8604
▁నెపోలియన్	-11.8613
▁అభయారణ్యం	-11.8613
▁క్రమేపీ	-11.8613
▁అధ్యాయాల	-11.8613
▁పలుమార్లు	-11.8613
▁పరిశోధకుడు	-11.8638
▁యూనివర్స	-11.8638
▁ఆజాద్	-11.8638
▁శేఖర్	-11.8639
వైకల్య	-11.8657
▁మూలికల	-11.8658
▁పెరిగాయి	-11.8663
హైడ్రేట్	-11.8664
▁చేకూర్చ	-11.8665
▁ఆసిఫాబాద్	-11.8688
▁లాట్వియా	-11.8688
▁యంత్రాంగం	-11.8688
▁లబ్ధ	-11.8696
▁చెన్నకేశవ	-11.8713
▁డొమినికన్	-11.8713
ఫికేషన్	-11.8713
▁show	-11.8713
▁పెరుమాళ్	-11.8713
▁మసాలా	-11.8713
▁ఐవరీ	-11.8713
▁క్షితిజ	-11.8738
▁పెనాంగ్	-11.8738
▁తెల్లవార	-11.8748
సూచక	-11.8749
‘	-11.8758
మహర్షి	-11.8759
▁బ్రాహ్మ	-11.8762
▁small	-11.8763
▁అభ్యర్థన	-11.8763
▁పరీవాహక	-11.8763
▁తృతీయ	-11.8763
▁కలుస్తుంది	-11.8763
▁లియోనె	-11.8764
▁ప్రసిద్ద	-11.8766
▁ఏంజలెస్	-11.8788
▁కృతజ్ఞత	-11.8788
▁ఫిలిప్పీన్స్	-11.8788
▁వశిష్ఠ	-11.8788
▁క్షమించ	-11.8813
▁అలవాట్ల	-11.8817
▁ఆటగాళ్ల	-11.8818
▁సుజాత	-11.883
7,000	-11.8835
▁ఆజ్ఞాపించ	-11.8838
▁సూళ్ళూరుపేట	-11.8838
▁బంతుల	-11.8846
▁ఓడిపోయాడు	-11.8864
▁చెపుతారు	-11.8864
▁బెరడు	-11.8864
ుకోవాల్సి	-11.8865
▁అచట	-11.8873
▁మిరియాల	-11.8882
ఆగస్టు	-11.8887
▁ఫిలింఫేర్	-11.8889
▁సారథ్యం	-11.8889
▁center	-11.8889
8,000	-11.8913
▁కర్పూర	-11.8915
▁సత్యభామ	-11.8915
▁పురోహిత	-11.894
▁తరుణంలో	-11.894
▁ఆర్జించ	-11.8959
వ్యతిరేక	-11.8965
▁తనిఖీ	-11.8966
▁గురజాడ	-11.8966
▁చైల్డ్	-11.8966
▁ప్రసరణ	-11.8966
▁ఖతార్	-11.8966
▁స్కంద	-11.8968
మొట్టమొదటిసారిగా	-11.8968
▁కార్పోరేషన్	-11.8991
▁శృంగేరి	-11.8991
లక్ష్మమ్మ	-11.9009
▁ఉరుము	-11.9011
▁పౌనఃపున్య	-11.9017
▁అప్పుడప్పుడూ	-11.9043
▁కళాకారిణి	-11.9043
▁శంకుస్థాపన	-11.9043
▁రాజనీతి	-11.9043
▁నిలకడ	-11.9043
▁నకిలీ	-11.9044
ాధ్యయన	-11.9047
▁ఎకనామిక్	-11.9068
▁కల్వకుర్తి	-11.9068
▁ఇదంతా	-11.9069
▁భూస్వాముల	-11.9069
▁సంఘటిత	-11.9069
idae	-11.9069
▁పునరావృత	-11.9072
▁క్షీరదాల	-11.9077
▁దుకాణాల	-11.9094
▁language	-11.9094
▁ఉల్లంఘన	-11.9094
▁మున్సిపాలిటీ	-11.9094
▁అనుయాయుల	-11.9094
▁బృందావన	-11.9095
▁పరిశోధకుల	-11.9107
▁స్వీడిష్	-11.912
▁విఫణి	-11.912
▁రిజర్వు	-11.912
▁నిడివి	-11.9121
▁పిలుచు	-11.9129
▁లీటర్ల	-11.9133
ఛత్తీస్	-11.9146
▁అథారిటీ	-11.9146
▁ద్రవ్యోల్బణ	-11.9146
▁రేడియోధార్మిక	-11.9146
▁శిలీంధ్ర	-11.9146
▁సానుకూల	-11.9146
హిందూ	-11.9148
▁అన్నమాచార్య	-11.9149
▁పక్షాన	-11.9163
▁అహోబిల	-11.9173
▁సంప్రదింపుల	-11.9173
▁ఓజోన్	-11.9173
▁గ్రీసు	-11.9173
తూర్పు	-11.9175
▁కత్తుల	-11.9175
▁ప్రోత్సహిస్త	-11.9176
▁వ్యావహారిక	-11.9199
▁చాంపియన్షిప్	-11.9199
▁మాంద్యం	-11.9199
▁జాయింట్	-11.9199
▁పేరుపొందిన	-11.9199
▁ధాతు	-11.9225
▁హోరిజోన్	-11.9225
▁కొవ్వూరు	-11.9225
▁వెనక్కు	-11.9225
▁ఫార్మాట్	-11.9225
▁శ్రేష్ట	-11.9251
▁సక్రమంగా	-11.9251
▁బురుండి	-11.9251
▁అకౌంట	-11.9252
▁సంచరించ	-11.9255
వనరుల	-11.9265
ుకుందాం	-11.9272
▁దుమ్ముగూడెం	-11.9278
▁చింతలపూడి	-11.9278
▁develop	-11.9304
▁మయన్మార్	-11.9304
▁సుప్రీంకోర్టు	-11.9304
▁స్ప్రింగ్స్టీన్	-11.9304
▁కొలుస్తారు	-11.9304
▁నేషన్స్	-11.9304
▁దర్శనమిచ్చ	-11.9305
▁తంతు	-11.9324
▁భీకర	-11.9325
▁సంపాదన	-11.9332
▁పెంపక	-11.9333
▁శోష	-11.9346
▁species	-11.9357
▁కొలెస్ట్రాల్	-11.9357
▁విద్యనభ్యసించ	-11.9357
▁స్ఫటిక	-11.9357
▁గొట్టాల	-11.9358
▁రగ్బీ	-11.9384
▁నిశ్చల	-11.9384
▁పూర్ణిమ	-11.9386
▁స్థితుల	-11.9392
▁జమ్మలమడుగు	-11.9411
▁స్పీకర్	-11.9411
▁సిగరెట్	-11.9411
▁అంతర్యుద్ధం	-11.9411
▁ట్రోఫీ	-11.9411
అనూరాధ	-11.9411
ాజీపేట	-11.9423
▁include	-11.9437
▁public	-11.9437
▁హైస్కూలు	-11.9437
▁ఉధృత	-11.9437
▁అందుకనే	-11.9438
కొవ్వు	-11.9445
▁వెంట్రుకల	-11.9464
▁నమస్కార	-11.9464
▁సర్కారు	-11.9485
సంపుట	-11.9487
▁నిడదవోలు	-11.9491
▁మూత్రపిండాల	-11.9491
▁విరాజిల్ల	-11.9491
▁ఓడిపోయారు	-11.9491
▁వేధింపు	-11.9491
▁సూక్ష్మజీవుల	-11.9492
శరీర	-11.9497
▁ఓరుగల్లు	-11.9518
▁జ్యేష్ట	-11.9518
▁ప్రొద్దుటూరు	-11.9518
▁ర్యాంకు	-11.9518
▁ఖరీదు	-11.9518
▁రామరాయల	-11.952
▁అసూయ	-11.9522
పశ్చిమ	-11.9525
▁అరకులోయ	-11.9534
duct	-11.9542
▁తొమ్మిదవ	-11.9545
▁offence	-11.9573
▁ఒట్టోమన్	-11.9573
▁డ్రెయినేజ	-11.9573
▁సిఫారసు	-11.9573
▁అధికసంఖ్యలో	-11.9573
▁లభ్యత	-11.9573
▁పోకడ	-11.9587
▁ప్రభావవంతమైన	-11.96
▁హిరణ్య	-11.96
▁Muslim	-11.9627
▁ప్రిన్సిపాల్	-11.9627
▁చట్టవిరుద్ధ	-11.9627
▁భోపాల్	-11.9627
▁నమోదైన	-11.9627
▁బ్రదర్స్	-11.9627
▁గ్యాలరీ	-11.9627
▁రాకపోకల	-11.9627
▁దేశాయ్	-11.9627
free	-11.9628
పెడితే	-11.9635
సహకార	-11.9636
విష్ణు	-11.9653
▁రెట్టింపు	-11.9655
▁స్టడీస్	-11.9655
▁ఐర్లాండు	-11.9655
▁పక్షపాత	-11.9655
▁వశిష్ట	-11.9655
▁సింధూ	-11.9655
▁చనిపోయారు	-11.9655
మార్పిడి	-11.9663
సీనియర్	-11.9663
▁ఉల్లంఘించ	-11.9682
▁అట్లాంటా	-11.9682
▁థెరీసా	-11.9682
▁హరప్పా	-11.9682
▁ఆగ్నేయాసియా	-11.9682
▁మలేరియా	-11.9682
▁జనావాస	-11.9682
▁స్వగ్రామం	-11.9684
▁బచ్చన్	-11.9686
వలయును	-11.9703
▁సంతరించుకున్న	-11.9709
▁మునిసిపాలిటీ	-11.971
▁షెంగెన్	-11.971
▁ఇండీస్	-11.971
▁సిద్దిపేట	-11.971
▁సేకరిస్త	-11.9737
▁క్రిస్మస్	-11.9737
▁క్రొయేషియా	-11.9737
▁సుప్రభాత	-11.9737
▁నిష్ణాత	-11.9737
▁ఉగాండా	-11.9737
▁కస్తూరి	-11.9737
▁family	-11.9765
▁షాజహాన్	-11.9765
▁సల్ఫ్యూరిక్	-11.9765
▁అరేబియన్	-11.9765
▁భానుమతి	-11.9765
▁సెటిల	-11.9771
▁పర్లాకిమిడి	-11.9793
ఞ	-11.9807
ఔ	-13.0029
·	-13.949
