<unk>	0
<s>	0
</s>	0
.	-2.6439
,	-3.30748
▁	-4.2912
▁నుండి	-4.68481
▁కి	-4.70553
లో	-4.74495
ం	-4.87476
▁ఉన్నాయి	-4.89268
▁మీ	-4.96421
▁ఉంది	-4.99058
▁గ్రామం	-5.06206
▁దూరంలో	-5.12702
▁10	-5.23195
లు	-5.26088
▁ఈ	-5.283
ను	-5.30662
▁గ్రామంలో	-5.39483
ని	-5.41896
గా	-5.52759
▁మరియు	-5.53674
ల	-5.54299
▁5	-5.58577
కు	-5.60299
న	-5.68641
ు	-5.70495
▁కేంద్రం	-5.71839
స్	-5.75587
▁సమీప	-5.76272
▁ఒక	-5.79701
ి	-5.81654
▁ఆ	-5.87807
వ	-5.90825
ా	-5.93547
ము	-5.96354
▁కూడా	-5.97441
▁ద్వారా	-6.03632
్	-6.07588
తో	-6.11527
క	-6.11653
ర్	-6.11775
ాలు	-6.13453
▁సౌకర్యం	-6.13698
న్	-6.14108
ారు	-6.15241
కి	-6.1818
▁లో	-6.1905
▁పైబడిన	-6.21501
▁సంఖ్య	-6.21676
ాన్ని	-6.22039
▁పాఠశాల	-6.24421
-	-6.25011
▁కళాశాల	-6.26694
ర	-6.30201
▁"	-6.31773
ంగా	-6.32711
ల్	-6.34812
▁ప్రభుత్వ	-6.3547
▁జిల్లా	-6.36488
ే	-6.36749
త	-6.37471
▁యొక్క	-6.42019
▁అ	-6.4259
▁వ్యవస్థ	-6.43308
▁గ్రామానికి	-6.47304
▁లేదు	-6.48302
▁రహదారి	-6.48597
క్	-6.49308
▁ఇది	-6.49816
మ	-6.51031
▁సరఫరా	-6.52633
:	-6.59008
ట్	-6.5903
ీ	-6.60396
▁ఉన్న	-6.60616
ది	-6.61688
వి	-6.63152
రి	-6.63481
▁ప్రాథమిక	-6.6401
ానికి	-6.66299
▁ఆరోగ్య	-6.67935
నే	-6.71393
▁సామాజిక	-6.71686
ుడు	-6.71871
▁వి	-6.72138
రు	-6.7521
లను	-6.75717
గ	-6.759
▁లోపు	-6.78655
ాడు	-6.78883
"	-6.81298
రా	-6.81563
ుల	-6.81712
ప	-6.81817
▁తన	-6.81932
▁ప్రైవేటు	-6.82596
▁వైద్య	-6.83574
▁కింది	-6.83935
మైన	-6.84134
ట	-6.85098
స	-6.85177
య	-6.85926
▁ఎక్కువ	-6.87702
ిన	-6.88083
▁పాటు	-6.8996
;	-6.90019
▁అని	-6.91542
ాల	-6.92002
s	-6.93063
▁వ	-6.93076
డ	-6.93916
లా	-6.94629
▁ఇతర	-6.98062
▁నీరు	-6.98166
ింది	-6.98501
ంలో	-6.98695
నా	-6.98846
▁కంటే	-6.98846
డ్	-6.99258
▁విద్యా	-6.99959
▁/	-7.00553
▁-	-7.00732
ులు	-7.01125
▁వ్యవసాయ	-7.02449
▁ప్రధాన	-7.02459
లి	-7.04004
▁కు	-7.04387
▁న	-7.05375
ద	-7.0614
డి	-7.07815
పు	-7.07969
సి	-7.08272
▁చెందిన	-7.08755
డం	-7.10182
▁కోడ్	-7.10224
▁అనే	-7.10576
▁బ్యాంకు	-7.10746
▁తరువాత	-7.11224
▁ఉన్నారు	-7.11698
▁విద్యుత్	-7.11973
లోనూ	-7.13389
▁జనగణన	-7.13692
▁ఆసుపత్రి	-7.14268
▁వాణిజ్య	-7.14599
▁పబ్లిక్	-7.14774
▁వారం	-7.15406
▁పథకం	-7.15988
లోను	-7.16161
ాయి	-7.16439
▁ఫోన్	-7.16543
▁లేదా	-7.16571
▁సినిమా	-7.16767
▁ప్రకారం	-7.16771
▁షెడ్యూల్డ	-7.16812
▁గంటల	-7.189
▁ఎ	-7.19056
ాలను	-7.19826
▁క	-7.19861
▁భారత	-7.19911
▁ఒకటి	-7.20367
▁బి	-7.20757
▁ఆఫీసు	-7.20767
▁కోసం	-7.21053
వా	-7.21109
▁రెండు	-7.21207
▁స్టేషన్	-7.21431
డు	-7.21546
▁మ	-7.21648
▁పోస్టాఫీసు	-7.22166
▁ఆయన	-7.23455
▁సంస్థ	-7.23975
మా	-7.24623
▁7	-7.24639
లలో	-7.25072
▁వైద్యశాల	-7.25095
▁అభివృద్ధి	-7.25202
▁·	-7.27059
టి	-7.27083
▁1	-7.2755
మి	-7.28336
▁ఇ	-7.28598
మ్	-7.29019
▁2	-7.29174
▁ప	-7.29334
పై	-7.30472
▁వ్యవసాయానికి	-7.30871
ూ	-7.31876
▁రాష్ట్ర	-7.31912
డానికి	-7.32265
▁రోడ్లు	-7.3312
▁కా	-7.33488
▁ని	-7.33584
▁డిగ్రీ	-7.33803
▁జాతీయ	-7.35224
లకు	-7.35282
▁ఉప	-7.3537
కా	-7.35479
▁గా	-7.35742
▁ఏ	-7.3587
▁the	-7.3669
రీ	-7.3705
▁తిరిగి	-7.38101
జ్	-7.38613
▁మా	-7.38724
▁నుంచి	-7.38881
▁ను	-7.39884
▁లు	-7.40638
లోని	-7.40842
▁స	-7.41227
▁వారి	-7.42132
నీ	-7.42234
ప్	-7.42419
▁3	-7.43255
▁18	-7.43947
▁విధంగా	-7.45082
▁ఉంటుంది	-7.45788
▁చాలా	-7.46104
▁భూ	-7.4634
తి	-7.47416
▁బ	-7.47551
▁మధ్య	-7.47975
▁జరుగుతోంది	-7.48198
▁రైల్వే	-7.48322
▁కొన్ని	-7.48798
▁కలిగి	-7.48824
▁ప్రత్యేక	-7.49105
▁టి	-7.49998
/	-7.50205
యా	-7.5034
న్న	-7.50379
త్	-7.50498
చ	-7.50748
▁పెద్ద	-7.51196
సు	-7.51628
▁ఉత్పత్తి	-7.5315
▁లోని	-7.53367
▁ఏడాది	-7.53369
▁నీటి	-7.54026
▁వంటి	-7.54248
జ	-7.54343
▁నా	-7.56695
వు	-7.57178
▁అనేక	-7.57513
▁మురుగునీటి	-7.5843
▁అందుతుంది	-7.5866
దు	-7.58876
▁కుటుంబ	-7.59106
▁వరకు	-7.60522
▁పొడుగునా	-7.60527
హ	-7.60611
'	-7.61231
n	-7.61421
▁4	-7.61454
వే	-7.61983
▁సి	-7.62551
▁6	-7.63006
▁బస్సు	-7.64222
గ్	-7.64888
▁శ్రీ	-7.64993
▁వారు	-7.65282
ల్లో	-7.65625
▁మండల	-7.65694
▁బా	-7.65922
▁పేరు	-7.66236
▁రా	-7.66554
ణ	-7.67281
మ్మ	-7.67618
▁2011	-7.67821
▁పి	-7.68016
▁వృత్తి	-7.68164
▁తెలుగు	-7.68293
▁of	-7.68715
▁ప్ర	-7.69119
▁శిక్షణ	-7.69672
లే	-7.69679
▁అండ్	-7.70142
▁'	-7.70216
:.	-7.70308
▁పౌర	-7.70816
▁సంత	-7.70821
▁కో	-7.71335
▁జరుగుతుంది	-7.71376
గు	-7.71675
▁సంఘం	-7.72201
▁ఆమె	-7.72272
▁కొరకు	-7.72789
▁ల	-7.72898
ో	-7.7327
మే	-7.73386
▁విస్తరించి	-7.73563
▁ము	-7.73582
టం	-7.73609
▁నమోదు	-7.73664
▁ప్రవహిస్తుంది	-7.73722
▁రవాణా	-7.73753
▁ప్రతి	-7.74172
▁కాలువల	-7.74215
▁సామాన్య	-7.7455
▁మాధ్యమిక	-7.74557
▁గణాంకాల	-7.74577
రో	-7.74581
▁డాక్టర్లు	-7.75298
య్య	-7.75407
▁జ	-7.75511
▁సహకార	-7.75874
▁మురుగునీరు	-7.76106
ద్	-7.763
▁స్వయం	-7.76311
▁బృందం	-7.76504
రే	-7.77214
▁మంది	-7.77367
▁8	-7.77585
▁కాగా	-7.77652
▁ఔషధ	-7.77687
చి	-7.77736
▁కేంద్రాలు	-7.77821
▁కార్యాలయం	-7.7823
▁మీద	-7.78484
ుని	-7.79375
▁పా	-7.79378
▁సంరక్షణ	-7.79689
▁కులాల	-7.79893
▁వినియోగం	-7.79895
▁సొసైటీ	-7.80377
▁సా	-7.80388
▁సంపూర్ణ	-7.80456
చే	-7.80477
▁తెగల	-7.80524
▁చేసిన	-7.80552
▁మొదలైన	-7.80573
▁శిశు	-7.80586
▁సేవా	-7.80658
▁లైన్	-7.80834
▁జనన	-7.81032
▁మొదటి	-7.81059
▁సహాయక	-7.81215
▁పశు	-7.81221
▁సబ్	-7.81482
▁ప్రత్యామ్నాయ	-7.81676
▁ఉ	-7.81895
కో	-7.81938
▁ఆటల	-7.8202
ములు	-7.82061
▁చిన్న	-7.82197
▁వా	-7.82246
▁సైన్స్	-7.8235
జి	-7.82631
▁ప్రాథమికోన్నత	-7.82706
▁మైదానం	-7.8275
▁19	-7.82865
▁బాలల	-7.83306
▁ఆటో	-7.83539
తా	-7.83595
▁గ్రంథాలయం	-7.83625
▁కార్యకర్త	-7.83691
▁పిన్	-7.83746
▁ఇంటర్నెట్	-7.83884
▁నిమిత్తం	-7.83899
▁సంక్షేమ	-7.83973
▁వార్తాపత్రిక	-7.84063
▁మొబైల్	-7.84564
▁మరణాల	-7.84851
▁సంచార	-7.849
▁ఆర్ట్స్	-7.8493
▁పంపిణీ	-7.84999
శ	-7.85005
▁మార్కెటింగ్	-7.85129
▁తో	-7.85138
▁లొకేషన్	-7.85164
▁మె	-7.85228
▁ఆశా	-7.85448
▁లోను	-7.85496
▁సం	-7.85513
▁మగవారి	-7.85697
▁జనాభాతో	-7.85714
▁పారామెడికల్	-7.86145
▁ఆడవారి	-7.8615
▁రీడింగ్	-7.86323
▁హెక్టార్లలో	-7.86481
▁తమ	-7.86516
▁మార్కెట్	-7.8653
▁పోలింగ్	-7.86557
▁జూనియర్	-7.86565
▁రూం	-7.86628
▁లాండ్	-7.86701
▁ఇళ్లతో	-7.8672
▁పారిశుధ్య	-7.87203
▁మాతా	-7.87233
▁స్	-7.8724
▁వీధుల	-7.87248
▁టెలిఫోన్	-7.87426
పి	-7.87454
▁అంగన్	-7.87514
▁వాడీ	-7.87543
▁సరఫరాల	-7.87996
▁పోస్ట్	-7.87999
▁ఉత్పాదక	-7.88236
బ	-7.88487
▁కొరియర్	-7.88917
▁కెఫె	-7.88986
లీ	-7.89263
▁పోషకాహార	-7.89289
▁చేస్తున్నారు	-7.89321
▁హాలు	-7.89353
న్నాయి	-7.89517
▁గృహావసరాల	-7.89594
సా	-7.89689
▁దూరం	-7.89711
▁పక్కనే	-7.89808
దా	-7.89816
▁తర్వాత	-7.89833
▁అవసరాల	-7.89926
▁సేకరించే	-7.89968
ించ	-7.90061
▁శ	-7.90399
▁కంకర	-7.9041
▁వస్తువులు	-7.9044
▁ఇంటింటిక	-7.905
▁పరపతి	-7.90636
▁అనియత	-7.90648
▁పై	-7.90728
▁సమీకృత	-7.90777
▁వ్యర్థాలను	-7.90802
పా	-7.90954
ధ	-7.9104
▁బయోగ్యాస్	-7.91114
▁మరుగుదొడ్డి	-7.91252
ంది	-7.91358
▁దివ్యాంగ	-7.91388
▁ఏటీఎమ్	-7.91424
ాలలో	-7.91427
▁డిస్పెన్సరీ	-7.91433
▁అలోపతి	-7.91471
అ	-7.9165
▁పాలీటెక్నిక్	-7.91665
▁చెత్తను	-7.91847
▁త	-7.92146
▁టెలిగ్రాఫ్	-7.92174
▁పట్టణమైన	-7.92295
▁పారబోస్త	-7.92315
యు	-7.92897
▁in	-7.92925
▁మే	-7.93193
బ్	-7.93295
▁ది	-7.93431
▁కేంద్రమైన	-7.93581
▁మూడు	-7.93596
▁జనాభా	-7.93635
▁మేనేజిమెంటు	-7.93724
▁వనరుల	-7.93993
▁వలన	-7.94026
▁గ్రామాల	-7.94135
▁గ్రామ	-7.94266
▁బాలబడి	-7.94275
▁రోజుకు	-7.949
▁జల	-7.95063
▁ప్రాంతాల	-7.95284
▁అమలవుతోంది	-7.9554
టు	-7.956
▁ఓ	-7.95747
లతో	-7.95794
▁హ	-7.9593
యి	-7.96066
▁కొ	-7.96435
▁ఉంటాయి	-7.96998
▁ఆర్	-7.97005
▁చేయ	-7.97505
▁ఆఫ్	-7.97531
ై	-7.97609
▁కిలోమీటర్ల	-7.97839
▁15	-7.98051
బడింది	-7.98388
క్ష	-7.98522
▁కుళాయిల	-7.9856
ండ	-7.98864
▁వద్ద	-7.99183
▁వరి	-7.99277
ళ్ళ	-7.99368
▁a	-7.99426
ిక	-7.99455
▁పాఠశాలలు	-7.99562
▁అసెంబ్లీ	-8.00147
▁9	-8.00491
ౌ	-8.00511
▁బస్సులు	-8.00655
▁--	-8.00883
▁అయితే	-8.00933
▁సు	-8.01103
▁అతని	-8.01129
▁12	-8.0142
ె	-8.01538
▁చేతిపంపుల	-8.01574
▁దాని	-8.01704
▁రోజువారీ	-8.01739
▁పో	-8.0194
▁గుండా	-8.01993
▁మి	-8.0213
▁అయిన	-8.02208
జా	-8.02817
▁చ	-8.03124
కే	-8.03232
▁కానీ	-8.03387
▁అవుతున్నాయి	-8.03764
▁వే	-8.03796
▁దూరంలోనూ	-8.04158
▁దీని	-8.04258
▁ఇక్కడ	-8.04312
తు	-8.04687
y	-8.04964
బా	-8.0528
ఫ్	-8.05447
ంతో	-8.05823
▁మొత్తం	-8.0583
▁ఇంజనీరింగ్	-8.06208
▁గ	-8.06458
%	-8.06876
ప్ర	-8.0717
భ	-8.07876
ట్ట	-8.07941
▁అది	-8.09166
▁ఆంధ్ర	-8.09578
er	-8.09796
▁చేసి	-8.10065
2	-8.10299
▁అంటారు	-8.10331
యం	-8.10511
▁డి	-8.10565
▁ఉత్తర	-8.10735
లేదు	-8.10763
▁వ్యవసాయం	-8.10937
▁సమయంలో	-8.10945
టీ	-8.11208
▁సిబ్బంది	-8.11231
రం	-8.11366
ించి	-8.11462
ంత	-8.11682
▁దక్షిణ	-8.11768
ాలి	-8.1196
▁సౌకర్యాలు	-8.12109
▁s	-8.1216
బడిన	-8.12213
▁కాని	-8.1234
▁లేని	-8.13078
▁గురించి	-8.13234
ed	-8.13285
▁లా	-8.13719
▁తారు	-8.13776
▁ప్రపంచ	-8.14023
o	-8.14326
ష	-8.14354
▁ఐ	-8.14465
▁మొదలైనవి	-8.1449
వచ్చు	-8.14988
వారు	-8.1508
▁జరిగిన	-8.15157
ిత	-8.15233
బి	-8.15305
ంద	-8.15464
▁లేరు	-8.1548
▁మండలం	-8.1573
మని	-8.15843
పల్లి	-8.16642
▁నేరుగా	-8.1715
ాల్లో	-8.17551
▁చె	-8.1787
▁మాత్రమే	-8.18328
u	-8.18839
▁తెలంగాణ	-8.19169
త్త	-8.19679
ాలకు	-8.19707
▁ప్రముఖ	-8.19729
ళ్ల	-8.19879
▁శాల	-8.19956
▁17	-8.20169
▁అన్ని	-8.20304
నో	-8.20568
▁16	-8.20824
కీ	-8.20833
మీ	-8.21013
▁A	-8.21276
ంగ్	-8.21436
ట్లు	-8.21505
▁and	-8.2168
▁14	-8.21708
▁అతను	-8.21806
▁బహిరంగ	-8.21871
▁:	-8.2196
▁ఎస్	-8.22222
▁S	-8.22235
▁ముందు	-8.22257
▁రాష్ట్రం	-8.22559
పో	-8.22762
ంచ	-8.22777
▁కాలంలో	-8.23531
సీ	-8.23662
ష్	-8.23769
▁శుద్ధి	-8.24086
▁to	-8.24122
▁జా	-8.24514
▁11	-8.24546
▁0	-8.24552
క్క	-8.24827
ములో	-8.25028
కం	-8.25391
i	-8.25457
రె	-8.25502
▁య	-8.25557
ండి	-8.25568
స్ట్	-8.25633
▁ప్రభుత్వం	-8.25635
A	-8.25706
▁తిరుగుతున్నాయి	-8.25784
▁ఇద్దరు	-8.26151
▁చెప్ప	-8.2618
00	-8.26258
ing	-8.26262
ప్ప	-8.26438
▁మహా	-8.26478
al	-8.26483
మో	-8.2663
▁పలు	-8.26752
టర్	-8.27029
▁మంచినీటి	-8.27084
నం	-8.27385
వ్	-8.27396
గి	-8.27453
▁రాజ	-8.27508
▁పూ	-8.27631
యో	-8.27694
▁పార్టీ	-8.28066
▁కథ	-8.28347
నూ	-8.28388
ాలని	-8.28474
▁రక్షిత	-8.28604
డా	-8.28605
▁20	-8.28637
జీ	-8.28773
▁కె	-8.28902
e	-8.29146
▁వల్ల	-8.29332
▁అతి	-8.29677
C	-8.2977
▁వచ్చిన	-8.29822
▁మన	-8.29944
▁మండలానికి	-8.30565
▁గు	-8.30928
d	-8.31196
ంగ	-8.31343
▁దీనిని	-8.31359
▁గో	-8.31602
▁తా	-8.31614
కుండా	-8.31775
వనరుల్లోకి	-8.32035
▁అను	-8.32258
ైన	-8.32497
ుతుంది	-8.32912
▁ర	-8.32939
▁ఇందులో	-8.33031
▁సంవత్సరాల	-8.33158
▁అందుబాటులో	-8.33536
▁లే	-8.33707
▁ద	-8.33845
▁వివిధ	-8.33926
్లో	-8.34484
▁ట్రాక్టర్లు	-8.34603
▁ఒ	-8.34629
▁లోనూ	-8.3471
▁ఒకరు	-8.34821
టా	-8.34882
▁చేశారు	-8.34921
▁పాత్ర	-8.34993
▁ఇవి	-8.34994
▁సంగీత	-8.35386
▁13	-8.35836
కొ	-8.35949
థ	-8.36005
ళ	-8.36187
▁భాష	-8.36276
▁కొత్త	-8.36367
1	-8.36465
ిస్తారు	-8.3652
ట్టు	-8.36696
▁వదులుతున్న	-8.36831
▁అన్న	-8.37121
▁మంచి	-8.37399
దే	-8.3823
▁అధిక	-8.38333
ిస్తుంది	-8.38433
▁చేసే	-8.38781
టానికి	-8.39174
మును	-8.39246
▁రామ	-8.39478
▁వై	-8.39502
▁కాల	-8.39595
ేందుకు	-8.39683
▁పె	-8.3996
p	-8.4028
▁రాజకీయ	-8.40467
ar	-8.40578
▁వె	-8.41
▁కలిగిన	-8.41034
▁రెండవ	-8.41068
▁వాడేందుక	-8.41103
▁దేవ	-8.41126
సం	-8.41405
▁యు	-8.41656
గల	-8.41738
▁పు	-8.41971
ించిన	-8.42695
▁అనేది	-8.42721
దీ	-8.42798
▁ఆర్థిక	-8.42829
నె	-8.4287
▁ఉండే	-8.43062
M	-8.43456
▁నాలుగు	-8.44346
▁పూర్తి	-8.44396
▁ప్రజలు	-8.44852
▁తయారు	-8.44867
▁కారణంగా	-8.4499
k	-8.45017
▁వాటి	-8.45056
a	-8.45067
▁అవ	-8.4509
▁సంవత్సరం	-8.45125
▁గల	-8.4537
రాజు	-8.45426
▁పొంద	-8.45452
▁రి	-8.45625
▁జి	-8.45675
▁ఏర్పాటు	-8.45681
▁మో	-8.45844
3	-8.45912
తీ	-8.4613
▁50	-8.46471
▁దేశ	-8.46678
ండ్	-8.4669
c	-8.46817
ధి	-8.46936
బడి	-8.4694
వాడు	-8.47257
▁ముగ్గురు	-8.47337
or	-8.47376
మై	-8.47499
కర	-8.47765
▁చే	-8.47834
▁వాడ	-8.47891
▁గ్రామము	-8.48088
ద్ద	-8.48088
g	-8.48165
ొ	-8.48251
ూరు	-8.48519
▁భ	-8.4854
▁మూల	-8.48557
ిస్తూ	-8.4865
▁చేర	-8.48825
▁ఖ	-8.48851
▁తూర్పు	-8.48885
▁భారతీయ	-8.48934
▁చిత్ర	-8.49749
▁అవి	-8.49756
S	-8.50427
▁పని	-8.50541
t	-8.50804
▁సె	-8.51218
▁చేసింది	-8.51418
ముల	-8.51882
▁పరి	-8.52079
▁వీరు	-8.52441
▁సాధారణంగా	-8.52456
▁అంటే	-8.52517
▁పొ	-8.52536
▁తక్కువ	-8.52669
టో	-8.52677
▁ధర్మ	-8.52879
▁ఎక్కువగా	-8.53176
ముగా	-8.5318
▁ప్రాంతంలో	-8.5319
ష్ట	-8.532
రావు	-8.53336
▁జరిగింది	-8.53366
▁కే	-8.53418
▁ప్రాంతం	-8.53459
▁తండ్రి	-8.53531
▁అత్యంత	-8.53782
r	-8.53803
▁దా	-8.53896
▁అదే	-8.54123
చు	-8.54303
సె	-8.5434
▁మొ	-8.54472
▁బావుల	-8.54863
నుండి	-8.55603
ఖ	-8.56035
మె	-8.56258
re	-8.56321
▁ఇలా	-8.56455
ేశ్వర	-8.56641
▁ఉండ	-8.56951
వ్వ	-8.56961
▁చి	-8.5718
▁చరిత్ర	-8.57192
▁యా	-8.57306
▁బె	-8.57307
చ్	-8.57504
ుతూ	-8.57754
?	-8.57783
▁రాజు	-8.58173
▁నీ	-8.58396
▁C	-8.58405
ంబ	-8.5846
▁ఎం	-8.58582
ుకుని	-8.58939
I	-8.58984
పూర్	-8.59019
▁మండలంలోని	-8.59142
▁బహిరంగంగా	-8.5916
▁భూమి	-8.59484
ప్పుడు	-8.5957
▁కలిసి	-8.59715
్య	-8.60008
▁కొండ	-8.60193
పల్లిలో	-8.60528
ుడి	-8.60746
ఆ	-8.60766
ేవారు	-8.60963
లుగా	-8.61112
b	-8.61131
▁పెట్ట	-8.61376
▁చిత్రం	-8.61417
▁తు	-8.61482
▁రే	-8.61565
▁చా	-8.61832
▁శివ	-8.61879
ులకు	-8.61989
ుకొని	-8.62144
క్స్	-8.62526
▁అంద	-8.62553
▁అక్కడ	-8.62563
▁వచ్చింది	-8.6265
h	-8.62784
రణ	-8.62792
వారి	-8.62832
▁బ్రహ్మ	-8.6284
▁అలాగే	-8.62889
▁బోరుబావుల	-8.62975
▁డాక్టరు	-8.6298
వీ	-8.63291
ట్ల	-8.63361
ళ్ళు	-8.6338
▁ప్రస్తుతం	-8.63403
ాలతో	-8.63692
వర్	-8.637
▁కచ్చా	-8.63991
హా	-8.64078
▁కల	-8.64389
▁అంత	-8.64476
▁హా	-8.64503
ుకో	-8.64911
4	-8.64972
▁కార్	-8.65204
in	-8.65268
!	-8.65693
▁కన్నా	-8.6581
▁శక్తి	-8.66099
th	-8.66335
▁M	-8.66375
లోకి	-8.66423
▁తొలి	-8.66818
ంజ	-8.66868
▁కాకుండా	-8.67142
▁ముఖ్య	-8.67232
▁కొంత	-8.67522
▁c	-8.67619
▁మత	-8.67767
m	-8.67817
▁వీ	-8.67884
▁57	-8.679
▁అనగా	-8.68012
▁కేంద్ర	-8.68095
▁పంప	-8.68152
▁రో	-8.68216
గో	-8.68411
▁పోతోంది	-8.68483
▁లోకి	-8.6858
▁డా	-8.69307
▁మానవ	-8.69465
▁ఇంకా	-8.69661
▁పశ్చిమ	-8.69777
▁లేక	-8.7011
▁B	-8.70367
▁అమెరికా	-8.70404
డే	-8.70413
▁కేంద్రంలో	-8.7056
▁హిందూ	-8.7062
గ్రామంలో	-8.70623
ంచి	-8.70683
లె	-8.70718
ులను	-8.70823
▁ప్రా	-8.71316
▁కాలం	-8.7134
లోనే	-8.71487
▁బాగా	-8.71562
▁ఈయన	-8.71564
’	-8.71567
బు	-8.71653
కె	-8.71684
ించే	-8.71722
▁పాల	-8.71859
▁డ	-8.71991
ించాడు	-8.72248
వె	-8.72288
▁ప్రదేశ్	-8.72378
ల్ల	-8.72379
త్ర	-8.72467
l	-8.72575
▁ఎన్	-8.72653
బడ్డాయి	-8.72684
▁వచ్చి	-8.72707
▁చైనా	-8.72849
న్స్	-8.72933
▁శాసనసభ	-8.72954
▁పట్ట	-8.73621
▁P	-8.7373
▁కాదు	-8.73739
ించారు	-8.73882
హ్	-8.73917
▁తల	-8.7465
es	-8.74856
▁నిర్మాణ	-8.75389
▁వారికి	-8.75425
▁పత్రిక	-8.75496
▁దీనికి	-8.75572
డో	-8.75591
▁పోటీ	-8.762
▁f	-8.76284
▁చూప	-8.76513
▁చేయడం	-8.76523
▁విద్య	-8.76537
▁ఫ	-8.76609
▁నది	-8.76668
బో	-8.76702
హి	-8.76776
కూ	-8.76902
▁చెరువు	-8.77048
య్	-8.7705
▁శాఖ	-8.77145
స్తుంది	-8.77215
▁పేరుతో	-8.77252
▁వచ్చే	-8.77334
an	-8.77361
▁30	-8.77379
D	-8.77629
▁క్రీ	-8.77633
▁స్వ	-8.77666
▁•	-8.77765
▁కృష్ణ	-8.77787
ండు	-8.7779
▁2001	-8.77797
ra	-8.77839
▁ప్రజల	-8.78147
▁తి	-8.78425
▁25	-8.78483
▁సుమారు	-8.78621
తే	-8.78644
స్వామి	-8.78928
సన్	-8.79021
▁కోట	-8.79082
▁అన	-8.79128
త్తు	-8.79557
▁పడ	-8.7974
పురం	-8.79761
▁అంతర్జాతీయ	-8.79777
▁సంబంధించిన	-8.7984
త్వ	-8.80068
▁నివాస	-8.80384
కులు	-8.80443
ీయ	-8.80482
▁ప్లాంట్	-8.80764
▁నిర్వహించ	-8.80824
ుడైన	-8.80829
జన	-8.81023
▁జీవ	-8.81079
▁నె	-8.81377
▁పాట	-8.81461
టే	-8.81499
▁వ్యక్తి	-8.81587
▁భావ	-8.8164
రియా	-8.8164
▁సాధారణ	-8.81739
డీ	-8.81779
le	-8.8201
▁నగరం	-8.82503
ఇ	-8.82514
▁కాంగ్రెస్	-8.82589
దేశ	-8.82652
▁చేశాడు	-8.82775
నది	-8.82829
▁విడుదల	-8.82852
కర్	-8.83017
▁లభిస్తుంది	-8.83354
▁యుద్ధ	-8.83501
▁పురుషుల	-8.83535
▁n	-8.83546
▁పూర్వ	-8.83562
స్తూ	-8.83808
▁రైలు	-8.83815
▁బో	-8.83855
▁సమ	-8.84201
▁దగ్గర	-8.84438
స్త	-8.8462
ిస్తున్న	-8.84665
లం	-8.84667
ఘ	-8.84775
పె	-8.84789
యే	-8.8495
▁is	-8.84955
▁విశాఖపట్నం	-8.85081
▁జన	-8.85083
శి	-8.85085
▁కోర	-8.8536
పాడు	-8.85382
▁తల్లి	-8.85437
▁షా	-8.85473
▁గుర్తించ	-8.85486
▁స్వామి	-8.85515
▁గుంటూరు	-8.85519
ంటి	-8.85649
షన్	-8.85692
▁ఉపయోగించ	-8.85864
▁నగర్	-8.8592
ింప	-8.86042
ాను	-8.86049
▁తప్ప	-8.86124
▁మాత్రం	-8.86175
ంట్	-8.86276
▁ఉంచ	-8.86357
▁వ్యాపార	-8.8639
▁సర్వ	-8.8657
ల్లి	-8.86577
ుతున్న	-8.86671
చ్చ	-8.86691
E	-8.86768
ందు	-8.86776
ాత్మక	-8.8684
డంతో	-8.87019
ల్లా	-8.87033
మన్	-8.87125
▁or	-8.87241
5	-8.87623
▁రోజు	-8.87648
▁సీ	-8.87719
బడ	-8.8789
▁భాగంగా	-8.87901
ాన	-8.87953
▁గొప్ప	-8.88057
సే	-8.88272
▁=	-8.8829
▁ఫా	-8.88303
▁నాగ	-8.88586
▁మరో	-8.88645
▁గి	-8.88675
▁యుద్ధం	-8.88925
ుకున్న	-8.88995
▁దాదాపు	-8.89322
వాద	-8.89364
▁కృష్ణా	-8.896
▁భార్య	-8.89647
▁కనుక	-8.89714
▁నగర	-8.8975
▁బీ	-8.89981
▁బు	-8.90042
P	-8.90061
▁ఒక్క	-8.90158
▁కాక	-8.90196
▁ఒకే	-8.90202
▁స్థానిక	-8.90506
ారని	-8.90517
▁అమ్మ	-8.90684
▁b	-8.9082
▁పెంచ	-8.90832
స్తా	-8.90877
▁హైదరాబాదు	-8.90891
▁58	-8.90954
▁జె	-8.91001
వాస	-8.91072
▁చివరి	-8.91118
▁పారుదల	-8.91182
ాయ	-8.91245
8	-8.91292
6	-8.9136
▁ప్రారంభ	-8.91467
▁రచయిత	-8.91544
▁ట్రాక్టరు	-8.91611
పోయింది	-8.91743
ంటే	-8.92091
▁పంపిస్తున్నారు	-8.92243
ుట	-8.9229
ధా	-8.92554
కార	-8.9267
▁పే	-8.92814
▁వీరి	-8.93308
కాల	-8.93351
▁ఉండేది	-8.93498
టన్	-8.9356
▁ఉన్నత	-8.93606
il	-8.93667
▁పొందిన	-8.93688
మున	-8.93801
▁తీసుకు	-8.93926
10	-8.94081
▁వార	-8.94103
▁ఆడ	-8.94269
రూప	-8.94325
▁‘	-8.94368
రామ	-8.94433
▁D	-8.94449
▁సాహిత్య	-8.94463
▁ముఖ్యమైన	-8.94661
బడుతుంది	-8.94697
7	-8.9492
ad	-8.94948
▁N	-8.94973
▁సో	-8.95142
▁be	-8.95185
గిరి	-8.95222
జు	-8.9532
▁తెలియ	-8.95362
▁లి	-8.95376
▁లోపే	-8.95473
ధ్య	-8.95524
షి	-8.95643
▁కట్ట	-8.95683
▁మార్చ	-8.95804
ట్టి	-8.95825
▁వున్న	-8.95864
▁p	-8.95886
▁వాటిని	-8.95936
▁హో	-8.96169
▁బాల	-8.96234
▁రూప	-8.96246
▁ప్రత్తి	-8.96282
▁మరొక	-8.96284
గానే	-8.9642
▁రె	-8.9652
▁భాగం	-8.96539
▁వైపు	-8.96677
▁సముద్ర	-8.96683
on	-8.96713
కుడు	-8.96807
▁పంచ	-8.96935
▁నెల్లూరు	-8.97064
పద	-8.97099
▁!	-8.97171
se	-8.97224
▁మిగిలిన	-8.97883
▁విజయ	-8.98037
▁నెల	-8.98116
▁కేవలం	-8.98219
▁డె	-8.98268
ీకరణ	-8.98283
▁మరింత	-8.98424
▁ఈమె	-8.98598
▁ఎత్తు	-8.98627
▁మహ	-8.98635
▁మై	-8.98656
▁ఆధునిక	-8.98774
లూ	-8.98864
▁వీర	-8.98952
▁అప్పటి	-8.9896
పీ	-8.99065
సర్	-8.99107
▁నాటికి	-8.99114
▁దుకాణం	-8.99196
▁సై	-8.99266
▁The	-8.99271
▁కంపెనీ	-8.99428
▁బ్ర	-8.99453
త్వం	-8.99585
ంట	-8.99658
ఎ	-8.997
మూ	-8.99887
▁గోదావరి	-9.00127
స్తారు	-9.00151
కల్	-9.00421
▁24	-9.00451
▁ఇవ్వ	-9.00497
▁తాను	-9.005
▁విజయవాడ	-9.00593
▁జిల్లాలో	-9.00639
బీ	-9.00677
▁ఆలయం	-9.00751
T	-9.00887
▁దేశం	-9.00911
▁శాలలో	-9.00979
▁రంగ	-9.01154
f	-9.01169
▁వెంకట	-9.01224
▁హై	-9.0124
ును	-9.01252
0	-9.01337
▁ఇన్	-9.01375
▁59	-9.01503
▁m	-9.01577
దని	-9.01611
▁విశ్వవిద్యాలయం	-9.0188
▁చంద్ర	-9.01917
▁జీవిత	-9.01998
▁మార్చి	-9.02154
బ్బ	-9.02255
సో	-9.02327
ంక	-9.02627
జె	-9.02641
కొండ	-9.02668
▁21	-9.027
▁న్యూ	-9.02794
▁ముఖ్యంగా	-9.02851
ri	-9.02952
▁చెంద	-9.02986
▁చూడ	-9.03015
ic	-9.03261
ur	-9.0358
మాన	-9.03734
గం	-9.03765
▁ఈనాడు	-9.03892
▁దు	-9.04002
▁ఎన్నో	-9.04097
▁బ్రిటిష్	-9.04186
ూర్	-9.0422
N	-9.04246
▁చెయ్య	-9.0436
▁చేత	-9.04421
▁రకాల	-9.04432
en	-9.04451
▁ఆధారంగా	-9.04653
▁గుర్తింపు	-9.04718
▁సౌకర్యాలున్నాయి	-9.04842
జర్	-9.04863
ch	-9.0535
చ్చి	-9.05421
▁నేను	-9.05689
▁మట్టిరోడ్ల	-9.05702
▁పరిశోధన	-9.0571
▁జూలై	-9.05771
▁సర్	-9.05811
▁శి	-9.0588
మునకు	-9.05979
నియా	-9.06053
ly	-9.06262
ిని	-9.06367
▁ఐదు	-9.06425
వరం	-9.06575
ుతారు	-9.06662
▁స్థానంలో	-9.0675
▁అధికంగా	-9.06778
ఫి	-9.0679
▁అలా	-9.06877
▁ఉండి	-9.06926
తం	-9.06984
వర	-9.07018
▁చేయని	-9.0713
▁తాగునీరు	-9.07271
▁I	-9.07311
కుల	-9.07324
పడ	-9.07503
వో	-9.07671
▁పోతున్నాయి	-9.07701
తులు	-9.07794
▁ఫి	-9.078
పే	-9.07809
▁రాజ్య	-9.07891
పెట్ట	-9.07952
ుకునే	-9.08096
▁దేశంలో	-9.08166
▁ఆరు	-9.08351
దేవి	-9.08399
పతి	-9.08421
at	-9.08427
▁భారతదేశంలో	-9.08711
త్య	-9.08739
v	-9.08858
ృ	-9.08887
▁లేకుండా	-9.08933
▁వలస	-9.08974
మర్	-9.09071
▁సేవ	-9.09082
▁22	-9.09122
▁దానిని	-9.09179
తారు	-9.09295
రూ	-9.09389
మైనది	-9.09422
▁లెక్కల	-9.09463
▁సంప్రదాయ	-9.09632
▁విశ్వ	-9.09702
▁for	-9.098
చేయ	-9.09848
▁G	-9.09901
లై	-9.10107
▁సాగ	-9.1017
▁ప్రదర్శన	-9.10173
▁పరీక్ష	-9.1037
▁చేస్తారు	-9.10659
ుటకు	-9.10678
ation	-9.10736
▁H	-9.10857
▁అల్	-9.1094
▁లలో	-9.10973
▁అందులో	-9.11134
▁శాతం	-9.11246
▁ప్రక్రియ	-9.11263
”	-9.11344
న్నా	-9.11376
▁వేద	-9.11464
▁ప్రజా	-9.11579
▁విజయం	-9.11584
▁జో	-9.11601
▁సిబ్బంద	-9.11623
20	-9.11735
▁నిర్	-9.11767
▁నాటి	-9.11912
▁కొనసాగ	-9.11932
us	-9.12114
▁నిర్మాణం	-9.12147
▁మూ	-9.12287
▁g	-9.12306
▁ఎంతో	-9.12325
ల్స్	-9.12325
క్షణ	-9.12449
▁2009	-9.12633
▁వెళ్ళ	-9.12722
▁23	-9.12749
▁యూ	-9.12772
షా	-9.12798
▁పద	-9.12962
స్థాన	-9.13022
జ్ఞ	-9.13101
పేట	-9.13255
ంప	-9.13308
యర్	-9.13401
▁నే	-9.1343
లేని	-9.13523
రంగ	-9.13605
▁దశ	-9.1363
ెను	-9.13659
▁అవుతోంది	-9.13704
క్రమ	-9.1374
▁ఏక	-9.13985
▁రాయ	-9.14019
▁చింత	-9.14095
▁లను	-9.14175
▁స్టేషను	-9.14201
▁ఇప్పుడు	-9.14288
▁ఉత్తమ	-9.14305
▁సభ	-9.14373
▁స్థాయి	-9.14379
▁లాంటి	-9.14522
▁ప్రసిద్ధి	-9.14661
▁నిర్వహణ	-9.14695
రై	-9.14699
▁చంప	-9.1471
ః	-9.14853
ుకున్నారు	-9.14861
▁ప్రేమ	-9.14958
12	-9.15135
▁శా	-9.15146
వరకు	-9.15322
సర	-9.15365
▁నాటక	-9.15461
ent	-9.15545
9	-9.15574
ించింది	-9.15684
రాయ	-9.15717
un	-9.15733
ట్స్	-9.15747
▁పర్వత	-9.15845
11	-9.15885
▁కాం	-9.15921
శ్	-9.16057
ణి	-9.16146
am	-9.16182
▁చట్ట	-9.16231
▁వెళ్ళి	-9.1649
19	-9.16544
▁బొ	-9.16546
R	-9.16569
▁ఇం	-9.16584
▁యునైటెడ్	-9.16606
▁అంచనా	-9.16607
et	-9.16645
▁పూర్తిగా	-9.16742
▁వేయ	-9.16774
▁పీ	-9.1683
▁వీటిలో	-9.16921
O	-9.17063
▁నూనె	-9.17083
▁అవకాశం	-9.17176
▁వలె	-9.17178
ాడని	-9.17198
వాడ	-9.17302
▁ఉపయోగిస్తారు	-9.17326
▁నగరంలో	-9.17326
ఉ	-9.17428
▁ఆహార	-9.17492
▁కవి	-9.17606
▁కారణం	-9.17672
ంగి	-9.17707
▁భా	-9.17734
▁చేయడానికి	-9.17757
ుగా	-9.17942
▁ప్రాణ	-9.17973
ములను	-9.18209
▁T	-9.18288
రాజ	-9.18342
▁మార	-9.18418
భా	-9.18437
ళ్లు	-9.18553
▁అర్థం	-9.18571
లేక	-9.18644
ించడం	-9.18756
▁వర్ణ	-9.18818
▁వారిని	-9.18897
ందుకు	-9.19072
డె	-9.19076
▁పాడ	-9.19103
తాయి	-9.19125
▁రాజా	-9.19149
_	-9.19291
▁2007	-9.19345
▁స్త్రీల	-9.19374
యిన	-9.19398
▁దేశాల	-9.19466
సారి	-9.19505
ఢ	-9.19646
▁అత్యధిక	-9.19741
▁ష	-9.19823
ార్	-9.20024
▁న్యాయ	-9.20115
▁రూ	-9.20295
ప్పు	-9.20295
▁అతిపెద్ద	-9.20364
30	-9.20376
ియన్	-9.20405
▁అల	-9.20442
▁తీర	-9.2045
▁ఇండియా	-9.20618
▁re	-9.2081
▁రెడ్డి	-9.20957
▁బే	-9.20958
▁చేసారు	-9.20959
▁బల	-9.2097
▁స్వతంత్ర	-9.20974
నని	-9.21002
)	-9.21088
▁నూతన	-9.21179
50	-9.21227
ిస్తాయి	-9.21294
ha	-9.21405
్యూ	-9.21408
ాలుగా	-9.21444
▁తే	-9.21451
▁సహ	-9.2151
▁2008	-9.21555
▁రచన	-9.21588
టింగ్	-9.21713
22	-9.21805
▁L	-9.21926
▁జనవరి	-9.21939
ుకున్నాడు	-9.21979
▁ఎల్	-9.22015
తర	-9.2207
ద్ర	-9.22099
▁అప్పుడు	-9.22149
▁చేర్చ	-9.22222
▁ధ	-9.22238
జం	-9.22271
▁తె	-9.22292
▁కలిపి	-9.22376
▁ఇదే	-9.22504
్యం	-9.2275
మీద	-9.22764
నగర్	-9.2285
టిక్	-9.22997
▁మహబూబ్	-9.23006
▁సంగీతం	-9.23065
▁కనిపించ	-9.23102
▁ప్రస్తుత	-9.23188
18	-9.23303
లపై	-9.23313
▁ఖండ	-9.23366
▁26	-9.23444
▁ఊ	-9.23476
▁తగ్గ	-9.23492
కల	-9.23591
▁40	-9.23733
▁వీటిని	-9.23751
తుల	-9.23764
మైంది	-9.23776
it	-9.23991
శా	-9.24002
ిస్తాడు	-9.24034
▁సైనిక	-9.24115
▁శతాబ్దం	-9.24133
14	-9.24133
▁సృష్టించ	-9.24183
▁జాతి	-9.24188
▁F	-9.24472
▁2013	-9.24493
=	-9.24536
▁సూచించ	-9.2457
▁లె	-9.24769
రక	-9.25025
▁దృష్టి	-9.25033
▁గాంధీ	-9.25043
▁E	-9.25132
▁శాస్త్ర	-9.25355
▁కావ	-9.25439
▁రాజధాని	-9.25442
పర్	-9.25513
వార	-9.25558
▁దారి	-9.25581
▁వంశ	-9.257
▁అమలు	-9.25737
▁సూర్య	-9.25778
B	-9.25789
▁ఆంగ్ల	-9.25887
▁పట్టణ	-9.25888
▁సంఘ	-9.26002
▁రై	-9.26042
▁కృషి	-9.26083
▁క్ర	-9.26225
▁చేస్తుంది	-9.26257
▁సత్య	-9.26307
▁d	-9.26389
▁హె	-9.26441
▁కీ	-9.2646
▁27	-9.26465
రిక	-9.26467
బె	-9.2663
ండ్ల	-9.26631
▁h	-9.26756
ుడ	-9.26844
▁వ్యాధి	-9.27083
చె	-9.27158
▁జూన్	-9.27225
▁U	-9.27264
▁W	-9.27304
▁నో	-9.27341
▁సిద్ధ	-9.2741
▁R	-9.27433
మూర్తి	-9.27473
▁కుల	-9.27531
పల్లె	-9.27702
15	-9.27764
సై	-9.27801
▁వేల	-9.27862
ూరి	-9.27876
▁ప్రభావం	-9.28054
▁నవల	-9.28073
▁హరి	-9.2819
▁సహజ	-9.28351
న్ని	-9.28499
▁సంస్కృతి	-9.2864
▁ఉష్ణోగ్రత	-9.28828
▁భర్త	-9.28895
▁ఎన్నికలలో	-9.28958
▁ధర	-9.29001
▁కష్ట	-9.29158
▁మందుల	-9.29173
▁బహు	-9.29233
ునిగా	-9.29289
▁28	-9.29394
▁దానికి	-9.29454
రోజు	-9.29492
▁వివాహం	-9.29522
లైన	-9.29548
▁పురాతన	-9.29579
la	-9.29642
▁ఎక్స్	-9.29681
13	-9.29711
ప్పటికీ	-9.29719
భాష	-9.2977
ిస్తున్నారు	-9.29811
▁సంవత్సరంలో	-9.29947
▁అవార్డు	-9.29972
▁పదం	-9.3007
▁భారతదేశం	-9.30148
▁రంగు	-9.30173
▁అస	-9.30207
▁అమెరికన్	-9.30248
పరచ	-9.30308
ఫ	-9.30315
ులైన	-9.30433
▁స్థానం	-9.30449
ంగు	-9.30468
థి	-9.30562
▁కారణ	-9.30665
▁స్త్రీ	-9.30672
▁పెళ్ళి	-9.30717
▁వరంగల్	-9.30813
▁శ్రీకాకుళం	-9.30979
▁శతాబ్దంలో	-9.30985
▁గ్రామాలు	-9.30996
▁పర	-9.31087
పూడి	-9.31117
▁పాత	-9.31147
లూరు	-9.31166
లర్	-9.31168
el	-9.31193
40	-9.31235
23	-9.31304
యె	-9.3131
▁పైగా	-9.31414
▁కుమారుడు	-9.3144
▁కం	-9.31501
▁సంస్కృత	-9.31574
▁తొలగించ	-9.31587
▁నిర్మించ	-9.31633
▁బౌద్ధ	-9.31652
▁ఇంటి	-9.31712
▁సరిహద్దు	-9.31754
▁ఇతడు	-9.3177
చేసి	-9.31779
▁జ్ఞాన	-9.31925
ంధ	-9.32016
కర్త	-9.32171
దో	-9.3221
ాడ	-9.32216
ీకరించ	-9.32262
▁మొట్టమొదటి	-9.32334
▁గాయ	-9.32335
స్థ	-9.32349
▁చూసి	-9.32423
▁as	-9.32536
్యా	-9.32617
▁l	-9.32627
▁వేరు	-9.32769
17	-9.32784
▁వరకూ	-9.3281
▁ఆంధ్రప్రదేశ్	-9.32821
ులుగా	-9.32857
ంపై	-9.32864
గే	-9.32993
బుల్	-9.33029
ికి	-9.33057
▁ఎలా	-9.33098
మంది	-9.33175
▁మంత్రి	-9.33227
▁రక్షణ	-9.33267
ేషన్	-9.33276
ందని	-9.33289
ుడిగా	-9.33323
▁మాట	-9.33348
▁కొద్ది	-9.33531
▁అందించ	-9.33568
▁పంట	-9.33573
▁w	-9.33598
▁ప్రయోగ	-9.33629
ద్ధ	-9.33667
▁కౌ	-9.33703
డుగు	-9.33841
▁జీ	-9.33845
▁చికిత్స	-9.33849
ఒక	-9.33906
L	-9.33921
తను	-9.33937
▁మొదట	-9.33991
తాడు	-9.34081
వచ్చును	-9.34094
▁మద్రాసు	-9.34313
▁ప్రాంతాలలో	-9.34323
▁వీటి	-9.34555
స్తాయి	-9.34652
▁ఆసియా	-9.34658
16	-9.34675
▁రసాయన	-9.3468
▁గాని	-9.34706
▁శరీర	-9.3476
▁గాలి	-9.34802
▁ఉద్యోగ	-9.34812
కారం	-9.34918
▁కళా	-9.34994
ణం	-9.35021
▁k	-9.35149
వపేజీ	-9.35168
▁అయినప్పటికీ	-9.35168
ితే	-9.35224
పాలెం	-9.35363
F	-9.35394
నల్	-9.35439
▁విలువ	-9.35472
▁ఆలయ	-9.35493
▁పొందింది	-9.35567
దర	-9.35704
▁మూడవ	-9.3577
ఫా	-9.3581
|	-9.35931
ుతాయి	-9.3595
ఠ	-9.35978
▁భాగ	-9.36029
▁చేసాడు	-9.36129
హార	-9.36222
▁ధన	-9.36298
గ్రామానికి	-9.3638
▁సంవత్సరాలు	-9.36419
▁నిర్ణయించ	-9.36456
గర్	-9.36466
ce	-9.36478
భాగ	-9.36531
▁వస్తుంది	-9.36598
▁with	-9.36645
ర్స్	-9.36659
▁సమయ	-9.3668
25	-9.36685
ుకోవడం	-9.36716
▁సాధించ	-9.3683
పోయిన	-9.36887
పాద	-9.36945
▁ఉపయోగ	-9.36945
▁సహా	-9.37045
నై	-9.371
▁K	-9.37185
పరి	-9.37207
▁2006	-9.37214
ter	-9.37336
▁ప్రసిద్ధ	-9.37339
▁ఎంత	-9.37346
▁నల్ల	-9.37404
▁త్రి	-9.37432
▁కొందరు	-9.37461
దేవ	-9.37479
ండా	-9.3752
▁అవసరం	-9.37637
▁విషయం	-9.37709
వై	-9.37837
▁2010	-9.3798
▁ప్రాచీన	-9.38083
▁దాడి	-9.38156
వ్య	-9.38259
▁ఏప్రిల్	-9.38277
▁టా	-9.38334
▁అగ్ని	-9.38388
▁కార్య	-9.38413
ఁ	-9.38421
▁తమిళ	-9.3848
▁లీ	-9.38495
▁టై	-9.38575
▁లింగ	-9.38626
థా	-9.3864
ున్న	-9.38778
▁టీ	-9.38995
as	-9.39011
▁కూ	-9.39318
▁రోజుల	-9.39326
బర్	-9.39375
▁మహిళల	-9.39395
▁చేస్తున్న	-9.39413
▁సాంకేతిక	-9.39471
ేవాడు	-9.39495
▁వివరించ	-9.39581
▁ఉద్యమ	-9.3966
కరణ	-9.39699
చో	-9.3972
▁మారింది	-9.39736
▁ఆనంద	-9.39885
వేత్త	-9.39897
▁పది	-9.39932
నాడు	-9.39947
▁చిత్తూరు	-9.39951
▁నామ	-9.40041
▁రోడ్డు	-9.401
స్టర్	-9.40176
▁వాటిలో	-9.40255
పొ	-9.40358
▁దేశాలలో	-9.40361
సూ	-9.40454
ంటు	-9.40492
▁బ్రిటీష్	-9.40546
0,000	-9.40574
▁ఆట	-9.40593
▁ఉండటం	-9.40644
ుడిని	-9.40658
స్ట	-9.40705
▁ఆత్మ	-9.40874
భవ	-9.40894
క్కు	-9.41052
▁అర్	-9.41249
is	-9.41308
▁ఆది	-9.41422
ంలోని	-9.41423
▁అతడి	-9.41514
▁మార్	-9.41514
▁కళ	-9.41588
▁చర్య	-9.41592
డమే	-9.41803
పం	-9.41816
కాలం	-9.41871
▁మద్దతు	-9.41875
im	-9.41891
▁సంస్థలు	-9.41903
తన	-9.41915
60	-9.4192
▁సామ్రాజ్యం	-9.42134
యన్	-9.422
▁ఇంత	-9.42231
▁ఇతని	-9.42301
▁గీత	-9.4239
▁బట్టి	-9.42396
మార్	-9.42454
మాన్	-9.42524
▁బ్రాహ్మణ	-9.42673
▁ఫలితంగా	-9.42762
▁భారీ	-9.42877
▁జరిగే	-9.42884
జో	-9.42891
టె	-9.42948
▁by	-9.43
▁మారి	-9.43144
రెడ్డి	-9.43216
▁స్టా	-9.43224
▁పాప	-9.43231
▁ఏడు	-9.43345
▁చక్ర	-9.43372
▁జాబితా	-9.43378
పుడు	-9.43403
మన	-9.43452
▁గౌరవ	-9.43474
71	-9.43499
▁పూర్	-9.43508
ేంద్ర	-9.43545
క్త	-9.43561
ళి	-9.43595
▁కాలువ	-9.43601
▁పైన	-9.43674
▁సార	-9.43742
్యు	-9.43773
▁అతడు	-9.43831
▁ఫల	-9.43911
▁భారతదేశ	-9.4406
21	-9.44069
ప్రైవేటు	-9.44125
▁నారాయణ	-9.44197
▁సమావేశ	-9.44221
▁అయింది	-9.44277
▁పొడవు	-9.44307
స్తు	-9.44396
▁ఫై	-9.44434
▁భావించ	-9.44541
ర్ల	-9.44778
శాల	-9.44867
▁పరిశ్రమ	-9.44911
రికి	-9.44955
▁క్రమ	-9.45172
▁ఐరోపా	-9.45173
మత	-9.4518
కాయ	-9.45211
▁కర్నూలు	-9.45253
▁రక్త	-9.45335
▁ఢిల్లీ	-9.45339
▁ప్రదర్శించ	-9.45348
▁క్రింద	-9.45403
▁వ్యతిరేకంగా	-9.45422
ఫో	-9.45464
▁కాంతి	-9.45526
వలసిన	-9.45554
▁లేవు	-9.4563
85	-9.4573
పాటు	-9.45754
▁ఫిబ్రవరి	-9.4581
▁v	-9.45811
▁బయట	-9.45828
త్తి	-9.45856
ro	-9.45977
▁పుట్ట	-9.45981
▁విడి	-9.46178
▁పిలుస్తారు	-9.46187
▁చీ	-9.46246
24	-9.46314
▁తొ	-9.4635
▁ఏర్పడిన	-9.46385
▁సామ్రాజ్య	-9.46396
▁సంబంధ	-9.46415
పాల	-9.46435
▁ముఖ	-9.46459
ol	-9.46476
▁పాలన	-9.46554
▁వేరుశనగ	-9.46711
▁రూపంలో	-9.46752
▁రూపొందించ	-9.47013
ంపు	-9.47066
▁అల్ల	-9.47151
▁51	-9.47159
64	-9.47245
▁గురు	-9.473
01	-9.47308
▁నిర్వహించారు	-9.47384
▁అప	-9.47405
లిక	-9.47447
▁రీ	-9.47565
▁పూజ	-9.48009
26	-9.48023
▁చుట్టూ	-9.48023
శాస్త్ర	-9.48071
▁క్రీడ	-9.48139
▁విధానం	-9.4815
▁మొక్కజొన్న	-9.4819
▁ప్రపంచంలో	-9.48248
▁గారు	-9.48293
▁గొ	-9.48313
దె	-9.48316
▁తిరుగుబాటు	-9.48372
▁చర్చ	-9.48413
▁సూ	-9.48442
▁హిందీ	-9.48459
ండే	-9.48487
▁శాసన	-9.48488
ువు	-9.48508
▁కూడిన	-9.48559
రవ	-9.48673
▁చేస్తూ	-9.48768
▁నేషనల్	-9.48816
▁అర్ధ	-9.48932
H	-9.48982
రస	-9.49006
▁ఘన	-9.49007
▁బ్యా	-9.49034
x	-9.49114
▁ప్రకాశం	-9.49139
గొ	-9.49281
▁చాల	-9.49312
▁స్థిర	-9.49421
li	-9.49493
▁29	-9.49652
తల	-9.49657
▁వెనుక	-9.49662
▁తర	-9.49668
▁జన్మ	-9.49717
టరు	-9.49819
ర్డ్	-9.49856
▁జయ	-9.49964
▁తెర	-9.49979
▁పడి	-9.49988
▁t	-9.50037
చార	-9.50079
▁తీ	-9.50089
▁వర	-9.501
ుకుంది	-9.5011
చర	-9.50132
▁అభి	-9.50176
▁గె	-9.50177
చ్ఛ	-9.5022
వార్	-9.50259
▁విశేష	-9.5032
ాక	-9.50366
▁53	-9.50433
▁తయారీ	-9.5048
▁జట్టు	-9.50486
ముఖ	-9.50623
ంటుంది	-9.50703
ృత	-9.50711
▁జీవన	-9.50757
మెంట్	-9.50776
▁de	-9.50817
ంబు	-9.50933
వేయ	-9.50965
43	-9.51003
st	-9.51023
33	-9.51064
▁ఆల్	-9.51078
▁భవన	-9.51103
లియ	-9.51113
ద్య	-9.51125
▁ఛా	-9.51126
ధు	-9.5113
ండ్ర	-9.51157
ir	-9.51202
▁వ్యతిరేక	-9.51336
రియ	-9.51435
▁శాంతి	-9.51478
▁గుర్తు	-9.51509
▁లక్షల	-9.51534
▁జన్మించాడు	-9.5165
▁అధికార	-9.51705
▁2004	-9.51719
న్నీ	-9.5178
63	-9.51786
▁ప్రవేశ	-9.5179
▁యె	-9.51846
32	-9.51847
చూ	-9.51871
▁సింగ్	-9.51952
▁చేపట్ట	-9.51996
ాలయం	-9.51998
▁చేయబడింది	-9.52156
62	-9.52158
▁సంపాదించ	-9.5226
లక	-9.52273
గ్ర	-9.52283
▁కోల్	-9.52319
▁పిల్లల	-9.52325
ాది	-9.52343
▁తిరుపతి	-9.52406
▁గర్భ	-9.52421
um	-9.52439
కాలు	-9.52507
▁గారి	-9.52518
ణా	-9.52658
నాథ	-9.52723
▁తగ్గించ	-9.52725
▁చెట్టు	-9.52786
రాజ్య	-9.52812
▁ముస్లిం	-9.52821
▁31	-9.52839
ాపురం	-9.52843
యూ	-9.52867
61	-9.52871
ప్త	-9.52879
▁సైన్యం	-9.5288
▁ప్రవేశపెట్ట	-9.53013
క్షి	-9.53036
▁గ్రా	-9.53091
▁ఎంపిక	-9.53142
ఫె	-9.53159
▁అయ్య	-9.53256
ూరులో	-9.53269
67	-9.53323
చిన	-9.53383
భ్య	-9.53425
▁అన్నాడు	-9.53483
వైపు	-9.53517
▁సమస్య	-9.5353
▁వాడు	-9.5357
▁అక్టోబరు	-9.53637
▁ప్రధానంగా	-9.53673
▁నమ్మ	-9.53696
77	-9.53719
▁గురువు	-9.53755
▁అందు	-9.53838
ునికి	-9.53888
▁నేల	-9.53912
స్య	-9.53917
▁రు	-9.53984
▁సమీపంలో	-9.54167
▁తెల్ల	-9.54223
▁ఇక్కడి	-9.54223
▁తెలుస	-9.54257
కోట	-9.54266
▁పర్వము	-9.54345
▁క్యా	-9.54367
▁నిర్మించిన	-9.54382
▁పట్ల	-9.54404
▁రాత్రి	-9.5443
▁ప్రణాళిక	-9.54459
27	-9.54517
▁ఆయనకు	-9.54523
▁కంప్యూటర్	-9.5453
id	-9.54563
▁ఆగస్టు	-9.54681
తోపాటు	-9.54688
▁కొల	-9.54699
▁దుర్	-9.54711
80	-9.54752
▁హి	-9.54758
నర్	-9.54785
చన	-9.54813
▁సే	-9.54816
▁తనకు	-9.54823
w	-9.54873
▁ఉపగ్రహ	-9.54882
▁మంత్ర	-9.54946
▁ఉదాహరణకు	-9.54962
▁సాంప్రదాయ	-9.54985
కై	-9.55
▁మార్పు	-9.55008
▁గృహాలు	-9.55044
08	-9.55091
70	-9.55104
▁పరిస్థితి	-9.55112
కాలంలో	-9.55118
పోయి	-9.55138
తె	-9.55151
▁గుణ	-9.55293
▁ఉంటే	-9.55321
ినట్లు	-9.55399
▁పాటలు	-9.55506
▁వాతావరణం	-9.55509
▁ఘ	-9.5553
▁కలి	-9.55545
▁యంత్ర	-9.55625
▁రాజ్యం	-9.55648
▁ఫ్ర	-9.55673
▁పరిధిలో	-9.55779
▁రేడియో	-9.55866
పాటి	-9.55876
పుర	-9.55877
72	-9.559
భావ	-9.55986
▁కుమార్తె	-9.56063
▁భాషా	-9.56178
గడ	-9.56184
99	-9.56187
పోయారు	-9.56191
▁సంయుక్త	-9.56202
▁గ్రామములో	-9.56242
దం	-9.5628
▁సాంస్కృతిక	-9.56494
▁మద్య	-9.56505
మొ	-9.56515
▁హైదరాబాద్	-9.56518
▁వివాహ	-9.56539
ఏ	-9.56554
▁ఆఫ్రికా	-9.56592
కృత	-9.56594
▁V	-9.56726
▁బాధ్యత	-9.56742
sh	-9.56788
▁మార్గ	-9.56809
▁35	-9.57213
▁సందర్భంగా	-9.57254
▁సంబంధం	-9.57283
▁ఎందుకంటే	-9.57346
▁మూస	-9.57471
ర్ర	-9.57502
▁జొన్న	-9.57564
▁సాధన	-9.57569
▁శాస్త్రం	-9.57612
ల్లు	-9.57634
▁అధ్యక్ష	-9.57669
వలసి	-9.57713
▁గుడి	-9.57729
న్య	-9.57752
▁అర	-9.57782
వులు	-9.57809
▁మొదల	-9.57817
▁నియమించ	-9.57874
▁ప్రాంత	-9.5794
వంత	-9.57981
▁నేర	-9.58019
స్థాయి	-9.58089
శ్ర	-9.58187
▁నవ	-9.58189
▁ఆలోచన	-9.58206
▁ఒప్పందం	-9.58266
వల్ల	-9.58384
▁నియోజకవర్గం	-9.5843
స్తున్న	-9.58431
▁మార్గం	-9.58442
▁లక్ష్మీ	-9.58488
▁ప్రయాణ	-9.5852
న్నె	-9.58559
▁100	-9.58575
హం	-9.58582
ర్య	-9.58598
▁అయి	-9.58679
ాం	-9.58723
▁డై	-9.58749
▁on	-9.58764
▁యువ	-9.58772
▁సోమ	-9.58859
0%	-9.58963
▁ప్రకృతి	-9.59019
▁వ్యాస	-9.59089
▁ఆసక్తి	-9.59116
▁సినీ	-9.59136
▁హు	-9.59177
▁con	-9.59187
▁ఇప్పటికీ	-9.59208
▁మొక్క	-9.59209
నాటి	-9.5937
▁కాబట్టి	-9.59457
▁అతనికి	-9.59484
స్త్ర	-9.59493
▁కామ	-9.59519
డర్	-9.59526
ార్థ	-9.59554
▁పద్ధతి	-9.59569
▁డిసెంబరు	-9.59576
▁క్రి	-9.59685
°	-9.59711
▁అంగీకరించ	-9.59712
▁విదేశీ	-9.59726
గ్రా	-9.59765
▁కల్పించ	-9.59774
▁నట	-9.59819
▁2014	-9.59824
▁శిల్ప	-9.5983
54	-9.59879
95	-9.59989
▁చెప్పిన	-9.6009
▁2005	-9.60096
▁రెండో	-9.60151
▁మాట్లాడ	-9.60221
▁an	-9.60236
▁రాసిన	-9.60243
▁ఉంటారు	-9.6029
V	-9.60341
▁చట్టం	-9.60402
98	-9.60407
▁O	-9.60407
▁నక్షత్ర	-9.60429
05	-9.60443
▁దూ	-9.60467
▁ఖాన్	-9.60565
ంతా	-9.60571
ాంత	-9.60575
కార్	-9.60645
▁అనుభవ	-9.60655
క్ర	-9.60659
▁స్థాయిలో	-9.60698
▁పండుగ	-9.60707
▁చెప్పాడు	-9.60719
ఎస్	-9.60727
భేద	-9.60747
▁భౌతిక	-9.60767
▁అనుమతి	-9.60789
స్టు	-9.60819
▁పారి	-9.60837
▁భాషలో	-9.60904
టై	-9.60905
83	-9.60928
69	-9.60945
చా	-9.60961
te	-9.60981
07	-9.61051
▁గృహ	-9.61103
బద్ధ	-9.61115
▁వెంటనే	-9.61121
66	-9.61128
▁that	-9.61147
▁తిరు	-9.61149
▁కూడ	-9.61257
▁చదువు	-9.61334
90	-9.61347
▁క్ల	-9.61397
▁కరీంనగర్	-9.61425
▁పాకిస్థాన్	-9.61553
▁విమర్శ	-9.61598
కము	-9.6161
▁బాల్	-9.61614
78	-9.61625
93	-9.61651
74	-9.61806
▁కార్యక్రమాల	-9.61857
84	-9.61919
68	-9.6199
సిన	-9.62114
▁ఫె	-9.62179
▁డీ	-9.62188
▁సెప్టెంబరు	-9.6222
42	-9.62268
▁ప్రచురించ	-9.62277
▁బై	-9.62306
గారు	-9.62331
▁ఖమ్మం	-9.62355
▁విమాన	-9.62368
81	-9.62452
▁ఉన్నది	-9.6247
లింగ్	-9.62556
34	-9.62603
చీ	-9.62631
96	-9.62672
▁60	-9.62744
76	-9.62829
▁కల్ప	-9.62869
ిస్తే	-9.62873
కూరు	-9.62989
▁వృక్ష	-9.6299
▁దేవాలయం	-9.62999
▁చెక్క	-9.6302
గె	-9.6312
▁వర్	-9.63198
▁వ్యాసం	-9.632
▁పాకిస్తాన్	-9.6322
▁నవంబరు	-9.63315
▁గ్	-9.63322
కవి	-9.63347
ఖా	-9.63351
మం	-9.63379
▁ఎయిర్	-9.63506
06	-9.63527
91	-9.63532
03	-9.63537
దేశాల	-9.63566
ములలో	-9.63621
▁చివర	-9.63638
ాంగ	-9.63734
▁మరణ	-9.63773
▁వెళ్ల	-9.63804
యాన్	-9.63844
▁అర్థ	-9.63939
▁కుమార	-9.63962
▁చక్రవర్తి	-9.63976
తూ	-9.64042
▁జు	-9.64098
▁నలుగురు	-9.64129
▁ఇప్పటి	-9.64194
▁పట్టు	-9.64275
కంగా	-9.64289
▁సహాయ	-9.64421
▁కావ్య	-9.64549
జే	-9.64602
▁చల్ల	-9.64714
-1	-9.64763
▁పత్ర	-9.64776
గొట్ట	-9.64807
▁ఇక	-9.6482
పురంలో	-9.6482
▁కాలనీ	-9.64823
▁చూస	-9.6484
▁ప్రమాద	-9.64905
▁డిస్	-9.64962
ti	-9.64982
▁శైలి	-9.65016
హో	-9.65077
▁పద్మ	-9.65081
▁స్థల	-9.65094
▁లై	-9.65157
▁com	-9.65173
ఫీ	-9.65207
▁2016	-9.65239
ారెడ్డి	-9.65244
బే	-9.65252
▁లోహ	-9.65257
తుంది	-9.65334
ma	-9.65362
86	-9.65395
87	-9.65438
▁సంఘటన	-9.65493
hi	-9.6554
మల	-9.65631
▁శిక్ష	-9.657
ుకుంటారు	-9.65772
ేది	-9.65784
▁ప్రజలకు	-9.65846
09	-9.65881
రుగు	-9.66013
ంటారు	-9.66043
▁వాయువు	-9.66047
కరమైన	-9.66049
▁దీన్ని	-9.66061
శ్రీ	-9.6607
▁జాన్	-9.66097
▁వేడి	-9.66106
▁సమయం	-9.66115
▁యూనియన్	-9.66141
దల	-9.66156
▁నియంత్రణ	-9.66163
▁ట్ర	-9.66216
ాల్సి	-9.66227
▁నిజ	-9.66304
92	-9.66328
▁విప్లవ	-9.66426
▁మల్ల	-9.66489
▁ప్రెస్	-9.66511
▁విడుదలైన	-9.66529
రియన్	-9.66533
▁సభ్యులు	-9.66545
▁అనంతపురం	-9.66561
గ్గ	-9.669
▁ప్రవేశించ	-9.66952
దర్	-9.67031
రాన్	-9.67045
31	-9.67108
▁రచించిన	-9.67113
000	-9.67173
ాపూర్లో	-9.67185
ల్డ్	-9.67211
వల	-9.67235
▁కల్	-9.67269
ినా	-9.67299
55	-9.67337
▁వేసవి	-9.67354
▁తరచుగా	-9.67363
▁నమూనా	-9.67365
▁ఉన్నాడు	-9.67366
▁బాధ	-9.67369
▁మరి	-9.67386
▁రావు	-9.67395
డంలో	-9.67398
పల్లిలోను	-9.67416
▁అక్కడి	-9.67426
▁విధ	-9.67479
▁జరుప	-9.67485
▁గ్రహ	-9.675
97	-9.67501
▁నిర్మించారు	-9.67517
లిన్	-9.67584
▁చెప్పవచ్చు	-9.67604
ment	-9.67823
▁పుస్తక	-9.67844
▁ప్రొ	-9.67949
ల్లె	-9.68001
▁ప్రో	-9.68043
▁నాడు	-9.68063
▁నియమ	-9.68093
పర	-9.68102
▁తెలుగులో	-9.68121
ందే	-9.68192
▁ప్రారంభించారు	-9.68323
స్తాడు	-9.68395
▁ఉద్యమం	-9.68401
బడే	-9.68427
క్షన్	-9.68553
▁2000	-9.68586
▁అనుసరించి	-9.68617
▁రికార్డు	-9.68667
వతి	-9.68772
▁హెచ్	-9.68804
▁స్వా	-9.68836
▁విజయనగరం	-9.68867
▁st	-9.68872
▁పుష్ప	-9.6889
02	-9.68893
▁వంటివి	-9.68954
▁ఉద్దేశ	-9.68999
▁సూక్ష్మ	-9.6905
▁పసుపు	-9.69078
▁విజ్ఞాన	-9.69087
▁ఫర్	-9.69208
శక్తి	-9.69233
▁మొదలు	-9.69262
▁కలుప	-9.69263
▁కలసి	-9.69294
▁జపాన్	-9.693
స్కో	-9.69378
▁చిత్రంలో	-9.69393
గూడ	-9.69417
▁సరి	-9.69421
▁నై	-9.69589
73	-9.69599
▁క్రింది	-9.69633
▁పెద	-9.69651
▁వీలు	-9.69712
▁ఆధారపడి	-9.69718
}	-9.69721
▁తక్కువగా	-9.69729
94	-9.69741
▁పుస్తకం	-9.69758
▁ముందుగా	-9.69775
▁వర్ష	-9.69836
▁భావిస్తున్నారు	-9.70009
డ్డ	-9.70038
▁అభిప్రాయ	-9.70277
▁రష్యా	-9.70292
▁ప్రకటించ	-9.70313
ులతో	-9.70378
▁కణ	-9.70498
89	-9.70502
▁నల్గొండ	-9.70542
▁యోగ	-9.70547
88	-9.70558
పరమైన	-9.70618
57	-9.70635
శాస్త్రం	-9.70672
క్తి	-9.70683
▁చూ	-9.70704
▁52	-9.70718
ినప్పుడు	-9.70738
▁విశ్వవిద్యాలయ	-9.70777
▁కొడుకు	-9.70793
భి	-9.7086
▁స్థితి	-9.70864
ర్తి	-9.70923
▁ద్రవ	-9.71012
▁శాస్త్రీయ	-9.71013
▁నౌక	-9.71043
ow	-9.71058
ాపూర్	-9.71059
▁స్వీకరించ	-9.71074
▁ఎన్నిక	-9.71169
▁he	-9.7121
▁కర్ణాటక	-9.71212
▁అయినా	-9.71294
▁ప్రకటన	-9.71367
▁ప్రాంతాలు	-9.7146
04	-9.71462
▁దేవాలయ	-9.71493
బడతాయి	-9.71585
న్నది	-9.71585
▁స్వాతంత్ర్య	-9.71623
▁రోజులు	-9.71718
యోగ	-9.71731
ొక్క	-9.71764
▁కనిపిస్తుంది	-9.71834
▁తయార	-9.71862
▁దీనిలో	-9.7189
లిక్	-9.71916
▁భక్తులు	-9.71921
▁పవిత్ర	-9.72
▁జర్మనీ	-9.72084
▁వున్నవి	-9.72087
▁e	-9.72128
▁అనంతరం	-9.72226
లక్ష్మి	-9.7223
▁గ్రంథ	-9.72261
▁దూర	-9.72264
▁దిగ	-9.72272
▁గత	-9.72357
▁పేజీ	-9.72427
▁చెందింది	-9.7243
65	-9.72432
79	-9.72455
▁పోలీసు	-9.72481
45	-9.72514
29	-9.72546
▁డే	-9.72605
డము	-9.7264
గానూ	-9.72721
28	-9.72739
▁పరిచయం	-9.72748
▁రాష్ట్రంలో	-9.72758
▁యుద్ధంలో	-9.72765
vi	-9.72822
పోతుంది	-9.72851
సిస్	-9.72953
వాగు	-9.73065
35	-9.73074
▁సమాన	-9.73103
▁ఎక్కడ	-9.73158
▁సగటు	-9.73279
గారి	-9.73329
▁కర్మ	-9.73352
▁అంశాల	-9.73418
▁విష్ణు	-9.73432
కంటే	-9.73515
▁జీవితం	-9.73642
▁జిల్లాకు	-9.73655
▁సమాజ	-9.73734
▁జగ	-9.73793
▁క్షేత్ర	-9.738
▁దర్శకత్వం	-9.73837
జీవ	-9.73856
▁కన్	-9.73888
▁was	-9.73889
మయ	-9.73962
▁{	-9.74002
కోసం	-9.74052
▁తరగతి	-9.74059
▁క్రైస్తవ	-9.74132
స్తే	-9.74162
త్స	-9.74243
గల్	-9.74275
▁నిజాం	-9.74309
శాస్త్రి	-9.74311
▁వ్యాసాలు	-9.74319
▁మతం	-9.74342
ర్యా	-9.74419
ిగా	-9.74431
శారు	-9.74463
పరు	-9.74488
▁కూర్చ	-9.74531
దేశం	-9.74543
48	-9.74572
గుణ	-9.74583
▁కొట్ట	-9.74584
పూ	-9.74656
వాన్	-9.74656
▁from	-9.74661
▁కాయ	-9.74672
▁బంగారు	-9.74754
▁కథలు	-9.74766
దిగా	-9.74792
▁32	-9.7482
బీయెస్	-9.74835
▁సౌ	-9.74878
▁అసలు	-9.74882
▁పట్టణం	-9.74962
▁వేస	-9.74972
ండర్	-9.75061
▁తీసుకో	-9.75092
ంచు	-9.75139
▁బంధ	-9.75156
▁పాద	-9.75166
▁సొంత	-9.75174
పట్ట	-9.75203
▁కోట్ల	-9.75212
వేశ	-9.75247
▁మంద	-9.75286
ుకోవడానికి	-9.75287
▁భక్తి	-9.75316
నీయ	-9.75321
దాన	-9.75332
▁స్టీ	-9.7535
▁పురుష	-9.75384
శ్వ	-9.75452
▁ఎమ్బీ	-9.75454
▁పిల్ల	-9.75502
తున్న	-9.75623
ka	-9.75647
▁భాగంలో	-9.7566
▁ప్రాంతాల్లో	-9.75686
▁అధ్యయనం	-9.75692
▁సార్లు	-9.75752
ru	-9.75762
▁సినిమాలో	-9.75796
▁ప్రచారం	-9.758
డూ	-9.75808
▁వ్రాసిన	-9.75844
▁ఎర్ర	-9.75864
▁చేతి	-9.75866
▁ఉండవచ్చు	-9.75879
ist	-9.75899
▁తెలి	-9.75938
▁వ్రాయ	-9.75965
44	-9.75992
జ్జ	-9.76059
కుంట	-9.76071
▁వివర	-9.76072
▁క్రీడా	-9.7612
▁గడి	-9.76129
47	-9.76188
పల్లెలో	-9.76196
75	-9.76209
వారికి	-9.76212
▁ముక్క	-9.7622
▁ఔ	-9.76232
▁రస	-9.7628
నిక్	-9.76341
ాయని	-9.76359
ate	-9.76421
రాల	-9.76493
రాయి	-9.76604
▁మగ	-9.76614
ుతున్నారు	-9.76632
▁జరగ	-9.76635
పరంగా	-9.76655
▁చదివిన	-9.76661
▁మనం	-9.76713
▁తిరుమల	-9.76728
▁|	-9.76752
em	-9.76874
▁పోలి	-9.769
▁నెహ్రూ	-9.76919
▁వెలి	-9.7694
▁ప్రత్యక్ష	-9.76949
▁చిత్రాలు	-9.76952
▁పద్య	-9.76991
దన	-9.77007
56	-9.77041
గీ	-9.7721
om	-9.77354
▁మల	-9.77389
▁అందుకు	-9.77396
41	-9.77423
హు	-9.77426
ాలనే	-9.77431
▁కాకినాడ	-9.77574
▁ma	-9.77643
▁are	-9.77657
▁at	-9.77661
స్టి	-9.77681
82	-9.7788
సేన	-9.77907
▁అభ్యర్థి	-9.78022
ట్రో	-9.78079
▁r	-9.78108
▁కింద	-9.78141
▁తీసి	-9.78212
▁చరిత్రలో	-9.78227
యాన	-9.78239
and	-9.78306
▁సోదర	-9.78321
▁వయస్సు	-9.78323
నొ	-9.7834
▁వ్యక్తిగత	-9.78368
▁వైద్యశాలలో	-9.78406
▁సైన్య	-9.78426
పడి	-9.78439
పోయే	-9.78458
ta	-9.78522
na	-9.78553
▁తరువాతి	-9.78568
▁రాగ	-9.78576
▁అర్బన్	-9.78629
▁వుండ	-9.7868
▁ప్రసార	-9.78712
▁అక్షర	-9.7872
జన్	-9.78799
▁అవసరమైన	-9.78887
కొని	-9.78967
▁కర	-9.79
▁జూ	-9.79
▁1990	-9.79125
చేత	-9.79145
▁దిన	-9.79206
▁సిద్ధాంత	-9.79221
▁ప్లా	-9.79249
▁మిలియన్	-9.79252
▁తేదీ	-9.7929
హిత	-9.79368
▁చేయబడిన	-9.79463
▁సాధ్య	-9.7948
▁వదిలి	-9.79517
▁దో	-9.79591
పోయాడు	-9.79648
షు	-9.79662
▁పదవి	-9.79692
▁పొందారు	-9.79703
వంతమైన	-9.7971
▁వ్య	-9.79735
ot	-9.7975
▁వెల్	-9.79846
▁వస్త్ర	-9.79873
శాఖ	-9.79894
▁పరిస్థితుల	-9.79966
▁ఇస్లాం	-9.79991
▁దృశ్య	-9.80022
▁నీవు	-9.8003
▁పురాణ	-9.80046
▁అభిమాన	-9.80074
▁వాస్తవ	-9.80084
చర్	-9.80107
▁చర్చి	-9.80146
ించు	-9.80226
▁తత్వ	-9.80272
గత	-9.80277
పోవ	-9.80303
U	-9.80314
ాకార	-9.80329
▁లభించింది	-9.80334
నప్పుడు	-9.80376
▁గే	-9.80448
రేట్	-9.80464
మయిన	-9.80496
▁జన్మించారు	-9.80501
ైతే	-9.80505
నప్పటికీ	-9.8053
ేలా	-9.80573
▁తోట	-9.80607
▁ఆహారం	-9.80612
ాధికార	-9.80762
ారం	-9.80791
ంతి	-9.80804
▁టో	-9.8086
▁ఉండాలి	-9.80864
▁సూచి	-9.80921
▁అవుతుంది	-9.80961
37	-9.81037
ద్దు	-9.81125
▁కాపాడ	-9.81163
▁శబ్ద	-9.81193
▁మనిషి	-9.81224
స్టా	-9.81288
▁ఆక్రమించ	-9.81382
▁గణ	-9.81417
51	-9.81426
యన	-9.81519
భాగం	-9.81531
▁దిగువ	-9.81535
టూ	-9.81641
▁సర్వీసు	-9.81688
▁రంగంలో	-9.81718
కొన	-9.81728
పించ	-9.81777
తికి	-9.81814
▁నృత్య	-9.81829
ాలయ	-9.8183
36	-9.81844
▁ఆమ్ల	-9.81863
▁జిల్లాలోని	-9.81865
▁భారత్	-9.81934
▁సత్	-9.81952
జాల	-9.81979
ుడికి	-9.82012
▁టె	-9.82111
ల్ని	-9.82139
యము	-9.82145
లియా	-9.8215
▁కోరిక	-9.82158
దార	-9.82171
▁ఖర్చు	-9.82187
▁భీమ	-9.82247
▁యి	-9.82248
▁ఆస్ట్రేలియా	-9.8228
▁45	-9.82288
ia	-9.82328
▁ప్రదేశం	-9.82387
▁ఉండగా	-9.8241
▁కమిటీ	-9.82437
▁ఇచ్చిన	-9.825
▁మౌ	-9.8263
▁ఉపయోగించి	-9.82678
▁దైవ	-9.82689
▁పరమ	-9.82713
డాన్ని	-9.8273
▁పిల్లలు	-9.82748
▁ప్రశ్న	-9.82769
▁జే	-9.8279
▁వ్రాస	-9.82827
రన్	-9.82856
▁రిపబ్లిక్	-9.82882
▁మధ్యలో	-9.82883
▁అనంత	-9.82933
▁ప్రయత్నించ	-9.82934
▁స్కూల్	-9.82941
▁తీయ	-9.82952
▁వారిలో	-9.8306
స్సు	-9.83079
షియ	-9.83154
కారుడు	-9.83227
ద్ది	-9.83232
39	-9.83296
ాంతర	-9.83312
▁పర్యాటక	-9.83344
▁చేరి	-9.83531
▁ప్రతీ	-9.8354
▁ఆలయంలో	-9.83542
▁నిర్మాత	-9.83573
శ్య	-9.83666
▁అడుగు	-9.83695
విద్య	-9.83717
ధ్వ	-9.83772
న్నారు	-9.83845
ాలంటే	-9.8387
49	-9.8388
గుంట	-9.83924
వలన	-9.83945
▁మీటర్ల	-9.84012
ంటా	-9.84032
▁పుట్టిన	-9.84053
▁ప్లే	-9.84069
58	-9.84082
G	-9.84093
▁కాల్	-9.84115
దూ	-9.84163
వచ్చ	-9.84171
▁పరిమాణం	-9.84221
▁మర్	-9.84231
▁సుందర	-9.84274
▁ప్రాంతీయ	-9.84288
▁అన్నది	-9.84305
పాడులో	-9.84316
46	-9.84381
▁సాధించింది	-9.84409
▁పుణ్య	-9.84411
చేసిన	-9.84445
▁గతంలో	-9.84459
వడం	-9.84477
▁సభ్యుల	-9.84566
▁అందువలన	-9.84573
▁కొంతమంది	-9.84588
బడ్డాడు	-9.84649
రువు	-9.84679
కృష్ణ	-9.84709
యల్	-9.8478
▁మిలియన్ల	-9.84879
▁సాంఘిక	-9.84912
ముతో	-9.84917
▁క్రికెట్	-9.84981
▁రొ	-9.85078
ఫల	-9.85118
మైనవి	-9.85156
▁దర్శకుడు	-9.85185
▁పండ	-9.85196
▁చెబుత	-9.85266
▁రచనలు	-9.85295
res	-9.8533
ve	-9.85348
▁అంగ	-9.85368
▁లాల్	-9.85462
▁ఉన్నా	-9.85471
▁అడుగుల	-9.85515
లింగ	-9.85569
▁పనిచేశాడు	-9.85597
▁స్వర	-9.85648
శు	-9.85656
▁సూత్ర	-9.85682
▁ప్రాజెక్టు	-9.85686
ేష్	-9.85687
నూరు	-9.85691
▁దూరములో	-9.85725
▁స్త్రీలు	-9.85793
▁నాకు	-9.85802
సియా	-9.85833
▁చంద	-9.85839
ొక	-9.85851
▁గంగ	-9.859
▁ఖా	-9.8594
▁సొ	-9.85967
▁ఛ	-9.85982
ers	-9.85992
▁సాగు	-9.85994
▁నీటిని	-9.86017
▁అర్ధం	-9.86026
di	-9.86029
▁చలనచిత్ర	-9.86047
ఈ	-9.86149
పత్తి	-9.86318
▁బొమ్మ	-9.86332
మ్ము	-9.86341
▁యాత్ర	-9.86353
▁లకు	-9.86355
▁స్వంత	-9.86397
▁గమనించ	-9.86412
▁వహించ	-9.86469
ానంద	-9.86594
గూడెం	-9.86622
▁ప్రత్యేకంగా	-9.86675
▁వర్గం	-9.86709
రస్	-9.8672
▁విష	-9.86727
▁పొందాడు	-9.8676
▁ముఖ్యమంత్రి	-9.86766
▁వ్యవహరించ	-9.86794
▁ఆమెను	-9.86808
ుంది	-9.86819
షణ	-9.86832
▁అంతా	-9.8686
గడ్డ	-9.86871
▁అఫ్	-9.86892
▁పార్	-9.8692
▁పరిమిత	-9.86953
▁ఏర్పడింది	-9.86955
పాత్ర	-9.87006
క్కి	-9.87025
▁పన్ను	-9.87033
▁వార్	-9.87043
▁అధికారం	-9.87043
▁ఉండేవి	-9.87054
▁మర	-9.87059
53	-9.87218
▁చెరకు	-9.87224
ect	-9.87283
▁గణిత	-9.87285
తలు	-9.87289
▁సృష్టి	-9.87303
▁భూగర్భ	-9.87351
▁స్టేట్స్	-9.87465
▁అమరావతి	-9.87483
▁వాయు	-9.87578
▁చేసుకున్న	-9.87593
▁ఫోర్	-9.87597
ట్రా	-9.87611
est	-9.87635
▁సముద్రం	-9.87644
52	-9.8767
కింగ్	-9.87743
▁which	-9.8778
ాబాద్	-9.87847
38	-9.87869
▁ప్రాంతాన్ని	-9.87884
కుండ	-9.87917
▁విషయంలో	-9.87918
టంతో	-9.87948
పక్ష	-9.87949
▁ఇలాంటి	-9.88009
కథ	-9.88028
▁నంది	-9.88032
▁గంగా	-9.88051
▁చెన్నై	-9.881
▁పూర్వం	-9.88124
▁ప్రయత్న	-9.882
▁వన	-9.88265
▁పురస్కారం	-9.88296
▁1980	-9.883
▁హార్	-9.8835
నాయక	-9.88461
▁నటుడు	-9.88476
▁నిర్ణయ	-9.88519
▁2012	-9.88562
▁కన్నడ	-9.88585
▁ఏరియా	-9.88629
గురు	-9.88663
ant	-9.88701
▁చారిత్రక	-9.8881
రల్	-9.88824
▁తెచ్చ	-9.88857
▁నాయక	-9.88867
▁ఉందని	-9.88943
▁వంట	-9.8901
▁33	-9.89073
▁నిర్వహించిన	-9.89167
ఫర్	-9.89177
▁ఇతను	-9.89242
▁బరువు	-9.89243
ay	-9.89327
నియన్	-9.89387
ఖ్	-9.89408
▁ఊరి	-9.89556
చ్చు	-9.89561
▁పల్లె	-9.89567
మయ్య	-9.89695
▁చలన	-9.89702
ంటూ	-9.89703
▁లండన్	-9.89717
▁కలిగించ	-9.89732
▁పనిచేశారు	-9.89765
▁అధ్యక్షుడు	-9.89782
▁సున్న	-9.89846
ంటె	-9.89886
▁దర్శన	-9.89907
మర	-9.90002
▁సాధించిన	-9.90021
తిని	-9.90044
▁భావన	-9.9007
▁ఆధార	-9.90097
శీ	-9.90098
▁చేతిలో	-9.90201
▁దాన్ని	-9.9022
59	-9.90236
▁ప్రక్క	-9.90239
నామ	-9.90282
▁పేర్లు	-9.90289
all	-9.90529
రిక్	-9.90539
▁అడ్డ	-9.90569
▁తగ్గి	-9.90597
▁ఓడ	-9.90602
▁పారిశ్రామిక	-9.90632
▁ఉపయోగించే	-9.90711
▁గ్రామీణ	-9.90733
దశ	-9.90793
ెం	-9.90869
▁నివేదిక	-9.90869
మార్గ	-9.90895
▁పెడ	-9.90932
per	-9.91024
షీ	-9.91092
ఆర్	-9.91169
▁తార	-9.91211
▁కడప	-9.91228
హర	-9.91349
▁మనసు	-9.91368
▁తదితర	-9.91382
▁విభజించ	-9.91417
▁ఇంగ్లీషు	-9.91451
దార్	-9.91515
ైనా	-9.91534
▁హక్కు	-9.91622
▁సంబంధిత	-9.91692
▁చివరకు	-9.91708
▁ఆమెకు	-9.91721
▁దీప	-9.91784
▁మారు	-9.91787
▁ఫ్రెంచ్	-9.91829
▁విషయ	-9.91862
j	-9.9189
▁ఆమ్లం	-9.91908
మ్స్	-9.91919
▁తేడా	-9.91941
▁బర్	-9.92097
▁ఎవరి	-9.92106
▁జైలు	-9.92114
పేటలో	-9.92124
op	-9.92125
▁ఇండియన్	-9.92145
ెన్	-9.92145
▁ప్రయత్నం	-9.92167
▁నడి	-9.92185
సెస్	-9.92216
▁పరిసర	-9.92235
మణి	-9.92278
ఐ	-9.92302
▁పలక	-9.92339
W	-9.92373
త్రి	-9.92399
ప్రా	-9.9242
▁ఆప	-9.92436
lo	-9.92509
▁కేసు	-9.92517
కాంత	-9.92527
లాండ్	-9.92543
▁దర్శక	-9.92641
వరంలో	-9.92647
▁పరా	-9.92713
▁పదార్థం	-9.92745
▁కై	-9.92757
▁కన్న	-9.92783
ity	-9.92815
▁వచ్చ	-9.92852
బంధ	-9.92895
▁80	-9.92896
▁it	-9.93008
▁పద్ధతుల	-9.93096
ాల్సిన	-9.93188
ష్ఠ	-9.93191
దారు	-9.93218
▁దశలో	-9.93352
తిక	-9.93373
▁మాన్	-9.93519
▁pro	-9.93524
▁సభ్య	-9.93581
▁రకాలు	-9.93595
▁రథ	-9.93624
పోవడం	-9.93626
▁గోడ	-9.93634
▁జై	-9.93653
క్సి	-9.9369
▁తగిన	-9.93696
▁దక్క	-9.93775
▁సమాచార	-9.938
▁దేశాలు	-9.9382
ab	-9.93831
▁పొడి	-9.93839
▁అడవి	-9.9385
వని	-9.93851
▁శంకర	-9.93866
పాక	-9.93901
నంద	-9.93909
బడ్డారు	-9.93917
▁మామిడి	-9.93936
▁మ్యాచ్	-9.93964
▁బాణ	-9.93989
▁చేస	-9.9399
▁ఇరు	-9.94008
▁వేసి	-9.94041
దృ	-9.94079
▁సేన	-9.94107
▁గాను	-9.94129
ul	-9.94163
బడ్డ	-9.94167
▁36	-9.94222
▁ఏర్పరచ	-9.94233
▁విన	-9.94245
ప్రాథమిక	-9.94252
▁వాహన	-9.94296
గ్రహ	-9.94342
▁కార్యక్రమాలు	-9.94344
ca	-9.9435
▁మిశ్రమ	-9.94374
▁హత్య	-9.94405
ందా	-9.9442
ంపేట	-9.94475
వెన్	-9.94517
▁ప్రాధాన్యత	-9.94551
▁ఆచార	-9.94584
▁నరసింహ	-9.94621
▁మార్పులు	-9.94685
▁సంస్థల	-9.94704
పరిచ	-9.94746
▁మట్టి	-9.94828
ారా	-9.9484
▁సోవియట్	-9.9487
వైన	-9.94914
భారత	-9.94974
బడుతున్న	-9.94991
▁డో	-9.95071
బల	-9.95114
చ్చే	-9.95165
ga	-9.95176
▁పచ్చ	-9.95187
▁జనరల్	-9.95207
▁In	-9.95229
దారుల	-9.95262
▁వర్గ	-9.95437
▁వరల్డ్	-9.9545
▁°	-9.95478
▁జాతుల	-9.95505
▁పనిచేస్తున్న	-9.95512
టల్	-9.95542
▁ఎఫ్	-9.95552
▁యజ్ఞ	-9.95555
▁మళ్ళీ	-9.95654
▁అగ్ర	-9.95691
▁ఇంధన	-9.95693
డియా	-9.95705
▁ప్రథమ	-9.95792
▁కోర్టు	-9.95793
రొ	-9.95819
▁సంవత్సరము	-9.96014
▁అందుకే	-9.96097
ుతుందని	-9.96141
▁నిల్వ	-9.96164
▁వేంకట	-9.96169
▁నూ	-9.96201
ారంలో	-9.96217
ac	-9.96247
▁దీ	-9.96252
▁నిజామాబాద్	-9.96264
▁సేవలు	-9.96272
ుకొన్న	-9.96301
▁నంద	-9.96303
▁బౌ	-9.96326
ుకుంటూ	-9.96381
▁తిన	-9.96386
▁సింహ	-9.96403
▁రేఖ	-9.96506
థ్	-9.96533
▁వర్ణించ	-9.96541
▁సామెత	-9.96589
▁పోషించ	-9.96609
▁లక్ష్య	-9.96635
▁వయసు	-9.96674
▁కుటుంబం	-9.96726
▁గ్రీకు	-9.96777
▁వరుస	-9.96812
▁వస్తువు	-9.96832
▁సారి	-9.96857
ధర్మ	-9.96865
▁జరిగాయి	-9.96877
ుచున్న	-9.96916
▁అధికారిక	-9.96938
▁ఇంద్ర	-9.96943
▁2003	-9.97112
ఛ	-9.97153
▁మరణించ	-9.97171
▁ప్రవక్త	-9.97277
▁అందరి	-9.97295
▁కనిపించే	-9.9733
▁వాతావరణ	-9.97346
హీ	-9.97354
▁మనకు	-9.9736
▁మాజీ	-9.97361
▁కోప	-9.97371
▁నిత్య	-9.97378
సన	-9.97427
దారులు	-9.97434
▁దేవత	-9.97436
▁జానపద	-9.97459
▁ఉదాహరణ	-9.97502
ధ్	-9.97518
▁పరిపాలన	-9.9752
బొ	-9.97531
ge	-9.97572
▁వచ్చాయి	-9.97577
▁mo	-9.9759
▁పాలు	-9.97609
▁రావ	-9.97687
▁పొర	-9.97717
▁వృద్ధి	-9.97721
▁బార్	-9.97782
శీల	-9.97881
ర్ధ	-9.97916
▁దర్శకత్వంలో	-9.97929
▁కొనసాగించ	-9.98013
పులు	-9.98084
క్షేత్ర	-9.98155
▁దేవి	-9.98182
ణీ	-9.98212
డ్స్	-9.98223
▁ఉష్ణ	-9.98297
▁అలీ	-9.98298
▁కాన్	-9.98309
సులు	-9.98375
▁లాభ	-9.98456
గన్	-9.98469
ోత్సవ	-9.98495
▁ఉద్	-9.98495
సింగ్	-9.98504
రాం	-9.98505
తకు	-9.98511
▁ద్వీప	-9.98517
దర్శన	-9.98598
▁విస్తరించ	-9.98664
పడిన	-9.98675
up	-9.98683
▁చదువ	-9.98717
▁సంస్కరణ	-9.98742
▁వీరికి	-9.98805
ుడై	-9.98814
▁రాస	-9.98826
▁సంస్థాన	-9.98862
▁తీసుకుని	-9.98884
ెంట్	-9.98907
▁స్నేహితు	-9.98934
▁పెట్టి	-9.98963
age	-9.99043
▁తిరుగు	-9.99057
▁అంతే	-9.99062
▁గుర	-9.99065
▁రాణి	-9.99076
▁కప్ప	-9.99087
▁ప్రతిపాదించ	-9.99118
▁సెంటర్	-9.99129
lu	-9.99186
▁నెలల	-9.99191
▁ఒకటిగా	-9.99243
▁this	-9.99263
▁సుఖ	-9.99268
నాధ	-9.99293
▁గోపాల	-9.99345
▁వుండును	-9.99352
▁1970	-9.99433
ాపురంలో	-9.99504
▁వెళ్లి	-9.99523
సార	-9.99586
▁లోక	-9.9959
▁అడవుల	-9.9962
▁సిటీ	-9.99664
▁దాన	-9.99697
▁మొదలగు	-9.99849
▁ఇచ్చే	-9.99858
ార్ధ	-9.99871
▁క్లా	-9.99917
▁గుండె	-9.99978
▁జైన	-10
▁రక్షించ	-10.0001
▁కర్ణ	-10.0003
▁నాట్య	-10.0007
▁ఏర్పడ	-10.0009
ాభి	-10.0011
▁బహుమతి	-10.0012
ుకుంటున్న	-10.0016
▁రోగ	-10.0021
ci	-10.0021
ni	-10.0025
▁బెంగాల్	-10.0034
▁పోరాట	-10.0035
వేష	-10.0036
▁ప్యా	-10.0037
▁సీత	-10.0042
▁ఇచ్చి	-10.0043
▁వివరణ	-10.0049
▁సంపద	-10.0053
ందో	-10.0056
▁పొట్టి	-10.0058
మాల	-10.0059
bo	-10.006
▁హాస్య	-10.0063
▁ప్రారంభంలో	-10.0064
▁స్థాపించ	-10.0064
▁కంది	-10.0065
▁దర్	-10.0073
దగిన	-10.0074
▁కీర్తి	-10.008
▁వ్యాసాల	-10.0081
▁సమాచారం	-10.0083
▁పర్యావరణ	-10.0083
▁పాల్గొన	-10.0083
రాలు	-10.0084
▁శాస్త్రవేత్త	-10.0091
▁పనులు	-10.0091
సంబంధ	-10.0094
భూ	-10.0095
▁సంబంధించి	-10.0096
▁సంకేత	-10.0113
▁పాలనలో	-10.0114
▁పనిచేయ	-10.0115
▁తమిళనాడు	-10.0122
▁మానసిక	-10.0125
▁తీవ్ర	-10.0125
▁వృత్త	-10.0125
▁పరిణామ	-10.0132
▁వాడి	-10.0135
▁రోజున	-10.014
కాశ	-10.0147
ాలపై	-10.0152
▁విద్యుత్తు	-10.0152
▁ఎటువంటి	-10.0154
▁స్నాన	-10.0158
▁చెప్పి	-10.016
▁సహాయం	-10.0164
పాలెంలో	-10.0164
▁అమృత	-10.0166
పంచ	-10.0166
▁కేంద్రంగా	-10.0167
▁వేదిక	-10.0171
▁తేదీన	-10.0175
రుగా	-10.0178
▁జంతువుల	-10.0182
▁జరిప	-10.0182
ళ్	-10.0183
శం	-10.019
▁వెబ్	-10.0192
▁కార్యక్రమం	-10.0194
▁ఆయా	-10.0194
▁నటించిన	-10.0197
de	-10.0197
వేద	-10.0198
▁భాగాలు	-10.0201
▁హక్కుల	-10.0202
లుగు	-10.0202
ట్లుగా	-10.0203
▁శ్రీలంక	-10.0204
▁రాతి	-10.0206
▁కెనడా	-10.0216
పోయాయి	-10.022
▁నాయకుడు	-10.0222
▁పార	-10.0229
▁వేర్	-10.023
▁నెట్	-10.023
న్నాడు	-10.0231
▁దివ్య	-10.0231
దైన	-10.0235
నున్న	-10.0236
▁మహారాష్ట్ర	-10.0237
▁37	-10.0239
▁చూపించ	-10.0239
▁నటి	-10.0256
టరీ	-10.0257
మ్మి	-10.0258
▁నిర్మల్	-10.0259
మూల	-10.0262
▁ఇచ్చారు	-10.0268
ంక్	-10.0268
▁మొక్కల	-10.0276
▁భూభాగం	-10.0277
▁మన్	-10.0278
▁వెళ	-10.0282
జ్ఞాన	-10.0283
ag	-10.0285
గణ	-10.0287
▁నటన	-10.0288
▁విభాగ	-10.029
▁ఆధ్వర్యంలో	-10.0292
ఖ్య	-10.0297
▁సరైన	-10.0299
▁బ్రిటన్	-10.0305
▁అధ్యయన	-10.031
ుకోవచ్చు	-10.032
▁అమెరికాలో	-10.0324
▁మిరప	-10.0327
▁పరిధిలోకి	-10.0327
గొండ	-10.0328
▁నేర్చ	-10.0331
▁ఉపాధ్యాయ	-10.0331
ted	-10.0333
దళ	-10.0334
▁విద్యార్థులు	-10.0337
ea	-10.0337
ak	-10.0339
▁రకం	-10.0343
దురు	-10.0343
▁అనువాద	-10.0343
నారాయణ	-10.0346
నుంచి	-10.0349
▁విషయాల	-10.0354
కట్ట	-10.0356
▁గానీ	-10.0356
▁ఇంటర్	-10.0357
లెక్	-10.0357
▁సమస్యల	-10.0359
గ్రామ	-10.0362
▁co	-10.0364
▁ఉన్నప్పటికీ	-10.0367
▁లోపల	-10.0367
▁లోక్	-10.0368
▁తెలిసిన	-10.0374
జయ	-10.0377
▁వచ్చారు	-10.0378
▁ఉన్నట్లు	-10.0383
గ్గు	-10.0385
▁కార్యదర్శి	-10.0386
▁స్కా	-10.0386
పైన	-10.0386
▁కనుగొన	-10.0388
▁ఎన్నికల	-10.0388
▁వీడియో	-10.0391
▁సంపాదక	-10.0393
స్తుందని	-10.0393
యస్	-10.0399
▁ఎక్క	-10.0401
▁ఉండడం	-10.0405
▁సాహిత్యం	-10.0408
▁నిలిచి	-10.0409
▁నివసించ	-10.0423
▁ఎన్న	-10.0425
▁మరణం	-10.0427
వల్	-10.0431
కారుల	-10.0432
▁నీల	-10.0437
▁వాడుకలో	-10.0437
ండీ	-10.0438
ish	-10.0439
▁డివిజన్	-10.0451
నాథ్	-10.0457
ఫై	-10.0457
ేరు	-10.0482
▁శిలా	-10.0487
ry	-10.0496
▁హీరో	-10.0502
▁రాజ్యాంగ	-10.0506
▁శ్రీనివాస	-10.0506
▁రుద్ర	-10.0516
▁ఉపరితల	-10.0518
▁మండ	-10.0529
ించడానికి	-10.0531
▁పులి	-10.0531
▁జీవితంలో	-10.0533
▁ex	-10.0537
▁చేయుట	-10.0537
end	-10.0542
య్యారు	-10.0543
▁ఇటువంటి	-10.0548
▁డాక్టర్	-10.055
▁క్రమంగా	-10.0555
▁స్వరూప	-10.057
▁ధర్మరాజు	-10.0575
▁అచ్చ	-10.058
▁ఆకాశ	-10.0581
▁సమ్మేళన	-10.0581
▁కథా	-10.0588
▁ప్రశంస	-10.0589
▁ప్రైవేట్	-10.0593
{	-10.0595
▁వాళ్ళ	-10.0601
▁మల్	-10.0601
ింపబడ	-10.0602
బాటు	-10.0602
▁సెల్	-10.0607
మూరు	-10.0614
▁లీగ్	-10.0615
్ని	-10.0621
▁సంభవించ	-10.0634
▁పాత్రలు	-10.0635
ాంధ్ర	-10.0636
▁||	-10.0639
▁పోరాడ	-10.0639
▁రాష్ట్రంలోని	-10.0642
▁స్థానాల	-10.0644
▁గ్రంథం	-10.0645
||	-10.0645
మయ్యాయి	-10.0653
▁యో	-10.0656
మవుతుంది	-10.066
▁ప్రాంతానికి	-10.0661
▁కళ్యాణ	-10.0665
▁భావిస్తారు	-10.0677
▁ఎనిమిది	-10.0681
▁బ్రి	-10.0683
యింది	-10.0685
▁ప్రాముఖ్యత	-10.0687
▁రాజమండ్రి	-10.0689
▁వైవిధ్య	-10.0701
▁శక్తిని	-10.0707
-2	-10.0708
▁విస్తీర్ణం	-10.0709
▁గజ	-10.0711
▁రోజుల్లో	-10.0715
▁నదీ	-10.0716
సరి	-10.0718
▁బయటకు	-10.072
▁లక్ష్మణ	-10.0723
కరించ	-10.073
భ్ర	-10.073
▁విద్యార్థి	-10.0733
▁34	-10.0735
▁మిల్	-10.0738
▁మెరుగు	-10.0739
▁అణు	-10.074
▁పేద	-10.0747
ష్య	-10.0751
▁దర్శించ	-10.0754
▁యూరోపియన్	-10.0761
దాసు	-10.0766
▁ఆశ	-10.0767
▁తాలూకా	-10.0769
▁మిగతా	-10.0769
▁హే	-10.077
ష్ణ	-10.0773
▁డబ్బు	-10.0773
▁కాశీ	-10.0773
▁అంట	-10.078
▁మరణించాడు	-10.0784
రుగ	-10.0784
▁రాజ్	-10.0785
▁లక్షణ	-10.0785
ిణి	-10.0787
లపాడు	-10.0791
ive	-10.0794
▁అప్ప	-10.0794
బూ	-10.0798
▁రాష్ట్రాల	-10.0804
▁షె	-10.0807
▁గుహ	-10.0808
▁వస్తున్న	-10.0812
▁US	-10.0815
▁శాస్త్రి	-10.0815
మంత	-10.0816
కున్న	-10.0819
ైంది	-10.082
క్యు	-10.082
▁బుద్ధ	-10.0821
▁కత	-10.0821
▁ఏదైనా	-10.0822
యైన	-10.0825
చ్చిన	-10.0835
▁విధించ	-10.0837
ణ్	-10.0838
▁వేడుక	-10.0839
ుతాడు	-10.084
▁బెర్	-10.0842
▁ఆధ్యాత్మిక	-10.0846
▁వీరిలో	-10.0848
▁కను	-10.0851
ఖండ	-10.0854
మంతా	-10.0857
ion	-10.0859
▁అశ్వ	-10.086
▁వ్యక్తుల	-10.0861
▁ప్రి	-10.0863
▁2002	-10.0865
▁వద్దకు	-10.0866
ుతున్నాయి	-10.0867
▁అనకాపల్లి	-10.087
pe	-10.0871
ురాలు	-10.0872
▁వెలుపల	-10.0874
▁లక్షణాలు	-10.0881
▁ఏనుగు	-10.0883
ంటాడు	-10.0885
▁పోత	-10.0888
▁వెంట	-10.0889
▁1999	-10.0889
our	-10.0891
▁ప్రపంచంలోని	-10.0892
▁ఒక్కొక్క	-10.0897
▁పద్ధతిలో	-10.0897
సమ	-10.09
▁పురుషులు	-10.09
oc	-10.0927
▁సందర్శించ	-10.0928
శ్లేష	-10.0928
▁రోమన్	-10.093
▁శ్రీరామ	-10.0942
కళ	-10.0943
▁జరుగుతున్న	-10.0945
▁అందరూ	-10.0947
▁రహస్య	-10.0952
▁ఒకసారి	-10.0953
ho	-10.0953
నింగ్	-10.0955
కారులు	-10.0958
▁ప్రయోజన	-10.0961
ut	-10.0964
ne	-10.0965
చర్ల	-10.0968
పట్నం	-10.0974
▁సర	-10.0977
ండును	-10.0979
తంత్ర	-10.0983
▁వ్యా	-10.0987
▁విగ్రహం	-10.0993
కృతి	-10.1
▁సెయింట్	-10.1002
▁మిత్ర	-10.1002
▁ఉనికి	-10.1003
▁నిర	-10.1004
▁బూ	-10.1009
▁అమర్చ	-10.1014
▁క్రో	-10.1014
▁ఆరంభ	-10.1017
ేశ	-10.1017
▁ముందుకు	-10.1021
▁సన్న	-10.1023
▁దుకాణాలు	-10.1031
▁స్వాధీనం	-10.1031
▁పోరాటం	-10.1032
▁ఒప్ప	-10.1033
▁ప్రతిభ	-10.1037
▁రాక్షస	-10.1049
▁అనుకూల	-10.105
▁స్వయంగా	-10.1053
▁చూసిన	-10.1055
పాయ	-10.1056
▁me	-10.1063
ందరి	-10.1063
▁అష్ట	-10.1064
ధార	-10.1068
▁చేసుకుని	-10.107
▁1960	-10.1072
ములకు	-10.1082
▁కనబడ	-10.1087
రణం	-10.1088
▁తీసుకున్న	-10.109
▁టెలివిజన్	-10.1093
▁రామారావు	-10.1095
▁చౌ	-10.1095
▁ఫ్రాన్స్	-10.1097
▁చెరువులు	-10.1101
▁ప్రకాశ	-10.1101
▁సాయం	-10.1109
▁పాడేరులోనూ	-10.1112
ున్నారు	-10.1113
▁ప్రారంభించ	-10.1114
▁పాల్	-10.1122
▁మంచు	-10.1125
▁ఉన్నప్పుడు	-10.1125
▁38	-10.1129
▁పర్	-10.1131
▁ప్రోత్సహించ	-10.1135
▁కలుగ	-10.1139
య్యే	-10.115
దానం	-10.1151
ుకుంటుంది	-10.1152
▁లభించ	-10.1153
▁కొనుగోలు	-10.1156
▁పుస్తకాల	-10.1156
▁దండ	-10.1159
▁విశిష్ట	-10.116
లొ	-10.1161
▁ఫో	-10.1163
▁చెల్లించ	-10.1165
రియల్	-10.1174
భీ	-10.1176
▁ఉప్పు	-10.1176
రింగ్	-10.118
▁70	-10.1185
▁రద్దు	-10.1189
జేయ	-10.1193
▁కావలసిన	-10.1198
▁భాగాల	-10.1202
▁అలాంటి	-10.1206
▁తీసుకొ	-10.1206
తృ	-10.121
▁తీసుకొని	-10.1217
▁దేవతల	-10.122
రిగి	-10.122
▁సందేశ	-10.1221
▁not	-10.1226
ప్రాంత	-10.1228
▁ఒకరి	-10.1229
▁తూర్పున	-10.1234
▁నాటకం	-10.1237
▁1950	-10.1241
▁ధ్యాన	-10.1246
ోద్యమ	-10.1248
▁సమితి	-10.1249
▁జారీ	-10.1256
▁2014,	-10.1257
▁విభిన్న	-10.1257
స్థి	-10.1258
▁ముద్ర	-10.1259
▁విభాగం	-10.1261
ఫే	-10.1263
▁బానిస	-10.1265
▁క్లబ్	-10.1269
▁కొత్తగా	-10.1275
చిత్ర	-10.1278
▁సరస్సు	-10.1279
▁తీర్చ	-10.1282
మిక్	-10.1283
ine	-10.129
▁రావణ	-10.1292
▁శాశ్వత	-10.1299
▁కేరళ	-10.1303
▁చెప్పారు	-10.131
▁రాయి	-10.1312
ప్రపంచవ్యాప్తంగా	-10.1317
రాష్ట్ర	-10.1322
▁తాము	-10.1323
▁ప్రభ	-10.1323
▁2015,	-10.1324
ష్టి	-10.1326
▁ట్రా	-10.1328
ాచార్య	-10.1328
▁ఇజ్రాయిల్	-10.1329
శ్చ	-10.133
యుక్త	-10.1331
style	-10.1333
ుదురు	-10.1339
▁గూడూరు	-10.1341
▁జవాహర్	-10.1342
▁విధమైన	-10.1345
ుతోంది	-10.135
ear	-10.1352
ధ్ధ	-10.1359
he	-10.1361
▁తీవ్రమైన	-10.1369
▁సీతారామ	-10.1374
రెన్	-10.1377
▁వుంటుంది	-10.1381
▁కర్	-10.1393
ell	-10.1394
షియా	-10.1395
▁మండలాలు	-10.1397
▁ప్రత్యేకత	-10.1401
si	-10.1408
▁గౌ	-10.141
క్షేప	-10.1411
▁లతో	-10.1413
▁నర	-10.1419
ప్పటి	-10.1419
▁వరుసగా	-10.1423
▁హింస	-10.1424
-20	-10.1428
ధర	-10.143
▁42	-10.1437
▁ప్రేక్షకుల	-10.1441
ill	-10.1443
సాయి	-10.1446
▁అమ్మవారి	-10.1448
▁స్టేట్	-10.145
▁చిక్క	-10.1455
లోనికి	-10.1456
ట్యూ	-10.1456
ోప	-10.1459
వాదం	-10.1463
▁సూచిస్తుంది	-10.1464
▁ప్రత్యేకమైన	-10.1465
పడింది	-10.1465
వీర	-10.147
ంటాయి	-10.1471
da	-10.1471
▁2015	-10.1473
▁భక్తుల	-10.1477
ంచె	-10.1478
ాంశ	-10.1481
గతి	-10.1483
▁ఫ్రాం	-10.1484
టిల్	-10.1487
▁ఇటీవల	-10.1489
▁హౌస్	-10.1489
▁గురి	-10.1491
ిస్తున్నాయి	-10.1492
ంద్ర	-10.1495
▁ఏమి	-10.1499
ver	-10.1499
వాటి	-10.1499
▁నిండి	-10.151
▁విధానాల	-10.1515
క్ట్	-10.1515
▁నాయుడు	-10.1517
ెత్త	-10.1518
▁మానవుల	-10.1518
▁నటించారు	-10.1529
▁దేశంలోని	-10.1531
టువంటి	-10.1531
ములోని	-10.1533
▁వాద	-10.1534
పార్	-10.1535
▁కనీసం	-10.1536
▁యే	-10.1536
భూత	-10.1538
▁అందిస్తుంది	-10.1538
్యత	-10.1539
▁సీజన్	-10.1542
▁హాజర	-10.1544
▁ప్రభావితం	-10.1545
▁శతాబ్దాల	-10.1549
ప్రభావ	-10.1549
▁చేసుకోవ	-10.1549
▁రోడ్	-10.1554
▁ప్రదర్శ	-10.1555
▁పనిచేసే	-10.156
▁సింగ	-10.1563
హరి	-10.1568
▁కాలము	-10.1578
▁శ్రీరాములు	-10.1581
▁ఒప్పంద	-10.1581
▁నార్	-10.1582
▁చేసుకుంట	-10.1583
▁చాలామంది	-10.1584
▁మద	-10.1592
స్తున్నారు	-10.1594
వెల్	-10.1602
లెట్	-10.1606
▁ముడి	-10.161
ుచు	-10.161
నార్	-10.1616
▁ప్రమాణ	-10.1617
యాత్ర	-10.1618
▁కొనసాగింది	-10.1619
▁పుత్ర	-10.1621
▁జర్మన్	-10.1624
రత్న	-10.1627
▁ప్రారంభించాడు	-10.1628
▁చేస్తాయి	-10.1631
▁వార్త	-10.1632
▁మరల	-10.1638
▁తరచూ	-10.1638
పూరు	-10.1639
ట్రిక్	-10.1639
యొక్క	-10.164
▁వర్గాల	-10.1641
▁లక్ష్యం	-10.1644
ence	-10.1648
▁రామకృష్ణ	-10.1649
▁వినియోగ	-10.1649
దత్త	-10.165
త్రా	-10.1651
▁సంవత్సర	-10.1658
▁గూడ	-10.1658
▁వేగంగా	-10.1662
ద్వార	-10.1662
▁చివరికి	-10.1676
పేరు	-10.1677
ర్థ	-10.1691
▁నటించ	-10.1694
బోధ	-10.1699
▁పైకి	-10.1701
దాయ	-10.1705
▁200	-10.1708
కూడా	-10.1711
▁నిలువ	-10.1711
బడుతున్నాయి	-10.1714
కాని	-10.1715
▁ఆదాయం	-10.1715
▁ఆశ్రమ	-10.1721
▁చార్	-10.1724
▁విజయనగర	-10.1729
▁పేర	-10.1729
▁కార్యాలయ	-10.1733
▁రామచంద్ర	-10.1736
▁అవసర	-10.1738
▁వయసులో	-10.1741
▁హృదయ	-10.1748
ాత్మ	-10.1751
▁ఋణ	-10.1752
iv	-10.1753
▁సెంట్రల్	-10.1756
▁సాధించాడు	-10.1759
▁కురు	-10.1763
▁గ్రే	-10.1764
క్టర్	-10.1771
▁విని	-10.1771
వలె	-10.1772
మయ్యే	-10.1779
▁పునర్	-10.1781
ుకొనే	-10.1787
▁అధి	-10.1789
▁కోర్	-10.1792
గిన	-10.1792
భక్త	-10.1793
▁పేర్కొన	-10.1794
▁బలమైన	-10.1798
▁జరిగి	-10.1799
పోతున్న	-10.1804
▁భద్రత	-10.1805
▁తరలించ	-10.1811
ాలున్నాయి	-10.1812
▁విఫల	-10.1814
▁బెల్	-10.1815
▁నష్ట	-10.1819
▁ప్రచురణ	-10.1824
స్థితి	-10.1824
ap	-10.1829
▁పక్క	-10.1831
టెన్	-10.1833
▁సంతోష	-10.1841
▁నాటు	-10.1844
▁పరిగణించ	-10.1845
▁నిలిచింది	-10.1845
టక	-10.1846
ig	-10.1848
co	-10.185
కన్	-10.1851
గలదు	-10.1854
▁సస్యరక్షణ	-10.1859
▁తిమ్మ	-10.1862
ధారణ	-10.1863
ఋ	-10.1863
▁పరిమాణ	-10.1865
▁బహుళ	-10.1867
ల్యాండ్	-10.1869
రిన్	-10.1874
ెదరు	-10.1875
▁విడ	-10.1876
▁అంతరిక్ష	-10.1877
▁చేతుల	-10.1878
▁ఉండదు	-10.188
▁రాజులు	-10.1887
▁రకమైన	-10.1887
▁వాటికి	-10.1892
▁మొక్కలు	-10.1899
▁మార్గము	-10.1904
▁ఏకైక	-10.1909
▁రూపం	-10.191
▁బిల్	-10.1911
▁పెట్టారు	-10.1914
▁బ్లాక్	-10.1914
▁విష్ణువు	-10.1921
▁వుండే	-10.1921
▁అంబ	-10.1925
▁ప్రయాణం	-10.1927
▁భక్త	-10.1927
ిరెడ్డి	-10.1929
▁కొమ్మ	-10.1932
▁పార్లమెంటు	-10.1936
▁ప్రాంతము	-10.1936
▁భుజ	-10.1938
▁నీకు	-10.1943
▁కాలేదు	-10.1944
చాడు	-10.1946
▁వేట	-10.1948
tion	-10.195
య్యా	-10.1952
▁ప్రతిష్ఠ	-10.1953
బడు	-10.1954
తీర్థ	-10.1961
ధాన	-10.1964
▁ఏలూరు	-10.1966
▁క్రా	-10.1967
▁ఉత్తరాన	-10.1967
నట్లు	-10.1972
▁ప్రజాదరణ	-10.1981
విన్	-10.1982
▁రచనల	-10.1987
యీ	-10.1987
ల్లీ	-10.199
▁అరబ్	-10.1994
▁మించి	-10.1995
▁దేశానికి	-10.1999
▁పాండవుల	-10.2
▁అంటూ	-10.2006
▁ద్వీపం	-10.2008
▁అంతర్గత	-10.2018
▁చేసుకో	-10.2019
డింగ్	-10.2019
▁ప్ల	-10.2023
▁నగరానికి	-10.2024
▁సీతా	-10.203
▁సిద్ధాంతం	-10.2031
▁కారు	-10.2031
▁ప్రఖ్యాత	-10.2034
ర్చి	-10.2039
▁స్వల్ప	-10.2041
డెన్	-10.2042
హర్	-10.2044
▁పేర్కొన్నారు	-10.2047
▁కూర	-10.205
▁తెచ్చి	-10.2052
▁ప్రాచుర్యం	-10.2055
▁కొవ్వు	-10.2064
▁నిబంధన	-10.2073
ళ్ళలో	-10.2073
▁సరిహద్దులో	-10.2074
▁సూపర్	-10.2075
తనం	-10.2078
▁పొంది	-10.2081
▁పేరును	-10.2084
టికి	-10.2095
ast	-10.2098
▁ఒక్కో	-10.21
▁స్వాతంత్ర్యం	-10.21
ింపు	-10.2101
▁శిష్య	-10.2101
▁హీ	-10.2103
▁ఆర్ధిక	-10.2103
వేసి	-10.2107
▁హాల్	-10.2108
▁సందర్భంలో	-10.2109
▁ఉద్యోగం	-10.2111
▁ఎండ	-10.2111
▁56	-10.2114
▁ఇండో	-10.2119
▁ప్రియ	-10.2121
▁ప్రకటించింది	-10.2121
్యాల	-10.2122
కేంద్ర	-10.2124
▁నక్షత్రం	-10.2127
▁వచ్చాడు	-10.2128
భో	-10.2128
▁ఉదా	-10.2134
▁ప్రారంభమైంది	-10.2136
చై	-10.2139
▁అంతకు	-10.2144
▁వసతి	-10.2147
బియా	-10.2149
code	-10.2149
ికా	-10.2157
▁అభిప్రాయం	-10.2159
▁షో	-10.2161
▁1947	-10.2162
▁కింగ్	-10.2163
▁పరిశీలించ	-10.2165
▁సమర్పించ	-10.2171
ంబర్	-10.2178
▁నాగరికత	-10.2179
▁ఫ్రెంచి	-10.218
▁జనతా	-10.2181
▁విద్యార్థుల	-10.2182
▁దొ	-10.2183
▁కుమార్	-10.2184
స్టో	-10.2188
ధీ	-10.2198
▁లేదని	-10.2199
▁ఉచిత	-10.2211
▁90	-10.2216
▁తరఫున	-10.2217
▁విషయాలు	-10.222
జల	-10.2226
▁పేర్ల	-10.2231
▁కనిపిస్తాయి	-10.2233
▁ఫోటో	-10.2242
▁బుక్	-10.2244
▁పరిధి	-10.2246
▁నిర్దిష్ట	-10.2249
▁జన్మించిన	-10.2258
▁కాలువలు	-10.2259
▁లోనే	-10.2266
der	-10.2267
▁చేసేందుకు	-10.2268
tu	-10.2269
సార్లు	-10.227
▁జంట	-10.2271
▁పెరుగు	-10.2274
▁ఆకర్షణ	-10.2275
▁దంపతులకు	-10.2277
no	-10.2281
su	-10.2282
యున్న	-10.2286
▁సలహా	-10.2287
▁సమర్థ	-10.2288
శేష	-10.2289
▁అండ	-10.2293
▁అత	-10.2297
▁అధికారులు	-10.23
▁యుగ	-10.23
▁కవిత	-10.2304
▁టే	-10.2309
▁మెదక్	-10.231
సింహ	-10.2315
▁శరీరం	-10.2315
▁వార్షిక	-10.2321
రాజ్	-10.2321
▁మీదుగా	-10.2328
▁అంశం	-10.2336
జాతి	-10.2337
త్వాన్ని	-10.2338
▁వినియోగించ	-10.2341
▁గృహాల	-10.2344
గోళ	-10.2344
▁ముందే	-10.2344
▁బదులుగా	-10.2348
▁ఉదయం	-10.2352
▁విభజన	-10.2355
▁బాబా	-10.2355
▁ద్రవ్య	-10.2356
వ్యవస్థ	-10.2359
▁అంతర్	-10.2376
▁రాఘవ	-10.2376
▁వందల	-10.2378
ff	-10.2382
▁భాషలలో	-10.2385
స్సా	-10.2385
విధ	-10.2391
▁ప్రార్థన	-10.2391
ఘా	-10.2393
ee	-10.2394
▁సుర	-10.2403
తులను	-10.2404
్యము	-10.2404
▁భౌగోళిక	-10.2405
▁కావడం	-10.2413
▁లెక్క	-10.2421
▁పార్క్	-10.2423
పణ	-10.2428
▁ప్రదేశాల	-10.2429
▁చేయాలని	-10.243
ాలన్న	-10.2432
▁శుద్ధ	-10.2432
▁సర్పంచిగా	-10.2433
వృ	-10.2436
ఫు	-10.2436
▁రాం	-10.2438
▁వంతెన	-10.2438
▁39	-10.2439
▁రత్న	-10.2439
▁తెలుగుదేశం	-10.2441
▁త్ర	-10.2445
డుతూ	-10.2445
▁కీలక	-10.2447
▁తెనాలి	-10.2448
▁దెబ్బ	-10.2452
లియన్	-10.2455
య్యాయి	-10.2457
▁ప్రతిపాదన	-10.2457
▁తెగ	-10.2462
▁లోపలి	-10.2465
▁చేయు	-10.2471
▁రౌ	-10.2475
▁స్టార్	-10.2476
▁సమాధి	-10.2479
ువాడు	-10.2483
▁బయలుదేర	-10.2486
▁ధరించ	-10.2493
▁వారసత్వ	-10.2496
▁చేరుకున్న	-10.2496
▁అణువు	-10.25
▁రావడం	-10.2503
▁వివరాలు	-10.2504
చేశారు	-10.2505
▁అనీ	-10.2506
వద్ద	-10.2506
▁పదార్థాల	-10.2508
ంభ	-10.2516
బెర్	-10.2519
▁పెట్టుబడి	-10.2519
ud	-10.2523
▁ఫ్ల	-10.2527
▁శతక	-10.2529
▁తప్పు	-10.2532
▁తపస్సు	-10.2534
రహిత	-10.2535
▁శ్రేణి	-10.2535
▁కంప	-10.2535
ev	-10.2536
కుమార	-10.2536
డ్డు	-10.2538
▁li	-10.2539
పడ్డారు	-10.2545
▁అక్క	-10.2546
▁ఎదుర్కొ	-10.2553
du	-10.2554
▁వాదన	-10.2555
శో	-10.2555
▁మంగళ	-10.2556
▁పెరిగింది	-10.2556
▁సినిమాలు	-10.2563
వంతంగా	-10.2564
▁ప్రతిబింబ	-10.2568
▁India	-10.2568
▁జనాభాలో	-10.2568
▁పుస్తకాలు	-10.2569
వలస	-10.2577
▁విధానాన్ని	-10.2579
▁ఉత్	-10.258
▁ఎదుర	-10.2598
▁44	-10.2599
▁కొల్ల	-10.2602
▁పదాల	-10.2606
▁అనుమతించ	-10.2608
▁దొంగ	-10.2612
▁విశ్వాస	-10.2613
▁1991	-10.2614
▁స్థాపించారు	-10.2615
▁ప్రకారము	-10.2619
▁పాలి	-10.2621
హే	-10.2623
ావు	-10.2625
▁శ్రీకృష్ణ	-10.2626
-19	-10.2626
sa	-10.2626
▁ఆచార్య	-10.2629
చేసే	-10.263
▁వేయుట	-10.2633
▁రాజుల	-10.2633
▁అప్పటికే	-10.2637
▁అతనిని	-10.2638
▁డ్ర	-10.2639
▁కొంతకాలం	-10.2641
▁చేరాడు	-10.2649
▁మంచిర్యాల	-10.265
ద్వారా	-10.2651
▁మహర్షి	-10.2652
▁గార్	-10.2653
://	-10.266
▁ఏదో	-10.2662
▁సమాజం	-10.2665
▁కలప	-10.2667
▁చేయబడ్డాయి	-10.2671
వర్ణ	-10.2671
▁ఉపయోగపడ	-10.2673
▁అనుసరించ	-10.2674
▁ప్రారంభించింది	-10.2677
▁కాలేజీ	-10.2679
▁బిరుదు	-10.2679
▁రూపకల్పన	-10.2684
▁అదనంగా	-10.2684
fe	-10.2692
od	-10.2696
▁ప్రసాద్	-10.2702
▁అకాడమీ	-10.2704
▁స్థావర	-10.2704
వర్మ	-10.2704
▁పాలించ	-10.2704
▁ప్రే	-10.2709
పాత	-10.2713
▁బృంద	-10.2715
ఓ	-10.2719
▁సత్యనారాయణ	-10.272
▁విషయాన్ని	-10.2721
▁లక్షణాల	-10.2724
ిందని	-10.2725
▁బ్యాంక్	-10.2725
▁బాబు	-10.2725
▁ఫీ	-10.2728
▁తెలుస్తుంది	-10.2733
▁రంగం	-10.2735
▁పనుల	-10.2741
▁రూపాయల	-10.2743
ందరూ	-10.2745
ారావు	-10.275
ితమైన	-10.2754
ep	-10.2768
వల్లి	-10.277
▁సమాఖ్య	-10.2773
రాత్రి	-10.2778
సేవ	-10.2781
ముందు	-10.2784
▁అటు	-10.2785
పూర్లో	-10.2786
▁వ్యాపారం	-10.2789
▁మాన	-10.2794
కోణ	-10.2795
▁నెలకొల్ప	-10.2797
▁అధికారి	-10.2798
▁సూచన	-10.2799
▁వో	-10.2802
▁ప్రాంతాలకు	-10.2804
▁తాత	-10.2804
▁తను	-10.2805
ాయన	-10.2806
▁విశేషం	-10.2807
▁దేశీయ	-10.281
లియో	-10.2815
ానికీ	-10.2815
▁మహిళా	-10.282
బ్రా	-10.2821
▁వ్యాప్తి	-10.2822
ొచ్చు	-10.2824
▁హోదా	-10.2829
▁తీవ్రంగా	-10.2831
▁మరణించారు	-10.2835
▁టెక్	-10.2837
బర్గ్	-10.2837
va	-10.2841
▁మాదిరిగా	-10.2842
able	-10.2842
ండె	-10.2847
▁ఇచ్చ	-10.2848
బై	-10.2853
▁జరుగ	-10.2855
▁యుగం	-10.2856
▁తెలంగాణా	-10.2859
▁సాహితీ	-10.2862
▁పెరుగుదల	-10.2863
▁ప్రజలను	-10.2865
▁పొగాకు	-10.2868
▁గెలుపొంద	-10.2872
▁వేర్వేరు	-10.2872
▁ఎకరాల	-10.2877
ya	-10.2886
▁దొర	-10.2889
▁వదల	-10.2889
▁లూ	-10.289
▁ఎల్ల	-10.289
▁క్రమంలో	-10.2896
▁జన్యు	-10.2896
▁కుడి	-10.29
ంగో	-10.29
▁దీంతో	-10.29
▁కొన్నిసార్లు	-10.2903
డియ	-10.2904
▁బలహీన	-10.2912
▁బట్ట	-10.2914
▁అన్నీ	-10.2914
▁వేసిన	-10.2915
▁అత్యధికంగా	-10.2916
కొన్న	-10.2917
▁వరద	-10.292
▁ఒత్తిడి	-10.2922
▁ఇంట్లో	-10.2924
పుత్ర	-10.2932
▁కారణాల	-10.2932
▁ఎరువులు	-10.2937
▁దాడుల	-10.2938
▁వాల్	-10.2945
▁బహ	-10.2946
▁మళ్లీ	-10.2947
▁పదవీ	-10.2947
ల్యూ	-10.2949
డ్యూ	-10.2954
▁క్రితం	-10.2954
ated	-10.2956
ess	-10.2956
▁పాటల	-10.2958
▁స్వామివారి	-10.2961
▁లోయ	-10.2966
▁చేసుకున్నారు	-10.2966
మధ్య	-10.2967
▁తీసిన	-10.2968
▁అడిగ	-10.2968
కపోతే	-10.2969
డికి	-10.2973
మెంటు	-10.298
▁వడ్డ	-10.2987
▁అరణ్య	-10.2988
▁దూరంగా	-10.299
ందున	-10.2998
టార్	-10.3003
▁షి	-10.3008
▁సంబంధాలు	-10.3011
▁ప్రామాణిక	-10.3012
▁పోర్ట్	-10.3012
జై	-10.3012
▁గోల్	-10.3017
▁కార్బన్	-10.3019
మోహన్	-10.3021
▁కెమెరా	-10.3022
కపోవడం	-10.3024
▁కప్	-10.3026
▁పాశ్చాత్య	-10.3027
▁ఘట	-10.3032
▁లిం	-10.3035
స్థల	-10.3037
పేట్	-10.3038
▁విద్యను	-10.3042
▁అమర	-10.3042
▁దేశము	-10.3049
▁చేరు	-10.3052
▁నడుప	-10.3058
▁ఉదయ	-10.306
▁his	-10.3061
▁గ్రంథాల	-10.3061
▁బండ	-10.3062
▁నిద్ర	-10.3067
▁కొబ్బరి	-10.3068
▁పీఠ	-10.3073
▁పదార్థ	-10.3074
ew	-10.3075
▁తద్వారా	-10.3077
▁మంట	-10.3077
▁తాగునీటి	-10.3078
▁ఎత్తైన	-10.3083
చెర్ల	-10.3083
▁వహించిన	-10.3087
display	-10.3088
▁చెందినది	-10.3088
▁విశాఖపట్నంలోను	-10.3092
డైన	-10.3094
▁దాంతో	-10.3095
▁స్వభావ	-10.3096
▁భవనం	-10.3098
నూర్	-10.3099
▁పట్టా	-10.3102
ఉన్న	-10.3112
▁ద్వి	-10.3113
▁వీధి	-10.3115
▁బాధ్యతలు	-10.3118
ind	-10.3122
పట్ల	-10.313
▁భాషలు	-10.3135
▁షిప్	-10.3138
య్యాడు	-10.3139
మనే	-10.314
▁రాజవంశ	-10.3141
బాల్	-10.3145
▁చనిపో	-10.3146
▁ముంబై	-10.3149
▁ఇంటర్నేషనల్	-10.3154
చరిత్ర	-10.3158
ెయిన్	-10.3158
▁మేరకు	-10.316
▁మార్గంలో	-10.317
▁పిలువబడ	-10.3174
▁స్థాపించబడింది	-10.3174
మూస	-10.318
▁సన్	-10.3182
▁చర్యలు	-10.3184
▁హైదరాబాదులో	-10.3184
▁మాట్లాడే	-10.3185
ఎం	-10.3187
▁చుట్ట	-10.3189
▁ఎమ్	-10.3191
▁సైతం	-10.3195
▁వస్తువుల	-10.3196
▁భారతదేశంలోని	-10.3199
▁సముదాయ	-10.3206
▁వనరులు	-10.3207
▁ప్రచార	-10.3208
ధో	-10.3209
▁ఊర	-10.3211
▁ఫుట్	-10.3211
▁కదా	-10.3213
▁వికారాబాద్	-10.3216
▁సంయోగ	-10.3219
▁ప్రయాణించ	-10.3225
▁ప్రసంగ	-10.3228
▁కనిపిస్త	-10.3233
▁Ma	-10.3235
మతి	-10.3236
▁గుర్త	-10.324
రోగ	-10.324
ాద్రి	-10.3242
ాచార	-10.3245
ous	-10.3245
▁సంతానం	-10.3249
బ్రహ్మ	-10.3256
▁సమస్యలు	-10.3262
▁41	-10.3268
▁నర్	-10.3272
▁స్థానాన్ని	-10.3274
▁j	-10.3287
▁ప్రమాదం	-10.3289
వరకూ	-10.329
▁1998	-10.3291
▁గవర్నర్	-10.3292
వాడి	-10.3292
ంబర	-10.3301
▁మ్యా	-10.3301
▁అటువంటి	-10.3302
త్తా	-10.3309
▁తొమ్మిది	-10.3309
▁నవాబు	-10.3314
▁వనపర్తి	-10.3315
▁నైట్	-10.3315
▁వాడుక	-10.3325
▁సిం	-10.3326
▁నమ్మకం	-10.3333
▁చెట్ల	-10.3338
▁48	-10.3339
ుచున్నది	-10.334
ేతర	-10.3342
▁చేసుకొ	-10.3349
శోధ	-10.3354
▁విగ్రహ	-10.3355
▁యూనివర్సిటీ	-10.3356
ong	-10.3356
▁అద్భుత	-10.3358
▁గురించిన	-10.3358
సిద్ధ	-10.3361
▁pa	-10.3369
▁బోస్	-10.3372
▁బోధన	-10.3375
▁ఇచ్చింది	-10.3376
▁దాటి	-10.3379
▁సంవత్సరానికి	-10.3382
ari	-10.3382
▁గది	-10.3388
▁పురపాలక	-10.3393
స్తంభ	-10.3394
▁శేష	-10.3394
▁చేసుకున్నాడు	-10.3396
చిత	-10.3401
ములతో	-10.3402
▁http	-10.3403
▁వేరే	-10.3404
▁వహించాడు	-10.3406
స్తున్నాయి	-10.3407
▁సన్యాస	-10.3413
▁జాగ్రత్త	-10.3414
▁అర్జునుడు	-10.3415
▁స్పెయిన్	-10.3419
▁మందు	-10.3421
▁స్థిరపడ	-10.3421
నెల్	-10.3431
▁చోటు	-10.3432
▁మోస	-10.3432
ాదుల	-10.3436
చంద్ర	-10.3436
▁నేటి	-10.3439
▁శివుడు	-10.3439
▁ధ్రువ	-10.344
పడ్డాడు	-10.345
▁బాల్య	-10.3451
▁చేయవచ్చు	-10.3454
▁టెక్నాలజీ	-10.3456
ోంది	-10.346
పురి	-10.3462
▁రుచి	-10.3468
▁క్రీస్తు	-10.3481
▁క్రియ	-10.3481
వంశ	-10.3497
▁ఎలాంటి	-10.3504
▁కారక	-10.3511
▁నేర్ప	-10.3513
▁ట్రి	-10.3513
▁చెన్న	-10.3518
లేదని	-10.3519
▁నటించాడు	-10.3521
▁సమూహం	-10.3521
▁మెంట్	-10.353
▁ప్రవాహ	-10.3538
▁మరణించిన	-10.3541
▁చోట	-10.3542
లేరు	-10.3543
av	-10.3544
ఘ్	-10.3546
▁శుభ	-10.3547
▁కుటుంబంలో	-10.3549
ందర్	-10.3551
▁పెరిగి	-10.3552
▁గూ	-10.3552
▁ట్యా	-10.3555
▁బోధించ	-10.3556
▁బిడ్డ	-10.357
▁పాత్రను	-10.3574
▁నన్ను	-10.3576
▁రచించ	-10.3577
మనీ	-10.3582
▁పరిపాలించ	-10.3584
▁కటక	-10.3589
▁సినిమాల్లో	-10.359
▁ఆమోదించ	-10.3591
కన్నా	-10.3592
లెస్	-10.3601
▁కార్డు	-10.3603
రాదు	-10.3607
▁అర్జున	-10.3612
▁ముగింపు	-10.3616
▁సమాధాన	-10.3616
▁పల్ల	-10.3618
ునకు	-10.3621
▁చైతన్య	-10.3621
▁గుర్తించారు	-10.3622
▁అయ్యింది	-10.3623
లన్నీ	-10.3625
▁బోర్డు	-10.3626
ూర్లో	-10.3628
▁500	-10.363
టివ్	-10.3631
▁రైతు	-10.3636
నపుడు	-10.3637
▁ఆశ్చర్య	-10.3637
▁ప్రవేశించి	-10.3641
ెన	-10.3649
భద్ర	-10.365
▁1996	-10.3651
▁మాటలు	-10.3652
▁కాలి	-10.3659
▁చేయించ	-10.3663
▁వెస్ట్	-10.3665
తుండ	-10.3671
▁మణి	-10.3673
▁ఇంటికి	-10.3676
▁జత	-10.3679
ోపనిషత్తు	-10.368
▁వజ్ర	-10.368
▁వెండి	-10.3683
▁46	-10.3684
▁పాము	-10.3685
▁వ్యూహ	-10.3691
▁చిత్రీకరించ	-10.3691
▁భయం	-10.3692
▁చిత్త	-10.3693
▁1930	-10.3698
▁ఏళ్ల	-10.3699
▁ఆస్తి	-10.37
స్తుల	-10.3702
▁చెల్ల	-10.3703
మణ	-10.3707
కారి	-10.3708
pa	-10.3717
▁di	-10.372
▁పూర్ణ	-10.3721
▁పోయి	-10.3721
కాండ	-10.3722
▁వంతు	-10.3727
▁ఇచ్చాడు	-10.3731
ఠా	-10.3733
▁బోధ	-10.3734
▁దేవుడు	-10.3736
▁43	-10.3736
▁సందర్భ	-10.3737
▁ఖనిజ	-10.3737
▁క్రొత్త	-10.374
మున్న	-10.3741
▁గౌతమ	-10.3742
▁విల్	-10.3743
కెట్	-10.375
వంతు	-10.3752
టాన్	-10.3754
పత్ర	-10.3756
స్తాన్	-10.3758
▁నాయకులు	-10.3758
▁పూజలు	-10.3761
▁గొల్ల	-10.3762
▁కొన	-10.3763
▁మహాభారత	-10.3765
▁జీవుల	-10.3766
త్యం	-10.3781
▁కుటుంబానికి	-10.3783
▁అమ్మాయి	-10.3784
ింపబడిన	-10.3785
▁రెండూ	-10.3793
▁గ్ర	-10.3799
▁మనుషుల	-10.38
▁సంకలన	-10.38
ight	-10.3801
▁అనువదించ	-10.3805
▁ఫిలిం	-10.3807
రాశి	-10.3811
▁జాతులు	-10.3813
ట్లయితే	-10.3816
▁అంతేకాక	-10.3818
▁రూపొంద	-10.3824
▁విస్తృతంగా	-10.3826
కార్య	-10.3826
▁సమాచారాన్ని	-10.383
▁పరంగా	-10.3835
▁ప్రాతినిధ్యం	-10.3838
▁బ్రిటిషు	-10.3838
ical	-10.3848
ాచల	-10.3848
▁బదిలీ	-10.3849
చర్య	-10.3855
▁ఉందిసమీప	-10.3857
pi	-10.3865
▁పతన	-10.3867
వచ్చని	-10.3867
▁డచ్	-10.3869
▁స్వర్ణ	-10.387
▁నియంత్రించ	-10.3872
▁వినియోగదారు	-10.3877
సంస్థ	-10.3884
▁వాడే	-10.3887
ip	-10.3888
▁లిపి	-10.3893
ty	-10.3896
▁పరచ	-10.3896
సాగర్	-10.3896
▁po	-10.3898
వర్తి	-10.3901
▁టౌన్	-10.3904
▁వేగ	-10.3905
▁వాళ్ళు	-10.3905
▁ప్రయత్నాలు	-10.3907
ke	-10.3908
నంత	-10.3916
▁కాళ	-10.3916
▁నేపథ్య	-10.3917
సమూహ	-10.3917
చింది	-10.3917
▁బలవంత	-10.3918
▁ఆకర్ష	-10.3924
▁ఆకుల	-10.3924
లాంటి	-10.3927
▁అయ్యాడు	-10.3932
▁కాన	-10.3932
▁65	-10.3932
దాని	-10.3935
బ్ర	-10.3942
▁do	-10.3947
థర్	-10.3948
▁భద్ర	-10.395
▁స్థలం	-10.3955
ఫార్మ	-10.3956
చ్చారు	-10.3956
దేవుడు	-10.3967
▁ఆధారిత	-10.3971
▁ప్రారంభం	-10.3978
▁75	-10.3985
దేవత	-10.3988
▁క్లో	-10.3989
▁విన్న	-10.3992
▁జంక్షన్	-10.3993
▁అవతరించ	-10.3993
▁సంస్కృతం	-10.3996
▁సామ	-10.3996
ఒ	-10.4
▁దాకా	-10.4
▁వైశాల్యం	-10.4
▁2017,	-10.4001
తొ	-10.4001
▁ఆధారాలు	-10.4002
▁ఆచరించ	-10.4008
▁పరిధిలోని	-10.4008
▁రాజధానిగా	-10.4009
నైనా	-10.4013
▁అయ్యాయి	-10.4013
ప్పి	-10.4015
▁అనకాపల్లిలోను	-10.4015
▁ప్రవేశం	-10.402
out	-10.4022
బన్	-10.4024
విధంగా	-10.4032
tor	-10.4033
▁వెళ్ళే	-10.4035
▁సామర్థ్యం	-10.4035
▁గోవింద	-10.4037
▁విశ్వాసం	-10.4038
జిల్	-10.4042
▁విలీనం	-10.4046
▁మూసి	-10.4046
▁ప్రవహించ	-10.4048
▁సుబ్బ	-10.4052
▁వుంట	-10.4057
ఉంది	-10.406
▁అక్కడే	-10.4063
▁దగ్గరగా	-10.4065
▁వైద్యుడు	-10.4068
▁నార్వే	-10.4069
▁న్యూయార్క్	-10.4071
రైడ్	-10.4076
▁నటించింది	-10.408
▁నాయకుల	-10.4081
▁కొరియా	-10.4082
▁పనిచేసిన	-10.4088
▁అధికారికంగా	-10.4089
▁వెల	-10.4098
▁భాగము	-10.41
▁వ్యక్త	-10.4101
నాల్	-10.4107
▁సంతాన	-10.4112
▁వ్యక్తులు	-10.412
▁కార్యకలాపాల	-10.4121
▁బలం	-10.4122
▁నృత్యం	-10.4124
▁హిమ	-10.4125
▁వెలువడ	-10.4146
ిస్తుంటారు	-10.4148
▁అభ్యసించ	-10.415
▁సౌకర్యాలేమ	-10.4151
▁భిన్న	-10.4155
▁రంగస్థల	-10.4157
▁భావించి	-10.416
▁ఈశాన్య	-10.4167
▁వైద్యులు	-10.4167
▁వాడతారు	-10.4169
▁ఫ్లో	-10.4171
▁ఉత్పత్తుల	-10.4171
-3	-10.4172
▁గద్వాల	-10.4178
▁మాల్	-10.4178
▁టన్నుల	-10.418
జింగ్	-10.4182
మోద	-10.4183
▁పురస్కార	-10.4183
సార్	-10.4184
▁అంశ	-10.4186
▁ఎదురు	-10.4188
▁పదాలు	-10.419
ంగళ	-10.4191
▁అంతటా	-10.4192
టెడ్	-10.4196
▁ఏట	-10.4196
యోధ	-10.4199
యిల్	-10.4199
▁నిజానికి	-10.42
▁కేంద్రాల	-10.4201
బాయి	-10.4201
ాభివృద్ధి	-10.4207
▁కాలానికి	-10.421
పత్రిక	-10.4216
శివ	-10.4217
▁సాహిత్యంలో	-10.4217
▁రెండింటి	-10.4218
▁అవగాహన	-10.4218
▁చదివి	-10.4218
▁ఎవర	-10.4221
మెన్	-10.4222
▁రష్యన్	-10.4224
▁కక్ష్య	-10.4229
▁రాగి	-10.4231
▁సాగించ	-10.4231
▁వెళ్ళాడు	-10.4231
ధిక	-10.4234
శయ	-10.4236
▁బలి	-10.4237
వాసుల	-10.4239
▁భారతదేశానికి	-10.4241
▁చోళ	-10.4242
▁పాలనా	-10.4246
▁గోధుమ	-10.4246
▁నిర్మ	-10.4248
ుకోవాలి	-10.4253
▁అవతార	-10.4263
▁చిత్రాలలో	-10.4263
తాయని	-10.4263
▁చదరపు	-10.4264
పోవటం	-10.4264
one	-10.4265
▁రసాయనిక	-10.4265
▁వర్క్	-10.4268
▁ch	-10.427
ph	-10.4275
▁ఉద్భవించ	-10.4275
▁తొలగి	-10.4278
▁చదవ	-10.4279
▁నేత	-10.4284
▁బోరుబావులు	-10.4289
▁ప్రస్తావించ	-10.4292
▁కలగ	-10.4294
▁1994	-10.4295
▁కనుగొన్న	-10.4296
▁Ch	-10.4298
▁అన్నారు	-10.4301
▁జాబితాలో	-10.4301
బంద	-10.4306
వ్యాప్త	-10.431
ినపుడు	-10.4312
▁సేవలను	-10.4313
▁పర్యటన	-10.4315
▁మోక్ష	-10.4317
▁సెం	-10.4317
▁సేవల	-10.4319
▁మన్న	-10.4319
ధాన్య	-10.4324
పోత	-10.4324
ీశ్వర	-10.4324
▁కూతురు	-10.4326
▁రఘు	-10.4327
కాన్	-10.4327
▁పట	-10.4328
▁భాషల	-10.433
▁తిరస్కరించ	-10.4333
▁పలువురు	-10.4333
}}	-10.4335
▁కంద	-10.4336
చారి	-10.4338
డై	-10.4345
▁సమర్ధ	-10.4346
▁జిల్లాలలో	-10.4352
ంఛ	-10.4356
▁వినియోగదారుల	-10.4356
▁పోల్చ	-10.4358
లచే	-10.436
మహ	-10.4361
▁రేటు	-10.4361
▁ఉంటాడు	-10.4361
▁చిత్రానికి	-10.4363
▁అనుబంధ	-10.4374
▁పండు	-10.4376
▁తెలుసు	-10.4377
▁కొడ	-10.4378
▁ఆయుధ	-10.4378
▁కౌన్సిల్	-10.4379
నీటి	-10.4379
▁ఖాళీ	-10.4379
గలిగే	-10.4381
pr	-10.4385
▁తెలిసి	-10.4386
▁పరిశోధనలు	-10.4388
▁నగరాల	-10.4389
వర్తన	-10.439
▁అనుగుణంగా	-10.439
▁తదుపరి	-10.439
ture	-10.4394
▁pl	-10.4396
▁సమీపంలోని	-10.4399
▁చెబుతారు	-10.44
ళీ	-10.4401
▁దేశంగా	-10.4402
ానికే	-10.4404
▁మాయ	-10.4405
▁జోన్	-10.4407
▁ప్రధానమంత్రి	-10.4407
▁ఈస్ట్	-10.4408
int	-10.441
▁దీక్ష	-10.4412
గ్రీ	-10.4413
▁స్వర్గ	-10.4415
▁ఇంగ్లాండ్	-10.4419
▁చూస్తే	-10.4424
▁ప్రకటించారు	-10.4424
త్తూరు	-10.4426
▁అందువల్ల	-10.4427
▁ఎప్పుడూ	-10.4429
▁అదనపు	-10.4431
▁జీవితాన్ని	-10.4432
ొచ్చ	-10.4433
వర్త	-10.4434
మింగ్	-10.4434
▁సాధించి	-10.4443
▁మందికి	-10.445
ప్రె	-10.445
▁విమానాశ్రయం	-10.4452
▁తూ	-10.4458
ుడయ్యాడు	-10.4459
▁రవి	-10.4461
mp	-10.4462
▁తీగ	-10.4463
▁వినోద	-10.4463
పుల్	-10.4464
▁వంద	-10.4465
▁శత	-10.4467
▁భూమిని	-10.4468
▁ప్రవర్తన	-10.4471
ang	-10.4471
▁సీనియర్	-10.4472
▁చేతిపంపులు	-10.4472
▁నాటకాల	-10.4476
▁మూలంగా	-10.4481
▁An	-10.4483
▁బీజ	-10.4487
▁నిర్మాణానికి	-10.4488
▁సకల	-10.45
ath	-10.45
▁చేరిన	-10.4505
▁ఆందోళన	-10.4507
▁తాత్కాలిక	-10.4513
ుకుంటాడు	-10.4519
▁చెప్పే	-10.4524
▁దుర్గ	-10.4525
కట్టు	-10.4525
▁ఆవు	-10.4528
▁దేశాల్లో	-10.4529
▁చూడండి	-10.453
district	-10.453
ానిక	-10.4531
▁పశువుల	-10.4534
▁యస్	-10.4535
▁చేస్తే	-10.4535
▁అప్పట్లో	-10.4537
▁1989	-10.4539
▁ఆకర్షించ	-10.454
ాంతం	-10.4541
▁అక్షరాస్యత	-10.4542
▁గమన	-10.4543
▁చేయటం	-10.4549
▁బొగ్గు	-10.455
▁పువ్వు	-10.455
gu	-10.4552
ంటో	-10.4553
▁తప్పించ	-10.4555
▁ఊహించ	-10.4557
▁one	-10.4558
ష్క	-10.4559
టెక్	-10.4569
▁నాయకత్వంలో	-10.457
మహా	-10.457
వృత్తి	-10.4577
▁సేకరణ	-10.458
కుమారి	-10.4582
▁చొ	-10.4586
బ్రి	-10.4588
▁ఎడ్	-10.4589
▁శతాబ్ది	-10.459
▁ఉంటుందని	-10.4591
▁సాఫ్ట్	-10.4593
▁ఉండేవారు	-10.4594
▁1948	-10.4597
▁ఆర్య	-10.4598
▁47	-10.4598
డియో	-10.4599
కల్ప	-10.4605
▁తరలి	-10.4605
▁సప్త	-10.4605
ide	-10.4607
▁స్పానిష్	-10.4607
▁1997	-10.461
▁పేర్కొన్నాడు	-10.4612
▁సందర్భాలలో	-10.4618
▁కమ్మ	-10.4621
▁విభాగంలో	-10.4622
▁ఈశ్వర	-10.4627
వాల్	-10.4632
▁has	-10.4636
▁దీర్ఘ	-10.4641
▁వైష్ణవ	-10.4643
▁జంతు	-10.4643
▁దీర్ఘకాల	-10.4644
▁లాగ	-10.4646
▁చేపల	-10.4651
▁ప్రయోగించ	-10.4651
▁దేహ	-10.4655
▁రాక	-10.4656
▁చెంది	-10.4659
▁పనిచేస్తుంది	-10.4661
▁భువనగిరి	-10.4661
▁భయ	-10.4663
▁భాగవత	-10.4664
▁సమాజంలో	-10.4666
▁నరస	-10.4666
▁సుబ్రహ్మణ్య	-10.4666
▁అంకిత	-10.4668
▁ఇసుక	-10.4673
▁అందించారు	-10.4677
▁ఆదాయ	-10.468
▁కఠిన	-10.4684
▁విధాన	-10.4685
ue	-10.4687
▁మాతృ	-10.4693
▁చేసుకొని	-10.4702
act	-10.4703
▁ఒకప్పుడు	-10.4703
ళు	-10.4706
▁లోతు	-10.4706
os	-10.4706
▁నాశనం	-10.4714
▁పిలవ	-10.4716
▁గ్రేట్	-10.4719
▁ప్రారంభమైన	-10.472
▁పదాన్ని	-10.4721
▁అంశాలు	-10.4722
▁పట్టిక	-10.4724
▁పంటలు	-10.4727
▁55	-10.4728
▁వికీ	-10.4739
▁తేలిక	-10.4741
▁తిప్ప	-10.4741
▁విస్తరణ	-10.4743
భై	-10.4745
▁విధానంలో	-10.4748
▁ఫ్రీ	-10.4749
క్రియ	-10.4752
▁కుక్క	-10.4752
▁1995	-10.4754
▁ఎడమ	-10.4754
▁పాటించ	-10.4754
▁సల్	-10.4755
▁విచారణ	-10.4756
▁దాదాపుగా	-10.4757
▁సిద్ద	-10.4759
▁సగం	-10.4762
▁పంజాబ్	-10.4762
▁హైదరాబాదులోను	-10.477
ాళ్	-10.4771
కూడదు	-10.4775
▁ప్రదేశంలో	-10.4778
▁ధాన్య	-10.4785
▁ఎగుమతి	-10.4786
▁సమకూర్చ	-10.4786
పేట్లో	-10.4789
▁ఆదిలాబాద్లో	-10.4792
▁కాగిత	-10.4793
గలవు	-10.4794
▁అందించే	-10.4796
▁భాగాన్ని	-10.4799
▁అనుభవించ	-10.4809
▁కలకత్తా	-10.481
▁భావించారు	-10.4812
ba	-10.4814
▁పౌ	-10.4815
▁ఉర్దూ	-10.4817
▁పుల్ల	-10.4818
▁కంటి	-10.4825
▁ఇందుకు	-10.4828
▁బెల్లం	-10.4832
ary	-10.4833
బెట్ట	-10.4833
▁అవసరమ	-10.4833
▁సుబ్బారావు	-10.4835
▁మండలి	-10.4838
కృత్	-10.4843
▁సరళ	-10.4845
▁భరత	-10.4847
▁గ్రీన్	-10.4847
▁వస్తాయి	-10.4848
టూరు	-10.485
గీత	-10.4851
▁అనుసంధానం	-10.4852
▁మలయాళ	-10.4853
▁సూర్యాపేట	-10.4853
sion	-10.4853
▁చిహ్నం	-10.4855
▁1992	-10.4856
▁ఏళ్ళ	-10.4856
art	-10.4861
▁మూడో	-10.4862
▁క్షేత్రం	-10.4864
▁కుమారులు	-10.4867
ేటప్పుడు	-10.4869
▁లక్ష	-10.4869
ధ్ర	-10.487
▁అబ్దుల్	-10.4871
యత్	-10.4872
▁నున్న	-10.4873
▁వాని	-10.4876
▁పదార్ధాల	-10.4877
▁నిలిపి	-10.4878
▁సర్వే	-10.4879
▁మహారాజు	-10.4879
ప్పటికి	-10.488
▁చేస్తాడు	-10.4883
▁ఆగ్నేయ	-10.4883
▁కమ్యూనిస్టు	-10.4884
▁వర్తక	-10.4885
▁రాయ్	-10.4887
టికల్	-10.4895
▁ద్రోణ	-10.4895
▁నాగార్జున	-10.4896
ుకునేందుకు	-10.4896
▁విభాగాలు	-10.4901
▁స్పష్టంగా	-10.4901
tt	-10.4912
పూజ	-10.4913
మండల	-10.4913
▁మధ్యకాలంలో	-10.4916
యుత	-10.4917
state	-10.492
▁రాజీనామా	-10.4926
ies	-10.4928
▁మరిన్ని	-10.4929
▁నిరూపించ	-10.4934
మ్మా	-10.4937
▁పుట్టి	-10.4938
ప్రతి	-10.494
▁ఇటలీ	-10.4944
▁ఉండును	-10.4948
▁దేవతలు	-10.4948
▁విశ్వనాథ	-10.495
▁మ్యూజియం	-10.495
▁సెప్టెంబర్	-10.495
▁త్యాగ	-10.4951
శక్తుల	-10.4951
▁వెలుగు	-10.4956
▁తప్పనిసరి	-10.4957
కరంగా	-10.4957
▁రైల్వేస్టేషన్	-10.4963
▁అబ్బ	-10.497
▁సంభవ	-10.497
▁డొ	-10.4973
▁ఫెర్	-10.4976
ాధార	-10.4978
ానని	-10.4979
స్తులు	-10.4981
▁మొదటిసారిగా	-10.4981
▁ప్రత్యేకించి	-10.4985
ame	-10.4988
▁వాటా	-10.499
ావళి	-10.4996
టమే	-10.4996
▁పంచాయతీ	-10.4997
ాంశం	-10.4999
▁నర్స	-10.5001
▁గ్రంథాలయ	-10.5002
ాంక	-10.5007
▁ఎందుకు	-10.501
▁కావచ్చు	-10.5012
▁ఉపయోగించారు	-10.5016
▁అద్ద	-10.5018
▁సహాయంతో	-10.5019
▁300	-10.502
▁పరికరాల	-10.5024
▁ఆరంభం	-10.5025
▁మృత	-10.5026
▁ప్రసారం	-10.5032
▁కిందకు	-10.5036
▁గుజరాత్	-10.5037
▁దారితీసింది	-10.5043
▁so	-10.5044
పొంద	-10.5046
భాగంలో	-10.5054
▁దీవుల	-10.5056
ోత్సవం	-10.5063
▁పెరుగుతుంది	-10.5064
▁సౌకర్య	-10.5065
▁రాష్ట్రపతి	-10.5071
rit	-10.5072
▁ఫ్యా	-10.5072
▁స్థాపించిన	-10.5074
▁మిగిలి	-10.508
▁శాస్త్రము	-10.5082
▁ఉత్తర్వులు	-10.5087
▁కార్మికుల	-10.5087
రంగంలో	-10.5089
ten	-10.5091
▁బావులు	-10.5094
▁ముహమ్మద్	-10.5099
▁పరిజ్ఞాన	-10.5103
▁49	-10.5111
▁can	-10.5117
ప్రాయ	-10.5118
ting	-10.512
ీకృత	-10.5121
మాట	-10.5123
▁కాదని	-10.5123
▁నేడు	-10.5128
▁థియేటర్	-10.5136
వారిని	-10.5141
▁150	-10.5145
▁రమణ	-10.5148
వేసింది	-10.5148
▁కడ	-10.5153
▁చేస్తా	-10.5154
▁ఆనాటి	-10.5155
▁గురై	-10.5155
▁రక్తం	-10.5159
కణ	-10.5161
ాలైన	-10.5161
▁కలవ	-10.5163
స్థులు	-10.5163
▁సినిమాలలో	-10.5164
▁రాముడు	-10.5164
ple	-10.5168
ాల్ని	-10.5169
▁నగర్లో	-10.5172
1-	-10.5177
▁స్టూడియో	-10.518
▁అల్యూమినియం	-10.518
టొ	-10.5182
▁చిత్రాల	-10.5184
▁ఆమోద	-10.5186
▁ఎదుర్కొన్న	-10.5188
▁షేక్	-10.5188
త్వము	-10.5188
▁మొదట్లో	-10.5189
▁హోటల్	-10.5189
▁గ్రహించ	-10.5191
స్థానంలో	-10.5191
జెన్	-10.5192
ాచార్యులు	-10.5197
▁వెన్న	-10.5201
జూ	-10.5201
▁బ్లూ	-10.5204
▁విస్తృత	-10.5206
▁జనసంఖ్య	-10.5213
▁ఒలింపిక్	-10.5218
▁ప్రజలలో	-10.5221
▁వాక్య	-10.5224
▁ఆగష్టు	-10.5224
జిల్లా	-10.5229
▁జీర్ణ	-10.523
▁దయ	-10.5235
థో	-10.5239
▁గోప	-10.5245
చ్చాడు	-10.525
యాగ	-10.5255
▁తెలుప	-10.5259
లాండు	-10.5263
▁నాయకత్వం	-10.5265
▁విభాగాల	-10.5269
▁ట్రాన్స్	-10.527
▁II	-10.527
▁అసోసియేషన్	-10.5274
▁who	-10.5276
▁నొప్పి	-10.5276
▁ఇక్కడికి	-10.5278
▁వెళ్	-10.5283
▁పరిష్కార	-10.5293
▁వ్యాప్తంగా	-10.5294
▁కవిత్వం	-10.5294
▁వస్తు	-10.5296
▁చేరింది	-10.5296
▁విడిచి	-10.5299
▁పశ్చిమాన	-10.5304
▁ప్రసాద	-10.5311
యార్	-10.5317
▁శర్మ	-10.5321
మూర్తుల	-10.5322
▁స్థాపించాడు	-10.5325
▁భూత	-10.5329
▁5310	-10.5335
▁మొగ	-10.5344
ణువు	-10.5345
▁వారీ	-10.5346
▁నివసిస్తున్న	-10.5349
▁అయ్యే	-10.535
▁మరికొన్ని	-10.5351
▁రంగుల	-10.5351
ts	-10.5353
▁జరుగు	-10.5355
▁పర్యాటకుల	-10.5358
▁వ్యయం	-10.5359
▁ట్రై	-10.536
బోయే	-10.5362
▁పెట్టిన	-10.5363
▁1940	-10.5364
▁శర	-10.5365
ec	-10.5365
▁హ్యా	-10.537
▁పేర్కొన్న	-10.5373
▁ఉంటూ	-10.5376
▁పాల్వంచ	-10.5376
ుడే	-10.5378
▁తానే	-10.538
app	-10.5381
▁రచించారు	-10.5383
▁నింప	-10.5386
▁ఐర్లాండ్	-10.5389
▁ఉమ్మడి	-10.5389
▁నిర్వచ	-10.539
▁సుమారుగా	-10.5393
▁మనస్సు	-10.5394
▁తల్లిదండ్రులు	-10.5395
▁ఇరాన్	-10.54
▁కట్టి	-10.5402
బడినవి	-10.5404
▁కాశ్మీరు	-10.5404
▁సూర	-10.5405
▁కమల	-10.5407
▁శీతాకాల	-10.5408
మాంస	-10.5413
▁అసాధారణ	-10.5421
▁ముప్ప	-10.5421
ance	-10.5424
ుతుంటారు	-10.5427
▁మొహ	-10.5428
వున్న	-10.543
▁పరిశోధనా	-10.5433
▁అనుకూలంగా	-10.5437
పత్	-10.5438
▁తమ్మ	-10.5442
▁పట్టణంలో	-10.5443
▁తరు	-10.5446
ార్థం	-10.5448
▁చేయాలి	-10.5448
కళా	-10.545
యిడ్	-10.5453
▁గ్రూప్	-10.5453
5%	-10.5456
▁మాధవ	-10.5457
▁వెల్ల	-10.5458
▁వృత్తులు	-10.5459
▁చక్కగా	-10.546
న్నిటి	-10.5461
పుచ్చ	-10.5461
▁సేకరించ	-10.5465
▁కూరగాయలు	-10.5466
▁దళ	-10.5469
▁చర్యల	-10.547
▁స్నేహ	-10.5479
▁అధికారుల	-10.5485
▁అడ్	-10.5485
▁లాటిన్	-10.5486
ుంటారు	-10.5488
▁ఆకులు	-10.5496
▁మనో	-10.5497
ముద్ర	-10.5497
▁మంగ	-10.5504
▁సరిగా	-10.5504
▁స్ట్ర	-10.5507
▁ఇష్ట	-10.5509
▁ముస్లింల	-10.551
▁శంఖ	-10.5513
▁తట్ట	-10.5513
▁ఐస్	-10.5514
▁మహిళలు	-10.5524
▁పార్టీకి	-10.5526
▁స్వేచ్ఛ	-10.5527
▁చేసేవారు	-10.5528
▁కాంగ్రెసు	-10.5531
▁పాల్గొన్నారు	-10.5531
సంఖ్య	-10.5534
▁man	-10.5535
▁శివుని	-10.5535
▁చూడవచ్చు	-10.5536
▁గుర్తించిన	-10.5544
పిల్ల	-10.5544
▁బుద్ధి	-10.5545
ai	-10.5547
ాసుర	-10.5548
కంఠ	-10.555
▁వీటికి	-10.5551
▁చేసుకుంది	-10.5552
▁నిర్మించాడు	-10.5552
▁ఆంగ్లంలో	-10.5554
చక్ర	-10.5556
▁ప్రొఫెసర్	-10.5557
▁బంగ్లాదేశ్	-10.5557
▁వ్యాధుల	-10.5558
▁హెక్టారులు	-10.5563
▁శ్రద్ధ	-10.5563
యొ	-10.5564
rn	-10.5565
▁అంతర	-10.5573
▁చేసుకునే	-10.5574
▁లంక	-10.5575
▁వలయ	-10.5575
భూమి	-10.5576
▁విజయవంతంగా	-10.5582
▁మెడ	-10.5582
▁యూనివర్శిటీ	-10.5583
▁సింధు	-10.5584
▁కామారెడ్డి	-10.5585
▁సౌందర్య	-10.559
▁దోష	-10.5594
▁గంట	-10.5594
▁ఆంజనేయ	-10.5596
▁ఆఫ్రికన్	-10.5596
డియన్	-10.5597
▁చేరారు	-10.5603
▁మరు	-10.5623
▁వసంత	-10.5624
ాలజీ	-10.5626
▁ఒకదాని	-10.563
▁ఎముక	-10.5635
▁సూర్యుని	-10.5637
▁సమానంగా	-10.5638
▁ఇందు	-10.5644
▁ముద్రించ	-10.5646
▁విద్వాంసు	-10.5648
వర్గ	-10.5651
▁చర్మ	-10.5653
ob	-10.5655
శాడు	-10.5658
▁విషయము	-10.5659
▁త్రాగ	-10.5659
▁రాయల్	-10.5659
▁జీవించ	-10.566
▁పరస్పర	-10.5662
ial	-10.5667
▁ఎత్తులో	-10.5668
▁ఏమీ	-10.567
నిష్	-10.5671
▁tr	-10.5672
▁మీటర్లు	-10.5674
▁ప్రోత్సాహ	-10.5675
▁నిషేధ	-10.5676
▁మార్గాల	-10.5677
▁సంప్రదాయం	-10.5684
adj	-10.5687
▁ప్రారంభించిన	-10.5691
▁విజయవంతమైన	-10.5694
శేఖర	-10.5694
▁కావడంతో	-10.5696
▁ఆశ్రయ	-10.5696
▁రెడ్	-10.5699
▁స్థాపించి	-10.5702
▁ఏది	-10.5706
▁డ్రా	-10.5715
▁నిర్వహిస్తారు	-10.5716
దొ	-10.5719
▁వైరస్	-10.572
▁పొద	-10.5722
▁శక్తివంతమైన	-10.5725
▁విమర్శకుల	-10.573
▁పండ్లు	-10.5733
▁అరేబియా	-10.5734
▁దక్షిణాన	-10.5735
▁కన్య	-10.5739
▁సంభాషణ	-10.5741
▁దంత	-10.575
వుతుంది	-10.5754
▁దేవుని	-10.5755
▁దాట	-10.5755
ేపల్లి	-10.5758
▁పురాణాల	-10.5758
థె	-10.5758
ళా	-10.5759
▁దానితో	-10.5766
▁దీనితో	-10.5767
▁ముద్రణ	-10.5767
▁పార్వతీ	-10.5768
నాటికి	-10.5769
▁కాంగ్	-10.5774
▁నిర్ధారించ	-10.5774
▁రంగులో	-10.5777
▁శాన్	-10.578
ana	-10.5781
▁1952	-10.5782
▁పండిత	-10.5783
భూషణ	-10.5792
▁నిషేధించ	-10.5793
▁వ్ర	-10.5799
▁నాటకాలు	-10.5807
▁నారాయణ్	-10.5808
▁పెను	-10.5809
స్థాప	-10.5809
రియో	-10.5809
▁పొగ	-10.5811
▁అటవీ	-10.5814
▁లభించిన	-10.5815
▁హాని	-10.5815
▁సాంద్రత	-10.5821
జాన్	-10.5822
▁వ్యవహార	-10.5822
ిస్తోంది	-10.5827
▁పంద	-10.5828
మందు	-10.5833
▁ముస్లింలు	-10.5834
▁చేస్తోంది	-10.5836
▁కొద్దిగా	-10.5838
▁పూజా	-10.5844
▁అడిగాడు	-10.5849
▁వస్తువులను	-10.5852
▁యుద్ధానికి	-10.5853
▁నిర్ణయం	-10.5856
▁ఎవరు	-10.5859
▁శ్రమ	-10.5865
K	-10.5865
▁భూముల	-10.5866
▁చేరుకుంది	-10.5867
షియన్	-10.5872
▁విధానాలు	-10.5874
▁యందు	-10.5879
▁చిన	-10.5879
పాలన	-10.5884
▁ఉద్యోగుల	-10.589
▁పిలువబడే	-10.5892
▁ప్రదర్శనలు	-10.5893
▁మార్క్	-10.5898
షే	-10.5903
▁కవుల	-10.5905
▁క్వా	-10.5905
▁ఊహ	-10.5906
హైడ్ర	-10.5908
జాతీయ	-10.5911
▁స్ట్రా	-10.5914
▁నేపథ్యంలో	-10.5919
▁చక్కెర	-10.5922
▁ఖగోళ	-10.5925
▁అరటి	-10.5925
న్నింటి	-10.5926
బద్ద	-10.5927
▁గుర్తిస్తూ	-10.5931
▁వృ	-10.5936
▁any	-10.5937
tal	-10.5938
▁also	-10.5942
▁పునః	-10.5942
▁మామూలు	-10.5943
▁అనునది	-10.5944
ేశ్వరరావు	-10.5944
ard	-10.5947
▁ఇవ్వడం	-10.5948
▁పోర్	-10.5951
▁కణాల	-10.5954
▁విద్యాలయ	-10.5955
▁విత్తనాల	-10.5956
min	-10.5964
▁సంతకం	-10.5964
▁నాగర్	-10.5965
కపోయినా	-10.5967
▁పునర	-10.5968
▁మొదలైంది	-10.597
▁మధుర	-10.5971
▁సమయానికి	-10.5978
దండ	-10.5979
పాలక	-10.598
▁కర్ర	-10.5985
చెంద	-10.5987
ood	-10.5987
పూరిత	-10.5988
జీవిత	-10.5988
▁ఆదిలాబాద్	-10.599
▁గెలిచి	-10.599
bl	-10.5991
▁ఆదర్శ	-10.5993
▁అత్యున్నత	-10.5996
▁నిధుల	-10.5997
▁గ్రంధ	-10.5998
▁ఉత్సవాల	-10.5998
హె	-10.6
▁శత్రువు	-10.6013
mi	-10.6015
▁స్థితిలో	-10.6017
▁మైసూరు	-10.6017
▁దండయాత్ర	-10.6017
▁రంధ్రము	-10.602
▁భూభాగంలో	-10.6023
రేఖ	-10.6024
▁సాధించారు	-10.6029
▁ఎన్నికల్లో	-10.6036
▁క్యూ	-10.6037
గలిగిన	-10.6039
▁ముఖ్యమైనవి	-10.6042
▁గూర్చి	-10.6045
tic	-10.6049
▁నవంబర్	-10.6052
▁రామ్	-10.6053
▁సుదీర్ఘ	-10.6058
▁పరిషత్తు	-10.606
▁మాటల	-10.6062
▁ఎగువ	-10.6065
▁పొడవైన	-10.6071
▁భగవ	-10.6074
▁దశాబ్దాల	-10.6077
▁కొంచెం	-10.6078
▁అశోక	-10.6083
▁లభించాయి	-10.6084
▁సుప్రసిద్ధ	-10.6085
▁పురాణం	-10.6087
▁వినాయక	-10.609
▁చమురు	-10.6092
▁డిసెంబర్	-10.6099
▁అవకాశాలు	-10.6099
▁ఫ్లా	-10.61
▁సంగ్రహ	-10.61
▁అతన్ని	-10.6101
దర్శి	-10.6104
▁పరిచయ	-10.6105
▁ముంద	-10.6111
▁మినహా	-10.6113
▁విశ్లేషణ	-10.612
▁కళాకారులు	-10.6124
▁సామర్థ్య	-10.6129
fi	-10.6134
స్తుంటారు	-10.6137
▁అక్బరు	-10.614
ధర్	-10.6143
▁రాజ్యాంగం	-10.6143
▁టాప్	-10.6148
▁ఇతడి	-10.6149
▁నేతృత్వంలో	-10.6157
పురుష	-10.6161
▁ఫిల్మ్	-10.6161
unt	-10.6166
▁హ్యూ	-10.6168
▁అత్యుత్తమ	-10.6168
▁రచించాడు	-10.6169
చెరువు	-10.6169
▁లేఖ	-10.6169
▁పద్ధతులు	-10.6171
▁పార్కు	-10.6173
▁తీర్మాన	-10.6175
▁సముద్రతీర	-10.6177
▁అప్పగించ	-10.6183
య్యింది	-10.6186
▁కల్గి	-10.6187
▁నిర్మించబడింది	-10.6187
▁ఉపయోగించడం	-10.6193
▁మరీ	-10.6195
పడ్డ	-10.6195
▁రూపొందించిన	-10.6198
▁కార్మిక	-10.6199
స్తోంది	-10.6199
▁టెస్ట్	-10.6202
▁లేకపోవడం	-10.6202
▁బాహ్య	-10.6203
▁శోభ	-10.6204
▁నివసిస్తున్నారు	-10.6205
▁అరకులోయలో	-10.6209
▁శు	-10.6211
▁యాగ	-10.6213
సియన్	-10.6216
▁లలిత	-10.622
▁హనుమ	-10.6221
క్యూ	-10.6225
▁పాల్గొన్న	-10.6228
▁అనుకున్న	-10.6229
స్టిక్	-10.6232
▁పిల్లలకు	-10.6232
గూడెంలో	-10.6233
▁కోర్సు	-10.6235
▁అక్టోబర్	-10.6237
▁ఇంగ్లీష్	-10.6237
▁రెవెన్యూ	-10.6237
▁ఓడించి	-10.6242
▁పరిశ్రమలు	-10.6244
▁నివసించే	-10.6246
నాగ	-10.6246
▁సంగారెడ్డి	-10.625
▁త్వరగా	-10.6251
ుకుంటే	-10.6252
▁గట్టి	-10.6254
తీర	-10.6254
▁పిండి	-10.6255
▁మహిళ	-10.6259
▁కళ్ళ	-10.626
▁రంగారెడ్డి	-10.6262
▁నిర్వాహక	-10.6265
▁వెడల్పు	-10.6265
▁రచయితలు	-10.6267
రేషన్	-10.6267
▁గణపతి	-10.6268
▁హిల్	-10.627
▁నువ్వు	-10.6271
ome	-10.6271
▁నగరాన్ని	-10.6272
▁నాణ్యత	-10.6272
▁ఇరవై	-10.6272
ుచున్నారు	-10.6277
ణ్య	-10.6277
లెన్	-10.6281
▁రామాయణ	-10.6281
ara	-10.6282
నగరం	-10.6284
జెర్	-10.6284
▁చెట్లు	-10.6286
▁చుట్టు	-10.6287
▁ఐదుగురు	-10.6289
▁స్టె	-10.629
▁అంటు	-10.629
▁ఉద్యానవన	-10.6293
▁మార్పుల	-10.6294
▁నడుమ	-10.6295
నెట్	-10.6295
▁అందరు	-10.6295
▁సభలో	-10.6298
▁సాక్ష్య	-10.6304
లిపి	-10.6306
▁రోడ్డుతో	-10.6306
▁డేటా	-10.6307
▁పోలిస్తే	-10.6309
టీఎం	-10.6314
▁శుభ్ర	-10.6315
▁ఊరు	-10.6319
▁ఫైనల్	-10.6319
▁వుంటాయి	-10.632
▁శరీరంలో	-10.6322
▁విజయవంత	-10.6324
పోతాయి	-10.6326
▁దశాబ్ద	-10.633
సభ	-10.6333
▁వెళ్ళిన	-10.6335
▁చేయబడ	-10.6335
▁ఆదరణ	-10.6336
▁అడ్డు	-10.6342
▁ఓపెన్	-10.6342
▁నివారణ	-10.6342
▁ఆధీనంలో	-10.6349
▁కార్పొరేషన్	-10.6349
▁చీర	-10.6359
▁పరిశ్రమల	-10.6361
▁గ్రంథాలు	-10.6363
tra	-10.6373
▁తెలుపు	-10.6375
▁శ్రీమతి	-10.6384
▁పాయింట్	-10.6385
రంగు	-10.639
▁బియ్యం	-10.6394
▁కమిషన్	-10.6399
port	-10.64
ally	-10.64
▁గాజు	-10.6403
నిర్మాణ	-10.6404
▁ప్రమాణాల	-10.6409
▁ధరించి	-10.6409
వెంట్	-10.6412
సాగింది	-10.6413
▁భవిష్యత్తు	-10.6415
5,000	-10.642
▁మఠ	-10.642
▁పాక్షిక	-10.642
▁పెరి	-10.6426
టికీ	-10.6427
▁సుల్తాన్	-10.6427
▁రాష్ట్రాలలో	-10.6428
▁క్వి	-10.643
▁సంవత్సరములో	-10.6433
▁కోస	-10.6441
▁తై	-10.6442
▁పద్ధతిని	-10.6447
▁రాశారు	-10.6453
▁భూభాగాల	-10.6457
పదార్ధ	-10.6457
▁1983	-10.646
▁నవ్వ	-10.6461
▁దుఃఖ	-10.6463
▁రజ	-10.6466
▁న్యాయస్థాన	-10.647
▁పాఠ్య	-10.6475
▁జయించ	-10.6483
▁పోషక	-10.6485
▁తోడు	-10.6485
▁అనుసంధానమై	-10.6487
▁5%	-10.6487
▁దిక్కు	-10.6488
ala	-10.6489
రోధ	-10.6496
▁మేఘ	-10.6497
▁అర్హత	-10.6499
ఫ్ట్	-10.6501
▁తీరు	-10.6508
మిష	-10.6508
▁కార్యక్రమంలో	-10.6511
▁మాస్టర్	-10.6514
బండ	-10.6514
▁కనిపెట్ట	-10.652
▁పరుగులు	-10.6521
if	-10.6521
▁సులభంగా	-10.6524
▁మతపరమైన	-10.6525
▁బ్లా	-10.653
బాబు	-10.6533
▁గదుల	-10.6535
ట్లే	-10.6535
దై	-10.6535
▁వ్యవహర	-10.6539
▁దిశలో	-10.654
▁నందు	-10.654
▁అలంకరించ	-10.6542
▁మసీదు	-10.6542
▁స్థాపన	-10.6543
స్పష్ట	-10.6549
over	-10.6552
▁అందుకున్నారు	-10.6553
నిరోధక	-10.6556
▁మినుము	-10.6557
ించుట	-10.6561
▁పరిగణ	-10.6562
ుతుంటాయి	-10.6563
▁సభ్యుడు	-10.6566
▁గాథ	-10.6568
▁జలపాత	-10.6569
▁వర్షపాతం	-10.657
వీడు	-10.6573
▁1962	-10.6575
▁అంజ	-10.6576
▁వుండి	-10.6576
▁ఎన్నికైనారు	-10.6577
▁గుడ్	-10.6582
Sub	-10.6583
to	-10.6585
▁ఉత్సాహ	-10.6585
▁వెంకటేశ్వర	-10.6586
▁పడుతుంది	-10.6586
▁పొరుగు	-10.659
▁మీడియా	-10.6594
▁తీరంలో	-10.6595
పడ్డాయి	-10.6596
▁ఈజిప్టు	-10.6599
▁మొఘల్	-10.6599
▁జంతువులు	-10.6601
▁వ్యాపించి	-10.6604
పర్తి	-10.6605
▁గణనీయమైన	-10.6607
▁స్పా	-10.6613
పల్లిలోనూ	-10.6613
▁have	-10.6614
▁పోయిన	-10.6614
▁బ్రాహ్మణుల	-10.6614
▁అంచు	-10.6616
▁ప్రేరణ	-10.6616
కూడ	-10.6617
ణ్ణ	-10.6618
▁సైట్	-10.6623
▁హస్త	-10.6626
▁పెర్	-10.6627
▁1985	-10.6634
▁గెలుచుకున్న	-10.6637
▁శాస్త్రవేత్తలు	-10.6645
▁హిందువులు	-10.6646
▁సంపన్న	-10.6648
▁ఆచరణ	-10.6648
▁పనికి	-10.6653
▁అందమైన	-10.6654
▁పెసర	-10.6656
▁ఆర్మేనియా	-10.6657
▁మైక్రో	-10.6657
-4	-10.6658
▁పాఠ	-10.6664
▁చాట	-10.6665
నాయుడు	-10.6666
▁వ్యవహారాల	-10.667
యందు	-10.667
▁1971	-10.6671
ోదయ	-10.6672
▁నిరాకరించ	-10.6672
వర్గం	-10.6672
సీమ	-10.668
▁చేతులు	-10.668
bu	-10.6683
▁సంధి	-10.6685
▁నచ్చ	-10.6686
▁జగిత్యాల	-10.6686
▁విక్రయ	-10.6692
▁చోట్ల	-10.6703
సౌ	-10.6707
▁మాడుగుల	-10.6709
▁పనిచేసి	-10.671
▁1920	-10.6713
▁రాష్ట్రములోని	-10.6713
▁సమస్త	-10.6713
▁ఇబ్బందుల	-10.6716
▁వాయిద్య	-10.6716
▁రహదారుల	-10.6716
ack	-10.6719
▁పరిషత్	-10.6719
▁సులభ	-10.672
▁రాక్	-10.6722
red	-10.6725
▁బర్మా	-10.6729
▁నష్టం	-10.6738
▁కేటాయించ	-10.6738
▁నిరోధ	-10.674
▁St	-10.6744
▁బిందువు	-10.6745
▁నిర్వహిస్తున్న	-10.6751
ద్దీన్	-10.6753
ach	-10.6757
▁బెంగాలీ	-10.676
▁భోగ	-10.6763
▁అందించిన	-10.6767
mu	-10.6767
వలెను	-10.6769
▁కాలేజ్	-10.6774
▁నిమ్మ	-10.6775
చేసింది	-10.6781
▁ప్రశాంత	-10.6786
▁పోలీస్	-10.6789
str	-10.6792
ాహార	-10.6794
ుంటాయి	-10.6795
▁శైవ	-10.6797
▁వోల్	-10.6799
▁సాహస	-10.6801
▁హిందువుల	-10.6802
డియం	-10.6804
pur	-10.6804
▁జరుగుతాయి	-10.6806
పర్చ	-10.6807
▁మండలంతో	-10.6807
▁సందేహ	-10.6812
▁నమ్మక	-10.6822
▁వీజీ	-10.6823
చోట	-10.6823
▁అనారోగ్య	-10.6826
▁సముద్రమట్టానిక	-10.6826
▁శ్వాస	-10.6826
▁ఉత్సవాలు	-10.6828
ran	-10.6829
▁నిరంతర	-10.6829
ేశాడు	-10.6833
▁ఐరోపాలో	-10.6839
▁అద్భుతమైన	-10.6842
▁విమానాశ్రయ	-10.6844
▁రోగి	-10.6849
▁గణన	-10.685
▁పరిస్థితులు	-10.6854
▁రైతులు	-10.6854
mo	-10.6857
▁దిశగా	-10.6861
▁వంగ	-10.6862
▁రంధ్రం	-10.6862
▁ఎడారి	-10.6863
▁పరిశోధకులు	-10.6867
▁నాయిక	-10.6869
▁దిశ	-10.6875
▁మంత్రిగా	-10.6875
▁రాజ్యాన్ని	-10.6878
▁పండించ	-10.6882
▁ప్రాజెక్ట్	-10.6885
▁నోబెల్	-10.6893
▁శనగ	-10.6894
ian	-10.6894
▁కావున	-10.6896
▁దంపతుల	-10.69
ెల్ల	-10.6902
సెల్	-10.6903
▁ఐక్య	-10.6904
▁యువత	-10.6906
ric	-10.691
▁గుడివాడ	-10.6911
▁వహించారు	-10.6912
▁టర్కీ	-10.6916
రాణి	-10.6918
▁1984	-10.6919
▁జ్యోతి	-10.6922
▁పరిశీలన	-10.6923
▁వీరిని	-10.6926
▁ఓట్ల	-10.6927
మగు	-10.6928
▁1956	-10.6932
▁1993	-10.6934
mon	-10.6935
▁నగరాలలో	-10.6937
▁శిథిల	-10.6937
▁అందరికీ	-10.694
▁తిరిగ	-10.6941
▁1967	-10.6943
▁dis	-10.6944
▁భద్రాచలం	-10.6945
▁సరిపో	-10.6946
యింగ్	-10.6949
కారణ	-10.6953
రకాల	-10.6957
▁కొందరి	-10.6959
సెంట్	-10.6959
భంగ	-10.6961
▁అంక	-10.6965
▁స్థాయికి	-10.697
యుద్ధ	-10.6972
▁స్పె	-10.6973
▁తరహా	-10.6974
▁రుణ	-10.6976
▁భోజన	-10.6981
▁వేలాది	-10.6986
▁హోమ	-10.699
▁పేరిట	-10.699
గృహ	-10.6997
▁ఆఖరి	-10.6998
▁pre	-10.6999
▁వాటర్	-10.7
పూర్వక	-10.7002
మియా	-10.7003
▁స్మారక	-10.7005
▁సమీక్ష	-10.7005
▁విధి	-10.7007
▁సిక్కు	-10.7012
▁కవులు	-10.7012
ction	-10.7015
▁శాసనం	-10.7016
▁చేయటానికి	-10.7017
▁పేర్కొంది	-10.702
▁శిష్యుల	-10.7021
ులై	-10.7023
▁చేపట్టిన	-10.7028
▁నుండే	-10.703
▁నిర్బంధ	-10.703
▁తాగ	-10.703
▁బాంబు	-10.7032
▁వృష	-10.7034
కూర్	-10.7035
▁చతుర్	-10.7036
▁రాజ్యాల	-10.704
▁పిలిచే	-10.704
▁కలయిక	-10.7043
▁వైభవంగా	-10.7046
బెట్టి	-10.7056
▁ప్రస్తావన	-10.7058
▁గ్రూపు	-10.7058
▁పవర్	-10.7059
▁నిమిషాల	-10.706
▁అంతేకాకుండా	-10.7065
▁గిరిజన	-10.7068
▁పొందాయి	-10.707
▁నిర్మించి	-10.7071
▁ఇస్తుంది	-10.7074
▁ధైర్య	-10.7081
▁ఒడిషా	-10.7081
▁కృష్ణుడు	-10.7081
▁వేగం	-10.7087
▁2017	-10.7087
▁నివారించ	-10.709
▁ప్రభువు	-10.709
▁సమూహాల	-10.709
▁తప	-10.7091
▁వాహనాల	-10.7092
▁పండ్ల	-10.7093
▁గుర్తించి	-10.7095
▁భక్తులకు	-10.7095
▁విద్యార్థులకు	-10.7095
▁క్షయ	-10.7102
▁కృ	-10.7108
▁కవితా	-10.7109
▁క్షత్రియ	-10.7111
▁1972	-10.7115
▁అగ్నిపర్వత	-10.7119
▁తీసుకురా	-10.7123
▁అధ్యాపక	-10.7126
▁జ్ఞాపక	-10.7126
▁విక్రమ	-10.713
▁ఉన్నాయని	-10.7131
▁అనుమాన	-10.7139
▁విరమణ	-10.7141
ృష్ట	-10.7143
▁స్క్	-10.7149
▁ప్రత్యర్థి	-10.7149
కొద్దీ	-10.7152
▁పదవ	-10.7152
▁చేపలు	-10.7153
▁కొత్తగూడెం	-10.7158
▁మేళ	-10.716
▁ఆరుగురు	-10.7167
wa	-10.7171
har	-10.7176
▁పరమాణు	-10.7177
పిస్తుంది	-10.7183
▁భారతీయుల	-10.7184
▁ప్రభావిత	-10.7188
దనం	-10.7191
▁గుప్త	-10.7199
బడుతోంది	-10.72
▁అందిస్తున్న	-10.7206
ాభిషేక	-10.721
▁అన్నమయ్య	-10.7213
▁ఆలయానికి	-10.7214
ఎన్	-10.7216
▁ప్రవాహం	-10.722
▁యూనిట్	-10.7222
▁ఘంటసాల	-10.7226
▁సమకాలీన	-10.7226
▁ప్రచురించారు	-10.7229
పింగ్	-10.7232
▁దక్షిణాఫ్రికా	-10.7233
▁మెడికల్	-10.7233
▁పుష్కర	-10.7234
ుచుండ	-10.7236
▁1975	-10.7236
▁ఫ్రె	-10.7237
▁జరిపిన	-10.7237
8%	-10.7242
▁బ్యాండ్	-10.7248
form	-10.7251
▁ఆధారపడ	-10.7254
▁అవమాన	-10.7255
▁సంరక్ష	-10.7257
ుకోవటం	-10.7261
న్యాస	-10.7262
▁కనక	-10.7264
▁చక్కని	-10.7264
ub	-10.7267
ులయ్యారు	-10.7268
▁గ్రంథము	-10.7269
▁అగు	-10.7269
▁పఠ	-10.727
▁రైతుల	-10.7275
▁400	-10.7277
▁విజయాన్ని	-10.7278
▁వాడకం	-10.728
▁కత్తి	-10.7281
cu	-10.7282
▁పదము	-10.7285
ాన్నే	-10.7287
▁ఆధిపత్యం	-10.7293
ానంతరం	-10.7295
▁వహిస్త	-10.7297
▁హౌ	-10.7301
▁ఛాంపియన్	-10.7303
▁విస్తరించింది	-10.7304
హెక్ట	-10.7306
▁ఉపయోగం	-10.7307
▁గుండ	-10.7311
eg	-10.7312
▁ప్రజాస్వామ్య	-10.7319
క్ష్య	-10.732
▁ఉద	-10.7321
స్థుల	-10.7327
▁తులసి	-10.7327
తీయ	-10.733
▁అనేకమంది	-10.7332
▁నాటిక	-10.7332
సముద్రం	-10.7333
▁వ్రత	-10.7334
▁మార్పిడి	-10.7334
▁రాకెట్	-10.7334
టెల్	-10.7335
తెలంగాణ	-10.7338
▁కుంభ	-10.734
▁ఇటీవలి	-10.7341
▁మెజారిటీ	-10.7342
▁అల్లాహ్	-10.7342
▁సాయంత్రం	-10.7342
గలిగి	-10.7344
▁తాళ	-10.7347
▁పెరుగ	-10.7348
▁పరిష్కరించ	-10.735
ధేయ	-10.7351
▁వేదాంత	-10.7354
▁1977	-10.7355
కోశ	-10.7356
▁హెర్	-10.7357
▁విటమిన్	-10.7357
▁ముస్లిముల	-10.7357
▁శస్త్రచికిత్స	-10.7365
▁పండితులు	-10.7368
▁చిత్రాన్ని	-10.7371
▁స్ఫూర్తి	-10.7373
▁తలెత్త	-10.7376
శాసన	-10.7389
ral	-10.7397
▁జింక	-10.7399
పురాణ	-10.7402
▁పక్కన	-10.7403
▁ఎవరైనా	-10.7405
▁చేశా	-10.7406
▁మౌలిక	-10.7406
▁గ్యా	-10.7409
▁తరంగ	-10.741
▁క్రిస్ట	-10.741
▁సిరీస్	-10.7413
▁రాళ్ళ	-10.7415
కెక్క	-10.7416
▁article	-10.742
▁పసిఫిక్	-10.742
▁సిద్ధిపేట	-10.742
▁ఎరుపు	-10.742
▁కలిగే	-10.7424
amu	-10.7426
ార్ధం	-10.7428
▁విలువైన	-10.7431
▁పర్వతాల	-10.7433
▁తొలిసారిగా	-10.7436
ఇతర	-10.744
▁గ్రహించి	-10.7443
▁నిజమైన	-10.7445
జియా	-10.7447
▁ఎంచ	-10.745
output	-10.7451
▁క్షిపణి	-10.7451
▁స్థూల	-10.7451
దుర్గ	-10.7454
the	-10.7459
భిక్ష	-10.746
▁హిట్	-10.746
దగ్గ	-10.746
వంటి	-10.7465
▁పోర్చుగీసు	-10.7467
▁మోహ	-10.7469
▁ప్రమాణం	-10.7471
▁సౌత్	-10.7471
▁కళాకారుల	-10.7474
▁బ్రిటీషు	-10.7475
▁యాజమాన్య	-10.7475
▁రంపచోడవరం	-10.7475
▁క్షీణ	-10.7477
▁సైనికులు	-10.7478
▁పడవ	-10.7478
▁బాగు	-10.7482
▁అధిగమించ	-10.7483
▁ఏమిటంటే	-10.7483
ram	-10.7485
▁ఉపయోగించిన	-10.7486
▁సహకారంతో	-10.7489
▁ఫిలిప్	-10.7491
▁పతాక	-10.7493
be	-10.7495
▁సేకరించి	-10.7496
▁పుట్టుక	-10.7496
▁దళిత	-10.7504
▁ఆధారం	-10.7511
▁మస్జిద్	-10.7515
▁ప్రదేశాలలో	-10.7516
స్ట్రో	-10.7523
యుండ	-10.7526
▁into	-10.7527
▁తిరగ	-10.7529
▁సరాసరి	-10.753
లేఖ	-10.7532
▁నాగేశ్వరరావు	-10.7532
కారము	-10.7532
మరియు	-10.754
ాధికారి	-10.7541
▁దుష్	-10.7544
▁బెంగుళూరు	-10.7546
▁మిక్కిలి	-10.7546
▁తెలిపారు	-10.7546
▁బ్రాడ్	-10.7547
బ్లి	-10.7547
ాధిపతి	-10.7553
▁నుంచే	-10.7555
▁సహకరించ	-10.7557
▁స్వీయ	-10.7557
రీత్యా	-10.7562
▁ప్రయాణీకుల	-10.7563
low	-10.7565
▁ప్రారంభించి	-10.7568
పడుతున్న	-10.757
▁సంబంధాల	-10.757
▁other	-10.7578
▁అరుదుగా	-10.7578
▁కన్ను	-10.7578
▁రంధ్ర	-10.7584
ign	-10.7585
▁ఆల్బమ్	-10.7586
▁విషయాలను	-10.7587
▁విశాల	-10.7588
▁మెక్సికో	-10.7594
▁మెదడు	-10.7594
▁నదులు	-10.7594
ేటట్లు	-10.7597
▁పౌరులు	-10.761
▁తీర్పు	-10.761
▁చిత్రాలను	-10.7615
▁చిట్ట	-10.7615
▁చిన్నతనం	-10.7618
▁శతాబ్దపు	-10.7618
▁చెప్పబడింది	-10.762
▁mw	-10.7623
tri	-10.7623
▁అధికారాన్ని	-10.7623
▁ఆయుర్వేద	-10.7626
▁చెందుతున్న	-10.7633
au	-10.7635
▁పదానికి	-10.7638
▁ప్రై	-10.7641
▁కర్నూల్	-10.7642
స్తుంటాయి	-10.7647
▁సంతృప్త	-10.765
▁కర్మాగార	-10.765
▁తరపున	-10.765
▁ద్వితీయ	-10.765
▁ఉత్సవ	-10.7667
▁నదుల	-10.7669
ld	-10.7669
▁తెలియజేస	-10.7671
గ్రంథ	-10.7674
▁నిర్వహించే	-10.7683
▁టైటిల్	-10.7684
▁ఒడ్డున	-10.7684
▁హొ	-10.7687
▁రోగుల	-10.7687
▁పరికరం	-10.769
ప్రో	-10.769
▁ఉపాధి	-10.769
parser	-10.7698
▁బ్రెజిల్	-10.7699
▁బ్యాటరీ	-10.77
▁we	-10.7702
▁మొదటిసారి	-10.7702
▁వేళ	-10.7703
▁ఉండేవాడు	-10.7704
▁ప్రభావాల	-10.7711
▁శ్రీరంగ	-10.7721
ప్పుడే	-10.7725
▁ఏర్పడి	-10.7728
mar	-10.7729
సమీప	-10.7729
▁విశాఖ	-10.773
▁పురుగు	-10.773
▁సింహాసన	-10.7731
▁క్యాన్సర్	-10.7731
▁ద్వారక	-10.7734
మంటే	-10.7735
▁ఆదివారం	-10.7739
▁ఒంటరి	-10.7747
ever	-10.7748
▁విశ్వవిద్యాలయము	-10.7749
ాయణ	-10.7751
▁To	-10.7754
▁శాతవాహన	-10.7755
▁మార్గాలు	-10.7756
▁వర్గీకరించ	-10.7757
▁పరిమితం	-10.7758
▁బొంబాయి	-10.7763
▁ధరించిన	-10.7764
▁నిర్వహిస్తుంది	-10.7764
దర్శ	-10.7766
▁చేశాయి	-10.7767
▁వ్యవస్థాపక	-10.7768
▁ఆయుధాల	-10.7769
▁1974	-10.7776
▁కథానాయక	-10.778
▁మరాఠీ	-10.7788
▁సరస్వతి	-10.7788
▁దోహద	-10.7792
▁పెన్	-10.7796
▁నిరసన	-10.7805
▁ప్రవహిస్త	-10.7806
▁వహిస్తున్న	-10.7806
కార్బను	-10.7806
▁ఏర్పడుతుంది	-10.7809
▁శృంగార	-10.7812
▁అమె	-10.7813
▁దళాల	-10.7814
▁వ్యవసాయాధారిత	-10.782
▁విద్యాభ్యాసం	-10.782
▁ఎందరో	-10.782
▁will	-10.7822
▁యాదవ	-10.7824
▁పర్వ	-10.7824
▁పాల్గొని	-10.7825
నాళ	-10.7826
▁సన్నివేశ	-10.7828
▁ఉప్ప	-10.7831
▁ప్రతినిధి	-10.7837
▁నిలయ	-10.7837
ుకొన్నాడు	-10.784
▁వ్యత్యాస	-10.7845
▁నిష్పత్తి	-10.7845
▁తరగతుల	-10.7846
▁lo	-10.7847
ప్రియ	-10.7847
cent	-10.7858
▁బోర్	-10.7859
▁జమీందార	-10.7861
▁మలేషియా	-10.7861
▁జరుపుకుంటారు	-10.7863
ron	-10.7865
▁కాఫీ	-10.7865
han	-10.7868
ust	-10.7871
▁వినిపించ	-10.7872
ite	-10.7877
▁1955	-10.7881
▁ప్రఖ్యాతి	-10.7884
▁దుర	-10.7893
▁వెనక	-10.7894
▁పట్టణాల	-10.7894
2)	-10.7898
▁అప్పటికి	-10.7903
▁1946	-10.7904
▁బొమ్మల	-10.7905
-5	-10.7906
▁సంబ	-10.7909
▁తిరువ	-10.7911
▁విక్రయించ	-10.7913
▁వ్యవహరిస్తారు	-10.7913
▁కరువు	-10.7917
పయోగ	-10.793
▁సూత్రాల	-10.7934
▁ప్రతినిధుల	-10.7935
▁1988	-10.7939
▁ద్వ	-10.7941
▁ఇద్దరూ	-10.7943
▁ఓటమి	-10.7944
▁ఓట్లు	-10.7945
బాహు	-10.7947
▁వ్యతిరేకించ	-10.7947
▁గ్రాండ్	-10.7951
▁you	-10.7953
▁నోటి	-10.7953
▁ఉత్సవం	-10.7959
▁ఉదాహరణలు	-10.7959
▁కచ్చితంగా	-10.796
▁ప్రభావాన్ని	-10.796
▁ఎన్నికయ్యాడు	-10.7961
rt	-10.7966
▁పెరుగుతున్న	-10.797
▁పురస్కారాన్ని	-10.7972
▁మక్కా	-10.7977
▁చేయగల	-10.798
▁నేర్చుకున్న	-10.7983
mit	-10.7985
▁చారిత్రిక	-10.7993
▁రూపాయలు	-10.7993
▁కదలిక	-10.7996
▁మందిరం	-10.8
▁ఉపన్యాస	-10.8
▁పోషించారు	-10.8001
▁సుల్తాను	-10.8001
ీయులు	-10.8003
▁బంగారం	-10.8005
▁డిజిటల్	-10.801
▁పురావస్తు	-10.801
▁లైంగిక	-10.801
▁ఇష్టం	-10.801
▁ఓడించ	-10.8019
▁ద్వారం	-10.8022
ింపజేస	-10.8023
▁విభజ	-10.8025
▁పూజించ	-10.8034
▁బ్ల	-10.8034
▁వాడుతారు	-10.8034
ుతుంద	-10.8035
గొట్టపు	-10.8036
▁హిందు	-10.804
▁ద్రాక్ష	-10.8043
▁శంకర్	-10.8049
ళిక	-10.8051
▁కథనం	-10.8052
▁భూకంప	-10.8052
వాళ్ళు	-10.8056
వాహన	-10.8059
▁ఆవిరి	-10.8063
▁పెరిగే	-10.8065
▁మతము	-10.8071
▁ఇతనికి	-10.8076
▁చేయబడుతుంది	-10.8076
gen	-10.8081
▁కోల్పో	-10.8084
▁మూలకం	-10.8092
▁ఒంగోలు	-10.8102
▁Ra	-10.8107
▁రామాయణం	-10.811
▁ఇస్లామీయ	-10.8112
▁ఇంద్రుడు	-10.8113
▁బాయిలరు	-10.8119
▁ఆనకట్ట	-10.8119
ాధ్యక్ష	-10.8119
▁గ్లా	-10.8119
▁నిర్వచించ	-10.8126
▁పదార్థాలు	-10.8128
▁రెండ	-10.8131
▁1978	-10.8131
▁1964	-10.8133
ens	-10.8134
▁యజమాని	-10.8135
1)	-10.8143
▁such	-10.8144
▁సోదరుడు	-10.8144
▁పాల్గొంట	-10.8144
▁చంద్రశేఖర	-10.8145
▁వికీపీడియా	-10.8152
▁గడ్డి	-10.8154
▁పెరిగిన	-10.8155
▁వాదించ	-10.8158
▁గలవాడు	-10.8159
▁సూర్యుడు	-10.8159
▁భాగస్వామ్యం	-10.8162
pos	-10.8164
▁కారణాలు	-10.817
▁దృఢ	-10.8178
▁సెట్	-10.8178
▁స్వీకరించి	-10.8181
▁తెలుసుకున్న	-10.8182
rea	-10.8183
▁ధార్మిక	-10.8186
▁థాయ్	-10.8186
▁కలిగించే	-10.8187
▁ఆక్రమణ	-10.8189
ింపబడింది	-10.8189
నందున	-10.819
▁భీష్మ	-10.8191
▁శారీరక	-10.8195
▁ఉద్దేశించి	-10.8195
గంటి	-10.8196
▁వాసన	-10.82
▁కవిత్వ	-10.82
▁వెళ్ళారు	-10.8201
▁పెరగ	-10.8203
కాలము	-10.822
▁కడుపు	-10.822
▁పర్షియన్	-10.8221
▁1979	-10.8223
▁ప్రపంచంలోనే	-10.8224
▁తయారుచేయ	-10.8225
▁086	-10.8232
▁సైనికుల	-10.8237
ాన్నీ	-10.8244
hy	-10.8251
▁రాయలసీమ	-10.8254
▁జార్జ్	-10.8254
▁బహుశా	-10.8254
▁వ్యక్తం	-10.8255
▁ఏకీకృత	-10.8256
▁కౌరవ	-10.8259
వైద్య	-10.8259
▁సౌదీ	-10.8261
వాణి	-10.8262
▁తమిళం	-10.8271
▁ముద్ద	-10.8272
పీఠ	-10.8273
▁డైరెక్టర్	-10.8275
▁కౌంటీ	-10.828
▁సన్నిహిత	-10.828
▁వైఎస్	-10.8287
▁ప్రోగ్రామ్	-10.8288
▁దగ్గరి	-10.829
▁కావలి	-10.829
▁భిన్నంగా	-10.829
▁సంప్రదాయాల	-10.8293
man	-10.8295
▁రాముని	-10.8303
▁భయపడ	-10.8306
▁చలి	-10.8308
▁పరికరాలు	-10.8308
▁కనపడ	-10.831
ధారి	-10.8312
▁ప్రబల	-10.8313
క్రమణ	-10.8313
విజయ	-10.8313
3)	-10.8321
▁పురాతనమైన	-10.8325
▁శివలింగ	-10.8328
▁సౌర	-10.8331
▁ఖ్యాతి	-10.8332
▁ఇల్లు	-10.8333
కుడిగా	-10.8334
▁1965	-10.8334
▁చెప్పింది	-10.834
▁లభించే	-10.8346
మృగ	-10.8349
▁అపరాలు	-10.8351
▁రంగారావు	-10.8359
స్థాన్	-10.8361
వేసే	-10.8365
▁మహాత్మా	-10.8365
షర్	-10.8371
భరిత	-10.8375
▁జార్జి	-10.838
▁ఎవరూ	-10.8384
▁సామంత	-10.8389
way	-10.839
▁భీమవరం	-10.8391
▁కాలుష్య	-10.8392
ారణ్య	-10.8401
▁భాషల్లో	-10.8401
▁కలదు	-10.8404
ice	-10.8407
▁ఉండాలని	-10.8408
▁జేమ్స్	-10.841
▁నారద	-10.8416
▁నివాసగృహాలు	-10.8417
▁నంద్యాల	-10.8418
▁భీష్ముడు	-10.8421
▁బాధపడ	-10.8423
▁చిత్రాలకు	-10.8429
▁ఎదురుగా	-10.8432
▁ప్రతీక	-10.8433
▁అత్యవసర	-10.8435
▁నాల్గవ	-10.8435
▁విముక్తి	-10.8435
▁మునిగి	-10.8436
▁తాజా	-10.8441
▁1945	-10.8447
▁ల్యా	-10.8451
▁శుక్ర	-10.8454
▁ఉత్పత్తులు	-10.8454
▁దేవాలయాల	-10.8455
▁డాలర్ల	-10.8455
▁గై	-10.8457
▁తీసుకున్నారు	-10.8458
▁కరిగి	-10.846
▁కాథలిక్	-10.8461
▁శరణ	-10.8462
నగర	-10.8463
▁చారిత్రాత్మక	-10.847
▁120	-10.8471
cc	-10.8474
▁1987	-10.8474
ద్రావణ	-10.8475
▁గంగరాజు	-10.8475
▁సెన్	-10.8476
▁ఉంట	-10.8479
▁సంస్కృతుల	-10.8479
▁అక్రమ	-10.8484
▁నీతి	-10.8485
tain	-10.8486
మునందు	-10.8486
▁నగరాలు	-10.8492
▁సతీ	-10.8495
▁జాతర	-10.8495
▁టిబెట్	-10.8497
ాబాదు	-10.8501
▁టెలి	-10.8506
▁ధ్వని	-10.8513
▁పరిపాలనా	-10.8519
▁జన్మించింది	-10.8525
ult	-10.8525
▁గట్టిగా	-10.8531
▁1982	-10.8534
▁నగరము	-10.8534
▁చర్మం	-10.8534
▁అప్పు	-10.8539
▁న్యాయవాది	-10.854
▁ప్రదేశాలు	-10.854
▁భోజనం	-10.8541
▁నిరోధించ	-10.8547
▁ప్రయోజనాల	-10.8548
ురాలిగా	-10.855
ఉపయోగిస్తున్నారు	-10.8553
▁గరి	-10.8554
▁కాశ్మీర్	-10.8556
▁సంక్షోభ	-10.8557
▁గేయ	-10.8558
▁ఇష్టపడ	-10.8562
పెద్ద	-10.8569
ఘోష	-10.8569
▁పడమర	-10.857
సమయంలో	-10.8571
వాదులు	-10.8572
▁నియమాల	-10.8574
▁పయన	-10.8582
▁అధ్యక్షుడిగా	-10.8587
▁పంచాయతీకి	-10.8587
▁తగినంత	-10.8591
old	-10.8592
▁రేవు	-10.8597
▁1969	-10.8597
▁కొలత	-10.8599
▁బోధన్	-10.8601
▁పునరుద్ధరించ	-10.8601
కర్మ	-10.8602
▁పిలుపు	-10.8603
▁పోటీలలో	-10.8603
▁మూలకాల	-10.8603
▁దళం	-10.8605
▁ఆరవ	-10.8607
▁ఆయిల్	-10.8611
▁ప్రకటించాడు	-10.8612
▁కేంద్రము	-10.8616
చేశాడు	-10.8616
బట్టి	-10.8617
▁పంపించ	-10.8619
▁పెంపకం	-10.8619
త్రో	-10.8621
▁సిద్ధాంతాల	-10.8628
▁పులుల	-10.8632
▁లైట్	-10.8637
▁దాచ	-10.8641
▁కూలి	-10.8644
▁రవీంద్ర	-10.8645
▁డేవిడ్	-10.8645
▁మత్స్య	-10.8645
▁రికార్డ్	-10.8645
▁మైళ్ళ	-10.8646
▁ఆలయాన్ని	-10.8646
▁2018	-10.8649
row	-10.8654
▁వాద్య	-10.866
ake	-10.8663
▁కాకతీయ	-10.8677
▁మేరీ	-10.8677
land	-10.868
▁He	-10.8684
▁ఏర్పాట	-10.8686
భాగ్య	-10.8688
▁రకరకాల	-10.869
▁విగ్రహాలు	-10.8691
▁పిలిచేవారు	-10.8693
▁గుర్రాల	-10.8704
▁తవ్వ	-10.8707
▁రాబర్ట్	-10.8708
▁ఆవిష్కరణ	-10.8717
▁మధు	-10.8719
▁ఆధిక్యత	-10.8726
▁మహారాజా	-10.8726
▁అప్పుడే	-10.8728
▁వచన	-10.873
▁దుస్తుల	-10.8732
▁నీళ్ళ	-10.8734
▁రీసెర్చ్	-10.8735
▁used	-10.8735
▁వ్యాఖ్యాన	-10.8738
దేవుని	-10.8741
▁దుస్తులు	-10.8743
▁అంతస్తు	-10.8748
▁250	-10.8757
▁చెడు	-10.8757
▁రాశాడు	-10.8759
లాగే	-10.8761
గిలి	-10.8761
▁ఎత్తి	-10.8767
▁అధిపతి	-10.8773
మిత్ర	-10.8775
▁cs	-10.8778
▁కాయగూరలు	-10.8779
▁సర్ప	-10.878
▁తీవ్రత	-10.8781
▁ఇవ్వబడింది	-10.8784
▁చిత్రీకరణ	-10.8784
▁ఎలక్ట్రానిక్	-10.8788
▁ఆరోపణల	-10.8788
▁ఆత్మకూరు	-10.8791
▁అయ్యారు	-10.8792
▁సాయుధ	-10.8792
▁విక్టోరియా	-10.8797
▁శీర్షిక	-10.8797
▁స్థిరమైన	-10.8801
ఎల్	-10.8803
▁తమ్ముడు	-10.8806
▁ముగించ	-10.8806
▁క్షీణించ	-10.8813
▁పెట్టె	-10.8818
▁డ్రై	-10.8822
▁సమాంతర	-10.8829
con	-10.8831
▁ఇంకొక	-10.8832
▁1957	-10.8837
బట్ట	-10.8841
▁ఖమ్మంలో	-10.8848
▁నిరంతరం	-10.8849
india	-10.8851
బొమ్మ	-10.8852
▁శ్రీకృష్ణుడు	-10.8856
▁పూస	-10.886
ుకుంటాయి	-10.886
▁ఇన్స్టిట్యూట్	-10.8861
▁తేమ	-10.8868
▁విజేత	-10.8879
వాళ్లు	-10.8881
▁నిన్ను	-10.8884
▁ఆరంభించ	-10.889
▁సదుపాయాల	-10.8893
▁నిపుణులు	-10.8896
▁విలియం	-10.8898
జన్మ	-10.8899
▁బంతి	-10.89
▁చేయబడి	-10.89
▁గ్రె	-10.8902
బడలేదు	-10.8904
▁ఒకవేళ	-10.8906
▁సాంకేతికత	-10.891
▁దళాలు	-10.8911
▁యేసు	-10.8918
dy	-10.892
▁వ్యాపించ	-10.8929
ుందని	-10.8931
▁మార్గదర్శక	-10.8933
▁అయిదు	-10.8934
▁డీఏ	-10.8936
గ్గి	-10.894
▁భీముడు	-10.8941
▁కళల	-10.8945
▁were	-10.8945
▁అడుగుపెట్ట	-10.8946
▁ద్రవ్యరాశి	-10.8952
▁నిర్వహించెదరు	-10.8955
▁నిధులు	-10.8959
▁తెలియదు	-10.8959
▁కలుగుతుంది	-10.8966
▁చిహ్నాల	-10.8967
▁Al	-10.8969
▁కాలిఫోర్నియా	-10.897
▁గేమ్	-10.897
▁రంగాలలో	-10.8972
▁దిగుమతి	-10.8979
▁ఇవన్నీ	-10.8979
▁చెయ్యడం	-10.8981
▁చెప్పడం	-10.8987
▁ఖురాన్	-10.8988
▁ఆహ్వాన	-10.8993
▁వెంకటగిరి	-10.8997
▁వ్రాత	-10.8998
▁తల్లిదండ్రుల	-10.8998
విధానం	-10.9004
ావధాన	-10.9007
▁విడిచిపెట్ట	-10.9008
▁ప్రత్య	-10.901
▁బిలియన్ల	-10.901
▁ఘర్షణ	-10.9016
▁మూత్ర	-10.9024
▁ఐదవ	-10.9025
స్తుంద	-10.9027
▁వాషింగ్టన్	-10.9034
▁అగ్రహారం	-10.9035
▁బిలియన్	-10.9036
▁క్రైస్తవులు	-10.9037
పితామహ	-10.9039
▁గొంతు	-10.9044
▁ఆవరణ	-10.9045
▁సంగమ	-10.9045
▁సైన్యాన్ని	-10.9048
▁సంకల్ప	-10.905
▁కనుగొన్నారు	-10.905
▁క్లోరైడ్	-10.9053
▁ఏర్పడును	-10.9056
▁1954	-10.9058
▁వెల్డింగు	-10.9062
▁పరీక్షించ	-10.9064
ప్రభుత్వ	-10.9065
▁సీఆర్	-10.9066
▁కార్తీక	-10.9067
▁వెలువరించ	-10.9071
▁నిలబెట్ట	-10.9073
▁పక్షి	-10.9073
▁ఉంద	-10.9076
▁కచ్చితమైన	-10.908
▁శాంత	-10.9083
-6	-10.9088
▁పెట్టింది	-10.909
▁మ్యూజిక్	-10.909
▁నిర్మించబడిన	-10.9092
▁నడిపించ	-10.9098
రచన	-10.91
▁part	-10.9102
మాసం	-10.9107
▁యాంత్రిక	-10.9108
▁1986	-10.9113
▁క్రియాశీల	-10.9118
▁సత్యాగ్రహ	-10.9118
▁తుఫాను	-10.9118
▁కార్యకలాపాలు	-10.9119
▁అందించింది	-10.9126
▁వసూలు	-10.9127
▁ఘనంగా	-10.913
ుకోవటానికి	-10.9134
▁ఇనుము	-10.9136
▁ఆఫ్ఘనిస్తాన్	-10.9136
ాంశాల	-10.9141
▁కేశవ	-10.9144
కర్ణ	-10.9146
▁UK	-10.9147
▁1966	-10.9151
బ్యూ	-10.9151
మండలి	-10.9152
▁రెట్లు	-10.9159
వెళ్ళ	-10.9162
▁కొట్టి	-10.9164
▁నెదర్లాండ్స్	-10.9164
▁స్వేచ్ఛా	-10.9169
▁వ్యాధులు	-10.9172
▁సహాయపడ	-10.9172
▁డౌన్	-10.9174
▁ఆలోచించ	-10.9174
▁డాలర్లు	-10.9181
▁అట్లాంటిక్	-10.9183
స్టె	-10.9184
▁నైపుణ్యం	-10.9186
▁శత్రు	-10.9188
▁ఇస్తారు	-10.9191
▁స్తోత్ర	-10.9192
మరణ	-10.9197
▁వేంకటేశ్వర	-10.9198
▁గణనీయంగా	-10.9202
▁కాలేజి	-10.9202
▁ఆపరేషన్	-10.9202
▁నడిచే	-10.9206
▁పండితుల	-10.9206
▁ఆలయాలు	-10.9207
▁మారే	-10.9209
▁హైడ్రో	-10.921
▁అక్షరాల	-10.9212
▁ద్వీపాల	-10.9214
▁విస్తారమైన	-10.9215
▁ఆకారంలో	-10.9216
▁పొలాల	-10.9216
▁మచిలీపట్నం	-10.922
▁అనువర్తన	-10.9225
▁వెచ్చ	-10.9229
▁స్వాతి	-10.9236
▁ఫలితం	-10.9237
▁సాంప్రదాయిక	-10.9238
▁పరమేశ్వర	-10.9239
▁జీవులు	-10.9243
▁ఆహ్వానించ	-10.9244
▁ఆదేశించ	-10.9244
▁నెమ్మదిగా	-10.9249
▁తాళ్ళ	-10.9249
▁It	-10.9249
rd	-10.925
ja	-10.9254
BS	-10.9259
▁సింగిల్	-10.9259
▁సంగారెడ్డిలోను	-10.926
▁వున్నది	-10.926
▁చనిపోయిన	-10.9261
right	-10.9265
▁రావట్లేదు	-10.9268
4)	-10.9272
▁ఆగ్రహ	-10.9274
▁క్యాలెండర్	-10.9277
▁చుక్క	-10.9278
ప్రధాన	-10.9285
▁person	-10.9286
▁ఆవిర్భవించ	-10.9286
▁1953	-10.9288
కైనా	-10.929
▁మహాసముద్రం	-10.9292
▁మాంసం	-10.9292
ుకోవాలని	-10.9294
▁ప్రదేశము	-10.9295
▁పోలాండ్	-10.9295
▁అవుత	-10.9305
ావతార	-10.9305
▁స్ట్రీట్	-10.9305
ful	-10.9309
▁తగ	-10.931
▁అసంతృప్త	-10.9324
▁మారుతుంది	-10.9331
▁పట్టణానికి	-10.9334
▁నిర్మిత	-10.9335
ef	-10.9338
▁చూచి	-10.9344
▁తేనె	-10.9347
సంఘ	-10.9348
▁అంతరించి	-10.9349
▁ఆకృతి	-10.9352
▁శతాబ్దము	-10.9354
ual	-10.9356
▁వివాదాస్పద	-10.9362
▁ఉస్మానియా	-10.9372
▁నౌకాశ్రయ	-10.9372
▁పనిచేసారు	-10.9374
line	-10.9374
▁దక్ష	-10.9376
మయ్యింది	-10.9378
▁గోత్ర	-10.9378
▁తాడేపల్లి	-10.9381
▁విస్తారంగా	-10.9384
▁స్తంభాల	-10.9394
▁తెలియజేస్తు	-10.9395
▁జరప	-10.9398
▁చీకటి	-10.9401
pan	-10.9403
▁524	-10.9409
▁నియంత్ర	-10.9412
ప్రదేశ	-10.9412
▁తెలుస్తోంది	-10.942
▁అలవాటు	-10.942
▁ప్రచురిత	-10.9421
▁1973	-10.9423
▁ఇటాలియన్	-10.9429
▁పంజాబీ	-10.9429
▁ఇంజన్	-10.9433
▁టెర్	-10.9435
▁అక్షాంశ	-10.944
▁అరెస్టు	-10.9446
▁అయస్కాంత	-10.9448
▁1942	-10.9454
▁విమానాల	-10.9454
▁సహచర	-10.9456
▁రోజూ	-10.9461
▁జోడించ	-10.9464
▁పెట్టుబడుల	-10.9468
▁చెందాయి	-10.9472
▁1981	-10.9473
ుఁడు	-10.9473
▁తెలుసుకో	-10.9483
షె	-10.9485
▁హాంగ్	-10.9486
శర్మ	-10.9488
▁వాస్తవానికి	-10.9489
▁గుంపు	-10.9492
▁వ్రాశాడు	-10.9497
▁పురస్కారాలు	-10.9497
▁కావాలని	-10.9501
▁అందుకున్న	-10.9501
▁బంధించ	-10.9503
▁ఘనత	-10.9505
▁మోడల్	-10.9507
▁1949	-10.9509
▁వాయువ్య	-10.9509
▁నక్షత్రాల	-10.9513
▁వహిస్తుంది	-10.9517
▁ఓటు	-10.9518
▁అందుకున్నాడు	-10.952
▁గనుల	-10.9522
▁తోడ్పడ	-10.9523
▁ఉండవు	-10.9533
▁నరసరావుపేట	-10.9535
▁1951	-10.9538
▁క్యూబా	-10.9544
▁సంక్షిప్త	-10.9555
▁మిషన్	-10.9555
ప్రాంతాల	-10.9558
▁ఉదాహరణకి	-10.9562
శతాబ్ద	-10.9562
▁బెంగళూరు	-10.9564
▁సురక్షిత	-10.9565
▁వత్తిడి	-10.9565
ుణ్ణి	-10.9565
▁మతాల	-10.9571
▁కాకతీయుల	-10.9571
emb	-10.9571
▁బ్రె	-10.9574
▁పిలవబడే	-10.9576
▁గిల్	-10.9583
nu	-10.9585
▁gov	-10.9587
డెంట్	-10.9591
▁ప్రతిష్ఠించ	-10.9592
▁అభ్యాస	-10.9596
▁ఖాతా	-10.9597
▁రాజస్థాన్	-10.9597
▁వాస్తు	-10.96
▁వికెట్	-10.9602
▁దీవి	-10.9602
▁కృత్రిమ	-10.9603
▁వేరొక	-10.9603
▁స్థాపించబడిన	-10.9606
▁ఎద్దు	-10.961
▁అన్నింటి	-10.9612
▁పర్యవేక్ష	-10.9613
▁నియోజకవర్గాల	-10.9615
▁మునుపటి	-10.9623
▁స్వీడన్	-10.9623
▁బోయ	-10.9624
▁కలిగివున్న	-10.9624
▁నియమిత	-10.964
▁స్టే	-10.9643
▁గరిష్ఠ	-10.9643
మీటర్	-10.9651
▁ఆక్సైడ్	-10.9652
6)	-10.9658
గుర్తించబడుతుంది	-10.9659
టింగు	-10.9661
ough	-10.9662
▁ఇబ్బంది	-10.9662
▁ఎప్పుడ	-10.9665
▁నీళ్ల	-10.9669
▁పర్యాయ	-10.9672
▁వ్యాకరణ	-10.9674
▁వ్రాశారు	-10.9682
▁విస్తర	-10.9682
▁సమగ్ర	-10.9685
▁బయో	-10.9688
▁భ్రమ	-10.9689
▁నిర్వహిస్త	-10.9691
▁నారాయణపేట	-10.9691
మెయిల్	-10.9693
▁సముద్రపు	-10.9696
▁ఐతే	-10.9699
▁అంతటి	-10.97
▁నిఘంటువు	-10.9701
▁కమలా	-10.9703
▁పద్యాలు	-10.9707
▁బెల్లంపల్లిలో	-10.9711
▁ఇంగ్లాండు	-10.9711
census	-10.9711
▁మూడ	-10.9713
▁గౌరవించ	-10.9718
ిద్దరూ	-10.9727
▁కమ్యూనిటీ	-10.9731
▁నేపాల్	-10.9731
▁వుంచ	-10.9734
స్తుండగా	-10.9736
▁కాస్త	-10.9737
గలుగుత	-10.974
▁హెడ్	-10.974
ప్రాంతంలో	-10.9742
సేపు	-10.9747
hu	-10.9748
▁సంభవించిన	-10.9749
▁కొలంబియా	-10.9751
▁ఏర్పడే	-10.9753
▁పర్యవేక్షణ	-10.976
▁ఉత్తీర్ణ	-10.9761
▁లిమిటెడ్	-10.9761
ాడట	-10.9763
,00,000	-10.9771
ారాధన	-10.9771
టూరి	-10.9773
▁సభ్యునిగా	-10.9774
పీడన	-10.978
▁ఊరేగింపు	-10.9781
▁రూపాల	-10.9788
▁డిజైన్	-10.9791
▁చేసుకోవడం	-10.9791
ందరికీ	-10.9792
సంవత్సర	-10.9797
▁మరణశిక్ష	-10.9801
▁పనితీరు	-10.9801
యోగ్య	-10.9808
▁aspx	-10.9811
▁జీడి	-10.9815
▁అనుగ్రహ	-10.9818
▁గర్వ	-10.9818
▁తీవ్రవాద	-10.9818
▁చైనీయుల	-10.9821
▁ఇందిరా	-10.9821
అద్దంకి	-10.9822
▁టవర్	-10.9822
▁కరుణ	-10.9827
▁1961	-10.9827
▁విరివిగా	-10.983
హస్త	-10.9833
7)	-10.9836
8)	-10.9839
▁విశ్వామిత్ర	-10.984
చెప్ప	-10.9841
▁లక్నో	-10.9841
▁తగిలి	-10.9842
▁హార్డ్	-10.9847
▁may	-10.9852
▁బేరియం	-10.9861
▁కట్టడాల	-10.9868
▁అదుపు	-10.9871
▁వెల్లడించ	-10.9872
▁యుద్ధాల	-10.9875
▁నామకరణం	-10.9881
▁పంతులు	-10.9881
▁చరిత్రకారులు	-10.9885
▁అక్కినేని	-10.9891
▁దొరక	-10.9895
5)	-10.9899
▁ఉపయోగపడుతుంది	-10.9906
ex	-10.9907
▁trans	-10.9911
▁నూజివీడు	-10.9911
▁స్పందన	-10.9911
▁సత్కరించ	-10.9913
ిస్తాను	-10.9913
▁చిత్రాల్లో	-10.9917
▁ఉన్నందున	-10.992
▁శుక్ల	-10.9922
ie	-10.9927
▁అనుసంధాన	-10.9928
▁ఫలితాలు	-10.9932
▁సంచిక	-10.9942
▁త్రిపుర	-10.9944
▁కాపర్	-10.995
▁అవధాన	-10.9951
▁సమూహాలు	-10.9952
▁స్వచ్ఛంద	-10.9961
▁నుంచీ	-10.9961
▁వార్తా	-10.9962
▁ముగ్గు	-10.9963
▁నాలుగవ	-10.9965
▁టీవీ	-10.9971
▁రామానుజ	-10.9971
▁హిమాలయ	-10.9974
▁వ్యాప	-10.9977
▁పాడిన	-10.9978
పోతు	-10.9989
▁పలికి	-10.9997
ంటున్న	-10.9997
కిరణాల	-10.9998
కుటుంబ	-10.9998
▁ఖైదు	-11.0002
▁మైసూర్	-11.0002
సాగాడు	-11.0002
▁పప్పు	-11.0004
కాలిక	-11.0006
▁ఆకలి	-11.0006
▁మౌర్య	-11.0008
▁తొలుత	-11.0012
▁చెల్లింపు	-11.0013
9)	-11.0017
▁మురుగు	-11.0019
▁శ్రీశైల	-11.0022
ఁడు	-11.0028
▁వుడ్	-11.0032
కొట్ట	-11.0032
చెయ్య	-11.0033
▁తొక్క	-11.0033
▁నిర్దేశ	-11.0038
▁విమర్శించ	-11.0041
▁చలికాలం	-11.0041
▁ఖలీఫా	-11.0042
▁హనుమంతుడు	-11.0042
▁యూరో	-11.0044
▁ఉక్కు	-11.0044
▁పాలకులు	-11.005
▁బుద్ధుని	-11.007
▁జబ్బు	-11.0076
▁అవినీతి	-11.0084
▁జనగామ	-11.0094
▁సజ్జ	-11.0099
▁పెద్దాపురం	-11.0101
▁నడప	-11.0103
▁చొప్పున	-11.0104
▁మోతాదు	-11.0104
ించువాడు	-11.0108
ాపన	-11.0108
▁2019	-11.011
▁వంటకాల	-11.0112
▁బ్రాండ్	-11.0115
▁కలవాడు	-11.0115
▁పాల్గొన్నాడు	-11.012
Population	-11.0124
▁శ్రామిక	-11.0124
▁అనుసంధానించ	-11.0125
▁1959	-11.0126
▁ప్రేమించ	-11.0131
Districts	-11.0135
▁టాక్సీ	-11.0135
▁వీసా	-11.0136
▁గాత్ర	-11.0138
▁వుంది	-11.014
▁హిప్	-11.0141
▁విగ్రహాన్ని	-11.0143
కాలనీ	-11.0145
▁know	-11.0145
▁సదాశివ	-11.0145
▁కీర్తనల	-11.0145
▁ప్రసాదించ	-11.0147
▁సంజీవ	-11.0151
▁శతాబ్ధ	-11.0155
▁ఆక్సిజన్	-11.0155
మౌత	-11.0155
▁జంతువు	-11.0163
Master	-11.0166
▁మంగళగిరి	-11.0168
▁వేగంతో	-11.0171
ness	-11.0176
మంతటా	-11.0182
▁పన్నెండు	-11.0186
▁మహమ్మద్	-11.0186
మాంబ	-11.0188
▁వస్తే	-11.0192
ఉండ	-11.0193
ిచారు	-11.0196
▁స్తుత	-11.02
ఘాత	-11.02
▁ట్రాక్	-11.02
ava	-11.0207
AT	-11.0207
▁ముద్దు	-11.0212
▁పులులు	-11.0218
,500	-11.0233
శ్రుత	-11.0234
▁విగ్రహాల	-11.0236
▁ఫౌండేషన్	-11.0238
▁సంక్లిష్ట	-11.0238
▁1976	-11.0244
▁నార్త్	-11.0247
clusion	-11.0248
ook	-11.0249
▁కెరీర్	-11.0249
mm	-11.026
పోర్ట్	-11.026
▁శాప	-11.0261
▁భారతదేశపు	-11.0264
▁రూపొందించబడింది	-11.0275
▁ఆకుపచ్చ	-11.028
▁అరుదైన	-11.028
▁శ్వేత	-11.028
ాపక	-11.0282
med	-11.0285
▁సిరియస్	-11.029
▁its	-11.0299
▁ఫిన్లాండ్	-11.0301
▁తైవాన్	-11.0302
cul	-11.0307
పరిచారు	-11.0308
▁డ్రైనేజీ	-11.0311
▁చార్లెస్	-11.0312
▁పక్షులు	-11.0315
▁అంతరకృషి	-11.0322
▁చంద్రగుప్త	-11.0322
▁ఆరాధన	-11.0322
▁నిర్ధారణ	-11.0324
▁but	-11.0337
▁గుర్తించబడింది	-11.0341
ోత్పత్తి	-11.0343
▁బల్ల	-11.0345
▁వివాదం	-11.0346
Find	-11.0346
pec	-11.0346
కాలపు	-11.0349
▁దేశవ్యాప్తంగా	-11.0353
▁హైడ్రోజన్	-11.0354
ంటున్నారు	-11.0354
▁జారీచేసింది	-11.0364
ata	-11.0365
బస్తీ	-11.0366
▁బోర్డ్	-11.0374
▁చదివాడు	-11.0374
▁ప్రతికూల	-11.0375
వతేదీ	-11.0377
=28	-11.0378
▁బాలబడులు	-11.0385
▁పరిరక్షణ	-11.0385
▁అభిషేక	-11.0385
చెట్టు	-11.0392
సాగర	-11.0392
aj	-11.0395
▁మరొకటి	-11.0398
▁మంజూరు	-11.0398
▁బ్రో	-11.0399
▁సందర్భాల్లో	-11.0401
మేనేజ్మెంట్	-11.0406
▁విధానము	-11.0407
aw	-11.0409
▁కుట్ర	-11.0411
మంత్రి	-11.0414
మెంట	-11.0417
▁దశకంలో	-11.0417
▁సివిల్	-11.0418
▁ఫీల్డ్	-11.0418
▁బంధువుల	-11.042
▁భగవంతుని	-11.0427
wiki	-11.0427
▁సవరణ	-11.0427
▁అధికరించ	-11.0435
▁ఘోర	-11.0439
▁కీలకమైన	-11.0442
పోతాడు	-11.0442
▁పాలించిన	-11.0448
▁వ్యాఖ్య	-11.0449
▁సంవత్సరాల్లో	-11.0454
▁విశ్రాంతి	-11.0459
▁ఉంటా	-11.0461
▁దహన	-11.0462
▁నన్నయ	-11.0466
king	-11.0468
▁గొర్రె	-11.047
మెత్త	-11.0471
▁చర్చించ	-11.0474
ాభిమాన	-11.0475
సూత్ర	-11.0475
▁యువకుల	-11.0479
శైలి	-11.0482
SA	-11.0482
▁ఇంకో	-11.0484
▁రాజేంద్ర	-11.0493
▁పర్యటించ	-11.0502
▁డిమాండ్	-11.0502
▁నిలబడి	-11.0511
▁లొంగ	-11.0512
▁ఏదేమైనా	-11.0512
▁పౌరాణిక	-11.0512
▁గుడ్డ	-11.0512
▁సింగపూర్	-11.0518
జులై	-11.0519
▁వేటాడ	-11.0533
▁చౌదరి	-11.0534
▁రీతిలో	-11.0534
▁కార్తె	-11.0542
▁పచ్చి	-11.0542
టైల్	-11.0543
▁డివిజను	-11.0544
▁సంపర్క	-11.0547
▁ఎన్టీఆర్	-11.0555
▁కదల	-11.0559
▁నాలుగ	-11.056
▁ఏడవ	-11.0565
▁నర్సీపట్నం	-11.0566
▁పాలకుల	-11.0569
జూన్	-11.0585
▁అమరిక	-11.0586
▁పోర్చుగల్	-11.0587
కుప్పం	-11.0592
శాంతి	-11.0593
చరణ	-11.0593
▁కావాలి	-11.0595
▁నెట్వర్క్	-11.0598
▁పంచాంగం	-11.0598
▁బృహ	-11.0598
▁ప్రతాప	-11.0599
▁చదువుకున్న	-11.0602
▁కపిల	-11.0606
కావ్య	-11.0609
▁బదులు	-11.061
▁హెన్రీ	-11.062
శెట్టి	-11.062
▁సరిగ్గా	-11.0631
▁లవణ	-11.0633
▁ముత్త	-11.0633
ition	-11.0641
▁time	-11.0641
▁విశాలమైన	-11.0656
▁నిలుప	-11.0656
▁త్రవ్వకాల	-11.0656
▁జవహర్	-11.0663
▁త్రవ్వ	-11.0664
▁అనుబంధం	-11.0669
▁విలాస	-11.0673
▁వివరాల	-11.0681
▁ఐక్యరాజ్యసమితి	-11.0685
నూనె	-11.069
▁లార్డ్	-11.069
▁మార్చబడింది	-11.0691
▁కుదుర్చ	-11.0696
ేంద్రియ	-11.0699
▁వెదురు	-11.0702
▁కృప	-11.0702
చేసారు	-11.0704
యున్నది	-11.0709
▁1958	-11.0709
▁వర్గీకరణ	-11.071
▁గ్యాస్	-11.0711
▁వదుల	-11.0718
శంకర	-11.072
▁ఏర్పడతాయి	-11.072
▁జన్మించ	-11.0724
▁గవర్నరు	-11.0734
▁పీటర్	-11.0736
▁విహార	-11.0738
▁రద్దీ	-11.0739
▁దిద్ద	-11.0747
ాచార్యుడు	-11.0748
ిద్దరి	-11.075
▁ఇటుకల	-11.075
▁ఎన్నికైన	-11.0751
▁కూచిపూడి	-11.0761
▁కార్యక్రమాన్ని	-11.0761
▁గ్రహీత	-11.0761
▁సుగ్రీవ	-11.0762
▁1,2	-11.0765
▁ప్రాప్తి	-11.0766
▁పొటాషియం	-11.0772
▁సమానమైన	-11.0777
▁ప్లాస్టిక్	-11.0784
▁తిరుగుతూ	-11.0785
ెుక్క	-11.079
▁విస్తృతమైన	-11.0794
▁బ్రౌన్	-11.0794
▁ఎన్నికయ్యారు	-11.0796
▁అరుణ	-11.08
▁చేసాయి	-11.0801
▁వాల్వు	-11.0802
▁Wiktionary	-11.0805
▁సన్మాన	-11.0809
▁భజన	-11.081
▁1931	-11.081
▁పక్షుల	-11.0811
oll	-11.0812
▁భీముని	-11.0815
▁మేయర్	-11.0821
▁తగు	-11.0824
▁1936	-11.083
▁ప్రతిపక్ష	-11.083
▁గాయకుడు	-11.0835
▁పండితుడు	-11.0836
▁name	-11.0839
▁పోగొట్ట	-11.0841
▁మరోవైపు	-11.0845
▁చదివే	-11.0845
▁their	-11.0846
‘	-11.0858
విశ్వాస	-11.0859
TT	-11.0868
▁తదనంతర	-11.0871
▁మంజ	-11.0877
▁పరిమితమైన	-11.0878
▁వెయ్యి	-11.0883
▁మచ్చ	-11.0887
▁కచేరీ	-11.0894
▁ప్రగతి	-11.0896
శ్యామ	-11.0897
ుండగా	-11.0899
శిల్ప	-11.0899
▁రావడానికి	-11.0903
▁హిట్లర్	-11.0906
ection	-11.0908
▁విచిత్ర	-11.0914
▁అలంకార	-11.0917
▁1968	-11.0922
వైశాల్య	-11.0925
▁పంచాయితీ	-11.0927
▁1939	-11.093
ారంభ	-11.0933
▁1963	-11.0935
▁బతుకమ్మ	-11.0938
===	-11.0938
▁యూరోప్	-11.0946
▁విరాట	-11.0947
▁ఆవిష్కరించ	-11.096
▁ఇస్లామిక్	-11.096
▁ఏటియం	-11.096
▁స్కూలు	-11.0961
సత్య	-11.0962
▁ఏర్పడ్డాయి	-11.0965
▁బుట్ట	-11.097
▁ఉపనిషత్తు	-11.0972
▁సమైక్య	-11.0972
▁గులాబీ	-11.0972
▁వచ్చినప్పుడు	-11.0977
సామర్ధ్య	-11.0979
హరణ	-11.0981
▁చైనీస్	-11.0983
▁మరుగుదొడ్ల	-11.0983
▁గుర్రం	-11.0983
▁పొట్ట	-11.0991
▁వెలువడిన	-11.0992
ప్రజల	-11.0992
▁సరుకు	-11.0997
ోత్తమ	-11.1001
▁ఇంగ్లండ్	-11.1005
▁చిరంజీవి	-11.1005
▁థామస్	-11.1005
▁సంసార	-11.1005
▁అఖిల	-11.1005
ves	-11.1009
▁చాళుక్యుల	-11.1011
▁అనబడే	-11.1012
▁పరమాణువు	-11.1021
▁కోతలు	-11.1023
text	-11.1025
▁బానిసత్వ	-11.1028
▁ఆదిలాబాదు	-11.1028
▁మాట్లాడుతూ	-11.1036
▁కృష్ణమూర్తి	-11.1037
▁తీర్చిదిద్ద	-11.1039
ప్రసాద్	-11.1045
▁గాంధార	-11.1048
▁పోలిష్	-11.1049
▁కోణం	-11.1054
▁నటుడిగా	-11.1054
▁పార్లమెంట్	-11.1061
▁మనుగడ	-11.1062
▁వృద్ధ	-11.1064
▁సమేత	-11.1087
▁జ్వర	-11.1092
▁సార్వత్రిక	-11.1095
▁పోషించాడు	-11.1097
TV	-11.1099
▁ఉందో	-11.1102
▁అర్జునుడి	-11.1114
▁సిరిసిల్ల	-11.1118
▁రూపాంతరం	-11.1118
▁యేట	-11.1121
▁కింగ్డం	-11.1122
▁ఇనుప	-11.1123
చిహ్న	-11.1124
1,000	-11.1131
▁పరుగుల	-11.1131
▁ప్రకట	-11.1139
▁ప్రిన్స్	-11.1146
▁బౌద్ధమత	-11.1147
▁బయటపడ	-11.115
▁పొద్దుతిరుగుడు	-11.1152
▁గుమ్మడి	-11.1152
▁స్పేస్	-11.1152
▁శతాబ్దానికి	-11.1152
కలిగి	-11.1155
పోతూ	-11.1156
ేటివ్	-11.1164
▁గన్నవరం	-11.1164
▁పునాది	-11.1164
▁అంతిమ	-11.1164
▁వేతన	-11.1166
▁వెనక్కి	-11.1175
గోపుర	-11.1175
fa	-11.118
▁గంధ	-11.1186
▁ఆభరణాల	-11.1187
▁సంహరించ	-11.1189
▁నిపుణ	-11.1195
▁కేవలము	-11.1198
▁శివాజీ	-11.1198
▁తరంగాల	-11.1202
▁ఇద్దరి	-11.121
▁దినోత్సవం	-11.1211
▁చూపిస్తుంది	-11.1212
▁కొలువు	-11.1228
▁వివాహమాడ	-11.1234
లక్ష్మీ	-11.1234
▁సభ్యత్వం	-11.1236
▁కర్నాటక	-11.1244
NA	-11.1245
కొరకు	-11.1247
ism	-11.1253
▁రకము	-11.1264
▁గర్భాశయ	-11.1267
▁సమీకరణ	-11.1268
▁టైమ్స్	-11.127
▁అనిపించ	-11.1271
▁కార్బో	-11.1274
▁ఉంటున్న	-11.1278
▁ఆంగ్లేయుల	-11.1278
▁1941	-11.1282
▁నియోజకవర్గ	-11.1285
▁దొరుకు	-11.1288
▁మిత్రుల	-11.1288
▁ముట్టడి	-11.1294
▁విత్తనం	-11.1302
వర్ధన	-11.1307
ix	-11.1307
ాదిత్య	-11.1312
▁సదస్సు	-11.1313
▁అవుట్	-11.1315
దుర్తి	-11.1317
▁గమ్య	-11.1317
▁విడుదలైంది	-11.1317
▁స్థానము	-11.133
▁ఆమదాలవలస	-11.1336
▁నివసిస్త	-11.1338
▁ఆవశ్యక	-11.1348
▁భరించ	-11.1351
శాతం	-11.1371
▁పునరుద్ధరణ	-11.1394
▁అతుక	-11.1399
▁మార్కాపురం	-11.1406
▁నరేంద్ర	-11.1408
▁సికింద్రాబాద్	-11.1418
▁మృదు	-11.1418
▁సెలవు	-11.1419
▁హార్మోన	-11.1422
ుకొను	-11.1427
ేసరికి	-11.143
▁దాల్చ	-11.1432
▁ముత్యాల	-11.1435
▁మాసంలో	-11.1436
▁దరఖాస్తు	-11.1441
▁అవలంబించ	-11.1441
▁సమన్వయ	-11.1441
▁భద్రపరచ	-11.1443
▁పార్వతి	-11.1444
మైలవరం	-11.1446
▁కుతుబ్	-11.1453
▁స్పష్టమైన	-11.1454
▁కర్బన	-11.1456
▁అంగీకర	-11.1457
▁అభివర్ణించ	-11.1465
▁చూస్త	-11.1467
▁బంగార	-11.1476
▁భావించబడుతుంది	-11.1484
lic	-11.1494
▁గడప	-11.151
▁బీడీలు	-11.1512
▁మహిమ	-11.1513
cle	-11.1515
▁మధ్యయుగ	-11.1524
▁థియ	-11.1532
▁లోతైన	-11.1536
ార్కట్	-11.1538
col	-11.1542
▁కొమర	-11.1545
▁మరియూ	-11.1551
▁అమిత	-11.1553
▁మనుమ	-11.1569
▁నిరుద్యోగ	-11.1571
▁వెర్షన్	-11.1583
▁బీహార్	-11.1583
▁విత్తుట	-11.1583
▁కూటమి	-11.1595
PA	-11.1602
తరువాత	-11.1602
▁అద్దె	-11.1604
▁సిస్టమ్	-11.1607
▁ఆకాశవాణి	-11.1607
▁నిశ్చయించ	-11.1609
▁1937	-11.161
▁ధారావాహిక	-11.1619
▁సరస్వతీ	-11.1619
▁అనుచరుల	-11.1621
▁మెట్రో	-11.1622
▁కొనసాగుతున్న	-11.1629
▁సందర్శకుల	-11.1631
▁ఎన్నుకో	-11.1634
eng	-11.1634
▁మహాసభ	-11.1635
▁ఆర్మేనియన్	-11.1643
▁అహింస	-11.1643
గఢ్	-11.1648
▁టాటా	-11.1658
▁వారసుల	-11.167
▁చురుకుగా	-11.1679
▁మధ్యాహ్న	-11.1679
▁గోల్కొండ	-11.1682
▁తెలిసింది	-11.1686
▁విభజించబడింది	-11.1691
▁ఇంజిన్	-11.1691
ాశ్రమ	-11.1693
▁లభిస్తున్న	-11.1694
tro	-11.1695
▁1933	-11.17
▁some	-11.17
▁విరుద్ధంగా	-11.1703
▁సాత్యకి	-11.1703
▁ఎక్స	-11.1709
▁ఆడపిల్ల	-11.1717
▁వానర	-11.172
మంత్ర	-11.1723
▁శంకరులు	-11.1723
▁గ్రామపంచాయతి	-11.1727
▁కామర్సు	-11.1727
▁భాస్కర	-11.1731
ific	-11.1745
▁ప్రాంగణ	-11.175
▁ప్రొడక్షన్	-11.1751
▁హైకోర్టు	-11.1751
▁నైతిక	-11.1753
▁వీరభద్ర	-11.1754
▁శల్య	-11.1766
▁పోషిస్త	-11.1768
▁కార్యాచరణ	-11.1775
▁ప్రవర్తించ	-11.1776
▁తిక్కన	-11.1785
ేషను	-11.1786
▁పనిచేసాడు	-11.1789
▁యాత్రికుల	-11.1792
▁పీడనం	-11.1792
▁ఏమిటి	-11.1795
▁ధోరణి	-11.18
▁మంగోల	-11.1801
▁1938	-11.1802
▁కమాండ	-11.1802
▁వైదిక	-11.1805
▁నిలబడ	-11.1807
▁జవాబు	-11.1812
వారిపాలెం	-11.1812
▁పునర్నిర్మాణ	-11.1812
▁ఫేస్	-11.1814
▁హేమ	-11.1821
▁నేత్ర	-11.1822
సాహెబ్	-11.1824
▁అడుగ	-11.1824
▁దేవస్థానం	-11.1835
▁ఇంజనీర్	-11.1836
▁పంజాబు	-11.1836
▁Re	-11.1839
యంత్ర	-11.184
ోన్నత	-11.1847
▁జైపూర్	-11.1847
▁ఛైర్మన్	-11.1848
▁నందిగామ	-11.1849
▁రూపుదిద్ద	-11.186
▁సుగంధ	-11.1861
▁ప్రాంగణంలో	-11.1862
CO	-11.1864
▁ఆల్బం	-11.1873
▁కండరాల	-11.1875
▁జ్యూ	-11.1878
▁కాల్పుల	-11.188
▁అధీనంలో	-11.1885
▁ఎలక్ట్రాన్	-11.1885
▁స్క్రీన్	-11.1885
పాణి	-11.1892
▁కొత్తపల్లి	-11.1892
▁జీవించి	-11.1901
▁ఆలయాల	-11.1903
▁1934	-11.1916
▁నారాయణరావు	-11.1921
▁ముగిసింది	-11.1922
▁రెవిన్యూ	-11.1922
▁స్థూప	-11.1922
▁మాధ్యమం	-11.1922
▁1944	-11.1926
▁ట్రాఫిక్	-11.1934
▁been	-11.1943
▁ఫెడరల్	-11.1946
▁ఇంద్రియ	-11.1947
▁పక్షం	-11.1948
▁ఒకటైన	-11.1949
▁పరిగణిస్తారు	-11.1951
▁విద్యుద	-11.1954
▁ఇతిహాస	-11.1959
▁నిజామాబాదు	-11.1959
▁లెక్కించ	-11.1967
▁పిఠాపురం	-11.1971
▁రిచర్డ్	-11.1971
మవుతాయి	-11.198
▁మొట్టమొదట	-11.1983
▁కానోపస్	-11.1984
▁ఎగుమతుల	-11.1984
▁ముగిసిన	-11.1984
▁అలంకరణ	-11.1984
▁న్యాయమూర్తి	-11.1991
2,000	-11.1991
▁సామూహిక	-11.1996
▁తెలిపింది	-11.1996
wi	-11.2001
▁వ్యాఖ్యానించ	-11.2001
ుతుండగా	-11.2007
▁పెదబయలు	-11.2008
▁బూడిద	-11.2008
▁విశ్వసించ	-11.2013
వినియోగ	-11.202
▁మినహాయింపు	-11.2021
▁సుదూర	-11.2021
▁సర్వీస్	-11.2021
▁స్థిరపడ్డారు	-11.2023
▁కళాకారుడ	-11.2031
▁బడ్జెట్	-11.2033
▁రామగుండం	-11.2033
▁రాజీవ్	-11.2033
▁కల్యాణ	-11.2034
▁పిమ్మట	-11.2034
▁పరమాత్మ	-11.2038
▁దక్షణాన	-11.2046
స్తుంటాడు	-11.2048
▁డైరెక్ట	-11.2065
▁శ్రీకాళహస్తి	-11.2071
థ్య	-11.2071
▁క్రోధ	-11.2071
▁శీతల	-11.2071
▁అయోధ్య	-11.2071
▁తలసరి	-11.2076
▁1932	-11.2079
న్నింటినీ	-11.208
▁స్థాపక	-11.2085
▁ఎదుట	-11.2091
▁వైభవ	-11.2092
నైపుణ్య	-11.2096
ఫలితాల	-11.2098
▁sub	-11.2101
▁గడించ	-11.2102
▁1921	-11.2106
కలాప	-11.2107
▁పటేల్	-11.2108
▁గాంధీజీ	-11.2114
▁మిర్యాలగూడ	-11.2121
▁ప్యాలెస్	-11.2122
వ్రత	-11.2128
▁బసవ	-11.2136
▁1935	-11.2138
ుకుంటా	-11.2139
▁ధ్వంసం	-11.2146
▁టెన్నిస్	-11.2146
▁తాండూరు	-11.2146
▁చిలక	-11.2147
▁అతిథి	-11.215
▁1928	-11.2151
▁చున్న	-11.2152
;---	-11.2158
▁టోర్నమెంట్	-11.2158
▁క్లిష్టమైన	-11.2161
▁నిపుణుల	-11.2164
▁హైదర్	-11.2164
▁తీరప్రాంత	-11.218
▁పరిపూర్ణ	-11.2184
▁పరాజయం	-11.2184
▁ఆరాధించ	-11.2184
▁ఫెస్టివల్	-11.2196
▁గనుక	-11.22
▁ఎలక్ట్రో	-11.2209
▁కళింగ	-11.221
▁మెచ్చ	-11.2226
▁మోటార్	-11.2228
▁ట్రేడ్	-11.2234
▁రాయబార	-11.2238
▁1929	-11.2239
▁జ్యోతిష	-11.2242
▁వ్యక్తిత్వ	-11.225
▁సమర్ప	-11.2253
▁సంగతి	-11.226
▁ప్రహ్లాద	-11.2264
▁పీపుల్స్	-11.2273
▁గిరిజనుల	-11.2281
▁తలుపు	-11.2284
▁స్టేడియం	-11.2286
▁పీల్చ	-11.2298
▁ఆత్మహత్య	-11.2298
▁చుట్టుపక్కల	-11.2298
▁పెరగడం	-11.2299
▁దోహదపడ	-11.2304
mer	-11.2304
▁బీదర్	-11.2305
▁బిగించ	-11.2309
▁స్వీకర	-11.2319
మౌతుంది	-11.2321
▁గొలుసు	-11.2324
▁ఫలితాలను	-11.2324
▁పెంట	-11.2332
▁అశ్వత్థామ	-11.2336
▁ఉత్తేజ	-11.2337
▁హనుమాన్	-11.2337
▁ఘాట్	-11.2339
గోపాల	-11.2344
▁మునగ	-11.2348
వెల్లి	-11.2348
▁ఇబ్రహీంపట్నం	-11.235
▁జగ్గ	-11.2351
వృక్ష	-11.2351
▁టెస్టు	-11.2352
▁నడవ	-11.2353
▁చెరుకు	-11.2357
▁వేషం	-11.2359
▁సార్వభౌమ	-11.2362
▁నాయకత్వ	-11.2364
మామిడి	-11.2368
జ్యోతి	-11.2369
▁నేటికీ	-11.2371
▁వ్యవధి	-11.2375
▁మారుతూ	-11.238
▁చాళుక్య	-11.2381
ఉత్తర	-11.2396
ward	-11.24
▁పేదరికం	-11.2401
▁అమ్మకాల	-11.2402
▁ప్రదానం	-11.2403
▁బలగాల	-11.2403
▁పాదరస	-11.2406
▁జెండా	-11.2413
▁శనివారం	-11.2414
▁వదిలే	-11.2414
▁pri	-11.2418
గ్రాడ్యుయేట్	-11.2427
▁స్పియర్	-11.2427
సాగారు	-11.2428
▁తీసుకోవడం	-11.243
▁అంకె	-11.2432
ినేని	-11.2433
▁ద్రవీభవన	-11.244
ft	-11.2443
▁నాటకరంగ	-11.2446
▁ప్రాబల్య	-11.2453
▁దర్శకుడిగా	-11.2456
▁పద్యాల	-11.2459
▁పెంపొందించ	-11.2466
▁చెబుతుంది	-11.2468
▁బొబ్బిలి	-11.2479
▁పెక్కు	-11.2481
▁పరివర్తన	-11.2483
▁ప్రార్థించ	-11.2494
▁ప్రశ్నించ	-11.2498
▁This	-11.2505
▁సాపేక్ష	-11.2518
▁నైరుతి	-11.2518
▁పరంపర	-11.2518
▁సిద్దాంత	-11.2521
▁ప్రచుర	-11.2525
సాహిత్య	-11.2526
▁సన్నిధి	-11.2531
▁ప్రదేశాన్ని	-11.2531
▁వెంబడి	-11.2535
▁పరాక్రమ	-11.2535
AD	-11.2542
▁శ్లోకాల	-11.2545
▁దినపత్రిక	-11.2545
▁భగవంతుడ	-11.2546
▁సభ్యుడిగా	-11.2547
▁వన్డే	-11.2557
▁అదేవిధంగా	-11.2562
▁గెలుచుకుంది	-11.2571
▁క్రిస్టియన్	-11.2572
▁వాయిస్	-11.2579
▁మెరుగైన	-11.2583
▁దౌత్య	-11.2583
▁పనిచేసింది	-11.2594
▁ఋగ్వేద	-11.2596
▁విస్తీర్ణము	-11.2597
అవనిగడ్డ	-11.2597
▁నరసింహారావు	-11.2598
▁5311	-11.2603
వ్యవసాయ	-11.2606
ద్రవ్య	-11.261
▁ప్రీమియర్	-11.261
▁పట్టభద్ర	-11.2614
▁విధముగా	-11.2621
నగర్లోనూ	-11.2624
▁తీసుకువచ్చి	-11.2629
తెలుగు	-11.2635
▁ఏకాదశి	-11.2636
▁మనస్తత్వ	-11.2636
▁తీసే	-11.2639
▁ఉంటుంద	-11.2645
లేకపోయింది	-11.2649
▁అన్వేషణ	-11.2649
▁బహిష్కరించ	-11.2649
round	-11.2662
▁స్విట్జర్లాండ్	-11.2662
ాగ్ని	-11.2669
▁నిర్మించబడ్డాయి	-11.2674
▁చూస్తూ	-11.2677
ావసరాల	-11.2683
జాతుల	-11.2699
▁నిరాశ	-11.27
▁కవరేజి	-11.2702
▁వ్యాయామ	-11.2702
▁ధృవ	-11.2703
▁చూస్తున్న	-11.2703
▁ఉపకరణాల	-11.2706
▁గరుడ	-11.2709
▁అమలాపురం	-11.2716
ందువలన	-11.2716
▁జయంతి	-11.272
▁మొత్తాన్ని	-11.2729
▁పాఠకుల	-11.2737
పబ్లిక్	-11.2738
▁హరిశ్చంద్ర	-11.2742
▁కమ్యూనిస్ట్	-11.2742
▁నగదు	-11.2743
▁హుస్సేన్	-11.2756
▁నాణేల	-11.2756
విషయ	-11.2766
▁సరికొత్త	-11.2769
▁లఘు	-11.277
▁ప్రభాకర	-11.2773
భ్యాస	-11.2781
ound	-11.2782
▁తెలుస్తున్నది	-11.2782
▁ముంబాయి	-11.2783
▁అందుకుంది	-11.2783
▁కనీస	-11.2785
▁1,0	-11.2787
▁మొదలుపెట్టి	-11.2792
▁లూయిస్	-11.2796
▁కుమారుడైన	-11.2804
▁శిల్పకళ	-11.2808
▁సంకీర్ణ	-11.2809
▁పనిచేస్తూ	-11.2809
▁ఉత్పన్న	-11.2809
▁క్వీన్	-11.2809
▁రామలింగ	-11.2833
▁అహ్మద్	-11.2836
▁శ్రేణుల	-11.2836
▁జగ్గయ్యపేట	-11.2836
▁నిలిచారు	-11.2836
▁సూచిస్తారు	-11.2842
వాయువు	-11.285
▁సంఘర్షణ	-11.285
▁అక్బర్	-11.2863
▁ఆదరించ	-11.2864
▁మహాత్మ	-11.2865
▁ఖడ్గ	-11.2866
▁అనువైన	-11.2887
▁BBC	-11.289
▁నిలిచాడు	-11.289
▁ఆధిపత్య	-11.2895
▁1,1	-11.2902
▁దుర్యోధన	-11.2904
▁సోడియం	-11.2906
other	-11.2906
ీంద్ర	-11.2908
ాయుధ	-11.2911
▁పాత్రికేయ	-11.2918
▁త్వరలో	-11.2918
▁అభయ	-11.2924
▁కుమారుని	-11.2926
▁అంబేద్కర్	-11.2931
▁నడిపి	-11.2939
▁two	-11.2945
▁సువాసన	-11.2945
▁విధాలుగా	-11.2964
ప్రారంభించబడింది	-11.2967
▁5082	-11.2968
▁అంగీకార	-11.2972
▁తర్క	-11.2974
▁సూఫీ	-11.2976
▁బహిర్గత	-11.2986
▁ఇబ్న్	-11.2986
▁గార్డెన్	-11.2987
▁కవచ	-11.2989
▁తెరిచి	-11.2992
▁ట్రె	-11.2995
▁రక్షక	-11.2996
▁ఎల్లప్పుడూ	-11.2999
▁మద్రాస్	-11.2999
ావస్థ	-11.3009
▁వైమానిక	-11.3013
▁అవకాశము	-11.3013
▁పాడేరు	-11.3023
▁రోడ్దురవాణా	-11.3027
▁గ్రెగొర	-11.3028
▁ఇంటిపేరు	-11.303
▁చేస్తుంటారు	-11.3031
▁అనంతగిరి	-11.3033
▁ఆశించ	-11.3038
▁తరచు	-11.304
▁బెజవాడ	-11.3041
▁మార్టిన్	-11.3041
▁గావించ	-11.3042
▁నివేదించ	-11.3043
▁అమ్మోనియం	-11.3054
▁ఎంచుకున్న	-11.3066
▁ధృతరాష్ట్ర	-11.3068
▁స్కాట్లాండ్	-11.3068
▁ఖైదీ	-11.3068
▁జోసెఫ్	-11.3068
▁వినుకొండ	-11.3069
▁నలుపు	-11.3072
▁దుంప	-11.3081
స్వరూప	-11.3086
▁ఎదిగి	-11.3086
▁గౌర	-11.3088
▁సంప్రదించ	-11.3096
▁అన్నపూర్ణ	-11.3096
స్వామ్య	-11.3109
▁బహదూర్	-11.311
▁కణజాల	-11.3113
▁అప్పుడప్పుడు	-11.3124
▁వాల్మీకి	-11.3124
▁సమాధుల	-11.3124
అలోపతీ	-11.3124
▁కాగజ్	-11.3124
▁పిదప	-11.3124
ోత్తర	-11.3127
▁ప్రయత్నాల	-11.3127
ారట	-11.3129
మోహన	-11.3129
▁నిర్మూలన	-11.3138
▁అస్థిర	-11.3138
▁వైఎస్ఆర్	-11.3138
▁భద్రాద్రి	-11.3138
▁అభ్యర్థుల	-11.3151
▁ఐరిష్	-11.3151
▁లోకసభ	-11.3152
▁ద్రౌపది	-11.3165
▁కలెక్టర్	-11.3165
▁కార్టూన్	-11.3165
దొడ్డి	-11.317
▁ఇండోనేషియా	-11.3179
▁చక్కటి	-11.3179
▁మరణానంతరం	-11.318
▁మృత్యు	-11.3181
▁ప్రాముఖ్య	-11.3183
ఫిబ్రవరి	-11.3183
▁ఆటంక	-11.3193
▁అగస్త్య	-11.3193
▁నడుస్తుంది	-11.3193
సాక్షాత్	-11.3197
▁ఇస్లామ	-11.3206
▁ఉభయ	-11.3207
▁డ్రైవర్	-11.321
▁పొరపాటు	-11.321
ప్రతిష్ఠ	-11.3212
oss	-11.3221
▁ప్రెసిడెన్సీ	-11.3221
▁సంవత్సరాంతమున	-11.3221
▁చిలుక	-11.3226
▁పతకాల	-11.3234
▁ఒకానొక	-11.3249
▁నాలుగో	-11.3256
గలిగారు	-11.3265
▁గీస	-11.3265
▁చికాగో	-11.3277
▁ఖచ్చిత	-11.3278
▁స్కోరు	-11.3279
▁జరుగుతూ	-11.3284
▁మండపం	-11.3287
▁అచ్యుత	-11.3292
▁వివక్ష	-11.3295
▁Com	-11.3301
▁సిక్ఖు	-11.3306
▁మొదలగునవి	-11.3306
హెచ్	-11.3313
పదార్థం	-11.3316
ుటకై	-11.3317
▁మరుసటి	-11.332
▁ఎదుర్కో	-11.332
▁స్థానానికి	-11.3321
▁గడుప	-11.3327
▁ఆర్గనైజేషన్	-11.3334
▁కాల్షియం	-11.3334
▁ఛానల్	-11.334
▁తీర్ధ	-11.3351
▁కనిపిస్తున్న	-11.3352
▁Windows	-11.3362
▁వియత్నాం	-11.3362
▁ఎంతగానో	-11.3362
▁రాక్షసుల	-11.3371
▁సలహాదారు	-11.3375
▁నిర్దేశించ	-11.3376
▁కెప్టెన్	-11.3377
గలిగాడు	-11.3377
▁సేవలందించ	-11.3377
▁వెంకటేశ్వరరావు	-11.3383
▁అంతర్భాగ	-11.3391
▁త్రిభుజ	-11.3391
▁నైవేద్య	-11.3391
▁జోక్యం	-11.3391
ార్జున	-11.3393
గ్రాహక	-11.3398
▁పదున	-11.34
▁హాస్పిటల్	-11.3405
▁ఇతివృత్త	-11.3405
▁మధ్యప్రదేశ్	-11.3405
▁ఇంజను	-11.3406
కొచ్చి	-11.3413
▁వెలుగులోకి	-11.3424
▁first	-11.3434
▁పిక్చర్స్	-11.3434
▁ఫ్రాన్సు	-11.3434
▁వెలసిన	-11.3436
▁వార్షికోత్సవ	-11.3444
▁సవాలు	-11.3448
▁ప్రతిస్పందన	-11.3462
▁మేనమామ	-11.3477
▁గణతంత్ర	-11.3479
▁గూగుల్	-11.3491
హృద	-11.3508
▁ప్రయోగశాల	-11.3512
▁ఋతువు	-11.352
▁దుగ్గిరాల	-11.352
▁ఆరోపించ	-11.352
▁దసరా	-11.352
▁పతకం	-11.352
▁విస్తార	-11.3529
▁క్రెడిట్	-11.3534
▁స్టిట్యూట్	-11.3534
▁మదీనా	-11.3535
▁పిలిచి	-11.3537
ఆంధ్ర	-11.3543
▁తేల్చ	-11.3548
▁స్పందించ	-11.3549
▁ఎగుర	-11.3553
▁మనోహర	-11.3557
▁సుయోధనుడు	-11.3563
▁ప్రయాణికుల	-11.3568
▁తెలిపాడు	-11.357
▁దోపిడీ	-11.3578
▁ఫార్ములా	-11.3592
▁అప్పారావు	-11.3594
శ్రేణి	-11.3602
ప్రసాద	-11.3603
▁మూడింట	-11.3608
▁జరిపించ	-11.3612
▁1,3	-11.3614
▁సరసన	-11.3616
▁బాలీవుడ్	-11.3622
ానుసారం	-11.3624
▁కోల్పోయిన	-11.363
▁లభిస్తాయి	-11.3636
▁వ్యంగ్య	-11.3636
▁కానుక	-11.3646
స్తుంటే	-11.3648
▁శుక్రవారం	-11.3651
▁ఎలుక	-11.3655
▁మహానగర	-11.3661
▁under	-11.3665
▁ద్వీపకల్పం	-11.3665
▁అధ్యక్షునిగా	-11.3671
శారద	-11.3671
▁work	-11.368
▁పడమటి	-11.368
▁ద్వేష	-11.3682
▁చిరుత	-11.3692
▁ఆదోని	-11.3696
▁కలిపే	-11.3697
ోపాధ్యాయ	-11.3709
▁ఐఐటీ	-11.3709
▁ఎడ్వర్డ్	-11.3709
▁ఇస్రో	-11.371
▁గొడవ	-11.3711
▁అలెగ్జాండర్	-11.3724
▁పోర్చుగీస్	-11.3724
▁ప్రేరేపించ	-11.3724
▁వైఫల్య	-11.3724
▁అన్యాయ	-11.3724
▁విషాద	-11.3726
▁స్టోన్	-11.3728
▁ఉద్గార	-11.3731
▁మలుపు	-11.3733
▁మహాసముద్ర	-11.375
▁భాగస్వామ్య	-11.3753
▁జలాశయ	-11.3754
▁దట్టమైన	-11.3754
ative	-11.3757
▁సోమవారం	-11.3769
▁నిర్మింప	-11.377
▁చంద్రబాబు	-11.3771
▁ప్రదక్షిణ	-11.3772
▁బైబిల్	-11.3783
▁పరిశీలిస్త	-11.3789
హ్లాద	-11.3795
▁బిజినెస్	-11.3798
▁రౌండ్	-11.3807
▁నివాసితుల	-11.3809
▁పౌర్ణమి	-11.3813
▁పైకప్పు	-11.3813
ాయపాలెం	-11.3817
▁ప్రతిష్ఠాత్మక	-11.3818
▁బాధపడుతున్న	-11.3828
▁విధ్వంస	-11.3828
▁ఋషి	-11.3828
▁అవకాశాల	-11.3828
▁సామర్ధ్యం	-11.3834
_{	-11.3835
ాధిపత	-11.3837
▁వైఖరి	-11.3843
▁జగన్నాథ	-11.3843
▁సొమ్ము	-11.3847
▁అందజేస	-11.3848
▁మహోత్సవ	-11.3851
▁కవాట	-11.3855
▁విచ్ఛిన్న	-11.3858
▁జరిమానా	-11.3858
▁ఆతిథ్య	-11.3858
▁భంగిమ	-11.3858
▁సంకీర్తన	-11.3873
▁గాంచిన	-11.3875
▁డెవలప్	-11.3888
▁పంచాయతి	-11.3888
▁term	-11.3888
▁సంక్రాంతి	-11.3903
▁ఇరాక్	-11.3906
మవుతున్న	-11.3906
▁వైకుంఠ	-11.3918
▁వెతుక	-11.3918
▁ట్యూబు	-11.3918
▁అవార్డ్	-11.3934
ద్రోహ	-11.3935
▁బళ్ళారి	-11.3948
▁సౌలభ్య	-11.3948
▁ముఖర్జీ	-11.3948
ాక్షర	-11.3954
▁నియోజక	-11.3962
▁హనుమంతుని	-11.3963
▁యాంటీ	-11.3963
▁temple	-11.3978
▁జోర్డాన్	-11.3978
▁సర్వసాధారణ	-11.3978
▁మహమ్మదు	-11.3978
▁సంచలన	-11.3978
▁సయ్యద్	-11.3978
▁రాజ్యసభ	-11.3981
▁సవరించ	-11.3983
▁సైన్సు	-11.3993
▁విలసిల్ల	-11.4023
▁బ్రతుక	-11.4052
▁నీటిపారుదల	-11.4054
▁స్వాతంత్య్ర	-11.4054
▁కిరీట	-11.4055
▁సరిపడ	-11.4069
▁ముగుస్తుంది	-11.4069
▁దొరికిన	-11.407
▁గోల్డెన్	-11.407
స్వాతంత్ర్యోద్యమ	-11.4075
▁వారసుడ	-11.4077
పెడతా	-11.4082
▁పురోగతి	-11.4084
▁దక్షిణాసియా	-11.4084
▁నడుస్తున్న	-11.409
▁రాధాకృష్ణ	-11.41
▁త్వరిత	-11.41
▁అణిచి	-11.41
▁స్మిత్	-11.41
▁క్వార్టర్	-11.4115
▁మేడ్చల్	-11.4115
▁ఏర్పాట్లు	-11.4115
▁5324	-11.412
▁నార్వేజియన్	-11.413
▁శూన్య	-11.413
▁హెల్త్	-11.4146
▁నాస్తిక	-11.4146
మాధ్యమిక	-11.4148
▁అర్చక	-11.4151
పరిషత్	-11.4151
▁లైబ్రరీ	-11.4161
రాశుల	-11.4161
▁సౌకర్యాల	-11.4184
సరోవర	-11.4184
▁స్వాధీన	-11.4189
క్సైడు	-11.4192
▁వధించ	-11.4196
4,000	-11.4198
▁అత్యల్ప	-11.4207
▁సల్ఫేట్	-11.4223
▁సుపరిచిత	-11.4223
▁హంస	-11.4224
▁గంధర్వ	-11.4229
▁యాదాద్రి	-11.4238
▁అరబిక్	-11.4238
▁ఓడరేవు	-11.4238
ముక్కల	-11.4241
▁అద్వైత	-11.4254
▁చుట్టుప్రక్కల	-11.4254
▁పలాస	-11.4255
▁క్షార	-11.4256
వ్యాధి	-11.426
▁తొందర	-11.4266
▁భగవద్గీత	-11.4269
www	-11.4269
left	-11.4272
▁మునుపు	-11.4274
సంపన్న	-11.4274
▁బాస్కెట్	-11.4285
▁చెప్తారు	-11.4285
▁అర్జెంటీనా	-11.4301
▁క్షిపణుల	-11.4301
▁మాండలిక	-11.4301
▁place	-11.4301
▁వేగవంతమైన	-11.4302
▁కుంకుమ	-11.4303
▁టెట్రా	-11.4303
▁అందుకని	-11.4317
▁ఆటగాళ్ళ	-11.4325
▁వాయించ	-11.433
▁ఈస్టిండియా	-11.4332
▁పద్మనాభ	-11.4347
▁రబ్బరు	-11.4348
▁చిత్రలేఖన	-11.4348
▁తీసుకువెళ్ళ	-11.435
▁కొన్నాళ్ళ	-11.4364
▁found	-11.4365
▁కంప్యూటరు	-11.4379
▁ప్రెసిడెంట్	-11.4379
▁శ్రవణ	-11.4379
▁బయలు	-11.4381
▁రాచరిక	-11.4395
▁రుసుము	-11.4396
▁1,4	-11.4409
▁IBM	-11.441
▁వెనుజులా	-11.441
▁కార్యక్రమానికి	-11.441
▁జమ్మూ	-11.4411
▁వ్యర్థ	-11.4421
వ్యాపారాత్మక	-11.4422
▁సుప్రీం	-11.4426
▁కాల్సియం	-11.4426
▁తయారీదారు	-11.443
▁వికాస	-11.444
▁మరియొక	-11.444
▁ఋషుల	-11.4442
▁జర్నల్	-11.4442
▁కూతుర	-11.4448
కూడదని	-11.4453
▁మిషనరీ	-11.4458
▁పునర్నిర్మించ	-11.4458
▁రిజర్వ్	-11.4458
▁అంగుళాల	-11.4458
▁తిలక్	-11.4475
▁చేబ్రోలు	-11.449
▁నవాబ్	-11.449
▁ఉష్ణమండల	-11.4491
▁అంతర్జాల	-11.4492
▁నమస్కరించ	-11.4506
▁అస్సాం	-11.4507
నిచ్చింది	-11.4519
▁ఎలిజబెత్	-11.4522
▁కథానాయిక	-11.4522
▁తల్లితండ్రుల	-11.4522
▁ద్రావిడ	-11.4522
▁like	-11.4523
▁విడాకుల	-11.4535
▁డెన్మార్క్	-11.4537
▁పెంపుడు	-11.4538
వ్యాస	-11.4543
▁ఆటగాడు	-11.4554
▁ఉంటాయని	-11.4571
▁విలీన	-11.4579
▁మక్కువ	-11.4586
▁వందలాది	-11.4588
▁after	-11.4602
▁రెక్కల	-11.4602
▁most	-11.4605
▁ద్రావ	-11.4608
▁భైరవ	-11.4618
▁కైలాస	-11.4621
▁అందజేస్త	-11.4622
▁టెక్కలి	-11.4666
▁నవీన	-11.4667
▁షేర్	-11.4668
▁ఉపశమన	-11.4682
▁మొఘలు	-11.4683
▁నందమూరి	-11.4699
▁పథకాల	-11.47
ైజేషన్	-11.4702
▁సహకరిస్త	-11.4712
▁1,5	-11.4728
▁సావిత్రి	-11.4731
▁shall	-11.4731
▁డెల్టా	-11.4731
▁పరోక్ష	-11.4731
▁పాండిత్య	-11.4731
▁దారుణ	-11.4733
▁వికారాబాదు	-11.4748
▁ఆముదం	-11.4748
▁పాతాళ	-11.4753
▁సెర్బియా	-11.4764
▁ట్రెంచ్	-11.4764
▁బేసిన్	-11.4764
▁తేలింది	-11.4764
ities	-11.4765
▁బైజాన్	-11.4766
సహాయ	-11.4779
▁ట్రాన్స	-11.478
▁ఫిర్యాదు	-11.478
▁ఉత్తరప్రదేశ్	-11.478
▁తటస్థ	-11.478
మండప	-11.4785
▁సిఫార్సు	-11.4797
▁పర్షియా	-11.4798
నొప్పి	-11.4811
▁నిశ్చయ	-11.4827
▁ఉపసంహరించ	-11.4829
▁CPU	-11.4829
▁ఏర్పరుస్త	-11.483
▁కదులు	-11.4838
▁పాల్పడ	-11.484
▁కొమరంభీం	-11.4846
▁మరాఠా	-11.4846
▁బాధితుల	-11.485
పండిత	-11.4854
▁సృజనాత్మక	-11.4862
▁సిడ్నీ	-11.4863
వాహిక	-11.4878
▁years	-11.4879
▁కీటకాల	-11.4882
▁ఉత్తర్వు	-11.4894
▁నిరంకుశ	-11.4896
▁లాహోర్	-11.4896
▁స్వచ్ఛమైన	-11.4896
▁than	-11.4897
▁సదుపాయం	-11.4898
▁డబ్బింగ్	-11.4912
▁పెట్రోలియం	-11.4912
▁పేరొందిన	-11.4912
▁సెకండరీ	-11.4912
▁సోమాలియా	-11.4912
గమనం	-11.4923
ద్విబంధ	-11.4928
▁అదృశ్య	-11.4929
▁జయశంకర్	-11.4929
▁సాయిబాబా	-11.4929
▁డిపార్ట్	-11.4929
▁సమక్షంలో	-11.4929
▁అలాస్కా	-11.4929
▁నిర్మూలించ	-11.4929
▁గ్లూకోజ్	-11.4945
▁గ్లోబల్	-11.4945
▁విరాళాల	-11.4946
▁యెడల	-11.4946
▁యార్క్	-11.4947
▁ప్రావిన్సు	-11.4962
▁లభ్యమవ	-11.4965
▁మైనారిటీ	-11.4979
▁యురేపియన్	-11.4979
▁మదనపల్లె	-11.4979
▁సంపుటి	-11.4979
▁సైకిల్	-11.498
▁మొదలవుతుంది	-11.4981
▁సంస్కార	-11.4984
▁స్తూప	-11.4985
3,000	-11.4993
▁ఎలక్ట్రిక్	-11.4995
▁బాక్టీరియా	-11.4995
▁అశ్వమేధ	-11.4995
▁సరోజ	-11.501
▁భాగస్వాముల	-11.5012
▁సుమతీ	-11.5012
▁కేంద్రీకృతమై	-11.5013
▁information	-11.5029
▁పరశురామ	-11.5029
▁సోయాబీన్	-11.5029
▁ఇంటర్వ్యూ	-11.5029
▁సైప్రస్	-11.5029
ద్వీప	-11.5045
▁అదృష్ట	-11.5046
▁ఇంకనూ	-11.5046
▁ప్రభావము	-11.5048
బలిజ	-11.5056
▁మున్నగు	-11.5063
▁నావికా	-11.5064
▁స్పష్టం	-11.5067
▁మళ్ళి	-11.5074
▁ఛాయాచిత్ర	-11.5079
▁షూటింగ్	-11.508
సుందర	-11.5083
కపోవచ్చు	-11.509
▁బ్రహ్మాండ	-11.5097
ుకొనుటకు	-11.5107
▁మొదలుపెట్టారు	-11.5113
గ్రాఫిక్	-11.5123
▁వరాహ	-11.5134
▁నిర్వర్తించ	-11.5148
▁ఐసోటోపు	-11.5164
▁భైంసా	-11.5164
▁గ్రీక్	-11.5165
▁నడక	-11.5192
▁నశించ	-11.5194
▁విండోస్	-11.5198
▁పీఠభూమి	-11.5199
▁ప్రసన్న	-11.5205
▁భస్మ	-11.5209
▁అసిస్టెంట్	-11.5215
▁మాంచెస్టర్	-11.5215
▁వ్యాఖ్యాత	-11.5218
▁తెచ్చుకున్న	-11.522
▁కర్తవ్య	-11.5233
▁శిఖరాల	-11.5233
▁తప్పించుకు	-11.5233
▁విచ్చేస	-11.5234
▁ఊపిరితిత్తుల	-11.525
▁అమాయక	-11.525
▁కాంక్రీటు	-11.5267
▁కాలక్రమేణా	-11.5267
▁చిలకలూరిపేట	-11.5267
▁రిజిస్ట్రేషన్	-11.5267
▁లౌకిక	-11.5267
▁అంతేకాదు	-11.5267
▁స్పటిక	-11.5267
▁లక్ష్మ	-11.5267
చేసుకున్న	-11.5275
▁క్రమశిక్షణ	-11.5284
▁చెలరేగ	-11.5284
▁యూరప్	-11.5284
▁అడగ	-11.5296
▁ఆక్సీకరణ	-11.5301
▁అధినేత	-11.5303
press	-11.5304
▁కాళిదాసు	-11.5319
▁రచయిత్రి	-11.5319
మొత్తం	-11.5322
▁ఆవిర్భావ	-11.5336
▁తృప్తి	-11.5336
▁ఆర్మూర్	-11.5336
▁కట్టుబడి	-11.5339
పరిమాణ	-11.5341
▁వినాశ	-11.5372
▁వీక్షించ	-11.5375
నక్షత్ర	-11.5381
▁గవర్న	-11.5384
ఖ్యాత	-11.5387
▁topic	-11.5388
▁సామ్యవాద	-11.5405
▁సమ్మె	-11.5406
▁యోధుల	-11.5408
▁సియాటెల్	-11.5423
పదార్థాల	-11.5452
▁నిర్వహించబడుతు	-11.5458
దక్షిణ	-11.5458
▁ఐస్లాండ్	-11.5459
చేసాడు	-11.546
▁చోదక	-11.5475
▁అసాధ్య	-11.5476
▁కూలీల	-11.5493
▁పునరుజ్జీవ	-11.5511
▁డాక్టరేట్	-11.5511
▁వివేకానంద	-11.5511
▁నియామక	-11.5511
▁కాశ్మీర	-11.5523
▁వాజపేయి	-11.5528
▁అజ్ఞాత	-11.5528
▁దిగుబడి	-11.5529
▁గల్ఫ్	-11.5529
▁క్షీర	-11.555
▁చాంపియన్	-11.5581
▁ఏమాత్రం	-11.5581
▁తణుకు	-11.5581
▁వాయవ్య	-11.5581
▁సాధిస్త	-11.5584
▁కొలువై	-11.5587
పద్మ	-11.5602
▁కలిగివుండ	-11.5617
▁కిర్గిజిస్తాన్	-11.5617
▁జహీరాబాద్	-11.5617
▁శాస్త్రజ్ఞులు	-11.5617
▁మోటారు	-11.5617
▁కెన్యా	-11.5618
▁గడియార	-11.5619
ాన్సీ	-11.5637
▁ప్రావీణ్య	-11.5653
▁జనసాంద్రత	-11.567
▁సెంచరీ	-11.5671
▁భగత్	-11.5671
▁అనువుగా	-11.5671
▁స్కోర్	-11.5673
▁నెరవేర్చ	-11.5689
▁నెయ్యి	-11.5689
ుకొంది	-11.5693
▁వర్షాకాల	-11.5695
▁సోషల్	-11.5706
▁విరమించ	-11.5706
▁సెక్యూరిటీ	-11.5724
▁కూర్పు	-11.5725
ానంతర	-11.5727
▁ఎందుక	-11.5738
▁చేనేత	-11.5743
▁పార్లమెంటరీ	-11.576
▁వాహకనౌక	-11.576
▁స్టీఫెన్	-11.576
▁మధుమేహ	-11.576
▁గురువారం	-11.576
▁షరతు	-11.5762
▁పొడిగించ	-11.5763
ఆధారిత	-11.5769
సాధక	-11.5772
▁ఈజిప్ట్	-11.5778
▁ముంబయి	-11.5779
▁ఉంగుటూరు	-11.5797
▁మహబూబాబాద్	-11.5797
▁శ్మశాన	-11.5797
పెనమలూరు	-11.5797
▁వారణాసి	-11.5797
▁ప్రోగ్రాం	-11.5797
▁మమ్మీ	-11.5797
background	-11.5815
▁space	-11.5815
▁రికార్డింగ్	-11.5815
▁ప్రోత్సహిస్త	-11.5815
▁శ్లోకం	-11.5815
▁ఆస్ట్రియా	-11.5815
▁సెకన్ల	-11.5819
▁మిగిల	-11.5822
▁పాలియోలిథికు	-11.5833
▁జగన్నాధ	-11.5833
▁క్షేమ	-11.5833
▁house	-11.5833
▁cause	-11.5851
▁హయాంలో	-11.5851
▁ఎదుర్కొంటున్న	-11.5868
position	-11.587
▁గెలుచ	-11.5903
▁water	-11.5924
▁తీసుకోవాలి	-11.5924
▁బాంబే	-11.5925
▁తరిమి	-11.5925
▁సమ్మతి	-11.5931
▁భవిష్యత్	-11.5938
▁అభినయ	-11.5945
ప్రథమ	-11.595
▁పట్టించుకో	-11.5956
▁పేర్కొంటారు	-11.5961
▁గాంచింది	-11.5962
▁when	-11.598
▁భూపాలపల్లి	-11.598
ుకొంటారు	-11.5989
▁వేగవంతం	-11.5992
తక్కువ	-11.5993
▁number	-11.5998
▁నిర్వచనము	-11.5999
▁ప్రాచ్య	-11.5999
▁వాసుదేవ	-11.6
▁వర్తించ	-11.6007
▁సమృద్ధి	-11.6017
▁టెక్సాస్	-11.6017
▁ప్రోటీన్	-11.6017
▁గంభీర	-11.6017
▁నిదర్శనం	-11.6022
▁అభ్యుదయ	-11.6035
▁గమనార్హం	-11.6035
▁రాజమహేంద్రవరం	-11.6035
▁శ్రావణ	-11.6035
▁మేనేజర్	-11.6035
▁ప్యూర్టో	-11.6054
▁దశరథ	-11.6054
వృద్ధి	-11.6066
బ్రాహ్మణ	-11.6068
▁ధ్వజస్తంభ	-11.6072
▁ఖరీదైన	-11.6072
▁కారాగార	-11.6072
▁హంగేరి	-11.6073
▁సంభోగ	-11.6073
ిస్టులు	-11.6077
▁విస్ఫోట	-11.6091
▁కలుషిత	-11.6091
▁ప్రతిరోజూ	-11.6091
▁తాడికొండ	-11.6091
▁అన్వయ	-11.6091
▁చక్రవర్తుల	-11.6091
▁పండిట్	-11.6093
▁శారదా	-11.6125
▁కమ్యూనికేషన్	-11.6128
▁లావాదేవీ	-11.6128
▁చదివారు	-11.6129
▁హెచ్చరించ	-11.6129
ఊ	-11.6143
▁ఫ్యాక్టరీ	-11.6147
▁about	-11.6147
▁మట్టానికి	-11.6148
పర్వత	-11.6163
▁గెలాక్సీ	-11.6166
▁ఫోటోగ్రఫీ	-11.6166
▁ధర్మనందనా	-11.6166
▁బృహత్తర	-11.6166
▁శూద్ర	-11.6166
▁ప్రదేశానికి	-11.6166
▁మెరుపు	-11.6167
▁ఏర్పడ్డ	-11.6182
▁కదిరి	-11.6187
▁ఇంచుమించు	-11.6204
▁మునిసిపల్	-11.6223
▁మైక్రోసాఫ్ట్	-11.6223
▁ఆస్ట్రేలియన్	-11.6223
▁కెనడియన్	-11.6223
▁మంగోలియా	-11.6223
▁ఎదిరించ	-11.6223
▁సంతరించుకున్న	-11.6242
▁తాత్విక	-11.6242
▁హుకుంపేట	-11.6242
▁మిగుల	-11.6243
▁అభిరుచి	-11.6261
▁కంట్రోల్	-11.6261
▁appears	-11.628
▁కార్యనిర్వాహక	-11.628
▁గుంతకల్లు	-11.628
▁ఫుడ్	-11.6283
▁జనాదరణ	-11.6299
▁డయాక్సైడ్	-11.6299
▁నైజీరియా	-11.6318
భగవానుడ	-11.6319
▁దెబ్బతిన్న	-11.6322
▁ఇథియోపియా	-11.6337
▁లిథువేనియా	-11.6337
▁సంతరించుకుంది	-11.6337
▁హనుమంతరావు	-11.6337
▁బృహస్పతి	-11.6337
మహిష	-11.6337
▁క్లిష్ట	-11.6352
▁period	-11.6356
▁between	-11.6394
▁high	-11.6394
▁శ్రేయ	-11.6395
▁సారూప్య	-11.6395
పహాడ్	-11.6397
•	-11.6413
▁ఇండస్ట్రీ	-11.6433
▁హెచ్చరిక	-11.6433
▁ప్రకాష్	-11.6433
▁ఉదహరించ	-11.6433
▁విద్యార్ధుల	-11.644
షైర్	-11.6452
▁కనిష్ఠ	-11.6452
▁స్థితిగతుల	-11.6454
ుతుంటే	-11.6455
▁పల్లవుల	-11.6456
▁ద్రవిడ	-11.6459
శుద్ధి	-11.646
బృంద	-11.6472
▁వేణుగోపాల	-11.6472
▁ఆసుపత్రుల	-11.6472
▁కంభం	-11.6472
▁తయారుచేస్తారు	-11.6491
▁ఇన్నింగ్స్	-11.6491
▁సువార్త	-11.6491
▁స్వప్న	-11.6494
▁మిసిసిపీ	-11.6511
▁పూర్తయిన	-11.6511
▁people	-11.653
▁అల్పసంఖ్యాక	-11.653
▁దృక్పథ	-11.653
ననుసరించి	-11.653
▁రెస్టారెంట్	-11.653
▁కోణాల	-11.6562
▁ఇబ్రహీం	-11.6569
▁large	-11.6569
▁ప్రసిద్ధిచెందిన	-11.6569
▁ఫెడరేషన్	-11.6569
▁వధువు	-11.6569
▁అనుభూతి	-11.6569
▁విశద	-11.657
▁బద్వేలు	-11.6589
▁అడ్డతీగల	-11.6589
▁దూరదర్శన్	-11.6589
▁తెప్పించ	-11.6591
lass	-11.6595
▁విశ్వసిస్తున్న	-11.6596
▁అలహాబాద్	-11.6608
▁గురుత్వాకర్షణ	-11.6608
▁ఉగ్రవాద	-11.6609
▁కనుమరుగ	-11.6609
రచయిత	-11.661
▁ఫొటో	-11.6614
6,000	-11.6617
▁కొల్లిపర	-11.6628
▁బ్యాంకింగ్	-11.6628
▁సీరీస్	-11.6628
రోహిణి	-11.6628
▁తుర్క	-11.6647
▁ప్రళయ	-11.6649
▁సంక్రమించ	-11.6652
▁శిబిరాల	-11.6668
వ్యాధుల	-11.667
▁సెకండ్	-11.6672
▁దేవరకొండ	-11.6687
▁సుభాష్	-11.6687
▁అరవింద	-11.6689
ిస్తానని	-11.6696
▁కోయిల	-11.6699
▁మహావిష్ణువు	-11.6707
▁లంబాడీ	-11.6707
▁మార్షల్	-11.6707
▁called	-11.6727
▁పొన్నూరు	-11.6727
▁జోగులాంబ	-11.6747
▁తాడిపత్రి	-11.6747
▁మిలిటరీ	-11.6747
▁మధ్యధరా	-11.6747
▁దండెత్తి	-11.6752
▁సత్తెనపల్లి	-11.6767
▁ఐశ్వర్య	-11.6767
▁నిరాకరణ	-11.6767
▁నలభై	-11.6767
error	-11.6768
▁కజకస్తాన్	-11.6787
▁రమేష్	-11.6787
▁image	-11.6807
▁సర్పంచ్	-11.6807
▁గువేరా	-11.6807
▁ఏజెన్సీ	-11.6827
▁నిమగ్న	-11.6827
▁ముంచింగిపుట్టు	-11.6827
▁ఆళ్వారు	-11.6827
▁ఎస్టేట్	-11.6827
▁దురదృష్ట	-11.6847
▁ఊపిరి	-11.6847
▁తోడేళ్ళ	-11.6849
▁స్క్వేర్	-11.6867
▁ద్వాదశ	-11.6888
ఉపయోగించబడుతుంది	-11.6897
▁యక్షగాన	-11.6908
▁సికింద్రాబాదు	-11.6908
▁పారదర్శక	-11.6908
సమాజ	-11.6908
▁సామగ్రి	-11.6908
▁ఆస్పత్రి	-11.6908
▁మల్లికార్జున	-11.6928
▁మురళీ	-11.6928
▁పింగళి	-11.6928
▁పక్షాల	-11.6934
పరిగణించబడుతుంది	-11.6938
▁కంబోడియా	-11.6948
▁చతురస్ర	-11.6948
▁తీసుకెళ్ల	-11.6948
▁ఫ్యూర్టో	-11.6948
▁బుధవారం	-11.6948
▁మైఖేల్	-11.6948
▁చవిచూ	-11.6948
లాజికల్	-11.6948
▁అధిష్టించ	-11.695
▁కశ్యప	-11.6951
▁ఇదొక	-11.6952
▁ధూళి	-11.6969
▁కొయ్యూరు	-11.6969
▁విత్తిన	-11.697
▁కత్తిరించ	-11.6974
▁న్యూఢిల్లీ	-11.6989
▁పెదకాకాని	-11.6989
▁గుండెపోటు	-11.6989
▁ఉయ్యాలో	-11.6989
▁కదిలే	-11.6994
▁పాలకొల్లు	-11.701
▁ప్రతాపరుద్ర	-11.701
▁గ్రౌండ్	-11.703
▁word	-11.703
▁కింగ్డమ్	-11.703
▁తపాలా	-11.7031
▁మెప్పించ	-11.7041
▁సైన్సెస్	-11.7051
▁కళాఖండాల	-11.7052
▁అనురాగ	-11.7059
▁రైల్వేస్టేషను	-11.7071
▁పటిష్ఠ	-11.7071
▁హేతువాద	-11.7071
▁ఉదజని	-11.7092
▁హతమార్చ	-11.7113
▁పనిముట్ల	-11.7123
▁చోటుచేసుకు	-11.713
▁సులువుగా	-11.7133
▁అన్నదమ్ముల	-11.7133
▁ఇత్తడి	-11.7133
▁చీల్చ	-11.7138
పరీక్ష	-11.7142
HTML	-11.7154
▁చిరునామా	-11.7154
▁భాజపా	-11.7154
▁సనాతన	-11.7154
▁బ్యూరో	-11.7154
▁సిల్వర్	-11.7154
తర్వాత	-11.7164
డిసెంబరు	-11.7164
▁తుంగభద్ర	-11.7175
▁ప్రాదేశిక	-11.7175
▁ఎనర్జీ	-11.7175
ఞ	-12.0091
ఔ	-13.0305
·	-13.9766
