<unk>	0
<s>	0
</s>	0
.	-3.08571
▁	-3.27894
,	-3.74478
ం	-4.03564
ర్	-4.37013
ల	-4.44054
న	-4.51806
వ	-4.57448
ర	-4.60214
క	-4.72004
లు	-4.79546
ని	-4.8061
త	-4.84984
▁అ	-4.85416
లో	-4.89183
ా	-4.90698
య	-4.95632
మ	-4.95974
ప	-5.01542
▁నుండి	-5.13267
ు	-5.14796
స	-5.14852
▁కి	-5.15464
ి	-5.17271
స్	-5.17501
ీ	-5.17856
రి	-5.19001
ే	-5.22675
గా	-5.2286
న్	-5.26563
గ	-5.31146
ను	-5.32235
ూ	-5.32649
కు	-5.33598
▁ఉన్నాయి	-5.3411
ల్	-5.34323
▁మీ	-5.34356
▁ప	-5.3742
▁క	-5.37942
రు	-5.4156
▁ఆ	-5.41935
▁ఉంది	-5.43449
ట	-5.43607
డ	-5.45655
ము	-5.47383
క్	-5.47605
ో	-5.48408
ద	-5.50667
▁గ్రామం	-5.51325
ె	-5.54785
▁దూరంలో	-5.57532
▁మ	-5.58252
్	-5.61814
▁ఈ	-5.62907
ారు	-5.63303
▁వ	-5.64552
▁10	-5.66768
లి	-5.7011
ై	-5.73552
▁కా	-5.74587
రా	-5.7645
▁స	-5.76713
ది	-5.7725
ణ	-5.78619
ంగా	-5.79131
కి	-5.79347
ంలో	-5.79805
▁వి	-5.79959
డి	-5.80604
▁5	-5.83681
▁గ్రామంలో	-5.84246
తి	-5.86828
▁ప్ర	-5.87758
జ	-5.92506
వా	-5.94362
హ	-5.94939
ధ	-5.95503
టి	-5.95524
ట్	-5.9673
▁మరియు	-5.98481
▁న	-5.98641
▁ఎ	-5.98858
వి	-5.99014
శ	-6.01381
డు	-6.02033
భ	-6.0323
న్న	-6.03593
▁జ	-6.04344
▁ఒక	-6.05489
▁ఇ	-6.06634
1	-6.08119
▁బ	-6.0932
యా	-6.10042
▁కేంద్రం	-6.104
సి	-6.13015
▁చ	-6.1488
చ	-6.1534
ాలు	-6.17018
▁సమీప	-6.17668
మా	-6.18268
▁త	-6.20704
6	-6.21222
▁చే	-6.21915
▁గ	-6.22225
0	-6.2275
2	-6.24236
ొ	-6.25059
ాడు	-6.259
వు	-6.26126
లా	-6.27173
ాల	-6.28385
నా	-6.28889
e	-6.29024
ష	-6.29226
త్	-6.30286
▁ని	-6.32023
8	-6.32233
తో	-6.32766
క్ష	-6.34097
a	-6.35152
డ్	-6.35157
9	-6.36015
▁1	-6.37362
4	-6.37725
5	-6.37944
బ	-6.3807
ాన్ని	-6.38129
7	-6.394
దు	-6.40723
ులు	-6.42092
▁కూడా	-6.42228
▁పా	-6.42602
కా	-6.4268
3	-6.43205
త్ర	-6.43337
పు	-6.43753
▁లో	-6.4444
ానికి	-6.4455
ించ	-6.44628
ంద	-6.47303
▁ద్వారా	-6.48423
t	-6.49792
-	-6.50171
మైన	-6.51827
▁హ	-6.52217
తు	-6.5262
ంది	-6.52729
నే	-6.53162
▁పాఠశాల	-6.53228
s	-6.53418
▁ర	-6.54179
i	-6.5645
్య	-6.56944
మి	-6.57997
▁సౌకర్యం	-6.58502
గు	-6.5871
▁మా	-6.59482
:	-6.6
ాయి	-6.60481
సు	-6.612
పా	-6.62639
o	-6.62781
▁19	-6.6306
u	-6.64183
ృ	-6.64896
▁పైబడిన	-6.66317
▁ప్రభుత్వ	-6.66354
▁సంఖ్య	-6.66487
▁జిల్లా	-6.66932
యు	-6.67038
▁ద	-6.67717
ుల	-6.68927
ళ	-6.69573
ంట	-6.70175
▁వా	-6.70485
▁కళాశాల	-6.71507
రో	-6.71516
ండ	-6.71901
నీ	-6.72347
ిన	-6.7253
▁సరఫరా	-6.7447
▁ఉన్న	-6.74953
రం	-6.75078
రణ	-6.75433
రీ	-6.76084
l	-6.76827
్యా	-6.78015
▁"	-6.78102
▁ఉ	-6.78165
m	-6.7845
▁నా	-6.78476
▁2	-6.78519
ట్ట	-6.7971
ంగ	-6.79816
ౌ	-6.79917
ుడు	-6.80129
c	-6.80319
▁భ	-6.81056
యం	-6.81097
▁శ	-6.82778
లను	-6.82949
d	-6.83271
ల్ల	-6.83312
ద్	-6.83635
▁వే	-6.84483
ింది	-6.84721
ష్	-6.85208
టు	-6.86712
▁యొక్క	-6.868
▁వ్యవస్థ	-6.86801
చి	-6.87858
మ్మ	-6.88166
▁ఏ	-6.89538
p	-6.89934
క్క	-6.90066
సా	-6.91176
▁గ్రామానికి	-6.92091
ంత	-6.9229
ిక	-6.93071
ప్	-6.93376
▁రహదారి	-6.9341
చే	-6.93423
▁సం	-6.93532
వే	-6.93866
▁లేదు	-6.93921
లలో	-6.94731
▁రా	-6.94861
▁సా	-6.9488
h	-6.94899
హా	-6.9494
▁ఇది	-6.95325
▁కొ	-6.96089
థ	-6.96555
▁పరి	-6.96743
ంచ	-6.96859
గి	-6.97782
▁చె	-6.98828
గ్	-6.98908
తా	-6.99548
ందు	-6.99758
▁ఫ	-7.00768
లోను	-7.01559
▁స్	-7.02211
▁బా	-7.03765
▁20	-7.04325
▁పో	-7.05124
ంగ్	-7.06519
▁సి	-7.07439
▁ప్రాథమిక	-7.08776
ండ్	-7.08987
చు	-7.09122
య్య	-7.09324
ఖ	-7.10104
▁మండల	-7.10603
దా	-7.11027
▁వె	-7.11247
▁ఆరోగ్య	-7.12749
యి	-7.12892
▁వీ	-7.14229
ైన	-7.14249
▁లే	-7.14399
ప్ప	-7.14667
త్త	-7.14961
▁ఎక్కువ	-7.15024
▁కు	-7.15208
నం	-7.15218
▁వ్యవసాయ	-7.16339
▁సామాజిక	-7.165
ఫ	-7.16517
▁పె	-7.16615
▁పు	-7.16685
డం	-7.16961
n	-7.17706
మ్	-7.18847
ించి	-7.18937
▁సమ	-7.18938
పో	-7.21062
లోనూ	-7.21146
▁రాష్ట్ర	-7.21199
▁చేయ	-7.22434
▁కో	-7.22439
బ్	-7.22807
▁వైద్య	-7.22942
ించిన	-7.22989
▁తన	-7.23453
"	-7.23674
▁లోపు	-7.23735
ధి	-7.25074
▁గా	-7.25243
రే	-7.25476
ద్ధ	-7.25995
జా	-7.26073
▁గు	-7.26571
▁ప్రైవేటు	-7.27311
లే	-7.27971
ాలను	-7.28537
ఘ	-7.28938
▁తె	-7.29494
▁ము	-7.29567
చ్చ	-7.2964
▁కింది	-7.30439
y	-7.30625
టీ	-7.30856
స్తా	-7.31579
ాన	-7.32047
▁విద్యా	-7.32802
▁అనే	-7.32909
జ్	-7.32996
;	-7.33505
▁భూ	-7.33518
ళ్ళ	-7.33761
▁పాటు	-7.3487
▁3	-7.352
లకు	-7.35329
ంతో	-7.36164
దే	-7.36296
▁ప్రధాన	-7.36466
జి	-7.36941
ద్ర	-7.36997
లోని	-7.37077
ించారు	-7.3714
▁రాజ	-7.38812
్యూ	-7.39403
పి	-7.39548
▁ఇం	-7.40153
b	-7.4025
శి	-7.40336
కొ	-7.40392
ష్ట	-7.41
ూరు	-7.41109
'	-7.41121
00	-7.41324
▁శా	-7.41471
▁చి	-7.41535
g	-7.42695
▁ఇతర	-7.4288
▁నీరు	-7.43002
▁సినిమా	-7.43614
▁కంటే	-7.43915
▁బి	-7.4396
▁వారి	-7.44193
▁అని	-7.44463
డా	-7.44566
కో	-7.44626
పై	-7.4463
er	-7.45264
▁/	-7.47184
▁లా	-7.47373
▁కలిగి	-7.47726
▁అను	-7.48236
లీ	-7.4844
▁సంస్థ	-7.48855
డానికి	-7.48884
ధ్య	-7.4899
టా	-7.49312
▁తరువాత	-7.49341
▁చెందిన	-7.49601
▁దేశ	-7.49697
ద్ద	-7.5027
▁ఉప	-7.50297
w	-7.50884
▁-	-7.50991
ాలలో	-7.51159
ప్ర	-7.51236
దేశ	-7.5138
▁విద్యుత్	-7.51393
in	-7.51688
ంబ	-7.51728
బడ	-7.5187
జీ	-7.52303
లతో	-7.52583
▁4	-7.52648
యో	-7.52865
తీ	-7.53011
దర్శ	-7.53382
ియన్	-7.53703
తే	-7.53704
▁కోడ్	-7.55248
▁బ్యాంకు	-7.55559
▁పి	-7.55604
▁స్వ	-7.55653
త్య	-7.55691
▁7	-7.55845
▁బస్సు	-7.56288
f	-7.56416
▁దీని	-7.56694
కూ	-7.56778
▁ఉన్నారు	-7.56965
ండి	-7.57342
▁భారత	-7.57684
ట్టి	-7.5786
▁జనగణన	-7.58506
▁ఆయన	-7.58916
▁శ్రీ	-7.58952
▁ఆసుపత్రి	-7.59081
▁వారం	-7.59114
దీ	-7.59118
▁సు	-7.59375
▁కాల	-7.59382
▁వాణిజ్య	-7.59412
త్రి	-7.59561
▁పబ్లిక్	-7.59565
▁ఒకటి	-7.60152
▁పథకం	-7.60802
▁ఫోన్	-7.61349
▁లేదా	-7.61514
▁ప్రకారం	-7.61586
▁షెడ్యూల్డ	-7.61626
ించాడు	-7.62006
▁వైద్యశాల	-7.62259
▁ప్రా	-7.62404
కాల	-7.6247
▁తా	-7.62518
▁గ్రామ	-7.62875
మీ	-7.62922
షి	-7.63167
▁మి	-7.63353
▁గంటల	-7.63568
శా	-7.63718
లె	-7.63943
రె	-7.64035
పూర్	-7.64141
▁ప్రతి	-7.64368
ట్టు	-7.64531
శ్ర	-7.64876
ుతుంది	-7.65017
ల్లో	-7.65076
స్థాన	-7.65308
▁ఖ	-7.65559
▁ఆఫీసు	-7.6558
▁కోసం	-7.65735
▁రెండు	-7.66005
స్థ	-7.66009
▁అంద	-7.66144
▁స్టేషన్	-7.66245
▁జా	-7.66903
▁పోస్టాఫీసు	-7.6698
▁చిత్ర	-7.67123
ుకున్న	-7.67982
స్ట	-7.68202
పల్లి	-7.68536
న్నాయి	-7.68574
కార	-7.68815
▁ప్రత్యేక	-7.68966
▁ఐ	-7.6921
▁అభివృద్ధి	-7.70016
an	-7.70707
▁నగర	-7.70752
డే	-7.71316
▁మధ్య	-7.71687
v	-7.7173
▁·	-7.71876
గ్ర	-7.72022
▁ఉండ	-7.72155
▁తీ	-7.72204
▁ఒ	-7.72736
▁సూ	-7.72759
స్తు	-7.72905
▁పేరు	-7.74681
▁మె	-7.7476
A	-7.75107
చార	-7.75276
బు	-7.75432
▁వ్యవసాయానికి	-7.75802
▁నే	-7.76167
▁పొ	-7.76576
on	-7.7679
ar	-7.77545
▁రోడ్లు	-7.77903
ించే	-7.78173
▁పద	-7.78214
▁డిగ్రీ	-7.78615
వచ్చు	-7.79009
▁the	-7.79076
ప్పుడు	-7.79295
ంటే	-7.79941
▁జాతీయ	-7.79984
▁అంత	-7.80258
/	-7.80549
r	-7.80601
or	-7.81258
▁చెప్ప	-7.81479
బా	-7.81867
▁తిరిగి	-7.82864
▁భాగ	-7.83245
▁వై	-7.83351
▁నుంచి	-7.83581
▁కుటుంబ	-7.84196
బడింది	-7.84215
▁చాలా	-7.8435
టె	-7.84372
ణి	-7.84577
ళ్ల	-7.84792
▁దా	-7.84928
మే	-7.85066
S	-7.85352
ిస్తున్న	-7.85501
ద్య	-7.85812
k	-7.86229
▁18	-7.8661
ట్లు	-7.86715
▁రైల్వే	-7.86949
en	-7.87322
▁నీటి	-7.8752
▁కొన్ని	-7.87573
▁వంటి	-7.87962
ఫ్	-7.88126
ఠ	-7.88691
చ్	-7.89179
చ్చి	-7.89414
▁ప్రాంతాల	-7.89485
శాస్త్ర	-7.89578
▁విధంగా	-7.89812
▁పొంద	-7.90177
▁ఉంటుంది	-7.9059
▁ఓ	-7.90631
ించింది	-7.90987
▁పని	-7.9116
మో	-7.9158
థి	-7.92008
క్రమ	-7.92105
▁వ్యా	-7.92253
▁మొ	-7.92259
▁సంత	-7.92552
▁జరుగుతోంది	-7.93012
▁పెద్ద	-7.93076
స్ట్	-7.93428
▁తెలుగు	-7.93782
తాయి	-7.942
▁విజయ	-7.94213
ులను	-7.9426
బ్బ	-7.94692
శ్వ	-7.94847
al	-7.94862
వ్వ	-7.94982
కుండా	-7.95117
ుకో	-7.95644
డె	-7.95669
is	-7.9579
మె	-7.95853
బి	-7.96346
▁నె	-7.96662
▁ఆమె	-7.96886
▁ఉత్పత్తి	-7.97964
▁ఏడాది	-7.98183
పెట్ట	-7.98565
at	-7.98626
త్తు	-7.99239
▁అనేక	-7.99256
C	-8.00548
▁గో	-8.01468
re	-8.02167
▁ప్రారంభ	-8.02798
▁మురుగునీటి	-8.03244
స్తుంది	-8.03533
▁అందుతుంది	-8.03537
▁పౌర	-8.04001
వ్య	-8.04317
▁పై	-8.0453
▁వరకు	-8.0505
రావు	-8.05263
▁లోని	-8.05267
▁సె	-8.05298
▁ముఖ్య	-8.05325
▁పొడుగునా	-8.05341
కృష్ణ	-8.05453
▁దాని	-8.06575
వాడు	-8.067
▁భాష	-8.06755
ుతున్న	-8.07375
▁మహా	-8.08094
▁మే	-8.08145
ed	-8.08446
హ్	-8.08481
▁ప్రజల	-8.08513
I	-8.09221
▁అయిన	-8.09693
యోగ	-8.10591
▁కాలువల	-8.10593
▁స్వయం	-8.10736
ిస్తారు	-8.1075
పురం	-8.11013
త్తి	-8.11265
▁ప్రపంచ	-8.11336
M	-8.11351
th	-8.11659
భాగ	-8.11837
గ్రహ	-8.12048
▁of	-8.12181
బడిన	-8.12347
▁2011	-8.12631
▁మంది	-8.12704
▁భావ	-8.12753
▁వృత్తి	-8.12853
▁దేవ	-8.13023
▁విస్తరించి	-8.13324
▁వాటి	-8.13709
▁బె	-8.14002
▁ఆఫ్	-8.14038
▁బహిరంగ	-8.14285
▁శిక్షణ	-8.1447
▁మొదటి	-8.14484
%	-8.14625
రాజు	-8.15213
రుగు	-8.15349
ఛ	-8.15586
▁సహకార	-8.15765
ులకు	-8.15923
▁సంబంధ	-8.15945
▁జరుగుతుంది	-8.16188
▁సంఘం	-8.16763
▁అండ్	-8.17218
ాలకు	-8.17354
▁కొరకు	-8.17574
▁నమోదు	-8.18478
▁ప్రవహిస్తుంది	-8.18536
▁రవాణా	-8.18567
వంత	-8.18786
టో	-8.1893
▁అతని	-8.19049
▁పశు	-8.19161
▁మాధ్యమిక	-8.19336
▁సామాన్య	-8.19363
▁ఉండే	-8.19381
▁గణాంకాల	-8.19391
▁డాక్టర్లు	-8.2006
st	-8.20409
▁మురుగునీరు	-8.2092
es	-8.21021
▁బృందం	-8.21219
▁చిన్న	-8.22339
▁ఇక్కడ	-8.2249
▁ఔషధ	-8.22501
▁కేంద్రాలు	-8.22506
it	-8.2265
▁చేసిన	-8.22688
▁కార్యాలయం	-8.22943
▁సౌకర్యాలు	-8.23562
▁రూప	-8.24049
▁సంరక్షణ	-8.24496
▁కులాల	-8.24565
▁వినియోగం	-8.24623
▁ఆటల	-8.24629
అ	-8.24673
▁తెగల	-8.24967
▁సొసైటీ	-8.2519
▁సంపూర్ణ	-8.2527
▁మొదలైన	-8.2531
▁శిశు	-8.25399
▁సహాయక	-8.25586
▁లైన్	-8.25598
▁సేవా	-8.25704
▁జనన	-8.25718
▁దూరం	-8.25754
ాంత	-8.26221
క్షణ	-8.26369
▁రామ	-8.26428
▁ప్రత్యామ్నాయ	-8.26479
పేట	-8.26718
le	-8.27109
▁సైన్స్	-8.27159
ప్పు	-8.27261
ేంద్ర	-8.274
▁గ్రామాల	-8.27426
▁కథ	-8.27469
▁ప్రాథమికోన్నత	-8.27515
▁ఆటో	-8.27527
▁మైదానం	-8.27562
▁సబ్	-8.27765
▁బాలల	-8.2782
50	-8.28129
▁గ్రంథాలయం	-8.2837
ాల్లో	-8.28431
▁కార్యకర్త	-8.28502
▁ఇంటర్నెట్	-8.28683
▁నిమిత్తం	-8.28713
▁ప్రాంతం	-8.28741
▁సంక్షేమ	-8.28786
▁వార్తాపత్రిక	-8.28877
▁జనాభా	-8.29095
▁మొబైల్	-8.29378
▁మరణాల	-8.29473
▁ఆర్ట్స్	-8.29734
▁పంపిణీ	-8.29812
▁పిన్	-8.29855
▁సంచార	-8.29881
▁మార్కెటింగ్	-8.29943
▁వనరుల	-8.29977
▁లొకేషన్	-8.29978
▁ఉత్తర	-8.30496
▁మగవారి	-8.30507
▁జనాభాతో	-8.30509
▁బ్ర	-8.30581
▁క్రి	-8.3076
▁యుద్ధ	-8.30903
▁ఆడవారి	-8.30955
▁పారామెడికల్	-8.30959
▁ఆశా	-8.31033
ic	-8.31116
▁రీడింగ్	-8.31136
▁హెక్టార్లలో	-8.31294
▁రూం	-8.31309
▁మార్కెట్	-8.31343
▁పోలింగ్	-8.31362
▁జూనియర్	-8.31378
లేదు	-8.3145
▁ఇళ్లతో	-8.31534
రెడ్డి	-8.31917
▁పారిశుధ్య	-8.32017
▁వీధుల	-8.32067
▁టెలిఫోన్	-8.3224
▁అంగన్	-8.32269
▁వాడీ	-8.3228
as	-8.32369
▁మాతా	-8.3257
▁పోస్ట్	-8.32932
▁ఉత్పాదక	-8.3305
▁వద్ద	-8.33081
▁కొరియర్	-8.33731
▁కెఫె	-8.33794
▁చేస్తున్నారు	-8.34085
▁పోషకాహార	-8.34103
▁రోజు	-8.34275
▁గృహావసరాల	-8.34408
▁పక్కనే	-8.34602
▁తర్వాత	-8.34619
▁సేకరించే	-8.34704
బడ్డ	-8.34829
▁ముందు	-8.34873
▁వస్తువులు	-8.35153
▁కంకర	-8.35221
▁హాలు	-8.35306
▁ఇంటింటిక	-8.35309
▁అవసరాల	-8.35432
▁పరపతి	-8.35448
▁అనియత	-8.35477
ించడం	-8.35481
▁సమీకృత	-8.35591
▁వ్యర్థాలను	-8.35613
స్తున్న	-8.35635
▁బయోగ్యాస్	-8.35927
▁మరుగుదొడ్డి	-8.36066
▁దివ్యాంగ	-8.36201
▁ఏటీఎమ్	-8.36238
▁డిస్పెన్సరీ	-8.36247
▁అలోపతి	-8.36285
ేషన్	-8.36349
▁పాలీటెక్నిక్	-8.36461
▁చెత్తను	-8.36663
▁అధిక	-8.36751
▁టెలిగ్రాఫ్	-8.36988
▁భారతదేశ	-8.3701
▁పట్టణమైన	-8.37081
▁పారబోస్త	-8.37128
ెంట్	-8.37791
ింప	-8.37925
▁చేతిపంపుల	-8.3796
▁కేంద్రమైన	-8.38344
▁మూడు	-8.38383
P	-8.38504
▁మేనేజిమెంటు	-8.38538
▁దక్షిణ	-8.38566
▁వలన	-8.38969
▁బాలబడి	-8.39081
▁రోజుకు	-8.40078
▁అమలవుతోంది	-8.40354
▁విషయ	-8.41218
▁సాధారణ	-8.41522
ప్పటికీ	-8.41646
▁ఉంటాయి	-8.41907
▁యూ	-8.42636
▁కిలోమీటర్ల	-8.42653
▁కుళాయిల	-8.43363
▁సంవత్సరాల	-8.43433
ిస్తుంది	-8.4344
▁వ్యక్త	-8.43524
జె	-8.44321
T	-8.44576
కొండ	-8.44943
▁అసెంబ్లీ	-8.44961
స్వామి	-8.45203
▁--	-8.45351
▁సంగీత	-8.45402
▁ఆలయ	-8.45497
▁ఆధార	-8.4562
▁అయితే	-8.45745
ro	-8.46078
ఎ	-8.46493
▁రోజువారీ	-8.46553
▁నిర్మించ	-8.46643
ri	-8.46666
▁గుండా	-8.46681
30	-8.4671
▁నిర్వహించ	-8.46759
ఆ	-8.46782
|	-8.47003
▁క్రీ	-8.47259
శతాబ్ద	-8.47536
▁గురించి	-8.47589
▁జీవ	-8.48157
D	-8.48218
▁అవుతున్నాయి	-8.48575
▁దూరంలోనూ	-8.48601
▁పూర్తి	-8.49667
▁వెళ్ళ	-8.50152
▁అధికార	-8.50252
▁మొత్తం	-8.50612
▁కొత్త	-8.50907
▁ఇంజనీరింగ్	-8.50998
B	-8.51067
ing	-8.51935
▁ఉపయోగ	-8.52062
▁తెలంగాణ	-8.5227
ార్థ	-8.52704
ేశ్వర	-8.536
ప్రాంత	-8.53986
▁ఆంధ్ర	-8.54345
▁సంవత్సరం	-8.54445
ఊ	-8.54836
▁ఫ్ర	-8.54991
▁అంటారు	-8.55101
▁సమయంలో	-8.55193
!	-8.55695
▁సిబ్బంది	-8.55915
ra	-8.56283
▁ఉపయోగించ	-8.56871
=	-8.56977
▁ఎన్నిక	-8.57147
▁నిర్మాణ	-8.57171
స్తూ	-8.57514
ఖ్య	-8.57711
బంధ	-8.5801
▁చేసే	-8.58558
▁ఏర్పడ	-8.58793
ధార	-8.58829
▁మొదలైనవి	-8.59479
▁జరిగిన	-8.59615
కృత	-8.59739
ేవారు	-8.59977
▁తీసుకు	-8.61787
▁నేరుగా	-8.61965
▁తిరు	-8.62946
▁సాధించ	-8.63002
▁పార్టీ	-8.63065
▁మాత్రమే	-8.63142
▁to	-8.63601
▁మార్గ	-8.6417
▁ప్రస్తుత	-8.64403
▁ప్రముఖ	-8.64537
▁జన్మ	-8.64667
▁ఉంట	-8.66004
▁ప్రవేశ	-8.66046
▁అక్కడ	-8.66106
▁and	-8.66211
▁వచ్చిన	-8.66414
▁అతను	-8.66672
ుతూ	-8.67542
▁మంచి	-8.68169
N	-8.68212
▁మార్చ	-8.68223
ుకొని	-8.68619
▁శుద్ధి	-8.68814
)	-8.69059
▁చరిత్ర	-8.69103
E	-8.70114
▁తక్కువ	-8.70415
▁తిరుగుతున్నాయి	-8.70598
▁ఇద్దరు	-8.70968
▁గుర్తించ	-8.71346
చంద్ర	-8.71843
▁మంచినీటి	-8.71895
▁మొదల	-8.72903
▁జీవిత	-8.73166
▁రక్షిత	-8.73418
▁తూర్పు	-8.73769
▁ధర్మ	-8.74148
▁సర్వ	-8.74294
▁విధాన	-8.74659
▁స్త్రీ	-8.76314
▁సముద్ర	-8.76682
వనరుల్లోకి	-8.76848
▁తయారు	-8.77074
▁శక్తి	-8.77479
ాబాద్	-8.77481
▁ట్ర	-8.77689
▁ఇందులో	-8.77704
▁అందుబాటులో	-8.7835
▁సేవ	-8.78421
▁వివిధ	-8.78727
▁ట్రాక్టర్లు	-8.79416
▁వాడేందుక	-8.79445
▁చేశారు	-8.79531
▁సభ్య	-8.81097
▁వివర	-8.81375
▁సంస్కృత	-8.81438
▁వదులుతున్న	-8.81467
R	-8.81488
H	-8.82059
జ్ఞ	-8.82273
జ్ఞాన	-8.8237
ిస్తూ	-8.82412
▁భారతీయ	-8.8323
U	-8.83404
ుకుని	-8.84
▁తగ్గ	-8.84531
▁విడుదల	-8.84933
▁రాజకీయ	-8.85281
▁రెండవ	-8.85828
▁బావుల	-8.87021
▁ఆర్థిక	-8.87643
▁చూప	-8.88232
పల్లె	-8.88752
▁నాలుగు	-8.89129
నారాయణ	-8.89666
▁నాటక	-8.90153
▁ఏర్పాటు	-8.90452
▁స్థాపించ	-8.91551
▁అమెరికా	-8.91713
▁అవసర	-8.91882
▁గ్రంథ	-8.91907
▁ముగ్గురు	-8.92142
ఉ	-8.92144
▁కొనసాగ	-8.92264
▁బోరుబావుల	-8.92475
L	-8.93441
▁సాహిత్య	-8.94557
▁విశ్వవిద్యాలయ	-8.95116
x	-8.95258
▁ప్రసిద్ధ	-8.96424
▁పుస్తక	-8.96719
F	-8.96836
▁పశ్చిమ	-8.97459
▁స్థాయి	-8.97711
▁ప్రయత్న	-8.98046
▁జరిగింది	-8.98172
ాత్మక	-8.98345
▁హైదరాబాదు	-8.98353
▁తండ్రి	-8.98354
ధ్ర	-8.98449
▁అత్యంత	-8.986
▁బహు	-8.98982
▁దగ్గర	-8.9944
▁తొలి	-8.99774
▁బ్రహ్మ	-9.01961
▁రచన	-9.01994
O	-9.02039
?	-9.02596
▁పురుషుల	-9.03094
W	-9.03246
▁కలిసి	-9.04495
▁వెంకట	-9.05584
ఇ	-9.05589
▁నటించ	-9.05646
▁సందర్భ	-9.05792
▁వ్యాపార	-9.06153
▁అప్పటి	-9.07169
▁వచ్చింది	-9.07409
▁సుమారు	-9.0747
▁అలాగే	-9.0768
▁డాక్టరు	-9.07793
శేష	-9.08808
▁కచ్చా	-9.08827
▁వివాహ	-9.08915
▁విశాఖపట్నం	-9.08977
ుడైన	-9.09731
సంవత్సర	-9.10479
▁వ్యతిరేక	-9.11133
పోయిన	-9.1134
▁పరిశోధన	-9.11487
G	-9.11585
▁ప్రయాణ	-9.11594
గ్రామంలో	-9.12965
▁పోతోంది	-9.13298
▁రచయిత	-9.13672
’	-9.16381
•	-9.17024
ః	-9.17703
ఢ	-9.1784
V	-9.2092
j	-9.28028
‘	-9.28075
ఋ	-9.39791
K	-9.40737
}	-9.42628
ఒ	-9.46548
{	-9.4857
ఁ	-9.49028
°	-9.51495
_	-9.53502
”	-9.56157
ఏ	-9.62381
ఔ	-9.94938
ఐ	-10.1329
ఈ	-10.2852
ఓ	-10.6957
ఞ	-12.4578
·	-14.4004
