<unk>	0
<s>	0
</s>	0
▁价	-0
▁亓	-1
▁亅	-2
▁仦	-3
▁二	-4
▁云	-5
▁井	-6
▁予	-7
▁些	-8
▁亃	-9
▁亂	-10
▁仈	-11
▁仉	-12
伧亖	-13
▁仧	-14
▁1	-15
▁亪	-16
▁亷	-17
▁亞	-18
▁伇	-19
▁仍	-20
▁仵	-21
▁仐	-22
▁亮	-23
▁仮	-24
▁亴	-25
▁亣	-26
予亐	-27
▁(	-28
▁价亭	-29
仌亖	-30
▁任	-31
亹人	-32
▁付	-33
▁伲	-34
什亖	-35
▁仈亭	-36
亪亇	-37
▁2	-38
互亇	-39
▁云互亇	-40
仏于	-41
▁井产	-42
些伺	-43
亰亇	-44
亹亗	-45
▁亽	-46
▁伕	-47
▁亻	-48
仡亇	-49
▁倧	-50
▁佂	-51
▁亓亘	-52
仕亇	-53
亪亣	-54
▁侍	-55
▁"	-56
亻仏于	-57
▁今	-58
▁价佛	-59
仇伺	-60
亿亐	-61
伧五	-62
▁仢	-63
▁19	-64
予亚	-65
▁京	-66
什五	-67
▁佖	-68
▁20	-69
▁侈	-70
▁于	-71
▁亂亃	-72
伂亇	-73
亏亐	-74
▁二亍	-75
▁亓些	-76
▁侫	-77
仮予	-78
▁亃交	-79
▁份	-80
仱俔	-81
仅予	-82
▁亣亭	-83
▁交	-84
产于	-85
仌五	-86
亾亟	-87
▁倧仱俔	-88
▁仁	-89
▁仦仾	-90
仮仇	-91
▁仃	-92
▁仸	-93
亻亼	-94
▁仫	-95
亭亇	-96
▁云了	-97
▁价于	-98
予什亖	-99
亊五	-100
仉亖	-101
▁亩	-102
▁价佇	-103
▁佰	-104
▁仵亊	-105
亟亖	-106
▁价些	-107
仅仇	-108
予伽	-109
▁亅亟	-110
▁亪伄	-111
亳亇	-112
▁二仇	-113
▁二亼	-114
亹亥	-115
▁住	-116
▁佢	-117
亟亇	-118
仄亇	-119
▁价亃	-120
▁亓亳	-121
▁仦亪亇	-122
▁佂什	-123
亭伟	-124
▁价亟	-125
亹人亻仏于	-126
亨亟	-127
▁二仿	-128
些亗	-129
▁亓亣	-130
▁仦亇	-131
▁佳	-132
些于	-133
仱予	-134
▁亓伄	-135
▁亓亘伟	-136
仓亖	-137
亹亊	-138
▁价亳	-139
亹亗于	-140
伡亖	-141
▁伃	-142
▁亅仄	-143
▁仨	-144
▁201	-145
▁仦亻	-146
▁予亭	-147
▁仮些亗	-148
▁井亭	-149
亩予	-150
00	-151
▁二亍于	-152
▁亓仹	-153
争亖	-154
仉五	-155
▁任仾	-156
亹人亇	-157
伡伺	-158
▁亅亪亣	-159
▁仧亳	-160
▁仵亪亣	-161
▁亓仹于	-162
▁佭	-163
亏什亖	-164
▁仍亊	-165
▁仧仏	-166
▁井产于	-167
▁价些伺	-168
▁侼	-169
亏亚	-170
▁亃事	-171
予亇	-172
▁二仛	-173
▁仐事	-174
亻亼仇	-175
▁价亊	-176
▁云了亐	-177
仇于	-178
▁亃交僴	-179
▁亅亟亍	-180
▁价佇亟	-181
▁价亭伟	-182
▁价俌	-183
▁佡	-184
亾亖	-185
今予	-186
亾五	-187
an	-188
▁亅亟亍人	-189
▁仦亻亟	-190
伐亇	-191
▁些伎	-192
▁仍予	-193
佛于	-194
▁京亭	-195
亨亼	-196
▁亮亭	-197
▁伲亼	-198
▁些仞	-199
仓亭伟	-200
享亟	-201
▁价仄	-202
仺些	-203
仦亇	-204
▁亞亟	-205
▁7	-206
▁("	-207
),	-208
▁任伿	-209
▁亂亡	-210
▁亓亃	-211
▁3	-212
亟伺	-213
▁亂亃亖	-214
▁些介	-215
▁亷仄	-216
▁亂亜	-217
▁些亭	-218
▁井亭今	-219
伖亇	-220
▁予亊	-221
▁些仆	-222
亾了	-223
亴亟	-224
▁交予	-225
▁200	-226
▁侬	-227
伽仡	-228
▁伱	-229
▁佤	-230
亳亸	-231
亱亇	-232
亶予	-233
▁伇亗	-234
▁仝	-235
▁亅亳	-236
予什五	-237
介亹亊	-238
▁亓亜	-239
▁亴仄	-240
伽亇	-241
▁伲争	-242
▁俖	-243
▁修	-244
▁二伖亇	-245
▁井仺	-246
亜亟	-247
▁仦仼	-248
▁伏	-249
▁亓仆	-250
▁价倖	-251
▁伋	-252
▁亓亘伟产	-253
亃亇	-254
会些	-255
侻亐	-256
仱云	-257
▁仵伎	-258
at	-259
仇亇	-260
▁佃	-261
仐事	-262
佝伺	-263
▁住优	-264
▁侍伧亖	-265
云亼	-266
亊亇	-267
▁仧亾	-268
▁二亣	-269
▁亷亸	-270
▁佞	-271
亿什五	-272
▁仐仺些	-273
▁仉亚	-274
▁5	-275
▁些优	-276
▁亓亣予	-277
▁仢亰亇	-278
人会	-279
▁予亥	-280
▁亞伤	-281
仌侀	-282
仾亇	-283
亵伺	-284
▁京于	-285
了亇	-286
亟于	-287
▁佖仙	-288
亍亜	-289
人亇	-290
▁井仄	-291
▁-	-292
俥伺	-293
了亹亥	-294
▁佽	-295
▁侲	-296
▁4	-297
了亹亗	-298
亿亚	-299
▁住亝	-300
▁佧	-301
人伨	-302
▁侩	-303
▁亜	-304
▁亂亨亟	-305
▁伇云	-306
▁价亖	-307
▁亪亡	-308
亳于	-309
亭仡	-310
▁仍享	-311
▁亓些伺	-312
▁18	-313
亣亖	-314
▁亪伄伮	-315
人伨亗	-316
▁仱	-317
▁亣介亹亊	-318
▁亅众	-319
争五	-320
▁于人伨亗	-321
亳仌亖	-322
▁予亸	-323
仅仆	-324
亨仏于	-325
佬伺	-326
er	-327
▁伎	-328
亂亇	-329
亣亟	-330
▁亃亳	-331
▁价佇仅	-332
▁俸	-333
▁仍亜	-334
:.	-335
▁仨仩	-336
▁亅亣	-337
▁仐予	-338
).	-339
亩亖	-340
伅伺	-341
予什	-342
予伽亇	-343
▁予仄	-344
亱仇	-345
仯亟	-346
▁些亳	-347
仌亟	-348
am	-349
▁仫们	-350
▁仦仼亖	-351
▁于亡	-352
今伺	-353
▁亴仏	-354
亃亖	-355
▁亮亟	-356
▁亅亜	-357
▁仵优	-358
▁些亜	-359
亃侀	-360
▁付亊	-361
伵仇	-362
▁价亭佛	-363
仐仄	-364
些亳	-365
▁亓侲	-366
▁亓亘伟产于	-367
▁井仺伮	-368
予伽仡	-369
伫亖	-370
on	-371
▁亃仯	-372
▁亓众	-373
▁亓以	-374
▁井产仇	-375
▁价俌伧亖	-376
予亚仠	-377
▁云亼	-378
▁价亃五	-379
al	-380
▁亓仏	-381
仞予	-382
亹享	-383
伨争亖	-384
in	-385
▁6	-386
仯五	-387
人亝	-388
亂亡	-389
▁仧亵伺	-390
ar	-391
▁亅享	-392
▁仉仆	-393
▁亘	-394
予些	-395
▁仉亭	-396
▁亓亭	-397
了亹人亻仏于	-398
▁亓佛	-399
佋亐	-400
▁亽人	-401
仉亟	-402
亶亖	-403
亭佛	-404
▁价亭仡亇	-405
亹人亻亼仇	-406
▁井仺伮仇	-407
亸亇	-408
▁伲于	-409
▁仃仄亇	-410
作伺	-411
or	-412
亩亪亇	-413
▁些亊	-414
▁仮仐仄	-415
▁井亊	-416
亳伺	-417
▁仮些亗亇	-418
了亐	-419
▁仵亪亣仡亇	-420
仯亃	-421
仮亪亇	-422
▁予亗	-423
▁亮仒	-424
▁伇亗云亼	-425
▁仦伡亖	-426
▁井亸	-427
▁佰亭亇	-428
▁亷亳亸	-429
亿什亖	-430
▁仍享亮	-431
仉佴	-432
▁价享	-433
▁亃仇于	-434
亗亇	-435
▁些仆侕	-436
")	-437
亾仅	-438
侐伺	-439
▁亅争	-440
佇亳	-441
些亾	-442
▁仵亪	-443
▁侺	-444
▁仮些亗仌亖	-445
▁仃仄	-446
▁价伥	-447
仓五	-448
▁价亳仾	-449
亹亜	-450
亭仡亇	-451
▁价仱	-452
▁亅伫	-453
▁2011	-454
了亹亗于	-455
▁仐仄	-456
亃仉	-457
▁亓亃五	-458
▁井伧	-459
▁仉亚仅	-460
▁P	-461
伄亟	-462
▁亳	-463
▁井伓	-464
▁井亟	-465
俤五	-466
ch	-467
亟五	-468
▁亅亟亍人亝	-469
▁亴些	-470
些亿亐	-471
会亡	-472
▁199	-473
▁侍伧	-474
▁价俌伧	-475
亻亼于	-476
▁予侚	-477
▁仐仺些仇	-478
亷仄	-479
▁8	-480
亱予	-481
▁亓仂	-482
▁亃予些	-483
▁,	-484
▁价伟	-485
▁云亥	-486
▁些亜些	-487
▁仵事	-488
亃佱	-489
伵予	-490
些仄	-491
▁任仾产于	-492
仆亇	-493
▁亃仅	-494
产仇	-495
▁亂亃佁	-496
en	-497
侈伇	-498
仅亪亇	-499
▁亓享	-500
予伺	-501
▁他	-502
▁云亳	-503
▁亂仛	-504
▁亅亊	-505
▁亃交僴人	-506
▁側	-507
▁价仄偢	-508
▁价佃	-509
▁价佉	-510
▁仦今伺	-511
▁云亭	-512
仆佃	-513
▁亓于	-514
▁价俌伧仓亖	-515
伧亰亇	-516
亹争	-517
▁仅	-518
▁侈僧	-519
▁于人伨亗令	-520
▁价仏	-521
▁亓伐	-522
▁二仿亇	-523
▁亓亜亹享	-524
▁亅亾	-525
仌亳	-526
云亖	-527
亏什五	-528
▁仈仿	-529
▁亮侻亐	-530
▁亮亾亟	-531
仉亟亖	-532
▁9	-533
亻佬伺	-534
▁亃交侃	-535
▁井仄予	-536
▁侈亴亟	-537
了亹亥产于	-538
亴亾亟	-539
▁侈僧人	-540
▁亓些亳于	-541
▁仦予	-542
人伮	-543
仱仇	-544
亳予	-545
▁亮亭亯	-546
▁任仼	-547
▁云事	-548
▁佂什伧	-549
仆伺	-550
▁保	-551
▁G	-552
伔亃	-553
▁198	-554
▁亣仏	-555
▁亪仛	-556
亰产	-557
▁伇亗云亼亢	-558
▁价亳倐	-559
▁予亸偼	-560
▁偁	-561
▁份仾亇	-562
▁亓亳侫	-563
▁云了仆佃	-564
▁些亳亱	-565
▁交予伂亇	-566
▁亻享	-567
▁亻仱云	-568
",	-569
▁井产仇伺	-570
亾伵	-571
亃亳	-572
▁仃仿	-573
亨亼仇伺	-574
▁予众	-575
仺亇	-576
今仇	-577
予亶予	-578
于亇	-579
▁仦亳	-580
伫五	-581
▁亓予	-582
▁亞侶	-583
▁10	-584
ay	-585
▁予亸偼人伮	-586
▁仦亻亟些	-587
亭了	-588
▁佡伥	-589
价亖	-590
▁仦俔	-591
仅亖	-592
予什亰亇	-593
▁亣亗	-594
▁亅伧	-595
▁仍予亳	-596
伊伆	-597
▁二人会	-598
伇五	-599
▁份仺	-600
▁佂伫	-601
▁亪仞	-602
亹人亝	-603
▁予事	-604
佋事	-605
▁亓佃	-606
▁15	-607
▁亻仞	-608
亨亼于	-609
19	-610
亝于	-611
▁亴仺	-612
▁C	-613
伨予	-614
伕亳亇	-615
亱亪亇	-616
些亿	-617
▁亅仞	-618
▁亅争亟亖	-619
会仡	-620
亹亪亣	-621
予亚仕亇	-622
▁197	-623
▁井伓亗	-624
亂予	-625
亏什	-626
▁云仯亃	-627
es	-628
▁亃交僴争亖	-629
▁云了仆佃亢	-630
伮亖	-631
佉亇	-632
▁亓侲亾了	-633
人予亐	-634
▁亓亘亙	-635
▁仈佚	-636
▁亅佋事	-637
▁仮仒	-638
仓亟	-639
亃五	-640
▁些佛	-641
th	-642
▁二伐亇	-643
些五	-644
▁S	-645
▁亓亊	-646
亗伺	-647
仯亖	-648
▁价亭亹	-649
▁12	-650
仅仇于	-651
▁云亣	-652
▁价仇	-653
▁倧亾亖	-654
▁亃予些亖	-655
▁2015	-656
▁侈佃	-657
▁价亭佛于	-658
▁仦侻亐	-659
▁予仄伟	-660
于亷	-661
▁亓亳亴	-662
人侐	-663
▁仈什	-664
▁亪亜	-665
佋亚	-666
▁17	-667
is	-668
▁亓仂会	-669
▁亅侏	-670
▁佂亹	-671
▁[	-672
▁亃交僴争五	-673
們亻	-674
亻亼仇伺	-675
予亳	-676
▁仐們亻	-677
000	-678
仺亣	-679
▁'	-680
ic	-681
仄仌亖	-682
▁价些伫亖	-683
▁价亣亖	-684
▁付于亷	-685
▁佳亾	-686
▁仉人	-687
▁仮亃亇	-688
▁亓仆伂	-689
▁住亝亇	-690
亴仅	-691
▁仦倌	-692
▁予伿	-693
▁偓	-694
▁196	-695
▁亅传	-696
亭些	-697
仩伺	-698
亏伽	-699
亨亼仇	-700
▁仦伉	-701
▁伕亣亟	-702
倐伺	-703
伈仠	-704
▁亅佉	-705
▁予亸偼人伮亍亜	-706
▁亅传仺	-707
▁任产	-708
亏伽亇	-709
▁佔	-710
仐事亟	-711
▁亪伄伮亊	-712
亅伺	-713
"),	-714
▁京于今予	-715
▁亮亟伺	-716
些介	-717
▁16	-718
▁予争	-719
亹亥产于	-720
伧亟亖	-721
▁价亟了	-722
亃仂	-723
▁仧仱	-724
▁予亥伨争亖	-725
▁亓伄亟	-726
仺亻仏于	-727
▁佂什些	-728
▁亣亭俌	-729
亊予	-730
ram	-731
▁些仞亏	-732
▁仦仺	-733
▁佰亳	-734
▁云亭会些	-735
仱亖	-736
▁仫们于	-737
▁亞伾	-738
僂亾	-739
▁些作	-740
亳侫	-741
▁亓仏仐事亟	-742
亏伽仡	-743
▁价些亿什亖	-744
▁侍伧亱亪亇	-745
▁予亭亃	-746
仪仜	-747
▁仵亊伉	-748
▁予俔	-749
▁亓什	-750
亷仄令	-751
▁亅佋事了	-752
云事	-753
了亹人亇	-754
▁亪人侐	-755
▁亃五	-756
会亡伧五	-757
▁仨仩仪仜	-758
▁二佛	-759
余亜亟	-760
▁亪仞倾	-761
▁俍	-762
▁仈伀	-763
亘亙	-764
予五	-765
亿亚亢	-766
亗于	-767
仕亊五	-768
▁亞偮	-769
▁些伎伨争亖	-770
仆伂	-771
▁于亡伧五	-772
▁亣亭仉	-773
▁仐們亻了亹人亻仏于	-774
▁仈伭	-775
▁位	-776
▁亴副	-777
会亊五	-778
▁俖亳	-779
亭仮	-780
▁A	-781
亩亳	-782
▁亮互	-783
▁亃事亘	-784
▁侼伺	-785
亾亘	-786
▁亓仿	-787
些仱予	-788
亹作伺	-789
▁价些亳于	-790
▁亓伪	-791
▁亓仏仐事亟会亡伧五	-792
仅伺	-793
▁予仾	-794
亩亇	-795
▁195	-796
▁伇亏	-797
▁仈亭亷仄令	-798
仡令	-799
▁仉亚仅亥	-800
伈令	-801
▁亓些亿亐	-802
▁仐仏	-803
▁予享	-804
▁侬侃	-805
▁亣亭俌伧亖	-806
仮伺	-807
▁侈俕	-808
▁些亾	-809
▁仉仂	-810
▁价仺亣	-811
会亇	-812
▁仐亡	-813
▁侬僑	-814
▁亅亪亣伧亖	-815
▁仧仏亪	-816
▁仦亻佦	-817
仮仇于	-818
▁亃代	-819
▁仵亊侑	-820
▁侬僑伿	-821
亨亖	-822
▁亓侲亾伵	-823
仉亊	-824
▁侳	-825
▁倧亳予	-826
▁亃仅亾	-827
些亭亇	-828
亟仌亖	-829
▁亞亟伸	-830
▁亓亣亷	-831
▁伇仃	-832
▁云仺	-833
anch	-834
▁亂亃佁亢	-835
▁倧仱俔伧亖	-836
▁仵亪亣予亚仠	-837
▁194	-838
▁亷亳亸仮予	-839
▁亃亳仉	-840
ion	-841
亝亖	-842
▁仦仾亢	-843
▁仵亪了亹亥产于	-844
▁井仺伮仇亿亚亢	-845
▁云亼亢	-846
ayat	-847
▁予僂亾	-848
▁井伓亗亩亪亇	-849
些亜	-850
▁Gram	-851
亙予亐	-852
亅亳	-853
▁侈僧人亨亼仇伺	-854
▁Panch	-855
▁Panchayat	-856
la	-857
▁价佇仅仉五	-858
▁倧仱俔亢	-859
▁云仒	-860
▁亃亳仉亍亜	-861
▁仄	-862
仙仌	-863
佚伺	-864
▁亴副亿什五	-865
▁亷仄仌亖	-866
▁仉仄	-867
▁亩五	-868
ur	-869
▁任人	-870
亻亟	-871
亿伽仡	-872
伨亖	-873
▁11	-874
些仄伺	-875
▁付亣	-876
亃佱予	-877
▁于倖	-878
▁些作亳仌亖	-879
▁仧五	-880
▁仈仓	-881
侐介	-882
仌亰亇	-883
▁价亭伮	-884
伧仓亭伟	-885
▁14	-886
▁仉亊	-887
▁井仙仌	-888
▁亽倈	-889
it	-890
▁云亷	-891
亍亩亇	-892
亻亖	-893
▁予亦	-894
▁亅亳侐介	-895
▁亓亳伇	-896
▁佤亳	-897
▁仍亊亨亼于	-898
▁亣亭仉做	-899
▁云众	-900
▁仵亊伛	-901
仧亜	-902
▁仧亳侈伇	-903
▁付亳	-904
伂予亐	-905
了亖	-906
▁二個	-907
▁亻俄	-908
些亃侀	-909
亽亟	-910
▁仮亃	-911
▁伇仃予	-912
▁仸仺	-913
▁亅亗	-914
亃事	-915
予亶	-916
▁13	-917
▁仈伭亭	-918
▁云亥仢	-919
伅亖	-920
▁亅佼	-921
佘仕亇	-922
▁侰	-923
云亣	-924
▁价亭了	-925
亻佬	-926
▁仍人	-927
▁侈倘	-928
▁二仛亣	-929
▁仍些	-930
亩予伂亇	-931
▁亅佼亍亩亇	-932
▁二仳	-933
仉亳	-934
▁仨仩仼	-935
▁亓伔亃	-936
伬于	-937
▁予些	-938
伧亭	-939
▁京仺	-940
▁侫互	-941
▁伲仄	-942
▁伕于	-943
▁亓交	-944
亰仡	-945
▁M	-946
▁伇于	-947
亅亣	-948
▁二亍亦	-949
予亚令	-950
仌亭	-951
▁仮亷	-952
▁伕予	-953
▁信	-954
▁亴仏佛	-955
▁仓	-956
仒亇	-957
亿伽	-958
▁云伿	-959
伮五	-960
▁亂亟	-961
▁伃于	-962
▁云于	-963
▁仐仺	-964
▁仁们	-965
亗仌亖	-966
el	-967
▁亪亭	-968
▁价伉	-969
▁价亃伡亖	-970
人亅	-971
▁亽亐	-972
▁亓仏似	-973
▁京亭侵	-974
亭享亟	-975
▁仐仂	-976
伈仕亇	-977
亘仅仇	-978
▁井亃仉	-979
人亻仏于	-980
亩仇	-981
▁仫佃	-982
▁亘亟	-983
伉亟	-984
▁亱	-985
了亹人	-986
▁仦亴亾亟	-987
]]	-988
▁仈侘	-989
▁伕仏	-990
▁价亦	-991
▁份事	-992
▁偫	-993
▁儝	-994
▁亅众仅	-995
▁I	-996
亵亣	-997
▁亣亭云	-998
产仇伺	-999
▁亅佋事了仞予	-1000
▁伃仾亇	-1001
▁傱	-1002
▁亊	-1003
仉侀	-1004
了亚	-1005
▁亮仩伺	-1006
仌仓亭伟	-1007
▁仦仱	-1008
▁价亭伮伐亇	-1009
云于	-1010
▁f	-1011
▁亻亭	-1012
佇亟	-1013
▁亴伄亟	-1014
▁亻伄	-1015
▁佂什些佛	-1016
▁仢侀	-1017
▁亃倾	-1018
20	-1019
▁些亭亇	-1020
as	-1021
▁仢俰	-1022
▁B	-1023
il	-1024
▁亓伄仉	-1025
▁佭亨亟	-1026
▁仉亾	-1027
▁伇云亟	-1028
亝了	-1029
▁仭	-1030
仕俥伺	-1031
估亐	-1032
▁些众	-1033
▁亓侈	-1034
亊亖	-1035
亏亇	-1036
▁亓亘伨亖	-1037
▁o	-1038
▁仉亭于	-1039
俽于	-1040
▁伕亝	-1041
▁仸伄	-1042
▁0	-1043
▁亅伫亟	-1044
佘仠	-1045
仱伇	-1046
▁193	-1047
▁亓仏似些仄伺	-1048
▁份亣	-1049
,000	-1050
佱仇	-1051
▁伲争予什亖	-1052
▁亮仏	-1053
▁亂予	-1054
▁予介	-1055
▁价亡	-1056
仼亟	-1057
▁任仼亭	-1058
▁佭仭	-1059
事伧亖	-1060
▁[[	-1061
亹于	-1062
仯仅	-1063
▁些伇	-1064
▁予亭会	-1065
佻仺	-1066
亭亐	-1067
▁仸亜亟	-1068
侄伺	-1069
ed	-1070
▁亃仆	-1071
伂仡	-1072
▁些亟	-1073
▁亅亟亍人仌	-1074
▁价佴	-1075
ol	-1076
▁仍享亮仺亻仏于	-1077
亃佱仇	-1078
亹亗仇	-1079
▁亓仄	-1080
▁仐侰	-1081
om	-1082
伡予	-1083
▁仧仏亙	-1084
▁价伉亱	-1085
▁亞佩	-1086
▁予仾仧亜	-1087
▁亣予	-1088
▁亽亥	-1089
▁二亍些伺	-1090
▁伕仄	-1091
▁亓佉	-1092
仍予	-1093
▁亴仏亙	-1094
伐仡	-1095
亱仆	-1096
▁仦仒	-1097
▁价亊倗	-1098
▁价亃仂	-1099
会仠	-1100
▁仮亸	-1101
佘令	-1102
▁亪仺	-1103
▁予仉	-1104
▁云亡	-1105
▁仸仏	-1106
▁亓亰	-1107
亝亇	-1108
▁价亳倐亇	-1109
▁井亃	-1110
伕亾	-1111
仅予令	-1112
▁二人	-1113
▁仦亻亟佃	-1114
▁云仌亟	-1115
▁伇亾	-1116
亩亳亸	-1117
▁仮亷亸	-1118
伫亟	-1119
▁佂什伆	-1120
▁仸亗	-1121
亣佴	-1122
▁亅亟仴	-1123
▁仢仙	-1124
▁伕亳	-1125
亽亃	-1126
▁于些	-1127
▁价仌	-1128
▁今儘	-1129
仛于	-1130
▁佢亣	-1131
▁亓健	-1132
▁二亇	-1133
▁伥	-1134
仄予	-1135
▁亞俀	-1136
▁仦亳侐	-1137
▁亷亸亹人亇	-1138
▁二亾	-1139
▁T	-1140
仱予伂亇	-1141
et	-1142
▁亓优	-1143
▁价仆	-1144
▁亓伄仉亟亖	-1145
▁亅仏	-1146
▁京亭亐	-1147
亨佬伺	-1148
▁亃代于	-1149
▁偃	-1150
▁价倕	-1151
▁仐予僭	-1152
▁R	-1153
▁价仄亨亟	-1154
▁仃佚	-1155
▁井亾亘	-1156
伧亱仇	-1157
▁亓亦	-1158
人仌	-1159
▁of	-1160
▁亂亜仕亇	-1161
▁予仇	-1162
▁25	-1163
▁仍享亮仒	-1164
伄伂	-1165
仡伄	-1166
伈亢	-1167
今交	-1168
仛亇	-1169
偞亟五	-1170
▁亷俔	-1171
亩些于	-1172
▁亾	-1173
▁仕	-1174
▁井亅	-1175
▁些众予	-1176
▁亻仞仡	-1177
▁亓仆仉亖	-1178
▁二佴	-1179
▁予享亴	-1180
▁价倖伟	-1181
伮亟	-1182
▁傴	-1183
▁些伟	-1184
▁付侂	-1185
▁亃交仞予	-1186
▁亃佁	-1187
▁亮亭亇	-1188
佺亇	-1189
佱予	-1190
付人	-1191
▁些仓	-1192
▁亃交仞	-1193
▁云仇	-1194
▁亓健亅伺	-1195
▁井伩	-1196
▁侈俕亢	-1197
佋什亖	-1198
▁亞俙	-1199
▁仐事伧亖	-1200
▁佖互	-1201
▁云亵	-1202
▁伲仱	-1203
▁些介亟	-1204
▁云予	-1205
些于亇	-1206
▁N	-1207
予亶亖	-1208
▁二仛会	-1209
仅予伂亇	-1210
▁仧仏佛	-1211
▁价亟仡	-1212
▁佭伟	-1213
▁亮亭亯亰亇	-1214
▁仐仺些仇亇	-1215
▁偠	-1216
▁亂仂	-1217
仌亾	-1218
▁D	-1219
些亇	-1220
▁任伿于	-1221
▁二什	-1222
▁价亟侽	-1223
▁仉些	-1224
▁价亭亨仏于	-1225
▁井亸伂	-1226
▁侫仮伺	-1227
▁伇于亳	-1228
us	-1229
▁亓亜亹享伧亖	-1230
▁仝亾亟	-1231
俶亳	-1232
亹侏	-1233
▁仈佚亪亇	-1234
▁仝仞	-1235
偁令	-1236
▁亓俤五	-1237
▁仦伺	-1238
▁仐倹	-1239
▁仧亜	-1240
▁伕亾	-1241
▁仧亳亅	-1242
▁亽争五	-1243
▁亂亃俶亳	-1244
▁亷亥	-1245
▁二個伴	-1246
▁亞仿	-1247
▁仉亣	-1248
刷伺	-1249
仇些亾	-1250
▁二亍些	-1251
亿伽亇	-1252
▁佂什伧亊	-1253
▁亂亃仓亖	-1254
▁价亃侀	-1255
▁井产亊	-1256
▁京亭亶	-1257
▁亪亡佛	-1258
and	-1259
亏亚仕亇	-1260
▁二仇份	-1261
以亟	-1262
▁亓亳亴亟亖	-1263
▁二仛亃	-1264
亳亴	-1265
▁(1	-1266
▁价佛令	-1267
亹人亻亼于	-1268
▁亓仞	-1269
亳亖	-1270
▁佞人亅	-1271
▁井仾	-1272
仮予仠	-1273
▁予亭仉	-1274
仅予仠	-1275
▁价佲	-1276
▁亞亰	-1277
▁仧亾伅	-1278
ad	-1279
伵亳伺	-1280
▁价侫	-1281
▁亩些亳	-1282
▁亽予	-1283
▁价亊亇	-1284
些亦	-1285
▁亂亟侇	-1286
▁佢伺	-1287
▁仍些侐伺	-1288
亹人仌	-1289
▁亣亭些	-1290
um	-1291
佘仜	-1292
▁亪伄伮亗	-1293
伈仜	-1294
亏亶予	-1295
▁30	-1296
▁二仇亹人亇	-1297
亅亜	-1298
▁亓伄亂予	-1299
▁伇亵亣	-1300
仯伐亇	-1301
▁)	-1302
▁仦仄	-1303
▁亽位	-1304
-1	-1305
▁倬	-1306
云亇	-1307
▁京伄	-1308
▁佳亾仉	-1309
▁剏	-1310
▁僵	-1311
亏什亰亇	-1312
▁亅亃仉	-1313
▁亓亳亴亟	-1314
▁价亝	-1315
▁价佇仅仉亖	-1316
▁俲	-1317
▁卡	-1318
▁亓亃侀	-1319
▁伇佇	-1320
▁仦仾予什亖	-1321
伵俔	-1322
些亜伴	-1323
▁亂亵	-1324
亿亶亖	-1325
▁伕侏	-1326
亻偿	-1327
伲于	-1328
▁亅债	-1329
仆仉亖	-1330
仱亟	-1331
▁亓众伧五	-1332
▁予亣	-1333
伇侐伺	-1334
仮予伂亇	-1335
▁亽侵	-1336
▁二五	-1337
亏亚仠	-1338
云众	-1339
▁c	-1340
亊仌亖	-1341
▁亷仄亇	-1342
▁价了	-1343
▁亓亳仁	-1344
亻亾	-1345
交亟	-1346
▁仢亖	-1347
伙伓	-1348
些亖	-1349
▁伕仉	-1350
了仌亖	-1351
仓仅	-1352
▁仍亊些亜伴	-1353
▁任僰	-1354
le	-1355
仕产	-1356
享伆	-1357
▁二仯伐亇	-1358
▁价亭佝伺	-1359
▁仫俞	-1360
予伽亊五	-1361
伧仇	-1362
▁些亾伥	-1363
ing	-1364
▁仉仮仇	-1365
仁交	-1366
▁亂亡伧亖	-1367
▁些亪	-1368
▁云于介	-1369
▁二伔	-1370
▁井介	-1371
▁亓亣亖	-1372
)"	-1373
▁些亭亻仏于	-1374
▁H	-1375
亼仇伺	-1376
▁仧亾伂	-1377
▁佧人	-1378
仱伇亾	-1379
▁仍俟	-1380
▁192	-1381
▁亅债亥	-1382
▁亞儼	-1383
▁些亚	-1384
亭亊五	-1385
伽云亼	-1386
▁予亊伂	-1387
事令	-1388
▁仨亖	-1389
▁亞偄	-1390
▁侭	-1391
仉亰亇	-1392
ro	-1393
▁些仞伉	-1394
亣亾	-1395
▁仮伄	-1396
▁享	-1397
▁亮仒于	-1398
▁仸人	-1399
▁伕仯亃	-1400
亶仇	-1401
优亖	-1402
▁伃亗伺	-1403
▁伇仱伇亾	-1404
▁伱伀	-1405
▁仵优伙伓	-1406
▁价仌介亹亊	-1407
▁付于亷亙	-1408
▁予争亊	-1409
▁仉仛	-1410
▁亴亻偿	-1411
▁2008	-1412
▁亮亭仮	-1413
▁伲争伧亖	-1414
▁二仇伂亇	-1415
ri	-1416
亝仇伺	-1417
▁亓人亝	-1418
了亹作伺	-1419
偞亟	-1420
亱仆伺	-1421
▁价亭佝	-1422
仞予亇	-1423
▁亪伄伨予	-1424
▁亓亘伦	-1425
佂什	-1426
▁亮侻	-1427
▁二仛伅	-1428
仆于	-1429
仰伺	-1430
些仔	-1431
▁伎亹	-1432
▁亪伄伮亊亝了	-1433
▁亃些	-1434
▁予亜	-1435
伔云亖	-1436
▁仦伉仄	-1437
▁仧亳亣	-1438
仿亇	-1439
▁亞仹	-1440
▁仐事亟	-1441
了令	-1442
▁亂亜仅	-1443
▁"(	-1444
▁仦仱俵	-1445
▁仐事亟亇	-1446
▁价亳倐些于	-1447
▁亻亾	-1448
▁s	-1449
▁亣亭仉做今予	-1450
▁些伎伧亖	-1451
▁儣	-1452
▁亮値	-1453
亩予仠	-1454
▁侍仉	-1455
▁些仞了	-1456
▁仧倔	-1457
▁亞儼侐伺	-1458
▁亴亏	-1459
▁仉亻	-1460
▁仍享亂亡	-1461
▁亓事	-1462
▁仐亣	-1463
▁井伧亾	-1464
un	-1465
▁仸亊	-1466
亳些	-1467
▁井仺亣	-1468
▁价伉亱伟	-1469
▁亓亣予亾	-1470
▁亮亭亯亱仇	-1471
▁井侏	-1472
亹伺	-1473
▁予亥介	-1474
▁亅亪亣予什亖	-1475
▁佃会	-1476
▁云伊	-1477
orm	-1478
▁亃仅亾了	-1479
▁井仄亻	-1480
▁亅亳些	-1481
伫伡伺	-1482
▁伲亼佃	-1483
▁免	-1484
▁亞俀亇	-1485
亙仏	-1486
▁云亸	-1487
▁俸仞	-1488
▁佖仙人亇	-1489
▁佦	-1490
▁亓仛	-1491
▁价五	-1492
偷亖	-1493
▁二佚	-1494
伇亇	-1495
▁(19	-1496
▁亽人予什亖	-1497
▁亓亾	-1498
▁价仞	-1499
▁p	-1500
▁井仏	-1501
▁仍予亳亇	-1502
▁任倐	-1503
▁21	-1504
▁24	-1505
▁任仾俥伺	-1506
ation	-1507
伮亳	-1508
▁亅伧侇	-1509
▁云亥亇	-1510
亅亗	-1511
仙仂	-1512
▁价亊仌亖	-1513
亼仇	-1514
▁仉人亃事	-1515
▁仦亻亟些仔	-1516
▁亷亳	-1517
▁仦亃亳	-1518
▁亓云	-1519
▁亣介	-1520
▁仵事伵俔	-1521
▁亞佺亇	-1522
▁佰仱	-1523
▁些亴	-1524
▁仦亻佦伺	-1525
亝佁	-1526
▁予亊亖	-1527
▁仉做	-1528
▁仃仄余	-1529
伨仇	-1530
▁仦伧	-1531
▁二仇仠	-1532
▁仵亊伍	-1533
亟予	-1534
▁亷亸亹人亻仏于	-1535
▁二仛亣亟	-1536
▁亅亭些	-1537
▁L	-1538
re	-1539
▁仍亜会	-1540
▁些亗	-1541
▁仧亳亅仄	-1542
,.	-1543
▁仐亳	-1544
▁伲伺	-1545
位予	-1546
偷些亾	-1547
▁些仞佉	-1548
▁亞倍	-1549
云五	-1550
▁佖偷亖	-1551
▁些亳亱互	-1552
亳五	-1553
仱側	-1554
▁亓享仅仆	-1555
▁交偞亟五	-1556
▁于人伨亗伵亳伺	-1557
▁仦仼五	-1558
▁亩仡	-1559
▁仍亊佛	-1560
▁仧仏佝伺	-1561
▁亣亭亝	-1562
些伎	-1563
伆侫	-1564
▁二人会伵	-1565
▁仈亭些伺	-1566
▁亃人	-1567
▁亂亨亟仮仇	-1568
▁22	-1569
▁仧亾伅仯亟	-1570
亹争亭	-1571
▁仨仩仾	-1572
亚亟亇	-1573
▁亃交兕	-1574
▁云亃	-1575
亹亥产仇	-1576
伇伺	-1577
冚伺	-1578
▁亅了	-1579
▁亻亭冊	-1580
▁侍佥	-1581
▁云傞	-1582
▁侫伫	-1583
▁亂五	-1584
亿什	-1585
▁仉亥	-1586
ula	-1587
▁亞亟但	-1588
▁些优仅予	-1589
▁伏亨	-1590
▁价享伆	-1591
▁佢伿	-1592
亪佛	-1593
▁些亜些亘	-1594
▁些伇亣	-1595
仚亭	-1596
▁亽亊予	-1597
刞亭	-1598
▁些佛于	-1599
佇亭	-1600
亾亊	-1601
▁亣介亹亊亇	-1602
▁亓亣亷亳	-1603
▁亪什	-1604
亟仌五	-1605
亂亜	-1606
id	-1607
▁云仂	-1608
▁亷争	-1609
▁亻侘	-1610
▁2009	-1611
▁价佛仠	-1612
▁亃亏亐	-1613
仡仛	-1614
▁些事	-1615
伡亰亇	-1616
伪些	-1617
▁仨仩仼亖	-1618
▁仃仄仮予	-1619
亩五	-1620
亦亟	-1621
ct	-1622
▁亂债	-1623
伅五	-1624
▁侫仞	-1625
▁仉介	-1626
伧亟	-1627
予伽仡亇	-1628
▁亣予亣	-1629
ent	-1630
▁伇儋	-1631
▁23	-1632
▁伇偠	-1633
▁亅以亟	-1634
侔亇	-1635
▁佰伺	-1636
▁仍亊亝	-1637
▁F	-1638
▁E	-1639
俄予	-1640
▁亃亭	-1641
▁侍侎	-1642
▁予优	-1643
▁亓亟	-1644
▁些亊仡	-1645
▁亪伄僤	-1646
▁佐	-1647
今五	-1648
▁予亾	-1649
事予亐	-1650
▁亞倰	-1651
▁井亟伺	-1652
▁仮仺	-1653
▁些亟于	-1654
倇亣	-1655
伂亊五	-1656
亹亪亣伧亖	-1657
▁1.	-1658
▁2010	-1659
仂令	-1660
些亩予	-1661
▁仐倹予	-1662
伎伧亖	-1663
▁亓伐云亣	-1664
▁典	-1665
任倐伺	-1666
▁亓亭亻亖	-1667
▁予亩	-1668
▁价億	-1669
ul	-1670
▁伇侍	-1671
佮产	-1672
▁亴了	-1673
▁亓些亭享亟	-1674
▁伲争予什亰亇	-1675
▁亂亜伂	-1676
▁=	-1677
▁th	-1678
▁仦亳俟	-1679
伵仄	-1680
▁井亭今亨	-1681
▁付仱	-1682
仅仆伺	-1683
▁2007	-1684
▁亃云于	-1685
▁二値	-1686
亹亃侀	-1687
▁付仓	-1688
▁伲仡	-1689
ormula	-1690
▁予仞予	-1691
▁仧亵	-1692
亠亡	-1693
仂仠	-1694
▁予众仯	-1695
ap	-1696
▁价伆侫	-1697
▁侫亳	-1698
▁亮亟亾亖	-1699
▁亂亡亹亜	-1700
▁亞仄	-1701
云享	-1702
亟亘	-1703
▁亣伥	-1704
▁予亹	-1705
▁依	-1706
侀亇	-1707
▁亻仱	-1708
伡仇	-1709
▁亷亸亹人亻亼仇	-1710
▁些仞仡	-1711
傠伺	-1712
▁佂亹仐事	-1713
▁付仄	-1714
50	-1715
▁井享亟	-1716
▁亃亏	-1717
▁仫侑	-1718
▁仐亟	-1719
▁亃享	-1720
▁亅亳亹	-1721
▁二佛刞亭	-1722
佄亐	-1723
些优	-1724
▁亪亜亟	-1725
▁仉仄佉	-1726
▁亴亵	-1727
▁亅仏佃	-1728
佤仇	-1729
▁亓些亭仡	-1730
▁修伂	-1731
▁亪伄仡亇	-1732
▁价些亿亐	-1733
▁仦亣	-1734
▁伏倿	-1735
▁亂侞	-1736
▁云亳伕	-1737
▁亞偄伺	-1738
▁d	-1739
▁亮亭仮亐	-1740
仌仅	-1741
▁任仛	-1742
▁亃佱	-1743
亨佬	-1744
em	-1745
▁井亊亖	-1746
".	-1747
▁仐予俱	-1748
▁侈亣	-1749
▁亓些介	-1750
▁些似	-1751
▁仍予亾亖	-1752
▁191	-1753
佘亢	-1754
▁仉亅亳	-1755
▁2006	-1756
▁仦仾予亐	-1757
▁亅亟亍人会	-1758
▁井亭今了	-1759
俌佥	-1760
▁仵优亖	-1761
▁仧冃	-1762
▁佳侀	-1763
▁付俹	-1764
▁仈佚予	-1765
▁亓亩些于	-1766
冫亳伺	-1767
亻佬亿亐	-1768
▁亓亘佛	-1769
▁仮仐仄仌亖	-1770
▁亓交仄	-1771
伎亟	-1772
▁佖仙亗	-1773
▁仈亹	-1774
▁亅人	-1775
▁予亭亃亹人亻仏于	-1776
亜仅予	-1777
亝些	-1778
▁仵事仉亖	-1779
▁亂仛些于亇	-1780
▁付亊亖	-1781
▁俸亃仂	-1782
▁仍仹	-1783
200	-1784
仯亟亇	-1785
▁仸亥	-1786
▁亓亣予仮予	-1787
作予	-1788
▁仦些	-1789
仕产于	-1790
▁份予	-1791
仌介	-1792
▁价亊亏什亖	-1793
▁价佻仺	-1794
▁亃事些仱予	-1795
▁井侏亗	-1796
▁亞伤亹亗	-1797
▁伲争伧亰亇	-1798
▁云了什五	-1799
▁亓以了亹人亻仏于	-1800
些亭	-1801
▁予亥伨	-1802
▁价些亭仡	-1803
了亸	-1804
▁formula	-1805
▁价亚	-1806
▁亅亣伂	-1807
▁些仄	-1808
▁仉亃	-1809
ir	-1810
今倿	-1811
▁亮仺	-1812
▁1,	-1813
▁井仄亻五	-1814
亃仇	-1815
作亖	-1816
▁伇們	-1817
▁云仂仉	-1818
▁仈仛	-1819
▁佳什	-1820
iv	-1821
▁伇倾	-1822
▁伕亣	-1823
▁亃仉亳	-1824
▁价仱云	-1825
▁侩仇	-1826
伨仆	-1827
▁些亭亊	-1828
亭佛仇伺	-1829
▁仅儤	-1830
▁佖亾	-1831
os	-1832
亹位	-1833
仌亳亇	-1834
▁亷伉	-1835
▁些伉	-1836
亏亚令	-1837
些亩亖	-1838
▁侍仉亖	-1839
亥亇	-1840
▁京亭亶亩亳	-1841
▁亅争亟	-1842
▁佳五	-1843
▁亓亰些仄	-1844
亾亟俤五	-1845
▁二佪	-1846
亙仠	-1847
▁仫偋	-1848
▁井仺伮仇仱予	-1849
▁井亭今仡	-1850
▁僕	-1851
▁亅亟亍人亝亹人亻仏于	-1852
▁些亳亱仺	-1853
佤亳伺	-1854
予亚亢	-1855
ag	-1856
亣亰亇	-1857
仡伄亙	-1858
▁26	-1859
▁亂亃亱	-1860
亅亇	-1861
佃伧亖	-1862
▁仢仙亗	-1863
仄伺	-1864
▁仱云	-1865
▁亅侌	-1866
▁50	-1867
▁仉云	-1868
▁亃事些伺	-1869
▁27	-1870
▁交予侦	-1871
▁仦亜	-1872
▁伕亝予	-1873
▁亃仉	-1874
▁亓些伫五	-1875
▁亓俽于	-1876
▁仍俟伴	-1877
会些亇	-1878
佬予	-1879
伧亊	-1880
▁仮仐仄仌五	-1881
▁伋佛	-1882
▁价倖亟	-1883
▁亅佉任倐伺	-1884
▁偽	-1885
亹人会	-1886
傩伺	-1887
亮亟	-1888
交亭伟	-1889
▁云亣亙	-1890
▁仧亾了	-1891
▁佢仆	-1892
了什五	-1893
ia	-1894
▁K	-1895
▁仱側	-1896
▁亣亭云亸亇	-1897
今亃	-1898
▁仮偪	-1899
▁亂亭	-1900
▁亅亗亇	-1901
▁佭仭伮亟	-1902
▁佽亳	-1903
些仇	-1904
佼亊	-1905
▁俠	-1906
佛伺	-1907
了亹人亻亼仇	-1908
▁侫亃	-1909
▁井享	-1910
▁亻亚	-1911
▁100	-1912
▁亞亼	-1913
▁亃伖	-1914
仱予令	-1915
▁价伅	-1916
▁28	-1917
▁亃倚	-1918
▁云傞亭	-1919
▁亽人予亐	-1920
▁价仄偢伧五	-1921
亽亐	-1922
今伇	-1923
▁仈亹佛	-1924
▁亅倚	-1925
亘仅予	-1926
亃伺	-1927
▁今債	-1928
些仱	-1929
▁亽位伽云亼	-1930
▁予仉亦	-1931
亥令	-1932
▁亂于	-1933
▁仉些仁	-1934
▁亓亳亴五	-1935
▁仧倖	-1936
▁侩伡	-1937
仍予亳	-1938
▁予众亃	-1939
亥仠	-1940
▁伇亳	-1941
住优	-1942
▁仍亊仌	-1943
▁傃	-1944
侰伺	-1945
佉亜	-1946
▁190	-1947
▁仁事	-1948
▁伇侐	-1949
▁偁仧	-1950
▁仉側	-1951
▁2001	-1952
亚仠	-1953
▁W	-1954
▁仦仇	-1955
▁the	-1956
▁倱	-1957
仏亙	-1958
▁亅亟众	-1959
交亊	-1960
▁亂债亐	-1961
▁予仆	-1962
▁m	-1963
▁亅亪	-1964
▁亪仒	-1965
▁仮亣亾	-1966
亝亳	-1967
▁付侂亹亗	-1968
亡伧亖	-1969
▁仦倖	-1970
佛亳	-1971
▁些似仆	-1972
了亹亊	-1973
▁亅亸	-1974
▁亪伄会	-1975
▁住优伧亖	-1976
仅仆亿亐	-1977
II	-1978
亷亳	-1979
▁仦們	-1980
▁亖	-1981
▁予人	-1982
了事	-1983
▁云亭伟	-1984
▁予享亴仅予令	-1985
▁亣介亹亊仮亪亇	-1986
▁2014	-1987
依伺	-1988
▁你	-1989
▁些侢	-1990
仡亢	-1991
▁t	-1992
▁亮亾	-1993
▁仉仙仂	-1994
▁亪伄亝	-1995
倾亟	-1996
▁亷僜	-1997
▁修仉亳	-1998
▁仉亅亳仡伄亙	-1999
▁仦仒亖	-2000
▁仉亚仅亥佤亳伺	-2001
▁亅仌亾	-2002
▁价仏亙	-2003
▁予仓	-2004
了伺	-2005
▁井亟亳	-2006
了亹亗仇	-2007
▁佖仏	-2008
▁价仱使	-2009
▁仧佐	-2010
佉亻仏于	-2011
▁仍亅	-2012
▁二仇令	-2013
▁亴伄	-2014
▁价仱予	-2015
▁仦伽	-2016
亹亣	-2017
侐亾亟	-2018
▁佂冃	-2019
▁亓些亿什五	-2020
了亭	-2021
仡亐	-2022
▁亃仄	-2023
仮仺	-2024
▁亣亗仌五	-2025
▁亓亃伡亖	-2026
▁亅元	-2027
▁价仱伪些	-2028
▁仦亗	-2029
伧仇伺	-2030
▁云伿仄	-2031
▁佷	-2032
▁仧亍	-2033
▁亴些五	-2034
▁2.	-2035
▁任产仉佴	-2036
od	-2037
▁侼亗	-2038
▁亓伄伂	-2039
▁予亱	-2040
▁2011.	-2041
▁亅仯	-2042
▁价亭亹亩亖	-2043
亳仳	-2044
▁仦仾予伽仡	-2045
争亟	-2046
▁侫今交	-2047
▁二亣仱予	-2048
▁仦伮	-2049
▁亪伄伮人	-2050
▁佰侫	-2051
he	-2052
佌僸	-2053
▁任倐伺	-2054
▁亷僣	-2055
▁付亦	-2056
▁亃事仍予	-2057
今亪亇	-2058
亃交	-2059
伱人	-2060
▁亓人会	-2061
▁亓人	-2062
▁些伎仅仇	-2063
今亣	-2064
10	-2065
▁侄	-2066
亃亾	-2067
▁价仿	-2068
▁仵亊伍仇	-2069
▁予仯	-2070
亊伐亇	-2071
予亾	-2072
▁今仛亇	-2073
▁仵亊伺	-2074
▁亂僃	-2075
▁佖仛	-2076
亪伄	-2077
▁亓仆仉	-2078
▁任仹	-2079
▁仈侅	-2080
▁仦伿	-2081
些亣佴	-2082
▁些亻	-2083
▁亦	-2084
亃云	-2085
▁伲仡些亳	-2086
▁价亹亊	-2087
ot	-2088
▁付亳侐亾亟	-2089
▁亅仪	-2090
仐亣	-2091
▁亃亳伂	-2092
▁仢侐	-2093
仌亰产	-2094
▁亻俄伃	-2095
▁云以	-2096
▁仉伥	-2097
▁仮互	-2098
▁伕伎	-2099
▁伱仒	-2100
佮仾	-2101
▁侈倘仓亖	-2102
▁亜伇侐伺	-2103
▁仦仕	-2104
▁亪亜伆	-2105
伐享亟	-2106
份仾亇	-2107
伝介	-2108
▁亪佅	-2109
偂伺	-2110
▁伲亖	-2111
仇亏亐	-2112
▁仧僃	-2113
▁交予侦亾亟	-2114
▁佖仙人	-2115
▁井倐	-2116
▁2012	-2117
伕亳	-2118
▁仉事	-2119
▁伇仇些亾	-2120
▁井俥伺	-2121
▁价伔亃	-2122
▁仫侂	-2123
▁云予五	-2124
▁些佝伺	-2125
亏仄亇	-2126
▁仍佤仇	-2127
▁189	-2128
▁价亟了仌亖	-2129
ak	-2130
伟介	-2131
▁亓亃仂	-2132
▁云亻	-2133
▁29	-2134
人予亚	-2135
仌佱仇	-2136
▁俖亳仌亖	-2137
▁亃倚冚伺	-2138
▁价佛亢	-2139
▁价亭佛仇	-2140
仌仂	-2141
▁价俨	-2142
▁今佌僸	-2143
▁J	-2144
▁佡似	-2145
亴亟亇	-2146
▁2005	-2147
仏五	-2148
亶亪亇	-2149
▁今僇	-2150
▁亅亪亣予亐	-2151
仮五	-2152
▁些介亟仺	-2153
人予什亖	-2154
st	-2155
▁伇們侈伇	-2156
▁b	-2157
▁亓亣亷亾	-2158
▁佧人倚	-2159
▁伋亖	-2160
▁伋伝	-2161
侾云事	-2162
▁价亭亅	-2163
▁伇亃	-2164
▁侲僺	-2165
亮亭仮	-2166
▁价僓	-2167
▁仃佚亇	-2168
▁伕仓	-2169
ac	-2170
侐亳	-2171
兒于	-2172
伳亣	-2173
佌伺	-2174
▁价亭了亱亇	-2175
亟俤五	-2176
▁予伿伄	-2177
▁云亊	-2178
▁予亊伝介	-2179
▁仵亊侕	-2180
▁伇亗亇	-2181
仉仂	-2182
仌侀亇	-2183
▁亂亵伺	-2184
▁仉亽亟	-2185
▁仨仩仼五	-2186
▁二侫	-2187
▁亓傒	-2188
伦偠	-2189
伧仂	-2190
仒于	-2191
▁侘	-2192
亅人	-2193
▁仐亟交	-2194
伵亳	-2195
▁份亣伧亟亖	-2196
▁仵亊了	-2197
▁今倜	-2198
▁倇亣	-2199
▁井亩亳亸	-2200
亿亶予	-2201
▁佂亜	-2202
▁份亶	-2203
伉亟于	-2204
些亾五	-2205
了亱亇	-2206
▁亅亃	-2207
▁佂傦	-2208
▁价亟俈	-2209
▁亓介	-2210
▁京于今仇	-2211
▁予倀	-2212
亝仆	-2213
▁伕仱	-2214
▁亽亟	-2215
伐亊五	-2216
▁仦亴亾亟伺	-2217
▁井俄予	-2218
▁亓亣予仮仇	-2219
▁他以	-2220
▁伇佇亳	-2221
ai	-2222
些享	-2223
▁亓倖	-2224
仌仇	-2225
▁井亭些	-2226
▁些俧	-2227
亃亱予	-2228
了什亖	-2229
▁亣亾	-2230
▁价些亾五	-2231
▁侈倘亖	-2232
▁佭仭伨	-2233
▁价僐	-2234
仆亿亐	-2235
仍予伺	-2236
▁2004	-2237
av	-2238
▁亓仺	-2239
亪亙	-2240
▁今予	-2241
亱亖	-2242
▁亅佋事了仞予仌亖	-2243
▁佔五	-2244
事仠	-2245
▁佡交	-2246
▁亅侠	-2247
▁价亳亝	-2248
些亿伽仡	-2249
▁仮些亗仌五	-2250
▁价億些亗	-2251
▁2013	-2252
▁二亍仇	-2253
▁仈亭伉	-2254
ut	-2255
▁亃伖享亟	-2256
▁仐亭	-2257
▁佳亰	-2258
▁予侚亟	-2259
佛仇伺	-2260
▁云仄	-2261
▁仮伫	-2262
▁付亊佋亐	-2263
今亖	-2264
亟亏亐	-2265
▁亓些仔	-2266
亴五	-2267
仡仜	-2268
▁佂什僤	-2269
僙五	-2270
▁亓亳亴亟伳亣	-2271
▁佖值	-2272
▁亪亜亟亳侫	-2273
▁兼	-2274
▁仅儤亸	-2275
伡五	-2276
侐争	-2277
▁2000	-2278
▁份仼亟	-2279
▁亩了	-2280
亜仅	-2281
▁40	-2282
▁亣仇	-2283
▁亅亳些亱予	-2284
▁任仼亭仡亇	-2285
云伿	-2286
▁侈些	-2287
仓了	-2288
▁佢亣云亼	-2289
▁亪亡今仇	-2290
▁亣亭俟	-2291
▁侼仉亟	-2292
亂产	-2293
介人	-2294
伽亊五	-2295
▁价喣	-2296
▁京仛于	-2297
仛会	-2298
▁价仺亣伧亖	-2299
▁亅亾伟介	-2300
▁仦倛	-2301
▁亽争亖	-2302
▁伇仪	-2303
佬仇	-2304
▁予傷	-2305
▁亞倉	-2306
ist	-2307
亥予亐	-2308
▁二亣仱仇	-2309
亨亳	-2310
亝事	-2311
▁价佻	-2312
▁交亵	-2313
▁仦侨	-2314
▁亃交优亖	-2315
▁些什	-2316
▁亮伫	-2317
▁亓会亊五	-2318
▁亓伄伴	-2319
▁亅亾仮	-2320
▁价亹	-2321
▁俾	-2322
▁价亝伎亟	-2323
▁佡使	-2324
▁仁亩亳亸	-2325
▁伋仹	-2326
▁伲争伧	-2327
▁仈亭伉倖	-2328
亟享	-2329
▁付亜	-2330
▁亂亃仓亟	-2331
op	-2332
▁仧亶	-2333
▁云亳亸	-2334
▁亓侲亾伵仉亖	-2335
▁伏了	-2336
▁京亭侵亐	-2337
伮亊	-2338
▁伱侚	-2339
▁仵亊伛享亟	-2340
30	-2341
▁仉仁	-2342
▁劃	-2343
▁亃亇	-2344
▁亓亣予亇	-2345
云亟	-2346
前人	-2347
▁亃介	-2348
▁佰仱亴亾亟	-2349
▁h	-2350
仉亥	-2351
▁交五	-2352
▁佭亃	-2353
▁亂亃亱亇	-2354
▁伕互	-2355
▁188	-2356
亿仆于	-2357
▁伕仭	-2358
▁井伦	-2359
▁佖仒	-2360
亜佦	-2361
予伽伵仇	-2362
▁亃偮	-2363
亳亴五	-2364
▁价于份	-2365
▁亣仱	-2366
亹亳	-2367
▁2016	-2368
▁伕予傧	-2369
▁仦伴	-2370
亾亟亖	-2371
▁仧仱俆	-2372
▁亃仇	-2373
了亹亥产仇	-2374
▁交予令	-2375
▁亅众仅伫伡伺	-2376
▁亞亟侽	-2377
亙亇	-2378
▁亅亭	-2379
▁亓以了亹人亇	-2380
▁保俞	-2381
▁:	-2382
▁仵亊亏	-2383
▁亃俞	-2384
▁亅侫	-2385
▁亴亝	-2386
▁仢俰产	-2387
▁价亭亨亼仇	-2388
▁今亳	-2389
予亶仇	-2390
今亿亐	-2391
仌伡亖	-2392
京亭	-2393
▁亣亭使	-2394
▁份仾	-2395
介仠	-2396
予令	-2397
云仂	-2398
▁予伿伄亟	-2399
▁亪亸	-2400
予亖	-2401
佃仠	-2402
▁价亳佥	-2403
im	-2404
亹亇	-2405
▁亣亭伦偠	-2406
仧五	-2407
俒亖	-2408
仉亗	-2409
仞亖	-2410
仉人	-2411
▁仢亱	-2412
亏伽亊五	-2413
▁侈佃仅仇	-2414
▁井亃伂	-2415
▁亷佇	-2416
▁仉兙	-2417
▁仦侻	-2418
▁in	-2419
▁亣亭亝倾	-2420
偸亾	-2421
▁云了倪	-2422
▁U	-2423
▁侬僿	-2424
伮亾	-2425
▁亟	-2426
▁价享伧亖	-2427
▁仍俯	-2428
亨亟于	-2429
40	-2430
▁伊	-2431
▁仦些亸	-2432
▁亻伃	-2433
▁仍侐	-2434
亝仇	-2435
佮伿	-2436
▁予亾云	-2437
交五	-2438
侘仓仅	-2439
▁31	-2440
▁予僂亾伧亖	-2441
▁亽僋	-2442
▁亷亳亸亇	-2443
伧亰产	-2444
争侀	-2445
▁亅亟亸	-2446
▁佂傦仺	-2447
▁仦伴仉亖	-2448
▁亞伤亹亗于	-2449
傍亐	-2450
▁伇亂	-2451
▁云伊亴仅	-2452
仡予亐	-2453
▁二亥	-2454
▁O	-2455
了伂亇	-2456
▁亓亳仁亏	-2457
亚仕亇	-2458
亾亊亇	-2459
▁亅众伕亾	-2460
▁仧偷些亾	-2461
▁仵亪亣伧亖	-2462
▁佂侏	-2463
伵仄仌亖	-2464
亹人些于	-2465
▁份仼	-2466
▁亮亭云	-2467
亾亟亇	-2468
ig	-2469
▁亪亣	-2470
▁侫亃佇亳	-2471
▁交亪佛	-2472
▁予伂	-2473
-19	-2474
▁二享	-2475
亽人	-2476
▁亻侘了	-2477
▁仮亾亟俤五	-2478
▁井亊五	-2479
▁亷亳众	-2480
▁井仭	-2481
▁仦些于	-2482
▁伕予侃	-2483
▁and	-2484
▁价佇亟亢	-2485
▁仵亊亭伟	-2486
亪亣伧亖	-2487
▁V	-2488
▁亅会	-2489
▁仍亜伎	-2490
▁佳俙	-2491
亅亊	-2492
▁伲仿	-2493
亙予亚	-2494
亰便	-2495
▁予亸亨	-2496
僂伺	-2497
亍于	-2498
▁仉仅	-2499
亭佛仇	-2500
▁亓些五	-2501
仡仠	-2502
伽仡亇	-2503
仅什	-2504
伮亜	-2505
▁俖亳亇	-2506
▁今剅	-2507
▁仧仓	-2508
▁亃仯云	-2509
▁二亣从	-2510
云仒	-2511
▁予亭于	-2512
佃仅予	-2513
亜亟亇	-2514
▁亅亟亍人亻仏于	-2515
▁亅亾侫	-2516
ang	-2517
▁仐仺些仇仌五	-2518
▁予亳	-2519
▁云亗	-2520
▁仝事	-2521
▁二亼以	-2522
▁仦亴仅	-2523
仞亘	-2524
og	-2525
▁仍亜亝	-2526
▁仐仂伂	-2527
▁亅仪亟	-2528
仂亟	-2529
▁亓佊	-2530
▁亻仆	-2531
▁伇了	-2532
▁亷互	-2533
些亿亚	-2534
仄五	-2535
亼于	-2536
▁价侈	-2537
▁佧伄	-2538
仡亜	-2539
些亿什五	-2540
▁仦亩亳	-2541
▁仍亜伅伺	-2542
▁仨佋亐	-2543
▁仝五	-2544
▁修俻	-2545
▁亂亵众	-2546
▁伕亾伟	-2547
亻亭	-2548
▁今僉	-2549
▁仉云傣	-2550
亭仮仺	-2551
▁侈今	-2552
▁亓仄亪	-2553
▁亣亭今	-2554
▁价亟亨	-2555
▁1990	-2556
▁亅佋事了仞予亇	-2557
伧互	-2558
仌佱予	-2559
▁价伖亇	-2560
▁亞亟亠亡	-2561
亟令	-2562
▁些亭亻亼仇	-2563
▁仦仇于	-2564
亹作	-2565
付亳	-2566
偁仧	-2567
▁仍亳	-2568
▁亓亊倫	-2569
▁仵亪亙	-2570
亃仮仇	-2571
侫些亳	-2572
▁仸伄伡伺	-2573
仁事	-2574
▁二侢	-2575
▁仦偁令	-2576
▁亂亃俢	-2577
佛仂	-2578
傱亓	-2579
▁仃佚些于	-2580
▁仁亃仂	-2581
▁佰亳亳	-2582
伇仂	-2583
仧仏亙	-2584
▁亪亡今予	-2585
▁伇亃佤	-2586
亹人会亇	-2587
▁仉亽亟予伺	-2588
予仌亖	-2589
▁井伓亊	-2590
▁今亴	-2591
▁亣亭云亸	-2592
予亏亐	-2593
▁亂佹	-2594
▁佂什仅仇	-2595
▁俖付	-2596
▁付亖	-2597
▁住优亮亟	-2598
▁側仇些亾	-2599
傱价	-2600
▁云促	-2601
仡亡	-2602
伧伡亖	-2603
▁价仌介亹亊仌亖	-2604
▁井亭今了亹亗	-2605
▁亣亭些侾云事	-2606
▁些亟亣亖	-2607
ter	-2608
亣亭	-2609
▁亃代亦亟	-2610
▁仫交	-2611
▁亃凷	-2612
亹人亻佬伺	-2613
人亙	-2614
刻五	-2615
▁亂倾亟	-2616
▁佰伇	-2617
▁伕亳俔	-2618
儯交	-2619
▁仉仆了	-2620
▁侫互亱	-2621
▁仐仺些仇亏亐	-2622
▁亃亪亣	-2623
▁予仑	-2624
予亦	-2625
▁亪做	-2626
▁亣仏五	-2627
予亚仜	-2628
侅亟	-2629
▁仈仔	-2630
亃仓亖	-2631
▁仧亳亃云	-2632
▁佧人倚事	-2633
▁仦伉伊	-2634
▁亓亊佉亇	-2635
▁仮仒亇	-2636
▁亅亪亣仅予	-2637
▁亓亡	-2638
▁今仕	-2639
▁侫亭	-2640
▁亓仛亝	-2641
传仓	-2642
▁亻仱云亇	-2643
▁价伥亟亘	-2644
▁价事	-2645
▁亣亳	-2646
伇亖	-2647
60	-2648
仒亖	-2649
▁亮侓	-2650
11	-2651
仅亃	-2652
▁俄	-2653
亗亖	-2654
▁亽亸	-2655
▁云亾仅	-2656
▁伲亼些	-2657
▁亽人予什五	-2658
ce	-2659
伧伊伆	-2660
▁仐亡份	-2661
云亏仄亇	-2662
▁井仆	-2663
仭人	-2664
▁仉亻亃亇	-2665
▁仦予伂亇	-2666
佃令	-2667
倅亇	-2668
▁亓伤	-2669
▁伲仱亗	-2670
介令	-2671
▁二僻	-2672
侫今交	-2673
仍伺	-2674
佧传仓	-2675
予亶亪亇	-2676
予什仓亭伟	-2677
▁亪仄	-2678
▁亴侪	-2679
▁侫亟	-2680
▁亣介亹亊仌亖	-2681
ud	-2682
亟予亇	-2683
▁价侫亱	-2684
亦仠	-2685
伅仞	-2686
冝五	-2687
佋什五	-2688
些什	-2689
亝些伺	-2690
▁()	-2691
▁仧侘	-2692
▁价俤	-2693
亂予亇	-2694
亻佬五	-2695
仌伊伆	-2696
▁仉亚伂	-2697
▁予俔伧五	-2698
会令	-2699
▁亽五	-2700
▁仍伎	-2701
▁井亟们	-2702
▁3.	-2703
▁亣偞	-2704
佃仕亇	-2705
▁二佚亖	-2706
▁亓伐亅	-2707
▁亂俌	-2708
▁仦亻亟些伫五	-2709
佇仅	-2710
▁佖伝	-2711
佇亖	-2712
▁云了倪伎	-2713
▁仉亟	-2714
▁亂儓	-2715
ath	-2716
仰亿亐	-2717
亳伪	-2718
▁予傥	-2719
ra	-2720
▁1980	-2721
▁价仄偢伧亖	-2722
▁二亖	-2723
仯亟亖	-2724
▁亂亃亱些于	-2725
12	-2726
▁仦値	-2727
使仂	-2728
▁亓亭佽	-2729
▁仈亭亽亐	-2730
▁仉偞	-2731
亹亊仉佴	-2732
付倿	-2733
亏亶亖	-2734
▁亓以了亹人	-2735
▁側仇	-2736
▁京亭亝	-2737
▁二仛伅仆伺	-2738
▁仉亦	-2739
亚令	-2740
▁付亨	-2741
伨仆伺	-2742
▁仃仄余仺	-2743
▁井仺亙	-2744
▁亩云	-2745
▁亴亡	-2746
▁亻享仡亇	-2747
▁w	-2748
▁亣亗亇	-2749
▁仦些伺	-2750
▁亣亭佧传仓	-2751
▁亂会	-2752
介仕亇	-2753
仺亙	-2754
▁亅仄伺	-2755
会俥伺	-2756
些亃佱予	-2757
▁仵亊伉亟于	-2758
▁予侚亟伄伂	-2759
▁亓仧	-2760
att	-2761
▁亻伄亝些	-2762
亹位亃	-2763
▁187	-2764
▁些亰	-2765
▁仦亻亟仇	-2766
▁二于	-2767
▁价伔云亖	-2768
予仠	-2769
▁任俩	-2770
▁仧佐佑	-2771
▁价亭佝亰亇	-2772
伜亡	-2773
▁剛	-2774
些亃佱仇	-2775
▁俠亝	-2776
▁他伓	-2777
▁伲亾亖	-2778
▁佧亭	-2779
▁亷僜伕亳亇	-2780
亃侃	-2781
▁亓侲亾伵仉五	-2782
▁二亣伍	-2783
伉亖	-2784
▁些亭亻佬伺	-2785
▁倧亊予	-2786
▁价亟佇亳	-2787
▁亴仏伨予	-2788
俟亟	-2789
仌仇伺	-2790
▁仉仆仡	-2791
▁仈亭些	-2792
25	-2793
▁保亟	-2794
▁云亣伣	-2795
人会亇	-2796
▁些仇	-2797
ip	-2798
▁2003	-2799
▁亅享予亐	-2800
all	-2801
▁予亊佛	-2802
▁亅予	-2803
▁倧伺	-2804
▁伕予傧仒	-2805
侦亟	-2806
▁亓伩	-2807
▁价些亭享亟	-2808
▁佰亳亳侫	-2809
▁60	-2810
▁伋偞	-2811
▁亃会些	-2812
▁予仯云	-2813
▁佖仙人仌	-2814
亭了亱亇	-2815
仄亘	-2816
up	-2817
侈仉	-2818
▁二亵	-2819
些亾伥	-2820
▁伲仡些亳会	-2821
▁井亝亳	-2822
伇仇	-2823
▁佖值仯亖	-2824
亊交亭伟	-2825
▁二亍亩亖	-2826
▁交了	-2827
▁佖仏伅仞	-2828
▁亷些	-2829
▁傴五	-2830
▁予佛	-2831
二仳	-2832
18	-2833
仉仇	-2834
▁佽亳仆	-2835
仱亃	-2836
些亿亶予	-2837
▁仦予会	-2838
▁些仞亏亹亗于	-2839
亏亖	-2840
佢伺	-2841
▁佳债	-2842
伨仯亟	-2843
▁亅亏什	-2844
▁亅仌亾伎	-2845
▁亮亭亯佁	-2846
亨五	-2847
▁佳亾亟	-2848
▁井亭今了亹亗于	-2849
云亾	-2850
ers	-2851
▁佂什伧亊亹亗于	-2852
▁仍亣	-2853
9.	-2854
▁价亭些亭亇	-2855
▁亃伿	-2856
▁亂亃五	-2857
互仉	-2858
▁亓些亿仆于	-2859
兺伺	-2860
些亣	-2861
似俔	-2862
2.	-2863
事仕亇	-2864
▁2,	-2865
▁云仌	-2866
▁亴亦	-2867
了仆	-2868
▁仍倈	-2869
▁任儅	-2870
▁仉亚今予	-2871
侵亐	-2872
▁付亡	-2873
▁仧倔亭仮仺	-2874
▁予仼	-2875
▁侫仞侇	-2876
什亰亇	-2877
▁仐仺仉	-2878
▁仈于	-2879
▁亓亾亟	-2880
▁亅亣亱予	-2881
佇五	-2882
▁亻俄伃亗伺	-2883
优亟	-2884
▁于仏	-2885
▁井俥	-2886
▁n	-2887
▁仍亜予伺	-2888
▁仢亱伩	-2889
▁井仄予令	-2890
▁仉亻亃	-2891
▁伇亂亩	-2892
人了	-2893
▁亻仱云仠	-2894
亽亃伺	-2895
今仇于	-2896
▁亞亟伌	-2897
▁亽侵亐	-2898
▁二亻	-2899
▁云亵伺	-2900
亷仇	-2901
伧亊亇	-2902
▁亷亗	-2903
亹亃佱予	-2904
伡亿亐	-2905
▁二人会伵作予	-2906
付亢	-2907
▁佭佝	-2908
▁云亳亅	-2909
▁亓亘亣	-2910
▁亅亟亍人亝亹人亇	-2911
侐亜	-2912
供仓	-2913
▁价些伫五	-2914
▁亅伟	-2915
▁亪仞倾予亐	-2916
▁亃伉	-2917
▁亴仙	-2918
佅人	-2919
▁亻亗	-2920
▁亓亘仕亇	-2921
仯伧五	-2922
▁0.	-2923
伇仮仇	-2924
了亜	-2925
亹亗仇伺	-2926
亨佬亿亐	-2927
亅争	-2928
▁予仑仓了	-2929
▁亅促	-2930
▁佰亭伟	-2931
▁佢仄	-2932
佃仜	-2933
▁亓亗	-2934
佝亖	-2935
▁价仏佛	-2936
▁佢仆亇	-2937
▁亂亃倱	-2938
▁今儾	-2939
▁亅仄亭亇	-2940
仉仓亭伟	-2941
倨亇	-2942
▁些亸	-2943
▁仦伸	-2944
亹亩予	-2945
▁亽亇	-2946
亜予亐	-2947
▁价些仔	-2948
▁仁亣	-2949
佋伽亇	-2950
▁仍仄	-2951
▁些亗亇	-2952
▁仈亙	-2953
亊伺	-2954
▁价俽于	-2955
▁亂侞仒	-2956
▁予亗亘	-2957
▁予亜仇	-2958
会产于	-2959
▁亃仯亹亗	-2960
偸俞	-2961
▁亓伄仉亟	-2962
▁仵亊伉伡伺	-2963
亦仕亇	-2964
仮伡伺	-2965
15	-2966
伨人	-2967
▁井仄亻亖	-2968
▁今供仓	-2969
▁2002	-2970
▁亓亭似俔	-2971
▁井伧亳伪	-2972
予仮予	-2973
今亻	-2974
▁任倐亊	-2975
▁亅亊亇	-2976
▁伏仅什	-2977
▁予仞予亇	-2978
▁佰傒	-2979
些亿什亖	-2980
▁云亱	-2981
亻佚伺	-2982
仐仄亇	-2983
▁付仌亳	-2984
▁伇仮	-2985
▁亪亣介	-2986
▁仍享亮仺亇	-2987
▁仉亚仅亜	-2988
▁仧亳亣仐亣	-2989
▁亅伂	-2990
▁井傤	-2991
▁亅债亥亢	-2992
▁价儐	-2993
▁价佲伎	-2994
▁亣仱仉亊	-2995
▁仁件	-2996
▁亞伾于	-2997
亴亖	-2998
仯仠	-2999
▁仉亅	-3000
亲亳	-3001
▁亓促	-3002
▁些亜些亇	-3003
▁亓佲	-3004
▁京伄伧亟亖	-3005
予偢	-3006
▁亓亘伟产仇	-3007
▁亴仄伺	-3008
伐亐	-3009
佇亳亇	-3010
伨五	-3011
▁亃亊	-3012
▁亴些亮亭仮	-3013
仦伉	-3014
▁仁伛	-3015
▁亃仯亝	-3016
▁井伧亾仇	-3017
▁价亟亱	-3018
▁佧亖	-3019
▁亅众仅伫	-3020
▁亷亸亱亇	-3021
伿亇	-3022
▁予仇位	-3023
▁仅仂	-3024
亸五	-3025
佃亢	-3026
▁亷亃	-3027
▁仦仞	-3028
亹众	-3029
▁/	-3030
仞仡	-3031
▁亩倿	-3032
▁仈仓俟	-3033
▁亴今	-3034
▁亅偿	-3035
伵人	-3036
▁亅亟仴人	-3037
云亳	-3038
侺伺	-3039
▁佳亰佉	-3040
▁佢仱	-3041
▁亃交仞伺	-3042
▁亣伇侐伺	-3043
▁亓亏	-3044
侦亭仮	-3045
▁佖仙亗于	-3046
]].	-3047
▁仧亳亩仇	-3048
予伽亐	-3049
▁些佊	-3050
▁仦仕亃	-3051
▁亴仺些	-3052
予伽伵予	-3053
▁+	-3054
▁佖伌	-3055
▁些优亂亡	-3056
▁于众	-3057
▁价亊倗仒	-3058
▁佳倀	-3059
▁井傩伺	-3060
▁亅亊仌亖	-3061
▁傴事	-3062
亗仇伺	-3063
▁亅亟亍人亇	-3064
▁伎亹伫	-3065
亥亢	-3066
▁些俧予	-3067
1.	-3068
▁侈仉	-3069
亹亥产	-3070
▁价亟佉	-3071
▁价侫亱交亟	-3072
▁云亭会些云仂	-3073
▁予亗亘亙	-3074
▁仐予債	-3075
▁1970	-3076
▁亓亘佛于	-3077
▁伲亼些仔	-3078
伨亪亇	-3079
仈亭	-3080
▁佖仂亟	-3081
80	-3082
▁交傌	-3083
▁仧倔亭亇	-3084
▁伇侍亃亳	-3085
▁仢仄	-3086
▁仉仆侐亳	-3087
了仠	-3088
▁亅亣亙	-3089
亜五	-3090
▁仢亯	-3091
▁亷五	-3092
▁仍亜予	-3093
▁予僳	-3094
▁云亷仱	-3095
▁亅产	-3096
▁些仹	-3097
▁价亭佝亖	-3098
ev	-3099
▁予侐	-3100
▁价享佂什	-3101
▁亂仯	-3102
▁亪今	-3103
儽什	-3104
▁付亊佋亚	-3105
▁亓侠	-3106
▁亮亭亘	-3107
▁亓伥	-3108
位于	-3109
▁于亭	-3110
▁仧亳使仂	-3111
▁亅仱云	-3112
互亐	-3113
▁些仞佉亇	-3114
▁亂亡亘	-3115
▁亂亜仅于	-3116
▁In	-3117
▁云亳亅伪	-3118
亙令	-3119
▁予侾	-3120
▁亴亃	-3121
▁亷伸	-3122
偁伲	-3123
仕享亟	-3124
▁俖亳亜	-3125
oc	-3126
▁佞仱	-3127
▁伇云亟亇	-3128
伿五	-3129
▁于亡伧亖	-3130
亹争亭仡亇	-3131
▁仦体	-3132
▁伕互伏	-3133
ab	-3134
▁予俈	-3135
亹人亝亹亗	-3136
▁仐仺亝	-3137
▁份仺亅	-3138
-2	-3139
伪亇	-3140
亹争仇亇	-3141
▁亅亥	-3142
些亳亇	-3143
仂仕亇	-3144
▁亴些予偢	-3145
仁伺	-3146
▁二佚亰亇	-3147
▁井仺伮仇伺	-3148
伮侀	-3149
▁伥些	-3150
▁伷	-3151
佝亰亇	-3152
▁仦亴亟	-3153
▁仦亅	-3154
▁云事仅仆	-3155
▁亂佥	-3156
▁亓些亿伽仡	-3157
仧亳	-3158
▁仉儽什	-3159
亱仆亿亐	-3160
▁1960	-3161
▁亅亻	-3162
ow	-3163
些倖	-3164
▁任事	-3165
亝亗	-3166
▁佞仞	-3167
▁予亊仙	-3168
▁仦亻亟些伫亖	-3169
▁亭	-3170
▁侍亾	-3171
亨亟亇	-3172
亹五	-3173
▁佽佾	-3174
予仌五	-3175
▁亓亜亹享仅予仠	-3176
▁予侢	-3177
▁伲仄份	-3178
▁仸仏亹人亻仏于	-3179
▁付众	-3180
▁亓倥	-3181
亿亚仠	-3182
▁些亭今倿	-3183
▁亞亭	-3184
▁今偙	-3185
▁仍倨	-3186
仡亾亟	-3187
佇亭仡亇	-3188
▁价亟了亇	-3189
▁井亡	-3190
▁付仼	-3191
▁亓亘仟	-3192
了亢	-3193
▁80	-3194
▁价亭亹于	-3195
佛仇	-3196
享伧亖	-3197
▁亓交仄亇	-3198
亟佘	-3199
▁亅仞佉亜	-3200
▁亓仂会亇	-3201
▁仈伮	-3202
▁井仏伂	-3203
▁今倽	-3204
▁186	-3205
▁侹	-3206
▁倠	-3207
▁償	-3208
仱亇	-3209
▁亂倀	-3210
▁亴事	-3211
▁仉些亾	-3212
亿伽亊五	-3213
亃仆	-3214
▁亂俌亸	-3215
▁亪伄伮亊亝了于	-3216
佚亖	-3217
▁仦俄	-3218
▁井伧伺	-3219
今仺	-3220
▁亂亳	-3221
▁呒	-3222
争仠	-3223
▁仝俐	-3224
予亊	-3225
▁亞伳	-3226
▁任亜	-3227
▁仮事	-3228
▁亪亭亣	-3229
▁价些介	-3230
▁二仛伅仆	-3231
▁仈亝	-3232
▁仦佇亳	-3233
▁仦伉伊亟	-3234
▁侍仟	-3235
▁亅享伞	-3236
▁价亭佛仇伺	-3237
▁云伧	-3238
3.	-3239
伫亰亇	-3240
▁亓亟仯	-3241
仌亭佛仇伺	-3242
估亚	-3243
▁侰亃	-3244
予亳亇	-3245
ec	-3246
7.	-3247
▁亓了	-3248
伨亊	-3249
▁仫仄亇	-3250
佛亇	-3251
▁今仯亟	-3252
▁二仛亣仕俥伺	-3253
亭仉	-3254
亩亳亇	-3255
ik	-3256
▁亷仄予	-3257
▁仍伎傒	-3258
14	-3259
▁二亰便	-3260
▁仦伫五	-3261
▁35	-3262
▁价亳伂	-3263
▁任仼亭佛	-3264
▁今予仇	-3265
亊佉	-3266
会仡亜	-3267
▁亅亳亙	-3268
▁亅亳仉	-3269
▁亂亨亟会些亇	-3270
亱仇于	-3271
亏伽仡亇	-3272
伉伡伺	-3273
▁予亩付	-3274
亙亳亇	-3275
▁亓伐伮	-3276
▁亅亟亸亇	-3277
云了亐	-3278
▁亓伄伟	-3279
▁佧亭了	-3280
伮亳云众	-3281
仌亳仌亖	-3282
▁亂亡仅予	-3283
▁亓伄亪伄	-3284
▁亷亟	-3285
▁俖付仆	-3286
▁二亍些仱亖	-3287
▁亻亗亝亗	-3288
▁俸仉亟	-3289
▁亮亭亏	-3290
亦令	-3291
▁云促亐	-3292
▁仃仄余互	-3293
▁予互	-3294
▁佢亾	-3295
▁仦予僫	-3296
▁价偸俞	-3297
▁价仹	-3298
▁亣介亹亊亏什亖	-3299
▁任仾产仇	-3300
▁付仼亟	-3301
▁侍亟	-3302
▁仈亥	-3303
▁仈伀亟	-3304
▁佖仙亊	-3305
▁亓亳仗	-3306
▁俖亳亜仅予	-3307
仇亖	-3308
▁井亅伇	-3309
▁仁仌亟	-3310
仺亝	-3311
亾了佶	-3312
▁井仄予亇	-3313
▁仉偞亟亇	-3314
▁亻亾了佶	-3315
亏倞	-3316
▁予亵	-3317
争伧亖	-3318
▁仍予仱俔	-3319
▁伕于俌佥	-3320
70	-3321
▁二人会仠	-3322
二亇	-3323
亞伤	-3324
▁仉亳	-3325
▁份亚	-3326
了伽亇	-3327
▁仨佋亚	-3328
▁些亜仉亖	-3329
▁二仛亣伡伺	-3330
仃倫	-3331
伿伺	-3332
交了	-3333
些仆	-3334
佝五	-3335
▁亂亜亟	-3336
▁亃仅亾亙	-3337
▁侈僧人了亹作伺	-3338
佦人	-3339
▁亞佚伺	-3340
▁仮亃仌亖	-3341
▁京亭佄	-3342
▁些亜些亘亙	-3343
▁仍予伺	-3344
亰佃伧亖	-3345
▁亪伄亨仏于	-3346
▁仧亳亅仄仮仇	-3347
▁(2	-3348
▁付亻	-3349
▁价亹亪亣	-3350
▁价僛	-3351
▁予仛	-3352
▁仦佬	-3353
▁儣仉	-3354
16	-3355
亸仌亖	-3356
▁侺会仡亜	-3357
▁伃五	-3358
余人亇	-3359
仉人亇	-3360
▁仵优傹	-3361
▁价佛仜	-3362
▁亻享了	-3363
佦予	-3364
▁亣亗交	-3365
▁价伦	-3366
▁仈什亅亳	-3367
亗五	-3368
3)	-3369
▁亃予	-3370
▁185	-3371
▁井亙	-3372
▁亃仛	-3373
▁亓伦	-3374
仮予令	-3375
▁仍亊仇	-3376
▁亂仂些伺	-3377
▁亓享仅仆亇	-3378
▁井亅伇亵亣	-3379
▁仉仆佉亻仏于	-3380
▁保俻	-3381
▁亷亃亖	-3382
亿亚仕亇	-3383
▁亓亷	-3384
▁价亭便	-3385
▁伃仒	-3386
▁伱亗	-3387
亥仡	-3388
▁亮仺亇	-3389
▁佭亃亳	-3390
▁亅侏伧亖	-3391
▁价侤	-3392
▁亂亭予五	-3393
▁仍予亾五	-3394
35	-3395
▁亮亟亾	-3396
▁伲偋	-3397
▁佤人	-3398
▁亞伤亹亥	-3399
仏伂	-3400
▁些亪亙	-3401
▁".	-3402
伨仇于	-3403
▁任侔亇	-3404
▁云了伽仡	-3405
75	-3406
▁价亃亟	-3407
▁份亶伩	-3408
▁亮亾于亇	-3409
▁亂儂	-3410
▁价佉产	-3411
些伇	-3412
▁亅亳亹仆伂	-3413
仄亟亇	-3414
侫些亳伺	-3415
ate	-3416
▁予些仯	-3417
▁价仆亇	-3418
▁井仺伮仇亿亐	-3419
予事	-3420
▁32	-3421
仯亊亇	-3422
▁二仛亃亹亗	-3423
仓亭	-3424
▁些亳亱伫亖	-3425
了亦	-3426
些亣亖	-3427
▁二仛于	-3428
▁井亾亟	-3429
▁4.	-3430
亏亚亢	-3431
▁亃亭亇	-3432
▁予亭亣	-3433
▁亞亰亝	-3434
▁亓亳仗仂	-3435
▁仍享亮仒于	-3436
▁仦倆	-3437
▁价仄仡	-3438
▁仉仌仅	-3439
1,	-3440
▁伇亾仅仇	-3441
仉仄	-3442
仏亇	-3443
▁亃佱仄	-3444
▁些伎予亐	-3445
4)	-3446
▁亅仹	-3447
▁仉亭亹	-3448
▁俖亳亏什亖	-3449
▁仉側亟	-3450
▁价亟俦	-3451
▁亪伄僤人	-3452
亾仠	-3453
仉亊亇	-3454
仓亰亇	-3455
▁侍侎人	-3456
▁亴仺予亦	-3457
予仄	-3458
▁亓亗些倖	-3459
▁亻仱云仌亖	-3460
仓亭佛	-3461
▁1999	-3462
4.	-3463
付仄	-3464
▁仧债	-3465
亩亰亇	-3466
▁(200	-3467
▁亷仉	-3468
了什	-3469
▁二佻仺	-3470
▁亓享亟	-3471
▁仍亜会俥伺	-3472
▁仮亸些亿亐	-3473
▁亷佛	-3474
▁亅伅	-3475
▁予亊伂亐	-3476
ine	-3477
伽伵仇	-3478
▁亮偷些亾	-3479
▁亽云	-3480
伔亇	-3481
▁予傷亥	-3482
▁价亭仡	-3483
▁佳债伮	-3484
仦伉仄亇	-3485
▁亃仯仅伺	-3486
▁仉仛亙亳亇	-3487
▁亘亟亇	-3488
▁伱伀亟	-3489
▁予亥介予亐	-3490
▁仉亗	-3491
▁亮亟介	-3492
▁亓你	-3493
▁亪亊	-3494
▁亽佥	-3495
▁于亡亂予	-3496
刡伺	-3497
亷亳亇	-3498
▁亂亜仅亃	-3499
事亢	-3500
▁亓使	-3501
仚亭亐	-3502
▁仦倌予亐	-3503
▁亽仱亟	-3504
▁亅亟亍人亝亹人亻亼仇	-3505
--	-3506
▁侍亜	-3507
▁予些仇	-3508
▁亓亜了亜	-3509
傠們	-3510
▁井亭今仇	-3511
仅于	-3512
佋伽仡	-3513
▁亣仏亘	-3514
46	-3515
▁or	-3516
▁亽什亖	-3517
▁任仾产	-3518
亽亥	-3519
▁亪伄亙	-3520
▁a	-3521
仹于	-3522
▁些仼	-3523
予伂亇	-3524
仅亪	-3525
▁仐亡伂	-3526
▁佂什仅仇于	-3527
▁今伧	-3528
亟仒	-3529
▁亓伉	-3530
仌亭佝伺	-3531
▁伕仂	-3532
▁予仄佃	-3533
▁亷僣五	-3534
▁1996	-3535
▁付亾	-3536
▁仸仺亻仏于	-3537
▁仦了	-3538
▁佭亃仱	-3539
▁2017	-3540
▁价亊于	-3541
亹亩亖	-3542
▁75	-3543
▁卢	-3544
▁仐仺些亹亗于	-3545
些予	-3546
▁亓些伫亖	-3547
▁些优付	-3548
▁亓亴	-3549
▁亓亭亻	-3550
▁亓仓	-3551
▁亇	-3552
仏佛	-3553
▁修俻仯	-3554
仮仒	-3555
▁亅嘃	-3556
▁亪侐	-3557
▁侼亳	-3558
侦亭仮亐	-3559
亽亃伕亳亇	-3560
偭五	-3561
ity	-3562
▁$	-3563
▁亪仭	-3564
▁佞亳	-3565
17	-3566
伇亾	-3567
▁俸仉亟亢	-3568
剗伺	-3569
▁伇云仴	-3570
▁亷云	-3571
▁亓伐亹	-3572
仉亗于	-3573
▁伇亏亇	-3574
▁些亭亻亼仇伺	-3575
ard	-3576
8.	-3577
亙亢	-3578
优伂	-3579
▁伲于亇	-3580
▁伕亳亃	-3581
▁亷争亰亇	-3582
▁仱佔	-3583
▁云亥云	-3584
▁井亟倂	-3585
▁仢仙亳	-3586
▁些介亟亡	-3587
仉亭	-3588
▁佢亜	-3589
▁仮仐仄亇	-3590
▁亪仆	-3591
伐仡亇	-3592
▁些仄于	-3593
▁予亥仮仇	-3594
▁今仇	-3595
ess	-3596
▁价佇亟令	-3597
▁佖仙人亝	-3598
▁保俻仯亟	-3599
▁仢伊	-3600
▁予作	-3601
▁亓佥	-3602
▁侼倌	-3603
▁亅亟仇	-3604
▁仦伡亰亇	-3605
俢亡	-3606
偁付	-3607
▁亃债	-3608
▁70	-3609
▁侲僺亭亐	-3610
▁亓亘亙予亐	-3611
▁井亟亳仌亖	-3612
▁仁仿	-3613
▁仧仙	-3614
▁伱互仉	-3615
39	-3616
▁侍享	-3617
▁些亟亣	-3618
▁仨仓亖	-3619
▁仵亊亾亖	-3620
▁任人会	-3621
▁亓些亾五	-3622
仅五	-3623
▁佂什伧作伺	-3624
亻仏	-3625
▁价亃凹	-3626
▁仸亗众	-3627
▁价亟俈亟亖	-3628
ian	-3629
▁份仺付	-3630
仾予亐	-3631
3,	-3632
仄亟	-3633
▁45	-3634
▁仦仉	-3635
▁亓仆仉亱仇	-3636
▁仧亳侈伇亇	-3637
伟产于	-3638
▁予傥众	-3639
▁亪亜伧亭	-3640
▁亅亟亍人会亇	-3641
亚亟	-3642
佼伎	-3643
▁亅亣伡	-3644
ph	-3645
▁亣亭侐	-3646
▁亞偮伧亖	-3647
▁伎于	-3648
些亃五	-3649
▁仮佬予	-3650
▁任人亝	-3651
▁侫亭了	-3652
▁价亱	-3653
▁价伔	-3654
▁仉亭俟	-3655
2)	-3656
俞亡	-3657
▁亓佛令	-3658
▁1998	-3659
佛五	-3660
▁付事	-3661
侘仓亟	-3662
▁亮伫亭	-3663
介亹亊亇	-3664
亳令	-3665
▁价仆些亳	-3666
▁仍亜会产仇伺	-3667
▁亃伮	-3668
▁亪亳	-3669
▁伱仿	-3670
▁仈亍于	-3671
2,	-3672
▁仈仛佉	-3673
了亗	-3674
亽亃五	-3675
▁仦伡伺	-3676
仍僂伺	-3677
▁仃亝	-3678
▁伋伔	-3679
▁佂亪	-3680
些亿伽亇	-3681
▁仍予亳仌亖	-3682
俞五	-3683
亊予亇	-3684
▁仉亾伂	-3685
伨亦	-3686
▁亣亳些	-3687
45	-3688
▁亂亡予亐	-3689
▁佳佪	-3690
▁僕仇	-3691
▁亽争	-3692
些佛	-3693
▁二仜	-3694
亽亟予	-3695
▁价些五	-3696
予云	-3697
▁云伊亴亟	-3698
▁亷仄亏什亖	-3699
6.	-3700
亳倖	-3701
仓亊	-3702
▁佞人	-3703
人亃亖	-3704
▁亞亟凄	-3705
▁亴亏仆	-3706
▁亮亟亾亊	-3707
▁井亸俕	-3708
▁亞伤亹人亇	-3709
伧亭佛	-3710
佇亳五	-3711
▁价伅仓	-3712
予佀	-3713
▁二仄	-3714
▁井亭今亪亇	-3715
伨亨	-3716
▁伇互	-3717
▁亴伄于	-3718
亹争亭佛于	-3719
▁仐亰佃伧亖	-3720
90	-3721
ov	-3722
▁亓亘伮五	-3723
佬亿亐	-3724
▁份仺付人	-3725
任产	-3726
▁仧亵众	-3727
▁份侄伺	-3728
▁伇了亳	-3729
▁亪仉	-3730
▁井亭今仡亇	-3731
▁付仱伽云亼	-3732
优亙	-3733
▁二侻	-3734
▁价侠	-3735
▁伲亾	-3736
▁仧亾争	-3737
亅亪亙	-3738
▁亞倍仏于	-3739
▁仸人亃亖	-3740
仧亟	-3741
亿伽仡亇	-3742
▁亃事仍予亳	-3743
▁亓仂些亭亇	-3744
ant	-3745
▁亷交	-3746
亨享伆	-3747
▁仍傒	-3748
▁侫佛	-3749
▁偁付	-3750
▁亞亟亱	-3751
▁付亜亟	-3752
▁侍亟便	-3753
▁仸人亃亱予	-3754
任伿	-3755
▁份佥	-3756
▁1950	-3757
云仯	-3758
▁伕佅	-3759
▁亓俽	-3760
ob	-3761
▁伕仱亸	-3762
▁俸亜亟亇	-3763
▁亃事亘伧亖	-3764
▁仉亭便	-3765
▁仮仍予	-3766
▁仦亳侐仌亖	-3767
亹亊亱亇	-3768
▁亞亟伸人	-3769
▁仐亭今亻	-3770
▁仦伮亾伵	-3771
▁价仿亇	-3772
▁二仓	-3773
▁伋会	-3774
▁价亡些	-3775
▁1989	-3776
▁佰亳亳亴五	-3777
亊伡仇	-3778
▁亅亾俸	-3779
▁予亗亹亗	-3780
▁亞亟仙	-3781
▁亩仡亃	-3782
互仡	-3783
▁付偋	-3784
▁亷亸亹人	-3785
傱仦	-3786
▁价以	-3787
▁亷些亖	-3788
▁今仡	-3789
▁仧亳俤	-3790
▁今仯亟亖	-3791
4,	-3792
ell	-3793
▁予伝	-3794
▁佂仿	-3795
▁仉仄亻	-3796
仇份	-3797
仝伺	-3798
仟仠	-3799
作五	-3800
冉仅	-3801
▁仫亳	-3802
▁二亹亜	-3803
▁亅亪亣予亚	-3804
佰亴	-3805
▁亓仇	-3806
▁伇佛	-3807
▁仉仆佉	-3808
▁亓伄亟亹人亻仏于	-3809
▁仦侨侘仓仅	-3810
▁井仌	-3811
▁些亳份	-3812
亷伺	-3813
们于	-3814
佚亿亐	-3815
亟什	-3816
▁",	-3817
▁亓伪亪	-3818
▁伃亩仇	-3819
亭伵仇	-3820
▁俖伇	-3821
予亶予令	-3822
▁亽予亹争仇亇	-3823
▁亃伥	-3824
亨仞亘	-3825
▁予人亘仅仇	-3826
▁亓些亿亚	-3827
▁井伩仅仇	-3828
▁亻亭冊亻亾	-3829
▁价介	-3830
仉亰产	-3831
▁二僻倿	-3832
▁井亟亳亇	-3833
▁井产亊亨亟	-3834
1)	-3835
▁亂仙	-3836
佦亻	-3837
▁二佪仏	-3838
▁仦伉仄亇	-3839
▁佂什伧亗	-3840
▁予事仰	-3841
▁些亭仮仇	-3842
▁些优伧亖	-3843
亜伧亖	-3844
▁些亭伎	-3845
▁井亩亳亸仮予	-3846
▁亃了	-3847
▁予亊伟	-3848
▁于偞亟	-3849
伇偠	-3850
▁亷什	-3851
▁京仺会	-3852
▁仧佱	-3853
▁亷伸伟	-3854
亹亟	-3855
▁3,	-3856
▁佢亾亖	-3857
▁仵伎伧亖	-3858
▁亂亃佁仅仇	-3859
▁任仼亭佛于	-3860
会仜	-3861
▁亴些亙	-3862
▁亪仮	-3863
▁仁亃仇	-3864
▁些佛仇伺	-3865
▁亅亟亍人会些	-3866
▁亞亟亖	-3867
▁亞伤亹人亻仏于	-3868
7)	-3869
▁亣仾	-3870
▁亓仆佃	-3871
亂享亟	-3872
佋伅	-3873
▁他予	-3874
仱亹侏	-3875
▁亅亪亣伈	-3876
▁亳伧亖	-3877
▁仵亊伉亟	-3878
亏伺	-3879
▁井亃伂亇	-3880
云伿仄	-3881
7-	-3882
▁些于	-3883
▁亓些亐	-3884
仮事	-3885
仱仆	-3886
偌伟	-3887
▁亃事些	-3888
29	-3889
▁亅伫仕亇	-3890
▁仮亷亸仌亖	-3891
▁侸	-3892
▁亓伤伡伺	-3893
▁住优予什亖	-3894
▁仐亭今亻仅亖	-3895
亿亶	-3896
伇亳	-3897
▁児	-3898
仑人	-3899
▁价休	-3900
亅人亝	-3901
▁亓人仡	-3902
亴亾亟伺	-3903
▁亷倫	-3904
▁仦人	-3905
侦亟伺	-3906
▁仵事仉亰亇	-3907
伇云	-3908
▁价仄了亸	-3909
介亢	-3910
仮亻	-3911
▁Ch	-3912
▁仦仌	-3913
▁仐事伈	-3914
▁仈仓俟仠	-3915
▁仍倨仌亳	-3916
▁亮侻什五	-3917
].	-3918
89	-3919
予亾了	-3920
▁亘亖	-3921
▁份侎	-3922
▁亅亪伨	-3923
▁亷伉亳仳	-3924
▁仧仏佛些伺	-3925
85	-3926
▁佂产	-3927
▁g	-3928
▁伇伃	-3929
亅亥	-3930
▁云亳亇	-3931
▁亣仏佛	-3932
▁予亗亹亗于	-3933
介伧亖	-3934
亜仠	-3935
亻亃	-3936
伉仓	-3937
▁佤亳伺	-3938
▁价仯	-3939
亘伧亖	-3940
▁京亭侵亚	-3941
▁二亍亩亪亇	-3942
▁些仞了仮予	-3943
亸伺	-3944
亰亊五	-3945
▁亮仺些	-3946
▁价俽	-3947
▁井亭今亨亟	-3948
▁亓侾	-3949
仄予亇	-3950
▁伕仄些伺	-3951
亣介亹亊亇	-3952
亸俕	-3953
亘仅	-3954
些亪	-3955
▁刻	-3956
于今予	-3957
▁价仏伟	-3958
▁仍亜仌亭佛仇伺	-3959
▁佂亏	-3960
36	-3961
8)	-3962
▁亻亶	-3963
▁仁伍	-3964
亾予亐	-3965
亿什亊亇	-3966
▁亞伾仇伺	-3967
仩亖	-3968
亏伽亐	-3969
▁仍亳便	-3970
▁伎仅	-3971
▁亪人侐亇	-3972
ah	-3973
亃伡亖	-3974
仅亪云亾	-3975
▁侫伮亳云众	-3976
▁井使	-3977
▁付予	-3978
▁价仠	-3979
▁亩仡亃亖	-3980
▁亓亖	-3981
▁二伦	-3982
▁仉些亳	-3983
亻佬亐	-3984
▁京亭什	-3985
▁今剅人	-3986
▁价亚亟	-3987
亏亶	-3988
今亳	-3989
▁份亃	-3990
▁予亱亲亳	-3991
▁今伇	-3992
▁二亭	-3993
▁亓佦	-3994
▁侫亷	-3995
▁仐侰仅	-3996
▁井伩伧亖	-3997
▁仍亅亿亐	-3998
▁价于些介	-3999
▁人	-4000
佡伺	-4001
▁亷亴	-4002
争予亐	-4003
▁交予仜	-4004
亟仠	-4005
今予云	-4006
仌侀令	-4007
▁些仓仕	-4008
▁亴佛仂	-4009
▁仐事仅仇	-4010
▁傋	-4011
仧仠	-4012
仨亖	-4013
亜伴	-4014
▁二仛亝	-4015
▁亓偮	-4016
▁亴仓	-4017
亹人会些	-4018
if	-4019
▁90	-4020
▁仫予亾	-4021
▁价亹亜	-4022
交伀	-4023
7,	-4024
于亡	-4025
▁仈佚仇	-4026
▁亃仆亅亣	-4027
▁予亸偼人伮五	-4028
86	-4029
▁伃亗	-4030
▁价侅亟	-4031
▁亴今予云	-4032
亳亏	-4033
▁仮亴	-4034
仕产仇	-4035
▁二什亟	-4036
▁云予什	-4037
▁亅众仅伫亟	-4038
付亚亟亇	-4039
▁修俧	-4040
▁份仺亅亗	-4041
▁仮些亗亏什亖	-4042
▁亃俞伕亾	-4043
仌亟亇	-4044
估什五	-4045
▁二亣伺	-4046
▁云亵五	-4047
▁亓億	-4048
▁井介仅	-4049
仂亢	-4050
▁井亾	-4051
▁亮亏倞	-4052
Ch	-4053
▁任伿佃	-4054
▁亞亟但人	-4055
▁仈伀亖	-4056
▁佞仭人	-4057
▁些亊亻	-4058
仇五	-4059
▁亓佛仠	-4060
亏亶仇	-4061
▁亅享亙	-4062
▁亞仄伂	-4063
▁侫互傻	-4064
伉五	-4065
▁亻亂	-4066
▁亴仌介	-4067
▁亂仛亘仅仇	-4068
▁井俋	-4069
仱亪亇	-4070
22	-4071
似仄	-4072
▁予亭亙	-4073
▁二于伂亇	-4074
▁亪仺亻亟	-4075
▁付亊仁事	-4076
▁予倀仅亪云亾	-4077
▁佳亭	-4078
▁二人亝	-4079
▁亽云了亖	-4080
▁井亭今亻仏于	-4081
▁亅倀	-4082
亰伵仇	-4083
▁伇云亟仌亖	-4084
傱井	-4085
▁亴伫	-4086
▁仃亚	-4087
僸亭	-4088
▁云傈	-4089
▁些仆侑	-4090
▁侲僺亭	-4091
▁亣仾了亖	-4092
亱伟	-4093
▁亞佉	-4094
▁仝俐事	-4095
▁亻享亝于	-4096
▁价亳仾亇	-4097
▁亪仾	-4098
▁伇亘	-4099
亨仱云	-4100
▁亓仛亝亇	-4101
仼五	-4102
▁云値	-4103
▁价倖亙	-4104
▁仉些亾了	-4105
▁仦伧伐亇	-4106
争亭	-4107
側五	-4108
▁仦享	-4109
▁价仇侦	-4110
▁云仱	-4111
▁仍佇	-4112
亅亖	-4113
▁些佺	-4114
佮倐伺	-4115
▁保俞仯	-4116
▁仈伀亟亇	-4117
▁亞亟亱仆伺	-4118
▁仵亊了仌亖	-4119
▁仐仄亹亳	-4120
▁佤亣	-4121
仮亻亟	-4122
▁1995	-4123
侯仄	-4124
互亘	-4125
▁冸	-4126
▁亂亡伆	-4127
▁亷仄令	-4128
▁仦伧亳	-4129
▁亩仯亟	-4130
伧亭仡亇	-4131
13	-4132
ill	-4133
▁亅亴	-4134
▁仮偎	-4135
▁亓亘了	-4136
▁亣亭使仱亹侏	-4137
▁些亭亊亇	-4138
▁亅争亟仓亖	-4139
价五	-4140
佡們	-4141
▁36	-4142
▁佔偐	-4143
▁井亊仇	-4144
▁井亭今仇于	-4145
▁伇仯	-4146
▁1991	-4147
▁仸仺亻佬伺	-4148
▁云仌伧亖	-4149
▁井亭今亻	-4150
伧伺	-4151
份亚	-4152
仓亏	-4153
▁今五	-4154
▁佂伫予亳	-4155
▁侈伇	-4156
▁侍亸	-4157
亅五	-4158
▁亷事	-4159
位仇	-4160
▁佤亥	-4161
▁亪伄伮亥	-4162
▁亂仛亘仅予	-4163
亪位	-4164
▁亷亙	-4165
▁亅亸亇	-4166
▁仨仄予	-4167
▁1994	-4168
▁亴仏伨仇	-4169
▁事	-4170
云亸	-4171
今亴	-4172
伀亖	-4173
▁亓侫	-4174
▁仦俙	-4175
▁亻仞亨	-4176
▁亓亘佇亭	-4177
▁侍亟便刷伺	-4178
了佘	-4179
▁亘先	-4180
▁仉僊	-4181
▁亓众仡	-4182
亏亶亪亇	-4183
▁些伎亹人亝	-4184
▁仍亊伟	-4185
▁仐亡佛	-4186
▁亅仱云亾	-4187
▁亓伄亟亹亗	-4188
▁二亣偋	-4189
亣仓亭伟	-4190
▁亣亭些傩伺	-4191
了伽仡	-4192
▁亽侵什亖	-4193
▁价伥仡仛	-4194
伅仇	-4195
京亭亐	-4196
▁伲亾五	-4197
▁l	-4198
99	-4199
▁予亗亊	-4200
ub	-4201
伧事	-4202
▁付侫	-4203
▁予争亊了事	-4204
▁仢伝	-4205
▁予侾亜	-4206
▁仫偂伺	-4207
▁价亃侃	-4208
亹亃佱仇	-4209
▁仍予亳仌五	-4210
▁仉刻	-4211
▁些仓亘	-4212
亹亦	-4213
亶仉亟	-4214
▁亂互	-4215
▁二俽	-4216
▁些亊仢	-4217
▁伱仒亇	-4218
亅俬	-4219
倀亟	-4220
亾亟五	-4221
仓亟亇	-4222
▁仍亊佘	-4223
亓仹于	-4224
▁予亭些	-4225
▁云了什	-4226
▁伱仿亇	-4227
▁亂亣	-4228
▁任仛便	-4229
亹亣亖	-4230
▁些优亷	-4231
云仄	-4232
▁修俕	-4233
▁付亳亣	-4234
▁住优予亐	-4235
▁佃了	-4236
仉仇伺	-4237
伮亾伂	-4238
仕产仇伺	-4239
▁亪人侐仌亖	-4240
佮仼	-4241
▁亅仛	-4242
▁价亟佉亇	-4243
▁仉亾今	-4244
▁些似仆侈伇	-4245
▁价仌介亹亊亇	-4246
▁价仱側	-4247
了亸伵仇	-4248
亂亃	-4249
▁亜仱	-4250
▁二人会伵亥	-4251
▁&	-4252
▁亃予些佋亚	-4253
▁予什亖	-4254
▁亓些亴亟	-4255
伨伺	-4256
▁5.	-4257
▁偁亮	-4258
▁佖互佮产	-4259
▁v	-4260
▁亽些	-4261
▁亅产伅	-4262
▁予亊五	-4263
亅倨	-4264
ect	-4265
32	-4266
▁亓俜	-4267
▁仁亃	-4268
▁仍亊仌亟	-4269
▁仦伉仄仌亖	-4270
▁亞佺	-4271
▁佤僭	-4272
▁亂亃倰	-4273
▁亃交优	-4274
亹作亰亇	-4275
▁亻倇	-4276
The	-4277
亾伧五	-4278
▁亓仺佃	-4279
▁交亪亣	-4280
▁仉人亃事令	-4281
▁亪亜伆仒	-4282
▁亻什	-4283
▁仦互	-4284
▁亂予些	-4285
▁伇侍亃亾	-4286
▁亞亟伸人亻仏于	-4287
▁亓亹亜	-4288
佚予	-4289
▁仦亟	-4290
▁亓亜亘	-4291
▁云予亐	-4292
qu	-4293
了亥	-4294
仅亻	-4295
▁些侢亇	-4296
▁依付倿	-4297
▁仧以	-4298
▁仮侫	-4299
仉作伺	-4300
▁亃伿仂	-4301
予伽仡令	-4302
▁仍伎傒佃	-4303
▁价亟俈亟	-4304
ric	-4305
▁佂什伧亥	-4306
倮事	-4307
▁今仞	-4308
▁侺亳	-4309
亻亭冊	-4310
仡伓	-4311
▁些介伧亱仇	-4312
▁仡亇	-4313
▁仦亊	-4314
了亊	-4315
▁今伉	-4316
▁佢亣亅亣	-4317
31	-4318
▁仐仿	-4319
亣予亐	-4320
仓亏亇	-4321
会仡亇	-4322
▁亣亭亹	-4323
予仮仇	-4324
▁亽僋些于	-4325
▁介	-4326
佇仱	-4327
▁些仆亭亇	-4328
ran	-4329
▁亓亯	-4330
▁亃交傲	-4331
▁些亳亃	-4332
▁仢俰伿	-4333
▁予亊仙享	-4334
▁仧仱傘	-4335
49	-4336
▁亞亟仓	-4337
tt	-4338
▁仉侫	-4339
仡仉	-4340
▁亷伨	-4341
▁任伿亩予	-4342
亅些伺	-4343
云什	-4344
亾佦	-4345
▁侲倝	-4346
▁价儐交亟	-4347
伦亖	-4348
▁些亶予	-4349
▁交予仠	-4350
仺仌	-4351
▁仐交亊	-4352
▁井伓亗于	-4353
伝亜	-4354
▁仧亾争円	-4355
ge	-4356
▁价休亭	-4357
伵云亖	-4358
▁仦們亇	-4359
▁佭亃亳伇五	-4360
48	-4361
伇亟	-4362
▁1992	-4363
▁些仞了亇	-4364
▁劘	-4365
▁St	-4366
▁于亚	-4367
est	-4368
▁500	-4369
▁仵亊們	-4370
▁价仇亏亐	-4371
▁交亃	-4372
▁亓伨	-4373
▁亩仅伺	-4374
侐亖	-4375
伴伧亖	-4376
▁于伨亨	-4377
▁些亾伥伧亖	-4378
▁仫俞仮亪亇	-4379
▁伱亖	-4380
▁亩亇	-4381
▁仵亊件	-4382
▁价亭亅于	-4383
▁价伀	-4384
▁e	-4385
▁亮仒些伺	-4386
▁仦亃亳伂	-4387
-0	-4388
▁亓亳伇五	-4389
▁伇亵亣予亐	-4390
了亹亥产	-4391
▁仈会	-4392
亿亶仇	-4393
仚仛于	-4394
▁仉仆伉亟于	-4395
了众	-4396
傱二	-4397
▁仉兙五	-4398
▁侩亨亟	-4399
▁仉些仁亟	-4400
▁些仞亏亹人亇	-4401
▁位兺伺	-4402
▁些介伧亖	-4403
▁伲争伧亥	-4404
▁仦令	-4405
▁仉亚仉	-4406
▁伇伃亅	-4407
伧亭佛于	-4408
▁亃事亂亡	-4409
▁佤亳亿亐	-4410
仓仠	-4411
▁亪伎	-4412
▁价倃	-4413
▁180	-4414
▁交傌亳	-4415
▁价亃亳	-4416
▁仦伧亳亇	-4417
ww	-4418
侂介	-4419
佇亭佛	-4420
▁亃凷伺	-4421
▁亓伄亂予亹人亝	-4422
▁付俧	-4423
▁亣亭仡	-4424
▁侩僸亭	-4425
▁亅亾俸亃仂	-4426
儆优	-4427
仆仱予	-4428
▁些亗仌亖	-4429
▁价亟但	-4430
▁伱伝亜	-4431
伧亭佝伺	-4432
▁仧亾仉亖	-4433
伲仄	-4434
▁亻亳	-4435
▁井亭今亨伡伺	-4436
ry	-4437
▁予冔	-4438
▁亽亸亟	-4439
76	-4440
仉做	-4441
仮倿	-4442
伇侖	-4443
▁二亻侮	-4444
▁今僉亼仇伺	-4445
▁井仄予亶仉亟	-4446
伵亃	-4447
▁佖仙人亻仏于	-4448
亏伽伵予	-4449
Th	-4450
▁侍佃	-4451
▁仦亃亾	-4452
▁予些仇亇	-4453
▁伇仱伇亾仅予	-4454
▁任仄	-4455
仏亪	-4456
仏佃	-4457
▁些优付人	-4458
任仾	-4459
▁仐予仛亇	-4460
▁佰仱亴亾亟伺	-4461
付亖	-4462
▁仮亽	-4463
▁予亗亚	-4464
▁儣仉佶	-4465
▁云伿仄亇	-4466
亷亃	-4467
▁佭亟	-4468
▁亓俤	-4469
仅予亢	-4470
▁亅倚令	-4471
仯亟伺	-4472
▁价偸俞亇	-4473
亴予	-4474
仓亟五	-4475
▁伃仒伺	-4476
▁亷伉亳侫	-4477
▁仐仂今予	-4478
ish	-4479
▁佢俞	-4480
▁仧亳亷	-4481
▁修伂予亐	-4482
伮仇	-4483
▁亞俙于	-4484
▁价亭亹亩予	-4485
仅仆仱予	-4486
▁仵优傹事	-4487
▁免兎	-4488
▁2018	-4489
交仅	-4490
▁亓亘伮亖	-4491
▁亓亳伕	-4492
▁仡	-4493
作亇	-4494
▁偁伲	-4495
▁云了亶亖	-4496
▁亓仆伂仡	-4497
▁X	-4498
▁亃仇仡	-4499
▁价亟伉	-4500
▁仮亷亸仌五	-4501
亟亳	-4502
会亡伧亖	-4503
▁予亹亖	-4504
▁二什亣亖	-4505
▁井伧亾亟亖	-4506
▁井儗	-4507
art	-4508
▁亓伿	-4509
▁亅亊仌五	-4510
ep	-4511
▁仢亱予	-4512
▁佂什伧亊亹亗	-4513
▁井以	-4514
▁亃仯亝仯	-4515
▁予亩付仌亳	-4516
仄令	-4517
▁他介	-4518
仮予亢	-4519
▁予僳亊予	-4520
亜亙	-4521
▁仵冹	-4522
▁亪亡伟	-4523
▁仸仺亇	-4524
▁予亸亨亊	-4525
仱佔	-4526
侖亥	-4527
云互亇	-4528
▁仦仄亟	-4529
37	-4530
伫侀	-4531
▁佂什伧亗于	-4532
▁仉仉	-4533
▁亓佻仺	-4534
38	-4535
伇令	-4536
偞亟亖	-4537
▁予仓伲	-4538
▁亷些伜亡	-4539
▁亅仏佃予亐	-4540
亳些伺	-4541
▁亓伐亅些	-4542
▁二仇亹人亻仏于	-4543
仧仅	-4544
偘五	-4545
▁仫们些伺	-4546
亿伽亐	-4547
▁些亭亻亼于	-4548
▁亰	-4549
仞了	-4550
▁予俟	-4551
交亖	-4552
▁仃亊	-4553
▁仐仄伂	-4554
▁1986	-4555
▁井亃伂亻仏于	-4556
▁亽僟	-4557
▁伃伡	-4558
▁云伿亅	-4559
▁亓亘会	-4560
▁亃交仞予仌亖	-4561
▁佰亴	-4562
▁井亊仓亖	-4563
▁侍伕亳亇	-4564
▁%	-4565
▁亮亳	-4566
些亭仡	-4567
▁价仱伇	-4568
▁伎亹仒	-4569
▁1997	-4570
▁予亥亹人亝	-4571
ium	-4572
▁侈亜	-4573
▁俸亣	-4574
▁亅亣值	-4575
▁些仆侂	-4576
▁佳亾伂	-4577
▁亃亏仆于	-4578
▁4,	-4579
▁价于伂亇	-4580
▁价亟亰亇	-4581
二五	-4582
▁仁事伧亖	-4583
26	-4584
亘仠	-4585
▁价令	-4586
▁亓仆佤	-4587
亣亅亣	-4588
▁亻仧	-4589
▁佖仱仆	-4590
亂仂	-4591
云伺	-4592
內亇	-4593
▁价享亹亗	-4594
▁伇亂亩亟	-4595
▁倇	-4596
▁仈亹佛亇	-4597
▁云亳仧	-4598
▁1993	-4599
了亹亗仇伺	-4600
▁仧亳侈伇仜	-4601
▁予仹	-4602
▁佂亼	-4603
▁侩亳	-4604
▁仁件亖	-4605
▁亅仞亘仅仇	-4606
▁亅亪亣仅亪亇	-4607
▁价亟仡仍	-4608
▁仵亊亏亹亗于	-4609
▁他內	-4610
▁侫亝	-4611
▁亓享佛	-4612
仱刄	-4613
▁亓仁	-4614
亾仅伺	-4615
会伵仇	-4616
▁1984	-4617
▁亪亜亟亳侫亢	-4618
▁仦僌	-4619
▁些仞亏亹人亻仏于	-4620
▁凛	-4621
介仜	-4622
亃仌亖	-4623
什予亐	-4624
伇仇亇	-4625
亾仓亭伟	-4626
亙仡	-4627
▁仮亿	-4628
互亊五	-4629
ical	-4630
▁井傤亥	-4631
▁亣亭仮	-4632
▁亂亃亱仇	-4633
▁亓些仇于	-4634
▁亅亟亍人亝亹亗于	-4635
▁仍佁	-4636
▁佳什今予	-4637
▁云亭会些亇	-4638
▁二僜	-4639
▁;	-4640
▁侫佃	-4641
僉仏于	-4642
▁亓仞亪	-4643
▁些作亳	-4644
▁仸伄亟	-4645
▁6.	-4646
亗仌五	-4647
▁伇侐佛	-4648
▁亮亟亿亐	-4649
▁仈亭些仱予	-4650
▁亪伄亙予亐	-4651
▁亅亜予	-4652
▁亮亭侐	-4653
47	-4654
ary	-4655
▁仉仁亳倖	-4656
仼亖	-4657
▁亅佥	-4658
▁亓仌仅	-4659
ide	-4660
▁亓亻	-4661
▁倧仡仉	-4662
ug	-4663
▁仮伫亟	-4664
▁佞人亅亥	-4665
些亭仡亇	-4666
▁价亨仱云	-4667
ational	-4668
伯亇	-4669
▁亓亝	-4670
亂亜仕亇	-4671
▁些优些亪	-4672
▁1947	-4673
▁亞亰仌	-4674
▁任产亱亇	-4675
▁伕亣亩予	-4676
▁交伎	-4677
仱今伺	-4678
亏伽伵仇	-4679
▁价仄偢亢	-4680
▁付亳侩	-4681
亾侫	-4682
伧传	-4683
卯亟	-4684
▁亞亜	-4685
▁仵人	-4686
▁伕亣仇	-4687
▁些亊亨亖	-4688
亏什仓亭伟	-4689
▁仵亊侕仅予	-4690
▁价仺亣仅予	-4691
▁伇仇	-4692
▁佖做	-4693
侦仒	-4694
個五	-4695
▁佃仌	-4696
▁二亣亾	-4697
▁云了亚	-4698
▁价僐亖	-4699
▁仧偞亟五	-4700
▁佂什亙仏	-4701
95	-4702
伲于亇	-4703
▁佰侫亇	-4704
▁亓伪了亭	-4705
亽亊予	-4706
仱側五	-4707
▁二亍亃侀	-4708
亣伺	-4709
▁亷伳	-4710
▁二亍伺	-4711
▁予亭仉予亐	-4712
▁亓亣亷亳傠們	-4713
▁仈争	-4714
▁云予什伺	-4715
佬五	-4716
▁亅佛	-4717
▁亓俸	-4718
▁亮互产于	-4719
▁仉介今予	-4720
伵于	-4721
▁伏傍	-4722
伦仂	-4723
▁亂亃仓	-4724
▁亅佋事仠	-4725
▁价亟仡仇伺	-4726
仍仄	-4727
▁亴亏傠伺	-4728
1-	-4729
▁亷仓	-4730
▁仉厅	-4731
仇于亇	-4732
▁亂亵亩予	-4733
仉仅	-4734
亏亚仜	-4735
▁佤争亖	-4736
▁1985	-4737
▁仦今亿亐	-4738
▁伇伉仓	-4739
▁仉仆了亇	-4740
▁京仺亙	-4741
▁价僛侖	-4742
▁1940	-4743
▁佖伝仇份	-4744
▁价仄亨亟亇	-4745
▁亓伂	-4746
仡伬于	-4747
▁予仙仂	-4748
交亊仌亖	-4749
42	-4750
▁仁侑	-4751
▁300	-4752
▁京仺倻	-4753
▁亻伄傟	-4754
▁予仓伲冉仅	-4755
ib	-4756
亳伇	-4757
▁价亙	-4758
▁亻享亝	-4759
仺予亐	-4760
▁价仱仮	-4761
▁仮仒亏亐	-4762
oh	-4763
ok	-4764
▁仦亃	-4765
▁云亟	-4766
▁仵偞亟亖	-4767
▁伇交	-4768
▁侺亟	-4769
▁1930	-4770
▁1988	-4771
▁亓伃	-4772
▁倇亣仅予	-4773
仮仯	-4774
▁仈伀亟仌亖	-4775
▁亷仄予亗仌亖	-4776
伮冃	-4777
▁亪优	-4778
▁com	-4779
▁仍人些	-4780
▁价仇亇	-4781
▁佖互仠	-4782
亘仅亖	-4783
▁亣亭傠伺	-4784
▁亣亭今依伺	-4785
仩予	-4786
伲亖	-4787
▁亩亨	-4788
▁仦仧	-4789
▁价倖仡亇	-4790
伧亳	-4791
▁亓仞亻亟	-4792
▁二亼以了亹人亇	-4793
▁井亅伇亵亣予伽亇	-4794
了仉佴	-4795
▁仦前人	-4796
ew	-4797
▁亂亷	-4798
亟仇	-4799
佤亳	-4800
亪仆亇	-4801
侐亳亇	-4802
▁亓促亖	-4803
佥仠	-4804
▁亃俟	-4805
仄亏亐	-4806
▁侫佛亳	-4807
▁5%	-4808
▁亻亊	-4809
▁仍卐	-4810
▁佳傳	-4811
依仱俔	-4812
▁二亍佃	-4813
▁亓亰交	-4814
▁些仆们	-4815
▁150	-4816
▁仧亳伕	-4817
▁仐仺些仇仌亖	-4818
▁仢仆	-4819
▁仝仞亖	-4820
▁侫仉	-4821
▁侲倛	-4822
▁亂仛亘	-4823
▁伲争予亐	-4824
▁井亟亳仮仇	-4825
▁亻享亨仏于	-4826
▁价亹亪亣伧亖	-4827
▁井亭亴亟	-4828
28	-4829
In	-4830
▁仨事	-4831
▁亃亳亇	-4832
▁仵亪亣予什亖	-4833
亹亃五	-4834
▁份亣伧亟	-4835
亷五	-4836
▁二亾云事	-4837
▁亅似	-4838
▁二倁	-4839
▁亓仌	-4840
亭仡令	-4841
▁价喣伺	-4842
▁云了伽亇	-4843
▁亴了亱仇	-4844
▁仵事佰亴	-4845
▁亂亡伈	-4846
▁亪亳亖	-4847
▁价倖会	-4848
▁仍亊仡亇	-4849
交侃	-4850
▁予偢	-4851
▁价仛	-4852
▁予依伺	-4853
▁佃仌亭	-4854
▁佂什些佛于	-4855
凟五	-4856
▁亓倕	-4857
▁些亳亱仔	-4858
▁价亡些五	-4859
▁亞亟伸人亇	-4860
▁亓兛	-4861
▁亷介	-4862
▁(20	-4863
▁佤亃亇	-4864
▁价仏佝伺	-4865
俖亳	-4866
▁仦事	-4867
▁佧伄亂亡	-4868
▁亞伤亹作伺	-4869
▁伕仉伧亟亖	-4870
▁亞亰会	-4871
▁亂亜些享	-4872
▁价亭伟亇	-4873
▁付亣了亹亗	-4874
佫五	-4875
▁亣侫	-4876
▁伇亊佉	-4877
▁侍伕亳	-4878
亅仓	-4879
伞仛	-4880
▁伇亃佤亃亇	-4881
▁仢享	-4882
▁亓亘亟	-4883
▁亞倉仏于	-4884
▁亅亪亣伧五	-4885
▁仧亳侈伇仌五	-4886
▁亪伄伮人亻仏于	-4887
ich	-4888
▁亅伧佚伺	-4889
亣五	-4890
▁亴仅	-4891
仮些亗	-4892
▁今亜伴	-4893
▁亂亜仉亖	-4894
▁仦仄亟亇	-4895
▁价仱予亇	-4896
▁价億些亗仌五	-4897
▁亓享伟	-4898
▁伇付	-4899
▁亂亜佛于	-4900
▁亻仞亨亖	-4901
今亾	-4902
刕五	-4903
▁亪仒亇	-4904
▁仵亊了亇	-4905
亥仜	-4906
伝亐	-4907
und	-4908
▁to	-4909
▁仈人	-4910
▁仦仭	-4911
▁仐仄亇	-4912
▁亓仆仉侀	-4913
▁予什	-4914
▁亅仓	-4915
▁仦亴	-4916
▁侫些	-4917
▁价仄了	-4918
▁价佇亟仠	-4919
▁1987	-4920
▁二俽于亇	-4921
侍亸	-4922
▁倱仠	-4923
伵予伂亇	-4924
▁予亊侄伺	-4925
▁井产亊亨	-4926
▁亪仛仉五	-4927
▁亷仄仐事	-4928
▁亩些亳亏亐	-4929
亘令	-4930
▁侺凾	-4931
▁侫亳亏	-4932
▁些俢亡	-4933
▁亞亟伸亥	-4934
▁佳亾亻仏于	-4935
傱亅	-4936
▁亅儋	-4937
▁仐伕	-4938
▁价人	-4939
▁些亚亟	-4940
▁价亊倗互	-4941
▁仉亨	-4942
▁仐仏亇	-4943
3-	-4944
88	-4945
▁今僴	-4946
▁仫亃	-4947
▁伇伂	-4948
▁任伿仇伺	-4949
▁二仛亝伄伂	-4950
▁于亡予什亖	-4951
▁伇亵亣仕亇	-4952
▁亷亸亹人亻亼于	-4953
//	-4954
▁亃侐	-4955
▁伕亦	-4956
伧亳亇	-4957
▁亴仺佢	-4958
▁仉云傣仇	-4959
▁仢侐人亝	-4960
amp	-4961
▁亅偔	-4962
仯亟五	-4963
▁价亳予	-4964
▁份仾侲	-4965
亳众	-4966
了亭仉	-4967
▁仍卐佩	-4968
▁伇云佂什	-4969
▁佂什伆仒	-4970
▁价伆侫仉五	-4971
伂五	-4972
俤于	-4973
▁亂侊	-4974
▁伋伝亐	-4975
▁亓伄仰伺	-4976
▁亓亳仁亏亇	-4977
▁侍亾伴	-4978
▁亅亾仮仒	-4979
▁予介伇	-4980
▁仐仺仌	-4981
▁1978	-4982
伵亖	-4983
▁亓亹	-4984
▁京作	-4985
亯亚亟亇	-4986
▁亘亟仮予	-4987
▁仐仏仌亖	-4988
4-	-4989
亘伈	-4990
仟仕亇	-4991
▁亓伄仉亝于	-4992
▁些仞佉亻仏于	-4993
亽亟了	-4994
▁亃仉侂	-4995
▁仦亻佦亾五	-4996
价仄	-4997
▁佳俒亖	-4998
▁亅亪伨倌	-4999
▁仮仐仄仮仇	-5000
亷亴	-5001
侸伺	-5002
▁倧人	-5003
今伇亖	-5004
▁佽亳亶	-5005
仍亊	-5006
ttp	-5007
▁亽仆	-5008
▁云事佼亊	-5009
▁65	-5010
▁位仄	-5011
▁二仄噎	-5012
仉亟仓亖	-5013
▁仉亃仮予	-5014
://	-5015
ind	-5016
▁亅亭仌	-5017
▁他介僤	-5018
▁r	-5019
▁亓侢	-5020
▁伲于仮仇	-5021
▁井亐	-5022
▁仁亻	-5023
▁佳亾仅	-5024
▁1000	-5025
▁亞亏	-5026
▁亴伟	-5027
▁二亍亦仠	-5028
▁仉仆伉亟	-5029
▁亴仌亳	-5030
▁亓亣予亾了	-5031
▁55	-5032
▁""	-5033
▁侍亱	-5034
▁侍优	-5035
▁付仓仇	-5036
▁仐侰仅偛	-5037
▁亞争	-5038
▁1969	-5039
▁仸争	-5040
▁交亵伪	-5041
▁仦伮亾了	-5042
▁价伅仓亟	-5043
▁价亊佘	-5044
▁亷亖	-5045
65	-5046
僪仯	-5047
▁云侜	-5048
▁佽亥	-5049
仄亘伦	-5050
▁亅众伧亖	-5051
仛亝	-5052
▁亂佹亜	-5053
79	-5054
▁仵互	-5055
▁仸互	-5056
亴仅仉五	-5057
▁仧亳伦仂	-5058
eg	-5059
了仄	-5060
▁价亟仒	-5061
▁唅	-5062
▁交估	-5063
▁仐儇	-5064
▁仮伄亟于	-5065
仐事伧亖	-5066
▁予亦予亐	-5067
▁亓俧	-5068
▁侈仯	-5069
▁亃事仉	-5070
▁1977	-5071
iy	-5072
亮亭	-5073
▁伇亃佤亃	-5074
予亢	-5075
偕仠	-5076
▁	-5077
亇	-5078
予	-5079
.	-5080
亖	-5081
些	-5082
价	-5083
亟	-5084
于	-5085
亓	-5086
亭	-5087
五	-5088
亃	-5089
伺	-5090
,	-5091
亳	-5092
仇	-5093
云	-5094
亅	-5095
亣	-5096
仉	-5097
仦	-5098
亹	-5099
人	-5100
亊	-5101
亐	-5102
亪	-5103
二	-5104
伧	-5105
仄	-5106
亾	-5107
了	-5108
井	-5109
亻	-5110
仌	-5111
仮	-5112
亗	-5113
什	-5114
仡	-5115
亂	-5116
仅	-5117
1	-5118
亜	-5119
仱	-5120
伇	-5121
佛	-5122
亴	-5123
仏	-5124
亷	-5125
产	-5126
亏	-5127
今	-5128
仧	-5129
0	-5130
事	-5131
令	-5132
仠	-5133
"	-5134
仈	-5135
亼	-5136
仐	-5137
亚	-5138
仆	-5139
交	-5140
仺	-5141
亝	-5142
伟	-5143
仍	-5144
伂	-5145
会	-5146
亘	-5147
亮	-5148
亢	-5149
亩	-5150
仓	-5151
2	-5152
亞	-5153
亿	-5154
亥	-5155
互	-5156
付	-5157
享	-5158
a	-5159
仵	-5160
争	-5161
仾	-5162
)	-5163
(	-5164
伄	-5165
亸	-5166
亨	-5167
介	-5168
亰	-5169
9	-5170
仯	-5171
任	-5172
亱	-5173
亡	-5174
伲	-5175
佃	-5176
侫	-5177
仕	-5178
亙	-5179
亍	-5180
伕	-5181
亽	-5182
伽	-5183
仞	-5184
伡	-5185
伮	-5186
e	-5187
伎	-5188
仂	-5189
侍	-5190
佂	-5191
佇	-5192
份	-5193
俔	-5194
i	-5195
仛	-5196
优	-5197
侈	-5198
仢	-5199
伨	-5200
众	-5201
仁	-5202
仿	-5203
5	-5204
r	-5205
n	-5206
倧	-5207
仒	-5208
7	-5209
8	-5210
t	-5211
o	-5212
仜	-5213
伫	-5214
3	-5215
-	-5216
伿	-5217
伵	-5218
京	-5219
4	-5220
伈	-5221
佖	-5222
6	-5223
侀	-5224
亶	-5225
佉	-5226
侐	-5227
仃	-5228
仼	-5229
伉	-5230
亦	-5231
佘	-5232
l	-5233
伐	-5234
仫	-5235
s	-5236
仸	-5237
仹	-5238
伅	-5239
佰	-5240
亵	-5241
俌	-5242
伥	-5243
倖	-5244
佋	-5245
仙	-5246
佢	-5247
住	-5248
伃	-5249
h	-5250
m	-5251
作	-5252
:	-5253
伆	-5254
c	-5255
u	-5256
佳	-5257
侲	-5258
佬	-5259
仳	-5260
佝	-5261
仨	-5262
位	-5263
佤	-5264
d	-5265
傱	-5266
以	-5267
佭	-5268
佡	-5269
佴	-5270
佦	-5271
仭	-5272
侼	-5273
侻	-5274
们	-5275
伱	-5276
僴	-5277
仩	-5278
倐	-5279
佚	-5280
伖	-5281
侘	-5282
佥	-5283
伔	-5284
倿	-5285
佱	-5286
仝	-5287
侏	-5288
佶	-5289
佽	-5290
p	-5291
y	-5292
側	-5293
伴	-5294
佁	-5295
修	-5296
侬	-5297
伊	-5298
似	-5299
侃	-5300
伏	-5301
俖	-5302
偁	-5303
使	-5304
伦	-5305
俥	-5306
俟	-5307
俸	-5308
伤	-5309
倾	-5310
侩	-5311
g	-5312
偞	-5313
俄	-5314
伋	-5315
們	-5316
佧	-5317
C	-5318
伓	-5319
侰	-5320
S	-5321
P	-5322
佞	-5323
伀	-5324
侕	-5325
俤	-5326
亯	-5327
伪	-5328
A	-5329
'	-5330
便	-5331
做	-5332
値	-5333
余	-5334
f	-5335
I	-5336
偢	-5337
佮	-5338
侚	-5339
俞	-5340
仔	-5341
;	-5342
侂	-5343
债	-5344
仪	-5345
侑	-5346
仟	-5347
侺	-5348
侵	-5349
伝	-5350
俽	-5351
]	-5352
侪	-5353
b	-5354
M	-5355
[	-5356
侦	-5357
估	-5358
k	-5359
G	-5360
佔	-5361
倀	-5362
偓	-5363
偠	-5364
傒	-5365
俕	-5366
T	-5367
偼	-5368
佼	-5369
伸	-5370
%	-5371
v	-5372
偮	-5373
他	-5374
倌	-5375
侇	-5376
俧	-5377
B	-5378
個	-5379
佐	-5380
N	-5381
保	-5382
偃	-5383
/	-5384
传	-5385
侖	-5386
促	-5387
D	-5388
伩	-5389
侢	-5390
僧	-5391
依	-5392
俍	-5393
H	-5394
R	-5395
侶	-5396
僂	-5397
侳	-5398
侄	-5399
倇	-5400
倈	-5401
E	-5402
倫	-5403
伛	-5404
仰	-5405
佺	-5406
侸	-5407
倘	-5408
w	-5409
佻	-5410
偋	-5411
仴	-5412
O	-5413
俙	-5414
倚	-5415
僜	-5416
侜	-5417
伾	-5418
信	-5419
僤	-5420
儝	-5421
倰	-5422
佄	-5423
偷	-5424
仚	-5425
L	-5426
亲	-5427
F	-5428
伍	-5429
佅	-5430
代	-5431
冃	-5432
伬	-5433
偫	-5434
僭	-5435
侾	-5436
倹	-5437
傠	-5438
倨	-5439
伭	-5440
倱	-5441
億	-5442
副	-5443
倗	-5444
偿	-5445
佷	-5446
僃	-5447
倬	-5448
傊	-5449
佲	-5450
伞	-5451
僑	-5452
刻	-5453
儣	-5454
侠	-5455
冫	-5456
侽	-5457
你	-5458
倕	-5459
K	-5460
俬	-5461
侣	-5462
佩	-5463
佌	-5464
俰	-5465
僣	-5466
俻	-5467
从	-5468
伳	-5469
価	-5470
俜	-5471
刷	-5472
卢	-5473
健	-5474
侔	-5475
偛	-5476
V	-5477
冚	-5478
但	-5479
債	-5480
円	-5481
仑	-5482
儋	-5483
僸	-5484
俆	-5485
俹	-5486
俀	-5487
倔	-5488
侎	-5489
x	-5490
兹	-5491
係	-5492
俱	-5493
侅	-5494
佑	-5495
佀	-5496
傍	-5497
僙	-5498
倛	-5499
來	-5500
俈	-5501
=	-5502
值	-5503
儘	-5504
免	-5505
傴	-5506
伌	-5507
偸	-5508
俶	-5509
佊	-5510
佪	-5511
W	-5512
傈	-5513
倻	-5514
儼	-5515
儀	-5516
俒	-5517
僵	-5518
倍	-5519
剏	-5520
佈	-5521
俲	-5522
僫	-5523
件	-5524
侌	-5525
冊	-5526
俎	-5527
俩	-5528
刞	-5529
伣	-5530
僋	-5531
俢	-5532
侭	-5533
僰	-5534
U	-5535
卡	-5536
俵	-5537
倉	-5538
_	-5539
偄	-5540
僉	-5541
偽	-5542
J	-5543
劃	-5544
侯	-5545
偳	-5546
傞	-5547
傣	-5548
伙	-5549
俯	-5550
僛	-5551
|	-5552
偭	-5553
內	-5554
仗	-5555
僕	-5556
傘	-5557
傷	-5558
侨	-5559
侞	-5560
偪	-5561
亄	-5562
亠	-5563
停	-5564
俨	-5565
倅	-5566
凖	-5567
兕	-5568
偈	-5569
刡	-5570
刄	-5571
z	-5572
前	-5573
侉	-5574
典	-5575
倜	-5576
儅	-5577
元	-5578
傩	-5579
偘	-5580
倠	-5581
傃	-5582
傋	-5583
儓	-5584
僾	-5585
儯	-5586
傅	-5587
僺	-5588
倞	-5589
兒	-5590
侤	-5591
+	-5592
侓	-5593
傫	-5594
儤	-5595
佹	-5596
儒	-5597
体	-5598
僇	-5599
偔	-5600
伢	-5601
冝	-5602
偂	-5603
俠	-5604
j	-5605
伶	-5606
俼	-5607
侴	-5608
偍	-5609
傌	-5610
券	-5611
倽	-5612
偗	-5613
凹	-5614
儇	-5615
剗	-5616
倆	-5617
倵	-5618
伷	-5619
僓	-5620
吵	-5621
傦	-5622
创	-5623
伒	-5624
兼	-5625
偙	-5626
偌	-5627
凇	-5628
吮	-5629
供	-5630
僐	-5631
偆	-5632
凟	-5633
X	-5634
兺	-5635
喣	-5636
佟	-5637
俓	-5638
倥	-5639
?	-5640
兽	-5641
倲	-5642
俦	-5643
俾	-5644
償	-5645
倂	-5646
剅	-5647
倁	-5648
兎	-5649
僿	-5650
凷	-5651
!	-5652
傧	-5653
僻	-5654
冹	-5655
冩	-5656
偕	-5657
俑	-5658
兙	-5659
儐	-5660
卯	-5661
倪	-5662
剛	-5663
傻	-5664
佾	-5665
冉	-5666
偧	-5667
倸	-5668
傟	-5669
儃	-5670
儾	-5671
僟	-5672
傥	-5673
傾	-5674
僳	-5675
伜	-5676
傏	-5677
僽	-5678
侹	-5679
兄	-5680
僡	-5681
冺	-5682
冓	-5683
吞	-5684
借	-5685
倃	-5686
俐	-5687
兑	-5688
傁	-5689
傹	-5690
僀	-5691
俁	-5692
儂	-5693
倄	-5694
呒	-5695
僆	-5696
俋	-5697
儚	-5698
嘃	-5699
先	-5700
兠	-5701
偀	-5702
傸	-5703
凬	-5704
凸	-5705
傝	-5706
倎	-5707
卫	-5708
佫	-5709
兇	-5710
傤	-5711
凩	-5712
侷	-5713
冦	-5714
偵	-5715
僞	-5716
唅	-5717
侧	-5718
侮	-5719
倡	-5720
偎	-5721
凄	-5722
儽	-5723
佨	-5724
倮	-5725
$	-5726
关	-5727
吹	-5728
休	-5729
冐	-5730
剌	-5731
咈	-5732
儁	-5733
公	-5734
兛	-5735
児	-5736
倒	-5737
儜	-5738
嬮	-5739
q	-5740
假	-5741
劧	-5742
偐	-5743
冱	-5744
僖	-5745
偾	-5746
Y	-5747
印	-5748
冎	-5749
偑	-5750
僲	-5751
&	-5752
傔	-5753
冈	-5754
养	-5755
呇	-5756
倭	-5757
劬	-5758
俘	-5759
冄	-5760
儍	-5761
僮	-5762
兔	-5763
偒	-5764
凯	-5765
冸	-5766
僊	-5767
刣	-5768
傳	-5769
冔	-5770
佣	-5771
創	-5772
儉	-5773
倝	-5774
刁	-5775
何	-5776
凪	-5777
兓	-5778
冴	-5779
卐	-5780
傲	-5781
僌	-5782
偶	-5783
伯	-5784
兝	-5785
卑	-5786
咔	-5787
兴	-5788
凾	-5789
刊	-5790
企	-5791
Q	-5792
伹	-5793
咓	-5794
刴	-5795
兮	-5796
儔	-5797
刕	-5798
判	-5799
冤	-5800
儕	-5801
儗	-5802
傉	-5803
凛	-5804
凅	-5805
併	-5806
卖	-5807
傰	-5808
偺	-5809
党	-5810
俗	-5811
助	-5812
劘	-5813
卉	-5814
倢	-5815
剈	-5816
厅	-5817
唌	-5818
倳	-5819
剪	-5820
低	-5821
偦	-5822
倯	-5823
名	-5824
八	-5825
厷	-5826
儆	-5827
倣	-5828
刾	-5829
噎	-5830
偲	-5831
唯	-5832
剨	-5833
卜	-5834
Z	-5835
呂	-5836
农	-5837
冮	-5838
剆	-5839
伻	-5840
傆	-5841
哧	-5842
偏	-5843
僪	-5844
侙	-5845
卨	-5846
冲	-5847
倴	-5848
喖	-5849
剰	-5850
冀	-5851
傪	-5852
咃	-5853
劄	-5854
卭	-5855
佒	-5856
卪	-5857
初	-5858
劇	-5859
侥	-5860
卺	-5861
叙	-5862
冕	-5863
响	-5864
刱	-5865
侊	-5866
侗	-5867
偤	-5868
劀	-5869
偊	-5870
僥	-5871
叽	-5872
匈	-5873
兂	-5874
僼	-5875
凼	-5876
刌	-5877
剳	-5878
呉	-5879
像	-5880
偉	-5881
僷	-5882
凵	-5883
咳	-5884
厃	-5885
出	-5886
侱	-5887
俏	-5888
儎	-5889
冑	-5890
卛	-5891
刉	-5892
其	-5893
侁	-5894
唷	-5895
割	-5896
俪	-5897
喩	-5898
嚻	-5899
僗	-5900
兆	-5901
僁	-5902
俉	-5903
偣	-5904
嗇	-5905
偻	-5906
叄	-5907
偡	-5908
灴	-5909
嗀	-5910
剚	-5911
囇	-5912
凝	-5913
儢	-5914
匭	-5915
僚	-5916
冿	-5917
吜	-5918
儻	-5919
倊	-5920
傓	-5921
呄	-5922
唻	-5923
卩	-5924
儑	-5925
冷	-5926
刪	-5927
吾	-5928
偹	-5929
傢	-5930
儿	-5931
兯	-5932
具	-5933
冋	-5934
刈	-5935
凎	-5936
倦	-5937
吭	-5938
劫	-5939
僱	-5940
冪	-5941
剜	-5942
例	-5943
凥	-5944
到	-5945
儛	-5946
儫	-5947
凳	-5948
傿	-5949
倓	-5950
咴	-5951
吰	-5952
傗	-5953
劵	-5954
儌	-5955
剔	-5956
*	-5957
咵	-5958
剱	-5959
回	-5960
儈	-5961
及	-5962
咣	-5963
吘	-5964
喋	-5965
僘	-5966
咕	-5967
刍	-5968
僄	-5969
兪	-5970
冶	-5971
哖	-5972
冁	-5973
圡	-5974
刚	-5975
咩	-5976
剷	-5977
傄	-5978
兩	-5979
侟	-5980
匮	-5981
卮	-5982
嗒	-5983
允	-5984
南	-5985
咮	-5986
咖	-5987
兿	-5988
參	-5989
垒	-5990
则	-5991
僬	-5992
冨	-5993
冻	-5994
吏	-5995
嗥	-5996
#	-5997
厒	-5998
吡	-5999
劚	-6000
凮	-6001
傀	-6002
儖	-6003
凡	-6004
哛	-6005
嗩	-6006
嗬	-6007
击	-6008
僠	-6009
品	-6010
冠	-6011
偱	-6012
啕	-6013
俅	-6014
噩	-6015
僦	-6016
傇	-6017
冗	-6018
務	-6019
叢	-6020
厳	-6021
刺	-6022
哥	-6023
嘩	-6024
卻	-6025
喀	-6026
场	-6027
嗍	-6028
刀	-6029
喸	-6030
匋	-6031
啳	-6032
^	-6033
備	-6034
啒	-6035
嘢	-6036
告	-6037
匒	-6038
侒	-6039
厣	-6040
嘅	-6041
傖	-6042
喉	-6043
吸	-6044
嚁	-6045
坪	-6046
哂	-6047
呴	-6048
呫	-6049
哢	-6050
喑	-6051
剩	-6052
册	-6053
厗	-6054
堈	-6055
垛	-6056
另	-6057
匍	-6058
又	-6059
吷	-6060
半	-6061
卽	-6062
嗱	-6063
划	-6064
呾	-6065
哘	-6066
嗻	-6067
哐	-6068
兡	-6069
劢	-6070
凁	-6071
単	-6072
叩	-6073
咁	-6074
埫	-6075
俣	-6076
噄	-6077
}	-6078
啰	-6079
制	-6080
劶	-6081
叻	-6082
喝	-6083
卿	-6084
双	-6085
嘏	-6086
冟	-6087
厕	-6088
叭	-6089
别	-6090
叇	-6091
儭	-6092
垏	-6093
兀	-6094
凔	-6095
呬	-6096
听	-6097
>	-6098
勚	-6099
凶	-6100
啁	-6101
嚿	-6102
吴	-6103
囚	-6104
俴	-6105
処	-6106
叚	-6107
儬	-6108
嘜	-6109
剉	-6110
剋	-6111
啴	-6112
倶	-6113
哊	-6114
匽	-6115
倷	-6116
吠	-6117
嘭	-6118
匉	-6119
功	-6120
剬	-6121
厀	-6122
削	-6123
嘮	-6124
偨	-6125
力	-6126
偖	-6127
兾	-6128
僅	-6129
劉	-6130
唇	-6131
堳	-6132
净	-6133
咛	-6134
圵	-6135
凱	-6136
嗉	-6137
呶	-6138
兢	-6139
劑	-6140
卞	-6141
吻	-6142
嘉	-6143
卍	-6144
噏	-6145
合	-6146
儡	-6147
坵	-6148
呸	-6149
劅	-6150
哦	-6151
圇	-6152
俊	-6153
墿	-6154
偰	-6155
哽	-6156
卵	-6157
叮	-6158
嗊	-6159
刋	-6160
坑	-6161
冂	-6162
偝	-6163
吪	-6164
咗	-6165
嘔	-6166
剙	-6167
厓	-6168
傕	-6169
嚉	-6170
囩	-6171
坻	-6172
囍	-6173
刖	-6174
卷	-6175
喕	-6176
叵	-6177
凋	-6178
傡	-6179
匧	-6180
吁	-6181
嘽	-6182
啸	-6183
偩	-6184
僎	-6185
函	-6186
坂	-6187
俺	-6188
垴	-6189
刜	-6190
吖	-6191
嚂	-6192
啹	-6193
包	-6194
儨	-6195
剖	-6196
危	-6197
嫧	-6198
呅	-6199
呈	-6200
勡	-6201
囔	-6202
冭	-6203
向	-6204
{	-6205
厤	-6206
围	-6207
偟	-6208
凍	-6209
劷	-6210
唠	-6211
俭	-6212
厨	-6213
墼	-6214
卙	-6215
啪	-6216
吔	-6217
咝	-6218
堩	-6219
埄	-6220
傎	-6221
咚	-6222
壞	-6223
俫	-6224
喥	-6225
噷	-6226
命	-6227
匆	-6228
嗆	-6229
堃	-6230
媚	-6231
凌	-6232
員	-6233
喙	-6234
倏	-6235
决	-6236
凚	-6237
儠	-6238
后	-6239
咂	-6240
嚑	-6241
咄	-6242
喿	-6243
塑	-6244
嗘	-6245
僝	-6246
劖	-6247
可	-6248
启	-6249
厏	-6250
嗌	-6251
哼	-6252
噍	-6253
咬	-6254
嗎	-6255
唂	-6256
啐	-6257
圆	-6258
圔	-6259
唉	-6260
嘦	-6261
嚒	-6262
塌	-6263
啑	-6264
嗴	-6265
啽	-6266
啮	-6267
嘈	-6268
噻	-6269
壍	-6270
傶	-6271
凗	-6272
匝	-6273
嚀	-6274
偬	-6275
入	-6276
再	-6277
切	-6278
問	-6279
喓	-6280
冧	-6281
午	-6282
厫	-6283
古	-6284
奫	-6285
審	-6286
呲	-6287
喊	-6288
兟	-6289
喺	-6290
哌	-6291
`	-6292
冣	-6293
分	-6294
唴	-6295
卹	-6296
厝	-6297
俚	-6298
厙	-6299
凴	-6300
夓	-6301
凰	-6302
卓	-6303
只	-6304
叉	-6305
僯	-6306
圓	-6307
坶	-6308
嫊	-6309
吊	-6310
克	-6311
嚖	-6312
哕	-6313
塣	-6314
嘬	-6315
坠	-6316
傮	-6317
劆	-6318
匑	-6319
妅	-6320
候	-6321
僈	-6322
坩	-6323
冇	-6324
唱	-6325
凂	-6326
兜	-6327
厢	-6328
唛	-6329
嚎	-6330
嬯	-6331
僒	-6332
儩	-6333
况	-6334
劝	-6335
劭	-6336
嘟	-6337
哄	-6338
嘄	-6339
埗	-6340
咥	-6341
坆	-6342
剕	-6343
吙	-6344
儦	-6345
厄	-6346
圎	-6347
埪	-6348
咷	-6349
哜	-6350
哨	-6351
儏	-6352
兤	-6353
务	-6354
凃	-6355
厛	-6356
囬	-6357
哷	-6358
坸	-6359
娚	-6360
咀	-6361
咟	-6362
募	-6363
堛	-6364
妓	-6365
咢	-6366
垾	-6367
堋	-6368
堠	-6369
单	-6370
厚	-6371
吇	-6372
咶	-6373
哠	-6374
垓	-6375
剄	-6376
劙	-6377
卲	-6378
噔	-6379
専	-6380
別	-6381
姄	-6382
勝	-6383
即	-6384
唀	-6385
姜	-6386
凢	-6387
卣	-6388
呁	-6389
块	-6390
实	-6391
\	-6392
劺	-6393
协	-6394
君	-6395
壖	-6396
剁	-6397
剻	-6398
劜	-6399
囫	-6400
儸	-6401
僔	-6402
剓	-6403
匇	-6404
咨	-6405
姩	-6406
剐	-6407
呮	-6408
嗟	-6409
埶	-6410
塓	-6411
夎	-6412
叼	-6413
呻	-6414
佸	-6415
劊	-6416
嗽	-6417
壽	-6418
叔	-6419
呓	-6420
地	-6421
发	-6422
唁	-6423
嗋	-6424
坥	-6425
堌	-6426
哤	-6427
婉	-6428
厧	-6429
呏	-6430
嗺	-6431
兗	-6432
凊	-6433
凒	-6434
吳	-6435
<	-6436
嘪	-6437
啄	-6438
冘	-6439
圭	-6440
口	-6441
喗	-6442
垫	-6443
埀	-6444
劯	-6445
圂	-6446
嘱	-6447
墻	-6448
凙	-6449
刐	-6450
吉	-6451
儧	-6452
垬	-6453
垐	-6454
厁	-6455
呑	-6456
在	-6457
塜	-6458
冽	-6459
凫	-6460
刮	-6461
叺	-6462
咠	-6463
叨	-6464
囎	-6465
嘖	-6466
嗢	-6467
哱	-6468
卼	-6469
噸	-6470
傽	-6471
嘝	-6472
圩	-6473
囪	-6474
嫑	-6475
凧	-6476
嚨	-6477
坃	-6478
僢	-6479
凿	-6480
唞	-6481
喾	-6482
坚	-6483
剼	-6484
嘕	-6485
劸	-6486
唫	-6487
喧	-6488
坨	-6489
员	-6490
哣	-6491
嚴	-6492
吢	-6493
凓	-6494
塤	-6495
奒	-6496
尤	-6497
俳	-6498
嗲	-6499
味	-6500
商	-6501
嗁	-6502
嗚	-6503
埰	-6504
変	-6505
匞	-6506
囓	-6507
嗔	-6508
儱	-6509
呿	-6510
囐	-6511
埐	-6512
层	-6513
叅	-6514
堲	-6515
嫈	-6516
嫸	-6517
啇	-6518
啧	-6519
埞	-6520
媩	-6521
吨	-6522
壳	-6523
嘷	-6524
坙	-6525
劂	-6526
哯	-6527
囧	-6528
幓	-6529
厽	-6530
嗖	-6531
势	-6532
呰	-6533
唜	-6534
劌	-6535
吆	-6536
嗯	-6537
奬	-6538
嶗	-6539
刦	-6540
哗	-6541
岴	-6542
則	-6543
僨	-6544
凉	-6545
坔	-6546
嘹	-6547
堊	-6548
傂	-6549
召	-6550
嗅	-6551
奷	-6552
卟	-6553
呍	-6554
因	-6555
垣	-6556
冯	-6557
営	-6558
吱	-6559
妧	-6560
媵	-6561
咋	-6562
嘓	-6563
埵	-6564
嬇	-6565
冖	-6566
厮	-6567
墫	-6568
咞	-6569
国	-6570
塛	-6571
妆	-6572
嗕	-6573
嫵	-6574
刬	-6575
咒	-6576
咦	-6577
囏	-6578
壤	-6579
娦	-6580
嵳	-6581
吣	-6582
哇	-6583
塡	-6584
孜	-6585
恧	-6586
~	-6587
叏	-6588
夐	-6589
妋	-6590
恡	-6591
嚃	-6592
恨	-6593
咙	-6594
唡	-6595
嗄	-6596
埨	-6597
執	-6598
媲	-6599
剺	-6600
号	-6601
呃	-6602
墅	-6603
刂	-6604
呭	-6605
囖	-6606
兘	-6607
唾	-6608
堇	-6609
奣	-6610
姥	-6611
唏	-6612
佗	-6613
夷	-6614
卾	-6615
垌	-6616
嗵	-6617
嘎	-6618
嚾	-6619
妭	-6620
垀	-6621
妁	-6622
姃	-6623
凲	-6624
剭	-6625
園	-6626
傜	-6627
凤	-6628
周	-6629
囂	-6630
埊	-6631
劁	-6632
呌	-6633
埯	-6634
喭	-6635
墲	-6636
嚳	-6637
孹	-6638
崰	-6639
憊	-6640
哸	-6641
嘑	-6642
囨	-6643
妲	-6644
媆	-6645
冏	-6646
刘	-6647
剽	-6648
唎	-6649
嚠	-6650
壚	-6651
壻	-6652
多	-6653
剂	-6654
刃	-6655
塆	-6656
剹	-6657
嗠	-6658
噐	-6659
唃	-6660
准	-6661
厸	-6662
噦	-6663
壟	-6664
射	-6665
圑	-6666
壙	-6667
崘	-6668
几	-6669
叱	-6670
叾	-6671
咰	-6672
喒	-6673
夭	-6674
嶞	-6675
怌	-6676
敲	-6677
曏	-6678
啬	-6679
悄	-6680
啋	-6681
噌	-6682
圮	-6683
塉	-6684
兖	-6685
各	-6686
唗	-6687
嘌	-6688
場	-6689
優	-6690
厠	-6691
变	-6692
嘫	-6693
士	-6694
帽	-6695
吥	-6696
唊	-6697
塯	-6698
好	-6699
博	-6700
呐	-6701
啩	-6702
嬠	-6703
山	-6704
冾	-6705
和	-6706
嚏	-6707
圞	-6708
圹	-6709
媡	-6710
嬧	-6711
呎	-6712
咭	-6713
哳	-6714
噑	-6715
夋	-6716
峦	-6717
刏	-6718
喁	-6719
埭	-6720
奙	-6721
寧	-6722
兌	-6723
剿	-6724
嘆	-6725
坄	-6726
塟	-6727
倩	-6728
嗰	-6729
槐	-6730
剮	-6731
匎	-6732
呵	-6733
哋	-6734
啦	-6735
埓	-6736
吧	-6737
咹	-6738
婚	-6739
察	-6740
寶	-6741
叶	-6742
吽	-6743
咽	-6744
唤	-6745
塋	-6746
全	-6747
冬	-6748
刳	-6749
圣	-6750
垻	-6751
墒	-6752
嫤	-6753
廕	-6754
圿	-6755
堡	-6756
呯	-6757
啱	-6758
垑	-6759
堤	-6760
唺	-6761
堁	-6762
媊	-6763
孙	-6764
嶆	-6765
燀	-6766
咊	-6767
喜	-6768
开	-6769
砭	-6770
劾	-6771
嘒	-6772
噜	-6773
垡	-6774
慨	-6775
利	-6776
吕	-6777
吼	-6778
呕	-6779
哫	-6780
將	-6781
惣	-6782
努	-6783
坦	-6784
壼	-6785
撏	-6786
傼	-6787
呗	-6788
嚶	-6789
図	-6790
圴	-6791
垗	-6792
愿	-6793
咎	-6794
嫾	-6795
幆	-6796
受	-6797
哾	-6798
坭	-6799
堦	-6800
叞	-6801
哟	-6802
囒	-6803
圈	-6804
哉	-6805
喤	-6806
垵	-6807
妈	-6808
儺	-6809
匏	-6810
嘥	-6811
團	-6812
坾	-6813
呔	-6814
喟	-6815
嚔	-6816
圕	-6817
埘	-6818
墄	-6819
墱	-6820
姟	-6821
媀	-6822
嫜	-6823
导	-6824
岛	-6825
仲	-6826
匿	-6827
喘	-6828
噒	-6829
堪	-6830
媷	-6831
劗	-6832
否	-6833
哺	-6834
喈	-6835
喦	-6836
嚓	-6837
妠	-6838
妵	-6839
効	-6840
哞	-6841
噕	-6842
堵	-6843
崶	-6844
帓	-6845
剸	-6846
叕	-6847
吂	-6848
呪	-6849
墁	-6850
婬	-6851
婋	-6852
卦	-6853
咸	-6854
唧	-6855
啫	-6856
巓	-6857
匯	-6858
咑	-6859
圃	-6860
妌	-6861
刿	-6862
啎	-6863
圫	-6864
墩	-6865
屃	-6866
傑	-6867
儮	-6868
升	-6869
吺	-6870
嗛	-6871
嘀	-6872
埩	-6873
圼	-6874
婺	-6875
慺	-6876
叹	-6877
哬	-6878
圖	-6879
壏	-6880
寏	-6881
帥	-6882
俷	-6883
兲	-6884
吿	-6885
嗞	-6886
垠	-6887
夌	-6888
媟	-6889
媢	-6890
嫔	-6891
孖	-6892
峐	-6893
峨	-6894
僩	-6895
内	-6896
劒	-6897
匐	-6898
厪	-6899
喯	-6900
坊	-6901
厥	-6902
囑	-6903
妽	-6904
姛	-6905
孌	-6906
尛	-6907
堬	-6908
@	-6909
價	-6910
啂	-6911
嘠	-6912
噀	-6913
噰	-6914
嚗	-6915
嚤	-6916
埬	-6917
堾	-6918
嬚	-6919
尲	-6920
兊	-6921
剾	-6922
匔	-6923
嚍	-6924
型	-6925
墌	-6926
墾	-6927
夦	-6928
悥	-6929
囶	-6930
岊	-6931
峠	-6932
嶻	-6933
働	-6934
厲	-6935
唋	-6936
唝	-6937
噧	-6938
列	-6939
剝	-6940
台	-6941
嗈	-6942
噃	-6943
媧	-6944
対	-6945
岣	-6946
廃	-6947
原	-6948
夔	-6949
媌	-6950
幊	-6951
偅	-6952
哶	-6953
囘	-6954
塎	-6955
墳	-6956
墺	-6957
搊	-6958
勎	-6959
咫	-6960
哀	-6961
唳	-6962
娥	-6963
媤	-6964
峭	-6965
咯	-6966
嗜	-6967
均	-6968
孔	-6969
匤	-6970
唵	-6971
啔	-6972
噁	-6973
堀	-6974
堨	-6975
夂	-6976
夛	-6977
奟	-6978
嫀	-6979
尪	-6980
就	-6981
帜	-6982
抛	-6983
劻	-6984
咺	-6985
唙	-6986
域	-6987
孊	-6988
强	-6989
揠	-6990
吋	-6991
唖	-6992
喚	-6993
嘾	-6994
坌	-6995
夏	-6996
尰	-6997
弎	-6998
悈	-6999
司	-7000
姣	-7001
崇	-7002
卬	-7003
喎	-7004
嚩	-7005
埙	-7006
塮	-7007
姶	-7008
婿	-7009
嫌	-7010
弋	-7011
叡	-7012
啼	-7013
喹	-7014
坬	-7015
塀	-7016
婈	-7017
孒	-7018
刭	-7019
勍	-7020
吚	-7021
嗤	-7022
嘡	-7023
噊	-7024
囅	-7025
埈	-7026
夨	-7027
嫮	-7028
峬	-7029
嵈	-7030
巺	-7031
帢	-7032
府	-7033
刎	-7034
劰	-7035
嗾	-7036
噺	-7037
垃	-7038
垄	-7039
姎	-7040
峉	-7041
怬	-7042
兞	-7043
句	-7044
噣	-7045
埥	-7046
堿	-7047
塳	-7048
妊	-7049
妛	-7050
婯	-7051
孧	-7052
庩	-7053
廡	-7054
兏	-7055
厔	-7056
呆	-7057
唸	-7058
喆	-7059
喏	-7060
堅	-7061
塇	-7062
嬙	-7063
帛	-7064
愬	-7065
劓	-7066
吃	-7067
哑	-7068
嗐	-7069
囟	-7070
堂	-7071
墨	-7072
徘	-7073
嘙	-7074
嚚	-7075
囙	-7076
声	-7077
巠	-7078
怛	-7079
刼	-7080
卶	-7081
厞	-7082
厦	-7083
嗶	-7084
堼	-7085
妉	-7086
姏	-7087
姐	-7088
姲	-7089
嵥	-7090
彞	-7091
匦	-7092
吅	-7093
嗝	-7094
嘿	-7095
嚇	-7096
墈	-7097
墑	-7098
壣	-7099
媱	-7100
嫽	-7101
崂	-7102
毻	-7103
匜	-7104
噹	-7105
嚷	-7106
垮	-7107
埴	-7108
堯	-7109
墹	-7110
壛	-7111
夊	-7112
娓	-7113
娕	-7114
後	-7115
渵	-7116
励	-7117
勌	-7118
唚	-7119
娅	-7120
娵	-7121
廳	-7122
恜	-7123
愥	-7124
剀	-7125
哈	-7126
哴	-7127
唐	-7128
嚮	-7129
坧	-7130
堷	-7131
塥	-7132
塨	-7133
夠	-7134
央	-7135
媠	-7136
岡	-7137
慐	-7138
攓	-7139
勊	-7140
厖	-7141
囷	-7142
圪	-7143
坷	-7144
姊	-7145
娸	-7146
婞	-7147
屖	-7148
屯	-7149
懍	-7150
摚	-7151
暩	-7152
柍	-7153
剎	-7154
噢	-7155
囈	-7156
坒	-7157
堆	-7158
塩	-7159
妷	-7160
媪	-7161
孷	-7162
岀	-7163
崝	-7164
厱	-7165
叿	-7166
喰	-7167
委	-7168
尡	-7169
屆	-7170
廲	-7171
恲	-7172
抎	-7173
充	-7174
卋	-7175
厴	-7176
塔	-7177
夳	-7178
嬒	-7179
寅	-7180
寽	-7181
尯	-7182
惺	-7183
儞	-7184
兵	-7185
冒	-7186
匚	-7187
匠	-7188
嘨	-7189
噠	-7190
嚫	-7191
圚	-7192
塙	-7193
夶	-7194
婥	-7195
嫷	-7196
嬘	-7197
嬳	-7198
峳	-7199
彟	-7200
彸	-7201
凕	-7202
剃	-7203
卒	-7204
唶	-7205
嘚	-7206
囡	-7207
堓	-7208
墮	-7209
媶	-7210
嬬	-7211
定	-7212
寞	-7213
屔	-7214
巘	-7215
弨	-7216
氫	-7217
瀁	-7218
六	-7219
勄	-7220
噇	-7221
垈	-7222
壠	-7223
壥	-7224
备	-7225
奕	-7226
妮	-7227
岿	-7228
峲	-7229
徇	-7230
剒	-7231
华	-7232
呖	-7233
嚝	-7234
囆	-7235
坫	-7236
埇	-7237
岖	-7238
峒	-7239
庉	-7240
惒	-7241
敎	-7242
剘	-7243
匘	-7244
匫	-7245
協	-7246
喢	-7247
垨	-7248
埖	-7249
墍	-7250
夵	-7251
媓	-7252
嫘	-7253
嫶	-7254
嫻	-7255
屛	-7256
岽	-7257
怾	-7258
悢	-7259
慏	-7260
懨	-7261
兣	-7262
厘	-7263
唍	-7264
啘	-7265
嘵	-7266
堔	-7267
夙	-7268
姀	-7269
姌	-7270
姯	-7271
嫚	-7272
廓	-7273
弻	-7274
從	-7275
怲	-7276
拍	-7277
掫	-7278
匕	-7279
厡	-7280
呀	-7281
唼	-7282
嗪	-7283
圉	-7284
孟	-7285
巌	-7286
廂	-7287
斴	-7288
傺	-7289
剴	-7290
哆	-7291
圲	-7292
堝	-7293
奨	-7294
姸	-7295
娘	-7296
婡	-7297
嫼	-7298
嬷	-7299
庼	-7300
徏	-7301
怐	-7302
態	-7303
傛	-7304
咆	-7305
噽	-7306
嚌	-7307
团	-7308
垟	-7309
垼	-7310
埅	-7311
娄	-7312
娊	-7313
廬	-7314
延	-7315
掎	-7316
儊	-7317
凣	-7318
勃	-7319
嘁	-7320
壑	-7321
嬔	-7322
孴	-7323
崸	-7324
巐	-7325
幑	-7326
惴	-7327
擿	-7328
傐	-7329
冼	-7330
叐	-7331
啺	-7332
喔	-7333
噯	-7334
埂	-7335
埝	-7336
墪	-7337
夝	-7338
妡	-7339
妦	-7340
嫂	-7341
嫺	-7342
嫿	-7343
嬛	-7344
孝	-7345
幔	-7346
狼	-7347
冰	-7348
却	-7349
嘐	-7350
嚐	-7351
坋	-7352
埣	-7353
堹	-7354
媎	-7355
嫄	-7356
孮	-7357
官	-7358
帑	-7359
怗	-7360
憈	-7361
刔	-7362
嘴	-7363
囸	-7364
圳	-7365
圶	-7366
堍	-7367
屵	-7368
峀	-7369
弸	-7370
悚	-7371
慾	-7372
揵	-7373
撋	-7374
曗	-7375
十	-7376
卄	-7377
吒	-7378
哿	-7379
嘞	-7380
囌	-7381
园	-7382
坮	-7383
堧	-7384
塗	-7385
墤	-7386
壶	-7387
夺	-7388
屦	-7389
岠	-7390
忈	-7391
搞	-7392
摙	-7393
擺	-7394
兦	-7395
劔	-7396
匙	-7397
吶	-7398
嚯	-7399
囤	-7400
圯	-7401
埉	-7402
塊	-7403
墆	-7404
妤	-7405
岕	-7406
峊	-7407
嶢	-7408
帐	-7409
廘	-7410
彲	-7411
忮	-7412
悰	-7413
慕	-7414
朵	-7415
咏	-7416
咘	-7417
咪	-7418
單	-7419
喻	-7420
坏	-7421
垭	-7422
堢	-7423
将	-7424
尢	-7425
摶	-7426
擉	-7427
攂	-7428
椷	-7429
刹	-7430
勅	-7431
呧	-7432
呹	-7433
啍	-7434
啖	-7435
嚹	-7436
垸	-7437
堘	-7438
婩	-7439
嬨	-7440
宑	-7441
尨	-7442
屮	-7443
峴	-7444
嶖	-7445
嶺	-7446
吟	-7447
哩	-7448
啓	-7449
喼	-7450
囝	-7451
圍	-7452
塍	-7453
墧	-7454
壵	-7455
头	-7456
岫	-7457
峡	-7458
崭	-7459
征	-7460
慔	-7461
戞	-7462
挲	-7463
皠	-7464
删	-7465
剡	-7466
區	-7467
去	-7468
叓	-7469
嚺	-7470
圐	-7471
基	-7472
堥	-7473
妨	-7474
寲	-7475
尹	-7476
峧	-7477
怶	-7478
惮	-7479
檵	-7480
匬	-7481
嗃	-7482
噫	-7483
囥	-7484
圬	-7485
埍	-7486
堟	-7487
墏	-7488
壸	-7489
外	-7490
奤	-7491
娝	-7492
嫱	-7493
寪	-7494
屓	-7495
巷	-7496
愛	-7497
愶	-7498
凘	-7499
凨	-7500
咿	-7501
唟	-7502
喨	-7503
嗷	-7504
噴	-7505
囕	-7506
圻	-7507
垱	-7508
塐	-7509
姿	-7510
娎	-7511
寳	-7512
少	-7513
峚	-7514
愑	-7515
凈	-7516
劤	-7517
吝	-7518
咼	-7519
哔	-7520
嘗	-7521
圝	-7522
堐	-7523
堮	-7524
壈	-7525
尥	-7526
巙	-7527
巻	-7528
忣	-7529
惜	-7530
愓	-7531
掬	-7532
摠	-7533
摵	-7534
勉	-7535
历	-7536
呺	-7537
啨	-7538
噘	-7539
器	-7540
囮	-7541
圧	-7542
坅	-7543
垉	-7544
塃	-7545
塚	-7546
墉	-7547
复	-7548
妇	-7549
娨	-7550
娰	-7551
娹	-7552
嫝	-7553
嬈	-7554
嬹	-7555
對	-7556
尒	-7557
尵	-7558
屇	-7559
嶘	-7560
当	-7561
徨	-7562
憻	-7563
掐	-7564
曾	-7565
加	-7566
哹	-7567
垙	-7568
堚	-7569
壬	-7570
壷	-7571
姼	-7572
娍	-7573
婑	-7574
嬄	-7575
尘	-7576
庡	-7577
廁	-7578
廖	-7579
恇	-7580
愍	-7581
拵	-7582
捰	-7583
杞	-7584
椸	-7585
漒	-7586
牓	-7587
劏	-7588
劣	-7589
哒	-7590
唢	-7591
啵	-7592
啻	-7593
嗦	-7594
坁	-7595
塁	-7596
姬	-7597
姻	-7598
娱	-7599
婴	-7600
崢	-7601
嵘	-7602
廔	-7603
归	-7604
戇	-7605
摼	-7606
冢	-7607
匡	-7608
匨	-7609
呋	-7610
咍	-7611
喠	-7612
噬	-7613
嚪	-7614
坼	-7615
垅	-7616
埒	-7617
報	-7618
墽	-7619
夑	-7620
夬	-7621
娫	-7622
娷	-7623
婠	-7624
嫭	-7625
寷	-7626
尦	-7627
岐	-7628
峓	-7629
崣	-7630
嶭	-7631
巋	-7632
巏	-7633
巗	-7634
彼	-7635
怷	-7636
悇	-7637
拶	-7638
搝	-7639
擐	-7640
攣	-7641
傭	-7642
勛	-7643
唰	-7644
善	-7645
嘊	-7646
墯	-7647
夤	-7648
妣	-7649
娋	-7650
婛	-7651
嫕	-7652
寇	-7653
屩	-7654
峯	-7655
嵙	-7656
嶼	-7657
巁	-7658
巡	-7659
巨	-7660
帾	-7661
幢	-7662
庠	-7663
彴	-7664
彵	-7665
悙	-7666
僶	-7667
剦	-7668
劽	-7669
勐	-7670
吀	-7671
吤	-7672
咾	-7673
哵	-7674
啛	-7675
啢	-7676
噉	-7677
噚	-7678
嚡	-7679
垞	-7680
妒	-7681
姗	-7682
婗	-7683
婝	-7684
婭	-7685
嫡	-7686
嫴	-7687
嬅	-7688
嬴	-7689
季	-7690
寔	-7691
崙	-7692
嶇	-7693
巑	-7694
御	-7695
恦	-7696
悫	-7697
戆	-7698
抌	-7699
旄	-7700
枊	-7701
劈	-7702
劼	-7703
勋	-7704
卥	-7705
卸	-7706
咜	-7707
啊	-7708
啙	-7709
圏	-7710
圛	-7711
坐	-7712
埮	-7713
墶	-7714
売	-7715
夒	-7716
奓	-7717
奩	-7718
妸	-7719
姨	-7720
姳	-7721
婘	-7722
婳	-7723
宄	-7724
宓	-7725
宖	-7726
屨	-7727
崫	-7728
帨	-7729
庛	-7730
彐	-7731
徟	-7732
忊	-7733
忍	-7734
念	-7735
恃	-7736
愡	-7737
愾	-7738
扆	-7739
找	-7740
搉	-7741
攑	-7742
敵	-7743
栖	-7744
刓	-7745
劋	-7746
勏	-7747
匪	-7748
卧	-7749
叫	-7750
啉	-7751
嘘	-7752
圁	-7753
圽	-7754
垳	-7755
垶	-7756
塕	-7757
塵	-7758
壃	-7759
夀	-7760
奎	-7761
奢	-7762
娜	-7763
娶	-7764
媰	-7765
嬕	-7766
寫	-7767
封	-7768
屳	-7769
峽	-7770
嶱	-7771
庳	-7772
彈	-7773
忎	-7774
忘	-7775
怡	-7776
恎	-7777
捾	-7778
摧	-7779
旕	-7780
杓	-7781
儰	-7782
凜	-7783
勁	-7784
叒	-7785
唲	-7786
啡	-7787
喪	-7788
嗫	-7789
嘍	-7790
噖	-7791
噞	-7792
嚬	-7793
囲	-7794
圸	-7795
堉	-7796
墐	-7797
壺	-7798
契	-7799
妟	-7800
娂	-7801
婙	-7802
尫	-7803
峋	-7804
嵞	-7805
嶹	-7806
庌	-7807
弧	-7808
怺	-7809
愇	-7810
撾	-7811
旃	-7812
昩	-7813
樒	-7814
呞	-7815
噵	-7816
圗	-7817
垽	-7818
壿	-7819
奐	-7820
娔	-7821
娪	-7822
嫫	-7823
嬆	-7824
屟	-7825
屿	-7826
弉	-7827
彠	-7828
彣	-7829
徕	-7830
忯	-7831
怚	-7832
总	-7833
惀	-7834
慖	-7835
慦	-7836
戂	-7837
戝	-7838
挅	-7839
斎	-7840
旛	-7841
昷	-7842
曯	-7843
溌	-7844
溤	-7845
灁	-7846
劦	-7847
匌	-7848
卌	-7849
唨	-7850
嘣	-7851
噓	-7852
埃	-7853
塽	-7854
媒	-7855
嫢	-7856
嫯	-7857
嬺	-7858
孕	-7859
寭	-7860
尴	-7861
岷	-7862
峹	-7863
崷	-7864
巜	-7865
幈	-7866
庆	-7867
庑	-7868
廱	-7869
怋	-7870
悉	-7871
惚	-7872
憤	-7873
抢	-7874
暅	-7875
曇	-7876
朓	-7877
框	-7878
母	-7879
滞	-7880
刵	-7881
劍	-7882
勑	-7883
匢	-7884
哪	-7885
嚘	-7886
埜	-7887
埸	-7888
塘	-7889
夕	-7890
失	-7891
威	-7892
婵	-7893
媗	-7894
媹	-7895
嬥	-7896
嬭	-7897
宎	-7898
尟	-7899
屍	-7900
崈	-7901
巊	-7902
幡	-7903
庤	-7904
弣	-7905
弹	-7906
忛	-7907
怤	-7908
悅	-7909
悛	-7910
扱	-7911
抵	-7912
抺	-7913
拉	-7914
揂	-7915
攚	-7916
敹	-7917
斳	-7918
旀	-7919
曩	-7920
曫	-7921
朩	-7922
杻	-7923
枌	-7924
猊	-7925
的	-7926
傚	-7927
傯	-7928
勂	-7929
勖	-7930
呷	-7931
哏	-7932
喐	-7933
噥	-7934
囄	-7935
圄	-7936
壝	-7937
夈	-7938
天	-7939
姇	-7940
姍	-7941
婮	-7942
婹	-7943
媑	-7944
媯	-7945
嫍	-7946
學	-7947
尀	-7948
尕	-7949
尻	-7950
岝	-7951
岼	-7952
峮	-7953
嶪	-7954
帤	-7955
幁	-7956
幉	-7957
徜	-7958
戺	-7959
扭	-7960
拒	-7961
捚	-7962
敖	-7963
昺	-7964
朇	-7965
潼	-7966
熣	-7967
军	-7968
勆	-7969
勘	-7970
啞	-7971
嚵	-7972
埾	-7973
堺	-7974
墎	-7975
墵	-7976
壁	-7977
壐	-7978
壔	-7979
奡	-7980
奾	-7981
妬	-7982
婍	-7983
嬎	-7984
宣	-7985
寰	-7986
寿	-7987
尊	-7988
屻	-7989
嵌	-7990
嵒	-7991
嶝	-7992
巪	-7993
庘	-7994
庢	-7995
弢	-7996
