<unk>	0
<s>	0
</s>	0
▁价	-0
▁亓	-1
▁亅	-2
▁仦	-3
▁二	-4
▁云	-5
▁井	-6
▁予	-7
▁些	-8
▁亃	-9
▁亂	-10
▁仈	-11
▁仉	-12
伧亖	-13
▁仧	-14
▁1	-15
▁亪	-16
▁亷	-17
▁亞	-18
▁伇	-19
▁仍	-20
▁仵	-21
▁仐	-22
▁亮	-23
▁仮	-24
▁亴	-25
▁亣	-26
予亐	-27
▁(	-28
▁价亭	-29
仌亖	-30
▁任	-31
亹人	-32
▁付	-33
▁伲	-34
什亖	-35
▁仈亭	-36
亪亇	-37
▁2	-38
互亇	-39
▁云互亇	-40
仏于	-41
▁井产	-42
些伺	-43
亰亇	-44
亹亗	-45
▁亽	-46
▁伕	-47
▁亻	-48
仡亇	-49
▁倧	-50
▁佂	-51
▁亓亘	-52
仕亇	-53
亪亣	-54
▁侍	-55
▁"	-56
亻仏于	-57
▁今	-58
▁价佛	-59
仇伺	-60
亿亐	-61
伧五	-62
▁仢	-63
▁19	-64
予亚	-65
▁京	-66
什五	-67
▁佖	-68
▁20	-69
▁侈	-70
▁于	-71
▁亂亃	-72
伂亇	-73
亏亐	-74
▁二亍	-75
▁亓些	-76
▁侫	-77
仮予	-78
▁亃交	-79
▁份	-80
仱俔	-81
仅予	-82
▁亣亭	-83
▁交	-84
产于	-85
仌五	-86
亾亟	-87
▁倧仱俔	-88
▁仁	-89
▁仦仾	-90
仮仇	-91
▁仃	-92
▁仸	-93
亻亼	-94
▁仫	-95
亭亇	-96
▁云了	-97
▁价于	-98
予什亖	-99
亊五	-100
仉亖	-101
▁亩	-102
▁价佇	-103
▁佰	-104
▁仵亊	-105
亟亖	-106
▁价些	-107
仅仇	-108
予伽	-109
▁亅亟	-110
▁亪伄	-111
亳亇	-112
▁二仇	-113
▁二亼	-114
亹亥	-115
▁住	-116
▁佢	-117
亟亇	-118
仄亇	-119
▁价亃	-120
▁亓亳	-121
▁仦亪亇	-122
▁佂什	-123
亭伟	-124
▁价亟	-125
亹人亻仏于	-126
亨亟	-127
▁二仿	-128
些亗	-129
▁亓亣	-130
▁仦亇	-131
▁佳	-132
些于	-133
仱予	-134
▁亓伄	-135
▁亓亘伟	-136
仓亖	-137
亹亊	-138
▁价亳	-139
亹亗于	-140
伡亖	-141
▁伃	-142
▁亅仄	-143
▁仨	-144
▁201	-145
▁仦亻	-146
▁予亭	-147
▁仮些亗	-148
▁井亭	-149
亩予	-150
00	-151
▁二亍于	-152
▁亓仹	-153
争亖	-154
仉五	-155
▁任仾	-156
亹人亇	-157
伡伺	-158
▁亅亪亣	-159
▁仧亳	-160
▁仵亪亣	-161
▁亓仹于	-162
▁佭	-163
亏什亖	-164
▁仍亊	-165
▁仧仏	-166
▁井产于	-167
▁价些伺	-168
▁侼	-169
亏亚	-170
▁亃事	-171
予亇	-172
▁二仛	-173
▁仐事	-174
亻亼仇	-175
▁价亊	-176
▁云了亐	-177
仇于	-178
▁亃交僴	-179
▁亅亟亍	-180
▁价佇亟	-181
▁价亭伟	-182
▁价俌	-183
▁佡	-184
亾亖	-185
今予	-186
亾五	-187
an	-188
▁亅亟亍人	-189
▁仦亻亟	-190
伐亇	-191
▁些伎	-192
▁仍予	-193
佛于	-194
▁京亭	-195
亨亼	-196
▁亮亭	-197
▁伲亼	-198
▁些仞	-199
仓亭伟	-200
享亟	-201
▁价仄	-202
仺些	-203
仦亇	-204
▁亞亟	-205
▁7	-206
▁("	-207
),	-208
▁任伿	-209
▁亂亡	-210
▁亓亃	-211
▁3	-212
亟伺	-213
▁亂亃亖	-214
▁些介	-215
▁亷仄	-216
▁亂亜	-217
▁些亭	-218
▁井亭今	-219
伖亇	-220
▁予亊	-221
▁些仆	-222
亾了	-223
亴亟	-224
▁交予	-225
▁200	-226
▁侬	-227
伽仡	-228
▁伱	-229
▁佤	-230
亳亸	-231
亱亇	-232
亶予	-233
▁伇亗	-234
▁仝	-235
▁亅亳	-236
予什五	-237
介亹亊	-238
▁亓亜	-239
▁亴仄	-240
伽亇	-241
▁伲争	-242
▁俖	-243
▁修	-244
▁二伖亇	-245
▁井仺	-246
亜亟	-247
▁仦仼	-248
▁伏	-249
▁亓仆	-250
▁价倖	-251
▁伋	-252
▁亓亘伟产	-253
亃亇	-254
会些	-255
侻亐	-256
仱云	-257
▁仵伎	-258
at	-259
仇亇	-260
▁佃	-261
仐事	-262
佝伺	-263
▁住优	-264
▁侍伧亖	-265
云亼	-266
亊亇	-267
▁仧亾	-268
▁二亣	-269
▁亷亸	-270
▁佞	-271
亿什五	-272
▁仐仺些	-273
▁仉亚	-274
▁5	-275
▁些优	-276
▁亓亣予	-277
▁仢亰亇	-278
人会	-279
▁予亥	-280
▁亞伤	-281
仌侀	-282
仾亇	-283
亵伺	-284
▁京于	-285
了亇	-286
亟于	-287
▁佖仙	-288
亍亜	-289
人亇	-290
▁井仄	-291
▁-	-292
俥伺	-293
了亹亥	-294
▁佽	-295
▁侲	-296
▁4	-297
了亹亗	-298
亿亚	-299
▁住亝	-300
▁佧	-301
人伨	-302
▁侩	-303
▁亜	-304
▁亂亨亟	-305
▁伇云	-306
▁价亖	-307
▁亪亡	-308
亳于	-309
亭仡	-310
▁仍享	-311
▁亓些伺	-312
▁18	-313
亣亖	-314
▁亪伄伮	-315
人伨亗	-316
▁仱	-317
▁亣介亹亊	-318
▁亅众	-319
争五	-320
▁于人伨亗	-321
亳仌亖	-322
▁予亸	-323
仅仆	-324
亨仏于	-325
佬伺	-326
er	-327
▁伎	-328
亂亇	-329
亣亟	-330
▁亃亳	-331
▁价佇仅	-332
▁俸	-333
▁仍亜	-334
:.	-335
▁仨仩	-336
▁亅亣	-337
▁仐予	-338
).	-339
亩亖	-340
伅伺	-341
予什	-342
予伽亇	-343
▁予仄	-344
亱仇	-345
仯亟	-346
▁些亳	-347
仌亟	-348
am	-349
▁仫们	-350
▁仦仼亖	-351
▁于亡	-352
今伺	-353
▁亴仏	-354
亃亖	-355
▁亮亟	-356
▁亅亜	-357
▁仵优	-358
▁些亜	-359
亃侀	-360
▁付亊	-361
伵仇	-362
▁价亭佛	-363
仐仄	-364
些亳	-365
▁亓侲	-366
▁亓亘伟产于	-367
▁井仺伮	-368
予伽仡	-369
伫亖	-370
on	-371
▁亃仯	-372
▁亓众	-373
▁亓以	-374
▁井产仇	-375
▁价俌伧亖	-376
予亚仠	-377
▁云亼	-378
▁价亃五	-379
al	-380
▁亓仏	-381
仞予	-382
亹享	-383
伨争亖	-384
in	-385
▁6	-386
仯五	-387
人亝	-388
亂亡	-389
▁仧亵伺	-390
ar	-391
▁亅享	-392
▁仉仆	-393
▁亘	-394
予些	-395
▁仉亭	-396
▁亓亭	-397
了亹人亻仏于	-398
▁亓佛	-399
佋亐	-400
▁亽人	-401
仉亟	-402
亶亖	-403
亭佛	-404
▁价亭仡亇	-405
亹人亻亼仇	-406
▁井仺伮仇	-407
亸亇	-408
▁伲于	-409
▁仃仄亇	-410
作伺	-411
or	-412
亩亪亇	-413
▁些亊	-414
▁仮仐仄	-415
▁井亊	-416
亳伺	-417
▁仮些亗亇	-418
了亐	-419
▁仵亪亣仡亇	-420
仯亃	-421
仮亪亇	-422
▁予亗	-423
▁亮仒	-424
▁伇亗云亼	-425
▁仦伡亖	-426
▁井亸	-427
▁佰亭亇	-428
▁亷亳亸	-429
亿什亖	-430
▁仍享亮	-431
仉佴	-432
▁价享	-433
▁亃仇于	-434
亗亇	-435
▁些仆侕	-436
")	-437
亾仅	-438
侐伺	-439
▁亅争	-440
佇亳	-441
些亾	-442
▁仵亪	-443
▁侺	-444
▁仮些亗仌亖	-445
▁仃仄	-446
▁价伥	-447
仓五	-448
▁价亳仾	-449
亹亜	-450
亭仡亇	-451
▁价仱	-452
▁亅伫	-453
▁2011	-454
了亹亗于	-455
▁仐仄	-456
亃仉	-457
▁亓亃五	-458
▁井伧	-459
▁仉亚仅	-460
▁P	-461
伄亟	-462
▁亳	-463
▁井伓	-464
▁井亟	-465
俤五	-466
ch	-467
亟五	-468
▁亅亟亍人亝	-469
▁亴些	-470
些亿亐	-471
会亡	-472
▁199	-473
▁侍伧	-474
▁价俌伧	-475
亻亼于	-476
▁予侚	-477
▁仐仺些仇	-478
亷仄	-479
▁8	-480
亱予	-481
▁亓仂	-482
▁亃予些	-483
▁,	-484
▁价伟	-485
▁云亥	-486
▁些亜些	-487
▁仵事	-488
亃佱	-489
伵予	-490
些仄	-491
▁任仾产于	-492
仆亇	-493
▁亃仅	-494
产仇	-495
▁亂亃佁	-496
en	-497
侈伇	-498
仅亪亇	-499
▁亓享	-500
予伺	-501
▁他	-502
▁云亳	-503
▁亂仛	-504
▁亅亊	-505
▁亃交僴人	-506
▁側	-507
▁价仄偢	-508
▁价佃	-509
▁价佉	-510
▁仦今伺	-511
▁云亭	-512
仆佃	-513
▁亓于	-514
▁价俌伧仓亖	-515
伧亰亇	-516
亹争	-517
▁仅	-518
▁侈僧	-519
▁于人伨亗令	-520
▁价仏	-521
▁亓伐	-522
▁二仿亇	-523
▁亓亜亹享	-524
▁亅亾	-525
仌亳	-526
云亖	-527
亏什五	-528
▁仈仿	-529
▁亮侻亐	-530
▁亮亾亟	-531
仉亟亖	-532
▁9	-533
亻佬伺	-534
▁亃交侃	-535
▁井仄予	-536
▁侈亴亟	-537
了亹亥产于	-538
亴亾亟	-539
▁侈僧人	-540
▁亓些亳于	-541
▁仦予	-542
人伮	-543
仱仇	-544
亳予	-545
▁亮亭亯	-546
▁任仼	-547
▁云事	-548
▁佂什伧	-549
仆伺	-550
▁保	-551
▁G	-552
伔亃	-553
▁198	-554
▁亣仏	-555
▁亪仛	-556
亰产	-557
▁伇亗云亼亢	-558
▁价亳倐	-559
▁予亸偼	-560
▁偁	-561
▁份仾亇	-562
▁亓亳侫	-563
▁云了仆佃	-564
▁些亳亱	-565
▁交予伂亇	-566
▁亻享	-567
▁亻仱云	-568
",	-569
▁井产仇伺	-570
亾伵	-571
亃亳	-572
▁仃仿	-573
亨亼仇伺	-574
▁予众	-575
仺亇	-576
今仇	-577
予亶予	-578
于亇	-579
▁仦亳	-580
伫五	-581
▁亓予	-582
▁亞侶	-583
▁10	-584
ay	-585
▁予亸偼人伮	-586
▁仦亻亟些	-587
亭了	-588
▁佡伥	-589
价亖	-590
▁仦俔	-591
仅亖	-592
予什亰亇	-593
▁亣亗	-594
▁亅伧	-595
▁仍予亳	-596
伊伆	-597
▁二人会	-598
伇五	-599
▁份仺	-600
▁佂伫	-601
▁亪仞	-602
亹人亝	-603
▁予事	-604
佋事	-605
▁亓佃	-606
▁15	-607
▁亻仞	-608
亨亼于	-609
19	-610
亝于	-611
▁亴仺	-612
▁C	-613
伨予	-614
伕亳亇	-615
亱亪亇	-616
些亿	-617
▁亅仞	-618
▁亅争亟亖	-619
会仡	-620
亹亪亣	-621
予亚仕亇	-622
▁197	-623
▁井伓亗	-624
亂予	-625
亏什	-626
▁云仯亃	-627
es	-628
▁亃交僴争亖	-629
▁云了仆佃亢	-630
伮亖	-631
佉亇	-632
▁亓侲亾了	-633
人予亐	-634
▁亓亘亙	-635
▁仈佚	-636
▁亅佋事	-637
▁仮仒	-638
仓亟	-639
亃五	-640
▁些佛	-641
th	-642
▁二伐亇	-643
些五	-644
▁S	-645
▁亓亊	-646
亗伺	-647
仯亖	-648
▁价亭亹	-649
▁12	-650
仅仇于	-651
▁云亣	-652
▁价仇	-653
▁倧亾亖	-654
▁亃予些亖	-655
▁2015	-656
▁侈佃	-657
▁价亭佛于	-658
▁仦侻亐	-659
▁予仄伟	-660
于亷	-661
▁亓亳亴	-662
人侐	-663
▁仈什	-664
▁亪亜	-665
佋亚	-666
▁17	-667
is	-668
▁亓仂会	-669
▁亅侏	-670
▁佂亹	-671
▁[	-672
▁亃交僴争五	-673
們亻	-674
亻亼仇伺	-675
予亳	-676
▁仐們亻	-677
000	-678
仺亣	-679
▁'	-680
ic	-681
仄仌亖	-682
▁价些伫亖	-683
▁价亣亖	-684
▁付于亷	-685
▁佳亾	-686
▁仉人	-687
▁仮亃亇	-688
▁亓仆伂	-689
▁住亝亇	-690
亴仅	-691
▁仦倌	-692
▁予伿	-693
▁偓	-694
▁196	-695
▁亅传	-696
亭些	-697
仩伺	-698
亏伽	-699
亨亼仇	-700
▁仦伉	-701
▁伕亣亟	-702
倐伺	-703
伈仠	-704
▁亅佉	-705
▁予亸偼人伮亍亜	-706
▁亅传仺	-707
▁任产	-708
亏伽亇	-709
▁佔	-710
仐事亟	-711
▁亪伄伮亊	-712
亅伺	-713
"),	-714
▁京于今予	-715
▁亮亟伺	-716
些介	-717
▁16	-718
▁予争	-719
亹亥产于	-720
伧亟亖	-721
▁价亟了	-722
亃仂	-723
▁仧仱	-724
▁予亥伨争亖	-725
▁亓伄亟	-726
仺亻仏于	-727
▁佂什些	-728
▁亣亭俌	-729
亊予	-730
ram	-731
▁些仞亏	-732
▁仦仺	-733
▁佰亳	-734
▁云亭会些	-735
仱亖	-736
▁仫们于	-737
▁亞伾	-738
僂亾	-739
▁些作	-740
亳侫	-741
▁亓仏仐事亟	-742
亏伽仡	-743
▁价些亿什亖	-744
▁侍伧亱亪亇	-745
▁予亭亃	-746
仪仜	-747
▁仵亊伉	-748
▁予俔	-749
▁亓什	-750
亷仄令	-751
▁亅佋事了	-752
云事	-753
了亹人亇	-754
▁亪人侐	-755
▁亃五	-756
会亡伧五	-757
▁仨仩仪仜	-758
▁二佛	-759
余亜亟	-760
▁亪仞倾	-761
▁俍	-762
▁仈伀	-763
亘亙	-764
予五	-765
亿亚亢	-766
亗于	-767
仕亊五	-768
▁亞偮	-769
▁些伎伨争亖	-770
仆伂	-771
▁于亡伧五	-772
▁亣亭仉	-773
▁仐們亻了亹人亻仏于	-774
▁仈伭	-775
▁位	-776
▁亴副	-777
会亊五	-778
▁俖亳	-779
亭仮	-780
▁A	-781
亩亳	-782
▁亮互	-783
▁亃事亘	-784
▁侼伺	-785
亾亘	-786
▁亓仿	-787
些仱予	-788
亹作伺	-789
▁价些亳于	-790
▁亓伪	-791
▁亓仏仐事亟会亡伧五	-792
仅伺	-793
▁予仾	-794
亩亇	-795
▁195	-796
▁伇亏	-797
▁仈亭亷仄令	-798
仡令	-799
▁仉亚仅亥	-800
伈令	-801
▁亓些亿亐	-802
▁仐仏	-803
▁予享	-804
▁侬侃	-805
▁亣亭俌伧亖	-806
仮伺	-807
▁侈俕	-808
▁些亾	-809
▁仉仂	-810
▁价仺亣	-811
会亇	-812
▁仐亡	-813
▁侬僑	-814
▁亅亪亣伧亖	-815
▁仧仏亪	-816
▁仦亻佦	-817
仮仇于	-818
▁亃代	-819
▁仵亊侑	-820
▁侬僑伿	-821
亨亖	-822
▁亓侲亾伵	-823
仉亊	-824
▁侳	-825
▁倧亳予	-826
▁亃仅亾	-827
些亭亇	-828
亟仌亖	-829
▁亞亟伸	-830
▁亓亣亷	-831
▁伇仃	-832
▁云仺	-833
anch	-834
▁亂亃佁亢	-835
▁倧仱俔伧亖	-836
▁仵亪亣予亚仠	-837
▁194	-838
▁亷亳亸仮予	-839
▁亃亳仉	-840
ion	-841
亝亖	-842
▁仦仾亢	-843
▁仵亪了亹亥产于	-844
▁井仺伮仇亿亚亢	-845
▁云亼亢	-846
ayat	-847
▁予僂亾	-848
▁井伓亗亩亪亇	-849
些亜	-850
▁Gram	-851
亙予亐	-852
亅亳	-853
▁侈僧人亨亼仇伺	-854
▁Panch	-855
▁Panchayat	-856
la	-857
▁价佇仅仉五	-858
▁倧仱俔亢	-859
▁云仒	-860
▁亃亳仉亍亜	-861
▁仄	-862
仙仌	-863
佚伺	-864
▁亴副亿什五	-865
▁亷仄仌亖	-866
▁仉仄	-867
▁亩五	-868
ur	-869
▁任人	-870
亻亟	-871
亿伽仡	-872
伨亖	-873
▁11	-874
些仄伺	-875
▁付亣	-876
亃佱予	-877
▁于倖	-878
▁些作亳仌亖	-879
▁仧五	-880
▁仈仓	-881
侐介	-882
仌亰亇	-883
▁价亭伮	-884
伧仓亭伟	-885
▁14	-886
▁仉亊	-887
▁井仙仌	-888
▁亽倈	-889
it	-890
▁云亷	-891
亍亩亇	-892
亻亖	-893
▁予亦	-894
▁亅亳侐介	-895
▁亓亳伇	-896
▁佤亳	-897
▁仍亊亨亼于	-898
▁亣亭仉做	-899
▁云众	-900
▁仵亊伛	-901
仧亜	-902
▁仧亳侈伇	-903
▁付亳	-904
伂予亐	-905
了亖	-906
▁二個	-907
▁亻俄	-908
些亃侀	-909
亽亟	-910
▁仮亃	-911
▁伇仃予	-912
▁仸仺	-913
▁亅亗	-914
亃事	-915
予亶	-916
▁13	-917
▁仈伭亭	-918
▁云亥仢	-919
伅亖	-920
▁亅佼	-921
佘仕亇	-922
▁侰	-923
云亣	-924
▁价亭了	-925
亻佬	-926
▁仍人	-927
▁侈倘	-928
▁二仛亣	-929
▁仍些	-930
亩予伂亇	-931
▁亅佼亍亩亇	-932
▁二仳	-933
仉亳	-934
▁仨仩仼	-935
▁亓伔亃	-936
伬于	-937
▁予些	-938
伧亭	-939
▁京仺	-940
▁侫互	-941
▁伲仄	-942
▁伕于	-943
▁亓交	-944
亰仡	-945
▁M	-946
▁伇于	-947
亅亣	-948
▁二亍亦	-949
予亚令	-950
仌亭	-951
▁仮亷	-952
▁伕予	-953
▁信	-954
▁亴仏佛	-955
▁仓	-956
仒亇	-957
亿伽	-958
▁云伿	-959
伮五	-960
▁亂亟	-961
▁伃于	-962
▁云于	-963
▁仐仺	-964
▁仁们	-965
亗仌亖	-966
el	-967
▁亪亭	-968
▁价伉	-969
▁价亃伡亖	-970
人亅	-971
▁亽亐	-972
▁亓仏似	-973
▁京亭侵	-974
亭享亟	-975
▁仐仂	-976
伈仕亇	-977
亘仅仇	-978
▁井亃仉	-979
人亻仏于	-980
亩仇	-981
▁仫佃	-982
▁亘亟	-983
伉亟	-984
▁亱	-985
了亹人	-986
▁仦亴亾亟	-987
]]	-988
▁仈侘	-989
▁伕仏	-990
▁价亦	-991
▁份事	-992
▁偫	-993
▁儝	-994
▁亅众仅	-995
▁I	-996
亵亣	-997
▁亣亭云	-998
产仇伺	-999
▁亅佋事了仞予	-1000
▁伃仾亇	-1001
▁傱	-1002
▁亊	-1003
仉侀	-1004
了亚	-1005
▁亮仩伺	-1006
仌仓亭伟	-1007
▁仦仱	-1008
▁价亭伮伐亇	-1009
云于	-1010
▁f	-1011
▁亻亭	-1012
佇亟	-1013
▁亴伄亟	-1014
▁亻伄	-1015
▁佂什些佛	-1016
▁仢侀	-1017
▁亃倾	-1018
20	-1019
▁些亭亇	-1020
as	-1021
▁仢俰	-1022
▁B	-1023
il	-1024
▁亓伄仉	-1025
▁佭亨亟	-1026
▁仉亾	-1027
▁伇云亟	-1028
亝了	-1029
▁仭	-1030
仕俥伺	-1031
估亐	-1032
▁些众	-1033
▁亓侈	-1034
亊亖	-1035
亏亇	-1036
▁亓亘伨亖	-1037
▁o	-1038
▁仉亭于	-1039
俽于	-1040
▁伕亝	-1041
▁仸伄	-1042
▁0	-1043
▁亅伫亟	-1044
佘仠	-1045
仱伇	-1046
▁193	-1047
▁亓仏似些仄伺	-1048
▁份亣	-1049
,000	-1050
佱仇	-1051
▁伲争予什亖	-1052
▁亮仏	-1053
▁亂予	-1054
▁予介	-1055
▁价亡	-1056
仼亟	-1057
▁任仼亭	-1058
▁佭仭	-1059
事伧亖	-1060
▁[[	-1061
亹于	-1062
仯仅	-1063
▁些伇	-1064
▁予亭会	-1065
佻仺	-1066
亭亐	-1067
▁仸亜亟	-1068
侄伺	-1069
ed	-1070
▁亃仆	-1071
伂仡	-1072
▁些亟	-1073
▁亅亟亍人仌	-1074
▁价佴	-1075
ol	-1076
▁仍享亮仺亻仏于	-1077
亃佱仇	-1078
亹亗仇	-1079
▁亓仄	-1080
▁仐侰	-1081
om	-1082
伡予	-1083
▁仧仏亙	-1084
▁价伉亱	-1085
▁亞佩	-1086
▁予仾仧亜	-1087
▁亣予	-1088
▁亽亥	-1089
▁二亍些伺	-1090
▁伕仄	-1091
▁亓佉	-1092
仍予	-1093
▁亴仏亙	-1094
伐仡	-1095
亱仆	-1096
▁仦仒	-1097
▁价亊倗	-1098
▁价亃仂	-1099
会仠	-1100
▁仮亸	-1101
佘令	-1102
▁亪仺	-1103
▁予仉	-1104
▁云亡	-1105
▁仸仏	-1106
▁亓亰	-1107
亝亇	-1108
▁价亳倐亇	-1109
▁井亃	-1110
伕亾	-1111
仅予令	-1112
▁二人	-1113
▁仦亻亟佃	-1114
▁云仌亟	-1115
▁伇亾	-1116
亩亳亸	-1117
▁仮亷亸	-1118
伫亟	-1119
▁佂什伆	-1120
▁仸亗	-1121
亣佴	-1122
▁亅亟仴	-1123
▁仢仙	-1124
▁伕亳	-1125
亽亃	-1126
▁于些	-1127
▁价仌	-1128
▁今儘	-1129
仛于	-1130
▁佢亣	-1131
▁亓健	-1132
▁二亇	-1133
▁伥	-1134
仄予	-1135
▁亞俀	-1136
▁仦亳侐	-1137
▁亷亸亹人亇	-1138
▁二亾	-1139
▁T	-1140
仱予伂亇	-1141
et	-1142
▁亓优	-1143
▁价仆	-1144
▁亓伄仉亟亖	-1145
▁亅仏	-1146
▁京亭亐	-1147
亨佬伺	-1148
▁亃代于	-1149
▁偃	-1150
▁价倕	-1151
▁仐予僭	-1152
▁R	-1153
▁价仄亨亟	-1154
▁仃佚	-1155
▁井亾亘	-1156
伧亱仇	-1157
▁亓亦	-1158
人仌	-1159
▁of	-1160
▁亂亜仕亇	-1161
▁予仇	-1162
▁25	-1163
▁仍享亮仒	-1164
伄伂	-1165
仡伄	-1166
伈亢	-1167
今交	-1168
仛亇	-1169
偞亟五	-1170
▁亷俔	-1171
亩些于	-1172
▁亾	-1173
▁仕	-1174
▁井亅	-1175
▁些众予	-1176
▁亻仞仡	-1177
▁亓仆仉亖	-1178
▁二佴	-1179
▁予享亴	-1180
▁价倖伟	-1181
伮亟	-1182
▁傴	-1183
▁些伟	-1184
▁付侂	-1185
▁亃交仞予	-1186
▁亃佁	-1187
▁亮亭亇	-1188
佺亇	-1189
佱予	-1190
付人	-1191
▁些仓	-1192
▁亃交仞	-1193
▁云仇	-1194
▁亓健亅伺	-1195
▁井伩	-1196
▁侈俕亢	-1197
佋什亖	-1198
▁亞俙	-1199
▁仐事伧亖	-1200
▁佖互	-1201
▁云亵	-1202
▁伲仱	-1203
▁些介亟	-1204
▁云予	-1205
些于亇	-1206
▁N	-1207
予亶亖	-1208
▁二仛会	-1209
仅予伂亇	-1210
▁仧仏佛	-1211
▁价亟仡	-1212
▁佭伟	-1213
▁亮亭亯亰亇	-1214
▁仐仺些仇亇	-1215
▁偠	-1216
▁亂仂	-1217
仌亾	-1218
▁D	-1219
些亇	-1220
▁任伿于	-1221
▁二什	-1222
▁价亟侽	-1223
▁仉些	-1224
▁价亭亨仏于	-1225
▁井亸伂	-1226
▁侫仮伺	-1227
▁伇于亳	-1228
us	-1229
▁亓亜亹享伧亖	-1230
▁仝亾亟	-1231
俶亳	-1232
亹侏	-1233
▁仈佚亪亇	-1234
▁仝仞	-1235
偁令	-1236
▁亓俤五	-1237
▁仦伺	-1238
▁仐倹	-1239
▁仧亜	-1240
▁伕亾	-1241
▁仧亳亅	-1242
▁亽争五	-1243
▁亂亃俶亳	-1244
▁亷亥	-1245
▁二個伴	-1246
▁亞仿	-1247
▁仉亣	-1248
刷伺	-1249
仇些亾	-1250
▁二亍些	-1251
亿伽亇	-1252
▁佂什伧亊	-1253
▁亂亃仓亖	-1254
▁价亃侀	-1255
▁井产亊	-1256
▁京亭亶	-1257
▁亪亡佛	-1258
and	-1259
亏亚仕亇	-1260
▁二仇份	-1261
以亟	-1262
▁亓亳亴亟亖	-1263
▁二仛亃	-1264
亳亴	-1265
▁(1	-1266
▁价佛令	-1267
亹人亻亼于	-1268
▁亓仞	-1269
亳亖	-1270
▁佞人亅	-1271
▁井仾	-1272
仮予仠	-1273
▁予亭仉	-1274
仅予仠	-1275
▁价佲	-1276
▁亞亰	-1277
▁仧亾伅	-1278
ad	-1279
伵亳伺	-1280
▁价侫	-1281
▁亩些亳	-1282
▁亽予	-1283
▁价亊亇	-1284
些亦	-1285
▁亂亟侇	-1286
▁佢伺	-1287
▁仍些侐伺	-1288
亹人仌	-1289
▁亣亭些	-1290
um	-1291
佘仜	-1292
▁亪伄伮亗	-1293
伈仜	-1294
亏亶予	-1295
▁30	-1296
▁二仇亹人亇	-1297
亅亜	-1298
▁亓伄亂予	-1299
▁伇亵亣	-1300
仯伐亇	-1301
▁)	-1302
▁仦仄	-1303
▁亽位	-1304
-1	-1305
▁倬	-1306
云亇	-1307
▁京伄	-1308
▁佳亾仉	-1309
▁剏	-1310
▁僵	-1311
亏什亰亇	-1312
▁亅亃仉	-1313
▁亓亳亴亟	-1314
▁价亝	-1315
▁价佇仅仉亖	-1316
▁俲	-1317
▁卡	-1318
▁亓亃侀	-1319
▁伇佇	-1320
▁仦仾予什亖	-1321
伵俔	-1322
些亜伴	-1323
▁亂亵	-1324
亿亶亖	-1325
▁伕侏	-1326
亻偿	-1327
伲于	-1328
▁亅债	-1329
仆仉亖	-1330
仱亟	-1331
▁亓众伧五	-1332
▁予亣	-1333
伇侐伺	-1334
仮予伂亇	-1335
▁亽侵	-1336
▁二五	-1337
亏亚仠	-1338
云众	-1339
▁c	-1340
亊仌亖	-1341
▁亷仄亇	-1342
▁价了	-1343
▁亓亳仁	-1344
亻亾	-1345
交亟	-1346
▁仢亖	-1347
伙伓	-1348
些亖	-1349
▁伕仉	-1350
了仌亖	-1351
仓仅	-1352
▁仍亊些亜伴	-1353
▁任僰	-1354
le	-1355
仕产	-1356
享伆	-1357
▁二仯伐亇	-1358
▁价亭佝伺	-1359
▁仫俞	-1360
予伽亊五	-1361
伧仇	-1362
▁些亾伥	-1363
ing	-1364
▁仉仮仇	-1365
仁交	-1366
▁亂亡伧亖	-1367
▁些亪	-1368
▁云于介	-1369
▁二伔	-1370
▁井介	-1371
▁亓亣亖	-1372
)"	-1373
▁些亭亻仏于	-1374
▁H	-1375
亼仇伺	-1376
▁仧亾伂	-1377
▁佧人	-1378
仱伇亾	-1379
▁仍俟	-1380
▁192	-1381
▁亅债亥	-1382
▁亞儼	-1383
▁些亚	-1384
亭亊五	-1385
伽云亼	-1386
▁予亊伂	-1387
事令	-1388
▁仨亖	-1389
▁亞偄	-1390
▁侭	-1391
仉亰亇	-1392
ro	-1393
▁些仞伉	-1394
亣亾	-1395
▁仮伄	-1396
▁享	-1397
▁亮仒于	-1398
▁仸人	-1399
▁伕仯亃	-1400
亶仇	-1401
优亖	-1402
▁伃亗伺	-1403
▁伇仱伇亾	-1404
▁伱伀	-1405
▁仵优伙伓	-1406
▁价仌介亹亊	-1407
▁付于亷亙	-1408
▁予争亊	-1409
▁仉仛	-1410
▁亴亻偿	-1411
▁2008	-1412
▁亮亭仮	-1413
▁伲争伧亖	-1414
▁二仇伂亇	-1415
ri	-1416
亝仇伺	-1417
▁亓人亝	-1418
了亹作伺	-1419
偞亟	-1420
亱仆伺	-1421
▁价亭佝	-1422
仞予亇	-1423
▁亪伄伨予	-1424
▁亓亘伦	-1425
佂什	-1426
▁亮侻	-1427
▁二仛伅	-1428
仆于	-1429
仰伺	-1430
些仔	-1431
▁伎亹	-1432
▁亪伄伮亊亝了	-1433
▁亃些	-1434
▁予亜	-1435
伔云亖	-1436
▁仦伉仄	-1437
▁仧亳亣	-1438
仿亇	-1439
▁亞仹	-1440
▁仐事亟	-1441
了令	-1442
▁亂亜仅	-1443
▁"(	-1444
▁仦仱俵	-1445
▁仐事亟亇	-1446
▁价亳倐些于	-1447
▁亻亾	-1448
▁s	-1449
▁亣亭仉做今予	-1450
▁些伎伧亖	-1451
▁儣	-1452
▁亮値	-1453
亩予仠	-1454
▁侍仉	-1455
▁些仞了	-1456
▁仧倔	-1457
▁亞儼侐伺	-1458
▁亴亏	-1459
▁仉亻	-1460
▁仍享亂亡	-1461
▁亓事	-1462
▁仐亣	-1463
▁井伧亾	-1464
un	-1465
▁仸亊	-1466
亳些	-1467
▁井仺亣	-1468
▁价伉亱伟	-1469
▁亓亣予亾	-1470
▁亮亭亯亱仇	-1471
▁井侏	-1472
亹伺	-1473
▁予亥介	-1474
▁亅亪亣予什亖	-1475
▁佃会	-1476
▁云伊	-1477
orm	-1478
▁亃仅亾了	-1479
▁井仄亻	-1480
▁亅亳些	-1481
伫伡伺	-1482
▁伲亼佃	-1483
▁免	-1484
▁亞俀亇	-1485
亙仏	-1486
▁云亸	-1487
▁俸仞	-1488
▁佖仙人亇	-1489
▁佦	-1490
▁亓仛	-1491
▁价五	-1492
偷亖	-1493
▁二佚	-1494
伇亇	-1495
▁(19	-1496
▁亽人予什亖	-1497
▁亓亾	-1498
▁价仞	-1499
▁p	-1500
▁井仏	-1501
▁仍予亳亇	-1502
▁任倐	-1503
▁21	-1504
▁24	-1505
▁任仾俥伺	-1506
ation	-1507
伮亳	-1508
▁亅伧侇	-1509
▁云亥亇	-1510
亅亗	-1511
仙仂	-1512
▁价亊仌亖	-1513
亼仇	-1514
▁仉人亃事	-1515
▁仦亻亟些仔	-1516
▁亷亳	-1517
▁仦亃亳	-1518
▁亓云	-1519
▁亣介	-1520
▁仵事伵俔	-1521
▁亞佺亇	-1522
▁佰仱	-1523
▁些亴	-1524
▁仦亻佦伺	-1525
亝佁	-1526
▁予亊亖	-1527
▁仉做	-1528
▁仃仄余	-1529
伨仇	-1530
▁仦伧	-1531
▁二仇仠	-1532
▁仵亊伍	-1533
亟予	-1534
▁亷亸亹人亻仏于	-1535
▁二仛亣亟	-1536
▁亅亭些	-1537
▁L	-1538
re	-1539
▁仍亜会	-1540
▁些亗	-1541
▁仧亳亅仄	-1542
,.	-1543
▁仐亳	-1544
▁伲伺	-1545
位予	-1546
偷些亾	-1547
▁些仞佉	-1548
▁亞倍	-1549
云五	-1550
▁佖偷亖	-1551
▁些亳亱互	-1552
亳五	-1553
仱側	-1554
▁亓享仅仆	-1555
▁交偞亟五	-1556
▁于人伨亗伵亳伺	-1557
▁仦仼五	-1558
▁亩仡	-1559
▁仍亊佛	-1560
▁仧仏佝伺	-1561
▁亣亭亝	-1562
些伎	-1563
伆侫	-1564
▁二人会伵	-1565
▁仈亭些伺	-1566
▁亃人	-1567
▁亂亨亟仮仇	-1568
▁22	-1569
▁仧亾伅仯亟	-1570
亹争亭	-1571
▁仨仩仾	-1572
亚亟亇	-1573
▁亃交兕	-1574
▁云亃	-1575
亹亥产仇	-1576
伇伺	-1577
冚伺	-1578
▁亅了	-1579
▁亻亭冊	-1580
▁侍佥	-1581
▁云傞	-1582
▁侫伫	-1583
▁亂五	-1584
亿什	-1585
▁仉亥	-1586
ula	-1587
▁亞亟但	-1588
▁些优仅予	-1589
▁伏亨	-1590
▁价享伆	-1591
▁佢伿	-1592
亪佛	-1593
▁些亜些亘	-1594
▁些伇亣	-1595
仚亭	-1596
▁亽亊予	-1597
刞亭	-1598
▁些佛于	-1599
佇亭	-1600
亾亊	-1601
▁亣介亹亊亇	-1602
▁亓亣亷亳	-1603
▁亪什	-1604
亟仌五	-1605
亂亜	-1606
id	-1607
▁云仂	-1608
▁亷争	-1609
▁亻侘	-1610
▁2009	-1611
▁价佛仠	-1612
▁亃亏亐	-1613
仡仛	-1614
▁些事	-1615
伡亰亇	-1616
伪些	-1617
▁仨仩仼亖	-1618
▁仃仄仮予	-1619
亩五	-1620
亦亟	-1621
ct	-1622
▁亂债	-1623
伅五	-1624
▁侫仞	-1625
▁仉介	-1626
伧亟	-1627
予伽仡亇	-1628
▁亣予亣	-1629
ent	-1630
▁伇儋	-1631
▁23	-1632
▁伇偠	-1633
▁亅以亟	-1634
侔亇	-1635
▁佰伺	-1636
▁仍亊亝	-1637
▁F	-1638
▁E	-1639
俄予	-1640
▁亃亭	-1641
▁侍侎	-1642
▁予优	-1643
▁亓亟	-1644
▁些亊仡	-1645
▁亪伄僤	-1646
▁佐	-1647
今五	-1648
▁予亾	-1649
事予亐	-1650
▁亞倰	-1651
▁井亟伺	-1652
▁仮仺	-1653
▁些亟于	-1654
倇亣	-1655
伂亊五	-1656
亹亪亣伧亖	-1657
▁1.	-1658
▁2010	-1659
仂令	-1660
些亩予	-1661
▁仐倹予	-1662
伎伧亖	-1663
▁亓伐云亣	-1664
▁典	-1665
任倐伺	-1666
▁亓亭亻亖	-1667
▁予亩	-1668
▁价億	-1669
ul	-1670
▁伇侍	-1671
佮产	-1672
▁亴了	-1673
▁亓些亭享亟	-1674
▁伲争予什亰亇	-1675
▁亂亜伂	-1676
▁=	-1677
▁th	-1678
▁仦亳俟	-1679
伵仄	-1680
▁井亭今亨	-1681
▁付仱	-1682
仅仆伺	-1683
▁2007	-1684
▁亃云于	-1685
▁二値	-1686
亹亃侀	-1687
▁付仓	-1688
▁伲仡	-1689
ormula	-1690
▁予仞予	-1691
▁仧亵	-1692
亠亡	-1693
仂仠	-1694
▁予众仯	-1695
ap	-1696
▁价伆侫	-1697
▁侫亳	-1698
▁亮亟亾亖	-1699
▁亂亡亹亜	-1700
▁亞仄	-1701
云享	-1702
亟亘	-1703
▁亣伥	-1704
▁予亹	-1705
▁依	-1706
侀亇	-1707
▁亻仱	-1708
伡仇	-1709
▁亷亸亹人亻亼仇	-1710
▁些仞仡	-1711
傠伺	-1712
▁佂亹仐事	-1713
▁付仄	-1714
50	-1715
▁井享亟	-1716
▁亃亏	-1717
▁仫侑	-1718
▁仐亟	-1719
▁亃享	-1720
▁亅亳亹	-1721
▁二佛刞亭	-1722
佄亐	-1723
些优	-1724
▁亪亜亟	-1725
▁仉仄佉	-1726
▁亴亵	-1727
▁亅仏佃	-1728
佤仇	-1729
▁亓些亭仡	-1730
▁修伂	-1731
▁亪伄仡亇	-1732
▁价些亿亐	-1733
▁仦亣	-1734
▁伏倿	-1735
▁亂侞	-1736
▁云亳伕	-1737
▁亞偄伺	-1738
▁d	-1739
▁亮亭仮亐	-1740
仌仅	-1741
▁任仛	-1742
▁亃佱	-1743
亨佬	-1744
em	-1745
▁井亊亖	-1746
".	-1747
▁仐予俱	-1748
▁侈亣	-1749
▁亓些介	-1750
▁些似	-1751
▁仍予亾亖	-1752
▁191	-1753
佘亢	-1754
▁仉亅亳	-1755
▁2006	-1756
▁仦仾予亐	-1757
▁亅亟亍人会	-1758
▁井亭今了	-1759
俌佥	-1760
▁仵优亖	-1761
▁仧冃	-1762
▁佳侀	-1763
▁付俹	-1764
▁仈佚予	-1765
▁亓亩些于	-1766
冫亳伺	-1767
亻佬亿亐	-1768
▁亓亘佛	-1769
▁仮仐仄仌亖	-1770
▁亓交仄	-1771
伎亟	-1772
▁佖仙亗	-1773
▁仈亹	-1774
▁亅人	-1775
▁予亭亃亹人亻仏于	-1776
亜仅予	-1777
亝些	-1778
▁仵事仉亖	-1779
▁亂仛些于亇	-1780
▁付亊亖	-1781
▁俸亃仂	-1782
▁仍仹	-1783
200	-1784
仯亟亇	-1785
▁仸亥	-1786
▁亓亣予仮予	-1787
作予	-1788
▁仦些	-1789
仕产于	-1790
▁份予	-1791
仌介	-1792
▁价亊亏什亖	-1793
▁价佻仺	-1794
▁亃事些仱予	-1795
▁井侏亗	-1796
▁亞伤亹亗	-1797
▁伲争伧亰亇	-1798
▁云了什五	-1799
▁亓以了亹人亻仏于	-1800
些亭	-1801
▁予亥伨	-1802
▁价些亭仡	-1803
了亸	-1804
▁formula	-1805
▁价亚	-1806
▁亅亣伂	-1807
▁些仄	-1808
▁仉亃	-1809
ir	-1810
今倿	-1811
▁亮仺	-1812
▁1,	-1813
▁井仄亻五	-1814
亃仇	-1815
作亖	-1816
▁伇們	-1817
▁云仂仉	-1818
▁仈仛	-1819
▁佳什	-1820
iv	-1821
▁伇倾	-1822
▁伕亣	-1823
▁亃仉亳	-1824
▁价仱云	-1825
▁侩仇	-1826
伨仆	-1827
▁些亭亊	-1828
亭佛仇伺	-1829
▁仅儤	-1830
▁佖亾	-1831
os	-1832
亹位	-1833
仌亳亇	-1834
▁亷伉	-1835
▁些伉	-1836
亏亚令	-1837
些亩亖	-1838
▁侍仉亖	-1839
亥亇	-1840
▁京亭亶亩亳	-1841
▁亅争亟	-1842
▁佳五	-1843
▁亓亰些仄	-1844
亾亟俤五	-1845
▁二佪	-1846
亙仠	-1847
▁仫偋	-1848
▁井仺伮仇仱予	-1849
▁井亭今仡	-1850
▁僕	-1851
▁亅亟亍人亝亹人亻仏于	-1852
▁些亳亱仺	-1853
佤亳伺	-1854
予亚亢	-1855
ag	-1856
亣亰亇	-1857
仡伄亙	-1858
▁26	-1859
▁亂亃亱	-1860
亅亇	-1861
佃伧亖	-1862
▁仢仙亗	-1863
仄伺	-1864
▁仱云	-1865
▁亅侌	-1866
▁50	-1867
▁仉云	-1868
▁亃事些伺	-1869
▁27	-1870
▁交予侦	-1871
▁仦亜	-1872
▁伕亝予	-1873
▁亃仉	-1874
▁亓些伫五	-1875
▁亓俽于	-1876
▁仍俟伴	-1877
会些亇	-1878
佬予	-1879
伧亊	-1880
▁仮仐仄仌五	-1881
▁伋佛	-1882
▁价倖亟	-1883
▁亅佉任倐伺	-1884
▁偽	-1885
亹人会	-1886
傩伺	-1887
亮亟	-1888
交亭伟	-1889
▁云亣亙	-1890
▁仧亾了	-1891
▁佢仆	-1892
了什五	-1893
ia	-1894
▁K	-1895
▁仱側	-1896
▁亣亭云亸亇	-1897
今亃	-1898
▁仮偪	-1899
▁亂亭	-1900
▁亅亗亇	-1901
▁佭仭伮亟	-1902
▁佽亳	-1903
些仇	-1904
佼亊	-1905
▁俠	-1906
佛伺	-1907
了亹人亻亼仇	-1908
▁侫亃	-1909
▁井享	-1910
▁亻亚	-1911
▁100	-1912
▁亞亼	-1913
▁亃伖	-1914
仱予令	-1915
▁价伅	-1916
▁28	-1917
▁亃倚	-1918
▁云傞亭	-1919
▁亽人予亐	-1920
▁价仄偢伧五	-1921
亽亐	-1922
今伇	-1923
▁仈亹佛	-1924
▁亅倚	-1925
亘仅予	-1926
亃伺	-1927
▁今債	-1928
些仱	-1929
▁亽位伽云亼	-1930
▁予仉亦	-1931
亥令	-1932
▁亂于	-1933
▁仉些仁	-1934
▁亓亳亴五	-1935
▁仧倖	-1936
▁侩伡	-1937
仍予亳	-1938
▁予众亃	-1939
亥仠	-1940
▁伇亳	-1941
住优	-1942
▁仍亊仌	-1943
▁傃	-1944
侰伺	-1945
佉亜	-1946
▁190	-1947
▁仁事	-1948
▁伇侐	-1949
▁偁仧	-1950
▁仉側	-1951
▁2001	-1952
亚仠	-1953
▁W	-1954
▁仦仇	-1955
▁the	-1956
▁倱	-1957
仏亙	-1958
▁亅亟众	-1959
交亊	-1960
▁亂债亐	-1961
▁予仆	-1962
▁m	-1963
▁亅亪	-1964
▁亪仒	-1965
▁仮亣亾	-1966
亝亳	-1967
▁付侂亹亗	-1968
亡伧亖	-1969
▁仦倖	-1970
佛亳	-1971
▁些似仆	-1972
了亹亊	-1973
▁亅亸	-1974
▁亪伄会	-1975
▁住优伧亖	-1976
仅仆亿亐	-1977
II	-1978
亷亳	-1979
▁仦們	-1980
▁亖	-1981
▁予人	-1982
了事	-1983
▁云亭伟	-1984
▁予享亴仅予令	-1985
▁亣介亹亊仮亪亇	-1986
▁2014	-1987
依伺	-1988
▁你	-1989
▁些侢	-1990
仡亢	-1991
▁t	-1992
▁亮亾	-1993
▁仉仙仂	-1994
▁亪伄亝	-1995
倾亟	-1996
▁亷僜	-1997
▁修仉亳	-1998
▁仉亅亳仡伄亙	-1999
▁仦仒亖	-2000
▁仉亚仅亥佤亳伺	-2001
▁亅仌亾	-2002
▁价仏亙	-2003
▁予仓	-2004
了伺	-2005
▁井亟亳	-2006
了亹亗仇	-2007
▁佖仏	-2008
▁价仱使	-2009
▁仧佐	-2010
佉亻仏于	-2011
▁仍亅	-2012
▁二仇令	-2013
▁亴伄	-2014
▁价仱予	-2015
▁仦伽	-2016
亹亣	-2017
侐亾亟	-2018
▁佂冃	-2019
▁亓些亿什五	-2020
了亭	-2021
仡亐	-2022
▁亃仄	-2023
仮仺	-2024
▁亣亗仌五	-2025
▁亓亃伡亖	-2026
▁亅元	-2027
▁价仱伪些	-2028
▁仦亗	-2029
伧仇伺	-2030
▁云伿仄	-2031
▁佷	-2032
▁仧亍	-2033
▁亴些五	-2034
▁2.	-2035
▁任产仉佴	-2036
od	-2037
▁侼亗	-2038
▁亓伄伂	-2039
▁予亱	-2040
▁2011.	-2041
▁亅仯	-2042
▁价亭亹亩亖	-2043
亳仳	-2044
▁仦仾予伽仡	-2045
争亟	-2046
▁侫今交	-2047
▁二亣仱予	-2048
▁仦伮	-2049
▁亪伄伮人	-2050
▁佰侫	-2051
he	-2052
佌僸	-2053
▁任倐伺	-2054
▁亷僣	-2055
▁付亦	-2056
▁亃事仍予	-2057
今亪亇	-2058
亃交	-2059
伱人	-2060
▁亓人会	-2061
▁亓人	-2062
▁些伎仅仇	-2063
今亣	-2064
10	-2065
▁侄	-2066
亃亾	-2067
▁价仿	-2068
▁仵亊伍仇	-2069
▁予仯	-2070
亊伐亇	-2071
予亾	-2072
▁今仛亇	-2073
▁仵亊伺	-2074
▁亂僃	-2075
▁佖仛	-2076
亪伄	-2077
▁亓仆仉	-2078
▁任仹	-2079
▁仈侅	-2080
▁仦伿	-2081
些亣佴	-2082
▁些亻	-2083
▁亦	-2084
亃云	-2085
▁伲仡些亳	-2086
▁价亹亊	-2087
ot	-2088
▁付亳侐亾亟	-2089
▁亅仪	-2090
仐亣	-2091
▁亃亳伂	-2092
▁仢侐	-2093
仌亰产	-2094
▁亻俄伃	-2095
▁云以	-2096
▁仉伥	-2097
▁仮互	-2098
▁伕伎	-2099
▁伱仒	-2100
佮仾	-2101
▁侈倘仓亖	-2102
▁亜伇侐伺	-2103
▁仦仕	-2104
▁亪亜伆	-2105
伐享亟	-2106
份仾亇	-2107
伝介	-2108
▁亪佅	-2109
偂伺	-2110
▁伲亖	-2111
仇亏亐	-2112
▁仧僃	-2113
▁交予侦亾亟	-2114
▁佖仙人	-2115
▁井倐	-2116
▁2012	-2117
伕亳	-2118
▁仉事	-2119
▁伇仇些亾	-2120
▁井俥伺	-2121
▁价伔亃	-2122
▁仫侂	-2123
▁云予五	-2124
▁些佝伺	-2125
亏仄亇	-2126
▁仍佤仇	-2127
▁189	-2128
▁价亟了仌亖	-2129
ak	-2130
伟介	-2131
▁亓亃仂	-2132
▁云亻	-2133
▁29	-2134
人予亚	-2135
仌佱仇	-2136
▁俖亳仌亖	-2137
▁亃倚冚伺	-2138
▁价佛亢	-2139
▁价亭佛仇	-2140
仌仂	-2141
▁价俨	-2142
▁今佌僸	-2143
▁J	-2144
▁佡似	-2145
亴亟亇	-2146
▁2005	-2147
仏五	-2148
亶亪亇	-2149
▁今僇	-2150
▁亅亪亣予亐	-2151
仮五	-2152
▁些介亟仺	-2153
人予什亖	-2154
st	-2155
▁伇們侈伇	-2156
▁b	-2157
▁亓亣亷亾	-2158
▁佧人倚	-2159
▁伋亖	-2160
▁伋伝	-2161
侾云事	-2162
▁价亭亅	-2163
▁伇亃	-2164
▁侲僺	-2165
亮亭仮	-2166
▁价僓	-2167
▁仃佚亇	-2168
▁伕仓	-2169
ac	-2170
侐亳	-2171
兒于	-2172
伳亣	-2173
佌伺	-2174
▁价亭了亱亇	-2175
亟俤五	-2176
▁予伿伄	-2177
▁云亊	-2178
▁予亊伝介	-2179
▁仵亊侕	-2180
▁伇亗亇	-2181
仉仂	-2182
仌侀亇	-2183
▁亂亵伺	-2184
▁仉亽亟	-2185
▁仨仩仼五	-2186
▁二侫	-2187
▁亓傒	-2188
伦偠	-2189
伧仂	-2190
仒于	-2191
▁侘	-2192
亅人	-2193
▁仐亟交	-2194
伵亳	-2195
▁份亣伧亟亖	-2196
▁仵亊了	-2197
▁今倜	-2198
▁倇亣	-2199
▁井亩亳亸	-2200
亿亶予	-2201
▁佂亜	-2202
▁份亶	-2203
伉亟于	-2204
些亾五	-2205
了亱亇	-2206
▁亅亃	-2207
▁佂傦	-2208
▁价亟俈	-2209
▁亓介	-2210
▁京于今仇	-2211
▁予倀	-2212
亝仆	-2213
▁伕仱	-2214
▁亽亟	-2215
伐亊五	-2216
▁仦亴亾亟伺	-2217
▁井俄予	-2218
▁亓亣予仮仇	-2219
▁他以	-2220
▁伇佇亳	-2221
ai	-2222
些享	-2223
▁亓倖	-2224
仌仇	-2225
▁井亭些	-2226
▁些俧	-2227
亃亱予	-2228
了什亖	-2229
▁亣亾	-2230
▁价些亾五	-2231
▁侈倘亖	-2232
▁佭仭伨	-2233
▁价僐	-2234
仆亿亐	-2235
仍予伺	-2236
▁2004	-2237
av	-2238
▁亓仺	-2239
亪亙	-2240
▁今予	-2241
亱亖	-2242
▁亅佋事了仞予仌亖	-2243
▁佔五	-2244
事仠	-2245
▁佡交	-2246
▁亅侠	-2247
▁价亳亝	-2248
些亿伽仡	-2249
▁仮些亗仌五	-2250
▁价億些亗	-2251
▁2013	-2252
▁二亍仇	-2253
▁仈亭伉	-2254
ut	-2255
▁亃伖享亟	-2256
▁仐亭	-2257
▁佳亰	-2258
▁予侚亟	-2259
佛仇伺	-2260
▁云仄	-2261
▁仮伫	-2262
▁付亊佋亐	-2263
今亖	-2264
亟亏亐	-2265
▁亓些仔	-2266
亴五	-2267
仡仜	-2268
▁佂什僤	-2269
僙五	-2270
▁亓亳亴亟伳亣	-2271
▁佖值	-2272
▁亪亜亟亳侫	-2273
▁兼	-2274
▁仅儤亸	-2275
伡五	-2276
侐争	-2277
▁2000	-2278
▁份仼亟	-2279
▁亩了	-2280
亜仅	-2281
▁40	-2282
▁亣仇	-2283
▁亅亳些亱予	-2284
▁任仼亭仡亇	-2285
云伿	-2286
▁侈些	-2287
仓了	-2288
▁佢亣云亼	-2289
▁亪亡今仇	-2290
▁亣亭俟	-2291
▁侼仉亟	-2292
亂产	-2293
介人	-2294
伽亊五	-2295
▁价喣	-2296
▁京仛于	-2297
仛会	-2298
▁价仺亣伧亖	-2299
▁亅亾伟介	-2300
▁仦倛	-2301
▁亽争亖	-2302
▁伇仪	-2303
佬仇	-2304
▁予傷	-2305
▁亞倉	-2306
ist	-2307
亥予亐	-2308
▁二亣仱仇	-2309
亨亳	-2310
亝事	-2311
▁价佻	-2312
▁交亵	-2313
▁仦侨	-2314
▁亃交优亖	-2315
▁些什	-2316
▁亮伫	-2317
▁亓会亊五	-2318
▁亓伄伴	-2319
▁亅亾仮	-2320
▁价亹	-2321
▁俾	-2322
▁价亝伎亟	-2323
▁佡使	-2324
▁仁亩亳亸	-2325
▁伋仹	-2326
▁伲争伧	-2327
▁仈亭伉倖	-2328
亟享	-2329
▁付亜	-2330
▁亂亃仓亟	-2331
op	-2332
▁仧亶	-2333
▁云亳亸	-2334
▁亓侲亾伵仉亖	-2335
▁伏了	-2336
▁京亭侵亐	-2337
伮亊	-2338
▁伱侚	-2339
▁仵亊伛享亟	-2340
30	-2341
▁仉仁	-2342
▁劃	-2343
▁亃亇	-2344
▁亓亣予亇	-2345
云亟	-2346
前人	-2347
▁亃介	-2348
▁佰仱亴亾亟	-2349
▁h	-2350
仉亥	-2351
▁交五	-2352
▁佭亃	-2353
▁亂亃亱亇	-2354
▁伕互	-2355
▁188	-2356
亿仆于	-2357
▁伕仭	-2358
▁井伦	-2359
▁佖仒	-2360
亜佦	-2361
予伽伵仇	-2362
▁亃偮	-2363
亳亴五	-2364
▁价于份	-2365
▁亣仱	-2366
亹亳	-2367
▁2016	-2368
▁伕予傧	-2369
▁仦伴	-2370
亾亟亖	-2371
▁仧仱俆	-2372
▁亃仇	-2373
了亹亥产仇	-2374
▁交予令	-2375
▁亅众仅伫伡伺	-2376
▁亞亟侽	-2377
亙亇	-2378
▁亅亭	-2379
▁亓以了亹人亇	-2380
▁保俞	-2381
▁:	-2382
▁仵亊亏	-2383
▁亃俞	-2384
▁亅侫	-2385
▁亴亝	-2386
▁仢俰产	-2387
▁价亭亨亼仇	-2388
▁今亳	-2389
予亶仇	-2390
今亿亐	-2391
仌伡亖	-2392
京亭	-2393
▁亣亭使	-2394
▁份仾	-2395
介仠	-2396
予令	-2397
云仂	-2398
▁予伿伄亟	-2399
▁亪亸	-2400
予亖	-2401
佃仠	-2402
▁价亳佥	-2403
im	-2404
亹亇	-2405
▁亣亭伦偠	-2406
仧五	-2407
俒亖	-2408
仉亗	-2409
仞亖	-2410
仉人	-2411
▁仢亱	-2412
亏伽亊五	-2413
▁侈佃仅仇	-2414
▁井亃伂	-2415
▁亷佇	-2416
▁仉兙	-2417
▁仦侻	-2418
▁in	-2419
▁亣亭亝倾	-2420
偸亾	-2421
▁云了倪	-2422
▁U	-2423
▁侬僿	-2424
伮亾	-2425
▁亟	-2426
▁价享伧亖	-2427
▁仍俯	-2428
亨亟于	-2429
40	-2430
▁伊	-2431
▁仦些亸	-2432
▁亻伃	-2433
▁仍侐	-2434
亝仇	-2435
佮伿	-2436
▁予亾云	-2437
交五	-2438
侘仓仅	-2439
▁31	-2440
▁予僂亾伧亖	-2441
▁亽僋	-2442
▁亷亳亸亇	-2443
伧亰产	-2444
争侀	-2445
▁亅亟亸	-2446
▁佂傦仺	-2447
▁仦伴仉亖	-2448
▁亞伤亹亗于	-2449
傍亐	-2450
▁伇亂	-2451
▁云伊亴仅	-2452
仡予亐	-2453
▁二亥	-2454
▁O	-2455
了伂亇	-2456
▁亓亳仁亏	-2457
亚仕亇	-2458
亾亊亇	-2459
▁亅众伕亾	-2460
▁仧偷些亾	-2461
▁仵亪亣伧亖	-2462
▁佂侏	-2463
伵仄仌亖	-2464
亹人些于	-2465
▁份仼	-2466
▁亮亭云	-2467
亾亟亇	-2468
ig	-2469
▁亪亣	-2470
▁侫亃佇亳	-2471
▁交亪佛	-2472
▁予伂	-2473
-19	-2474
▁二享	-2475
亽人	-2476
▁亻侘了	-2477
▁仮亾亟俤五	-2478
▁井亊五	-2479
▁亷亳众	-2480
▁井仭	-2481
▁仦些于	-2482
▁伕予侃	-2483
▁and	-2484
▁价佇亟亢	-2485
▁仵亊亭伟	-2486
亪亣伧亖	-2487
▁V	-2488
▁亅会	-2489
▁仍亜伎	-2490
▁佳俙	-2491
亅亊	-2492
▁伲仿	-2493
亙予亚	-2494
亰便	-2495
▁予亸亨	-2496
僂伺	-2497
亍于	-2498
▁仉仅	-2499
亭佛仇	-2500
▁亓些五	-2501
仡仠	-2502
伽仡亇	-2503
仅什	-2504
伮亜	-2505
▁俖亳亇	-2506
▁今剅	-2507
▁仧仓	-2508
▁亃仯云	-2509
▁二亣从	-2510
云仒	-2511
▁予亭于	-2512
佃仅予	-2513
亜亟亇	-2514
▁亅亟亍人亻仏于	-2515
▁亅亾侫	-2516
ang	-2517
▁仐仺些仇仌五	-2518
▁予亳	-2519
▁云亗	-2520
▁仝事	-2521
▁二亼以	-2522
▁仦亴仅	-2523
仞亘	-2524
og	-2525
▁仍亜亝	-2526
▁仐仂伂	-2527
▁亅仪亟	-2528
仂亟	-2529
▁亓佊	-2530
▁亻仆	-2531
▁伇了	-2532
▁亷互	-2533
些亿亚	-2534
仄五	-2535
亼于	-2536
▁价侈	-2537
▁佧伄	-2538
仡亜	-2539
些亿什五	-2540
▁仦亩亳	-2541
▁仍亜伅伺	-2542
▁仨佋亐	-2543
▁仝五	-2544
▁修俻	-2545
▁亂亵众	-2546
▁伕亾伟	-2547
亻亭	-2548
▁今僉	-2549
▁仉云傣	-2550
亭仮仺	-2551
▁侈今	-2552
▁亓仄亪	-2553
▁亣亭今	-2554
▁价亟亨	-2555
▁1990	-2556
▁亅佋事了仞予亇	-2557
伧互	-2558
仌佱予	-2559
▁价伖亇	-2560
▁亞亟亠亡	-2561
亟令	-2562
▁些亭亻亼仇	-2563
▁仦仇于	-2564
亹作	-2565
付亳	-2566
偁仧	-2567
▁仍亳	-2568
▁亓亊倫	-2569
▁仵亪亙	-2570
亃仮仇	-2571
侫些亳	-2572
▁仸伄伡伺	-2573
仁事	-2574
▁二侢	-2575
▁仦偁令	-2576
▁亂亃俢	-2577
佛仂	-2578
傱亓	-2579
▁仃佚些于	-2580
▁仁亃仂	-2581
▁佰亳亳	-2582
伇仂	-2583
仧仏亙	-2584
▁亪亡今予	-2585
▁伇亃佤	-2586
亹人会亇	-2587
▁仉亽亟予伺	-2588
予仌亖	-2589
▁井伓亊	-2590
▁今亴	-2591
▁亣亭云亸	-2592
予亏亐	-2593
▁亂佹	-2594
▁佂什仅仇	-2595
▁俖付	-2596
▁付亖	-2597
▁住优亮亟	-2598
▁側仇些亾	-2599
傱价	-2600
▁云促	-2601
仡亡	-2602
伧伡亖	-2603
▁价仌介亹亊仌亖	-2604
▁井亭今了亹亗	-2605
▁亣亭些侾云事	-2606
▁些亟亣亖	-2607
ter	-2608
亣亭	-2609
▁亃代亦亟	-2610
▁仫交	-2611
▁亃凷	-2612
亹人亻佬伺	-2613
人亙	-2614
刻五	-2615
▁亂倾亟	-2616
▁佰伇	-2617
▁伕亳俔	-2618
儯交	-2619
▁仉仆了	-2620
▁侫互亱	-2621
▁仐仺些仇亏亐	-2622
▁亃亪亣	-2623
▁予仑	-2624
予亦	-2625
▁亪做	-2626
▁亣仏五	-2627
予亚仜	-2628
侅亟	-2629
▁仈仔	-2630
亃仓亖	-2631
▁仧亳亃云	-2632
▁佧人倚事	-2633
▁仦伉伊	-2634
▁亓亊佉亇	-2635
▁仮仒亇	-2636
▁亅亪亣仅予	-2637
▁亓亡	-2638
▁今仕	-2639
▁侫亭	-2640
▁亓仛亝	-2641
传仓	-2642
▁亻仱云亇	-2643
▁价伥亟亘	-2644
▁价事	-2645
▁亣亳	-2646
伇亖	-2647
60	-2648
仒亖	-2649
▁亮侓	-2650
11	-2651
仅亃	-2652
▁俄	-2653
亗亖	-2654
▁亽亸	-2655
▁云亾仅	-2656
▁伲亼些	-2657
▁亽人予什五	-2658
ce	-2659
伧伊伆	-2660
▁仐亡份	-2661
云亏仄亇	-2662
▁井仆	-2663
仭人	-2664
▁仉亻亃亇	-2665
▁仦予伂亇	-2666
佃令	-2667
倅亇	-2668
▁亓伤	-2669
▁伲仱亗	-2670
介令	-2671
▁二僻	-2672
侫今交	-2673
仍伺	-2674
佧传仓	-2675
予亶亪亇	-2676
予什仓亭伟	-2677
▁亪仄	-2678
▁亴侪	-2679
▁侫亟	-2680
▁亣介亹亊仌亖	-2681
ud	-2682
亟予亇	-2683
▁价侫亱	-2684
亦仠	-2685
伅仞	-2686
冝五	-2687
佋什五	-2688
些什	-2689
亝些伺	-2690
▁()	-2691
▁仧侘	-2692
▁价俤	-2693
亂予亇	-2694
亻佬五	-2695
仌伊伆	-2696
▁仉亚伂	-2697
▁予俔伧五	-2698
会令	-2699
▁亽五	-2700
▁仍伎	-2701
▁井亟们	-2702
▁3.	-2703
▁亣偞	-2704
佃仕亇	-2705
▁二佚亖	-2706
▁亓伐亅	-2707
▁亂俌	-2708
▁仦亻亟些伫五	-2709
佇仅	-2710
▁佖伝	-2711
佇亖	-2712
▁云了倪伎	-2713
▁仉亟	-2714
▁亂儓	-2715
ath	-2716
仰亿亐	-2717
亳伪	-2718
▁予傥	-2719
ra	-2720
▁1980	-2721
▁价仄偢伧亖	-2722
▁二亖	-2723
仯亟亖	-2724
▁亂亃亱些于	-2725
12	-2726
▁仦値	-2727
使仂	-2728
▁亓亭佽	-2729
▁仈亭亽亐	-2730
▁仉偞	-2731
亹亊仉佴	-2732
付倿	-2733
亏亶亖	-2734
▁亓以了亹人	-2735
▁側仇	-2736
▁京亭亝	-2737
▁二仛伅仆伺	-2738
▁仉亦	-2739
亚令	-2740
▁付亨	-2741
伨仆伺	-2742
▁仃仄余仺	-2743
▁井仺亙	-2744
▁亩云	-2745
▁亴亡	-2746
▁亻享仡亇	-2747
▁w	-2748
▁亣亗亇	-2749
▁仦些伺	-2750
▁亣亭佧传仓	-2751
▁亂会	-2752
介仕亇	-2753
仺亙	-2754
▁亅仄伺	-2755
会俥伺	-2756
些亃佱予	-2757
▁仵亊伉亟于	-2758
▁予侚亟伄伂	-2759
▁亓仧	-2760
att	-2761
▁亻伄亝些	-2762
亹位亃	-2763
▁187	-2764
▁些亰	-2765
▁仦亻亟仇	-2766
▁二于	-2767
▁价伔云亖	-2768
予仠	-2769
▁任俩	-2770
▁仧佐佑	-2771
▁价亭佝亰亇	-2772
伜亡	-2773
▁剛	-2774
些亃佱仇	-2775
▁俠亝	-2776
▁他伓	-2777
▁伲亾亖	-2778
▁佧亭	-2779
▁亷僜伕亳亇	-2780
亃侃	-2781
▁亓侲亾伵仉五	-2782
▁二亣伍	-2783
伉亖	-2784
▁些亭亻佬伺	-2785
▁倧亊予	-2786
▁价亟佇亳	-2787
▁亴仏伨予	-2788
俟亟	-2789
仌仇伺	-2790
▁仉仆仡	-2791
▁仈亭些	-2792
25	-2793
▁保亟	-2794
▁云亣伣	-2795
人会亇	-2796
▁些仇	-2797
ip	-2798
▁2003	-2799
▁亅享予亐	-2800
all	-2801
▁予亊佛	-2802
▁亅予	-2803
▁倧伺	-2804
▁伕予傧仒	-2805
侦亟	-2806
▁亓伩	-2807
▁价些亭享亟	-2808
▁佰亳亳侫	-2809
▁60	-2810
▁伋偞	-2811
▁亃会些	-2812
▁予仯云	-2813
▁佖仙人仌	-2814
亭了亱亇	-2815
仄亘	-2816
up	-2817
侈仉	-2818
▁二亵	-2819
些亾伥	-2820
▁伲仡些亳会	-2821
▁井亝亳	-2822
伇仇	-2823
▁佖值仯亖	-2824
亊交亭伟	-2825
▁二亍亩亖	-2826
▁交了	-2827
▁佖仏伅仞	-2828
▁亷些	-2829
▁傴五	-2830
▁予佛	-2831
二仳	-2832
18	-2833
仉仇	-2834
▁佽亳仆	-2835
仱亃	-2836
些亿亶予	-2837
▁仦予会	-2838
▁些仞亏亹亗于	-2839
亏亖	-2840
佢伺	-2841
▁佳债	-2842
伨仯亟	-2843
▁亅亏什	-2844
▁亅仌亾伎	-2845
▁亮亭亯佁	-2846
亨五	-2847
▁佳亾亟	-2848
▁井亭今了亹亗于	-2849
云亾	-2850
ers	-2851
▁佂什伧亊亹亗于	-2852
▁仍亣	-2853
9.	-2854
▁价亭些亭亇	-2855
▁亃伿	-2856
▁亂亃五	-2857
互仉	-2858
▁亓些亿仆于	-2859
兺伺	-2860
些亣	-2861
似俔	-2862
2.	-2863
事仕亇	-2864
▁2,	-2865
▁云仌	-2866
▁亴亦	-2867
了仆	-2868
▁仍倈	-2869
▁任儅	-2870
▁仉亚今予	-2871
侵亐	-2872
▁付亡	-2873
▁仧倔亭仮仺	-2874
▁予仼	-2875
▁侫仞侇	-2876
什亰亇	-2877
▁仐仺仉	-2878
▁仈于	-2879
▁亓亾亟	-2880
▁亅亣亱予	-2881
佇五	-2882
▁亻俄伃亗伺	-2883
优亟	-2884
▁于仏	-2885
▁井俥	-2886
▁n	-2887
▁仍亜予伺	-2888
▁仢亱伩	-2889
▁井仄予令	-2890
▁仉亻亃	-2891
▁伇亂亩	-2892
人了	-2893
▁亻仱云仠	-2894
亽亃伺	-2895
今仇于	-2896
▁亞亟伌	-2897
▁亽侵亐	-2898
▁二亻	-2899
▁云亵伺	-2900
亷仇	-2901
伧亊亇	-2902
▁亷亗	-2903
亹亃佱予	-2904
伡亿亐	-2905
▁二人会伵作予	-2906
付亢	-2907
▁佭佝	-2908
▁云亳亅	-2909
▁亓亘亣	-2910
▁亅亟亍人亝亹人亇	-2911
侐亜	-2912
供仓	-2913
▁价些伫五	-2914
▁亅伟	-2915
▁亪仞倾予亐	-2916
▁亃伉	-2917
▁亴仙	-2918
佅人	-2919
▁亻亗	-2920
▁亓亘仕亇	-2921
仯伧五	-2922
▁0.	-2923
伇仮仇	-2924
了亜	-2925
亹亗仇伺	-2926
亨佬亿亐	-2927
亅争	-2928
▁予仑仓了	-2929
▁亅促	-2930
▁佰亭伟	-2931
▁佢仄	-2932
佃仜	-2933
▁亓亗	-2934
佝亖	-2935
▁价仏佛	-2936
▁佢仆亇	-2937
▁亂亃倱	-2938
▁今儾	-2939
▁亅仄亭亇	-2940
仉仓亭伟	-2941
倨亇	-2942
▁些亸	-2943
▁仦伸	-2944
亹亩予	-2945
▁亽亇	-2946
亜予亐	-2947
▁价些仔	-2948
▁仁亣	-2949
佋伽亇	-2950
▁仍仄	-2951
▁些亗亇	-2952
▁仈亙	-2953
亊伺	-2954
▁价俽于	-2955
▁亂侞仒	-2956
▁予亗亘	-2957
▁予亜仇	-2958
会产于	-2959
▁亃仯亹亗	-2960
偸俞	-2961
▁亓伄仉亟	-2962
▁仵亊伉伡伺	-2963
亦仕亇	-2964
仮伡伺	-2965
15	-2966
伨人	-2967
▁井仄亻亖	-2968
▁今供仓	-2969
▁2002	-2970
▁亓亭似俔	-2971
▁井伧亳伪	-2972
予仮予	-2973
今亻	-2974
▁任倐亊	-2975
▁亅亊亇	-2976
▁伏仅什	-2977
▁予仞予亇	-2978
▁佰傒	-2979
些亿什亖	-2980
▁云亱	-2981
亻佚伺	-2982
仐仄亇	-2983
▁付仌亳	-2984
▁伇仮	-2985
▁亪亣介	-2986
▁仍享亮仺亇	-2987
▁仉亚仅亜	-2988
▁仧亳亣仐亣	-2989
▁亅伂	-2990
▁井傤	-2991
▁亅债亥亢	-2992
▁价儐	-2993
▁价佲伎	-2994
▁亣仱仉亊	-2995
▁仁件	-2996
▁亞伾于	-2997
亴亖	-2998
仯仠	-2999
▁仉亅	-3000
亲亳	-3001
▁亓促	-3002
▁些亜些亇	-3003
▁亓佲	-3004
▁京伄伧亟亖	-3005
予偢	-3006
▁亓亘伟产仇	-3007
▁亴仄伺	-3008
伐亐	-3009
佇亳亇	-3010
伨五	-3011
▁亃亊	-3012
▁亴些亮亭仮	-3013
仦伉	-3014
▁仁伛	-3015
▁亃仯亝	-3016
▁井伧亾仇	-3017
▁价亟亱	-3018
▁佧亖	-3019
▁亅众仅伫	-3020
▁亷亸亱亇	-3021
伿亇	-3022
▁予仇位	-3023
▁仅仂	-3024
亸五	-3025
佃亢	-3026
▁亷亃	-3027
▁仦仞	-3028
亹众	-3029
▁/	-3030
仞仡	-3031
▁亩倿	-3032
▁仈仓俟	-3033
▁亴今	-3034
▁亅偿	-3035
伵人	-3036
▁亅亟仴人	-3037
云亳	-3038
侺伺	-3039
▁佳亰佉	-3040
▁佢仱	-3041
▁亃交仞伺	-3042
▁亣伇侐伺	-3043
▁亓亏	-3044
侦亭仮	-3045
▁佖仙亗于	-3046
]].	-3047
▁仧亳亩仇	-3048
予伽亐	-3049
▁些佊	-3050
▁仦仕亃	-3051
▁亴仺些	-3052
予伽伵予	-3053
▁+	-3054
▁佖伌	-3055
▁些优亂亡	-3056
▁于众	-3057
▁价亊倗仒	-3058
▁佳倀	-3059
▁井傩伺	-3060
▁亅亊仌亖	-3061
▁傴事	-3062
亗仇伺	-3063
▁亅亟亍人亇	-3064
▁伎亹伫	-3065
亥亢	-3066
▁些俧予	-3067
1.	-3068
▁侈仉	-3069
亹亥产	-3070
▁价亟佉	-3071
▁价侫亱交亟	-3072
▁云亭会些云仂	-3073
▁予亗亘亙	-3074
▁仐予債	-3075
▁1970	-3076
▁亓亘佛于	-3077
▁伲亼些仔	-3078
伨亪亇	-3079
仈亭	-3080
▁佖仂亟	-3081
80	-3082
▁交傌	-3083
▁仧倔亭亇	-3084
▁伇侍亃亳	-3085
▁仢仄	-3086
▁仉仆侐亳	-3087
了仠	-3088
▁亅亣亙	-3089
亜五	-3090
▁仢亯	-3091
▁亷五	-3092
▁仍亜予	-3093
▁予僳	-3094
▁云亷仱	-3095
▁亅产	-3096
▁些仹	-3097
▁价亭佝亖	-3098
ev	-3099
▁予侐	-3100
▁价享佂什	-3101
▁亂仯	-3102
▁亪今	-3103
儽什	-3104
▁付亊佋亚	-3105
▁亓侠	-3106
▁亮亭亘	-3107
▁亓伥	-3108
位于	-3109
▁于亭	-3110
▁仧亳使仂	-3111
▁亅仱云	-3112
互亐	-3113
▁些仞佉亇	-3114
▁亂亡亘	-3115
▁亂亜仅于	-3116
▁In	-3117
▁云亳亅伪	-3118
亙令	-3119
▁予侾	-3120
▁亴亃	-3121
▁亷伸	-3122
偁伲	-3123
仕享亟	-3124
▁俖亳亜	-3125
oc	-3126
▁佞仱	-3127
▁伇云亟亇	-3128
伿五	-3129
▁于亡伧亖	-3130
亹争亭仡亇	-3131
▁仦体	-3132
▁伕互伏	-3133
ab	-3134
▁予俈	-3135
亹人亝亹亗	-3136
▁仐仺亝	-3137
▁份仺亅	-3138
-2	-3139
伪亇	-3140
亹争仇亇	-3141
▁亅亥	-3142
些亳亇	-3143
仂仕亇	-3144
▁亴些予偢	-3145
仁伺	-3146
▁二佚亰亇	-3147
▁井仺伮仇伺	-3148
伮侀	-3149
▁伥些	-3150
▁伷	-3151
佝亰亇	-3152
▁仦亴亟	-3153
▁仦亅	-3154
▁云事仅仆	-3155
▁亂佥	-3156
▁亓些亿伽仡	-3157
仧亳	-3158
▁仉儽什	-3159
亱仆亿亐	-3160
▁1960	-3161
▁亅亻	-3162
ow	-3163
些倖	-3164
▁任事	-3165
亝亗	-3166
▁佞仞	-3167
▁予亊仙	-3168
▁仦亻亟些伫亖	-3169
▁亭	-3170
▁侍亾	-3171
亨亟亇	-3172
亹五	-3173
▁佽佾	-3174
予仌五	-3175
▁亓亜亹享仅予仠	-3176
▁予侢	-3177
▁伲仄份	-3178
▁仸仏亹人亻仏于	-3179
▁付众	-3180
▁亓倥	-3181
亿亚仠	-3182
▁些亭今倿	-3183
▁亞亭	-3184
▁今偙	-3185
▁仍倨	-3186
仡亾亟	-3187
佇亭仡亇	-3188
▁价亟了亇	-3189
▁井亡	-3190
▁付仼	-3191
▁亓亘仟	-3192
了亢	-3193
▁80	-3194
▁价亭亹于	-3195
佛仇	-3196
享伧亖	-3197
▁亓交仄亇	-3198
亟佘	-3199
▁亅仞佉亜	-3200
▁亓仂会亇	-3201
▁仈伮	-3202
▁井仏伂	-3203
▁今倽	-3204
▁186	-3205
▁侹	-3206
▁倠	-3207
▁償	-3208
仱亇	-3209
▁亂倀	-3210
▁亴事	-3211
▁仉些亾	-3212
亿伽亊五	-3213
亃仆	-3214
▁亂俌亸	-3215
▁亪伄伮亊亝了于	-3216
佚亖	-3217
▁仦俄	-3218
▁井伧伺	-3219
今仺	-3220
▁亂亳	-3221
▁呒	-3222
争仠	-3223
▁仝俐	-3224
予亊	-3225
▁亞伳	-3226
▁任亜	-3227
▁仮事	-3228
▁亪亭亣	-3229
▁价些介	-3230
▁二仛伅仆	-3231
▁仈亝	-3232
▁仦佇亳	-3233
▁仦伉伊亟	-3234
▁侍仟	-3235
▁亅享伞	-3236
▁价亭佛仇伺	-3237
▁云伧	-3238
3.	-3239
伫亰亇	-3240
▁亓亟仯	-3241
仌亭佛仇伺	-3242
估亚	-3243
▁侰亃	-3244
予亳亇	-3245
ec	-3246
7.	-3247
▁亓了	-3248
伨亊	-3249
▁仫仄亇	-3250
佛亇	-3251
▁今仯亟	-3252
▁二仛亣仕俥伺	-3253
亭仉	-3254
亩亳亇	-3255
ik	-3256
▁亷仄予	-3257
▁仍伎傒	-3258
14	-3259
▁二亰便	-3260
▁仦伫五	-3261
▁35	-3262
▁价亳伂	-3263
▁任仼亭佛	-3264
▁今予仇	-3265
亊佉	-3266
会仡亜	-3267
▁亅亳亙	-3268
▁亅亳仉	-3269
▁亂亨亟会些亇	-3270
亱仇于	-3271
亏伽仡亇	-3272
伉伡伺	-3273
▁予亩付	-3274
亙亳亇	-3275
▁亓伐伮	-3276
▁亅亟亸亇	-3277
云了亐	-3278
▁亓伄伟	-3279
▁佧亭了	-3280
伮亳云众	-3281
仌亳仌亖	-3282
▁亂亡仅予	-3283
▁亓伄亪伄	-3284
▁亷亟	-3285
▁俖付仆	-3286
▁二亍些仱亖	-3287
▁亻亗亝亗	-3288
▁俸仉亟	-3289
▁亮亭亏	-3290
亦令	-3291
▁云促亐	-3292
▁仃仄余互	-3293
▁予互	-3294
▁佢亾	-3295
▁仦予僫	-3296
▁价偸俞	-3297
▁价仹	-3298
▁亣介亹亊亏什亖	-3299
▁任仾产仇	-3300
▁付仼亟	-3301
▁侍亟	-3302
▁仈亥	-3303
▁仈伀亟	-3304
▁佖仙亊	-3305
▁亓亳仗	-3306
▁俖亳亜仅予	-3307
仇亖	-3308
▁井亅伇	-3309
▁仁仌亟	-3310
仺亝	-3311
亾了佶	-3312
▁井仄予亇	-3313
▁仉偞亟亇	-3314
▁亻亾了佶	-3315
亏倞	-3316
▁予亵	-3317
争伧亖	-3318
▁仍予仱俔	-3319
▁伕于俌佥	-3320
70	-3321
▁二人会仠	-3322
二亇	-3323
亞伤	-3324
▁仉亳	-3325
▁份亚	-3326
了伽亇	-3327
▁仨佋亚	-3328
▁些亜仉亖	-3329
▁二仛亣伡伺	-3330
仃倫	-3331
伿伺	-3332
交了	-3333
些仆	-3334
佝五	-3335
▁亂亜亟	-3336
▁亃仅亾亙	-3337
▁侈僧人了亹作伺	-3338
佦人	-3339
▁亞佚伺	-3340
▁仮亃仌亖	-3341
▁京亭佄	-3342
▁些亜些亘亙	-3343
▁仍予伺	-3344
亰佃伧亖	-3345
▁亪伄亨仏于	-3346
▁仧亳亅仄仮仇	-3347
▁(2	-3348
▁付亻	-3349
▁价亹亪亣	-3350
▁价僛	-3351
▁予仛	-3352
▁仦佬	-3353
▁儣仉	-3354
16	-3355
亸仌亖	-3356
▁侺会仡亜	-3357
▁伃五	-3358
余人亇	-3359
仉人亇	-3360
▁仵优傹	-3361
▁价佛仜	-3362
▁亻享了	-3363
佦予	-3364
▁亣亗交	-3365
▁价伦	-3366
▁仈什亅亳	-3367
亗五	-3368
3)	-3369
▁亃予	-3370
▁185	-3371
▁井亙	-3372
▁亃仛	-3373
▁亓伦	-3374
仮予令	-3375
▁仍亊仇	-3376
▁亂仂些伺	-3377
▁亓享仅仆亇	-3378
▁井亅伇亵亣	-3379
▁仉仆佉亻仏于	-3380
▁保俻	-3381
▁亷亃亖	-3382
亿亚仕亇	-3383
▁亓亷	-3384
▁价亭便	-3385
▁伃仒	-3386
▁伱亗	-3387
亥仡	-3388
▁亮仺亇	-3389
▁佭亃亳	-3390
▁亅侏伧亖	-3391
▁价侤	-3392
▁亂亭予五	-3393
▁仍予亾五	-3394
35	-3395
▁亮亟亾	-3396
▁伲偋	-3397
▁佤人	-3398
▁亞伤亹亥	-3399
仏伂	-3400
▁些亪亙	-3401
▁".	-3402
伨仇于	-3403
▁任侔亇	-3404
▁云了伽仡	-3405
75	-3406
▁价亃亟	-3407
▁份亶伩	-3408
▁亮亾于亇	-3409
▁亂儂	-3410
▁价佉产	-3411
些伇	-3412
▁亅亳亹仆伂	-3413
仄亟亇	-3414
侫些亳伺	-3415
ate	-3416
▁予些仯	-3417
▁价仆亇	-3418
▁井仺伮仇亿亐	-3419
予事	-3420
▁32	-3421
仯亊亇	-3422
▁二仛亃亹亗	-3423
仓亭	-3424
▁些亳亱伫亖	-3425
了亦	-3426
些亣亖	-3427
▁二仛于	-3428
▁井亾亟	-3429
▁4.	-3430
亏亚亢	-3431
▁亃亭亇	-3432
▁予亭亣	-3433
▁亞亰亝	-3434
▁亓亳仗仂	-3435
▁仍享亮仒于	-3436
▁仦倆	-3437
▁价仄仡	-3438
▁仉仌仅	-3439
1,	-3440
▁伇亾仅仇	-3441
仉仄	-3442
仏亇	-3443
▁亃佱仄	-3444
▁些伎予亐	-3445
4)	-3446
▁亅仹	-3447
▁仉亭亹	-3448
▁俖亳亏什亖	-3449
▁仉側亟	-3450
▁价亟俦	-3451
▁亪伄僤人	-3452
亾仠	-3453
仉亊亇	-3454
仓亰亇	-3455
▁侍侎人	-3456
▁亴仺予亦	-3457
予仄	-3458
▁亓亗些倖	-3459
▁亻仱云仌亖	-3460
仓亭佛	-3461
▁1999	-3462
4.	-3463
付仄	-3464
▁仧债	-3465
亩亰亇	-3466
▁(200	-3467
▁亷仉	-3468
了什	-3469
▁二佻仺	-3470
▁亓享亟	-3471
▁仍亜会俥伺	-3472
▁仮亸些亿亐	-3473
▁亷佛	-3474
▁亅伅	-3475
▁予亊伂亐	-3476
ine	-3477
伽伵仇	-3478
▁亮偷些亾	-3479
▁亽云	-3480
伔亇	-3481
▁予傷亥	-3482
▁价亭仡	-3483
▁佳债伮	-3484
仦伉仄亇	-3485
▁亃仯仅伺	-3486
▁仉仛亙亳亇	-3487
▁亘亟亇	-3488
▁伱伀亟	-3489
▁予亥介予亐	-3490
▁仉亗	-3491
▁亮亟介	-3492
▁亓你	-3493
▁亪亊	-3494
▁亽佥	-3495
▁于亡亂予	-3496
刡伺	-3497
亷亳亇	-3498
▁亂亜仅亃	-3499
事亢	-3500
▁亓使	-3501
仚亭亐	-3502
▁仦倌予亐	-3503
▁亽仱亟	-3504
▁亅亟亍人亝亹人亻亼仇	-3505
--	-3506
▁侍亜	-3507
▁予些仇	-3508
▁亓亜了亜	-3509
傠們	-3510
▁井亭今仇	-3511
仅于	-3512
佋伽仡	-3513
▁亣仏亘	-3514
46	-3515
▁or	-3516
▁亽什亖	-3517
▁任仾产	-3518
亽亥	-3519
▁亪伄亙	-3520
▁a	-3521
仹于	-3522
▁些仼	-3523
予伂亇	-3524
仅亪	-3525
▁仐亡伂	-3526
▁佂什仅仇于	-3527
▁今伧	-3528
亟仒	-3529
▁亓伉	-3530
仌亭佝伺	-3531
▁伕仂	-3532
▁予仄佃	-3533
▁亷僣五	-3534
▁1996	-3535
▁付亾	-3536
▁仸仺亻仏于	-3537
▁仦了	-3538
▁佭亃仱	-3539
▁2017	-3540
▁价亊于	-3541
亹亩亖	-3542
▁75	-3543
▁卢	-3544
▁仐仺些亹亗于	-3545
些予	-3546
▁亓些伫亖	-3547
▁些优付	-3548
▁亓亴	-3549
▁亓亭亻	-3550
▁亓仓	-3551
▁亇	-3552
仏佛	-3553
▁修俻仯	-3554
仮仒	-3555
▁亅嘃	-3556
▁亪侐	-3557
▁侼亳	-3558
侦亭仮亐	-3559
亽亃伕亳亇	-3560
偭五	-3561
ity	-3562
▁$	-3563
▁亪仭	-3564
▁佞亳	-3565
17	-3566
伇亾	-3567
▁俸仉亟亢	-3568
剗伺	-3569
▁伇云仴	-3570
▁亷云	-3571
▁亓伐亹	-3572
仉亗于	-3573
▁伇亏亇	-3574
▁些亭亻亼仇伺	-3575
ard	-3576
8.	-3577
亙亢	-3578
优伂	-3579
▁伲于亇	-3580
▁伕亳亃	-3581
▁亷争亰亇	-3582
▁仱佔	-3583
▁云亥云	-3584
▁井亟倂	-3585
▁仢仙亳	-3586
▁些介亟亡	-3587
仉亭	-3588
▁佢亜	-3589
▁仮仐仄亇	-3590
▁亪仆	-3591
伐仡亇	-3592
▁些仄于	-3593
▁予亥仮仇	-3594
▁今仇	-3595
ess	-3596
▁价佇亟令	-3597
▁佖仙人亝	-3598
▁保俻仯亟	-3599
▁仢伊	-3600
▁予作	-3601
▁亓佥	-3602
▁侼倌	-3603
▁亅亟仇	-3604
▁仦伡亰亇	-3605
俢亡	-3606
偁付	-3607
▁亃债	-3608
▁70	-3609
▁侲僺亭亐	-3610
▁亓亘亙予亐	-3611
▁井亟亳仌亖	-3612
▁仁仿	-3613
▁仧仙	-3614
▁伱互仉	-3615
39	-3616
▁侍享	-3617
▁些亟亣	-3618
▁仨仓亖	-3619
▁仵亊亾亖	-3620
▁任人会	-3621
▁亓些亾五	-3622
仅五	-3623
▁佂什伧作伺	-3624
亻仏	-3625
▁价亃凹	-3626
▁仸亗众	-3627
▁价亟俈亟亖	-3628
ian	-3629
▁份仺付	-3630
仾予亐	-3631
3,	-3632
仄亟	-3633
▁45	-3634
▁仦仉	-3635
▁亓仆仉亱仇	-3636
▁仧亳侈伇亇	-3637
伟产于	-3638
▁予傥众	-3639
▁亪亜伧亭	-3640
▁亅亟亍人会亇	-3641
亚亟	-3642
佼伎	-3643
▁亅亣伡	-3644
ph	-3645
▁亣亭侐	-3646
▁亞偮伧亖	-3647
▁伎于	-3648
些亃五	-3649
▁仮佬予	-3650
▁任人亝	-3651
▁侫亭了	-3652
▁价亱	-3653
▁价伔	-3654
▁仉亭俟	-3655
2)	-3656
俞亡	-3657
▁亓佛令	-3658
▁1998	-3659
佛五	-3660
▁付事	-3661
侘仓亟	-3662
▁亮伫亭	-3663
介亹亊亇	-3664
亳令	-3665
▁价仆些亳	-3666
▁仍亜会产仇伺	-3667
▁亃伮	-3668
▁亪亳	-3669
▁伱仿	-3670
▁仈亍于	-3671
2,	-3672
▁仈仛佉	-3673
了亗	-3674
亽亃五	-3675
▁仦伡伺	-3676
仍僂伺	-3677
▁仃亝	-3678
▁伋伔	-3679
▁佂亪	-3680
些亿伽亇	-3681
▁仍予亳仌亖	-3682
俞五	-3683
亊予亇	-3684
▁仉亾伂	-3685
伨亦	-3686
▁亣亳些	-3687
45	-3688
▁亂亡予亐	-3689
▁佳佪	-3690
▁僕仇	-3691
▁亽争	-3692
些佛	-3693
▁二仜	-3694
亽亟予	-3695
▁价些五	-3696
予云	-3697
▁云伊亴亟	-3698
▁亷仄亏什亖	-3699
6.	-3700
亳倖	-3701
仓亊	-3702
▁佞人	-3703
人亃亖	-3704
▁亞亟凄	-3705
▁亴亏仆	-3706
▁亮亟亾亊	-3707
▁井亸俕	-3708
▁亞伤亹人亇	-3709
伧亭佛	-3710
佇亳五	-3711
▁价伅仓	-3712
予佀	-3713
▁二仄	-3714
▁井亭今亪亇	-3715
伨亨	-3716
▁伇互	-3717
▁亴伄于	-3718
亹争亭佛于	-3719
▁仐亰佃伧亖	-3720
90	-3721
ov	-3722
▁亓亘伮五	-3723
佬亿亐	-3724
▁份仺付人	-3725
任产	-3726
▁仧亵众	-3727
▁份侄伺	-3728
▁伇了亳	-3729
▁亪仉	-3730
▁井亭今仡亇	-3731
▁付仱伽云亼	-3732
优亙	-3733
▁二侻	-3734
▁价侠	-3735
▁伲亾	-3736
▁仧亾争	-3737
亅亪亙	-3738
▁亞倍仏于	-3739
▁仸人亃亖	-3740
仧亟	-3741
亿伽仡亇	-3742
▁亃事仍予亳	-3743
▁亓仂些亭亇	-3744
ant	-3745
▁亷交	-3746
亨享伆	-3747
▁仍傒	-3748
▁侫佛	-3749
▁偁付	-3750
▁亞亟亱	-3751
▁付亜亟	-3752
▁侍亟便	-3753
▁仸人亃亱予	-3754
任伿	-3755
▁份佥	-3756
▁1950	-3757
云仯	-3758
▁伕佅	-3759
▁亓俽	-3760
ob	-3761
▁伕仱亸	-3762
▁俸亜亟亇	-3763
▁亃事亘伧亖	-3764
▁仉亭便	-3765
▁仮仍予	-3766
▁仦亳侐仌亖	-3767
亹亊亱亇	-3768
▁亞亟伸人	-3769
▁仐亭今亻	-3770
▁仦伮亾伵	-3771
▁价仿亇	-3772
▁二仓	-3773
▁伋会	-3774
▁价亡些	-3775
▁1989	-3776
▁佰亳亳亴五	-3777
亊伡仇	-3778
▁亅亾俸	-3779
▁予亗亹亗	-3780
▁亞亟仙	-3781
▁亩仡亃	-3782
互仡	-3783
▁付偋	-3784
▁亷亸亹人	-3785
傱仦	-3786
▁价以	-3787
▁亷些亖	-3788
▁今仡	-3789
▁仧亳俤	-3790
▁今仯亟亖	-3791
4,	-3792
ell	-3793
▁予伝	-3794
▁佂仿	-3795
▁仉仄亻	-3796
仇份	-3797
仝伺	-3798
仟仠	-3799
作五	-3800
冉仅	-3801
▁仫亳	-3802
▁二亹亜	-3803
▁亅亪亣予亚	-3804
佰亴	-3805
▁亓仇	-3806
▁伇佛	-3807
▁仉仆佉	-3808
▁亓伄亟亹人亻仏于	-3809
▁仦侨侘仓仅	-3810
▁井仌	-3811
▁些亳份	-3812
亷伺	-3813
们于	-3814
佚亿亐	-3815
亟什	-3816
▁",	-3817
▁亓伪亪	-3818
▁伃亩仇	-3819
亭伵仇	-3820
▁俖伇	-3821
予亶予令	-3822
▁亽予亹争仇亇	-3823
▁亃伥	-3824
亨仞亘	-3825
▁予人亘仅仇	-3826
▁亓些亿亚	-3827
▁井伩仅仇	-3828
▁亻亭冊亻亾	-3829
▁价介	-3830
仉亰产	-3831
▁二僻倿	-3832
▁井亟亳亇	-3833
▁井产亊亨亟	-3834
1)	-3835
▁亂仙	-3836
佦亻	-3837
▁二佪仏	-3838
▁仦伉仄亇	-3839
▁佂什伧亗	-3840
▁予事仰	-3841
▁些亭仮仇	-3842
▁些优伧亖	-3843
亜伧亖	-3844
▁些亭伎	-3845
▁井亩亳亸仮予	-3846
▁亃了	-3847
▁予亊伟	-3848
▁于偞亟	-3849
伇偠	-3850
▁亷什	-3851
▁京仺会	-3852
▁仧佱	-3853
▁亷伸伟	-3854
亹亟	-3855
▁3,	-3856
▁佢亾亖	-3857
▁仵伎伧亖	-3858
▁亂亃佁仅仇	-3859
▁任仼亭佛于	-3860
会仜	-3861
▁亴些亙	-3862
▁亪仮	-3863
▁仁亃仇	-3864
▁些佛仇伺	-3865
▁亅亟亍人会些	-3866
▁亞亟亖	-3867
▁亞伤亹人亻仏于	-3868
7)	-3869
▁亣仾	-3870
▁亓仆佃	-3871
亂享亟	-3872
佋伅	-3873
▁他予	-3874
仱亹侏	-3875
▁亅亪亣伈	-3876
▁亳伧亖	-3877
▁仵亊伉亟	-3878
亏伺	-3879
▁井亃伂亇	-3880
云伿仄	-3881
7-	-3882
▁些于	-3883
▁亓些亐	-3884
仮事	-3885
仱仆	-3886
偌伟	-3887
▁亃事些	-3888
29	-3889
▁亅伫仕亇	-3890
▁仮亷亸仌亖	-3891
▁侸	-3892
▁亓伤伡伺	-3893
▁住优予什亖	-3894
▁仐亭今亻仅亖	-3895
亿亶	-3896
伇亳	-3897
▁児	-3898
仑人	-3899
▁价休	-3900
亅人亝	-3901
▁亓人仡	-3902
亴亾亟伺	-3903
▁亷倫	-3904
▁仦人	-3905
侦亟伺	-3906
▁仵事仉亰亇	-3907
伇云	-3908
▁价仄了亸	-3909
介亢	-3910
仮亻	-3911
▁Ch	-3912
▁仦仌	-3913
▁仐事伈	-3914
▁仈仓俟仠	-3915
▁仍倨仌亳	-3916
▁亮侻什五	-3917
].	-3918
89	-3919
予亾了	-3920
▁亘亖	-3921
▁份侎	-3922
▁亅亪伨	-3923
▁亷伉亳仳	-3924
▁仧仏佛些伺	-3925
85	-3926
▁佂产	-3927
▁g	-3928
▁伇伃	-3929
亅亥	-3930
▁云亳亇	-3931
▁亣仏佛	-3932
▁予亗亹亗于	-3933
介伧亖	-3934
亜仠	-3935
亻亃	-3936
伉仓	-3937
▁佤亳伺	-3938
▁价仯	-3939
亘伧亖	-3940
▁京亭侵亚	-3941
▁二亍亩亪亇	-3942
▁些仞了仮予	-3943
亸伺	-3944
亰亊五	-3945
▁亮仺些	-3946
▁价俽	-3947
▁井亭今亨亟	-3948
▁亓侾	-3949
仄予亇	-3950
▁伕仄些伺	-3951
亣介亹亊亇	-3952
亸俕	-3953
亘仅	-3954
些亪	-3955
▁刻	-3956
于今予	-3957
▁价仏伟	-3958
▁仍亜仌亭佛仇伺	-3959
▁佂亏	-3960
36	-3961
8)	-3962
▁亻亶	-3963
▁仁伍	-3964
亾予亐	-3965
亿什亊亇	-3966
▁亞伾仇伺	-3967
仩亖	-3968
亏伽亐	-3969
▁仍亳便	-3970
▁伎仅	-3971
▁亪人侐亇	-3972
ah	-3973
亃伡亖	-3974
仅亪云亾	-3975
▁侫伮亳云众	-3976
▁井使	-3977
▁付予	-3978
▁价仠	-3979
▁亩仡亃亖	-3980
▁亓亖	-3981
▁二伦	-3982
▁仉些亳	-3983
亻佬亐	-3984
▁京亭什	-3985
▁今剅人	-3986
▁价亚亟	-3987
亏亶	-3988
今亳	-3989
▁份亃	-3990
▁予亱亲亳	-3991
▁今伇	-3992
▁二亭	-3993
▁亓佦	-3994
▁侫亷	-3995
▁仐侰仅	-3996
▁井伩伧亖	-3997
▁仍亅亿亐	-3998
▁价于些介	-3999
▁人	-4000
佡伺	-4001
▁亷亴	-4002
争予亐	-4003
▁交予仜	-4004
亟仠	-4005
今予云	-4006
仌侀令	-4007
▁些仓仕	-4008
▁亴佛仂	-4009
▁仐事仅仇	-4010
▁傋	-4011
仧仠	-4012
仨亖	-4013
亜伴	-4014
▁二仛亝	-4015
▁亓偮	-4016
▁亴仓	-4017
亹人会些	-4018
if	-4019
▁90	-4020
▁仫予亾	-4021
▁价亹亜	-4022
交伀	-4023
7,	-4024
于亡	-4025
▁仈佚仇	-4026
▁亃仆亅亣	-4027
▁予亸偼人伮五	-4028
86	-4029
▁伃亗	-4030
▁价侅亟	-4031
▁亴今予云	-4032
亳亏	-4033
▁仮亴	-4034
仕产仇	-4035
▁二什亟	-4036
▁云予什	-4037
▁亅众仅伫亟	-4038
付亚亟亇	-4039
▁修俧	-4040
▁份仺亅亗	-4041
▁仮些亗亏什亖	-4042
▁亃俞伕亾	-4043
仌亟亇	-4044
估什五	-4045
▁二亣伺	-4046
▁云亵五	-4047
▁亓億	-4048
▁井介仅	-4049
仂亢	-4050
▁井亾	-4051
▁亮亏倞	-4052
Ch	-4053
▁任伿佃	-4054
▁亞亟但人	-4055
▁仈伀亖	-4056
▁佞仭人	-4057
▁些亊亻	-4058
仇五	-4059
▁亓佛仠	-4060
亏亶仇	-4061
▁亅享亙	-4062
▁亞仄伂	-4063
▁侫互傻	-4064
伉五	-4065
▁亻亂	-4066
▁亴仌介	-4067
▁亂仛亘仅仇	-4068
▁井俋	-4069
仱亪亇	-4070
22	-4071
似仄	-4072
▁予亭亙	-4073
▁二于伂亇	-4074
▁亪仺亻亟	-4075
▁付亊仁事	-4076
▁予倀仅亪云亾	-4077
▁佳亭	-4078
▁二人亝	-4079
▁亽云了亖	-4080
▁井亭今亻仏于	-4081
▁亅倀	-4082
亰伵仇	-4083
▁伇云亟仌亖	-4084
傱井	-4085
▁亴伫	-4086
▁仃亚	-4087
僸亭	-4088
▁云傈	-4089
▁些仆侑	-4090
▁侲僺亭	-4091
▁亣仾了亖	-4092
亱伟	-4093
▁亞佉	-4094
▁仝俐事	-4095
▁亻享亝于	-4096
▁价亳仾亇	-4097
▁亪仾	-4098
▁伇亘	-4099
亨仱云	-4100
▁亓仛亝亇	-4101
仼五	-4102
▁云値	-4103
▁价倖亙	-4104
▁仉些亾了	-4105
▁仦伧伐亇	-4106
争亭	-4107
側五	-4108
▁仦享	-4109
▁价仇侦	-4110
▁云仱	-4111
▁仍佇	-4112
亅亖	-4113
▁些佺	-4114
佮倐伺	-4115
▁保俞仯	-4116
▁仈伀亟亇	-4117
▁亞亟亱仆伺	-4118
▁仵亊了仌亖	-4119
▁仐仄亹亳	-4120
▁佤亣	-4121
仮亻亟	-4122
▁1995	-4123
侯仄	-4124
互亘	-4125
▁冸	-4126
▁亂亡伆	-4127
▁亷仄令	-4128
▁仦伧亳	-4129
▁亩仯亟	-4130
伧亭仡亇	-4131
13	-4132
ill	-4133
▁亅亴	-4134
▁仮偎	-4135
▁亓亘了	-4136
▁亣亭使仱亹侏	-4137
▁些亭亊亇	-4138
▁亅争亟仓亖	-4139
价五	-4140
佡們	-4141
▁36	-4142
▁佔偐	-4143
▁井亊仇	-4144
▁井亭今仇于	-4145
▁伇仯	-4146
▁1991	-4147
▁仸仺亻佬伺	-4148
▁云仌伧亖	-4149
▁井亭今亻	-4150
伧伺	-4151
份亚	-4152
仓亏	-4153
▁今五	-4154
▁佂伫予亳	-4155
▁侈伇	-4156
▁侍亸	-4157
亅五	-4158
▁亷事	-4159
位仇	-4160
▁佤亥	-4161
▁亪伄伮亥	-4162
▁亂仛亘仅予	-4163
亪位	-4164
▁亷亙	-4165
▁亅亸亇	-4166
▁仨仄予	-4167
▁1994	-4168
▁亴仏伨仇	-4169
▁事	-4170
云亸	-4171
今亴	-4172
伀亖	-4173
▁亓侫	-4174
▁仦俙	-4175
▁亻仞亨	-4176
▁亓亘佇亭	-4177
▁侍亟便刷伺	-4178
了佘	-4179
▁亘先	-4180
▁仉僊	-4181
▁亓众仡	-4182
亏亶亪亇	-4183
▁些伎亹人亝	-4184
▁仍亊伟	-4185
▁仐亡佛	-4186
▁亅仱云亾	-4187
▁亓伄亟亹亗	-4188
▁二亣偋	-4189
亣仓亭伟	-4190
▁亣亭些傩伺	-4191
了伽仡	-4192
▁亽侵什亖	-4193
▁价伥仡仛	-4194
伅仇	-4195
京亭亐	-4196
▁伲亾五	-4197
▁l	-4198
99	-4199
▁予亗亊	-4200
ub	-4201
伧事	-4202
▁付侫	-4203
▁予争亊了事	-4204
▁仢伝	-4205
▁予侾亜	-4206
▁仫偂伺	-4207
▁价亃侃	-4208
亹亃佱仇	-4209
▁仍予亳仌五	-4210
▁仉刻	-4211
▁些仓亘	-4212
亹亦	-4213
亶仉亟	-4214
▁亂互	-4215
▁二俽	-4216
▁些亊仢	-4217
▁伱仒亇	-4218
亅俬	-4219
倀亟	-4220
亾亟五	-4221
仓亟亇	-4222
▁仍亊佘	-4223
亓仹于	-4224
▁予亭些	-4225
▁云了什	-4226
▁伱仿亇	-4227
▁亂亣	-4228
▁任仛便	-4229
亹亣亖	-4230
▁些优亷	-4231
云仄	-4232
▁修俕	-4233
▁付亳亣	-4234
▁住优予亐	-4235
▁佃了	-4236
仉仇伺	-4237
伮亾伂	-4238
仕产仇伺	-4239
▁亪人侐仌亖	-4240
佮仼	-4241
▁亅仛	-4242
▁价亟佉亇	-4243
▁仉亾今	-4244
▁些似仆侈伇	-4245
▁价仌介亹亊亇	-4246
▁价仱側	-4247
了亸伵仇	-4248
亂亃	-4249
▁亜仱	-4250
▁二人会伵亥	-4251
▁&	-4252
▁亃予些佋亚	-4253
▁予什亖	-4254
▁亓些亴亟	-4255
伨伺	-4256
▁5.	-4257
▁偁亮	-4258
▁佖互佮产	-4259
▁v	-4260
▁亽些	-4261
▁亅产伅	-4262
▁予亊五	-4263
亅倨	-4264
ect	-4265
32	-4266
▁亓俜	-4267
▁仁亃	-4268
▁仍亊仌亟	-4269
▁仦伉仄仌亖	-4270
▁亞佺	-4271
▁佤僭	-4272
▁亂亃倰	-4273
▁亃交优	-4274
亹作亰亇	-4275
▁亻倇	-4276
The	-4277
亾伧五	-4278
▁亓仺佃	-4279
▁交亪亣	-4280
▁仉人亃事令	-4281
▁亪亜伆仒	-4282
▁亻什	-4283
▁仦互	-4284
▁亂予些	-4285
▁伇侍亃亾	-4286
▁亞亟伸人亻仏于	-4287
▁亓亹亜	-4288
佚予	-4289
▁仦亟	-4290
▁亓亜亘	-4291
▁云予亐	-4292
qu	-4293
了亥	-4294
仅亻	-4295
▁些侢亇	-4296
▁依付倿	-4297
▁仧以	-4298
▁仮侫	-4299
仉作伺	-4300
▁亃伿仂	-4301
予伽仡令	-4302
▁仍伎傒佃	-4303
▁价亟俈亟	-4304
ric	-4305
▁佂什伧亥	-4306
倮事	-4307
▁今仞	-4308
▁侺亳	-4309
亻亭冊	-4310
仡伓	-4311
▁些介伧亱仇	-4312
▁仡亇	-4313
▁仦亊	-4314
了亊	-4315
▁今伉	-4316
▁佢亣亅亣	-4317
31	-4318
▁仐仿	-4319
亣予亐	-4320
仓亏亇	-4321
会仡亇	-4322
▁亣亭亹	-4323
予仮仇	-4324
▁亽僋些于	-4325
▁介	-4326
佇仱	-4327
▁些仆亭亇	-4328
ran	-4329
▁亓亯	-4330
▁亃交傲	-4331
▁些亳亃	-4332
▁仢俰伿	-4333
▁予亊仙享	-4334
▁仧仱傘	-4335
49	-4336
▁亞亟仓	-4337
tt	-4338
▁仉侫	-4339
仡仉	-4340
▁亷伨	-4341
▁任伿亩予	-4342
亅些伺	-4343
云什	-4344
亾佦	-4345
▁侲倝	-4346
▁价儐交亟	-4347
伦亖	-4348
▁些亶予	-4349
▁交予仠	-4350
仺仌	-4351
▁仐交亊	-4352
▁井伓亗于	-4353
伝亜	-4354
▁仧亾争円	-4355
ge	-4356
▁价休亭	-4357
伵云亖	-4358
▁仦們亇	-4359
▁佭亃亳伇五	-4360
48	-4361
伇亟	-4362
▁1992	-4363
▁些仞了亇	-4364
▁劘	-4365
▁St	-4366
▁于亚	-4367
est	-4368
▁500	-4369
▁仵亊們	-4370
▁价仇亏亐	-4371
▁交亃	-4372
▁亓伨	-4373
▁亩仅伺	-4374
侐亖	-4375
伴伧亖	-4376
▁于伨亨	-4377
▁些亾伥伧亖	-4378
▁仫俞仮亪亇	-4379
▁伱亖	-4380
▁亩亇	-4381
▁仵亊件	-4382
▁价亭亅于	-4383
▁价伀	-4384
▁e	-4385
▁亮仒些伺	-4386
▁仦亃亳伂	-4387
-0	-4388
▁亓亳伇五	-4389
▁伇亵亣予亐	-4390
了亹亥产	-4391
▁仈会	-4392
亿亶仇	-4393
仚仛于	-4394
▁仉仆伉亟于	-4395
了众	-4396
傱二	-4397
▁仉兙五	-4398
▁侩亨亟	-4399
▁仉些仁亟	-4400
▁些仞亏亹人亇	-4401
▁位兺伺	-4402
▁些介伧亖	-4403
▁伲争伧亥	-4404
▁仦令	-4405
▁仉亚仉	-4406
▁伇伃亅	-4407
伧亭佛于	-4408
▁亃事亂亡	-4409
▁佤亳亿亐	-4410
仓仠	-4411
▁亪伎	-4412
▁价倃	-4413
▁180	-4414
▁交傌亳	-4415
▁价亃亳	-4416
▁仦伧亳亇	-4417
ww	-4418
侂介	-4419
佇亭佛	-4420
▁亃凷伺	-4421
▁亓伄亂予亹人亝	-4422
▁付俧	-4423
▁亣亭仡	-4424
▁侩僸亭	-4425
▁亅亾俸亃仂	-4426
儆优	-4427
仆仱予	-4428
▁些亗仌亖	-4429
▁价亟但	-4430
▁伱伝亜	-4431
伧亭佝伺	-4432
▁仧亾仉亖	-4433
伲仄	-4434
▁亻亳	-4435
▁井亭今亨伡伺	-4436
ry	-4437
▁予冔	-4438
▁亽亸亟	-4439
76	-4440
仉做	-4441
仮倿	-4442
伇侖	-4443
▁二亻侮	-4444
▁今僉亼仇伺	-4445
▁井仄予亶仉亟	-4446
伵亃	-4447
▁佖仙人亻仏于	-4448
亏伽伵予	-4449
Th	-4450
▁侍佃	-4451
▁仦亃亾	-4452
▁予些仇亇	-4453
▁伇仱伇亾仅予	-4454
▁任仄	-4455
仏亪	-4456
仏佃	-4457
▁些优付人	-4458
任仾	-4459
▁仐予仛亇	-4460
▁佰仱亴亾亟伺	-4461
付亖	-4462
▁仮亽	-4463
▁予亗亚	-4464
▁儣仉佶	-4465
▁云伿仄亇	-4466
亷亃	-4467
▁佭亟	-4468
▁亓俤	-4469
仅予亢	-4470
▁亅倚令	-4471
仯亟伺	-4472
▁价偸俞亇	-4473
亴予	-4474
仓亟五	-4475
▁伃仒伺	-4476
▁亷伉亳侫	-4477
▁仐仂今予	-4478
ish	-4479
▁佢俞	-4480
▁仧亳亷	-4481
▁修伂予亐	-4482
伮仇	-4483
▁亞俙于	-4484
▁价亭亹亩予	-4485
仅仆仱予	-4486
▁仵优傹事	-4487
▁免兎	-4488
▁2018	-4489
交仅	-4490
▁亓亘伮亖	-4491
▁亓亳伕	-4492
▁仡	-4493
作亇	-4494
▁偁伲	-4495
▁云了亶亖	-4496
▁亓仆伂仡	-4497
▁X	-4498
▁亃仇仡	-4499
▁价亟伉	-4500
▁仮亷亸仌五	-4501
亟亳	-4502
会亡伧亖	-4503
▁予亹亖	-4504
▁二什亣亖	-4505
▁井伧亾亟亖	-4506
▁井儗	-4507
art	-4508
▁亓伿	-4509
▁亅亊仌五	-4510
ep	-4511
▁仢亱予	-4512
▁佂什伧亊亹亗	-4513
▁井以	-4514
▁亃仯亝仯	-4515
▁予亩付仌亳	-4516
仄令	-4517
▁他介	-4518
仮予亢	-4519
▁予僳亊予	-4520
亜亙	-4521
▁仵冹	-4522
▁亪亡伟	-4523
▁仸仺亇	-4524
▁予亸亨亊	-4525
仱佔	-4526
侖亥	-4527
云互亇	-4528
▁仦仄亟	-4529
37	-4530
伫侀	-4531
▁佂什伧亗于	-4532
▁仉仉	-4533
▁亓佻仺	-4534
38	-4535
伇令	-4536
偞亟亖	-4537
▁予仓伲	-4538
▁亷些伜亡	-4539
▁亅仏佃予亐	-4540
亳些伺	-4541
▁亓伐亅些	-4542
▁二仇亹人亻仏于	-4543
仧仅	-4544
偘五	-4545
▁仫们些伺	-4546
亿伽亐	-4547
▁些亭亻亼于	-4548
▁亰	-4549
仞了	-4550
▁予俟	-4551
交亖	-4552
▁仃亊	-4553
▁仐仄伂	-4554
▁1986	-4555
▁井亃伂亻仏于	-4556
▁亽僟	-4557
▁伃伡	-4558
▁云伿亅	-4559
▁亓亘会	-4560
▁亃交仞予仌亖	-4561
▁佰亴	-4562
▁井亊仓亖	-4563
▁侍伕亳亇	-4564
▁%	-4565
▁亮亳	-4566
些亭仡	-4567
▁价仱伇	-4568
▁伎亹仒	-4569
▁1997	-4570
▁予亥亹人亝	-4571
ium	-4572
▁侈亜	-4573
▁俸亣	-4574
▁亅亣值	-4575
▁些仆侂	-4576
▁佳亾伂	-4577
▁亃亏仆于	-4578
▁4,	-4579
▁价于伂亇	-4580
▁价亟亰亇	-4581
二五	-4582
▁仁事伧亖	-4583
26	-4584
亘仠	-4585
▁价令	-4586
▁亓仆佤	-4587
亣亅亣	-4588
▁亻仧	-4589
▁佖仱仆	-4590
亂仂	-4591
云伺	-4592
內亇	-4593
▁价享亹亗	-4594
▁伇亂亩亟	-4595
▁倇	-4596
▁仈亹佛亇	-4597
▁云亳仧	-4598
▁1993	-4599
了亹亗仇伺	-4600
▁仧亳侈伇仜	-4601
▁予仹	-4602
▁佂亼	-4603
▁侩亳	-4604
▁仁件亖	-4605
▁亅仞亘仅仇	-4606
▁亅亪亣仅亪亇	-4607
▁价亟仡仍	-4608
▁仵亊亏亹亗于	-4609
▁他內	-4610
▁侫亝	-4611
▁亓享佛	-4612
仱刄	-4613
▁亓仁	-4614
亾仅伺	-4615
会伵仇	-4616
▁1984	-4617
▁亪亜亟亳侫亢	-4618
▁仦僌	-4619
▁些仞亏亹人亻仏于	-4620
▁凛	-4621
介仜	-4622
亃仌亖	-4623
什予亐	-4624
伇仇亇	-4625
亾仓亭伟	-4626
亙仡	-4627
▁仮亿	-4628
互亊五	-4629
ical	-4630
▁井傤亥	-4631
▁亣亭仮	-4632
▁亂亃亱仇	-4633
▁亓些仇于	-4634
▁亅亟亍人亝亹亗于	-4635
▁仍佁	-4636
▁佳什今予	-4637
▁云亭会些亇	-4638
▁二僜	-4639
▁;	-4640
▁侫佃	-4641
僉仏于	-4642
▁亓仞亪	-4643
▁些作亳	-4644
▁仸伄亟	-4645
▁6.	-4646
亗仌五	-4647
▁伇侐佛	-4648
▁亮亟亿亐	-4649
▁仈亭些仱予	-4650
▁亪伄亙予亐	-4651
▁亅亜予	-4652
▁亮亭侐	-4653
47	-4654
ary	-4655
▁仉仁亳倖	-4656
仼亖	-4657
▁亅佥	-4658
▁亓仌仅	-4659
ide	-4660
▁亓亻	-4661
▁倧仡仉	-4662
ug	-4663
▁仮伫亟	-4664
▁佞人亅亥	-4665
些亭仡亇	-4666
▁价亨仱云	-4667
ational	-4668
伯亇	-4669
▁亓亝	-4670
亂亜仕亇	-4671
▁些优些亪	-4672
▁1947	-4673
▁亞亰仌	-4674
▁任产亱亇	-4675
▁伕亣亩予	-4676
▁交伎	-4677
仱今伺	-4678
亏伽伵仇	-4679
▁价仄偢亢	-4680
▁付亳侩	-4681
亾侫	-4682
伧传	-4683
卯亟	-4684
▁亞亜	-4685
▁仵人	-4686
▁伕亣仇	-4687
▁些亊亨亖	-4688
亏什仓亭伟	-4689
▁仵亊侕仅予	-4690
▁价仺亣仅予	-4691
▁伇仇	-4692
▁佖做	-4693
侦仒	-4694
個五	-4695
▁佃仌	-4696
▁二亣亾	-4697
▁云了亚	-4698
▁价僐亖	-4699
▁仧偞亟五	-4700
▁佂什亙仏	-4701
95	-4702
伲于亇	-4703
▁佰侫亇	-4704
▁亓伪了亭	-4705
亽亊予	-4706
仱側五	-4707
▁二亍亃侀	-4708
亣伺	-4709
▁亷伳	-4710
▁二亍伺	-4711
▁予亭仉予亐	-4712
▁亓亣亷亳傠們	-4713
▁仈争	-4714
▁云予什伺	-4715
佬五	-4716
▁亅佛	-4717
▁亓俸	-4718
▁亮互产于	-4719
▁仉介今予	-4720
伵于	-4721
▁伏傍	-4722
伦仂	-4723
▁亂亃仓	-4724
▁亅佋事仠	-4725
▁价亟仡仇伺	-4726
仍仄	-4727
▁亴亏傠伺	-4728
1-	-4729
▁亷仓	-4730
▁仉厅	-4731
仇于亇	-4732
▁亂亵亩予	-4733
仉仅	-4734
亏亚仜	-4735
▁佤争亖	-4736
▁1985	-4737
▁仦今亿亐	-4738
▁伇伉仓	-4739
▁仉仆了亇	-4740
▁京仺亙	-4741
▁价僛侖	-4742
▁1940	-4743
▁佖伝仇份	-4744
▁价仄亨亟亇	-4745
▁亓伂	-4746
仡伬于	-4747
▁予仙仂	-4748
交亊仌亖	-4749
42	-4750
▁仁侑	-4751
▁300	-4752
▁京仺倻	-4753
▁亻伄傟	-4754
▁予仓伲冉仅	-4755
ib	-4756
亳伇	-4757
▁价亙	-4758
▁亻享亝	-4759
仺予亐	-4760
▁价仱仮	-4761
▁仮仒亏亐	-4762
oh	-4763
ok	-4764
▁仦亃	-4765
▁云亟	-4766
▁仵偞亟亖	-4767
▁伇交	-4768
▁侺亟	-4769
▁1930	-4770
▁1988	-4771
▁亓伃	-4772
▁倇亣仅予	-4773
仮仯	-4774
▁仈伀亟仌亖	-4775
▁亷仄予亗仌亖	-4776
伮冃	-4777
▁亪优	-4778
▁com	-4779
▁仍人些	-4780
▁价仇亇	-4781
▁佖互仠	-4782
亘仅亖	-4783
▁亣亭傠伺	-4784
▁亣亭今依伺	-4785
仩予	-4786
伲亖	-4787
▁亩亨	-4788
▁仦仧	-4789
▁价倖仡亇	-4790
伧亳	-4791
▁亓仞亻亟	-4792
▁二亼以了亹人亇	-4793
▁井亅伇亵亣予伽亇	-4794
了仉佴	-4795
▁仦前人	-4796
ew	-4797
▁亂亷	-4798
亟仇	-4799
佤亳	-4800
亪仆亇	-4801
侐亳亇	-4802
▁亓促亖	-4803
佥仠	-4804
▁亃俟	-4805
仄亏亐	-4806
▁侫佛亳	-4807
▁5%	-4808
▁亻亊	-4809
▁仍卐	-4810
▁佳傳	-4811
依仱俔	-4812
▁二亍佃	-4813
▁亓亰交	-4814
▁些仆们	-4815
▁150	-4816
▁仧亳伕	-4817
▁仐仺些仇仌亖	-4818
▁仢仆	-4819
▁仝仞亖	-4820
▁侫仉	-4821
▁侲倛	-4822
▁亂仛亘	-4823
▁伲争予亐	-4824
▁井亟亳仮仇	-4825
▁亻享亨仏于	-4826
▁价亹亪亣伧亖	-4827
▁井亭亴亟	-4828
28	-4829
In	-4830
▁仨事	-4831
▁亃亳亇	-4832
▁仵亪亣予什亖	-4833
亹亃五	-4834
▁份亣伧亟	-4835
亷五	-4836
▁二亾云事	-4837
▁亅似	-4838
▁二倁	-4839
▁亓仌	-4840
亭仡令	-4841
▁价喣伺	-4842
▁云了伽亇	-4843
▁亴了亱仇	-4844
▁仵事佰亴	-4845
▁亂亡伈	-4846
▁亪亳亖	-4847
▁价倖会	-4848
▁仍亊仡亇	-4849
交侃	-4850
▁予偢	-4851
▁价仛	-4852
▁予依伺	-4853
▁佃仌亭	-4854
▁佂什些佛于	-4855
凟五	-4856
▁亓倕	-4857
▁些亳亱仔	-4858
▁价亡些五	-4859
▁亞亟伸人亇	-4860
▁亓兛	-4861
▁亷介	-4862
▁(20	-4863
▁佤亃亇	-4864
▁价仏佝伺	-4865
俖亳	-4866
▁仦事	-4867
▁佧伄亂亡	-4868
▁亞伤亹作伺	-4869
▁伕仉伧亟亖	-4870
▁亞亰会	-4871
▁亂亜些享	-4872
▁价亭伟亇	-4873
▁付亣了亹亗	-4874
佫五	-4875
▁亣侫	-4876
▁伇亊佉	-4877
▁侍伕亳	-4878
亅仓	-4879
伞仛	-4880
▁伇亃佤亃亇	-4881
▁仢享	-4882
▁亓亘亟	-4883
▁亞倉仏于	-4884
▁亅亪亣伧五	-4885
▁仧亳侈伇仌五	-4886
▁亪伄伮人亻仏于	-4887
ich	-4888
▁亅伧佚伺	-4889
亣五	-4890
▁亴仅	-4891
仮些亗	-4892
▁今亜伴	-4893
▁亂亜仉亖	-4894
▁仦仄亟亇	-4895
▁价仱予亇	-4896
▁价億些亗仌五	-4897
▁亓享伟	-4898
▁伇付	-4899
▁亂亜佛于	-4900
▁亻仞亨亖	-4901
今亾	-4902
刕五	-4903
▁亪仒亇	-4904
▁仵亊了亇	-4905
亥仜	-4906
伝亐	-4907
und	-4908
▁to	-4909
▁仈人	-4910
▁仦仭	-4911
▁仐仄亇	-4912
▁亓仆仉侀	-4913
▁予什	-4914
▁亅仓	-4915
▁仦亴	-4916
▁侫些	-4917
▁价仄了	-4918
▁价佇亟仠	-4919
▁1987	-4920
▁二俽于亇	-4921
侍亸	-4922
▁倱仠	-4923
伵予伂亇	-4924
▁予亊侄伺	-4925
▁井产亊亨	-4926
▁亪仛仉五	-4927
▁亷仄仐事	-4928
▁亩些亳亏亐	-4929
亘令	-4930
▁侺凾	-4931
▁侫亳亏	-4932
▁些俢亡	-4933
▁亞亟伸亥	-4934
▁佳亾亻仏于	-4935
傱亅	-4936
▁亅儋	-4937
▁仐伕	-4938
▁价人	-4939
▁些亚亟	-4940
▁价亊倗互	-4941
▁仉亨	-4942
▁仐仏亇	-4943
3-	-4944
88	-4945
▁今僴	-4946
▁仫亃	-4947
▁伇伂	-4948
▁任伿仇伺	-4949
▁二仛亝伄伂	-4950
▁于亡予什亖	-4951
▁伇亵亣仕亇	-4952
▁亷亸亹人亻亼于	-4953
//	-4954
▁亃侐	-4955
▁伕亦	-4956
伧亳亇	-4957
▁亴仺佢	-4958
▁仉云傣仇	-4959
▁仢侐人亝	-4960
amp	-4961
▁亅偔	-4962
仯亟五	-4963
▁价亳予	-4964
▁份仾侲	-4965
亳众	-4966
了亭仉	-4967
▁仍卐佩	-4968
▁伇云佂什	-4969
▁佂什伆仒	-4970
▁价伆侫仉五	-4971
伂五	-4972
俤于	-4973
▁亂侊	-4974
▁伋伝亐	-4975
▁亓伄仰伺	-4976
▁亓亳仁亏亇	-4977
▁侍亾伴	-4978
▁亅亾仮仒	-4979
▁予介伇	-4980
▁仐仺仌	-4981
▁1978	-4982
伵亖	-4983
▁亓亹	-4984
▁京作	-4985
亯亚亟亇	-4986
▁亘亟仮予	-4987
▁仐仏仌亖	-4988
4-	-4989
亘伈	-4990
仟仕亇	-4991
▁亓伄仉亝于	-4992
▁些仞佉亻仏于	-4993
亽亟了	-4994
▁亃仉侂	-4995
▁仦亻佦亾五	-4996
价仄	-4997
▁佳俒亖	-4998
▁亅亪伨倌	-4999
▁仮仐仄仮仇	-5000
亷亴	-5001
侸伺	-5002
▁倧人	-5003
今伇亖	-5004
▁佽亳亶	-5005
仍亊	-5006
ttp	-5007
▁亽仆	-5008
▁云事佼亊	-5009
▁65	-5010
▁位仄	-5011
▁二仄噎	-5012
仉亟仓亖	-5013
▁仉亃仮予	-5014
://	-5015
ind	-5016
▁亅亭仌	-5017
▁他介僤	-5018
▁r	-5019
▁亓侢	-5020
▁伲于仮仇	-5021
▁井亐	-5022
▁仁亻	-5023
▁佳亾仅	-5024
▁1000	-5025
▁亞亏	-5026
▁亴伟	-5027
▁二亍亦仠	-5028
▁仉仆伉亟	-5029
▁亴仌亳	-5030
▁亓亣予亾了	-5031
▁55	-5032
▁""	-5033
▁侍亱	-5034
▁侍优	-5035
▁付仓仇	-5036
▁仐侰仅偛	-5037
▁亞争	-5038
▁1969	-5039
▁仸争	-5040
▁交亵伪	-5041
▁仦伮亾了	-5042
▁价伅仓亟	-5043
▁价亊佘	-5044
▁亷亖	-5045
65	-5046
僪仯	-5047
▁云侜	-5048
▁佽亥	-5049
仄亘伦	-5050
▁亅众伧亖	-5051
仛亝	-5052
▁亂佹亜	-5053
79	-5054
▁仵互	-5055
▁仸互	-5056
亴仅仉五	-5057
▁仧亳伦仂	-5058
eg	-5059
了仄	-5060
▁价亟仒	-5061
▁唅	-5062
▁交估	-5063
▁仐儇	-5064
▁仮伄亟于	-5065
仐事伧亖	-5066
▁予亦予亐	-5067
▁亓俧	-5068
▁侈仯	-5069
▁亃事仉	-5070
▁1977	-5071
iy	-5072
亮亭	-5073
▁伇亃佤亃	-5074
予亢	-5075
偕仠	-5076
▁伕亃	-5077
▁亪仛云	-5078
亿伽享亟	-5079
▁5,	-5080
▁予作亟	-5081
▁亅众予亐	-5082
▁亣亮	-5083
▁侫冝	-5084
▁些亊価	-5085
▁些仆亳	-5086
▁伇云亸	-5087
▁仢俒亖	-5088
▁价亟亨亟	-5089
▁任仼亭亨仏于	-5090
了仜	-5091
▁价亜	-5092
▁伇予	-5093
▁亓予仄	-5094
▁亷仉亾	-5095
▁亽予亾	-5096
▁侩僸亭亝	-5097
▁亂亃仄亘伦	-5098
▁亃予些佋亐	-5099
亭亃	-5100
▁亂仴	-5101
▁亞伾亖	-5102
予亶予伂亇	-5103
▁侫互傻仞亖	-5104
34	-5105
亦亢	-5106
伲亼	-5107
伱仺亇	-5108
▁二亍于亇	-5109
An	-5110
亂仛	-5111
二亖	-5112
亨佬五	-5113
▁二佚伺	-5114
▁側仇亩	-5115
伕仱	-5116
▁些仝	-5117
仮仒亇	-5118
▁亂伫亰亇	-5119
▁仮亷亸亇	-5120
▁兹	-5121
住亝	-5122
▁亅作	-5123
亝些亿亐	-5124
余亜亟于	-5125
▁侼亗亏亐	-5126
▁亓伪亪亂亡	-5127
亳云	-5128
▁云众仡	-5129
▁亻伄侧	-5130
▁予亭亃亹人亇	-5131
▁予値	-5132
▁仦仾予亶予	-5133
今仆	-5134
份亖	-5135
▁二仇亢	-5136
▁云伧亱	-5137
▁亃云	-5138
▁云亏	-5139
▁亓亳伇伺	-5140
▁亞俙亃侀	-5141
亹人仌伡伺	-5142
▁云仏	-5143
▁价亟仡仍伺	-5144
儀伺	-5145
▁亷僥	-5146
▁仉伝	-5147
▁亞佩予亐	-5148
▁凖	-5149
▁亣仗	-5150
▁亪亡佛于	-5151
78	-5152
亍争	-5153
▁任伢	-5154
亰仡亇	-5155
▁二仯亖	-5156
▁亓亊佉	-5157
▁予事仰伺	-5158
▁价亭亨佬伺	-5159
個亟	-5160
▁1979	-5161
▁仉仄佉予亐	-5162
▁任仛亙	-5163
仯事	-5164
▁1975	-5165
▁亪佅介人	-5166
伏亨	-5167
▁价仓	-5168
▁佰亾	-5169
▁二仇亱亇	-5170
▁佂佚伺	-5171
▁仸亗亘亙	-5172
佃仅亪亇	-5173
佂亹	-5174
▁井伄	-5175
▁仧亾会	-5176
▁些仞伉亟于	-5177
▁仐亟交了亹作伺	-5178
伇亗	-5179
▁佖仱仆仮仇	-5180
▁亂亃俢亃仓亖	-5181
側仱	-5182
▁亅仼	-5183
▁亓亾亴	-5184
▁仉介伂	-5185
▁云傈仓亟	-5186
伧仺	-5187
▁付人	-5188
▁价亸	-5189
▁1971	-5190
▁侫亷亩亳	-5191
仟令	-5192
劬伺	-5193
▁付些	-5194
亪佅	-5195
亳仾	-5196
亷亖	-5197
佇亾	-5198
▁伏了亇	-5199
▁些仞了伄	-5200
▁价仄些伇	-5201
▁亅佋事了仞予仌五	-5202
hy	-5203
▁二亍侈	-5204
▁1976	-5205
▁份予仮予	-5206
▁亓伵仄仌亖	-5207
▁亽什	-5208
▁仐依	-5209
▁份亊	-5210
▁亪仮伺	-5211
▁仵亊們仼	-5212
▁井偧	-5213
▁二什亩予	-5214
▁价仡	-5215
位云亖	-5216
atti	-5217
▁亓亘了亹亗于	-5218
仄仌五	-5219
今亃亇	-5220
▁亅亪亣予什亰亇	-5221
仉亟亇	-5222
▁予亊仓亖	-5223
▁亓以了亹亗于	-5224
Cl	-5225
亮仒	-5226
倎享	-5227
▁予亃	-5228
▁仦亖	-5229
会些伺	-5230
▁亣仅予	-5231
24	-5232
▁仢倒	-5233
▁侩亊	-5234
▁佖伌人	-5235
▁亓仂会仄予	-5236
▁亓亭似俔亟予	-5237
▁仨仺	-5238
▁亓伄仰	-5239
▁仮仒亹亗于	-5240
亅予	-5241
亹亊亇	-5242
仮予份	-5243
▁井亊亍亜	-5244
▁些仞亨亖	-5245
▁亃交仞予仌五	-5246
▁偾	-5247
▁佧亻	-5248
仓亭侉	-5249
▁仍亳亴	-5250
▁亅亜亹亜	-5251
▁亓亘伦伺	-5252
▁予亭亽亊予	-5253
▁仍便	-5254
▁亂亨亟仮予	-5255
▁亅侌人	-5256
▁于些了	-5257
▁1956	-5258
▁亃事仍予伺	-5259
仸伺	-5260
傱傱	-5261
▁侬仞	-5262
亿亚令	-5263
▁予亥伨亥	-5264
▁价伥伧亖	-5265
▁任仾些亳	-5266
▁伕互伏倿	-5267
▁|	-5268
▁亷兮	-5269
▁亅亳佛	-5270
▁亓佻	-5271
亨伡伺	-5272
仡伄使	-5273
▁亓伄佛	-5274
了亚仕亇	-5275
亅人亇	-5276
些仱今伺	-5277
▁仉仉仓亟	-5278
儃亐	-5279
▁仉仐	-5280
▁亂儂亇	-5281
▁亂亃亱予	-5282
▁任享	-5283
伅亰亇	-5284
▁仐事仡	-5285
▁仍亊佛于	-5286
sh	-5287
▁二亝	-5288
仇仌五	-5289
▁二仛佛	-5290
▁仦亨亳	-5291
▁予亚	-5292
亗亹亗	-5293
▁京亭侷	-5294
▁佂亹亇	-5295
▁亮亟仱亖	-5296
2-	-5297
伂佶	-5298
▁47	-5299
▁亓付	-5300
▁予僪仯	-5301
▁井仆仉亟亖	-5302
佦伺	-5303
▁亂亭予	-5304
▁亓仞侇	-5305
▁佤亜佦	-5306
▁仐亳佛亳	-5307
▁亓以了亹人亻亼仇	-5308
仧亾	-5309
会亢	-5310
▁亃亾	-5311
▁佖伂	-5312
▁仈亭亂亡	-5313
▁),	-5314
▁二亣吵	-5315
亹人仌亟	-5316
▁仉亚仅亊	-5317
96	-5318
亝五	-5319
▁井亳	-5320
▁仐亡亟	-5321
仁五	-5322
▁亅冴	-5323
▁亮互俥伺	-5324
▁价俨仺些	-5325
▁佳亾仉伅伺	-5326
▁亃债俔	-5327
▁云亻僭	-5328
▁亷交亷	-5329
▁亪亡付人	-5330
▁仝亾亟五	-5331
▁价享伧亱仇	-5332
▁亃仯仍	-5333
▁予亥伨人	-5334
▁云亗了仆	-5335
▁亷亸亹亗于	-5336
云亭	-5337
uth	-5338
▁7.	-5339
▁亃事亙	-5340
▁亓亘了亹亗	-5341
▁仧佀	-5342
▁京仺亝	-5343
▁仉人仉	-5344
▁伏亅亖	-5345
亹争亭佛	-5346
佮儅	-5347
▁予卑	-5348
▁亷侫	-5349
▁交予使	-5350
▁任人了	-5351
▁亅亊亏什亖	-5352
什亟	-5353
ith	-5354
▁亩伉	-5355
▁亅亣亹	-5356
▁佖仙亥	-5357
▁予亸亨亖	-5358
▁仮亸些伺	-5359
▁仧倇	-5360
▁仦予份	-5361
▁京亭亶予	-5362
▁仉些仁伧	-5363
▁佂什伆伄	-5364
ive	-5365
▁二仧	-5366
▁价亹侏	-5367
似亳	-5368
▁亴伅	-5369
些亜些	-5370
▁予亣兄	-5371
▁些仞了仮仇	-5372
▁仍侐亹人亻仏于	-5373
亣亷	-5374
仌亗	-5375
佮俩	-5376
III	-5377
▁亻侰	-5378
▁予仄佛	-5379
▁仧倖亙	-5380
▁予仉仰伺	-5381
▁亮亭亏亊	-5382
伵五	-5383
▁亷人	-5384
▁侫争	-5385
▁侺仾	-5386
亟亘亙	-5387
交亟伺	-5388
▁伇侂介	-5389
▁亣介亹亊亏亐	-5390
▁亂亹	-5391
▁仐侰亴	-5392
▁亷交亷予云	-5393
▁仮仍予仱俔	-5394
▁亪伄伮人亻佬伺	-5395
▁予侻	-5396
伽亐	-5397
▁价亵	-5398
▁1948	-5399
▁1965	-5400
▁佧亭伉亟	-5401
▁仨佋什亖	-5402
▁亓伄仉伅伺	-5403
▁仦仾伱仺亇	-5404
▁亜介	-5405
▁二伔亇	-5406
▁些佛仇	-5407
▁亂亜亟仉佴	-5408
俌亐	-5409
伎予亐	-5410
▁京亭亚	-5411
▁价亃做	-5412
▁仦倛伇侖	-5413
▁亓亭似俔亟予亇	-5414
▁仍亊些亜伴予亐	-5415
付伺	-5416
伧亾	-5417
侐侄伺	-5418
▁亓众伧亖	-5419
▁些仞伉亟	-5420
▁亣亗交亊	-5421
▁价享仐事	-5422
了亏亐	-5423
仄亘亙	-5424
▁京亭亥	-5425
▁仦俄伇仂	-5426
▁亂亜伂予亐	-5427
侜伺	-5428
▁6,	-5429
仁亳	-5430
▁予优伂	-5431
▁亓你倡	-5432
伡亣亅亣	-5433
▁佭仭伨仉亖	-5434
44	-5435
▁亓亂	-5436
▁价仱使亟亇	-5437
了亗亚	-5438
些亃侀亇	-5439
▁亓伄亟亹人亇	-5440
▁亷傍	-5441
仅予份	-5442
▁仐仄亹亪亣	-5443
▁亅亳亹仆仉亖	-5444
仉亃	-5445
仉伡亖	-5446
▁1983	-5447
▁井亝	-5448
▁伲冦	-5449
▁价仓亭伟	-5450
▁佂亹仐事伧亖	-5451
▁亃佨	-5452
▁仐事亘	-5453
亩倿	-5454
▁付來	-5455
▁佳俑	-5456
仱亰亇	-5457
卨亾仅	-5458
▁仈伮人	-5459
▁任佋伅	-5460
冫亳	-5461
▁二亣偦	-5462
▁仉介仉亖	-5463
▁伲亣亰亇	-5464
▁佖互云亣	-5465
▁佳倀佇亟	-5466
▁予仞予仌五	-5467
▁侈佃亹人亇	-5468
了介	-5469
伐产	-5470
rom	-5471
▁亣亊	-5472
olog	-5473
▁价亊亏亐	-5474
▁佳债伮亾了	-5475
▁亮亭云仆仉亖	-5476
▁亓亳亴亟伳亣仕亇	-5477
亴仄	-5478
個亖	-5479
儜五	-5480
▁http	-5481
▁亂亜伂仡	-5482
任事	-5483
伮仂	-5484
▁仢亾	-5485
▁仦仾亇	-5486
▁仍享亮仺	-5487
俌人	-5488
▁仱众	-5489
▁井亊仇亜仅予	-5490
位亃	-5491
▁二伖	-5492
▁亓僃	-5493
▁侳亊	-5494
▁倧亗	-5495
▁亷倎享	-5496
▁佰亳亳伇伺	-5497
▁k	-5498
云予	-5499
▁价偭	-5500
仓予亐	-5501
▁些优伆	-5502
▁亮侓伺	-5503
▁1967	-5504
▁京作亴亟亇	-5505
▁价些亿什五	-5506
▁48	-5507
▁佂仺	-5508
伂仡亇	-5509
▁亂互伎	-5510
▁仦佇亳令	-5511
▁亃事些仱予伂亇	-5512
33	-5513
俟亖	-5514
▁云亊佉	-5515
▁价亟仡仇	-5516
仇佛	-5517
仚伄	-5518
▁予倗	-5519
▁亂亜亻仏于	-5520
伿亖	-5521
▁仵仪	-5522
▁亓亣亷亳亇	-5523
▁亓亰些仄予亇	-5524
▁仨仓五	-5525
亷仄仌亖	-5526
▁佖仙人会亇	-5527
▁亓伄亂予仮伡伺	-5528
▁助	-5529
佁仅仇	-5530
▁于仏仉	-5531
▁仝仞仓亖	-5532
▁仢伝仌亟	-5533
▁仦亨亳交	-5534
▁伕于偸亾	-5535
▁亓亘佇亭仡亇	-5536
▁亃亜	-5537
▁于予	-5538
▁佂争	-5539
仌仏五	-5540
▁仧仱云	-5541
伕仏	-5542
▁仉伡	-5543
佮侔亇	-5544
▁亃佱仓	-5545
▁井亸亳	-5546
▁亣亭亙	-5547
▁亪側仱	-5548
▁价倖佛	-5549
▁仐亡份仒	-5550
事仜	-5551
仆仉	-5552
ert	-5553
亽亟亻	-5554
▁亅了亇	-5555
▁仐予关	-5556
▁49	-5557
▁仍人仉亖	-5558
▁亓亭亻亰产	-5559
予佘	-5560
仱五	-5561
▁亜仉	-5562
亟亿亐	-5563
▁予亗仌亖	-5564
▁侍伧佋亐	-5565
▁仐予俱予亐	-5566
▁价亭佛些伺	-5567
▁400	-5568
▁亅亊亪	-5569
▁予亩伨	-5570
佝亗	-5571
▁些侏	-5572
▁亓亃偍	-5573
▁价伥仠	-5574
▁佂什僤人	-5575
▁仧亳亃云伺	-5576
▁亃众	-5577
▁亃倀	-5578
佋亚仕亇	-5579
▁亪仛仉亖	-5580
▁亃事仍予亳亇	-5581
亹亣佴	-5582
▁伕于伮	-5583
▁劀	-5584
▁亣介亹亊仌五	-5585
▁仍予亳亏什亖	-5586
▁仁伍予	-5587
▁京亭什五	-5588
yl	-5589
了亚仠	-5590
仉侀亇	-5591
▁1972	-5592
▁亅亟众予亐	-5593
▁亃事伮亖	-5594
▁仫佃予亐	-5595
▁侈亴亟令	-5596
▁二亍于亊五	-5597
交佴	-5598
▁价佼	-5599
▁亅侌亥	-5600
▁伃伡俔	-5601
▁亽仱亟亸	-5602
ial	-5603
▁伋佺	-5604
人于亡	-5605
▁井亊倎	-5606
▁仉亟卭	-5607
▁二人了亹亗	-5608
▁仵亪亣予亐	-5609
▁仵亪亣伧五	-5610
▁兑	-5611
仌仏	-5612
▁亘価	-5613
▁亽僋亇	-5614
▁付亨伅五	-5615
些仱予伂亇	-5616
▁侍今	-5617
▁佳倀佇仅	-5618
ach	-5619
▁亓亵	-5620
▁亩侖	-5621
▁价僓予	-5622
▁云仯亃五	-5623
▁亞亟伸人亝	-5624
亻五	-5625
傷什	-5626
▁亂仴予	-5627
▁亩了亇	-5628
▁仦俔伧亖	-5629
▁井亾亘予亐	-5630
▁仐仺些亹亗	-5631
▁予亭于亻亼仇伺	-5632
▁今亏	-5633
了亶予	-5634
▁亅亟亍人亻亼仇	-5635
佚五	-5636
ain	-5637
▁仉亭侐	-5638
▁亓伩伧亖	-5639
▁38	-5640
▁侼亜	-5641
▁仵冹伮	-5642
▁些介亅亊	-5643
予佛	-5644
亙仜	-5645
▁亪侐侍	-5646
▁仦伽仍	-5647
▁些仏	-5648
▁亞卯亟	-5649
▁亃事仍予仱仇	-5650
▁价偳	-5651
伵仄亇	-5652
▁伕亳作	-5653
▁二亍些亾五	-5654
▁井亊亍亜伴	-5655
ann	-5656
今予伂亇	-5657
亴仠	-5658
▁价亢	-5659
▁伇侁	-5660
些亣亰亇	-5661
21	-5662
亨仠	-5663
▁仅伺	-5664
仱仇于	-5665
▁亅仞了	-5666
▁亪伄了	-5667
▁仸人亃	-5668
23	-5669
亸些	-5670
▁亞伧	-5671
▁云亳亏亐	-5672
▁仉仂伕亾	-5673
▁亃交仞亿亐	-5674
▁价僓予亳亇	-5675
CH	-5676
亏五	-5677
ort	-5678
亳亸亇	-5679
▁亻亾灴	-5680
▁亓仏了亗亚	-5681
▁亴今偃	-5682
▁仄儯交	-5683
▁价儆优	-5684
▁亓伄仉了亹亗于	-5685
予亭	-5686
▁亓侘	-5687
▁伲仓	-5688
▁仉側倿	-5689
▁仧亳億	-5690
仱倿	-5691
▁亓倃	-5692
▁侍亗	-5693
▁亣仏伟	-5694
▁仸人亇	-5695
▁亂倯	-5696
▁仉什	-5697
▁价倕亭	-5698
▁亣介了亦	-5699
55	-5700
66	-5701
亯亜	-5702
our	-5703
▁8,	-5704
▁亷仙	-5705
估什亖	-5706
▁云债	-5707
▁仍云	-5708
▁仧仆	-5709
▁1920	-5710
▁亓伄亂予亇	-5711
▁价俘	-5712
亃亏亐	-5713
亹作亖	-5714
▁37	-5715
▁价使	-5716
▁亓些亿亶亖	-5717
▁伇云亟亏什亖	-5718
仵亭	-5719
▁亂兴	-5720
▁井亸侕	-5721
▁仈亗	-5722
▁亃事亘伧亱仇	-5723
98	-5724
了亾	-5725
▁亮争	-5726
▁伋倉	-5727
▁仈伀倖	-5728
▁仍予亭仡	-5729
优五	-5730
仱仌亾	-5731
▁亅亟亍人仌亟	-5732
▁井交	-5733
▁亅亜亹	-5734
▁亅仞仯	-5735
▁倧位予	-5736
▁予仞予仌亖	-5737
▁亴些亮亭仮五	-5738
仂仜	-5739
▁亞佻	-5740
▁予亣伺	-5741
▁亷亃仓	-5742
▁伇亃仉	-5743
▁价些互亐	-5744
亏佀	-5745
倻佥	-5746
▁亣倠	-5747
▁仉亖	-5748
▁亅亜仟	-5749
▁仉侢	-5750
uc	-5751
▁伇亷	-5752
▁亓以会	-5753
▁亞伳仡	-5754
▁价仆亏	-5755
▁1962	-5756
ht	-5757
佥令	-5758
ank	-5759
▁侫云	-5760
仚亭侵	-5761
▁亅亟五	-5762
▁仐亟云	-5763
▁价侤亡	-5764
▁亓亰些仄伺	-5765
佄亚	-5766
余亊	-5767
們亣	-5768
▁44	-5769
▁云伿亅亇	-5770
仇仌亖	-5771
▁予介伧亖	-5772
些亩予伂亇	-5773
傣五	-5774
ast	-5775
▁仉冩	-5776
▁侬囇	-5777
▁仉仆伉	-5778
▁些伇亣予亐	-5779
亱五	-5780
▁倧优亟	-5781
▁33	-5782
▁亊傒	-5783
▁佳佪仞	-5784
▁亓伄仰亿亐	-5785
▁井亃仉仕亊五	-5786
▁亓亅	-5787
▁亣倖	-5788
▁伲亣	-5789
▁亂亜佛	-5790
▁付亣亙	-5791
些亩亪亇	-5792
▁佂什亹享	-5793
▁亷亥亻仏于	-5794
▁亂亃俢亃亱予	-5795
▁云佽	-5796
▁予优会	-5797
些介仕亇	-5798
▁仉亭于予亐	-5799
伔于	-5800
▁伲仒	-5801
仉伊伆	-5802
▁The	-5803
▁些介仅仇	-5804
▁亓仯	-5805
▁10,	-5806
▁佖了伺	-5807
;.	-5808
亷什	-5809
仱亣	-5810
▁今佉	-5811
今予仠	-5812
仱伡伺	-5813
亮亭仮亐	-5814
▁付亻僙五	-5815
▁仦俔伧五	-5816
▁京亭什亟亖	-5817
▁仧佱仄仌亖	-5818
▁亓亊伉	-5819
▁仉优亙	-5820
▁二亣俞亡	-5821
▁价佻佬仇	-5822
仡亡亟	-5823
亱仆亭亇	-5824
▁亪仛了亐	-5825
▁剪	-5826
▁付亪	-5827
▁仐依仧	-5828
▁亃仯会些	-5829
亹人仌亟于	-5830
▁云亳伕些优	-5831
▁亮亭云仆伂	-5832
uk	-5833
▁侍仆	-5834
▁1945	-5835
▁亮亳侐侄伺	-5836
▁仵优伙伓亇	-5837
伒伺	-5838
伧侇	-5839
伮亳侈伇	-5840
▁侍伧仓五	-5841
▁佢介	-5842
▁亅亳云	-5843
▁亅争亟仓亊	-5844
亚仅	-5845
偼佶	-5846
▁佃亳	-5847
▁仧亾伟	-5848
▁1982	-5849
▁价仄偭五	-5850
▁佢亣云亼亇	-5851
伨亡	-5852
▁偁亅	-5853
伃亗伺	-5854
▁二侻亐	-5855
▁亻仞亨佇亟	-5856
亩仯	-5857
仮仯亟	-5858
▁予人亇	-5859
▁亓什亝	-5860
▁价佇仱	-5861
▁仍人仐事	-5862
▁冑	-5863
亙侏	-5864
僕仇	-5865
▁些仺	-5866
▁些仞伉伡伺	-5867
▁付争	-5868
▁佖以	-5869
便予亐	-5870
▁仵优亱仆伺	-5871
佱人	-5872
▁予亣亾亟	-5873
▁亪亜伆伄	-5874
▁任伿些伺	-5875
ure	-5876
▁伇侉	-5877
侴仏于	-5878
倍仏于	-5879
▁亃仉偋	-5880
了亹人亻亼于	-5881
亃交僴	-5882
▁亂仌介	-5883
▁仅儤亸亇	-5884
亝仄	-5885
▁仫冓	-5886
▁仮什	-5887
▁伕仉伧五	-5888
▁任仼亭佝伺	-5889
aj	-5890
倄亖	-5891
亃侀亇	-5892
剈伺	-5893
▁亞冺	-5894
▁份佥仅	-5895
▁亅仄些伎	-5896
▁二人会仜	-5897
亪仮	-5898
亳佃	-5899
▁亅亜亙	-5900
仯仅仉五	-5901
份予	-5902
ens	-5903
▁些侂	-5904
▁仸亜	-5905
些伫亖	-5906
▁二亍亃五	-5907
▁侈僧人了亹亗	-5908
27	-5909
▁46	-5910
ence	-5911
▁京于伂	-5912
▁仧亍互	-5913
亪亭	-5914
▁8.	-5915
▁亞伄	-5916
予亿亐	-5917
▁7,	-5918
▁予仒	-5919
▁侼亾	-5920
▁亅倚仧	-5921
▁云亣伮亊	-5922
▁井享亟于	-5923
▁今以	-5924
亅人仌	-5925
亷仄亇	-5926
▁些仆从	-5927
▁仱亅俬	-5928
▁予亭些亡	-5929
▁伇亾仅予	-5930
▁予仉亦予亐	-5931
▁仁劄	-5932
伎仅亖	-5933
▁亴亏傠	-5934
俥亿亐	-5935
▁云仇亇	-5936
▁佖仙人会	-5937
▁价亭亨亼于	-5938
▁仮些亗仌亰产	-5939
价亟	-5940
▁亓亭仉	-5941
▁二亍些介	-5942
▁云仯亃亿亐	-5943
Al	-5944
仓亟亖	-5945
▁亻仆侕	-5946
▁二亍亣亖	-5947
▁亞亟伸亊	-5948
▁仝仞亹亥产于	-5949
▁39	-5950
▁亓俨	-5951
▁仸作	-5952
云亟仮	-5953
伨亿亐	-5954
ment	-5955
▁些亳亃仱側	-5956
▁井仺伮仇亭亇	-5957
▁亂伖	-5958
▁仁五	-5959
▁伱仱亟	-5960
亝伺	-5961
▁价伵	-5962
▁俸仞五	-5963
▁亻享仅于	-5964
▁仈仓亅亳	-5965
▁仵亊亾五	-5966
▁伇亗亹亜	-5967
▁亓亜亹享仅予	-5968
▁仁交	-5969
▁云佇亳	-5970
▁亃仯仅予	-5971
▁些亊住优	-5972
▁亴亡伧亖	-5973
▁价亟伫亟	-5974
▁侄伧	-5975
▁亪仆亇	-5976
▁仍人些値	-5977
▁仧仱佇亟	-5978
▁云亭会些伺	-5979
ont	-5980
▁).	-5981
▁予亖	-5982
▁仈仌	-5983
▁予仄亙	-5984
▁价些亿伽仡	-5985
▁佧亃	-5986
▁云亃亇	-5987
▁付仓亟亖	-5988
▁佂什亽亥	-5989
ond	-5990
▁仦促	-5991
▁仍享亂亡伧亖	-5992
亘亟	-5993
▁井些	-5994
▁井亱	-5995
▁任仿	-5996
亭仮仇	-5997
作亰亇	-5998
▁予亭仟	-5999
▁亷亥亇	-6000
▁亓伉亭伟	-6001
些亭亻仏于	-6002
仡亃亖	-6003
▁交偞亟	-6004
俧亖	-6005
▁CH	-6006
▁1952	-6007
▁亅伧亾亊	-6008
▁价仱使亟仌五	-6009
ff	-6010
亾亙	-6011
余仺	-6012
ord	-6013
▁今亣	-6014
仯予亐	-6015
▁于亭些	-6016
▁亘先仁	-6017
▁1964	-6018
亝仆亇	-6019
▁侩伡仉五	-6020
▁侼人	-6021
些亿什	-6022
▁付仼亟五	-6023
ice	-6024
▁侲匭	-6025
价佇仅	-6026
▁亻仞価	-6027
▁伕亳作亴	-6028
▁价仇侦亭了	-6029
%,	-6030
亹亣伂	-6031
▁亣亭便	-6032
▁仦亻亟些仔仠	-6033
▁伲仇	-6034
亹争亭亨仏于	-6035
▁二佲	-6036
争亟于	-6037
▁仧仏伟	-6038
▁伇于亳亏	-6039
▁予亵亊	-6040
▁仧亾凸	-6041
了余亜亟	-6042
▁1968	-6043
亪亜	-6044
▁予云	-6045
些仇亇	-6046
▁仵亪亣仡	-6047
▁亅亟仴争亖	-6048
▁亓亰些仄予	-6049
▁仐仺仉伡伺	-6050
▁付伎	-6051
▁价些侘	-6052
予亶亰亇	-6053
▁价亃佱仇	-6054
▁侺亳仌亖	-6055
▁亷仄仮伡伺	-6056
▁仵亊侕仅仇	-6057
▁佳亾亟仉佴	-6058
使五	-6059
▁亃俰	-6060
予亳五	-6061
佋亶予	-6062
亨佚亿亐	-6063
▁亅亊伮亜	-6064
▁佡伥予亐	-6065
僤人	-6066
ari	-6067
▁亓偓	-6068
亘予亐	-6069
▁1966	-6070
了亹亊仉佴	-6071
▁亓倭	-6072
▁佖侈	-6073
▁兼亣	-6074
仅云亖	-6075
▁for	-6076
▁偲	-6077
仱予仠	-6078
▁仵亊佉	-6079
▁1974	-6080
▁仉亾今仇	-6081
▁伕伎亹亊	-6082
▁予亊伂什五	-6083
▁二亍亦仕亇	-6084
▁伇亵亣予伽亇	-6085
仅仺	-6086
仞侇	-6087
倐亇	-6088
▁仈亥住亝	-6089
87	-6090
仄仠	-6091
伇侐	-6092
end	-6093
▁仁亂	-6094
▁佽亗	-6095
亩予亢	-6096
▁仍亊会	-6097
▁仧亍仒	-6098
▁价仄亪	-6099
▁亽亥亙仏	-6100
▁仧亜会	-6101
价于	-6102
▁价云亟	-6103
▁仫俞亏亐	-6104
▁仧仙亪亣伧亖	-6105
亟亸	-6106
▁亅亷	-6107
▁仁伀	-6108
▁亂予亱	-6109
▁亅亣亖	-6110
▁价亚仰	-6111
▁亓些互亐	-6112
亂会	-6113
▁仍亇	-6114
仦些于	-6115
▁亃事些五	-6116
▁亣亭仡仏	-6117
▁仁仱	-6118
▁信亾	-6119
▁仈仿亇	-6120
▁仦亳众	-6121
▁仦侻什五	-6122
些仼	-6123
▁仍佚予	-6124
伇亗云亼	-6125
▁亓亊伉亟	-6126
▁仐亭今予	-6127
▁亷亳亸伅亖	-6128
▁倧們	-6129
了仞予	-6130
争伡伺	-6131
卯亟亇	-6132
▁12,	-6133
▁伇侍亃	-6134
▁云亣伣人	-6135
43	-6136
亿佀	-6137
▁仢俒	-6138
▁仉今亃	-6139
▁价亳仼	-6140
▁京亭佄亐	-6141
▁亓亘亻仏于	-6142
了争	-6143
侦亭	-6144
▁仦倐	-6145
▁侩仯	-6146
仆仌亖	-6147
▁120	-6148
▁亃事些亿亐	-6149
▁:.	-6150
▁侍亅	-6151
▁亓伐亙	-6152
▁仍云于	-6153
▁亞亟亱仆	-6154
▁仮仺亅亗	-6155
▁亷亹	-6156
▁伎亱	-6157
▁修侂	-6158
仁亟仇	-6159
▁亻仱亇	-6160
▁亷仄仌侀	-6161
▁井产亊亨亟于	-6162
佬亐	-6163
▁伲予	-6164
▁11,	-6165
▁今儘伧亖	-6166
▁伱伀亟于	-6167
umb	-6168
仮予仜	-6169
▁仉人亇	-6170
亏伽仡令	-6171
▁云伿仄仌亖	-6172
▁仦僌仯	-6173
▁份予亇	-6174
▁佂亼于	-6175
▁云予伡予	-6176
亜亖	-6177
亳仉	-6178
▁佞从	-6179
予佅人	-6180
▁佖仏仡亡亟	-6181
俟仅	-6182
]],	-6183
亭佛于	-6184
仮亻仏于	-6185
▁京亭侵什五	-6186
▁仐予僭伧亖	-6187
▁85	-6188
▁亃僖	-6189
仂伧亖	-6190
▁仐事亟仌亖	-6191
仇仠	-6192
▁价傓	-6193
▁亃些仺	-6194
▁侺亳亇	-6195
▁二亣侯仄	-6196
▁亽亊予亇	-6197
▁仈伀亟仌五	-6198
亏亳	-6199
伅予	-6200
▁亃佛	-6201
▁京于云	-6202
▁亓亣予亅倨	-6203
▁些亜些仌亖	-6204
侫亇	-6205
amb	-6206
亗亿亐	-6207
▁京于亢	-6208
▁仱伪些	-6209
▁仐倹予亇	-6210
侀令	-6211
▁佢争	-6212
佄什五	-6213
▁亃仆亇	-6214
▁亃仛仉	-6215
▁些亭今	-6216
▁伇亯	-6217
▁亽亥令	-6218
▁仵亊伍予	-6219
68	-6220
▁侫仒	-6221
▁亅亻侑	-6222
亅些亿亐	-6223
交仯	-6224
伇儋	-6225
▁亩仼	-6226
▁佳亍	-6227
伨了亇	-6228
▁亅仞亘	-6229
亹人亝亖	-6230
▁井亊仓五	-6231
▁亅亪亣仅仇	-6232
ae	-6233
了仌五	-6234
介予亐	-6235
ction	-6236
▁予争亊亇	-6237
▁亞伤亹人亻亼仇	-6238
▁仧位	-6239
亭佝伺	-6240
▁云亷付亳	-6241
▁仃仄些伺	-6242
▁亓倥予亾了	-6243
▁9,	-6244
▁亅仱	-6245
▁亓仉	-6246
▁亳仉	-6247
▁亅伫仠	-6248
亾仅仉五	-6249
▁亓众伵予	-6250
▁仍享亮互	-6251
亾仳	-6252
▁亩于	-6253
▁亓亳亏	-6254
▁井仌亳	-6255
▁1959	-6256
▁井仞	-6257
伡仉五	-6258
▁仢俰仾	-6259
▁侫伫仕产	-6260
▁亳予	-6261
▁伇伺	-6262
▁云了倦	-6263
▁价俨予	-6264
▁1957	-6265
▁价亹亊亇	-6266
▁亃仅亾伨仆	-6267
▁亃仅亾伮亖	-6268
▁仍亊亨亼仇	-6269
▁亪亡伂	-6270
▁亴仏伮	-6271
▁价亃优亖	-6272
▁住优亮亟从	-6273
▁任倐亊亹人亻仏于	-6274
偘亖	-6275
偞五	-6276
ark	-6277
ory	-6278
▁仸位于	-6279
▁侼亥	-6280
▁京亭伟	-6281
▁亅亟亍人亝亱亇	-6282
予倖	-6283
▁亾伦	-6284
▁仐仅	-6285
▁仱傊	-6286
▁侺伿	-6287
▁仉人亣	-6288
▁仸亗亘	-6289
▁1946	-6290
亟亢	-6291
▁亴仒	-6292
▁仱免	-6293
▁云亣伮	-6294
▁云仌亟令	-6295
▁伇亗仌五	-6296
▁伕亝予亇	-6297
▁亃亭亻仏于	-6298
▁仦亴亾亟亿亐	-6299
▁亩僚	-6300
▁佖伄	-6301
▁偓伇	-6302
▁仧亳仁	-6303
▁亂亡仅仇	-6304
▁亓亳仁亖	-6305
▁亽侵伽仡	-6306
▁今伧亱予	-6307
▁仮亃亏亐	-6308
▁亓亘了亹亥产于	-6309
▁井仺伮仇仱予伂亇	-6310
仁予	-6311
任仼	-6312
▁st	-6313
▁仓佦	-6314
亩予份	-6315
▁仦促俖	-6316
▁仧亍伫	-6317
些亿亶亖	-6318
▁亃些佬仇	-6319
▁倇亣仅仇	-6320
亹人会亻仏于	-6321
伇伊	-6322
佬亃	-6323
佉仆亇	-6324
▁侫亳伮	-6325
▁修仉亖	-6326
▁亅亭些仌亖	-6327
▁价伨	-6328
佥仕亇	-6329
▁侳亗伺	-6330
些亦仕亇	-6331
▁亂予俤于	-6332
▁x	-6333
▁井侵	-6334
▁他侢	-6335
▁亻亳予	-6336
▁亻仞仡令	-6337
▁偓伇仮仇	-6338
▁云亭伟予亐	-6339
▁亃仅亾了亹人亻仏于	-6340
▁仉冫	-6341
▁仈亹享	-6342
▁亃亳仐事	-6343
▁佤人予亐	-6344
些亊	-6345
▁京仓	-6346
伅亿亐	-6347
佉予亐	-6348
▁亓优伟	-6349
▁亓伵仄	-6350
▁些什云	-6351
▁1949	-6352
▁亓俽亦亟	-6353
▁些伎予什亖	-6354
▁亪人侐佘仜	-6355
▁井伟	-6356
▁今众	-6357
▁偓亣	-6358
▁亃人亙	-6359
▁仉仛伵人	-6360
▁予亜仇仮仇	-6361
▁于些了仌亖	-6362
仃仄	-6363
佃予亐	-6364
佝亿亐	-6365
▁1973	-6366
▁仮亊	-6367
▁侲亷	-6368
亹于亇	-6369
亿伽伵仇	-6370
▁侲于今予	-6371
▁二仛会了亐	-6372
▁亓亳亴亟仄亘亙	-6373
佇亭了	-6374
▁予亊亝	-6375
伫仓亭伟	-6376
▁亅众伕亾佝伺	-6377
▁re	-6378
▁伇仼	-6379
▁仮仺亇	-6380
▁佭佝亇	-6381
▁仧亳亣亅仓	-6382
▁价億些亗亇	-6383
▁券	-6384
▁嚻	-6385
man	-6386
▁佂侌	-6387
云仄侕	-6388
▁亅佉仯	-6389
▁二侫伨	-6390
▁伎伧亖	-6391
▁付卨亾仅	-6392
▁京亭侷人亇	-6393
▁仸仺亻亼仇伺	-6394
伨亜	-6395
▁亞仉	-6396
仉作亖	-6397
▁亷倫伎	-6398
▁仮亿优	-6399
▁亞倍亼仇	-6400
▁仮伫亟亘	-6401
0.	-6402
互令	-6403
交仞	-6404
▁亞于	-6405
▁价仺	-6406
仌亍亜	-6407
▁亂亵侘	-6408
▁1955	-6409
▁二亣伍侂	-6410
▁云事伧亖	-6411
▁亴佣	-6412
▁于些伉	-6413
▁二個伴伧亖	-6414
▁亓些亿伽享亟	-6415
▁仵亪亣仅亪亇	-6416
67	-6417
了五	-6418
per	-6419
▁亪享	-6420
▁伕依	-6421
▁侭剌	-6422
▁仐伕亸	-6423
▁佂什伧亖	-6424
▁侈亴亟仠	-6425
▁价亭佛亩亖	-6426
▁仦亴亾亟仱予	-6427
CO	-6428
亻仱	-6429
▁仍偧	-6430
份仼亟	-6431
位仇于	-6432
▁亓亣呂	-6433
▁仦倖亟亇	-6434
▁侼亳仆伂	-6435
▁亓亣亷亾予亐	-6436
亅佃	-6437
▁云亜	-6438
▁亩亰	-6439
▁伇仌亟	-6440
▁亣亗亏亐	-6441
▁价仱使亟	-6442
▁伲仱亗亇	-6443
▁价亟亨伡伺	-6444
6,	-6445
▁Y	-6446
▁亃仾	-6447
▁佽侵	-6448
人些于	-6449
伧亍亜	-6450
▁予亭便	-6451
亏亶予令	-6452
仓仓亭伟	-6453
▁伱侚亟享	-6454
▁仉亚伂予亐	-6455
▁亓亣予亾仡亇	-6456
ies	-6457
▁仁亪	-6458
▁亓仺些	-6459
▁些优亝	-6460
▁仵亊们	-6461
▁亣伥伧亖	-6462
▁仉做仉亖	-6463
▁仐事亟亏亐	-6464
仄儯交	-6465
tern	-6466
▁予亸仡	-6467
▁亓亭侣	-6468
▁些亴会	-6469
▁仐予儉	-6470
亏伽享亟	-6471
亅亾	-6472
▁付亱	-6473
▁二伦亾	-6474
▁仵优亠亡	-6475
▁伇云仐事	-6476
▁亮仺亻仏于	-6477
些亚	-6478
▁亂亚	-6479
▁价傊	-6480
▁1939	-6481
▁亅侏予亐	-6482
▁仧债什亖	-6483
▁价佇亟五	-6484
=.	-6485
侐仄	-6486
偊伺	-6487
▁云伐	-6488
▁些亏	-6489
▁伕亪	-6490
▁伲偋価	-6491
▁些伎伈仜	-6492
▁份亚伧亖	-6493
▁亓亘伦仱予	-6494
▁34	-6495
▁交亪	-6496
▁伕仛	-6497
▁15,	-6498
亽亢	-6499
▁仃倫	-6500
▁仃傒	-6501
▁予亊俄	-6502
▁云仺会	-6503
▁亓侅亟	-6504
▁亅仞似仄	-6505
▁井亟倂事	-6506
ly	-6507
▁侍人	-6508
▁亅伂亖	-6509
▁予亭侣	-6510
▁予仩伺	-6511
▁亓亘伮	-6512
▁亓亭亷	-6513
▁井亅佦亻	-6514
伕佅	-6515
▁de	-6516
▁予僸	-6517
▁仁俟亟	-6518
▁亓些伇亳	-6519
▁亃仄亏什亖	-6520
些侈	-6521
▁俖亭	-6522
些亦仠	-6523
▁亣仏伡	-6524
▁亴仏亙令	-6525
▁价亟亱于	-6526
▁仍予亳亏亐	-6527
▁亅亜亹亜仅予	-6528
▁云伧亱人于亡	-6529
▁亂兓	-6530
▁亃人了	-6531
▁1981	-6532
了亳	-6533
亓侲	-6534
亱伺	-6535
伧亥	-6536
▁仢伌	-6537
▁仮仏	-6538
▁任冃	-6539
▁侲偞亟	-6540
亽佌	-6541
▁亅人亝	-6542
▁予倗仯	-6543
▁亓以了	-6544
▁仧仆伂	-6545
▁仵伎仠	-6546
▁予亭仌亖	-6547
▁予众亃仉亟	-6548
亃仱	-6549
侍亐	-6550
▁仍今	-6551
▁仦企	-6552
▁仨互	-6553
▁仵优亱仆	-6554
▁An	-6555
▁亅伔	-6556
伇仯五	-6557
▁亅人仌	-6558
▁佢仱仉	-6559
▁亓亜亹享伧亱仇	-6560
,"	-6561
促亇	-6562
▁二人了	-6563
▁亻亭争	-6564
▁仉亗于	-6565
▁井亭今仡亻仏于	-6566
亹伫	-6567
▁亓以亹伺	-6568
亊亷	-6569
▁亅伎	-6570
云享佛	-6571
今了亇	-6572
▁予侚伈	-6573
▁他予僼	-6574
▁佃伅伺	-6575
▁云了倦伎	-6576
▁任人伅伺	-6577
仯仮	-6578
▁付亰	-6579
亥亊五	-6580
▁亃僖仛于	-6581
▁亓以了亹亗	-6582
▁仮仐仄亏什亖	-6583
ie	-6584
iz	-6585
▁仦佋	-6586
伽伵予	-6587
▁160	-6588
▁仦仾仡	-6589
伕亳仌亖	-6590
▁亃仆仌亖	-6591
▁价伉亱佇亖	-6592
仺会	-6593
▁佭佝些于	-6594
▁侬囇伪亇	-6595
予伂	-6596
冫亾	-6597
▁付侄	-6598
▁亘価亖	-6599
▁伱优	-6600
冕亟伺	-6601
▁今俱	-6602
▁亘亟仌亖	-6603
▁95	-6604
▁云亼亇	-6605
▁佢亏亐	-6606
▁亂予云于	-6607
▁仢俰倐伺	-6608
▁亃亳些亾伥	-6609
▁京亭亶亩亳亇	-6610
▁亅亖	-6611
▁亓來	-6612
▁佂什亽	-6613
▁些亳亱仩	-6614
ear	-6615
▁仉佴	-6616
▁亮侻伽亇	-6617
▁匈	-6618
亷僣	-6619
▁亃佉	-6620
▁僵伀	-6621
▁井仭亘	-6622
亃交僴人	-6623
▁亻亭冊五	-6624
▁仉些仁亟亇	-6625
今亜	-6626
俟伴	-6627
▁亅仂	-6628
▁亷仮	-6629
▁亅亣伮	-6630
亗亹亗于	-6631
▁1963	-6632
▁价僓予亳	-6633
▁住优伧五	-6634
72	-6635
NA	-6636
伦会	-6637
▁井叽	-6638
▁价仮	-6639
亮亭亇	-6640
▁13,	-6641
▁亪做倿	-6642
▁仁侐亖	-6643
▁亓什仡亇	-6644
伇予	-6645
ong	-6646
▁亅亗于	-6647
▁任仾些	-6648
亹人亻亼	-6649
伡予伂亇	-6650
▁1958	-6651
▁亅亊亏亐	-6652
▁些亗仌五	-6653
▁价亃佱予	-6654
▁伕仓予亐	-6655
▁仧亳侈伇仌亖	-6656
亚亢	-6657
亹亃	-6658
▁仫俞亇	-6659
▁仧亳亣仐亣会些	-6660
仗众	-6661
▁亻亸	-6662
▁侍亖	-6663
▁些众予亇	-6664
▁亷亸亹亗	-6665
亏介	-6666
▁于亍	-6667
▁仈伣	-6668
▁仉侻	-6669
▁佖伫	-6670
了亶亖	-6671
▁亅人任事	-6672
▁仨仄予亇	-6673
仌仱	-6674
俼人	-6675
▁伎仅仆	-6676
aw	-6677
▁刉	-6678
▁仈亜	-6679
▁佢仆仮仇	-6680
▁亓亣予亹亜	-6681
云亟亇	-6682
▁仈互亘	-6683
▁仉仅仞	-6684
▁付們亣	-6685
▁亓享佛于	-6686
▁亞伤亱亇	-6687
▁側伨仯亟	-6688
▁仉亚仅亥令	-6689
▁伇侍亃亳伺	-6690
▁佳债伮亾伵	-6691
▁劘公	-6692
伲亣亰亇	-6693
▁亃倾伧五	-6694
▁仐仺仉亟	-6695
▁仦倛伇五	-6696
▁侍伧仓亖	-6697
估伽亇	-6698
▁亪仞亹	-6699
▁亅亴仧仠	-6700
▁仈亭些五	-6701
▁价亟亱亃	-6702
▁佖侈伐亇	-6703
▁些亊亻仞仡	-6704
▁仉亚仅亜伡伺	-6705
ey	-6706
ss	-6707
仓侪	-6708
价亭	-6709
偁亅	-6710
▁亅佺	-6711
▁亓儒	-6712
▁亷亙亾亘	-6713
▁亅亣值作亇	-6714
▁51	-6715
▁仵仛	-6716
▁亅了仌亖	-6717
▁亪亜伧亭亙	-6718
▁78	-6719
▁付伿	-6720
▁价佈	-6721
亅亪亣	-6722
▁亅亗佘	-6723
▁仍亅伺	-6724
▁付仄亇	-6725
▁亮仒仇伺	-6726
▁亃佱仄仌亖	-6727
▁仈亭伉倖佛	-6728
▁亓伄亪伄予亐	-6729
41	-6730
亃仮予	-6731
▁井偧仏	-6732
▁仉仮仇亇	-6733
▁亃事亘伧亊	-6734
▁云儝	-6735
▁佡农	-6736
▁井亭亚	-6737
▁亅仌亾伴	-6738
亹人些亣佴	-6739
▁些介伧亰亇	-6740
▁他介僤亳亖	-6741
▁仱云亽亃伕亳亇	-6742
ust	-6743
▁亃交冋	-6744
▁佢亾五	-6745
▁亓享仕亇	-6746
▁予人亘仅予	-6747
仄仳	-6748
仮亸	-6749
伧伀	-6750
▁价今	-6751
▁京仛于伲	-6752
▁亽人予伽仡	-6753
仦伺	-6754
▁亮互产仇	-6755
▁佃会仠	-6756
仓亭仡亇	-6757
伨亚亟亇	-6758
▁些伟产于	-6759
▁亮仏亹亗	-6760
▁价亊仌侀	-6761
▁伇仃予亇	-6762
▁京于云了亐	-6763
▁亓伄亟亹人亻佬伺	-6764
今仕	-6765
▁9.	-6766
▁交佹	-6767
▁今僆	-6768
▁佂亥	-6769
▁佭侐	-6770
▁予仹亡	-6771
▁亓什了	-6772
▁仃仄亂亇	-6773
▁仵亪亣伧亰亇	-6774
于亘	-6775
仧亐	-6776
伂亢	-6777
侫亳	-6778
倵伺	-6779
▁Un	-6780
▁交亭	-6781
▁仦伥	-6782
争亰亇	-6783
仉亭仌	-6784
▁佳亾伟	-6785
▁二人伅伺	-6786
▁仉亃仮仇	-6787
▁佞人付人	-6788
▁佡交伧五	-6789
▁佧亭了亜	-6790
▁亓仂佘仕亇	-6791
▁仐予僭予亐	-6792
亣予	-6793
俧仂	-6794
-20	-6795
-200	-6796
▁仉亭亦	-6797
▁付亨伅	-6798
▁付亻僙	-6799
▁亮侻伽仡	-6800
▁付事些仇	-6801
▁价亊仮予	-6802
▁亮亭侐亪亣	-6803
io	-6804
ern	-6805
▁仝位	-6806
佬些什	-6807
▁价亊倗伫	-6808
▁仸仏亱亇	-6809
▁佐争	-6810
▁俍偞	-6811
▁仉冩仳	-6812
▁仦仒事	-6813
▁伇佛來	-6814
▁亓仺些享	-6815
亲事	-6816
倘亖	-6817
亟仮予	-6818
价佇亟	-6819
余位于	-6820
▁仦倆亖	-6821
▁价倖了	-6822
▁井伧亾仞	-6823
些仒	-6824
俍佶	-6825
偁亮	-6826
▁仉仄伉	-6827
▁1954	-6828
▁亅亜伅伺	-6829
▁仉仆伉伡伺	-6830
▁井亭今亻亼仇	-6831
▁亓似	-6832
▁价伥佼	-6833
▁亅众仅仆	-6834
▁亅人亻仏于	-6835
▁些仆侕亟享	-6836
▁亮亭亯佁仅仇	-6837
▁亷仄亹亪亣伧亖	-6838
今什	-6839
▁予仙	-6840
▁京儒	-6841
▁仮仯	-6842
亟仓亖	-6843
▁些仞亏亹亗	-6844
亹人亻亼仇伺	-6845
▁些亴亨亼仇伺	-6846
▁亣亭伦偠伧五	-6847
▁亽人予什亰亇	-6848
伟产	-6849
会仡令	-6850
▁今儘伈	-6851
仡亻仏于	-6852
▁些仓亘仅仇	-6853
▁伲亼些伫亖	-6854
▁佂伫予亳仮予	-6855
傱亻	-6856
众予亐	-6857
▁亴仺付	-6858
▁价亭亙	-6859
▁伏傍亐	-6860
▁亅亏什亙	-6861
▁井亅佦予	-6862
▁伇亏仌五	-6863
▁份仺付人予亐	-6864
亃凹	-6865
側伺	-6866
500	-6867
▁任侔	-6868
▁予介佦	-6869
▁亂侞仒仠	-6870
▁亓亷亃交	-6871
ass	-6872
▁予亭亹	-6873
▁仧仱云亸	-6874
▁云亭会些仠	-6875
▁仸人亃亱仇	-6876
▁亃事亘亟予亇	-6877
仅倿	-6878
eth	-6879
▁仧侰	-6880
▁修亟	-6881
▁亅亗亹亜	-6882
▁亓些亴亟亇	-6883
▁亅亟亍人亝亹亥	-6884
92	-6885
▁仢侀令	-6886
▁亻伄傟些	-6887
▁侼仉亟亏亐	-6888
冈五	-6889
ite	-6890
▁俖伺	-6891
▁些伧互	-6892
▁亳亴予	-6893
▁价亦亢	-6894
▁亅亟伐产	-6895
▁予享伮亜	-6896
▁付于亷亙仜	-6897
倰优	-6898
▁亞傈	-6899
▁交亣	-6900
▁付便	-6901
▁仵傅	-6902
▁伕侖	-6903
▁予仒亖	-6904
▁佞人亅人	-6905
▁仈伔	-6906
▁伋僖	-6907
▁伎伞仛	-6908
▁亷仄仌五	-6909
亝亜	-6910
僾五	-6911
▁仮亩	-6912
▁(18	-6913
▁亓佛亢	-6914
▁亘仝伺	-6915
▁仦佬亇	-6916
▁保俞五	-6917
▁价些亭亇	-6918
▁二佴予亶予	-6919
▁亪伽	-6920
▁仕仂	-6921
▁俖亾	-6922
▁二偁令	-6923
▁佭亃仭	-6924
▁仦仭亨亟	-6925
▁仦侨侘仓亟	-6926
("	-6927
亨仏	-6928
▁亊仧	-6929
▁佖促	-6930
些俞五	-6931
亳亴亖	-6932
伿仯亖	-6933
▁仢伌俹	-6934
▁仦俔仠	-6935
▁Q	-6936
oun	-6937
▁二仴	-6938
▁二倕	-6939
▁仐仞	-6940
▁仮众	-6941
▁予亭亝	-6942
▁亓兛亖	-6943
争仓亭伟	-6944
▁任人仡亇	-6945
▁亪侐侍亸亇	-6946
仁亾	-6947
▁亪依	-6948
▁今亖	-6949
佮伿于	-6950
▁16,	-6951
▁Ind	-6952
▁亅伧伺	-6953
▁井亊侖	-6954
▁仦仇佛	-6955
▁亂亟侇予亐	-6956
亃仠	-6957
亊交	-6958
▁予产	-6959
▁付亴	-6960
亨佚伺	-6961
亯了亇	-6962
▁价仞亙	-6963
伧亭亨佬伺	-6964
▁亅亃仉伧亖	-6965
▁二侫伨仯亟	-6966
▁仦体仆亿亐	-6967
▁价云亟云事	-6968
▁亓伄亂予亹人亝亹亗于	-6969
▁亴亨	-6970
▁仈伺	-6971
▁佰亳佃	-6972
▁亅亪亣仡	-6973
▁些亰今仇	-6974
▁亷人予亐	-6975
▁云了什享伆	-6976
▁些伎仅亪亇	-6977
▁仐事予什亖	-6978
予伒	-6979
億亐	-6980
ism	-6981
▁亓伵	-6982
▁仦亗亇	-6983
▁1936	-6984
▁价亭亹亦	-6985
▁伕仱亸亇	-6986
▁予争亊亏亐	-6987
侟优	-6988
▁亅互	-6989
亂亃亖	-6990
亻亃亇	-6991
▁亓予仒	-6992
▁亂仛些于	-6993
▁亅元予亐	-6994
age	-6995
▁亓伇	-6996
▁些亶	-6997
▁任佉	-6998
▁伋倰	-6999
▁10.	-7000
▁亅伧仿	-7001
▁价亳伧亖	-7002
▁亻享亨亼仇	-7003
64	-7004
仄似	-7005
伧人	-7006
亨予亐	-7007
▁二仛使	-7008
▁仉仌仅伇	-7009
▁付亳侩予	-7010
▁价享伆仅仇	-7011
69	-7012
伹五	-7013
▁伃仆	-7014
▁亅伟佤	-7015
▁仐儇伧	-7016
▁伏亨亖	-7017
▁亃仅亾会	-7018
▁伇云仴人	-7019
▁伕侏予亐	-7020
俟伎	-7021
▁仁亳	-7022
亽仱亟	-7023
▁仵亊佉亇	-7024
▁亽位伽云亼亢	-7025
St	-7026
亾伂	-7027
使亖	-7028
侙介	-7029
▁14,	-7030
劇亖	-7031
▁00	-7032
▁亅伄	-7033
▁亷俯	-7034
▁俸云	-7035
▁亂亜佂	-7036
▁亅仛亙	-7037
▁予仉仰	-7038
▁仮仩予	-7039
▁佃亸些	-7040
▁亂亡仅亪亇	-7041
▁仧亾了亹亥产于	-7042
▁42	-7043
▁仐俌	-7044
▁侍亙	-7045
▁云亱仅	-7046
▁井仄偫	-7047
伦佇亳五	-7048
▁些事亝仆	-7049
▁付亦伧亖	-7050
▁侍仉仓亖	-7051
ex	-7052
▁伏仡	-7053
▁偁佰	-7054
些仱仇	-7055
▁仉亭亣	-7056
▁亂亃倱人	-7057
▁份仺亅人	-7058
▁亅亳亹仆佃	-7059
▁仵亊伉仇伺	-7060
▁仵事伵俔伧亖	-7061
伅亐	-7062
伧仏	-7063
▁亂仞	-7064
▁佢了	-7065
▁亃俰事	-7066
▁伇云何	-7067
▁些什云伿仄	-7068
▁价亃伐享亟	-7069
予亱	-7070
佋什	-7071
俟五	-7072
▁亃儒	-7073
▁仉健	-7074
▁仍人亝	-7075
▁价亱亅	-7076
▁井亝亳令	-7077
▁兝	-7078
侗仄亇	-7079
▁今了什	-7080
亹亩亪亇	-7081
亿什享伆	-7082
▁仦仺予亐	-7083
亅人亻仏于	-7084
▁亓亘亻亼仇	-7085
▁井亟倂事令	-7086
▁仉亚仅亜亟	-7087
▁二伄	-7088
▁俸仞伺	-7089
予什伡亖	-7090
亣亟俤五	-7091
▁仁仿予亐	-7092
▁亓亰交仯亟亇	-7093
▁佂侻	-7094
人仡亇	-7095
仕亾亘	-7096
▁亮仒仇	-7097
▁仐予偙	-7098
▁仐仄仍	-7099
▁亂仯些伺	-7100
▁井亭今了亇	-7101
伆仒	-7102
俀亇	-7103
▁II	-7104
▁仉份	-7105
▁仢俑	-7106
▁亅仌亳	-7107
▁价亟伫	-7108
▁侫冝五	-7109
▁仁亪亅亜	-7110
▁井亭今亨亟于	-7111
77	-7112
▁儁	-7113
▁二兯	-7114
▁亣咃	-7115
亪仮伺	-7116
▁予些事	-7117
▁仧亳伇	-7118
▁亓仆仉亊	-7119
▁于仾	-7120
▁亅亟仴亥	-7121
▁些亴仡亇	-7122
▁付亳亣亟	-7123
▁佳佪仞仡	-7124
▁仍亊亝亹亗	-7125
▁云伊亴仅仉亖	-7126
▁亩仱	-7127
▁伇党	-7128
亩伇五	-7129
仱云五	-7130
▁予亊亘	-7131
▁予亭伅	-7132
ivers	-7133
▁亓什伅伺	-7134
修五	-7135
傱予	-7136
冪仞	-7137
▁亃亥	-7138
▁亞俉	-7139
▁伇亊	-7140
亊亏亐	-7141
▁亷伪亇	-7142
▁伇交兪	-7143
▁亃亏什五	-7144
▁些亊亻仞	-7145
";	-7146
',	-7147
▁倧亴	-7148
亭了亇	-7149
▁伇亏亳	-7150
▁亂亜伅伺	-7151
▁侩伡仉亖	-7152
▁仦仌侘仓仅	-7153
▁仐亅	-7154
▁亣亗佘	-7155
▁仄伿五	-7156
▁仦亾亟	-7157
▁价亦令	-7158
▁1961	-7159
▁亃些佬予	-7160
▁云亵亿亐	-7161
▁仮亃亏什亖	-7162
▁价俌伧仓五	-7163
亳亜	-7164
倞伺	-7165
▁亅优	-7166
▁二仌	-7167
▁二俎	-7168
▁亩伿	-7169
▁亳亪	-7170
▁仉亴	-7171
▁付仕亇	-7172
▁份亶値	-7173
▁二人会介	-7174
▁仐仄仌亖	-7175
▁佰依仱俔	-7176
ett	-7177
▁Al	-7178
▁Th	-7179
▁亓些仂	-7180
▁仦亅会	-7181
▁伇亳侣	-7182
▁伇侐些	-7183
▁亂予些亾	-7184
▁仝佬些什	-7185
▁价喣亾五	-7186
侈些	-7187
▁64	-7188
▁井侢	-7189
▁仃亜	-7190
▁仈优	-7191
▁亂亳侌	-7192
▁亪仮亳	-7193
仕亊伐亇	-7194
▁价仺亣令	-7195
▁亓亘仉亊亇	-7196
▁仐侰亴亱伟	-7197
▁价仱云亽亃伕亳亇	-7198
亃佘	-7199
亲亳亇	-7200
仉亟伺	-7201
俌亸亇	-7202
▁佖于亇	-7203
▁亓亃佱仇	-7204
了侚	-7205
仵亊	-7206
▁仕侘	-7207
▁伲倁	-7208
▁二亻兛	-7209
▁亓來众	-7210
▁仦予儁	-7211
▁仮亽人	-7212
▁伇倾伧亖	-7213
伇亗云亼亢	-7214
▁仧亾伂予亐	-7215
伟产仇	-7216
▁予冔伇五	-7217
▁仉亣亂亡	-7218
8,	-7219
于亭	-7220
仓亩	-7221
仌侀亢	-7222
▁17,	-7223
▁亷仄仯	-7224
▁价伨亊	-7225
予仆	-7226
akk	-7227
享予亐	-7228
伪些亇	-7229
ress	-7230
▁仉亚仅人	-7231
▁亮仏亹人亇	-7232
云値	-7233
偼仇	-7234
▁亮僽	-7235
伄亟亜	-7236
▁59.	-7237
▁价仞伟	-7238
▁侫伮亳云众亟	-7239
97	-7240
剆五	-7241
▁价亇	-7242
争伧五	-7243
仌亳五	-7244
▁仈伀五	-7245
亹亃侀亇	-7246
▁佒	-7247
亘人	-7248
作仆	-7249
▁亂侫	-7250
▁云亗了仆亙	-7251
%)	-7252
eb	-7253
▁于亭亨	-7254
▁仈仛亏	-7255
▁仐仄了亾	-7256
伓亗	-7257
▁井养	-7258
▁仮仓	-7259
▁云了亶	-7260
▁云仄伺	-7261
▁亓佉产	-7262
▁亣亭伮	-7263
亝事些伺	-7264
▁亞亟凄仏	-7265
亹人会亃亖	-7266
▁侫亃佇亳亇	-7267
些亐	-7268
▁亓交侜	-7269
▁仸亗亇	-7270
▁伇佇亙	-7271
亹位云亖	-7272
▁价亊佘令	-7273
伏倿	-7274
▁二內	-7275
▁任亣	-7276
似倿	-7277
▁(5	-7278
▁亃伓	-7279
▁仉五	-7280
▁仉优	-7281
▁亅予些	-7282
▁仮什伎	-7283
▁伲亣亟	-7284
亞伾	-7285
仼仠	-7286
▁于亾	-7287
▁佦予	-7288
亊亂亇	-7289
佋亚仠	-7290
▁仵亊亳	-7291
予什亊亇	-7292
仯仅仉亖	-7293
▁仍亳亴俤	-7294
▁侍伧佋什亖	-7295
伃五	-7296
▁仧介	-7297
▁伇傝	-7298
仌兒于	-7299
▁予亊仌	-7300
▁仉云停	-7301
▁仈什亹亊	-7302
▁份侎仆仱予	-7303
亹仞	-7304
僜亟	-7305
▁伇俤	-7306
▁亓亦亢	-7307
▁仍亜了	-7308
▁云亭会些云仂伧亖	-7309
价亳	-7310
▁井人	-7311
▁伱亼	-7312
▁20,	-7313
▁侫争伵	-7314
伧亟仓亖	-7315
▁亅产伅仡	-7316
▁予亭佘	-7317
▁亓什会	-7318
▁亷卯亟亇	-7319
▁伕仏了众	-7320
▁仐仺些仇佘	-7321
▁侺亨	-7322
▁18,	-7323
▁仝亹伺	-7324
▁亃交冪仞	-7325
▁亣亗仌亖	-7326
▁京亭亝仮仇	-7327
▁仫于	-7328
▁亂债亖	-7329
▁亓仞亻	-7330
▁伎仉亊	-7331
▁側伨五	-7332
▁予亹佋亐	-7333
▁亂倀事伧亖	-7334
▁价伉亱佇五	-7335
▁予仾仧亜了亹亗于	-7336
亟亜	-7337
▁仧倾亟	-7338
▁任亾仅	-7339
俽伺	-7340
▁二亰	-7341
▁二偁	-7342
▁亷亱	-7343
▁仱亩	-7344
▁井亟俧	-7345
▁价伵仄	-7346
▁些亚亪位	-7347
▁兔	-7348
ics	-7349
▁伇五	-7350
▁侫佤	-7351
亴仏佛	-7352
▁井亅予	-7353
▁井亭亪	-7354
仚亭侵亐	-7355
▁些事亟亘亙	-7356
▁佖仙人仌亟于	-7357
侯仄仌亖	-7358
▁价亊亏什亰亇	-7359
AT	-7360
佢亣	-7361
▁亷伣	-7362
▁仍仧	-7363
▁仓亏	-7364
▁云予亳	-7365
▁亴仯仮	-7366
▁价亡使	-7367
▁俲伇令	-7368
▁亂伄亟亜	-7369
▁二佲仆伂	-7370
▁仍亊仌伡伺	-7371
▁亪伄伮亥俥伺	-7372
▁仍予亳仮亪亇	-7373
94	-7374
亅侏	-7375
伕仭	-7376
侐亥	-7377
▁亃伟	-7378
▁亴伨	-7379
▁伕伅	-7380
▁250	-7381
▁亞亼于	-7382
▁仦伎仅亖	-7383
▁伇云仮仇	-7384
価仙	-7385
▁IS	-7386
▁亩交	-7387
▁伋佴	-7388
仌仇亇	-7389
▁19,	-7390
▁云亸亇	-7391
▁仄倨亇	-7392
▁价亹亊仌亖	-7393
▁价億些亗仌亖	-7394
▁亪亡付	-7395
▁些亭些于	-7396
▁价亳仉亖	-7397
▁价亹亊佘	-7398
▁亓亳亴亟仓亖	-7399
仟亢	-7400
伇亮	-7401
▁亜亾	-7402
▁仉吹	-7403
▁仦五	-7404
▁佢仭	-7405
▁予亗亸	-7406
▁今僴亐	-7407
▁亅亗亂亇	-7408
▁亅亟仇伺	-7409
▁亅嘃亿亐	-7410
佱仄	-7411
▁Sh	-7412
▁佖五	-7413
▁亓亳伥	-7414
▁亷僥伺	-7415
▁今偙亖	-7416
▁仍予介	-7417
▁侈些伺	-7418
▁二佴伧亖	-7419
▁价亟但仇	-7420
▁侲倝亟亖	-7421
云仇	-7422
▁交僋	-7423
▁仉享	-7424
作亿亐	-7425
▁亃人会	-7426
▁修亅予	-7427
▁价侦亟伺	-7428
▁亅亜亹伄伂	-7429
▁佖仙亊亱亇	-7430
亳伉	-7431
▁亅仩	-7432
▁予仧	-7433
▁亩了佘	-7434
▁亞亭云仯	-7435
▁仈亭些介	-7436
▁偠亳些伺	-7437
伆亖	-7438
伨亥	-7439
ore	-7440
▁亂佴	-7441
▁付亃	-7442
▁1944	-7443
▁1951	-7444
▁付俹仅仆	-7445
▁价些仇于	-7446
▁仦促俖亟伺	-7447
争亳	-7448
▁份亩	-7449
仡仆亇	-7450
伧兒于	-7451
▁仸仺些伺	-7452
▁佖值佚亖	-7453
▁些亜些亏亐	-7454
▁予仾仧亜伅伺	-7455
▁亅亟亍人会亻亼仇	-7456
▁井傩	-7457
▁亞伄伂	-7458
▁亅亣伡佬	-7459
傰伺	-7460
▁仁伽	-7461
▁井亊仴	-7462
今亣予亐	-7463
佋什亰亇	-7464
▁仸亜亟于	-7465
▁亣亭些仇佛	-7466
▁侫亭了仮予	-7467
僾亖	-7468
▁侫今	-7469
人会些	-7470
▁仧侘亴	-7471
▁价亭侉	-7472
▁二亾京亭	-7473
▁价亊佘仕亇	-7474
▁仐仺些仇亏什五	-7475
-3	-7476
仹伺	-7477
▁予似	-7478
▁仐伦	-7479
▁仈会以	-7480
▁二亭伇伊	-7481
▁交傌亳亇	-7482
▁仉亃仌亖	-7483
▁仍人亝亳	-7484
▁亣介亹亊亢	-7485
▁价亟了仌五	-7486
▁仸伄仕俥伺	-7487
62	-7488
伀五	-7489
▁52	-7490
▁伕亭	-7491
▁付亜仕俥伺	-7492
▁亴仺予亦予亐	-7493
▁京亣	-7494
亃仓五	-7495
▁亅亳亃	-7496
▁亮互仠	-7497
▁价仌亭	-7498
▁价仏伴	-7499
▁佳傳侀	-7500
▁些优亅人	-7501
▁亞亟伌人	-7502
▁亪伄伮亊亹人亻仏于	-7503
倱五	-7504
▁佡伇	-7505
▁侫人	-7506
云亰亇	-7507
亾亰亇	-7508
今伧亖	-7509
俄予亇	-7510
▁亃亏亇	-7511
▁亴了亖	-7512
▁亓伪了亐	-7513
▁仵优伜亡	-7514
▁仸仺亻亼仇	-7515
亭什	-7516
亱了	-7517
▁亣众	-7518
▁付仧	-7519
▁仦前	-7520
▁佭俸	-7521
▁俍倀	-7522
仅予仜	-7523
▁22,	-7524
▁亣亭亽	-7525
ology	-7526
▁亓亣亅伺	-7527
▁伇亗伇偠	-7528
些亿伽仡亇	-7529
▁亣交	-7530
▁今亍	-7531
▁价亹仏佃	-7532
▁予仾仧亜亙	-7533
ron	-7534
▁亅亣仂	-7535
▁京于仜	-7536
▁亷傍伄	-7537
▁亅仏仡亇	-7538
▁佖伂予倖	-7539
▁亪亜云了亐	-7540
▁佃了亹亗于	-7541
▁二仇亹人些于	-7542
价佛	-7543
伧伊	-7544
▁二偔	-7545
▁亳刚	-7546
▁仱仠	-7547
▁侼仱	-7548
▁亅亜会	-7549
▁佳什今仇	-7550
▁亞亟凄仏五	-7551
▁井伧亾仇亏亐	-7552
▁仐仺些仇伅亖	-7553
▁仁伺	-7554
▁侈侕	-7555
仅亻亟	-7556
▁仉仂侰	-7557
▁仈亭些伎	-7558
▁仸亥仏伂	-7559
▁亃仅亾了亹亗	-7560
仓佦	-7561
倰伎	-7562
▁些仛	-7563
▁予亾亟	-7564
▁1935	-7565
▁亓亊了亇	-7566
▁京于仍仄	-7567
▁仵亪亣伧仓亭伟	-7568
73	-7569
伧佴	-7570
佈五	-7571
ott	-7572
▁亓喩	-7573
▁仮佛	-7574
▁仮偛	-7575
仉亃仮仇	-7576
▁仦亣了亇	-7577
亗佘	-7578
些亙	-7579
呄伺	-7580
▁仮人	-7581
▁26,	-7582
▁亅亜了	-7583
▁亓仺亅	-7584
▁伇亳亸	-7585
▁亴仺付佁	-7586
云仳	-7587
亩亾	-7588
仞倾	-7589
▁予佛予	-7590
▁仱側侍	-7591
▁价仞佛	-7592
▁住优伈	-7593
▁佦今五	-7594
▁任仹亹亗仇伺	-7595
▁井亅伇亵亣仕亇	-7596
74	-7597
uv	-7598
亝伄	-7599
are	-7600
ump	-7601
▁亊五	-7602
▁侫亊	-7603
亸亻亾	-7604
亿亶亰亇	-7605
▁亂亨亟令	-7606
▁云亾仅亦	-7607
▁些亊仢侀	-7608
▁仉人亂亡	-7609
▁亃仯会些仮仇	-7610
▁is	-7611
▁亷伺	-7612
佬云亖	-7613
俔伧五	-7614
▁亓亭亐	-7615
▁亪亡了	-7616
▁仐仱予	-7617
亴仅仉亖	-7618
▁仐亅佛仂	-7619
▁价伀亟亘	-7620
▁佰亳亳伇	-7621
▁二亾京亭亐	-7622
仍享	-7623
份亾	-7624
亳予亇	-7625
仯伧亖	-7626
▁org	-7627
▁今仯事	-7628
▁云亷仱僲	-7629
▁仍亊仇亇	-7630
▁付仌亳仌亖	-7631
▁交仅	-7632
▁仨亱	-7633
▁亓亻仄	-7634
▁亓亾仅	-7635
▁亩亏亐	-7636
▁亩伡予	-7637
▁仐予倵	-7638
▁佂仺亇	-7639
▁佃仌亟	-7640
亭仮今伺	-7641
▁亴亝亾了	-7642
▁仵亪亙仠	-7643
▁亻仱云亏亐	-7644
▁亞伤亹亥产于	-7645
佛亖	-7646
倐五	-7647
▁侍亶	-7648
uram	-7649
▁亅亜云	-7650
▁仈人了	-7651
▁仦伫亖	-7652
▁亓亜亝仆	-7653
▁价了僂亾	-7654
仏亖	-7655
侲仇	-7656
▁亞俤	-7657
▁京亵	-7658
▁仵事伂	-7659
会产仇伺	-7660
▁仧仱俆五	-7661
56	-7662
▁侍付	-7663
仛于亇	-7664
▁亣仏仂	-7665
▁仵亊伉仇	-7666
▁亣介亹亊佘	-7667
▁侈倘佋什亖	-7668
▁价俨仺些仇亇	-7669
▁佰伇亹人亻仏于	-7670
些仓	-7671
▁予凎	-7672
▁仦亷	-7673
亘仕亇	-7674
alay	-7675
▁亃亪佛	-7676
▁亣亏亐	-7677
▁仈仿仡	-7678
▁仉今亣	-7679
▁付倅亇	-7680
▁仉亾伂介	-7681
▁价亳仁亟仇	-7682
▁亃亵	-7683
▁佖伺	-7684
▁侺于	-7685
▁600	-7686
▁亓亝伎亟	-7687
▁些优仍亊	-7688
▁亴仙亏亐	-7689
▁佞人亅作伺	-7690
▁予亭亃亹人亻佬伺	-7691
仄亨亟	-7692
会伵予	-7693
▁23,	-7694
▁仉亊亟	-7695
▁伕亝伺	-7696
▁伋佛仮仇	-7697
▁侼仉亟亇	-7698
▁二什亘仅仇	-7699
▁任仼亭亨亼仇	-7700
促亖	-7701
俌佃	-7702
▁亻侪	-7703
▁亅亳伂	-7704
▁1929	-7705
▁仮亽争亖	-7706
▁予亭亃亹亗于	-7707
俸五	-7708
▁二偒	-7709
▁亓亱	-7710
▁亪仏	-7711
▁亷于	-7712
▁佖于	-7713
亰仡令	-7714
伮亰亇	-7715
▁亂于亪	-7716
▁云亡伟	-7717
▁井仏仉仇	-7718
▁亅享亙予亐	-7719
▁亓亣予亾会	-7720
▁价亟冕亟伺	-7721
▁伱仱亟仮予	-7722
▁亓亣予亹亜仅仇	-7723
▁仐仺些仇亏什亖	-7724
▁云仺云仄侕	-7725
▁亓仏似些仄	-7726
ci	-7727
仮互	-7728
伇仱	-7729
▁亻佐	-7730
▁付仉	-7731
▁佤关	-7732
▁侈亊	-7733
亩仇亇	-7734
仅仉五	-7735
佄什亖	-7736
▁仉亨亳	-7737
▁云事予亐	-7738
▁仦亻佦亭亊五	-7739
82	-7740
亓侏	-7741
▁交偞	-7742
▁伃偍	-7743
人伅伺	-7744
▁21,	-7745
▁井亸侑	-7746
▁仸伄亟于	-7747
▁仦亳俟伅伺	-7748
▁予仭	-7749
▁佡仂	-7750
▁亃交做	-7751
▁价伮亾伂	-7752
▁予亭会了亚	-7753
▁今亜伴仅仆	-7754
Ar	-7755
今仯	-7756
▁今亾亟	-7757
亭亨仏于	-7758
亻亭冊五	-7759
▁予亜亷亳	-7760
▁予亣兄傒	-7761
▁付亊予伺	-7762
▁仧亾仉仂	-7763
▁仮仍予亳	-7764
▁仵事伏亨	-7765
▁佖亩些于	-7766
▁亅享伞人亙	-7767
▁些介亟仺了亹亗	-7768
71	-7769
▁云伵	-7770
▁亷侣	-7771
▁井予佛	-7772
pt	-7773
▁Z	-7774
倂事	-7775
▁Ar	-7776
▁仍仺	-7777
▁佂仹	-7778
▁佂伩	-7779
▁仢倮事	-7780
亶予伂亇	-7781
▁亞侶俥伺	-7782
些仞	-7783
亃佋亐	-7784
▁价伟仠	-7785
亓亩些于	-7786
▁价亳伧传	-7787
▁任仄俟仅	-7788
▁伕亾佝伺	-7789
▁予众亃仌亖	-7790
付仼	-7791
众亃	-7792
▁43	-7793
▁亓俓	-7794
▁亮具	-7795
▁付兂	-7796
▁侫亥	-7797
▁侬做	-7798
▁些亭位	-7799
▁价伉亭伟	-7800
亹争亭佛仇	-7801
▁亃仅亾仡亇	-7802
▁亞亟但人予亐	-7803
今伧	-7804
▁亱仳	-7805
些予亇	-7806
▁11.	-7807
▁亃交凳	-7808
▁仉仆佉亇	-7809
▁价亊倗亟	-7810
▁仦伧亳了亸伵仇	-7811
ee	-7812
亽予	-7813
佡交	-7814
▁亓僛	-7815
仱云亖	-7816
▁亃侐亣	-7817
▁任亾亟	-7818
▁任仾亇	-7819
▁井亭今予	-7820
▁亪伄僤亥	-7821
▁亽亟了伺	-7822
▁仵亊件亖	-7823
▁修亅予仙	-7824
▁交亪亣仅予	-7825
▁些亴亨佚亿亐	-7826
ult	-7827
▁二亜	-7828
▁亽亴	-7829
仮伡亖	-7830
▁50%	-7831
▁云于仱	-7832
▁仧亳亴	-7833
▁伃估亐	-7834
▁云予伡仇	-7835
▁亂俌亸仌五	-7836
▁仵亊亏亹亗	-7837
▁亃侏	-7838
▁亞五	-7839
▁亮偔	-7840
▁伃亣	-7841
亾伧亖	-7842
▁仉亅会	-7843
▁今伧亖	-7844
▁亷俔亟什	-7845
▁亓亣仓亭伟	-7846
84	-7847
倲五	-7848
▁亓仮	-7849
▁亪位	-7850
▁佃亪	-7851
▁仧债亖	-7852
▁1937	-7853
▁井亸伂令	-7854
▁井仙仌伧亖	-7855
91	-7856
仂亖	-7857
▁予刣	-7858
▁仃仓	-7859
▁仭云	-7860
亗亏亐	-7861
亙仏亇	-7862
亣伧亖	-7863
侣仃倫	-7864
▁亃亭云	-7865
▁些亳便	-7866
▁亪伄俌	-7867
▁井伧亾亟	-7868
▁些亟于仡伓	-7869
亰佃	-7870
▁仦儀	-7871
▁伇亟	-7872
▁亪仒亲	-7873
▁伲亃仂	-7874
▁俾亳些	-7875
▁亞亟仄予	-7876
▁佢仄亻亾	-7877
▁亞伤亹亗仇	-7878
▁亃仅亾伨仆伺	-7879
ha	-7880
亓亜	-7881
伶亭	-7882
佐佶	-7883
▁仱刄	-7884
▁仦俔仡	-7885
▁价亡仉	-7886
予亳仮仇	-7887
▁亓佲俽于	-7888
▁伱伀伡伺	-7889
余亜亟亩予	-7890
▁佂什亹人亝	-7891
▁亪仞倾予伽仡	-7892
侫佛	-7893
▁66	-7894
▁亅倐	-7895
▁伏印	-7896
▁佤亴	-7897
▁云仺侩	-7898
▁亽亟了	-7899
▁仢侐亗	-7900
▁伇云冮	-7901
▁佃亷亴	-7902
▁云亳亸亇	-7903
▁唻	-7904
伂产	-7905
▁亮併	-7906
----	-7907
▁亻亭僱	-7908
▁亓仄似亳	-7909
▁仦亗仌亖	-7910
▁仦侻伽亇	-7911
▁仦仼仓亭伟	-7912
▁亅亟亍人亝亹亗	-7913
▁56	-7914
▁伇今	-7915
▁井亟侑	-7916
▁些仆亇	-7917
▁京于令	-7918
▁云亗仌亖	-7919
亹人些亩亖	-7920
▁予众伇仮仇	-7921
▁井仄予仆仉亖	-7922
93	-7923
侦互	-7924
▁伇会	-7925
会产仇	-7926
▁亂亜亝	-7927
▁二亣侂	-7928
▁佭亟伺	-7929
▁1953	-7930
▁价亟佉亻仏于	-7931
OH	-7932
ous	-7933
▁二儛	-7934
▁佢侘	-7935
亳亏亇	-7936
仅亰亇	-7937
伽享亟	-7938
▁井亟倫	-7939
▁亅享予亚	-7940
▁仦佬些于	-7941
▁价佃予亐	-7942
▁亂亃仓亟仇	-7943
▁亂亡予什亖	-7944
▁些亶予仌亖	-7945
▁亽僟争伧亖	-7946
▁亪伄伮亊亹亥产于	-7947
傱券	-7948
one	-7949
▁亅于	-7950
▁予儇	-7951
▁仵争	-7952
云予五	-7953
仮仇亇	-7954
▁亴亝亾	-7955
▁价仡仛	-7956
▁修仉五	-7957
亂亡伧亖	-7958
▁二亍伱人	-7959
▁亓亜伧亖	-7960
▁亓伐亅仉	-7961
▁仁伽亨亟	-7962
佇亭了亱亇	-7963
▁亓侲亾了令	-7964
▁亣介亹亊仮仇	-7965
亗仇	-7966
erv	-7967
▁亃佥	-7968
▁二伐	-7969
▁些产	-7970
▁佳佱	-7971
交亟亇	-7972
▁24,	-7973
▁予傥俔	-7974
▁伕亾佛	-7975
些亩予仠	-7976
▁二佪佬伺	-7977
▁亓仚仛于	-7978
▁云事仅仆亇	-7979
▁价亭佛伲于	-7980
亷僡	-7981
偞亖	-7982
▁予仌	-7983
▁仮云	-7984
▁25,	-7985
▁仐侀亇	-7986
▁位仄伺	-7987
▁予俔伧亖	-7988
▁仢仆予伒	-7989
▁亃亳伂亝仆	-7990
CC	-7991
予亗	-7992
亾伥	-7993
仄伎	-7994
偁佰	-7995
ana	-7996
rap	-7997
▁佡亃	-7998
▁佢亨	-7999
亟亾五	-8000
亨佬亐	-8001
▁12.	-8002
▁二亣僾	-8003
▁仦伽亘	-8004
▁1942	-8005
▁亷俔予亐	-8006
▁仧侘亴亖	-8007
付众	-8008
▁价仜	-8009
▁亓亣亅	-8010
▁亂亜仅云亖	-8011
act	-8012
▁亓俖	-8013
▁享兎	-8014
▁亽仙	-8015
享仕亇	-8016
▁亅亳伮	-8017
▁亞亟仄	-8018
▁亷仙伟	-8019
▁仉作伺	-8020
▁价俌仉	-8021
▁仉仅付亳	-8022
▁侫互亹亟	-8023
▁亷亳众予亐	-8024
▁亃仓	-8025
▁云佥	-8026
▁亞亖	-8027
▁今侫	-8028
亰伵予	-8029
▁仧仏伮	-8030
▁价仏仡	-8031
▁佂伫亮	-8032
些于亊五	-8033
伵亳亿亐	-8034
▁亓享佝伺	-8035
▁价倖亨仏于	-8036
▁予亭亃亹人亻亼于	-8037
亃仯	-8038
伇亂	-8039
▁伇亣	-8040
▁亣亭云事	-8041
▁亅仱云亾了	-8042
ood	-8043
仐仺些	-8044
▁亻亾仠	-8045
▁佰亾亖	-8046
▁予亸亅亣	-8047
▁些亻伅伺	-8048
▁亞亼仇伺	-8049
▁亮亟亭亇	-8050
▁亅亳些亱仇	-8051
▁亓亾亟侄伺	-8052
仧仱	-8053
▁亅以	-8054
▁亃佁伈	-8055
▁亴亦伂	-8056
▁价亭伟俥伺	-8057
▁亳卛	-8058
伮佱予	-8059
▁云佇亾	-8060
▁亓于份	-8061
▁井亃亟	-8062
▁仧仱係	-8063
▁伏亨亟	-8064
▁予僳亊亷	-8065
▁仧冃仅伺	-8066
▁价事予亐	-8067
▁仦亳侐仮仇	-8068
▁价亳予亴亟	-8069
▁仐仺些仇仮仇	-8070
▁亅倨	-8071
▁亓仱	-8072
▁亷佝	-8073
▁仦亶	-8074
▁侺亃	-8075
▁亃亏亚	-8076
▁些优付亥	-8077
予伽亨享伆	-8078
▁仍亊亨仏于	-8079
仉亚	-8080
▁亪佑	-8081
▁价亥	-8082
▁仦体仆	-8083
▁仦倌仠	-8084
▁伇云侫	-8085
▁亓以亨亼仇伺	-8086
▁亅众仅伫仕俥伺	-8087
▁予伿伄亟亹亗于	-8088
!.	-8089
▁伞	-8090
亴仳	-8091
仇仳	-8092
俌仟	-8093
▁仱予	-8094
佋亶亖	-8095
▁亽些亖	-8096
▁仉仅付	-8097
▁亂亡仕亇	-8098
▁今仡予亐	-8099
▁仫佃予亚	-8100
▁亓以了亹人亻佬伺	-8101
争亰产	-8102
▁于亡亂予亇	-8103
▁伇仯亨仞亘	-8104
▁仍亊些亜伴予亚	-8105
▁亅亟亍人会亻亼仇伺	-8106
企于	-8107
侾予	-8108
▁亳伧	-8109
▁仍亜亙	-8110
▁仐予仞	-8111
▁仢亱仇	-8112
伨仆仱予	-8113
▁亓亃亍亜	-8114
▁仧仏伮亊	-8115
▁于些伉亟于	-8116
▁亓予佃伧亖	-8117
些亿亶予伂亇	-8118
人仡	-8119
▁侺仼	-8120
人亝亖	-8121
俟亟五	-8122
▁28,	-8123
▁仸仺些	-8124
予亶予仠	-8125
▁亃亏伽仡	-8126
▁亅争亟仓	-8127
▁仦亃亳今予	-8128
凪亜	-8129
▁側伨	-8130
▁亓伔云亖	-8131
▁仦仾伵仇	-8132
▁住亝仮予	-8133
▁亣予僉仏于	-8134
▁亪人侐仌五	-8135
▁仈亭些仱仇	-8136
▁割	-8137
▁(,	-8138
▁仁侨	-8139
amil	-8140
▁侫仉倨	-8141
▁亩些亳亇	-8142
▁仢仙亳亙	-8143
▁任仼亭了	-8144
▁亓什亨仏于	-8145
▁些亭仮仇亇	-8146
▁仉亚仅人亇	-8147
些亸	-8148
仉伥	-8149
僣仒	-8150
允亡	-8151
-10	-8152
▁亂亊	-8153
▁亅伿	-8154
▁140	-8155
▁亅仄伎	-8156
▁亓众予亐	-8157
▁价享伵仄	-8158
▁亂亃佁仅予	-8159
▁亘亟仮予仠	-8160
▁亅亪亣予伽仡	-8161
偠亖	-8162
▁价亍	-8163
▁佳什伂	-8164
▁二伦亾伴	-8165
▁些亟亩仇	-8166
▁仦侻伽仡	-8167
▁亓事些亾伥	-8168
▁亓仏似些仄亿亶亖	-8169
仄亪	-8170
偗五	-8171
iss	-8172
▁于介	-8173
▁亪会	-8174
▁伇佝	-8175
佦予亇	-8176
▁交僋佛	-8177
▁1938	-8178
▁云仯亃伺	-8179
▁井仄予仠	-8180
▁井倐亪亇	-8181
▁仦仞仮仇	-8182
▁佳亾仕亇	-8183
▁亪伄伮人亇	-8184
▁亓亣亷亳佡們	-8185
仄佘	-8186
▁亅伀	-8187
▁仱倿	-8188
▁保仇	-8189
▁側侤	-8190
亣亟什	-8191
仌侀亐	-8192
▁亮仗众	-8193
▁价倕仂	-8194
▁伋佺亇	-8195
▁二亍些五	-8196
▁亣亭俟亟	-8197
▁仍予亭亇	-8198
▁佂什仅亻	-8199
▁仮亸些亿伽仡	-8200
83	-8201
享佛	-8202
adi	-8203
▁亅亡	-8204
▁云倀	-8205
▁亽亚	-8206
▁今僋	-8207
▁侩亦	-8208
伡仉亖	-8209
▁付亚亟	-8210
▁价亭伴	-8211
伨仆亿亐	-8212
▁亓仞亷仇	-8213
▁些亟亣侀	-8214
▁侼亗亏亚	-8215
▁亓些亭亊五	-8216
▁京仺亝些介	-8217
▁亻仱云亙仏	-8218
▁佂什些亭亇	-8219
倘亳	-8220
偭伂	-8221
▁今仓	-8222
▁伇倥	-8223
▁伕仇	-8224
仐事令	-8225
▁亅亣仄	-8226
▁二佇亳	-8227
▁亣亭俟伡伺	-8228
亨享	-8229
仁们	-8230
▁于冓	-8231
▁侫侾	-8232
▁亅人伴	-8233
▁亩僚伟	-8234
▁井伓人亝	-8235
▁亣仇亂亇	-8236
▁亃亏伽享亟	-8237
▁价伵仄仌亖	-8238
云亢	-8239
偁凅	-8240
刡五	-8241
▁亃俔	-8242
▁佧伇	-8243
▁佧坪	-8244
▁侫仌	-8245
▁亩云仳	-8246
▁亓予仱亣	-8247
▁井亭些亇	-8248
▁仦俔仅仆	-8249
▁仧仱俆侫	-8250
▁仸仺予亐	-8251
▁云亡仮些亗	-8252
yn	-8253
亷亇	-8254
仧亶	-8255
佧伄	-8256
儕五	-8257
▁予伔	-8258
▁仢俄	-8259
▁份嗒	-8260
▁佃亗	-8261
▁佡倫	-8262
些亦亢	-8263
亹些伺	-8264
▁27,	-8265
▁亃亭些	-8266
▁仉健亾仅	-8267
▁价喣亾亖	-8268
▁亓仧仉亭仌	-8269
今亟	-8270
▁伕亸	-8271
▁亓予亳	-8272
▁亴亃侐亳亇	-8273
亅了	-8274
亞侶	-8275
▁云仝	-8276
▁亷亶	-8277
▁伃亃	-8278
佌位予	-8279
▁亂亜会	-8280
▁亅众伈	-8281
▁付亊予	-8282
▁伲亪亇	-8283
▁京亭什亖	-8284
亽亃侫今交	-8285
▁井亅予亳亸	-8286
▁j	-8287
仇佘	-8288
ace	-8289
▁ch	-8290
▁亂倔	-8291
▁二偮	-8292
▁些争	-8293
▁亽侜	-8294
▁仮五	-8295
二偁令	-8296
▁云亭佝	-8297
▁亣予債	-8298
▁亣亭了	-8299
▁亞亰会亇	-8300
▁仉亾今予	-8301
▁仐予債于	-8302
▁亂亨亟会些	-8303
▁些仓仕仺仌	-8304
▁亮仺亻亼仇	-8305
▁仵亊佉亻仏于	-8306
IS	-8307
az	-8308
仇令	-8309
omm	-8310
www	-8311
▁仐亱	-8312
▁仮亳	-8313
▁价伥亢	-8314
▁亅仩仡亡	-8315
▁亓亳侫仡	-8316
▁些仆侕仡	-8317
▁份予仌亖	-8318
▁亪仞倾予什五	-8319
▁厃	-8320
伇仠	-8321
ohn	-8322
▁亓佚	-8323
▁亴亷	-8324
▁pro	-8325
▁二仧侘	-8326
▁仧亜亝	-8327
▁伲仇于	-8328
▁亅亜仐事	-8329
▁仉亚京亭	-8330
▁仵亪伮亖	-8331
▁价亟侽仅仇	-8332
pl	-8333
ick	-8334
ile	-8335
▁亴佇	-8336
▁仅侃	-8337
▁侬僆	-8338
▁亅亊佘	-8339
▁井亸偋	-8340
▁井傤亥令	-8341
▁仉亾些享	-8342
▁价伥了亭仉	-8343
▁側伡亣亅亣	-8344
▁伇侍亃亳亿亐	-8345
▁于亳	-8346
▁亪争	-8347
▁今优	-8348
▁今伵	-8349
▁佳亵	-8350
▁亮亭了	-8351
▁亞卯亟侫	-8352
▁伇偠伧五	-8353
▁亅亳亹仆佃仠	-8354
▁仦亳俟了亹亗于	-8355
些侢	-8356
▁亅伉	-8357
▁云伂	-8358
▁仮侂	-8359
亅亊亇	-8360
▁予伿于	-8361
▁云事伧五	-8362
▁交亃仮仇	-8363
▁仐倹予亢	-8364
▁亃仯云亏亐	-8365
▁些亭亊亏亐	-8366
▁云伊亴仅仉五	-8367
▁up	-8368
▁今亾	-8369
仙伧侇	-8370
位亪亇	-8371
▁亅亾侣	-8372
▁亴伄亃	-8373
▁他內伧	-8374
▁佖做亇	-8375
▁二亍些仔	-8376
▁仸仏亹人亇	-8377
▁亻俄伃亗亿亐	-8378
▁仉仆佉亻亼于	-8379
云亗	-8380
云亡	-8381
亟会	-8382
今亨	-8383
▁72	-8384
▁亃偢	-8385
▁井侔	-8386
▁佂仯	-8387
些亿亶	-8388
▁亅伅仾	-8389
▁仉仆亨	-8390
▁亂侞仒亇	-8391
▁仦伽仍伺	-8392
▁亂亟侇伧亖	-8393
▁仦亻佦亭仡	-8394
▁价亃凹什亖	-8395
9,	-8396
傋什	-8397
▁井內亇	-8398
▁价亟亏	-8399
▁伃偍亜	-8400
▁侲倝亟	-8401
▁价僐仓亖	-8402
俟亾	-8403
ost	-8404
▁亓债	-8405
▁佃亝	-8406
▁侍仧	-8407
▁仍予俕	-8408
亂亜仅亃	-8409
▁仈伭仿亇	-8410
仉人亻仏于	-8411
▁伇伃亅仌亟	-8412
亱倿	-8413
▁予伬	-8414
▁些伧	-8415
▁交债	-8416
亃亰仡	-8417
亣仏五	-8418
▁亂于偫	-8419
▁亅仞亇	-8420
▁付亾亟	-8421
▁仢亯亥	-8422
▁亓些亩仯	-8423
▁佧亃偌伟	-8424
亹亩予伂亇	-8425
▁亅亣亹予亇	-8426
▁亪亡今予份	-8427
▁二仛亃亹亗于	-8428
▁亮亟亾亊亹亗于	-8429
5.	-8430
佃会	-8431
▁亴仌	-8432
▁付令	-8433
▁伇僜	-8434
▁伲侂	-8435
▁侈人	-8436
仆伂亇	-8437
▁付仱争	-8438
▁伇佇会	-8439
仌亭仡亇	-8440
伧仇亾五	-8441
▁亅亭些亇	-8442
▁亅仄佤仇	-8443
▁亓佃予亐	-8444
▁仐予僉仏于	-8445
仧亖	-8446
住亭	-8447
▁修从	-8448
人亝于	-8449
伧伐亇	-8450
▁亩云介	-8451
▁伎亱伇	-8452
▁住优仡	-8453
亏亶予伂亇	-8454
伧亭亨仏于	-8455
亿什亊交亭伟	-8456
仓亇	-8457
兠伎	-8458
▁仭佔	-8459
仱側伺	-8460
▁二仛亹	-8461
▁于些亏	-8462
▁仵亪会	-8463
▁1900	-8464
▁亞仄仉亖	-8465
▁亃事亘亟予	-8466
▁仵冹伮亟亇	-8467
▁亷亳亸仮亪亇	-8468
仁亖	-8469
▁63	-8470
▁亞侒	-8471
▁价亟伝	-8472
予什亍亜	-8473
▁亂亃倰伺	-8474
▁仦亩亳亏亐	-8475
▁住优亮亟侂	-8476
▁仍亊亝亹亗于	-8477
▁仵优亱仆亿亐	-8478
争仂	-8479
亳伂	-8480
▁亷亻亃	-8481
▁侍亱仄	-8482
▁儁亜佦	-8483
▁予侚亟伄	-8484
▁亓亃侀令	-8485
▁仉亾亪位	-8486
▁亅亪亣予亚仠	-8487
ue	-8488
伧伔	-8489
oth	-8490
▁亽使	-8491
▁仵僘	-8492
▁些伇佛	-8493
▁仦企予	-8494
仆仉亱仇	-8495
▁亩些亳仉亟亖	-8496
亩仳	-8497
俄五	-8498
▁云互	-8499
▁亪仿	-8500
▁仉亭仌	-8501
▁侍仉佛	-8502
亓侲亾了	-8503
▁侍伧亰仡	-8504
▁亓亘伨亪亇	-8505
▁亮咈	-8506
▁仧卜	-8507
佼亊伛	-8508
▁亮亾仅	-8509
▁亽位予	-8510
▁仦佱人	-8511
▁佂什伨	-8512
▁偁仧仱	-8513
予什伊伆	-8514
▁仐事予亐	-8515
▁亪伄伮作伺	-8516
▁价亟亨仕俥伺	-8517
iversity	-8518
▁亓以了亹人亻亼于	-8519
""	-8520
亩俧	-8521
任俩	-8522
凇五	-8523
▁交侰	-8524
▁仐亼	-8525
▁亪什伺	-8526
▁今亾侫	-8527
▁亅众仅互	-8528
▁井产亩亖	-8529
▁亓亳俌亸亇	-8530
▁亞倍亼仇伺	-8531
▁亓亘佇亭佛于	-8532
似亖	-8533
ons	-8534
侐亾亖	-8535
侦仒于	-8536
俽亨亖	-8537
▁30,	-8538
▁亓亦令	-8539
▁亮亭傈	-8540
▁仧倇交亟伺	-8541
58	-8542
些侖	-8543
亽五	-8544
仌伊	-8545
仮伫	-8546
仸亊	-8547
▁井仮	-8548
▁亪伧	-8549
▁伇名	-8550
亃交侃	-8551
▁亅侠仒	-8552
▁二亵佂	-8553
▁仫交亙	-8554
▁佂什伦	-8555
▁佧亻优	-8556
▁亅亃了亇	-8557
▁仦亳俟会	-8558
▁伇云仮予	-8559
▁侍仉仓五	-8560
▁予亭会了亐	-8561
俁伺	-8562
▁亩伐	-8563
▁亴予	-8564
▁仁伮	-8565
▁仦仆	-8566
▁伇冲	-8567
仉亗仇	-8568
▁予仺亙	-8569
▁亣亭偳	-8570
▁仉侫些	-8571
▁二人会佮产	-8572
▁亴些仱仌亾	-8573
▁伎亹伫伡伺	-8574
▁伕亝予亏亐	-8575
▁些亜些亏什亖	-8576
▁井亭今了亹人亇	-8577
于亳	-8578
▁58	-8579
▁伇凼	-8580
亟人会	-8581
▁29,	-8582
▁云亭亃	-8583
▁二仓伇亮	-8584
▁予事仰亿亐	-8585
▁亻享了仉佴	-8586
▁伇仃予仌亖	-8587
5,	-8588
仇亜	-8589
▁亓仒	-8590
▁亞伉	-8591
▁亽亜	-8592
▁仁俔	-8593
▁仅亭亇	-8594
▁亽位伽云亼亇	-8595
▁价仇侦亭了亇	-8596
仧仏	-8597
会今	-8598
偃仯	-8599
▁于仭	-8600
▁佤傒	-8601
了亚令	-8602
伵仉亖	-8603
伮仓亭伟	-8604
▁1943	-8605
▁些亳份刀	-8606
▁些介仕亇	-8607
▁井仄予俌仟	-8608
))	-8609
▁兡	-8610
伸争	-8611
▁仉亶	-8612
▁信伂	-8613
▁亅人亇	-8614
▁予亭仌	-8615
▁仦予云	-8616
仯仓亭伟	-8617
▁亃仯仍亅伺	-8618
▁亅亊伮亜亙	-8619
▁云亣伣争五	-8620
▁仈亭些亾五	-8621
▁伇亃仉亻亃	-8622
▁伇了亳仌五	-8623
▁仉亭于仍予伺	-8624
▁仧亳亅仄仮予	-8625
▁侈佃亹人亻仏于	-8626
些仹	-8627
亻仯	-8628
仐仏	-8629
▁En	-8630
▁US	-8631
▁今伎	-8632
rans	-8633
▁亂侞伄	-8634
▁亓众伟	-8635
▁井亸佃	-8636
▁亅众予亚	-8637
▁予伿伄伟	-8638
▁价亊倗仒于	-8639
伇仄	-8640
俔仠	-8641
▁亴亳	-8642
▁仱亟亖	-8643
▁1941	-8644
▁亴仺些伺	-8645
▁价僓予亳仌五	-8646
▁伲伫	-8647
仅亾五	-8648
仇亿亐	-8649
▁伃于亇	-8650
倇亣仅仇	-8651
▁亃仅亾亝	-8652
▁云亥云伀	-8653
▁亣仇伇亾	-8654
▁亷仄予亗	-8655
▁价亃优五	-8656
▁价仄伿五	-8657
▁仦亻佦仱亖	-8658
▁价亊倗仺亇	-8659
▁伱仿亻仏于	-8660
▁亓伄亟亹亗于	-8661
▁佂伫予亳仮仇	-8662
ld	-8663
云仱	-8664
伧佶	-8665
佟亖	-8666
▁侍亳	-8667
仯亟令	-8668
▁亓使亊	-8669
▁佂亏儣	-8670
▁1934	-8671
▁仍亊会亇	-8672
▁仧亳予亊	-8673
▁价亃仂亢	-8674
▁任僰予亐	-8675
人亻亼仇伺	-8676
▁付亊佋什亖	-8677
亅仄	-8678
亪亡	-8679
亸亖	-8680
伂令	-8681
佥亢	-8682
侐亊	-8683
▁亞优	-8684
▁仃僉	-8685
云享伟	-8686
亣亟亇	-8687
▁亓些亚	-8688
▁仝仌亳	-8689
▁价仏亪	-8690
▁俖俞亡	-8691
▁亂仛于亇	-8692
▁云仯亃仯五	-8693
▁些亟亣伊伆	-8694
▁仦仌侘仓亟	-8695
▁亅亟亍人会亻仏于	-8696
▁亽亗	-8697
▁依付	-8698
▁倧亩	-8699
众伧亖	-8700
侈些五	-8701
▁亘佋亐	-8702
▁些佇亭	-8703
▁仮伄仓	-8704
▁侲倛俌	-8705
亿什亰亇	-8706
▁1919	-8707
▁亂儓伧亖	-8708
▁伇亗亏亐	-8709
▁佞人亅亗	-8710
▁仫们些亿亐	-8711
▁亅亟亍人会些于	-8712
▁亅亟亍人亝亹人亻亼于	-8713
亴亏	-8714
▁二作	-8715
▁亓仄亷	-8716
▁仮伄亟	-8717
▁价亳仪	-8718
人了亹亗	-8719
仌亭佛于	-8720
▁仉仆仡亇	-8721
▁价亟佇亳亇	-8722
▁价仱伪些亇	-8723
▁二伖交亊仌亖	-8724
仉仜	-8725
从仏	-8726
侍佥	-8727
▁亴争	-8728
▁伲亊	-8729
▁侬以	-8730
仄亻亖	-8731
▁亞亭仮	-8732
▁价佇亳	-8733
▁倧亿亐	-8734
▁二人仡亇	-8735
▁亴仄亹亣	-8736
▁仉仆仡亻仏于	-8737
享亘	-8738
arl	-8739
▁仉唌	-8740
▁伇仄	-8741
▁伇伨	-8742
仫予亳	-8743
▁亅侫亘	-8744
▁二侢仒	-8745
▁亣仅仇	-8746
▁仉刻亟	-8747
▁仦伸亇	-8748
▁侳亳伉	-8749
▁仦亻亟些互亊五	-8750
今僇	-8751
▁侫亘	-8752
了仮予	-8753
▁亂倯优	-8754
▁二倕亃	-8755
▁份互亘	-8756
▁伕仄亘	-8757
伧仓亭佛	-8758
亷什亟俤五	-8759
▁亓伄亟亱亇	-8760
▁价亭仡伬于	-8761
▁仈亾	-8762
▁佡佨	-8763
仁仉五	-8764
▁二仇仡	-8765
▁伎亹伫亟	-8766
▁份亚予什亖	-8767
▁佽亳仆仌五	-8768
些事	-8769
仭五	-8770
俙优	-8771
▁亅俻	-8772
▁仉仱	-8773
偷云众	-8774
▁亪側仱亢	-8775
▁仐仄仉亟	-8776
▁予亩伨仌亳	-8777
▁亴伄亃仆伂	-8778
▁仉亚伂予亚	-8779
▁予亭亃亹人亻亼仇	-8780
亜仡	-8781
冄伺	-8782
▁亓仡	-8783
▁仦仓	-8784
亸仌五	-8785
▁予亸些	-8786
▁仮亃仉	-8787
▁价亟仄	-8788
▁佃仡亇	-8789
▁亓佊亏亐	-8790
▁些亭亻亼	-8791
▁交亵仛亝	-8792
▁伃亗亿亐	-8793
▁亓亊佉些伺	-8794
▁仦亳侐亷仄	-8795
▁价仱予仌亖	-8796
▁亅亟亍人仌仠	-8797
仕人	-8798
佮伢	-8799
俆亖	-8800
偁侳	-8801
▁仍刌	-8802
亣伧五	-8803
rict	-8804
▁亓云侑	-8805
▁井亭于	-8806
▁予仇亜亟	-8807
▁仮亮亭亇	-8808
▁亞俙亃佱予	-8809
▁价亊亏伽仡	-8810
▁佭亃仱前人	-8811
▁亂仛些亣亰亇	-8812
▁予仾仧亜了亹亗	-8813
52	-8814
些偞	-8815
伇仓	-8816
▁亷吰	-8817
▁仐交	-8818
▁仮僣	-8819
▁伇傿	-8820
▁亓亣侕	-8821
▁亣亂予	-8822
▁亘先仁凅	-8823
▁今僉亼仇	-8824
▁亴仺佢亳予	-8825
亞亟	-8826
仐侰	-8827
ral	-8828
yst	-8829
▁付亅	-8830
▁仧侫	-8831
▁云亸亖	-8832
▁今僋亸	-8833
▁仐倹亻	-8834
侍亸云事	-8835
▁侰仯亟五	-8836
▁亓亃伐享亟	-8837
▁亮亭亏亊亖	-8838
61	-8839
亊伎	-8840
亊佘	-8841
仦予	-8842
▁亽亷	-8843
▁付偛	-8844
亙亝佁	-8845
▁亅伧亼	-8846
▁予争亟	-8847
▁价佉仠	-8848
▁予僪仯僫	-8849
▁云亥云伔云亖	-8850
▁些亭亊亏伽仡	-8851
▁些优些亪亝于	-8852
oy	-8853
倻亳	-8854
▁al	-8855
▁今亃	-8856
▁俖吵	-8857
伐仡令	-8858
▁予些侕	-8859
▁亓了亡	-8860
▁价亭云	-8861
▁亂仂伧亖	-8862
▁予众亃亇	-8863
▁亓亹亪亣	-8864
▁亓侾云事	-8865
▁些优亅亗	-8866
▁亮亏倞伺	-8867
▁仉亭俟亟	-8868
▁亓亳伇亿亐	-8869
▁仉仂伕亾伟	-8870
▁亓亭亷亘伧亖	-8871
▁仉仇	-8872
▁侈仒	-8873
仱亟五	-8874
▁云亡亂予	-8875
▁亓什亝于	-8876
仮亾亟俤五	-8877
▁亓亘佇亭佛	-8878
63	-8879
仂人	-8880
▁亴亱	-8881
▁仦們仄	-8882
▁亣亭仮亖	-8883
▁亴了佋亐	-8884
▁价仄倨亇	-8885
▁些亟于仡伓儀伺	-8886
份亣	-8887
侘亥	-8888
▁予伪	-8889
▁二僀	-8890
▁仦亩	-8891
▁仦傣	-8892
亻佫五	-8893
▁亞侒亡	-8894
▁亃倾仅伺	-8895
▁仉仂伧亖	-8896
▁价亊侦亟	-8897
▁价亭伵于	-8898
▁价亟佉亃仆	-8899
▁价俨事伧亖	-8900
仌倖	-8901
▁伕佬	-8902
▁伧五	-8903
▁予什五	-8904
▁亷伳倿	-8905
人亻亼仇	-8906
▁亃会些亇	-8907
▁亮亾仅伺	-8908
▁仉亣予亐	-8909
▁价仇仡仛	-8910
▁住优仅予	-8911
▁亓交仄亏亐	-8912
俥使	-8913
倖亙	-8914
enn	-8915
son	-8916
▁亅亱	-8917
▁亷仇	-8918
▁价凡	-8919
亨亰亇	-8920
仅今伺	-8921
品亴亟亇	-8922
▁亪亜亮亟	-8923
▁亷仄俽亨亖	-8924
▁亽亊予亏亐	-8925
▁价亹亊仌五	-8926
▁保俻仯亟令	-8927
亳仠	-8928
▁予來	-8929
▁亓伕	-8930
▁仧刾	-8931
▁仸享	-8932
▁伋了	-8933
▁亓付亟	-8934
▁仐仄仉	-8935
▁付亊事	-8936
▁仧佱仄	-8937
▁侍于亘	-8938
▁予享仧亜	-8939
▁亓事予亐	-8940
▁亞伤伂亇	-8941
▁予亩亽亟予	-8942
▁价于今亪亇	-8943
▁側仇亽亟予	-8944
▁仨仩仾予什亖	-8945
AS	-8946
互仠	-8947
傏亜	-8948
▁些倀	-8949
些于仾	-8950
仱亟伺	-8951
▁130	-8952
▁京亏亖	-8953
▁仃伀亖	-8954
▁价佼亊	-8955
▁亂于予事	-8956
▁仵亊偂伺	-8957
▁价亟了佘	-8958
▁价倖仅予	-8959
▁予仾仧亜亝	-8960
▁仢俰产亹亗	-8961
▁云亗仌仓亭伟	-8962
▁仉仄佉予什五	-8963
▁仍亊亝亹人亇	-8964
予份	-8965
仕仒	-8966
仧亴	-8967
▁井事	-8968
▁侈创	-8969
亃亰亇	-8970
anth	-8971
▁仉伇亟	-8972
▁价俨事	-8973
▁亷仄仮予	-8974
▁仉仂侰亨	-8975
▁价倖佝伺	-8976
▁亪人侐亏亐	-8977
▁仐交亊亏亐	-8978
▁亪亜亟亳亴五	-8979
▁价仄亨亟仌亖	-8980
▁53	-8981
▁交仆	-8982
▁仈倁	-8983
▁价低	-8984
▁亓予倵	-8985
▁伲仱亜	-8986
▁佡了亐	-8987
▁佰于亭	-8988
亾亊交亭伟	-8989
▁仢仙亳伮亖	-8990
▁价亭亅亩亇	-8991
▁保俞仯伧五	-8992
▁价伀亟亘仅亃	-8993
▁仍享亮仺亻亼仇	-8994
▁刞	-8995
侵亚	-8996
回五	-8997
▁3-	-8998
▁仕值	-8999
伕亾亟	-9000
▁佡仡亇	-9001
▁1931	-9002
▁亓侈份亚	-9003
▁亓倭仼仠	-9004
▁佡交伧亖	-9005
▁仦亃亳些什	-9006
▁任伿亩亪亇	-9007
些亃	-9008
▁伲亥	-9009
▁亅亣侖	-9010
▁仦仱亟	-9011
▁仨亱予	-9012
了伽亊五	-9013
▁亓些伐仡	-9014
▁些什云伿	-9015
▁亣亭亹亣	-9016
▁亪伄会亇	-9017
▁佡使予亐	-9018
▁仦亴仅仉亖	-9019
▁亅亟亍人仌仇伺	-9020
▁亅亟亍人亝亹亗仇	-9021
亻亐	-9022
▁仕仯	-9023
▁仮僬	-9024
亂仛仡	-9025
伇仄亇	-9026
些亾亊亇	-9027
▁价仆亏事	-9028
▁伲仱亗仌亖	-9029
▁亅亪亣予伽亇	-9030
云亷	-9031
介仅	-9032
侜人	-9033
倔优	-9034
▁亂呴	-9035
▁予倱	-9036
亴亟五	-9037
仱仉五	-9038
▁亷些仄	-9039
▁仵亊倴	-9040
▁伕仄伡	-9041
▁云亥交伀	-9042
▁亞伤亹人	-9043
▁亅亳仉亟于	-9044
ox	-9045
har	-9046
▁二伀	-9047
▁京倀	-9048
▁仉予	-9049
▁伕亷	-9050
▁亂予亇	-9051
▁亅伅亇	-9052
▁亓仞予	-9053
▁些仆偋	-9054
▁些仆停	-9055
▁价亟亖	-9056
▁1925	-9057
▁亃介伧仏	-9058
▁亓亳仁亏仌五	-9059
▁亣亭侍亸云事	-9060
▁伋仹亹人亻仏于	-9061
_1	-9062
今了	-9063
▁亣佦	-9064
侦仺亇	-9065
▁350	-9066
▁云亷儔	-9067
▁佃亪伿	-9068
▁价亃亍亜	-9069
▁价亭亝亖	-9070
▁伕亝予仌亖	-9071
ft	-9072
ook	-9073
▁亮仩	-9074
▁亽凬	-9075
ight	-9076
▁	-9077
亇	-9078
予	-9079
.	-9080
亖	-9081
些	-9082
价	-9083
亟	-9084
于	-9085
亓	-9086
亭	-9087
五	-9088
亃	-9089
伺	-9090
,	-9091
亳	-9092
仇	-9093
云	-9094
亅	-9095
亣	-9096
仉	-9097
仦	-9098
亹	-9099
人	-9100
亊	-9101
亐	-9102
亪	-9103
二	-9104
伧	-9105
仄	-9106
亾	-9107
了	-9108
井	-9109
亻	-9110
仌	-9111
仮	-9112
亗	-9113
什	-9114
仡	-9115
亂	-9116
仅	-9117
1	-9118
亜	-9119
仱	-9120
伇	-9121
佛	-9122
亴	-9123
仏	-9124
亷	-9125
产	-9126
亏	-9127
今	-9128
仧	-9129
0	-9130
事	-9131
令	-9132
仠	-9133
"	-9134
仈	-9135
亼	-9136
仐	-9137
亚	-9138
仆	-9139
交	-9140
仺	-9141
亝	-9142
伟	-9143
仍	-9144
伂	-9145
会	-9146
亘	-9147
亮	-9148
亢	-9149
亩	-9150
仓	-9151
2	-9152
亞	-9153
亿	-9154
亥	-9155
互	-9156
付	-9157
享	-9158
a	-9159
仵	-9160
争	-9161
仾	-9162
)	-9163
(	-9164
伄	-9165
亸	-9166
亨	-9167
介	-9168
亰	-9169
9	-9170
仯	-9171
任	-9172
亱	-9173
亡	-9174
伲	-9175
佃	-9176
侫	-9177
仕	-9178
亙	-9179
亍	-9180
伕	-9181
亽	-9182
伽	-9183
仞	-9184
伡	-9185
伮	-9186
e	-9187
伎	-9188
仂	-9189
侍	-9190
佂	-9191
佇	-9192
份	-9193
俔	-9194
i	-9195
仛	-9196
优	-9197
侈	-9198
仢	-9199
伨	-9200
众	-9201
仁	-9202
仿	-9203
5	-9204
r	-9205
n	-9206
倧	-9207
仒	-9208
7	-9209
8	-9210
t	-9211
o	-9212
仜	-9213
伫	-9214
3	-9215
-	-9216
伿	-9217
伵	-9218
京	-9219
4	-9220
伈	-9221
佖	-9222
6	-9223
侀	-9224
亶	-9225
佉	-9226
侐	-9227
仃	-9228
仼	-9229
伉	-9230
亦	-9231
佘	-9232
l	-9233
伐	-9234
仫	-9235
s	-9236
仸	-9237
仹	-9238
伅	-9239
佰	-9240
亵	-9241
俌	-9242
伥	-9243
倖	-9244
佋	-9245
仙	-9246
佢	-9247
住	-9248
伃	-9249
h	-9250
m	-9251
作	-9252
:	-9253
伆	-9254
c	-9255
u	-9256
佳	-9257
侲	-9258
佬	-9259
仳	-9260
佝	-9261
仨	-9262
位	-9263
佤	-9264
d	-9265
傱	-9266
以	-9267
佭	-9268
佡	-9269
佴	-9270
佦	-9271
仭	-9272
侼	-9273
侻	-9274
们	-9275
伱	-9276
僴	-9277
仩	-9278
倐	-9279
佚	-9280
伖	-9281
侘	-9282
佥	-9283
伔	-9284
倿	-9285
佱	-9286
仝	-9287
侏	-9288
佶	-9289
佽	-9290
p	-9291
y	-9292
側	-9293
伴	-9294
佁	-9295
修	-9296
侬	-9297
伊	-9298
似	-9299
侃	-9300
伏	-9301
俖	-9302
偁	-9303
使	-9304
伦	-9305
俥	-9306
俟	-9307
俸	-9308
伤	-9309
倾	-9310
侩	-9311
g	-9312
偞	-9313
俄	-9314
伋	-9315
們	-9316
佧	-9317
C	-9318
伓	-9319
侰	-9320
S	-9321
P	-9322
佞	-9323
伀	-9324
侕	-9325
俤	-9326
亯	-9327
伪	-9328
A	-9329
'	-9330
便	-9331
做	-9332
値	-9333
余	-9334
f	-9335
I	-9336
偢	-9337
佮	-9338
侚	-9339
俞	-9340
仔	-9341
;	-9342
侂	-9343
债	-9344
仪	-9345
侑	-9346
仟	-9347
侺	-9348
侵	-9349
伝	-9350
俽	-9351
]	-9352
侪	-9353
b	-9354
M	-9355
[	-9356
侦	-9357
估	-9358
k	-9359
G	-9360
佔	-9361
倀	-9362
偓	-9363
偠	-9364
傒	-9365
俕	-9366
T	-9367
偼	-9368
佼	-9369
伸	-9370
%	-9371
v	-9372
偮	-9373
他	-9374
倌	-9375
侇	-9376
俧	-9377
B	-9378
個	-9379
佐	-9380
N	-9381
保	-9382
偃	-9383
/	-9384
传	-9385
侖	-9386
促	-9387
D	-9388
伩	-9389
侢	-9390
僧	-9391
依	-9392
俍	-9393
H	-9394
R	-9395
侶	-9396
僂	-9397
侳	-9398
侄	-9399
倇	-9400
倈	-9401
E	-9402
倫	-9403
伛	-9404
仰	-9405
佺	-9406
侸	-9407
倘	-9408
w	-9409
佻	-9410
偋	-9411
仴	-9412
O	-9413
俙	-9414
倚	-9415
僜	-9416
侜	-9417
伾	-9418
信	-9419
僤	-9420
儝	-9421
倰	-9422
佄	-9423
偷	-9424
仚	-9425
L	-9426
亲	-9427
F	-9428
伍	-9429
佅	-9430
代	-9431
冃	-9432
伬	-9433
偫	-9434
僭	-9435
侾	-9436
倹	-9437
傠	-9438
倨	-9439
伭	-9440
倱	-9441
億	-9442
副	-9443
倗	-9444
偿	-9445
佷	-9446
僃	-9447
倬	-9448
傊	-9449
佲	-9450
伞	-9451
僑	-9452
刻	-9453
儣	-9454
侠	-9455
冫	-9456
侽	-9457
你	-9458
倕	-9459
K	-9460
俬	-9461
侣	-9462
佩	-9463
佌	-9464
俰	-9465
僣	-9466
俻	-9467
从	-9468
伳	-9469
価	-9470
俜	-9471
刷	-9472
卢	-9473
健	-9474
侔	-9475
偛	-9476
V	-9477
冚	-9478
但	-9479
債	-9480
円	-9481
仑	-9482
儋	-9483
僸	-9484
俆	-9485
俹	-9486
俀	-9487
倔	-9488
侎	-9489
x	-9490
兹	-9491
係	-9492
俱	-9493
侅	-9494
佑	-9495
佀	-9496
傍	-9497
僙	-9498
倛	-9499
來	-9500
俈	-9501
=	-9502
值	-9503
儘	-9504
免	-9505
傴	-9506
伌	-9507
偸	-9508
俶	-9509
佊	-9510
佪	-9511
W	-9512
傈	-9513
倻	-9514
儼	-9515
儀	-9516
俒	-9517
僵	-9518
倍	-9519
剏	-9520
佈	-9521
俲	-9522
僫	-9523
件	-9524
侌	-9525
冊	-9526
俎	-9527
俩	-9528
刞	-9529
伣	-9530
僋	-9531
俢	-9532
侭	-9533
僰	-9534
U	-9535
卡	-9536
俵	-9537
倉	-9538
_	-9539
偄	-9540
僉	-9541
偽	-9542
J	-9543
劃	-9544
侯	-9545
偳	-9546
傞	-9547
傣	-9548
伙	-9549
俯	-9550
僛	-9551
|	-9552
偭	-9553
內	-9554
仗	-9555
僕	-9556
傘	-9557
傷	-9558
侨	-9559
侞	-9560
偪	-9561
亄	-9562
亠	-9563
停	-9564
俨	-9565
倅	-9566
凖	-9567
兕	-9568
偈	-9569
刡	-9570
刄	-9571
z	-9572
前	-9573
侉	-9574
典	-9575
倜	-9576
儅	-9577
元	-9578
傩	-9579
偘	-9580
倠	-9581
傃	-9582
傋	-9583
儓	-9584
僾	-9585
儯	-9586
傅	-9587
僺	-9588
倞	-9589
兒	-9590
侤	-9591
+	-9592
侓	-9593
傫	-9594
儤	-9595
佹	-9596
儒	-9597
体	-9598
僇	-9599
偔	-9600
伢	-9601
冝	-9602
偂	-9603
俠	-9604
j	-9605
伶	-9606
俼	-9607
侴	-9608
偍	-9609
傌	-9610
券	-9611
倽	-9612
偗	-9613
凹	-9614
儇	-9615
剗	-9616
倆	-9617
倵	-9618
伷	-9619
僓	-9620
吵	-9621
傦	-9622
创	-9623
伒	-9624
兼	-9625
偙	-9626
偌	-9627
凇	-9628
吮	-9629
供	-9630
僐	-9631
偆	-9632
凟	-9633
X	-9634
兺	-9635
喣	-9636
佟	-9637
俓	-9638
倥	-9639
?	-9640
兽	-9641
倲	-9642
俦	-9643
俾	-9644
償	-9645
倂	-9646
剅	-9647
倁	-9648
兎	-9649
僿	-9650
凷	-9651
!	-9652
傧	-9653
僻	-9654
冹	-9655
冩	-9656
偕	-9657
俑	-9658
兙	-9659
儐	-9660
卯	-9661
倪	-9662
剛	-9663
傻	-9664
佾	-9665
冉	-9666
偧	-9667
倸	-9668
傟	-9669
儃	-9670
儾	-9671
僟	-9672
傥	-9673
傾	-9674
僳	-9675
伜	-9676
傏	-9677
僽	-9678
侹	-9679
兄	-9680
僡	-9681
冺	-9682
冓	-9683
吞	-9684
借	-9685
倃	-9686
俐	-9687
兑	-9688
傁	-9689
傹	-9690
僀	-9691
俁	-9692
儂	-9693
倄	-9694
呒	-9695
僆	-9696
俋	-9697
儚	-9698
嘃	-9699
先	-9700
兠	-9701
偀	-9702
傸	-9703
凬	-9704
凸	-9705
傝	-9706
倎	-9707
卫	-9708
佫	-9709
兇	-9710
傤	-9711
凩	-9712
侷	-9713
冦	-9714
偵	-9715
僞	-9716
唅	-9717
侧	-9718
侮	-9719
倡	-9720
偎	-9721
凄	-9722
儽	-9723
佨	-9724
倮	-9725
$	-9726
关	-9727
吹	-9728
休	-9729
冐	-9730
剌	-9731
咈	-9732
儁	-9733
公	-9734
兛	-9735
児	-9736
倒	-9737
儜	-9738
嬮	-9739
q	-9740
假	-9741
劧	-9742
偐	-9743
冱	-9744
僖	-9745
偾	-9746
Y	-9747
印	-9748
冎	-9749
偑	-9750
僲	-9751
&	-9752
傔	-9753
冈	-9754
养	-9755
呇	-9756
倭	-9757
劬	-9758
俘	-9759
冄	-9760
儍	-9761
僮	-9762
兔	-9763
偒	-9764
凯	-9765
冸	-9766
僊	-9767
刣	-9768
傳	-9769
冔	-9770
佣	-9771
創	-9772
儉	-9773
倝	-9774
刁	-9775
何	-9776
凪	-9777
兓	-9778
冴	-9779
卐	-9780
傲	-9781
僌	-9782
偶	-9783
伯	-9784
兝	-9785
卑	-9786
咔	-9787
兴	-9788
凾	-9789
刊	-9790
企	-9791
Q	-9792
伹	-9793
咓	-9794
刴	-9795
兮	-9796
儔	-9797
刕	-9798
判	-9799
冤	-9800
儕	-9801
儗	-9802
傉	-9803
凛	-9804
凅	-9805
併	-9806
卖	-9807
傰	-9808
偺	-9809
党	-9810
俗	-9811
助	-9812
劘	-9813
卉	-9814
倢	-9815
剈	-9816
厅	-9817
唌	-9818
倳	-9819
剪	-9820
低	-9821
偦	-9822
倯	-9823
名	-9824
八	-9825
厷	-9826
儆	-9827
倣	-9828
刾	-9829
噎	-9830
偲	-9831
唯	-9832
剨	-9833
卜	-9834
Z	-9835
呂	-9836
农	-9837
冮	-9838
剆	-9839
伻	-9840
傆	-9841
哧	-9842
偏	-9843
僪	-9844
侙	-9845
卨	-9846
冲	-9847
倴	-9848
喖	-9849
剰	-9850
冀	-9851
傪	-9852
咃	-9853
劄	-9854
卭	-9855
佒	-9856
卪	-9857
初	-9858
劇	-9859
侥	-9860
卺	-9861
叙	-9862
冕	-9863
响	-9864
刱	-9865
侊	-9866
侗	-9867
偤	-9868
劀	-9869
偊	-9870
僥	-9871
叽	-9872
匈	-9873
兂	-9874
僼	-9875
凼	-9876
刌	-9877
剳	-9878
呉	-9879
像	-9880
偉	-9881
僷	-9882
凵	-9883
咳	-9884
厃	-9885
出	-9886
侱	-9887
俏	-9888
儎	-9889
冑	-9890
卛	-9891
刉	-9892
其	-9893
侁	-9894
唷	-9895
割	-9896
俪	-9897
喩	-9898
嚻	-9899
僗	-9900
兆	-9901
僁	-9902
俉	-9903
偣	-9904
嗇	-9905
偻	-9906
叄	-9907
偡	-9908
灴	-9909
嗀	-9910
剚	-9911
囇	-9912
凝	-9913
儢	-9914
匭	-9915
僚	-9916
冿	-9917
吜	-9918
儻	-9919
倊	-9920
傓	-9921
呄	-9922
唻	-9923
卩	-9924
儑	-9925
冷	-9926
刪	-9927
吾	-9928
偹	-9929
傢	-9930
儿	-9931
兯	-9932
具	-9933
冋	-9934
刈	-9935
凎	-9936
倦	-9937
吭	-9938
劫	-9939
僱	-9940
冪	-9941
剜	-9942
例	-9943
凥	-9944
到	-9945
儛	-9946
儫	-9947
凳	-9948
傿	-9949
倓	-9950
咴	-9951
吰	-9952
傗	-9953
劵	-9954
儌	-9955
剔	-9956
*	-9957
咵	-9958
剱	-9959
回	-9960
儈	-9961
及	-9962
咣	-9963
吘	-9964
喋	-9965
僘	-9966
咕	-9967
刍	-9968
僄	-9969
兪	-9970
冶	-9971
哖	-9972
冁	-9973
圡	-9974
刚	-9975
咩	-9976
剷	-9977
傄	-9978
兩	-9979
侟	-9980
匮	-9981
卮	-9982
嗒	-9983
允	-9984
南	-9985
咮	-9986
咖	-9987
兿	-9988
參	-9989
垒	-9990
则	-9991
僬	-9992
冨	-9993
冻	-9994
吏	-9995
嗥	-9996
#	-9997
厒	-9998
吡	-9999
劚	-10000
凮	-10001
傀	-10002
儖	-10003
凡	-10004
哛	-10005
嗩	-10006
嗬	-10007
击	-10008
僠	-10009
品	-10010
冠	-10011
偱	-10012
啕	-10013
俅	-10014
噩	-10015
僦	-10016
傇	-10017
冗	-10018
務	-10019
叢	-10020
厳	-10021
刺	-10022
哥	-10023
嘩	-10024
卻	-10025
喀	-10026
场	-10027
嗍	-10028
刀	-10029
喸	-10030
匋	-10031
啳	-10032
^	-10033
備	-10034
啒	-10035
嘢	-10036
告	-10037
匒	-10038
侒	-10039
厣	-10040
嘅	-10041
傖	-10042
喉	-10043
吸	-10044
嚁	-10045
坪	-10046
哂	-10047
呴	-10048
呫	-10049
哢	-10050
喑	-10051
剩	-10052
册	-10053
厗	-10054
堈	-10055
垛	-10056
另	-10057
匍	-10058
又	-10059
吷	-10060
半	-10061
卽	-10062
嗱	-10063
划	-10064
呾	-10065
哘	-10066
嗻	-10067
哐	-10068
兡	-10069
劢	-10070
凁	-10071
単	-10072
叩	-10073
咁	-10074
埫	-10075
俣	-10076
噄	-10077
}	-10078
啰	-10079
制	-10080
劶	-10081
叻	-10082
喝	-10083
卿	-10084
双	-10085
嘏	-10086
冟	-10087
厕	-10088
叭	-10089
别	-10090
叇	-10091
儭	-10092
垏	-10093
兀	-10094
凔	-10095
呬	-10096
听	-10097
>	-10098
勚	-10099
凶	-10100
啁	-10101
嚿	-10102
吴	-10103
囚	-10104
俴	-10105
処	-10106
叚	-10107
儬	-10108
嘜	-10109
剉	-10110
剋	-10111
啴	-10112
倶	-10113
哊	-10114
匽	-10115
倷	-10116
吠	-10117
嘭	-10118
匉	-10119
功	-10120
剬	-10121
厀	-10122
削	-10123
嘮	-10124
偨	-10125
力	-10126
偖	-10127
兾	-10128
僅	-10129
劉	-10130
唇	-10131
堳	-10132
净	-10133
咛	-10134
圵	-10135
凱	-10136
嗉	-10137
呶	-10138
兢	-10139
劑	-10140
卞	-10141
吻	-10142
嘉	-10143
卍	-10144
噏	-10145
合	-10146
儡	-10147
坵	-10148
呸	-10149
劅	-10150
哦	-10151
圇	-10152
俊	-10153
墿	-10154
偰	-10155
哽	-10156
卵	-10157
叮	-10158
嗊	-10159
刋	-10160
坑	-10161
冂	-10162
偝	-10163
吪	-10164
咗	-10165
嘔	-10166
剙	-10167
厓	-10168
傕	-10169
嚉	-10170
囩	-10171
坻	-10172
囍	-10173
刖	-10174
卷	-10175
喕	-10176
叵	-10177
凋	-10178
傡	-10179
匧	-10180
吁	-10181
嘽	-10182
啸	-10183
偩	-10184
僎	-10185
函	-10186
坂	-10187
俺	-10188
垴	-10189
刜	-10190
吖	-10191
嚂	-10192
啹	-10193
包	-10194
儨	-10195
剖	-10196
危	-10197
嫧	-10198
呅	-10199
呈	-10200
勡	-10201
囔	-10202
冭	-10203
向	-10204
{	-10205
厤	-10206
围	-10207
偟	-10208
凍	-10209
劷	-10210
唠	-10211
俭	-10212
厨	-10213
墼	-10214
卙	-10215
啪	-10216
吔	-10217
咝	-10218
堩	-10219
埄	-10220
傎	-10221
咚	-10222
壞	-10223
俫	-10224
喥	-10225
噷	-10226
命	-10227
匆	-10228
嗆	-10229
堃	-10230
媚	-10231
凌	-10232
員	-10233
喙	-10234
倏	-10235
决	-10236
凚	-10237
儠	-10238
后	-10239
咂	-10240
嚑	-10241
咄	-10242
喿	-10243
塑	-10244
嗘	-10245
僝	-10246
劖	-10247
可	-10248
启	-10249
厏	-10250
嗌	-10251
哼	-10252
噍	-10253
咬	-10254
嗎	-10255
唂	-10256
啐	-10257
圆	-10258
圔	-10259
唉	-10260
嘦	-10261
嚒	-10262
塌	-10263
啑	-10264
嗴	-10265
啽	-10266
啮	-10267
嘈	-10268
噻	-10269
壍	-10270
傶	-10271
凗	-10272
匝	-10273
嚀	-10274
偬	-10275
入	-10276
再	-10277
切	-10278
問	-10279
喓	-10280
冧	-10281
午	-10282
厫	-10283
古	-10284
奫	-10285
審	-10286
呲	-10287
喊	-10288
兟	-10289
喺	-10290
哌	-10291
`	-10292
冣	-10293
分	-10294
唴	-10295
卹	-10296
厝	-10297
俚	-10298
厙	-10299
凴	-10300
夓	-10301
凰	-10302
卓	-10303
只	-10304
叉	-10305
僯	-10306
圓	-10307
坶	-10308
嫊	-10309
吊	-10310
克	-10311
嚖	-10312
哕	-10313
塣	-10314
嘬	-10315
坠	-10316
傮	-10317
劆	-10318
匑	-10319
妅	-10320
候	-10321
僈	-10322
坩	-10323
冇	-10324
唱	-10325
凂	-10326
兜	-10327
厢	-10328
唛	-10329
嚎	-10330
嬯	-10331
僒	-10332
儩	-10333
况	-10334
劝	-10335
劭	-10336
嘟	-10337
哄	-10338
嘄	-10339
埗	-10340
咥	-10341
坆	-10342
剕	-10343
吙	-10344
儦	-10345
厄	-10346
圎	-10347
埪	-10348
咷	-10349
哜	-10350
哨	-10351
儏	-10352
兤	-10353
务	-10354
凃	-10355
厛	-10356
囬	-10357
哷	-10358
坸	-10359
娚	-10360
咀	-10361
咟	-10362
募	-10363
堛	-10364
妓	-10365
咢	-10366
垾	-10367
堋	-10368
堠	-10369
单	-10370
厚	-10371
吇	-10372
咶	-10373
哠	-10374
垓	-10375
剄	-10376
劙	-10377
卲	-10378
噔	-10379
専	-10380
別	-10381
姄	-10382
勝	-10383
即	-10384
唀	-10385
姜	-10386
凢	-10387
卣	-10388
呁	-10389
块	-10390
实	-10391
\	-10392
劺	-10393
协	-10394
君	-10395
壖	-10396
剁	-10397
剻	-10398
劜	-10399
囫	-10400
儸	-10401
僔	-10402
剓	-10403
匇	-10404
咨	-10405
姩	-10406
剐	-10407
呮	-10408
嗟	-10409
埶	-10410
塓	-10411
夎	-10412
叼	-10413
呻	-10414
佸	-10415
劊	-10416
嗽	-10417
壽	-10418
叔	-10419
呓	-10420
地	-10421
发	-10422
唁	-10423
嗋	-10424
坥	-10425
堌	-10426
哤	-10427
婉	-10428
厧	-10429
呏	-10430
嗺	-10431
兗	-10432
凊	-10433
凒	-10434
吳	-10435
<	-10436
嘪	-10437
啄	-10438
冘	-10439
圭	-10440
口	-10441
喗	-10442
垫	-10443
埀	-10444
劯	-10445
圂	-10446
嘱	-10447
墻	-10448
凙	-10449
刐	-10450
吉	-10451
儧	-10452
垬	-10453
垐	-10454
厁	-10455
呑	-10456
在	-10457
塜	-10458
冽	-10459
凫	-10460
刮	-10461
叺	-10462
咠	-10463
叨	-10464
囎	-10465
嘖	-10466
嗢	-10467
哱	-10468
卼	-10469
噸	-10470
傽	-10471
嘝	-10472
圩	-10473
囪	-10474
嫑	-10475
凧	-10476
嚨	-10477
坃	-10478
僢	-10479
凿	-10480
唞	-10481
喾	-10482
坚	-10483
剼	-10484
嘕	-10485
劸	-10486
唫	-10487
喧	-10488
坨	-10489
员	-10490
哣	-10491
嚴	-10492
吢	-10493
凓	-10494
塤	-10495
奒	-10496
尤	-10497
俳	-10498
嗲	-10499
味	-10500
商	-10501
嗁	-10502
嗚	-10503
埰	-10504
変	-10505
匞	-10506
囓	-10507
嗔	-10508
儱	-10509
呿	-10510
囐	-10511
埐	-10512
层	-10513
叅	-10514
堲	-10515
嫈	-10516
嫸	-10517
啇	-10518
啧	-10519
埞	-10520
媩	-10521
吨	-10522
壳	-10523
嘷	-10524
坙	-10525
劂	-10526
哯	-10527
囧	-10528
幓	-10529
厽	-10530
嗖	-10531
势	-10532
呰	-10533
唜	-10534
劌	-10535
吆	-10536
嗯	-10537
奬	-10538
嶗	-10539
刦	-10540
哗	-10541
岴	-10542
則	-10543
僨	-10544
凉	-10545
坔	-10546
嘹	-10547
堊	-10548
傂	-10549
召	-10550
嗅	-10551
奷	-10552
卟	-10553
呍	-10554
因	-10555
垣	-10556
冯	-10557
営	-10558
吱	-10559
妧	-10560
媵	-10561
咋	-10562
嘓	-10563
埵	-10564
嬇	-10565
冖	-10566
厮	-10567
墫	-10568
咞	-10569
国	-10570
塛	-10571
妆	-10572
嗕	-10573
嫵	-10574
刬	-10575
咒	-10576
咦	-10577
囏	-10578
壤	-10579
娦	-10580
嵳	-10581
吣	-10582
哇	-10583
塡	-10584
孜	-10585
恧	-10586
~	-10587
叏	-10588
夐	-10589
妋	-10590
恡	-10591
嚃	-10592
恨	-10593
咙	-10594
唡	-10595
嗄	-10596
埨	-10597
執	-10598
媲	-10599
剺	-10600
号	-10601
呃	-10602
墅	-10603
刂	-10604
呭	-10605
囖	-10606
兘	-10607
唾	-10608
堇	-10609
奣	-10610
姥	-10611
唏	-10612
佗	-10613
夷	-10614
卾	-10615
垌	-10616
嗵	-10617
嘎	-10618
嚾	-10619
妭	-10620
垀	-10621
妁	-10622
姃	-10623
凲	-10624
剭	-10625
園	-10626
傜	-10627
凤	-10628
周	-10629
囂	-10630
埊	-10631
劁	-10632
呌	-10633
埯	-10634
喭	-10635
墲	-10636
嚳	-10637
孹	-10638
崰	-10639
憊	-10640
哸	-10641
嘑	-10642
囨	-10643
妲	-10644
媆	-10645
冏	-10646
刘	-10647
剽	-10648
唎	-10649
嚠	-10650
壚	-10651
壻	-10652
多	-10653
剂	-10654
刃	-10655
塆	-10656
剹	-10657
嗠	-10658
噐	-10659
唃	-10660
准	-10661
厸	-10662
噦	-10663
壟	-10664
射	-10665
圑	-10666
壙	-10667
崘	-10668
几	-10669
叱	-10670
叾	-10671
咰	-10672
喒	-10673
夭	-10674
嶞	-10675
怌	-10676
敲	-10677
曏	-10678
啬	-10679
悄	-10680
啋	-10681
噌	-10682
圮	-10683
塉	-10684
兖	-10685
各	-10686
唗	-10687
嘌	-10688
場	-10689
優	-10690
厠	-10691
变	-10692
嘫	-10693
士	-10694
帽	-10695
吥	-10696
唊	-10697
塯	-10698
好	-10699
博	-10700
呐	-10701
啩	-10702
嬠	-10703
山	-10704
冾	-10705
和	-10706
嚏	-10707
圞	-10708
圹	-10709
媡	-10710
嬧	-10711
呎	-10712
咭	-10713
哳	-10714
噑	-10715
夋	-10716
峦	-10717
刏	-10718
喁	-10719
埭	-10720
奙	-10721
寧	-10722
兌	-10723
剿	-10724
嘆	-10725
坄	-10726
塟	-10727
倩	-10728
嗰	-10729
槐	-10730
剮	-10731
匎	-10732
呵	-10733
哋	-10734
啦	-10735
埓	-10736
吧	-10737
咹	-10738
婚	-10739
察	-10740
寶	-10741
叶	-10742
吽	-10743
咽	-10744
唤	-10745
塋	-10746
全	-10747
冬	-10748
刳	-10749
圣	-10750
垻	-10751
墒	-10752
嫤	-10753
廕	-10754
圿	-10755
堡	-10756
呯	-10757
啱	-10758
垑	-10759
堤	-10760
唺	-10761
堁	-10762
媊	-10763
孙	-10764
嶆	-10765
燀	-10766
咊	-10767
喜	-10768
开	-10769
砭	-10770
劾	-10771
嘒	-10772
噜	-10773
垡	-10774
慨	-10775
利	-10776
吕	-10777
吼	-10778
呕	-10779
哫	-10780
將	-10781
惣	-10782
努	-10783
坦	-10784
壼	-10785
撏	-10786
傼	-10787
呗	-10788
嚶	-10789
図	-10790
圴	-10791
垗	-10792
愿	-10793
咎	-10794
嫾	-10795
幆	-10796
受	-10797
哾	-10798
坭	-10799
堦	-10800
叞	-10801
哟	-10802
囒	-10803
圈	-10804
哉	-10805
喤	-10806
垵	-10807
妈	-10808
儺	-10809
匏	-10810
嘥	-10811
團	-10812
坾	-10813
呔	-10814
喟	-10815
嚔	-10816
圕	-10817
埘	-10818
墄	-10819
墱	-10820
姟	-10821
媀	-10822
嫜	-10823
导	-10824
岛	-10825
仲	-10826
匿	-10827
喘	-10828
噒	-10829
堪	-10830
媷	-10831
劗	-10832
否	-10833
哺	-10834
喈	-10835
喦	-10836
嚓	-10837
妠	-10838
妵	-10839
効	-10840
哞	-10841
噕	-10842
堵	-10843
崶	-10844
帓	-10845
剸	-10846
叕	-10847
吂	-10848
呪	-10849
墁	-10850
婬	-10851
婋	-10852
卦	-10853
咸	-10854
唧	-10855
啫	-10856
巓	-10857
匯	-10858
咑	-10859
圃	-10860
妌	-10861
刿	-10862
啎	-10863
圫	-10864
墩	-10865
屃	-10866
傑	-10867
儮	-10868
升	-10869
吺	-10870
嗛	-10871
嘀	-10872
埩	-10873
圼	-10874
婺	-10875
慺	-10876
叹	-10877
哬	-10878
圖	-10879
壏	-10880
寏	-10881
帥	-10882
俷	-10883
兲	-10884
吿	-10885
嗞	-10886
垠	-10887
夌	-10888
媟	-10889
媢	-10890
嫔	-10891
孖	-10892
峐	-10893
峨	-10894
僩	-10895
内	-10896
劒	-10897
匐	-10898
厪	-10899
喯	-10900
坊	-10901
厥	-10902
囑	-10903
妽	-10904
姛	-10905
孌	-10906
尛	-10907
堬	-10908
@	-10909
價	-10910
啂	-10911
嘠	-10912
噀	-10913
噰	-10914
嚗	-10915
嚤	-10916
埬	-10917
堾	-10918
嬚	-10919
尲	-10920
兊	-10921
剾	-10922
匔	-10923
嚍	-10924
型	-10925
墌	-10926
墾	-10927
夦	-10928
悥	-10929
囶	-10930
岊	-10931
峠	-10932
嶻	-10933
働	-10934
厲	-10935
唋	-10936
唝	-10937
噧	-10938
列	-10939
剝	-10940
台	-10941
嗈	-10942
噃	-10943
媧	-10944
対	-10945
岣	-10946
廃	-10947
原	-10948
夔	-10949
媌	-10950
幊	-10951
偅	-10952
哶	-10953
囘	-10954
塎	-10955
墳	-10956
墺	-10957
搊	-10958
勎	-10959
咫	-10960
哀	-10961
唳	-10962
娥	-10963
媤	-10964
峭	-10965
咯	-10966
嗜	-10967
均	-10968
孔	-10969
匤	-10970
唵	-10971
啔	-10972
噁	-10973
堀	-10974
堨	-10975
夂	-10976
夛	-10977
奟	-10978
嫀	-10979
尪	-10980
就	-10981
帜	-10982
抛	-10983
劻	-10984
咺	-10985
唙	-10986
域	-10987
孊	-10988
强	-10989
揠	-10990
吋	-10991
唖	-10992
喚	-10993
嘾	-10994
坌	-10995
夏	-10996
尰	-10997
弎	-10998
悈	-10999
司	-11000
姣	-11001
崇	-11002
卬	-11003
喎	-11004
嚩	-11005
埙	-11006
塮	-11007
姶	-11008
婿	-11009
嫌	-11010
弋	-11011
叡	-11012
啼	-11013
喹	-11014
坬	-11015
塀	-11016
婈	-11017
孒	-11018
刭	-11019
勍	-11020
吚	-11021
嗤	-11022
嘡	-11023
噊	-11024
囅	-11025
埈	-11026
夨	-11027
嫮	-11028
峬	-11029
嵈	-11030
巺	-11031
帢	-11032
府	-11033
刎	-11034
劰	-11035
嗾	-11036
噺	-11037
垃	-11038
垄	-11039
姎	-11040
峉	-11041
怬	-11042
兞	-11043
句	-11044
噣	-11045
埥	-11046
堿	-11047
塳	-11048
妊	-11049
妛	-11050
婯	-11051
孧	-11052
庩	-11053
廡	-11054
兏	-11055
厔	-11056
呆	-11057
唸	-11058
喆	-11059
喏	-11060
堅	-11061
塇	-11062
嬙	-11063
帛	-11064
愬	-11065
劓	-11066
吃	-11067
哑	-11068
嗐	-11069
囟	-11070
堂	-11071
墨	-11072
徘	-11073
嘙	-11074
嚚	-11075
囙	-11076
声	-11077
巠	-11078
怛	-11079
刼	-11080
卶	-11081
厞	-11082
厦	-11083
嗶	-11084
堼	-11085
妉	-11086
姏	-11087
姐	-11088
姲	-11089
嵥	-11090
彞	-11091
匦	-11092
吅	-11093
嗝	-11094
嘿	-11095
嚇	-11096
墈	-11097
墑	-11098
壣	-11099
媱	-11100
嫽	-11101
崂	-11102
毻	-11103
匜	-11104
噹	-11105
嚷	-11106
垮	-11107
埴	-11108
堯	-11109
墹	-11110
壛	-11111
夊	-11112
娓	-11113
娕	-11114
後	-11115
渵	-11116
励	-11117
勌	-11118
唚	-11119
娅	-11120
娵	-11121
廳	-11122
恜	-11123
愥	-11124
剀	-11125
哈	-11126
哴	-11127
唐	-11128
嚮	-11129
坧	-11130
堷	-11131
塥	-11132
塨	-11133
夠	-11134
央	-11135
媠	-11136
岡	-11137
慐	-11138
攓	-11139
勊	-11140
厖	-11141
囷	-11142
圪	-11143
坷	-11144
姊	-11145
娸	-11146
婞	-11147
屖	-11148
屯	-11149
懍	-11150
摚	-11151
暩	-11152
柍	-11153
剎	-11154
噢	-11155
囈	-11156
坒	-11157
堆	-11158
塩	-11159
妷	-11160
媪	-11161
孷	-11162
岀	-11163
崝	-11164
厱	-11165
叿	-11166
喰	-11167
委	-11168
尡	-11169
屆	-11170
廲	-11171
恲	-11172
抎	-11173
充	-11174
卋	-11175
厴	-11176
塔	-11177
夳	-11178
嬒	-11179
寅	-11180
寽	-11181
尯	-11182
惺	-11183
儞	-11184
兵	-11185
冒	-11186
匚	-11187
匠	-11188
嘨	-11189
噠	-11190
嚫	-11191
圚	-11192
塙	-11193
夶	-11194
婥	-11195
嫷	-11196
嬘	-11197
嬳	-11198
峳	-11199
彟	-11200
彸	-11201
凕	-11202
剃	-11203
卒	-11204
唶	-11205
嘚	-11206
囡	-11207
堓	-11208
墮	-11209
媶	-11210
嬬	-11211
定	-11212
寞	-11213
屔	-11214
巘	-11215
弨	-11216
氫	-11217
瀁	-11218
六	-11219
勄	-11220
噇	-11221
垈	-11222
壠	-11223
壥	-11224
备	-11225
奕	-11226
妮	-11227
岿	-11228
峲	-11229
徇	-11230
剒	-11231
华	-11232
呖	-11233
嚝	-11234
囆	-11235
坫	-11236
埇	-11237
岖	-11238
峒	-11239
庉	-11240
惒	-11241
敎	-11242
剘	-11243
匘	-11244
匫	-11245
協	-11246
喢	-11247
垨	-11248
埖	-11249
墍	-11250
夵	-11251
媓	-11252
嫘	-11253
嫶	-11254
嫻	-11255
屛	-11256
岽	-11257
怾	-11258
悢	-11259
慏	-11260
懨	-11261
兣	-11262
厘	-11263
唍	-11264
啘	-11265
嘵	-11266
堔	-11267
夙	-11268
姀	-11269
姌	-11270
姯	-11271
嫚	-11272
廓	-11273
弻	-11274
從	-11275
怲	-11276
拍	-11277
掫	-11278
匕	-11279
厡	-11280
呀	-11281
唼	-11282
嗪	-11283
圉	-11284
孟	-11285
巌	-11286
廂	-11287
斴	-11288
傺	-11289
剴	-11290
哆	-11291
圲	-11292
堝	-11293
奨	-11294
姸	-11295
娘	-11296
婡	-11297
嫼	-11298
嬷	-11299
庼	-11300
徏	-11301
怐	-11302
態	-11303
傛	-11304
咆	-11305
噽	-11306
嚌	-11307
团	-11308
垟	-11309
垼	-11310
埅	-11311
娄	-11312
娊	-11313
廬	-11314
延	-11315
掎	-11316
儊	-11317
凣	-11318
勃	-11319
嘁	-11320
壑	-11321
嬔	-11322
孴	-11323
崸	-11324
巐	-11325
幑	-11326
惴	-11327
擿	-11328
傐	-11329
冼	-11330
叐	-11331
啺	-11332
喔	-11333
噯	-11334
埂	-11335
埝	-11336
墪	-11337
夝	-11338
妡	-11339
妦	-11340
嫂	-11341
嫺	-11342
嫿	-11343
嬛	-11344
孝	-11345
幔	-11346
狼	-11347
冰	-11348
却	-11349
嘐	-11350
嚐	-11351
坋	-11352
埣	-11353
堹	-11354
媎	-11355
嫄	-11356
孮	-11357
官	-11358
帑	-11359
怗	-11360
憈	-11361
刔	-11362
嘴	-11363
囸	-11364
圳	-11365
圶	-11366
堍	-11367
屵	-11368
峀	-11369
弸	-11370
悚	-11371
慾	-11372
揵	-11373
撋	-11374
曗	-11375
十	-11376
卄	-11377
吒	-11378
哿	-11379
嘞	-11380
囌	-11381
园	-11382
坮	-11383
堧	-11384
塗	-11385
墤	-11386
壶	-11387
夺	-11388
屦	-11389
岠	-11390
忈	-11391
搞	-11392
摙	-11393
擺	-11394
兦	-11395
劔	-11396
匙	-11397
吶	-11398
嚯	-11399
囤	-11400
圯	-11401
埉	-11402
塊	-11403
墆	-11404
妤	-11405
岕	-11406
峊	-11407
嶢	-11408
帐	-11409
廘	-11410
彲	-11411
忮	-11412
悰	-11413
慕	-11414
朵	-11415
咏	-11416
咘	-11417
咪	-11418
單	-11419
喻	-11420
坏	-11421
垭	-11422
堢	-11423
将	-11424
尢	-11425
摶	-11426
擉	-11427
攂	-11428
椷	-11429
刹	-11430
勅	-11431
呧	-11432
呹	-11433
啍	-11434
啖	-11435
嚹	-11436
垸	-11437
堘	-11438
婩	-11439
嬨	-11440
宑	-11441
尨	-11442
屮	-11443
峴	-11444
嶖	-11445
嶺	-11446
吟	-11447
哩	-11448
啓	-11449
喼	-11450
囝	-11451
圍	-11452
塍	-11453
墧	-11454
壵	-11455
头	-11456
岫	-11457
峡	-11458
崭	-11459
征	-11460
慔	-11461
戞	-11462
挲	-11463
皠	-11464
删	-11465
剡	-11466
區	-11467
去	-11468
叓	-11469
嚺	-11470
圐	-11471
基	-11472
堥	-11473
妨	-11474
寲	-11475
尹	-11476
峧	-11477
怶	-11478
惮	-11479
檵	-11480
匬	-11481
嗃	-11482
噫	-11483
囥	-11484
圬	-11485
埍	-11486
堟	-11487
墏	-11488
壸	-11489
外	-11490
奤	-11491
娝	-11492
嫱	-11493
寪	-11494
屓	-11495
巷	-11496
愛	-11497
愶	-11498
凘	-11499
凨	-11500
咿	-11501
唟	-11502
喨	-11503
嗷	-11504
噴	-11505
囕	-11506
圻	-11507
垱	-11508
塐	-11509
姿	-11510
娎	-11511
寳	-11512
少	-11513
峚	-11514
愑	-11515
凈	-11516
劤	-11517
吝	-11518
咼	-11519
哔	-11520
嘗	-11521
圝	-11522
堐	-11523
堮	-11524
壈	-11525
尥	-11526
巙	-11527
巻	-11528
忣	-11529
惜	-11530
愓	-11531
掬	-11532
摠	-11533
摵	-11534
勉	-11535
历	-11536
呺	-11537
啨	-11538
噘	-11539
器	-11540
囮	-11541
圧	-11542
坅	-11543
垉	-11544
塃	-11545
塚	-11546
墉	-11547
复	-11548
妇	-11549
娨	-11550
娰	-11551
娹	-11552
嫝	-11553
嬈	-11554
嬹	-11555
對	-11556
尒	-11557
尵	-11558
屇	-11559
嶘	-11560
当	-11561
徨	-11562
憻	-11563
掐	-11564
曾	-11565
加	-11566
哹	-11567
垙	-11568
堚	-11569
壬	-11570
壷	-11571
姼	-11572
娍	-11573
婑	-11574
嬄	-11575
尘	-11576
庡	-11577
廁	-11578
廖	-11579
恇	-11580
愍	-11581
拵	-11582
捰	-11583
杞	-11584
椸	-11585
漒	-11586
牓	-11587
劏	-11588
劣	-11589
哒	-11590
唢	-11591
啵	-11592
啻	-11593
嗦	-11594
坁	-11595
塁	-11596
姬	-11597
姻	-11598
娱	-11599
婴	-11600
崢	-11601
嵘	-11602
廔	-11603
归	-11604
戇	-11605
摼	-11606
冢	-11607
匡	-11608
匨	-11609
呋	-11610
咍	-11611
喠	-11612
噬	-11613
嚪	-11614
坼	-11615
垅	-11616
埒	-11617
報	-11618
墽	-11619
夑	-11620
夬	-11621
娫	-11622
娷	-11623
婠	-11624
嫭	-11625
寷	-11626
尦	-11627
岐	-11628
峓	-11629
崣	-11630
嶭	-11631
巋	-11632
巏	-11633
巗	-11634
彼	-11635
怷	-11636
悇	-11637
拶	-11638
搝	-11639
擐	-11640
攣	-11641
傭	-11642
勛	-11643
唰	-11644
善	-11645
嘊	-11646
墯	-11647
夤	-11648
妣	-11649
娋	-11650
婛	-11651
嫕	-11652
寇	-11653
屩	-11654
峯	-11655
嵙	-11656
嶼	-11657
巁	-11658
巡	-11659
巨	-11660
帾	-11661
幢	-11662
庠	-11663
彴	-11664
彵	-11665
悙	-11666
僶	-11667
剦	-11668
劽	-11669
勐	-11670
吀	-11671
吤	-11672
咾	-11673
哵	-11674
啛	-11675
啢	-11676
噉	-11677
噚	-11678
嚡	-11679
垞	-11680
妒	-11681
姗	-11682
婗	-11683
婝	-11684
婭	-11685
嫡	-11686
嫴	-11687
嬅	-11688
嬴	-11689
季	-11690
寔	-11691
崙	-11692
嶇	-11693
巑	-11694
御	-11695
恦	-11696
悫	-11697
戆	-11698
抌	-11699
旄	-11700
枊	-11701
劈	-11702
劼	-11703
勋	-11704
卥	-11705
卸	-11706
咜	-11707
啊	-11708
啙	-11709
圏	-11710
圛	-11711
坐	-11712
埮	-11713
墶	-11714
売	-11715
夒	-11716
奓	-11717
奩	-11718
妸	-11719
姨	-11720
姳	-11721
婘	-11722
婳	-11723
宄	-11724
宓	-11725
宖	-11726
屨	-11727
崫	-11728
帨	-11729
庛	-11730
彐	-11731
徟	-11732
忊	-11733
忍	-11734
念	-11735
恃	-11736
愡	-11737
愾	-11738
扆	-11739
找	-11740
搉	-11741
攑	-11742
敵	-11743
栖	-11744
刓	-11745
劋	-11746
勏	-11747
匪	-11748
卧	-11749
叫	-11750
啉	-11751
嘘	-11752
圁	-11753
圽	-11754
垳	-11755
垶	-11756
塕	-11757
塵	-11758
壃	-11759
夀	-11760
奎	-11761
奢	-11762
娜	-11763
娶	-11764
媰	-11765
嬕	-11766
寫	-11767
封	-11768
屳	-11769
峽	-11770
嶱	-11771
庳	-11772
彈	-11773
忎	-11774
忘	-11775
怡	-11776
恎	-11777
捾	-11778
摧	-11779
旕	-11780
杓	-11781
儰	-11782
凜	-11783
勁	-11784
叒	-11785
唲	-11786
啡	-11787
喪	-11788
嗫	-11789
嘍	-11790
噖	-11791
噞	-11792
嚬	-11793
囲	-11794
圸	-11795
堉	-11796
墐	-11797
壺	-11798
契	-11799
妟	-11800
娂	-11801
婙	-11802
尫	-11803
峋	-11804
嵞	-11805
嶹	-11806
庌	-11807
弧	-11808
怺	-11809
愇	-11810
撾	-11811
旃	-11812
昩	-11813
樒	-11814
呞	-11815
噵	-11816
圗	-11817
垽	-11818
壿	-11819
奐	-11820
娔	-11821
娪	-11822
嫫	-11823
嬆	-11824
屟	-11825
屿	-11826
弉	-11827
彠	-11828
彣	-11829
徕	-11830
忯	-11831
怚	-11832
总	-11833
惀	-11834
慖	-11835
慦	-11836
戂	-11837
戝	-11838
挅	-11839
斎	-11840
旛	-11841
昷	-11842
曯	-11843
溌	-11844
溤	-11845
灁	-11846
劦	-11847
匌	-11848
卌	-11849
唨	-11850
嘣	-11851
噓	-11852
埃	-11853
塽	-11854
媒	-11855
嫢	-11856
嫯	-11857
嬺	-11858
孕	-11859
寭	-11860
尴	-11861
岷	-11862
峹	-11863
崷	-11864
巜	-11865
幈	-11866
庆	-11867
庑	-11868
廱	-11869
怋	-11870
悉	-11871
惚	-11872
憤	-11873
抢	-11874
暅	-11875
曇	-11876
朓	-11877
框	-11878
母	-11879
滞	-11880
刵	-11881
劍	-11882
勑	-11883
匢	-11884
哪	-11885
嚘	-11886
埜	-11887
埸	-11888
塘	-11889
夕	-11890
失	-11891
威	-11892
婵	-11893
媗	-11894
媹	-11895
嬥	-11896
嬭	-11897
宎	-11898
尟	-11899
屍	-11900
崈	-11901
巊	-11902
幡	-11903
庤	-11904
弣	-11905
弹	-11906
忛	-11907
怤	-11908
悅	-11909
悛	-11910
扱	-11911
抵	-11912
抺	-11913
拉	-11914
揂	-11915
攚	-11916
敹	-11917
斳	-11918
旀	-11919
曩	-11920
曫	-11921
朩	-11922
杻	-11923
枌	-11924
猊	-11925
的	-11926
傚	-11927
傯	-11928
勂	-11929
勖	-11930
呷	-11931
哏	-11932
喐	-11933
噥	-11934
囄	-11935
圄	-11936
壝	-11937
夈	-11938
天	-11939
姇	-11940
姍	-11941
婮	-11942
婹	-11943
媑	-11944
媯	-11945
嫍	-11946
學	-11947
尀	-11948
尕	-11949
尻	-11950
岝	-11951
岼	-11952
峮	-11953
嶪	-11954
帤	-11955
幁	-11956
幉	-11957
徜	-11958
戺	-11959
扭	-11960
拒	-11961
捚	-11962
敖	-11963
昺	-11964
朇	-11965
潼	-11966
熣	-11967
军	-11968
勆	-11969
勘	-11970
啞	-11971
嚵	-11972
埾	-11973
堺	-11974
墎	-11975
墵	-11976
壁	-11977
壐	-11978
壔	-11979
奡	-11980
奾	-11981
妬	-11982
婍	-11983
嬎	-11984
宣	-11985
寰	-11986
寿	-11987
尊	-11988
屻	-11989
嵌	-11990
嵒	-11991
嶝	-11992
巪	-11993
庘	-11994
庢	-11995
弢	-11996
