<unk>	0
<s>	0
</s>	0
்க	-0
்த	-1
ம்	-2
ன்	-3
ல்	-4
▁ப	-5
்ட	-6
ப்	-7
▁க	-8
▁ம	-9
க்க	-10
ும்	-11
ர்	-12
ிய	-13
▁இ	-14
ப்ப	-15
▁த	-16
த்த	-17
▁வ	-18
▁அ	-19
ள்	-20
ில்	-21
ட்ட	-22
து	-23
▁ச	-24
ரு	-25
ந்த	-26
▁ந	-27
ின்	-28
ற்	-29
ைய	-30
ாக	-31
▁ஆ	-32
ங்க	-33
▁எ	-34
ற்ற	-35
டு	-36
ண்ட	-37
▁உ	-38
ில	-39
ிற	-40
்ச	-41
ள்ள	-42
ிர	-43
ிக	-44
ான	-45
ன்ற	-46
ுத	-47
ார்	-48
ுக	-49
ர்க	-50
ிக்க	-51
▁ஒ	-52
ுக்க	-53
ந்து	-54
ைக	-55
ுற	-56
ரா	-57
டி	-58
ிரு	-59
ின	-60
ாவ	-61
▁1	-62
ுவ	-63
▁செ	-64
ப்பட்ட	-65
த்	-66
▁தொ	-67
▁பெ	-68
மை	-69
▁கா	-70
லை	-71
▁(	-72
ரி	-73
▁வி	-74
ன்ப	-75
த்தில்	-76
▁இந்த	-77
▁கொ	-78
▁இரு	-79
ால்	-80
ளை	-81
ாட்ட	-82
டுக	-83
ல்ல	-84
ச்ச	-85
▁போ	-86
▁மற்ற	-87
▁ஒரு	-88
ளில்	-89
ய்	-90
ட்ச	-91
▁உள்ள	-92
▁மு	-93
▁2	-94
▁இவ	-95
ண்டு	-96
▁மற்றும்	-97
ார	-98
ன்ன	-99
ம்ப	-100
ிறது	-101
ிவ	-102
ால	-103
ின்ற	-104
ாத	-105
ுட	-106
மி	-107
ஸ்	-108
ண்	-109
▁அவ	-110
▁ஆக	-111
ப்பட	-112
ழ்	-113
ற்க	-114
ப்பு	-115
▁ஊ	-116
▁என்ற	-117
க்	-118
▁வெ	-119
டுத்த	-120
ிட	-121
ச்	-122
று	-123
ுள்ள	-124
▁கோ	-125
குத	-126
▁"	-127
லா	-128
▁அமை	-129
னர்	-130
▁அத	-131
மாக	-132
ுக்கு	-133
ையில்	-134
ரை	-135
தி	-136
ர்கள்	-137
▁மே	-138
க்கு	-139
ைக்	-140
ளின்	-141
▁19	-142
ட்	-143
▁பொ	-144
ற்ப	-145
டை	-146
▁ஏ	-147
▁மா	-148
▁கு	-149
▁பா	-150
வு	-151
▁பிர	-152
ித்த	-153
▁குற	-154
▁20	-155
ட்சி	-156
▁தே	-157
ரும்	-158
▁முத	-159
மான	-160
ட்டு	-161
ப்படுக	-162
வா	-163
▁என்ப	-164
ரிய	-165
ங்கள்	-166
ான்	-167
▁என	-168
வும்	-169
▁தமி	-170
▁வே	-171
ியில்	-172
ையும்	-173
ாள	-174
த்தின்	-175
▁இத	-176
▁செய	-177
▁அற	-178
ிப்ப	-179
ரச	-180
▁பய	-181
ங்கள	-182
▁ஊரா	-183
▁மூ	-184
▁திரு	-185
்கள்	-186
▁பு	-187
ாகும்	-188
வி	-189
▁கூ	-190
▁நா	-191
▁மக்க	-192
▁சே	-193
வை	-194
▁வா	-195
னை	-196
த்து	-197
▁இது	-198
ழு	-199
யில்	-200
வே	-201
ிலும்	-202
த்தை	-203
▁தொட	-204
▁பே	-205
▁ஜ	-206
ிற்க	-207
வர்	-208
▁பல	-209
▁ஊராட்சி	-210
ியல்	-211
▁ஆண்ட	-212
க்கும்	-213
▁வழ	-214
ூர்	-215
டிய	-216
▁இந்திய	-217
கை	-218
மா	-219
▁கொண்ட	-220
வில்	-221
க்கோ	-222
▁சு	-223
ித	-224
நில	-225
▁நில	-226
ிட்ட	-227
ந்துள்ள	-228
▁இய	-229
பு	-230
ிகள்	-231
ர்த	-232
ர்கள	-233
▁மொ	-234
ண்ண	-235
ிகள	-236
▁நீ	-237
சிய	-238
▁தமிழ்	-239
▁ஆகும்	-240
ைகள்	-241
▁து	-242
▁வெள	-243
▁அல்ல	-244
ின்றன	-245
ுகள்	-246
▁இர	-247
ன்று	-248
சு	-249
ப்படுகிறது	-250
ாம	-251
ைக்க	-252
▁நிற	-253
ர்ந்த	-254
ஞ்ச	-255
▁ஆம்	-256
▁தெ	-257
கு	-258
ாவட்ட	-259
▁நட	-260
மைய	-261
▁சிற	-262
▁இட	-263
▁அமைந்துள்ள	-264
ுடன்	-265
ப்பட்டது	-266
▁மீ	-267
ப்பாட்ட	-268
▁பின்	-269
ர்வ	-270
▁ட	-271
ையின்	-272
ராக	-273
▁நூ	-274
▁201	-275
லி	-276
ரோ	-277
▁மாவட்ட	-278
▁ஆகிய	-279
▁உரு	-280
▁கரு	-281
00	-282
பா	-283
ிக்	-284
▁இருந்த	-285
ற்று	-286
▁அரச	-287
பெ	-288
▁பயன்ப	-289
ங்கு	-290
▁என்பது	-291
ப்படும்	-292
▁திர	-293
▁கி	-294
▁ஆண்டு	-295
தாக	-296
ய்ய	-297
ுத்	-298
ுறை	-299
லக	-300
▁பி	-301
நா	-302
▁பகுத	-303
▁தொகுத	-304
▁அல்லது	-305
கர	-306
▁ஐ	-307
லம்	-308
▁கண	-309
▁பிற	-310
ங்களில்	-311
▁தன	-312
ுக்	-313
▁கொண்டு	-314
▁உள்ளது	-315
ற்கு	-316
▁அம	-317
▁சம	-318
▁இல	-319
▁இவர்	-320
ிருந்து	-321
▁வள	-322
▁ஓ	-323
ம்ம	-324
ிக்கும்	-325
▁சி	-326
ணை	-327
▁ய	-328
ல்க	-329
ிருந்த	-330
▁மக்கள்	-331
ியின்	-332
▁மிக	-333
ியாக	-334
ிற்கு	-335
▁அள	-336
சி	-337
ாம்	-338
யில	-339
சை	-340
போ	-341
லும்	-342
▁போன்ற	-343
ொரு	-344
▁விள	-345
▁இக்கோ	-346
ுகள	-347
ியா	-348
▁கட	-349
▁என்று	-350
ெடு	-351
▁உய	-352
an	-353
▁பொரு	-354
▁அதிக	-355
▁பூ	-356
ைகள	-357
▁பெற்ற	-358
ணி	-359
▁தலை	-360
▁முதல்	-361
ருக	-362
ரவ	-363
ாக்க	-364
▁இருந்து	-365
▁சில	-366
ுள்ளது	-367
▁ஹ	-368
ையை	-369
னால்	-370
ஆம்	-371
▁("	-372
▁7	-373
),	-374
▁வர	-375
ர்த்த	-376
▁செய்த	-377
▁3	-378
ரம்	-379
ரிக்க	-380
▁கால	-381
த்திர	-382
▁என்ன	-383
▁அழ	-384
▁செய்ய	-385
ப்பின	-386
▁பட்ட	-387
▁குறிப்ப	-388
வாக	-389
வத	-390
ரின்	-391
▁கிர	-392
ரில்	-393
▁ல	-394
ஸ்ட	-395
மே	-396
்வ	-397
▁சட்ட	-398
▁200	-399
▁தோ	-400
▁பெய	-401
▁கீ	-402
லாம்	-403
▁வீ	-404
நாட்ட	-405
க்கிய	-406
ைப்பட	-407
▁கட்ட	-408
விய	-409
ிலிருந்து	-410
▁ர	-411
▁இற	-412
ாய	-413
▁பட	-414
ர்க்க	-415
▁பயன்படுத்த	-416
லில்	-417
▁சூ	-418
▁இல்	-419
ாண்ட	-420
ழி	-421
▁போட்ட	-422
ும்ப	-423
ர்ச்ச	-424
▁நிறுவ	-425
▁காண	-426
▁நி	-427
▁நே	-428
▁தீ	-429
▁என்னும்	-430
ினார்	-431
ிம	-432
ின்றது	-433
▁நோ	-434
▁உட	-435
ாவின்	-436
பட்ட	-437
▁ஒன்ற	-438
லிய	-439
▁ஏற்ப	-440
ரண	-441
▁சொ	-442
டிவ	-443
ங்களை	-444
ினை	-445
தை	-446
▁வெளிய	-447
மன்ற	-448
ேச	-449
▁முக்க	-450
at	-451
ின்றனர்	-452
படி	-453
▁கோயில்	-454
ண்கள்	-455
கா	-456
▁தொடர்	-457
ியை	-458
டித்த	-459
ேய	-460
ழ்க	-461
▁ஈ	-462
▁5	-463
ர்களின்	-464
ாலும்	-465
▁பத	-466
▁மேலும்	-467
ர்ம	-468
▁கூற	-469
▁ரா	-470
▁பொது	-471
▁கல	-472
ண்டும்	-473
▁அண	-474
ானது	-475
ழக	-476
▁-	-477
ப்பா	-478
▁மெ	-479
ுகிறது	-480
த்திய	-481
▁நகர	-482
▁4	-483
த்துவ	-484
▁அட	-485
▁மொத்த	-486
▁முக்கிய	-487
▁சீ	-488
ிகளில்	-489
▁கே	-490
▁உறு	-491
▁சா	-492
▁குட	-493
▁கட்டு	-494
▁அவர்	-495
▁பர	-496
▁18	-497
▁தொகை	-498
ரது	-499
்கள	-500
ையாக	-501
▁மாத	-502
▁துடு	-503
ப்பட்டுள்ளது	-504
பி	-505
▁கொண்டுள்ள	-506
▁தமிழ்நாட்ட	-507
▁உருவா	-508
▁நடை	-509
▁குழ	-510
▁திரைப்பட	-511
ளி	-512
ாவில்	-513
ுவத	-514
▁சேர்ந்த	-515
▁மக்கள	-516
ல்ப	-517
▁நூற்ற	-518
▁உலக	-519
▁துடுப்பாட்ட	-520
னி	-521
ரே	-522
▁முன்ன	-523
▁நிக	-524
ற்றி	-525
ிறார்	-526
ப்பத	-527
er	-528
திர	-529
வற்ற	-530
மும்	-531
ந்திர	-532
▁சோ	-533
▁வரை	-534
:.	-535
▁ஆவ	-536
்த்த	-537
ிக்கு	-538
▁பாட	-539
▁அடி	-540
).	-541
ப்படுத்த	-542
▁வழங்க	-543
▁பண	-544
ங்	-545
▁வந்த	-546
▁முற	-547
ருக்கு	-548
▁அக	-549
▁நிறுவன	-550
ழுத	-551
ிவு	-552
ெரிக்க	-553
த்திற்கு	-554
am	-555
▁ஆண்டில்	-556
▁இருக்க	-557
ங்கில	-558
▁கல்	-559
ஷ்	-560
ற்றிய	-561
ாவது	-562
டும்	-563
ைகளை	-564
க்கப்பட்ட	-565
▁மன	-566
▁பெரும்	-567
ப்பின்	-568
▁வக	-569
▁அமைந்துள்ளது	-570
▁மக	-571
▁உறுப்பின	-572
on	-573
▁அந்த	-574
▁பெரு	-575
▁அமெரிக்க	-576
▁நாட்ட	-577
▁இதன்	-578
▁தி	-579
▁உள்ளன	-580
▁குறை	-581
▁மன்ற	-582
▁இரா	-583
ுறையின்	-584
▁சிவ	-585
▁இக்கோயில்	-586
▁காரண	-587
க்கம்	-588
ருட	-589
திய	-590
▁வை	-591
al	-592
▁மாநில	-593
ப்பாட்டில்	-594
▁நூற்றாண்ட	-595
▁6	-596
ர்களை	-597
▁நெ	-598
in	-599
▁வகை	-600
க்கூ	-601
யா	-602
▁பின்னர்	-603
வெ	-604
▁முதன்	-605
ைப்	-606
ar	-607
▁இருக்கும்	-608
ுக்கும்	-609
▁எழு	-610
சா	-611
▁வட	-612
த்தி	-613
▁விர	-614
ெய	-615
▁வட்ட	-616
ப்போ	-617
▁எழுத	-618
ுடைய	-619
▁அமைப்ப	-620
▁உட்	-621
ப்படுகின்றன	-622
கம்	-623
்கு	-624
▁மூலம்	-625
ிருக்க	-626
▁நாட	-627
ஸ்த	-628
▁அறிவ	-629
ைச்	-630
or	-631
▁கணக்க	-632
▁தொழ	-633
ணம்	-634
▁மரு	-635
்ச்ச	-636
▁சார்	-637
ட்டி	-638
கவ	-639
▁உண	-640
▁மாவட்டம்	-641
ுகளை	-642
லைக்க	-643
வர	-644
▁மூல	-645
நாடு	-646
மாகும்	-647
▁சட்டமன்ற	-648
▁தொகுதிக்கும்	-649
▁பேரும்	-650
▁ஆனால்	-651
▁இணை	-652
ொண்ட	-653
▁அன	-654
ோர்	-655
ிரிய	-656
ையான	-657
▁நடைபெ	-658
ிக்கப்பட்ட	-659
ட்டை	-660
்ட்	-661
ர்களில்	-662
▁தமிழ	-663
▁தனது	-664
ுகளில்	-665
▁புத	-666
ிகளை	-667
▁உத	-668
▁வளர்ச்ச	-669
ந்	-670
மீ	-671
ங்கிய	-672
ம்பர்	-673
வது	-674
ற்றில்	-675
")	-676
ார்கள்	-677
வில்லை	-678
▁பழ	-679
▁மாவட்டத்தில்	-680
▁டி	-681
▁போது	-682
தா	-683
ையே	-684
▁அதன்	-685
ழ்க்க	-686
ுத்த	-687
▁தா	-688
▁தூ	-689
▁விளைய	-690
▁வடிவ	-691
▁ஆய்	-692
▁2011	-693
▁தன்	-694
▁P	-695
றை	-696
▁இரண்டு	-697
தாகும்	-698
ம்மன்	-699
ங்கி	-700
▁நிர்வ	-701
▁மொழ	-702
ch	-703
த்தொ	-704
▁மாற்ற	-705
வ்	-706
க்கி	-707
போது	-708
▁மல	-709
▁199	-710
தும்	-711
ைகளில்	-712
ினர்	-713
▁8	-714
யிலில்	-715
▁,	-716
▁முதல	-717
ுள்ளார்	-718
▁தகவ	-719
▁அனை	-720
வர்கள்	-721
கால	-722
▁இரண்ட	-723
மு	-724
▁நாடுக	-725
ல்கள்	-726
▁அழைக்க	-727
ியம்	-728
▁மர	-729
▁எதிர	-730
ந்தது	-731
▁வருக	-732
▁கொண்டுள்ளது	-733
னா	-734
▁அல	-735
▁பெரிய	-736
en	-737
▁கண்ட	-738
▁எண்ண	-739
▁முறை	-740
ித்து	-741
▁இலங்க	-742
▁தமிழ்நாடு	-743
▁பெரும்ப	-744
▁கோயில	-745
னின்	-746
▁எடுத்த	-747
ும	-748
▁திட்ட	-749
▁ஆவார்	-750
▁கிட	-751
ரம்ப	-752
▁தேர்ந்த	-753
ப்பெ	-754
லோ	-755
▁அது	-756
தேச	-757
ானிய	-758
ப்பட்டு	-759
ராய	-760
▁இக்கோயிலில்	-761
கர்	-762
ையாள	-763
ந்தார்	-764
▁கொள்ள	-765
▁துடுப்பாட்டப்	-766
▁என்றும்	-767
▁அடிப்பட	-768
ங்களின்	-769
கோ	-770
ினால்	-771
றிய	-772
ள்க	-773
▁பெற	-774
▁கை	-775
▁இவ்வ	-776
▁பெண்கள்	-777
▁விரு	-778
▁பார	-779
▁பரி	-780
▁9	-781
சிரிய	-782
▁இந்து	-783
▁தேசிய	-784
லின்	-785
கி	-786
▁மேற்க	-787
▁இன	-788
றி	-789
ையம்	-790
▁அவரது	-791
▁பாத	-792
ருவ	-793
ளம்	-794
▁தேர்ந்தெடு	-795
ைத்	-796
வேறு	-797
ேயே	-798
▁படி	-799
ிடம்	-800
ாட்டு	-801
ள்ளி	-802
▁கிராம	-803
▁திற	-804
மையான	-805
ுட்	-806
ண்ப	-807
▁முடிய	-808
▁G	-809
வீ	-810
▁உருவாக்க	-811
▁இத்த	-812
▁தொக	-813
டுத	-814
டுக்க	-815
▁198	-816
ேற்ற	-817
ரக	-818
ஃப	-819
செ	-820
▁சட்டமன்றத்	-821
▁வேண்டும்	-822
▁கணக்கெடு	-823
ிக்கப்படுகிறது	-824
▁ஆத	-825
▁மிகவும்	-826
▁உள்ளனர்	-827
▁வரலா	-828
ந்தை	-829
வ்வ	-830
▁வில	-831
",	-832
வைத்	-833
▁மின்	-834
▁பல்	-835
திப்ப	-836
▁வய	-837
▁புக	-838
▁நேர	-839
ாகப்	-840
ப்பிர	-841
▁இவை	-842
ரீ	-843
▁பால	-844
▁தர	-845
நிலை	-846
ிருக்கும்	-847
வன	-848
▁வளர்ச்சி	-849
ொள்ள	-850
▁வச	-851
▁நான	-852
லர்	-853
▁இயக்க	-854
▁10	-855
ிலுள்ள	-856
தால்	-857
▁கிழ	-858
ருக்க	-859
▁நிலை	-860
ந்ந	-861
ay	-862
த்துக்க	-863
▁மூன்று	-864
ஸ்க	-865
ோடு	-866
நிலைய	-867
ியூ	-868
இல்	-869
வர்கள	-870
▁பல்க	-871
▁முதன்மை	-872
ப்படி	-873
முறை	-874
▁கல்ல	-875
▁வாழ்	-876
▁சிற்ற	-877
ழை	-878
ாண	-879
▁ஆகியவற்ற	-880
ாமல்	-881
▁செல்ல	-882
▁இண	-883
புரம்	-884
ிகளைக்	-885
ப்படு	-886
▁உட்பட்ட	-887
வான	-888
▁வேறு	-889
▁கணக்கெடுப்பின்	-890
▁15	-891
ட்சியில்	-892
▁C	-893
▁தவ	-894
ப்பகுத	-895
▁தேவ	-896
▁பட்டியல்	-897
▁மனித	-898
19	-899
ாகவும்	-900
▁197	-901
▁இங்கு	-902
பர்	-903
es	-904
▁தமிழ்நாட்டில்	-905
▁ஸ்	-906
▁பொருள	-907
▁மக்களவைத்	-908
யம்	-909
டுகள்	-910
▁எனும்	-911
▁பெயர்	-912
▁கீழ்	-913
ிரி	-914
▁பேர	-915
திர்	-916
▁நடித்த	-917
ுள்ளன	-918
▁S	-919
▁வாய்	-920
th	-921
▁தரவ	-922
வில	-923
▁12	-924
▁தகவல்	-925
ன்க	-926
▁குறிப்பிட	-927
▁ஊரில்	-928
▁2015	-929
▁ஆண்கள்	-930
ுதல்	-931
▁பூசை	-932
ச்சு	-933
▁இருந்தது	-934
▁சுவ	-935
ிலோ	-936
▁ஒன்று	-937
ட்டர்	-938
த்திற்க	-939
ியும்	-940
▁மொழி	-941
▁காட்ட	-942
▁17	-943
▁தொடர்ப	-944
is	-945
▁முக	-946
▁வெளிவ	-947
ையா	-948
பர	-949
டிக்க	-950
▁பாது	-951
▁பங்க	-952
▁வெப்ப	-953
▁மருத்துவ	-954
▁வான	-955
▁தமிழ்நாட்டின்	-956
ுக்கான	-957
▁சந்த	-958
▁கருத	-959
▁[	-960
▁கூட்ட	-961
▁நிர்வக	-962
லாக	-963
▁'	-964
000	-965
▁மட்டு	-966
▁இதில்	-967
ic	-968
▁இவற்றில்	-969
▁தாக்க	-970
▁உற	-971
▁நிகழ	-972
ப்பி	-973
ன்னை	-974
ற்ச	-975
▁மாதம்	-976
▁மொத்தம்	-977
▁அறிய	-978
▁வரு	-979
ஜ்	-980
▁புதிய	-981
▁196	-982
வன்	-983
▁நு	-984
த்துக்கு	-985
ாள்	-986
ாரத்தில்	-987
ாளர்	-988
▁ஆங்கில	-989
முற	-990
ென	-991
▁பல்வேறு	-992
▁படை	-993
▁தொலை	-994
▁நடைபெற	-995
ரால்	-996
ங்களும்	-997
▁சாத	-998
▁சங்க	-999
▁செல	-1000
▁தொழில்	-1001
▁ஆரம்ப	-1002
▁பொதுவாக	-1003
"),	-1004
விழ	-1005
ப்பில்	-1006
ற்போ	-1007
ாடு	-1008
டுகிறது	-1009
ியது	-1010
▁16	-1011
வராக	-1012
வரும்	-1013
ப்பை	-1014
லைக்கழக	-1015
சன்	-1016
ண்ம	-1017
▁அர	-1018
▁நடக்க	-1019
▁மோ	-1020
▁கட்டுப்பாட்டில்	-1021
▁இக்க	-1022
வரி	-1023
▁கலந்து	-1024
▁திருக்கோ	-1025
▁எல்ல	-1026
ram	-1027
▁சேர்ந்தது	-1028
▁ஆற்ற	-1029
சோ	-1030
▁இவ்	-1031
வின்	-1032
▁கீழ்க்க	-1033
▁ஒவ்வ	-1034
▁அறநிலைய	-1035
ிச்ச	-1036
▁திரும	-1037
▁ஆய	-1038
▁உயிர	-1039
▁இவர்களில்	-1040
▁கோயிலாகும்	-1041
ங்கும்	-1042
னிய	-1043
▁எந்த	-1044
காலப்	-1045
▁குடும்ப	-1046
லாள	-1047
▁தேர்ந்தெடுக்க	-1048
டன்	-1049
ல்கள	-1050
ிலேயே	-1051
▁பல்கலைக்கழக	-1052
னம்	-1053
ில்லிய	-1054
▁நூற்றாண்டைச்	-1055
க்கூடிய	-1056
ின்படி	-1057
வாத	-1058
▁இல்ல	-1059
டம்	-1060
ீர	-1061
த்துறையின்	-1062
ியான	-1063
▁ஓர்	-1064
ிகளின்	-1065
ாக்	-1066
▁வகைப்பாட்டில்	-1067
▁நிகழ்	-1068
▁துறையின்	-1069
▁மன்ன	-1070
ர்களைத்	-1071
▁பள்ள	-1072
▁அங்க	-1073
▁ஆன	-1074
▁அரசு	-1075
▁டெ	-1076
▁குடிய	-1077
▁தொகுக்க	-1078
▁A	-1079
▁ஜெ	-1080
ரான	-1081
ண்டிய	-1082
▁கன	-1083
▁அரு	-1084
▁இவரது	-1085
மார்	-1086
ிப	-1087
▁முடி	-1088
▁விட	-1089
▁இசை	-1090
▁நோய	-1091
▁195	-1092
ங்களுக்கு	-1093
ாரம்	-1094
▁அன்று	-1095
த்துடன்	-1096
▁இந்ந	-1097
▁அருக	-1098
விட	-1099
▁ஒருகாலப்	-1100
▁அவர்கள்	-1101
ுகின்றன	-1102
தாம்	-1103
▁விளை	-1104
▁இச	-1105
்டோ	-1106
ஸ்ட்	-1107
▁காரணமாக	-1108
▁சிற்றூ	-1109
▁திருக்கோயில்	-1110
▁செயல்ப	-1111
தம்	-1112
தே	-1113
ுள்	-1114
க்த	-1115
▁வண	-1116
▁இறுத	-1117
▁வீர	-1118
▁அவை	-1119
▁பகுதியில்	-1120
▁மண	-1121
ந்திய	-1122
▁புல	-1123
▁கண்டு	-1124
▁நம்ப	-1125
▁தற்போ	-1126
மானது	-1127
னும்	-1128
▁கீழ்க்கண்ட	-1129
▁பிறகு	-1130
▁கல்லூ	-1131
▁பற்றிய	-1132
ாது	-1133
▁ஊரக	-1134
ற்காக	-1135
▁சமூ	-1136
ட்சிய	-1137
ிகளும்	-1138
anch	-1139
நீ	-1140
▁கலை	-1141
▁அனு	-1142
▁முதன்மைத்	-1143
▁ஊராட்சியில்	-1144
ளா	-1145
நாய	-1146
▁தான்	-1147
▁தொகுதிகளைக்	-1148
ண்ட்	-1149
ுட்ப	-1150
▁இம்ம	-1151
▁நக	-1152
▁194	-1153
▁தொடர்ந்து	-1154
▁தெரி	-1155
ion	-1156
▁செய்து	-1157
▁ஆண்டுத்	-1158
▁உறுப்பினர்களைத்	-1159
▁மன்றத்	-1160
ஃப்	-1161
ayat	-1162
▁இந்தியாவின்	-1163
▁உட்பட்டதாகும்	-1164
▁Gram	-1165
▁துற	-1166
▁Panch	-1167
▁Panchayat	-1168
▁காலத்தில்	-1169
ul	-1170
▁அனைத்து	-1171
▁ஊராட்சித்	-1172
▁தோன்ற	-1173
▁தரவின்படி	-1174
▁சிற்றூர்களின்	-1175
சுவ	-1176
▁அரசியல்	-1177
ur	-1178
▁செய்	-1179
னே	-1180
வாறு	-1181
ங்காவ	-1182
▁போல	-1183
▁11	-1184
ட்க	-1185
தில்	-1186
நாத	-1187
▁மட்ட	-1188
▁பரம்ப	-1189
▁ஒவ்வொரு	-1190
▁ஆறு	-1191
▁கல்வி	-1192
▁செயல்	-1193
▁வித	-1194
ர்ட	-1195
ங்கா	-1196
▁எதிர்	-1197
▁சமய	-1198
▁சொல்ல	-1199
▁வட்டாரத்தில்	-1200
▁வல	-1201
▁செல்	-1202
▁உற்ப	-1203
▁மண்ட	-1204
▁மைய	-1205
▁பீ	-1206
▁பாதுகா	-1207
▁மாற	-1208
த்திலும்	-1209
ுகளின்	-1210
▁வரைய	-1211
▁14	-1212
ரிம	-1213
▁மாக	-1214
ர்க்	-1215
▁அடுத்த	-1216
ைகளின்	-1217
it	-1218
▁அடை	-1219
ர்ந்து	-1220
யாரி	-1221
ாரண	-1222
▁நவ	-1223
▁பார்	-1224
ன்பதாம்	-1225
ப்ட	-1226
த்தா	-1227
ிப்பு	-1228
ளோ	-1229
ண்க	-1230
ற்கான	-1231
ரிச	-1232
▁திருவிழ	-1233
▁நிலைய	-1234
▁எஸ்	-1235
வுகள்	-1236
▁நடக்கின்றது	-1237
ரல்	-1238
▁பிரதேச	-1239
ிர்	-1240
▁பாக	-1241
ஷ்ண	-1242
▁கிலோ	-1243
▁ஷ	-1244
▁ஆர்	-1245
▁சென்ற	-1246
▁கடை	-1247
▁நான்கு	-1248
▁இடை	-1249
ாட	-1250
▁இள	-1251
▁புற	-1252
▁தேர்த	-1253
க்கார	-1254
▁13	-1255
▁பிரிவ	-1256
ளவு	-1257
▁மட்டுமே	-1258
லே	-1259
▁தயாரி	-1260
▁ஏற்ற	-1261
ினும்	-1262
▁பத்தொ	-1263
▁தய	-1264
el	-1265
த்தையும்	-1266
▁யூ	-1267
▁வழக்க	-1268
ம்பெ	-1269
▁விளையாட்ட	-1270
டுகள	-1271
▁பத்தொன்பதாம்	-1272
▁அவற்ற	-1273
as	-1274
▁முன்	-1275
▁அல்லாத	-1276
▁புது	-1277
▁M	-1278
▁போட்டிய	-1279
ிலான	-1280
▁முய	-1281
ர்களுக்கு	-1282
பிர	-1283
▁பரம்பரை	-1284
▁சார்ந்த	-1285
▁சமூக	-1286
▁தன்ன	-1287
▁குறிப்பிட்ட	-1288
பாடு	-1289
மொ	-1290
▁யா	-1291
▁சது	-1292
▁கொள்க	-1293
▁முழு	-1294
பே	-1295
வோ	-1296
தாகவும்	-1297
ுக்கள்	-1298
தான	-1299
▁தொடங்க	-1300
▁பரவ	-1301
▁நாள்	-1302
▁சிறந்த	-1303
▁நீர்	-1304
ித்தார்	-1305
▁பொறு	-1306
ியோ	-1307
▁வரும்	-1308
▁மேற்ப	-1309
மாள்	-1310
▁மீது	-1311
▁பார்க்க	-1312
▁மது	-1313
▁சித்த	-1314
ப்பினும்	-1315
▁ஒப்ப	-1316
ீன்	-1317
ராச	-1318
▁நடத்த	-1319
▁புத்த	-1320
▁கிற	-1321
▁மூன்ற	-1322
ைத்த	-1323
▁இதனால்	-1324
▁மார்	-1325
▁எழுத்த	-1326
▁புர	-1327
ல்களை	-1328
▁ஆசிரிய	-1329
▁மாண	-1330
ருடைய	-1331
▁அறங்காவ	-1332
▁கார்	-1333
ிமுக	-1334
ினி	-1335
▁காவ	-1336
▁திருவ	-1337
ிறார்கள்	-1338
▁நிறை	-1339
ந்தி	-1340
il	-1341
▁தொகு	-1342
ாய்	-1343
▁துவ	-1344
▁பொருள்	-1345
▁விழ	-1346
▁சிறு	-1347
▁பிரித்த	-1348
▁மேல்	-1349
▁எழுதிய	-1350
ப்புகள்	-1351
▁I	-1352
ிருந்தது	-1353
ப்பது	-1354
▁மீண்டும்	-1355
]]	-1356
▁நாக	-1357
துக	-1358
▁முழ	-1359
▁இலக்கிய	-1360
▁பெற்றார்	-1361
▁சிறிய	-1362
▁பணியா	-1363
▁மறு	-1364
சே	-1365
ச்சி	-1366
▁f	-1367
▁வெளிவந்த	-1368
▁கர	-1369
▁இருப்பினும்	-1370
▁தாவ	-1371
▁கிரு	-1372
ிக்கை	-1373
▁இப்ப	-1374
▁அமைந்த	-1375
▁திக	-1376
▁அளவ	-1377
▁பன்ன	-1378
▁உயர்	-1379
▁உருவ	-1380
த்தால்	-1381
முக	-1382
ண்டி	-1383
ப்பட்டன	-1384
மன்	-1385
ப்பிய	-1386
▁தனி	-1387
▁ராஜ	-1388
▁ஐக்கிய	-1389
க்ச	-1390
▁B	-1391
▁வார	-1392
த்தக்க	-1393
▁பற	-1394
▁குழந்த	-1395
ுகளுக்கு	-1396
ol	-1397
▁தேர்வ	-1398
▁ஈடு	-1399
▁தள	-1400
ழுத்த	-1401
▁நினை	-1402
▁விக	-1403
▁இச்ச	-1404
▁ரோ	-1405
சன	-1406
▁நடு	-1407
20	-1408
▁நிர	-1409
ப்படுகின்றது	-1410
▁சிக	-1411
▁வணிக	-1412
ாகக்	-1413
த்திலிருந்து	-1414
ென்	-1415
▁அமைப்பால்	-1416
மது	-1417
ிகளிலும்	-1418
▁அதே	-1419
ில்லை	-1420
ராட்ட	-1421
▁ஒரே	-1422
▁இழ	-1423
ாங்க	-1424
▁0	-1425
▁o	-1426
ப்போது	-1427
னார்	-1428
▁ஸ்ட	-1429
▁கூடிய	-1430
பட	-1431
▁193	-1432
▁அறங்காவலர்	-1433
ாச	-1434
ம்ச	-1435
க்குற	-1436
▁இன்	-1437
நோ	-1438
,000	-1439
▁வெள்ள	-1440
▁போட்டிகளில்	-1441
▁எம்	-1442
▁தல	-1443
மர்	-1444
▁ஏற்பட்ட	-1445
▁ஐரோ	-1446
த்தைக்	-1447
வரை	-1448
▁என்	-1449
ிகை	-1450
நகர	-1451
▁சுற்று	-1452
ப்த	-1453
மைப்பு	-1454
பை	-1455
▁[[	-1456
▁சிறப்ப	-1457
▁இங்கில	-1458
▁பற்றி	-1459
▁அறி	-1460
ாந்த	-1461
▁வைத்த	-1462
லு	-1463
▁என்பத	-1464
ல்த	-1465
ed	-1466
▁மதிப்ப	-1467
▁சீன	-1468
ற்சி	-1469
மூ	-1470
▁அதிகார	-1471
▁பேரரச	-1472
▁நடைபெறுகிறது	-1473
▁என்பவர்	-1474
▁நியூ	-1475
ர்வு	-1476
ையாகும்	-1477
வாய்	-1478
om	-1479
ியம்மன்	-1480
▁இரண்டாம்	-1481
▁மத்திய	-1482
▁ஆல	-1483
றும்	-1484
தர	-1485
▁அய	-1486
▁விவ	-1487
▁தீவ	-1488
▁ஏற்படுத்த	-1489
லூர்	-1490
ெல்	-1491
▁பிரப	-1492
▁குரு	-1493
ாமி	-1494
▁அளவு	-1495
ுவது	-1496
வியல்	-1497
்க்க	-1498
த்தைப்	-1499
▁ஃப	-1500
▁சென்னை	-1501
▁நடைபெற்ற	-1502
▁அறிமுக	-1503
▁பணி	-1504
▁வங்க	-1505
▁தோற்ற	-1506
மிய	-1507
▁மாகாண	-1508
▁பிறப்பு	-1509
▁தொழில	-1510
▁தமிழக	-1511
ட்ப	-1512
ொண்டார்	-1513
ராஜ	-1514
▁இயற்க	-1515
▁கத	-1516
ுக்காக	-1517
▁தயார	-1518
லைப்	-1519
னித	-1520
▁கிழக்கு	-1521
ிக்கப்பட்டது	-1522
ினம்	-1523
▁தவிர	-1524
▁கண்ண	-1525
▁அறிவியல்	-1526
ோக	-1527
▁வாழ	-1528
▁இலங்கை	-1529
▁வாழ்க்க	-1530
▁கூட	-1531
ாட்சி	-1532
▁அக்டோ	-1533
▁காணப்படும்	-1534
▁எடுத்துக்க	-1535
▁வின	-1536
▁மேற்கு	-1537
ிழ	-1538
▁T	-1539
▁பிறந்த	-1540
▁பகுதி	-1541
▁ஆக்க	-1542
et	-1543
ண்மை	-1544
▁உப	-1545
ெட்	-1546
▁முடிவ	-1547
▁மை	-1548
▁தற்போது	-1549
ுவர	-1550
▁R	-1551
▁வருட	-1552
ாலான	-1553
▁வெற்றி	-1554
▁முடியும்	-1555
▁கழக	-1556
▁வழி	-1557
▁நிகழ்ச்ச	-1558
▁செய்யப்பட்ட	-1559
ழுது	-1560
▁சன்ன	-1561
▁அவர்கள	-1562
டக	-1563
▁of	-1564
▁25	-1565
படுத்த	-1566
▁வெளியிட	-1567
▁சிக்க	-1568
▁அளவில்	-1569
▁சூழ	-1570
▁துணை	-1571
ிக்கிறது	-1572
▁புவ	-1573
மிட	-1574
ாலத்தில்	-1575
்த்	-1576
ீடு	-1577
▁ஜூ	-1578
▁கீழ	-1579
▁பஞ்ச	-1580
ணுவ	-1581
▁விச	-1582
▁குறைந்த	-1583
ொருள்	-1584
டா	-1585
▁நிலையில்	-1586
▁மரப	-1587
ில்லியன்	-1588
ளு	-1589
ர்த்தி	-1590
ஜி	-1591
▁முன்ப	-1592
▁விளக்க	-1593
▁அக்டோபர்	-1594
▁புகழ்	-1595
▁இல்லை	-1596
▁தேர்வுத்	-1597
▁கடல்	-1598
ிட்	-1599
்தர	-1600
▁N	-1601
மாறு	-1602
▁அமில	-1603
▁மலை	-1604
▁பயண	-1605
▁சூரிய	-1606
▁ஆராய	-1607
▁இடம்பெ	-1608
▁கவி	-1609
▁நிறுவனம்	-1610
▁வெளியிட்ட	-1611
▁பெரும்பாலும்	-1612
▁இருப்பத	-1613
ைகளும்	-1614
க்கில்	-1615
▁பண்ப	-1616
ிருந்தார்	-1617
மக்க	-1618
ாந்து	-1619
▁D	-1620
▁கொண்டது	-1621
னோ	-1622
ராகவும்	-1623
ிப்	-1624
மைப்ப	-1625
▁சுமார்	-1626
ad	-1627
▁இருக்கிறது	-1628
ட்டம்	-1629
▁அங்கு	-1630
▁கெ	-1631
▁அடிப்படையில்	-1632
▁ஒன்றாகும்	-1633
▁இதனை	-1634
▁அமைப்பு	-1635
us	-1636
தன	-1637
▁ஐந்து	-1638
▁அம்மன்	-1639
▁நாட்டின்	-1640
ின்ன	-1641
ுள்ளனர்	-1642
▁சதுர	-1643
▁முதலில்	-1644
நுட்ப	-1645
▁முதல்தர	-1646
ேன்	-1647
▁என்பதை	-1648
லான	-1649
மோ	-1650
▁சன	-1651
▁ஒளி	-1652
▁கருவ	-1653
▁உள்ளட	-1654
▁பேச	-1655
▁இடம்	-1656
ங்களையும்	-1657
and	-1658
▁இவற்ற	-1659
▁(1	-1660
ண்கள	-1661
▁எனவே	-1662
ம்பு	-1663
▁திருத்த	-1664
▁இந்தப்	-1665
லுக்கு	-1666
ங்கம்	-1667
▁இறை	-1668
புரி	-1669
▁வெளி	-1670
மாகக்	-1671
▁–	-1672
ப்பூர்	-1673
▁நவம்பர்	-1674
▁உண்டு	-1675
▁)	-1676
மெ	-1677
ங்கோ	-1678
▁குழுவ	-1679
▁அணி	-1680
▁ஒள	-1681
▁இணைந்து	-1682
um	-1683
▁கிள	-1684
▁இன்ன	-1685
த்தைச்	-1686
▁தெரிவ	-1687
▁அச்ச	-1688
▁பயி	-1689
டுவத	-1690
▁30	-1691
▁எனப்படும்	-1692
ப்பர்	-1693
ொண்டு	-1694
ுக்கள	-1695
▁புள்ள	-1696
வரு	-1697
▁இந்தியாவில்	-1698
▁ஆய்வு	-1699
யர்	-1700
▁பண்ட	-1701
ழுவ	-1702
ீட்ட	-1703
▁மறை	-1704
யி	-1705
-1	-1706
▁துறை	-1707
▁வைக்க	-1708
▁ஸ்ரீ	-1709
▁பக்க	-1710
▁போர்	-1711
▁மகா	-1712
▁விமான	-1713
ங்களிலும்	-1714
▁நீதி	-1715
▁பங்கு	-1716
க்காரர்	-1717
▁மத	-1718
▁நல்ல	-1719
சீ	-1720
▁ஆண்டுகளில்	-1721
▁“	-1722
▁பரப்ப	-1723
▁இந்தியா	-1724
ாவாக	-1725
வடிக்க	-1726
த்தின	-1727
▁செப்ட	-1728
▁விடுத	-1729
▁நடிக	-1730
ஞ்சி	-1731
▁காலம்	-1732
ர்களும்	-1733
மையாக	-1734
▁தென்	-1735
ிரா	-1736
▁c	-1737
டர்	-1738
▁அணியின்	-1739
மாகவும்	-1740
சம்பர்	-1741
▁இங்க	-1742
ங்களைக்	-1743
▁திருச்ச	-1744
▁வெளிப்ப	-1745
▁ஆகியவை	-1746
▁ஜன	-1747
ாளர்கள்	-1748
றிவு	-1749
ங்கை	-1750
ஸ்வர	-1751
▁உடல்	-1752
மாற்ற	-1753
ட்டா	-1754
யூ	-1755
▁நடவடிக்க	-1756
ிகளுக்கு	-1757
▁பிரித்தானிய	-1758
▁விட்ட	-1759
▁இருந்தார்	-1760
▁உள்	-1761
▁சேர்ம	-1762
ரியா	-1763
▁திரும்ப	-1764
▁அலுவ	-1765
ுகளும்	-1766
▁குவ	-1767
த்திரைப்பட	-1768
▁சிறப்பு	-1769
▁கட்டிட	-1770
▁எனினும்	-1771
▁மீட்டர்	-1772
▁உற்பத்தி	-1773
▁H	-1774
▁ஆட்சி	-1775
▁கட்ச	-1776
▁முறையில்	-1777
ing	-1778
▁அதில்	-1779
▁அக்க	-1780
▁ஆக்ச	-1781
ய்வ	-1782
▁இன்ற	-1783
▁நூல்	-1784
▁வருகிறது	-1785
▁நடந்த	-1786
▁அமைச்ச	-1787
▁உறுத	-1788
)"	-1789
ாதார	-1790
▁கைப்ப	-1791
▁பெண்	-1792
▁கல்விய	-1793
▁ஏன	-1794
▁கள	-1795
▁192	-1796
▁தொகுதி	-1797
▁ஆய்வ	-1798
த்தார்	-1799
le	-1800
▁மேம்ப	-1801
▁சராச	-1802
▁இதற்கு	-1803
▁உதவ	-1804
▁புனித	-1805
▁எல்	-1806
▁ஃ	-1807
ப்படுவத	-1808
▁சை	-1809
▁சேவ	-1810
வார்	-1811
▁நாட்டு	-1812
ஞான	-1813
▁பெற்றது	-1814
ரியில்	-1815
ro	-1816
▁இலக்க	-1817
▁கடவு	-1818
ீர்	-1819
▁நெடு	-1820
ங்கியது	-1821
▁செல்லும்	-1822
ேசிய	-1823
▁இயக்கு	-1824
▁நிர்வாக	-1825
▁கன்ன	-1826
▁தொழில்நுட்ப	-1827
▁இத்திரைப்பட	-1828
▁பெரும்பாலான	-1829
டைய	-1830
▁குழு	-1831
ர்ட்	-1832
▁வழியாக	-1833
▁சென்று	-1834
▁சிகிச்ச	-1835
▁எனவும்	-1836
▁போட்டியில்	-1837
▁செய்யும்	-1838
▁அனும	-1839
▁பிரான்	-1840
▁நாள	-1841
▁2008	-1842
▁கிருஷ்ண	-1843
▁குள	-1844
ந்தைய	-1845
ri	-1846
▁வினை	-1847
ரத்தில்	-1848
▁புரி	-1849
▁தேவை	-1850
ஞர்	-1851
ிட்டு	-1852
மான்	-1853
▁ஒலி	-1854
▁சோழ	-1855
▁குறிப்பிடத்தக்க	-1856
ைகளுக்கு	-1857
▁மார	-1858
▁செய்க	-1859
ளவில்	-1860
▁நிலையம்	-1861
ன்கள்	-1862
▁ஆராய்ச்ச	-1863
டல்	-1864
▁முழுவத	-1865
▁ஜோ	-1866
▁ஏற்படும்	-1867
▁"(	-1868
▁இருப்ப	-1869
▁இரண்டாவது	-1870
ிஸ்த	-1871
▁s	-1872
▁வகையில்	-1873
▁தாவர	-1874
▁செப்டம்பர்	-1875
▁குறிப்பாக	-1876
▁திருவிழாவாக	-1877
▁தற்க	-1878
பெற்ற	-1879
▁கால்	-1880
▁விகித	-1881
ா்	-1882
▁ஆட்ட	-1883
▁பின்ன	-1884
ருடன்	-1885
un	-1886
▁பகுதிகளில்	-1887
ைட்	-1888
▁சார்ப	-1889
▁அதற்கு	-1890
டோ	-1891
ப்பட்டுள்ளன	-1892
▁தென்ன	-1893
▁வெற்ற	-1894
டுத்து	-1895
▁பொருட	-1896
orm	-1897
▁குற்ற	-1898
த்தோ	-1899
▁பேர்	-1900
▁விண்	-1901
▁தஞ்ச	-1902
ூட்ட	-1903
ப்பான	-1904
ியே	-1905
ாவை	-1906
▁உருவாக	-1907
▁ஏப்	-1908
ிருக்கிறது	-1909
▁(19	-1910
ித்தது	-1911
▁விளங்க	-1912
▁அச	-1913
▁இதை	-1914
▁உரி	-1915
ாடி	-1916
▁கழ	-1917
த்தல்	-1918
▁நாடுகளில்	-1919
▁ஐத	-1920
ியன்	-1921
▁காய	-1922
▁p	-1923
▁நகரம்	-1924
▁குறிய	-1925
▁21	-1926
▁விரும்ப	-1927
▁தொடக்க	-1928
▁தொலைக்க	-1929
சாமி	-1930
பூர்	-1931
▁கிடைக்க	-1932
▁மட்டும்	-1933
▁சம்ப	-1934
▁24	-1935
▁கொண்டுள்ளார்	-1936
ation	-1937
மண	-1938
▁டே	-1939
▁வகு	-1940
▁இடத்தில்	-1941
திப்பு	-1942
▁கம்ப	-1943
பூ	-1944
தாகக்	-1945
▁நாய	-1946
▁ஆகியோர்	-1947
▁சத	-1948
ரூ	-1949
ac	-1950
▁மூலக்கூ	-1951
▁உடைய	-1952
▁வேலை	-1953
▁உணவு	-1954
னில்	-1955
▁இங்கிலாந்து	-1956
▁மி	-1957
▁காணப்படுகிறது	-1958
▁எனக்	-1959
▁மில்லியன்	-1960
கைய	-1961
ஞ்சு	-1962
ர்மான	-1963
▁பை	-1964
னுக்கு	-1965
▁L	-1966
▁விருது	-1967
▁சுழ	-1968
▁வெளியே	-1969
▁பருவ	-1970
டியாக	-1971
▁பிரபல	-1972
▁ஹெ	-1973
ல்களில்	-1974
▁கவன	-1975
ிரை	-1976
re	-1977
,.	-1978
ப்ரவ	-1979
ன்ம	-1980
▁குறித்த	-1981
▁போக்க	-1982
▁பிறந்தார்	-1983
▁ஏப்ரல்	-1984
▁சேர்த்த	-1985
ரிக	-1986
▁அடையாள	-1987
▁ஆண்டின்	-1988
▁லா	-1989
▁ஆசிய	-1990
▁நீண்ட	-1991
▁ஒருவர்	-1992
▁நிய	-1993
ன்மை	-1994
டுகின்றன	-1995
்தொ	-1996
ிறான்	-1997
▁சேர்க்க	-1998
▁தாய	-1999
ரிட	-2000
ர்ப்ப	-2001
▁நோய்	-2002
ியலில்	-2003
▁சுத	-2004
▁முக்கியமான	-2005
ர்களால்	-2006
▁காத	-2007
▁சொல்	-2008
ப்பிரிக்க	-2009
▁ஆகியோ	-2010
▁எள	-2011
ருந்து	-2012
▁எண்	-2013
▁22	-2014
ியல	-2015
ுகிறார்	-2016
நாள்	-2017
▁தமிழ்த்	-2018
▁இசு	-2019
ப்புற	-2020
▁வடக்கு	-2021
▁ஜே	-2022
▁நோக்க	-2023
▁வந்து	-2024
▁சித	-2025
▁நாடக	-2026
மன	-2027
்களில்	-2028
▁வேதிய	-2029
▁திரைப்படம்	-2030
▁பழைய	-2031
▁யாழ்	-2032
வொரு	-2033
▁இணைய	-2034
ula	-2035
ுவதற்கு	-2036
ின்றார்	-2037
▁தங்கள்	-2038
id	-2039
ுவை	-2040
▁இடம்பெற்ற	-2041
மையை	-2042
▁இந்தக்	-2043
▁2009	-2044
ap	-2045
▁முன	-2046
▁மூலமாக	-2047
▁நூற்றாண்டில்	-2048
▁கணித	-2049
▁போன்றவற்ற	-2050
▁=	-2051
▁ஓட்ட	-2052
▁வரி	-2053
▁சக்த	-2054
▁குறிப்பி	-2055
▁ஒன்றிய	-2056
ுந்த	-2057
க்ஸ்	-2058
ியாகும்	-2059
னாக	-2060
▁23	-2061
▁F	-2062
▁கோட்ட	-2063
▁E	-2064
ent	-2065
தைய	-2066
ப்ரவரி	-2067
வாள	-2068
▁வந்தது	-2069
▁அருகில்	-2070
▁வாச	-2071
ற்கும்	-2072
ூல்	-2073
▁கிரே	-2074
வெள	-2075
▁2010	-2076
ன்ஸ்	-2077
▁விரை	-2078
▁1.	-2079
▁மலேசிய	-2080
ொருள	-2081
ப்பகுதியில்	-2082
ற்றினார்	-2083
▁சகோ	-2084
▁‘	-2085
▁கற்ப	-2086
▁மணி	-2087
▁பத்திர	-2088
▁அவருடைய	-2089
▁காங்க	-2090
▁பாதுகாப்பு	-2091
ச்சிய	-2092
▁போட்டிகளிலும்	-2093
▁வயது	-2094
ய்வு	-2095
▁என்பவ	-2096
ில்ல	-2097
▁தந்தை	-2098
▁டை	-2099
▁ஆட்ச	-2100
ுகொண்டார்	-2101
▁திகதி	-2102
▁மின்ன	-2103
ிலிருந்த	-2104
ுகின்றனர்	-2105
▁பின்ப	-2106
▁th	-2107
டுகளை	-2108
▁குடி	-2109
▁செய்வத	-2110
▁கற்ற	-2111
பாள	-2112
▁ரி	-2113
▁பிள	-2114
சின்	-2115
▁2007	-2116
▁வென்ற	-2117
▁கப்ப	-2118
▁தமது	-2119
▁இணைக்க	-2120
▁விலங்க	-2121
ப்பட்டார்	-2122
▁கதா	-2123
▁பெயரில்	-2124
▁உத்த	-2125
ேரி	-2126
▁ரீ	-2127
ormula	-2128
▁கொடு	-2129
▁தோல்	-2130
▁பால்	-2131
▁சுர	-2132
திகள்	-2133
▁மண்டல	-2134
▁உள்ளிட்ட	-2135
▁மதுரை	-2136
▁பதின	-2137
▁மற	-2138
ூர்த	-2139
லாளர்	-2140
ையோ	-2141
▁மனை	-2142
்த்து	-2143
ைகளையும்	-2144
▁கூடுத	-2145
▁காணப்படுகின்றன	-2146
சம்	-2147
ிற்கும்	-2148
▁சர்வ	-2149
ையைப்	-2150
▁பேரா	-2151
ங்களாக	-2152
தன்	-2153
▁அதிகமாக	-2154
▁ஆற	-2155
▁கருத்த	-2156
▁பெருமாள்	-2157
யின்	-2158
ியர்	-2159
▁கண்டுபி	-2160
▁பல்ல	-2161
▁கொல்ல	-2162
▁குறிக்கும்	-2163
▁தாய்	-2164
வீன	-2165
பவ	-2166
50	-2167
▁எந்தவொரு	-2168
▁முறைப்படி	-2169
▁அரி	-2170
ைக்கு	-2171
▁கோவில்	-2172
▁அழை	-2173
றிவ	-2174
டைந்த	-2175
▁இவர்கள்	-2176
சாய	-2177
லோக	-2178
▁பாடல்	-2179
▁d	-2180
▁செய்தார்	-2181
▁ப்	-2182
▁வல்ல	-2183
▁விபர	-2184
▁ரூ	-2185
ிச	-2186
ையால்	-2187
▁பிள்ள	-2188
▁பிரதி	-2189
▁மாநிலத்தில்	-2190
em	-2191
▁நகரில்	-2192
".	-2193
சியம்	-2194
▁ஆண்டுகள்	-2195
▁ஜி	-2196
▁அதை	-2197
▁தெரிய	-2198
▁தங்க	-2199
ாரி	-2200
▁ஏற	-2201
▁191	-2202
டாக	-2203
▁தலைமைய	-2204
▁பெற்று	-2205
▁2006	-2206
த்தைத்	-2207
நாட்டு	-2208
ag	-2209
ர்ச்சி	-2210
ஸ்வரர்	-2211
▁தொலைவில்	-2212
▁நாடுகள	-2213
▁பதிப்ப	-2214
▁துண	-2215
▁வேக	-2216
பால	-2217
▁அதாவது	-2218
▁வங்காள	-2219
▁கருதப்படுகிறது	-2220
ிரே	-2221
னான	-2222
▁என்க	-2223
ுகளாக	-2224
ுவர்	-2225
நே	-2226
▁அழுத்த	-2227
▁முழுவதும்	-2228
▁அமைக்க	-2229
▁குறிக்க	-2230
▁தனித்த	-2231
▁தலைவராக	-2232
ற்சிய	-2233
▁யு	-2234
▁கடைசிய	-2235
▁வாழ்ந்த	-2236
ுகின்றது	-2237
▁சண்ட	-2238
▁இடங்களில்	-2239
▁குடியரச	-2240
▁மேற்பட்ட	-2241
பிட	-2242
த்தது	-2243
▁சிங்க	-2244
லைக்	-2245
▁மக்களின்	-2246
தியாக	-2247
▁formula	-2248
ராம	-2249
▁கிறித்த	-2250
▁போட்டியிலும்	-2251
▁(2	-2252
▁இராணுவ	-2253
▁சால	-2254
▁பயன்படுத்தி	-2255
பொ	-2256
▁போன்றவை	-2257
வாய	-2258
▁ஓவிய	-2259
▁இவ்வாறு	-2260
▁அப்ப	-2261
▁உர	-2262
▁இயற்ப	-2263
▁உச்ச	-2264
ியார்	-2265
ir	-2266
▁1,	-2267
ட்டில்	-2268
▁உலகின்	-2269
ூரில்	-2270
▁கடி	-2271
▁சேர்ந்து	-2272
ையானது	-2273
iv	-2274
▁உருவாக்கப்பட்ட	-2275
பின்	-2276
▁இப்பட	-2277
பம்	-2278
▁முனை	-2279
▁வடிவமை	-2280
▁ஐரோப்பிய	-2281
▁தலைமை	-2282
▁சென்ன	-2283
▁தெற்கு	-2284
ுக்குப்	-2285
▁விற்ப	-2286
▁கட்டுர	-2287
▁எரி	-2288
▁உறுப்பினராக	-2289
பார	-2290
▁பதில	-2291
ுகளைக்	-2292
னியா	-2293
▁பிரச்ச	-2294
os	-2295
சில	-2296
ந்தர	-2297
ழுப்பு	-2298
ிடையே	-2299
▁வேண்டிய	-2300
▁யாழ்ப்பா	-2301
ெய்	-2302
▁அரசாங்க	-2303
▁விரிவ	-2304
ிருந்தனர்	-2305
சார்	-2306
ங்களைப்	-2307
▁அவருக்கு	-2308
▁பொருளாதார	-2309
ையிலும்	-2310
▁கர்	-2311
நகர்	-2312
▁செயற்ப	-2313
▁செலுத்த	-2314
முத	-2315
ாவூர்	-2316
ீரர்	-2317
டிப்ப	-2318
ையைக்	-2319
▁கிடைத்த	-2320
த்தம்	-2321
▁கரை	-2322
▁சப	-2323
▁நப	-2324
▁தாம	-2325
▁லி	-2326
த்தும்	-2327
▁ஜான்	-2328
▁வாக	-2329
ிருப்ப	-2330
▁26	-2331
லிக்க	-2332
▁கோவில	-2333
வெளி	-2334
▁தலைவர்	-2335
▁மட	-2336
்களை	-2337
▁ஆண	-2338
▁50	-2339
▁நீள	-2340
ரள	-2341
▁தலைநகர	-2342
தனை	-2343
▁மிகப்பெ	-2344
▁27	-2345
▁பக	-2346
▁அவற்றின்	-2347
பதி	-2348
▁காங்கிர	-2349
▁திருப்ப	-2350
▁போராட்ட	-2351
▁மாநிலத்தின்	-2352
▁எடுத்து	-2353
▁சின்ன	-2354
ப்பள்ளி	-2355
▁பொறிய	-2356
▁மற்றொரு	-2357
▁வண்ண	-2358
▁புத்தக	-2359
▁வரலாற்று	-2360
▁தெள	-2361
▁எடுத்துக்காட்ட	-2362
▁இருப	-2363
▁அப்போது	-2364
▁வரலாற்ற	-2365
ாளு	-2366
▁இவருக்கு	-2367
▁விஜ	-2368
த்தூர்	-2369
▁சொந்த	-2370
மையில்	-2371
▁தான	-2372
▁பிரத	-2373
▁கார்ப	-2374
▁பங்குகொண்டார்	-2375
பெரு	-2376
ழைக்க	-2377
▁நாடு	-2378
▁கட்சி	-2379
▁பட்டம்	-2380
ெய்த	-2381
லாமிய	-2382
ாலி	-2383
▁நகர்	-2384
க்கா	-2385
▁யோ	-2386
▁ஆர்வ	-2387
▁K	-2388
▁தம்	-2389
மய	-2390
▁திருமணம்	-2391
▁மார்ச்	-2392
குதி	-2393
▁ஆற்றல்	-2394
பிற	-2395
ஷ்ட	-2396
▁அத்த	-2397
▁m	-2398
▁பௌ	-2399
ாப்	-2400
▁போல்	-2401
ொன்ற	-2402
▁ல்	-2403
சூ	-2404
▁கல்லூரி	-2405
▁100	-2406
ரன்	-2407
▁அரசின்	-2408
ந்துள்ளது	-2409
▁28	-2410
ாளுமன்ற	-2411
▁கிடை	-2412
▁நாடுகள்	-2413
▁ஒப்பந்த	-2414
▁இலங்கையின்	-2415
▁அவரை	-2416
முட	-2417
▁முதலிய	-2418
வித	-2419
விட்ட	-2420
த்துக்	-2421
▁தீவிர	-2422
▁தொடர்பு	-2423
ிகளையும்	-2424
▁விவசாய	-2425
▁கருத்து	-2426
த்திரம்	-2427
▁நாடாளுமன்ற	-2428
ிலி	-2429
▁வலி	-2430
▁இடையே	-2431
▁பள்ளி	-2432
▁உண்ட	-2433
▁முன்னாள்	-2434
▁2001	-2435
ia	-2436
tr	-2437
▁அழக	-2438
▁அவ்வ	-2439
▁190	-2440
▁வைத்து	-2441
மற்ற	-2442
▁இதழ	-2443
ெல்ல	-2444
ப்பாடு	-2445
▁சுற்ற	-2446
▁W	-2447
ந்தன	-2448
▁the	-2449
▁வரலாறு	-2450
வக	-2451
தற்கு	-2452
▁ஆப	-2453
▁அட்ட	-2454
மக	-2455
▁பார்க்கப்பட்ட	-2456
ார்ட	-2457
▁கடற்க	-2458
▁மேல	-2459
▁தொழி	-2460
க்குறிப்பு	-2461
▁விளையாட்டு	-2462
▁அம்ப	-2463
▁இல்லாத	-2464
▁உள்ளார்	-2465
▁மொழியில்	-2466
▁கிரிக்க	-2467
▁விளையாட்டுவ	-2468
ைடு	-2469
▁திரைப்படமாகும்	-2470
II	-2471
▁இராக	-2472
▁படைய	-2473
▁2014	-2474
▁லீ	-2475
ிட்டி	-2476
டித்து	-2477
▁வாய	-2478
▁தண்ட	-2479
▁திருந	-2480
▁கடைசியாகப்	-2481
▁விடு	-2482
▁கொடுத்த	-2483
ரிக்	-2484
த்துவம்	-2485
ுக்குத்	-2486
▁திட்டத்தின்	-2487
▁முற்ற	-2488
ிரம்	-2489
▁கதை	-2490
ோட்ட	-2491
▁விளையாட்டுவீரர்	-2492
திக்க	-2493
▁விபரக்குறிப்பு	-2494
ணு	-2495
▁உயர	-2496
▁ஒன்றாக	-2497
▁சுதந்திர	-2498
▁சிவன்	-2499
▁நோக்கி	-2500
வான்	-2501
ளும்	-2502
▁எனப்	-2503
▁பதிவு	-2504
▁வரையற	-2505
ம்பரிய	-2506
▁தொலைக்காட்சி	-2507
ாண்டு	-2508
▁முருக	-2509
ப்படுகிறார்	-2510
ak	-2511
▁விட்டு	-2512
▁அவர்களின்	-2513
ியால்	-2514
▁சந்திர	-2515
▁நெடுஞ்ச	-2516
▁பயன	-2517
ந்தர்	-2518
▁தெற்க	-2519
▁இடைய	-2520
▁அதனால்	-2521
ec	-2522
ித்	-2523
▁போக்குவர	-2524
க்கான	-2525
▁உதவிய	-2526
ப்படுவது	-2527
ீட்டு	-2528
▁கொடுக்க	-2529
▁மின	-2530
ப்பே	-2531
▁அதிகரி	-2532
▁கொள்ளவில்லை	-2533
od	-2534
▁2.	-2535
▁மென்ப	-2536
▁தேதி	-2537
▁வேல	-2538
ையாகக்	-2539
▁சராசரி	-2540
மிருந்து	-2541
▁சரிய	-2542
▁மேற்கொள்ள	-2543
▁மாறு	-2544
▁இருப்பதால்	-2545
▁2011.	-2546
ாட்டில்	-2547
▁பார்வ	-2548
▁கொண்டார்	-2549
ேல்	-2550
புர	-2551
ிடும்	-2552
▁நான்க	-2553
▁வாழும்	-2554
▁அதனை	-2555
▁ஸ்க	-2556
▁தந்த	-2557
▁வகையான	-2558
▁இயங்க	-2559
ைகளைக்	-2560
▁வழக்கு	-2561
கிரி	-2562
he	-2563
மிழ்	-2564
▁தொடர்பான	-2565
▁திச	-2566
ப்புக்	-2567
▁ஆண்டுகளுக்கு	-2568
ாவும்	-2569
டுகளில்	-2570
லாந்து	-2571
▁ஒருவ	-2572
▁தின	-2573
ாலை	-2574
▁ரெ	-2575
▁முயற்ச	-2576
▁சாக	-2577
▁விமர்	-2578
ai	-2579
ாளராக	-2580
ராட்சி	-2581
▁பாரம்பரிய	-2582
▁கைய	-2583
வம்	-2584
ட்சு	-2585
த்திலுள்ள	-2586
▁கிலோமீ	-2587
▁தேர்தலில்	-2588
ுகளையும்	-2589
சார	-2590
டித்தார்	-2591
▁எதிராக	-2592
▁உயிர்	-2593
▁பகு	-2594
▁பிட	-2595
▁சகோதர	-2596
▁குளோ	-2597
▁அதிகமான	-2598
▁அண்ண	-2599
▁விளைவ	-2600
▁காம	-2601
▁குறித்து	-2602
10	-2603
▁காந்த	-2604
▁டிசம்பர்	-2605
நிலையில்	-2606
▁மிகப்பெரிய	-2607
av	-2608
▁வாக்க	-2609
ot	-2610
▁தனிம	-2611
▁தடு	-2612
ன்ச	-2613
▁மகன்	-2614
▁சொற்க	-2615
▁தஞ்சாவூர்	-2616
▁ஏழு	-2617
▁2012	-2618
▁அதி	-2619
▁செல்க	-2620
ியிலும்	-2621
▁ஏற்க	-2622
▁தட	-2623
▁நிரு	-2624
▁நவீன	-2625
▁வழிப	-2626
வேண்டும்	-2627
▁கலா	-2628
▁கடு	-2629
ுறு	-2630
▁வந்தார்	-2631
ங்கலம்	-2632
▁இயக்கத்தில்	-2633
▁அல்	-2634
▁பறவ	-2635
▁நடைமுறை	-2636
▁இஸ்	-2637
▁189	-2638
ப்பெரு	-2639
▁29	-2640
▁நேரத்தில்	-2641
▁இந்தத்	-2642
▁வானூர்த	-2643
மிக்க	-2644
▁இருந்தன	-2645
▁அறிமுகப்படுத்த	-2646
த்திற்கான	-2647
▁b	-2648
ுவின்	-2649
▁J	-2650
▁பெரும	-2651
▁2005	-2652
டிக	-2653
▁பகுதிகள்	-2654
ப்படவில்லை	-2655
▁மூன்றாம்	-2656
தர்	-2657
▁சர்வதேச	-2658
▁வடி	-2659
ப்பாக	-2660
▁பெர்	-2661
வதற்கு	-2662
▁பாண்டிய	-2663
னது	-2664
▁அனுப்ப	-2665
▁கோட்	-2666
ைகிறது	-2667
ியைப்	-2668
▁ஆஸ்த	-2669
▁லூ	-2670
ம்ஸ்	-2671
ண்களின்	-2672
-2	-2673
▁பார்த்த	-2674
ter	-2675
▁நிறுத்த	-2676
ன்கு	-2677
மார	-2678
▁இருக்கலாம்	-2679
▁உள்ளடக்கிய	-2680
ோன்	-2681
ளைப்	-2682
▁ராம	-2683
▁விநாய	-2684
ேசு	-2685
▁சட்டம்	-2686
▁நூற்றாண்டின்	-2687
▁முன்னர்	-2688
▁சரி	-2689
▁சாதன	-2690
▁வரிச	-2691
ழ்ச்ச	-2692
▁கொள்	-2693
▁டிர	-2694
மம்	-2695
▁அலை	-2696
▁கிரேக்க	-2697
▁வேதியியல்	-2698
ாட்	-2699
த்திற்கும்	-2700
▁இரத்த	-2701
▁காஞ்சி	-2702
ையிலிருந்து	-2703
▁கண்டறிய	-2704
▁உண்	-2705
▁மருந்த	-2706
▁வெவ்	-2707
நி	-2708
ப்பதற்கு	-2709
நக	-2710
▁சனவரி	-2711
▁பொதுவான	-2712
▁எதி	-2713
ந்துக	-2714
▁சான்ற	-2715
▁அவ்	-2716
▁ஒத்த	-2717
▁குண	-2718
▁பிரெ	-2719
▁ஆசிரியர்	-2720
▁வர்த்த	-2721
▁தேர்தல்	-2722
▁எண்ணிக்கை	-2723
ுக்கொள்ள	-2724
ம்மா	-2725
த்தினை	-2726
மொழ	-2727
ிக்கப்பட்டு	-2728
▁சேவை	-2729
ம்பர	-2730
▁எல்லா	-2731
▁எளித	-2732
▁கட்டுப்படுத்த	-2733
▁இவரின்	-2734
▁பாவ	-2735
வையாக	-2736
▁கொண்டிருக்கும்	-2737
டிப்பு	-2738
ர்ண	-2739
▁இசைய	-2740
ாக்கம்	-2741
▁பன்னாட்டு	-2742
▁t	-2743
▁2004	-2744
ட்டத்தில்	-2745
மின்	-2746
ுகோ	-2747
▁மாவட்டத்தின்	-2748
ப்பட்டி	-2749
மலை	-2750
▁ஜெய	-2751
▁இராம	-2752
▁எழுத்து	-2753
▁இம்மாவட்ட	-2754
▁தன்மை	-2755
▁பொருட்க	-2756
▁அரசியல்வாத	-2757
▁என்பன	-2758
்களும்	-2759
ொழ	-2760
▁ஒழு	-2761
▁2013	-2762
▁நிதி	-2763
▁கதிர	-2764
▁கிமீ	-2765
▁உலோக	-2766
ருக்கும்	-2767
▁தன்னுடைய	-2768
▁எண்ணிக்க	-2769
க்கே	-2770
▁அடுத்து	-2771
ெனில்	-2772
பீ	-2773
▁பாடல்கள்	-2774
▁பகுதியாக	-2775
▁நீதிமன்ற	-2776
▁உள	-2777
▁இயற்கை	-2778
▁பரிந்து	-2779
த்தே	-2780
ியியல்	-2781
ூர	-2782
▁டோ	-2783
▁பக்த	-2784
▁பெண்ண	-2785
ரைடு	-2786
▁ரே	-2787
▁இறப்பு	-2788
▁குறைவான	-2789
▁யாழ்ப்பாண	-2790
▁40	-2791
▁2000	-2792
▁புரா	-2793
▁கொண்டிருந்த	-2794
லால்	-2795
▁எடு	-2796
▁பன	-2797
பாடுகள்	-2798
ிறாள்	-2799
▁நுண்ண	-2800
▁கேரள	-2801
ுடனும்	-2802
ரெ	-2803
ரான்	-2804
▁நாட்டில்	-2805
▁எசு	-2806
▁தடை	-2807
▁உட்க	-2808
ுறுத்த	-2809
▁இயந்திர	-2810
▁ஒருங்கி	-2811
▁இறுதியில்	-2812
▁குத	-2813
▁நான்	-2814
▁மரண	-2815
▁உரிம	-2816
மல	-2817
ில்லி	-2818
▁தெலு	-2819
▁கல்வெ	-2820
▁பொழுது	-2821
ொள்	-2822
▁எதிரான	-2823
▁செயற்க	-2824
▁இத்தகைய	-2825
▁தமிழில்	-2826
▁இன்று	-2827
▁இறந்த	-2828
ல்லிய	-2829
ிகளாக	-2830
மாக்க	-2831
▁அத்துடன்	-2832
▁பெரி	-2833
▁ஈடுபட்ட	-2834
▁பேராசிரிய	-2835
▁தயாரிக்க	-2836
▁முடிவு	-2837
▁கௌ	-2838
▁வாழ்க	-2839
ஷன்	-2840
▁சூழ்	-2841
▁நொ	-2842
னீ	-2843
▁பொருட்கள்	-2844
ின்றி	-2845
▁கிட்ட	-2846
▁h	-2847
▁அலக	-2848
▁கரிம	-2849
▁அமெரிக்காவில்	-2850
▁சாதாரண	-2851
op	-2852
▁தொடர்புடைய	-2853
▁லெ	-2854
▁அமைக்கப்பட்ட	-2855
▁அரிய	-2856
▁அதிகம்	-2857
▁முதலாம்	-2858
ஜா	-2859
▁அய்ய	-2860
▁புரோ	-2861
▁:	-2862
▁முன்பு	-2863
▁188	-2864
▁தர்ம	-2865
▁வெளிப்படுத்த	-2866
ஸ்வ	-2867
▁உல	-2868
30	-2869
முள்ள	-2870
▁ஜெர்ம	-2871
▁இதுவே	-2872
▁2016	-2873
▁உருவாக்கிய	-2874
ஞ்	-2875
ளைய	-2876
ாகம	-2877
▁ஆதர	-2878
▁தை	-2879
▁தற்கால	-2880
▁பணியாற்றினார்	-2881
▁மிகப்	-2882
▁அழைக்கப்படும்	-2883
▁ஆக்கை	-2884
▁குல	-2885
ேக	-2886
▁தென்க	-2887
ெழு	-2888
▁இந்	-2889
▁நிகழ்வ	-2890
▁கவ	-2891
▁இருக்கின்றன	-2892
▁மிகுந்த	-2893
ிக்கோ	-2894
ப்பகுதி	-2895
▁ஆளு	-2896
▁முன்னேற்ற	-2897
▁மஞ்ச	-2898
▁எவ்	-2899
▁பிரிவு	-2900
▁பெண்கள	-2901
▁சிகிச்சை	-2902
ண்மையில்	-2903
ட்டிய	-2904
ிலே	-2905
▁தேவையான	-2906
▁பாத்திர	-2907
ம்பி	-2908
▁குழந்தை	-2909
சியா	-2910
▁ஆவண	-2911
▁கண்டுபிட	-2912
ாமலை	-2913
▁இயல்ப	-2914
்டர்	-2915
▁வாழ்க்கை	-2916
நாடக	-2917
▁சேர்த்து	-2918
ப்பானிய	-2919
ுக்குக்	-2920
▁சிர	-2921
ங்களுடன்	-2922
ிறன்	-2923
▁விண்மீ	-2924
▁இடையில்	-2925
▁U	-2926
▁நண்ப	-2927
im	-2928
▁in	-2929
▁இந்தியாவ	-2930
▁மக்கள்தொ	-2931
ோம்	-2932
▁உயிரின	-2933
பிய	-2934
க்கர்	-2935
▁க்	-2936
▁பணிய	-2937
நீர்	-2938
▁தொகுதியில்	-2939
ut	-2940
▁கான்	-2941
▁உடன்	-2942
ரிடம்	-2943
▁ஒற்ற	-2944
ையுடன்	-2945
ராகப்	-2946
▁ஆடி	-2947
▁வலை	-2948
வார்கள்	-2949
வாற	-2950
▁31	-2951
40	-2952
ழல்	-2953
▁கல்லூரியில்	-2954
▁ஆகியவற்றை	-2955
ையைச்	-2956
▁பாடிய	-2957
▁தவற	-2958
▁காரணம்	-2959
▁சக்க	-2960
ார்த்த	-2961
▁தேர்வு	-2962
▁ஆன்	-2963
ானா	-2964
ல்லி	-2965
▁வாய்ந்த	-2966
▁சுய	-2967
்களுக்கு	-2968
▁ஆக்கைவில்	-2969
▁வால்	-2970
▁O	-2971
▁பச்ச	-2972
▁வெவ்வேறு	-2973
ிலை	-2974
▁நாவ	-2975
▁புற்று	-2976
▁ஆப்பிரிக்க	-2977
ரைக்க	-2978
ார்ட்	-2979
ைகளைப்	-2980
ாட்டுத்	-2981
▁நெல்	-2982
ூட	-2983
ெடுத்த	-2984
த்தினால்	-2985
குப்பு	-2986
▁செய்யப்பட்டது	-2987
ாலம்	-2988
▁தெளிவ	-2989
ig	-2990
ாவிட	-2991
▁ஐந்த	-2992
▁புகழ்பெற்ற	-2993
▁தெய்வ	-2994
▁விடுதலை	-2995
க்கள்	-2996
▁உதாரண	-2997
ோண	-2998
▁ஒல	-2999
-19	-3000
▁பாரா	-3001
▁பயிற்சி	-3002
▁மாரியம்மன்	-3003
▁வேண்ட	-3004
▁அலுவலக	-3005
▁நித	-3006
▁அணுக	-3007
▁உரோ	-3008
▁V	-3009
▁ஆவது	-3010
▁அவன்	-3011
க்குப்	-3012
▁இந்தியத்	-3013
▁and	-3014
ெயர்	-3015
▁தண்ண	-3016
பாய்	-3017
ப்புகளை	-3018
ப்பாள	-3019
வர்களுக்கு	-3020
▁மெய்ய	-3021
ரங்க	-3022
▁நேரம்	-3023
▁பயன்படுகிறது	-3024
சால	-3025
▁உயர்ந்த	-3026
▁சூன்	-3027
மாத	-3028
▁போன்று	-3029
▁நைட்	-3030
லெ	-3031
▁நிறுவனத்தின்	-3032
ிகா	-3033
▁இறுதி	-3034
▁சூலை	-3035
டியம்	-3036
▁வேளா	-3037
ang	-3038
்களின்	-3039
▁துவக்க	-3040
▁பண்டைய	-3041
▁ஆஃப்	-3042
▁கற்க	-3043
▁நுழை	-3044
க்கோட்டை	-3045
og	-3046
தல்	-3047
▁உட்பட	-3048
▁கேட்ட	-3049
ரும	-3050
்க்	-3051
நாயக	-3052
▁அம்ச	-3053
ாலய	-3054
▁கனிம	-3055
குதியில்	-3056
ைகளிலும்	-3057
ையைத்	-3058
னைக்	-3059
ிமுற	-3060
▁நூல்கள்	-3061
▁அஞ்ச	-3062
தோ	-3063
▁சுரு	-3064
சுவாமி	-3065
▁ஆதார	-3066
மொழி	-3067
ுய	-3068
ர்ஸ்	-3069
தியும்	-3070
ினா	-3071
▁இதே	-3072
த்துறை	-3073
▁சர	-3074
ல்ட்	-3075
▁நடித்தார்	-3076
▁கூறிய	-3077
ங்கட	-3078
▁கிராமம்	-3079
நிற	-3080
▁கைப்பற்ற	-3081
ம்பட்டி	-3082
ப்பூ	-3083
ப்பம்	-3084
▁விருதுக	-3085
▁மித	-3086
ிப்பத	-3087
▁அம்ம	-3088
▁நல	-3089
▁பத்து	-3090
▁வருகின்றன	-3091
▁ஞான	-3092
▁1990	-3093
▁தீர்மான	-3094
▁மதிப்பு	-3095
ையையும்	-3096
ளவ	-3097
▁பில	-3098
வர்களின்	-3099
▁பல்கலைக்கழகம்	-3100
▁நூற்றாண்டு	-3101
▁ஆண்	-3102
ப்பட்டனர்	-3103
▁ஆராய்ச்சி	-3104
▁மான	-3105
▁இன்னும்	-3106
▁கண்க	-3107
▁நியம	-3108
▁அடிப்படை	-3109
▁வாங்க	-3110
▁நிருவாக	-3111
ளிர்	-3112
▁பொருத்த	-3113
▁பாதுக	-3114
▁ஊர்	-3115
▁முந்தைய	-3116
▁பிணை	-3117
▁சுட்ட	-3118
▁கூறினார்	-3119
▁ஆட	-3120
்தான்	-3121
▁குறைவாக	-3122
▁திருவண்ண	-3123
▁தொடர்ச்ச	-3124
▁கீழே	-3125
▁பங்கள	-3126
▁மொழிபெ	-3127
▁பிப்ரவரி	-3128
▁மூன்றாவது	-3129
க்கப்பட்டார்	-3130
▁விநாயகர்	-3131
▁சுக	-3132
▁வெளியான	-3133
all	-3134
▁வம்ச	-3135
▁திருமண	-3136
▁பதிவ	-3137
ரைக்	-3138
ரைப்	-3139
▁ஆனது	-3140
▁பயிர	-3141
ாட்ச	-3142
▁கந்த	-3143
▁சதவீ	-3144
▁தற்போதைய	-3145
▁திறன்	-3146
▁வயதில்	-3147
▁வில்	-3148
டெ	-3149
டியோ	-3150
▁மேலா	-3151
▁நாண	-3152
வழ	-3153
▁என்றழைக்க	-3154
▁ரச	-3155
▁பற்ற	-3156
ந்த்	-3157
▁மத்த	-3158
▁இந்நகர	-3159
▁வன	-3160
ரசன்	-3161
பிறப்பு	-3162
தியான	-3163
▁அளிக்க	-3164
▁அண்ட	-3165
▁எட்டு	-3166
▁கூட்டு	-3167
▁நிறுவனங்கள்	-3168
படும்	-3169
▁காட்ச	-3170
▁பரவலாக	-3171
ழும்	-3172
லாய	-3173
▁சிங்	-3174
ண்டல	-3175
ானின்	-3176
▁சிற்ப	-3177
▁சாம்ப	-3178
▁கத்தோ	-3179
▁காற்ற	-3180
எஸ்	-3181
▁அடங்கும்	-3182
ச்சே	-3183
▁சுவாமி	-3184
▁உதவி	-3185
▁கவு	-3186
▁பாய	-3187
ராத	-3188
▁எடுக்க	-3189
▁மாற்றம்	-3190
▁மிக்க	-3191
▁தாக்குத	-3192
▁அமெரிக்கா	-3193
ுக்கோ	-3194
ிந்திய	-3195
▁ஆழ	-3196
ொள்க	-3197
ிகோ	-3198
▁ஆங்கிலேய	-3199
தான்	-3200
ப்புப்	-3201
ஸின்	-3202
▁ஆல்ப	-3203
நர்	-3204
▁அன்ன	-3205
▁எதிர்க	-3206
▁வார்த்த	-3207
▁போக	-3208
ப்பர	-3209
▁விகிதம்	-3210
▁நாடுகளின்	-3211
▁ஆந்திர	-3212
▁பகுதிய	-3213
▁நேபாள	-3214
▁கடந்த	-3215
60	-3216
▁வளை	-3217
▁அறிவு	-3218
▁தொடருந்து	-3219
ிருக்கிறார்	-3220
▁விய	-3221
▁நிறைவே	-3222
திகளும்	-3223
▁தத்துவ	-3224
▁ஆகவும்	-3225
▁இராச்சிய	-3226
▁அணு	-3227
▁வரையறுக்க	-3228
11	-3229
ரசு	-3230
வேலி	-3231
த்தாழ	-3232
▁உரை	-3233
▁சிறுக	-3234
▁உணவ	-3235
▁கல்வ	-3236
தீ	-3237
▁கட்சியின்	-3238
▁கத்தோலிக்க	-3239
▁பரு	-3240
▁சுற்றி	-3241
வருமாறு	-3242
▁வீட்ட	-3243
▁காட்சி	-3244
▁பின்பு	-3245
ந்தா	-3246
▁திரைப்படத்தில்	-3247
▁ஆக்சி	-3248
ரையில்	-3249
▁()	-3250
▁பண்	-3251
▁திருவிழா	-3252
st	-3253
ud	-3254
சல்	-3255
ுக்களை	-3256
▁கிடைக்கும்	-3257
▁ஆகியவற்றின்	-3258
▁ஆவர்	-3259
▁வியா	-3260
▁ஆல்	-3261
ித்தல்	-3262
▁ஹோ	-3263
ப்படாத	-3264
▁மும்ப	-3265
டுகிறார்	-3266
ச்சார	-3267
▁வேத	-3268
▁இயேசு	-3269
▁என்றால்	-3270
த்துக்கள்	-3271
▁ஆயுத	-3272
ிந்து	-3273
ங்களால்	-3274
வதாக	-3275
ச்சுவ	-3276
ரைய	-3277
ன்றி	-3278
மைக்க	-3279
▁ஒருங்கிணை	-3280
▁கலி	-3281
த்திலேயே	-3282
12	-3283
▁3.	-3284
ஞர்கள்	-3285
க்கண	-3286
வரான	-3287
ினோ	-3288
▁1980	-3289
▁இலங்கையில்	-3290
ath	-3291
ன்பது	-3292
ியைத்	-3293
ொழுது	-3294
▁தூண்ட	-3295
▁ஒருநாள்	-3296
▁முதலாவது	-3297
பார்	-3298
▁இரும்	-3299
▁திருவண்ணாமலை	-3300
செய்ய	-3301
னுடைய	-3302
▁பத்த	-3303
▁வாகன	-3304
▁கோட்டை	-3305
▁மேம்படுத்த	-3306
▁ஆஸ்திரே	-3307
▁வில்லிய	-3308
▁எழுத்தாளர்	-3309
ிருத்த	-3310
ைகளாக	-3311
▁வரிசை	-3312
▁திருநெல்	-3313
மல்	-3314
▁பலர்	-3315
▁நீக்க	-3316
ேர்	-3317
▁பந்த	-3318
ிற்கான	-3319
▁w	-3320
▁முஸ்	-3321
லியா	-3322
▁திட்டம்	-3323
▁துறைமுக	-3324
சர்	-3325
▁சாலை	-3326
▁சக	-3327
▁எட்ட	-3328
▁ஜனவரி	-3329
▁நுட்ப	-3330
ர்களாக	-3331
த்தள	-3332
▁உடன்ப	-3333
▁பழங்க	-3334
▁அப	-3335
கிழ	-3336
பாத்	-3337
ப்பட்டுள்ள	-3338
▁ஆகியன	-3339
▁கல்வியறிவு	-3340
▁187	-3341
ந்தனர்	-3342
▁இல்லாமல்	-3343
▁பௌத்த	-3344
▁இருந்தாலும்	-3345
▁காஞ்சிபுரம்	-3346
▁போரில்	-3347
▁அமெரிக்காவின்	-3348
ிகர	-3349
ியைச்	-3350
att	-3351
▁கிறிஸ்த	-3352
▁வருகிறார்	-3353
▁அக்	-3354
டுதல்	-3355
▁தொலைவ	-3356
ிடமிருந்து	-3357
▁அரை	-3358
▁வர்த்தக	-3359
பால்	-3360
▁கார	-3361
▁கோய	-3362
ிகு	-3363
▁சிவக	-3364
▁படைகள்	-3365
ab	-3366
▁60	-3367
▁எது	-3368
▁2003	-3369
ணா	-3370
விலான	-3371
ப்பெற்ற	-3372
▁இவருடைய	-3373
கன்	-3374
போர்	-3375
ராய்	-3376
▁சுற்றுலா	-3377
ாதி	-3378
ும்போது	-3379
▁யான	-3380
க்கள	-3381
ையிலான	-3382
up	-3383
▁ஏனெனில்	-3384
ip	-3385
▁அனுபவ	-3386
▁என்பதால்	-3387
ப்பிட	-3388
▁ஏறத்தாழ	-3389
▁ஊடக	-3390
▁படுத்த	-3391
▁ஜூன்	-3392
▁n	-3393
▁தொடங்கியது	-3394
▁பணியாற்றிய	-3395
▁பெரும்பான்	-3396
சிற	-3397
▁நெரு	-3398
▁ஆகத்து	-3399
▁போர்த்த	-3400
▁வழங்கப்பட்டது	-3401
ாரின்	-3402
ிருக்கலாம்	-3403
லீ	-3404
▁ஆள	-3405
ன்ட்	-3406
ரோடு	-3407
தொ	-3408
நாதர்	-3409
▁உண்ண	-3410
▁உரிமை	-3411
ியாகவும்	-3412
னூர்	-3413
▁வெளியிடப்பட்டது	-3414
▁உள்ளூர்	-3415
ரர்	-3416
▁அடிக்க	-3417
வண	-3418
▁பாட்ட	-3419
▁முன்னோ	-3420
▁கிறித்தவ	-3421
▁கட்டுப்பாட்ட	-3422
ராவார்	-3423
▁அமையும்	-3424
▁இருவரும்	-3425
9.	-3426
▁தங்கள	-3427
ட்டோ	-3428
னைப்	-3429
▁வளர்	-3430
▁அவர்களது	-3431
▁2,	-3432
▁ஏற்பட	-3433
ிஸ்	-3434
▁நன்கு	-3435
▁விளைவாக	-3436
▁எதிர்ம	-3437
18	-3438
யோ	-3439
ித்தனர்	-3440
▁பின்வருமாறு	-3441
ரியின்	-3442
▁வளிம	-3443
▁தோன்றிய	-3444
▁கிலோமீட்டர்	-3445
▁விக்க	-3446
▁எழுதி	-3447
▁நரம்ப	-3448
ின்று	-3449
▁ஊக்க	-3450
▁நூலக	-3451
▁உடை	-3452
▁மால	-3453
▁எலும்	-3454
ங்குடி	-3455
▁ஒது	-3456
▁நடிகர்	-3457
▁நாட்கள்	-3458
ce	-3459
▁சமுத	-3460
▁மன்னர்	-3461
வரின்	-3462
ொல	-3463
ென்ற	-3464
▁உலகப்	-3465
வழி	-3466
ையின	-3467
னியம்	-3468
பட்டி	-3469
▁சமுதாய	-3470
▁விதி	-3471
▁இசுலாமிய	-3472
▁குழந்தைகள்	-3473
▁விளையா	-3474
▁கிராமக்	-3475
▁குறைக்க	-3476
வின	-3477
வள	-3478
சன்ன	-3479
னுடன்	-3480
▁இவற்றின்	-3481
ங்காட்சிய	-3482
▁சிறுவ	-3483
▁ஆட்சிய	-3484
ers	-3485
▁ரயில்	-3486
▁கணின	-3487
ரிமை	-3488
ட்சுமி	-3489
▁தொடங்கி	-3490
▁அருகே	-3491
▁பிரிக்க	-3492
▁காற்று	-3493
வகை	-3494
ஸ்டர்	-3495
▁நாம்	-3496
யோக	-3497
▁அறிக	-3498
ொலி	-3499
▁நீளம்	-3500
த்திற்காக	-3501
▁ஐரோப்ப	-3502
▁சாத்திய	-3503
ிக்காக	-3504
▁விவரிக்க	-3505
ாஸ்	-3506
▁0.	-3507
▁2002	-3508
▁பூச்ச	-3509
மானார்	-3510
▁நோயாள	-3511
ிருப்பத	-3512
▁வெள்ளை	-3513
▁பூச	-3514
▁உட்ப	-3515
ிருக்கின்றன	-3516
டே	-3517
மல்ல	-3518
▁வானூர்தி	-3519
▁பிடித்த	-3520
க்கப்பட்டு	-3521
▁ஆதரவ	-3522
▁கடற்ப	-3523
▁பலரும்	-3524
▁ஒலிம்ப	-3525
ராக்	-3526
ர்கு	-3527
மர	-3528
▁கடின	-3529
▁வட்டம்	-3530
ட்சம்	-3531
▁ஏனைய	-3532
▁தனிப்பட்ட	-3533
▁இப்போது	-3534
ளிக்க	-3535
▁திராவிட	-3536
க்கலை	-3537
▁கொண்டாட	-3538
▁தொடங்கினார்	-3539
▁படம்	-3540
கிப்த	-3541
▁மரிய	-3542
த்தட்ட	-3543
▁தொடர்ந்த	-3544
தாவது	-3545
த்தான	-3546
ஹ்	-3547
▁உலகில்	-3548
▁சிவபெரு	-3549
▁தென்னா	-3550
▁மண்ண	-3551
▁வான்	-3552
▁கழகம்	-3553
▁+	-3554
ாவிற்கு	-3555
ுறையில்	-3556
்டன்	-3557
ிருந்தன	-3558
▁இத்தால	-3559
▁பதிலாக	-3560
▁நிகழ்த்த	-3561
▁நகை	-3562
▁போக்குவரத்து	-3563
▁நடைபெறும்	-3564
த்தீ	-3565
▁காள	-3566
▁ஆலய	-3567
ிகளைப்	-3568
▁அருங்காட்சிய	-3569
▁பிரதான	-3570
▁பாய்	-3571
தியில்	-3572
த்தொட	-3573
▁விஜய	-3574
களில்	-3575
வுடன்	-3576
▁வடிவம்	-3577
▁செய்தது	-3578
எம்	-3579
▁தரவு	-3580
▁பன்னாட்டுத்	-3581
▁உற்பத்த	-3582
▁பொறியியல்	-3583
▁இதய	-3584
▁விற்பனை	-3585
ாட்டை	-3586
ச்சூ	-3587
▁அமைந்துள்ளன	-3588
▁நை	-3589
▁இயக்கிய	-3590
▁முறையாக	-3591
15	-3592
▁சிலர்	-3593
ராயண	-3594
ட்டும்	-3595
▁எகிப்த	-3596
▁பூம	-3597
ருகிறது	-3598
ப்படலாம்	-3599
oc	-3600
லாத	-3601
ாக்கள்	-3602
ுகளைப்	-3603
ேர்ம	-3604
▁தக்க	-3605
▁விப	-3606
ுவதற்காக	-3607
▁காணலாம்	-3608
▁திருநெல்வேலி	-3609
▁/	-3610
▁மார்க	-3611
மங்கலம்	-3612
ராள	-3613
ுகின்ற	-3614
நிலைப்	-3615
வாக்க	-3616
▁யூத	-3617
▁திசம்பர்	-3618
▁வலிய	-3619
▁மலையாள	-3620
ங்கல்	-3621
திலும்	-3622
▁பத்	-3623
▁விஷ	-3624
▁தமிழர்	-3625
▁ஏற்பட்டது	-3626
▁பவு	-3627
▁பிரெஞ்சு	-3628
▁இங்கிலாந்த	-3629
ாவுக்கு	-3630
ியிலிருந்து	-3631
ிராம	-3632
▁வேள	-3633
லாந்த	-3634
▁சக்தி	-3635
▁படத்தில்	-3636
கத்தில்	-3637
▁எழுதப்பட்ட	-3638
ராக்ச	-3639
▁மரபு	-3640
]].	-3641
▁பயன்படும்	-3642
ேசன்	-3643
▁நெடுஞ்சாலை	-3644
▁ஆர	-3645
ரியம்	-3646
▁வெப்பநிலை	-3647
▁கணினி	-3648
ியைக்	-3649
ீப	-3650
▁வருவாய்	-3651
▁பின்வரும்	-3652
▁32	-3653
ஆங்கில	-3654
பாடுகள	-3655
▁பணிபுரி	-3656
▁கால்ப	-3657
▁பாக்க	-3658
யல்	-3659
▁சர்	-3660
▁ஜூலை	-3661
▁அவற்றை	-3662
ொருட	-3663
ளுக்கு	-3664
▁1970	-3665
ப்பான்	-3666
ிக்கான	-3667
ெட்ட	-3668
ஸ்கோ	-3669
டுவது	-3670
▁இருந்தால்	-3671
▁கேள்	-3672
ேந்திர	-3673
▁விளம்பர	-3674
முறையில்	-3675
▁அமைந்தது	-3676
ev	-3677
▁பராம	-3678
▁உறுப்பினர்	-3679
ப்பன்	-3680
ங்கில்	-3681
▁வகைப்படுத்த	-3682
1.	-3683
80	-3684
னல்	-3685
▁திட	-3686
▁பொன்ன	-3687
▁வித்த	-3688
க்குழுவ	-3689
ற்றுள்	-3690
▁ஒன்றை	-3691
▁சமயம்	-3692
▁வழங்கும்	-3693
▁In	-3694
▁சோதனை	-3695
▁மீட்ட	-3696
▁வளர்ந்த	-3697
▁துறையில்	-3698
▁முடியாது	-3699
ையு	-3700
▁வைக	-3701
▁இளவ	-3702
▁பதவ	-3703
▁பாதுகாக்க	-3704
திக	-3705
▁லோ	-3706
ாக்கி	-3707
ல்லூர்	-3708
மதி	-3709
▁உடன	-3710
▁சவ	-3711
ப்புத்	-3712
▁மாறிய	-3713
லன்	-3714
▁பதவி	-3715
▁புற்றுநோ	-3716
ுக்கொண்ட	-3717
ுக்கல்	-3718
▁என்றாலும்	-3719
▁முதன்முத	-3720
▁கொல	-3721
ியலாள	-3722
▁காப்ப	-3723
த்தன்மை	-3724
▁நம்பிக்க	-3725
லாக்க	-3726
ப்பட்டினம்	-3727
வையில்	-3728
▁சைவ	-3729
▁பிரம்ம	-3730
▁ஈர	-3731
▁அன்ற	-3732
சில்	-3733
ொன்று	-3734
▁மனைவி	-3735
▁நட்ச	-3736
▁அன்ப	-3737
▁செலு	-3738
▁நடத்திய	-3739
ன்கள	-3740
▁பொற	-3741
▁சோதன	-3742
▁ஆகியவற்றில்	-3743
சிவ	-3744
சாலை	-3745
மைக்	-3746
▁கண்டறி	-3747
▁1960	-3748
ஞ்சிய	-3749
▁அடிப்படையாகக்	-3750
▁காலக	-3751
ப்பும்	-3752
கரி	-3753
▁தன்னை	-3754
ுக்களின்	-3755
ow	-3756
▁போலவே	-3757
▁கூறப்படுகிறது	-3758
▁ட்	-3759
▁அங்கீ	-3760
ist	-3761
▁அடைய	-3762
▁கவித	-3763
▁மீன்	-3764
▁இயக்கம்	-3765
▁ம்	-3766
டிகள்	-3767
▁முன்னணி	-3768
ஹா	-3769
▁80	-3770
▁மழை	-3771
ிகளால்	-3772
மடை	-3773
பவர்	-3774
▁முக்கோண	-3775
ட்ஸ்	-3776
▁இராஜ	-3777
▁இருப்பது	-3778
த்துப்	-3779
▁நெருக்க	-3780
ெர்	-3781
ாவார்	-3782
த்தினர்	-3783
▁அமிலம்	-3784
ண்டை	-3785
நல	-3786
▁வில்லியம்	-3787
▁ஆதி	-3788
▁தம்ப	-3789
▁நாணய	-3790
▁அனைத்தும்	-3791
ப்பொ	-3792
▁மாதிர	-3793
தைப்	-3794
நிதி	-3795
ாவிய	-3796
▁186	-3797
ப்படை	-3798
▁கும்ப	-3799
▁மக்கள்தொகை	-3800
டுகின்றது	-3801
▁நெற	-3802
▁வேறுபட்ட	-3803
▁சௌ	-3804
▁எல்லை	-3805
▁பசு	-3806
▁சட	-3807
ாளையம்	-3808
▁ஏற்று	-3809
ுடை	-3810
▁ஆலோ	-3811
▁பத்திரிக	-3812
▁இருந்தனர்	-3813
▁மஞ்சள்	-3814
▁தக	-3815
ப்பாட	-3816
▁மண்	-3817
மாண	-3818
மக்கள்	-3819
▁செயற்கை	-3820
ண்டோ	-3821
▁சேலம்	-3822
ஸி	-3823
மாகப்	-3824
ல்களின்	-3825
▁ஆற்றின்	-3826
▁எழுதியுள்ளார்	-3827
க்கல்	-3828
ிது	-3829
ையர்	-3830
▁சிறப்பாக	-3831
▁முக்கியத்துவம்	-3832
▁ஈழ	-3833
ற்றும்	-3834
▁பயணம்	-3835
3.	-3836
ாளர்கள	-3837
▁அறிகுற	-3838
7.	-3839
▁35	-3840
▁சிதை	-3841
▁தோட்ட	-3842
▁தொடங்கிய	-3843
▁வானிய	-3844
▁சிவகங்கை	-3845
▁தொகுப்பு	-3846
▁கிளை	-3847
▁என்பவரால்	-3848
▁நடன	-3849
▁இவரை	-3850
▁நீர்ம	-3851
▁கதாபா	-3852
▁திருச்சப	-3853
்டு	-3854
டின்	-3855
ik	-3856
ரசி	-3857
4)	-3858
வர்களில்	-3859
▁சோவிய	-3860
ண்டன்	-3861
ைகளால்	-3862
▁அறிக்க	-3863
ங்களுக்கும்	-3864
▁கிட்டத்தட்ட	-3865
▁திருத்தந்தை	-3866
ாகவே	-3867
▁இளம்	-3868
▁தரும்	-3869
▁விமர்ச	-3870
▁இச்சேர்ம	-3871
▁ஆகஸ்ட்	-3872
▁அரண்ம	-3873
வற்றை	-3874
▁தெலுங்கு	-3875
ியு	-3876
▁இளை	-3877
▁பரிசு	-3878
▁கொண்டுள்ளன	-3879
▁திரைப்படங்களில்	-3880
ாட்டின்	-3881
▁நேரடியாக	-3882
▁உலகம்	-3883
▁வாத	-3884
ியுடன்	-3885
கார	-3886
▁சன்னதி	-3887
▁கட்டப்பட்ட	-3888
ிக்கப்பட்டார்	-3889
2.	-3890
ிவிட்ட	-3891
▁தென்னிந்திய	-3892
25	-3893
▁பிற்ப	-3894
▁தோல்விய	-3895
▁செயல்படுத்த	-3896
▁உத்தர	-3897
ுவையில்	-3898
▁நினைவு	-3899
▁கிரிக்கட்	-3900
▁காதல்	-3901
▁அதிகரிக்க	-3902
▁காட்டு	-3903
▁வடிவில்	-3904
▁கடைசி	-3905
மிழ	-3906
ப்பிரமண	-3907
▁பிரபலமான	-3908
▁எடுத்துக்	-3909
4.	-3910
▁மாதத்தில்	-3911
▁எழுதினார்	-3912
▁தீவு	-3913
க்கட்ட	-3914
▁தேச	-3915
ிக்கின்றன	-3916
▁அர்	-3917
▁சென்றார்	-3918
ணர்	-3919
▁ஏழ	-3920
▁சிங்கள	-3921
▁இப்	-3922
▁தரு	-3923
த்தன்	-3924
டுகளின்	-3925
▁சுருக்க	-3926
▁குறிக்கிறது	-3927
▁ரு	-3928
▁முடியாத	-3929
▁மூலக்கூற்று	-3930
▁இயேச	-3931
க்குடி	-3932
▁முனைவர்	-3933
70	-3934
த்தான்	-3935
ah	-3936
▁முது	-3937
▁மூத்த	-3938
▁என்கிற	-3939
▁சாம	-3940
▁தாண்ட	-3941
▁பெறும்	-3942
லத்தில்	-3943
3)	-3944
▁வாய்ப்பு	-3945
▁வேறுப	-3946
▁காந்தி	-3947
▁ஆய்வாள	-3948
▁இந்தச்	-3949
▁லே	-3950
மணி	-3951
▁உரிய	-3952
▁இந்தோ	-3953
▁அடையாளம்	-3954
▁விழுப்பு	-3955
▁டொ	-3956
மிட்ட	-3957
க்கூடும்	-3958
▁விளங்குகிறது	-3959
▁185	-3960
▁ஒளிபர	-3961
▁விருப்ப	-3962
கே	-3963
டியா	-3964
▁நேர்	-3965
வாகும்	-3966
▁உபசன்ன	-3967
▁விலை	-3968
நட	-3969
▁அடித்த	-3970
▁தனியார்	-3971
▁ஜெர்மான	-3972
தெ	-3973
ூற	-3974
▁".	-3975
ித்தான்	-3976
▁உருவான	-3977
▁முருகன்	-3978
▁பள்ளியில்	-3979
▁மின்க	-3980
▁வாழ்ந்து	-3981
லையும்	-3982
▁மீற்ற	-3983
▁நகரின்	-3984
வச	-3985
▁மந்திர	-3986
▁முத்து	-3987
▁கொள்ளும்	-3988
ஸில்	-3989
லிங்க	-3990
லைத்	-3991
▁திருவள்ள	-3992
▁பெயர	-3993
▁இங்குள்ள	-3994
ர்கோ	-3995
▁மாநிலம்	-3996
▁க்க	-3997
▁இந்நூ	-3998
ட்டுகள்	-3999
16	-4000
ராஜ்	-4001
▁ஓர	-4002
▁வளாக	-4003
▁புராண	-4004
▁பெரிதும்	-4005
▁ஆப்	-4006
ினான்	-4007
35	-4008
த்தில	-4009
▁மகி	-4010
▁மைக்	-4011
▁சந்தை	-4012
▁கிராமத்தில்	-4013
▁நீர	-4014
ணியில்	-4015
▁கார்பன்	-4016
▁தோற்றுவ	-4017
▁தன்மைய	-4018
▁முஸ்லி	-4019
▁வரலாற்றில்	-4020
▁சுல்த	-4021
▁உறுப்பினர்கள்	-4022
ate	-4023
ரியாக	-4024
▁நடைபெற்றது	-4025
யண	-4026
பிள்	-4027
75	-4028
▁ஏவ	-4029
டியில்	-4030
▁சரியான	-4031
▁அவர்களுக்கு	-4032
▁வயத	-4033
▁சாவ	-4034
ுவதற்கான	-4035
▁பாடல்கள	-4036
ையாளர்	-4037
ங்களைத்	-4038
▁உள்நாட்டு	-4039
▁டால	-4040
▁ஜார்	-4041
▁திண்ட	-4042
▁வகைகள்	-4043
▁சுத்த	-4044
▁கடவுள்	-4045
▁நேரங்களில்	-4046
▁4.	-4047
▁காண்ப	-4048
▁பிரா	-4049
▁இளைய	-4050
▁ஐய	-4051
▁வின்	-4052
▁1999	-4053
ழிய	-4054
▁செல்வ	-4055
▁திறந்த	-4056
ல்லா	-4057
▁அம்	-4058
▁ஏரி	-4059
▁(200	-4060
▁சமன்ப	-4061
▁பொறுப்ப	-4062
▁கோல்	-4063
ருந்த	-4064
▁l	-4065
46	-4066
1,	-4067
▁மாணவர்கள்	-4068
▁நடித்துள்ளார்	-4069
▁மோச	-4070
ேற்றம்	-4071
ைப்படம்	-4072
▁எவ்வாறு	-4073
▁இக்	-4074
மேற்கு	-4075
▁கொள்கை	-4076
ர்டு	-4077
▁தீர்த்த	-4078
▁முதுக	-4079
▁விழுப்புரம்	-4080
▁புதுக்கோட்டை	-4081
னு	-4082
▁இரவு	-4083
வர்களை	-4084
▁ஆய்வுகள்	-4085
ine	-4086
ுகை	-4087
ள்கள்	-4088
த்துக்குடி	-4089
▁நீரா	-4090
▁வசிக்க	-4091
ானி	-4092
▁விழா	-4093
▁மையம்	-4094
ள்ளை	-4095
ட்டின்	-4096
ஆங்கிலம்	-4097
▁தென்னாப்பிரிக்க	-4098
ell	-4099
ல்கா	-4100
▁பகுதிகளை	-4101
▁மூலக்கூற	-4102
ரியும்	-4103
▁கட்டுரைகள்	-4104
மாகிய	-4105
▁வழிவ	-4106
▁அருள்	-4107
▁குறுக	-4108
▁நாளில்	-4109
ம்புத்த	-4110
▁பாதிப்ப	-4111
▁மேலாண்மை	-4112
▁2017	-4113
▁வேண்டு	-4114
▁வெளியானது	-4115
▁or	-4116
▁உருசிய	-4117
டையும்	-4118
▁கருப்ப	-4119
▁பின்பற்ற	-4120
--	-4121
ியாய	-4122
▁அலெ	-4123
▁மய	-4124
▁அடிக்கடி	-4125
▁1996	-4126
▁பகுதிகள	-4127
▁வழங்கிய	-4128
பக	-4129
ெடுக்க	-4130
▁முட்ட	-4131
▁நூல்கள	-4132
▁கூறுகிறது	-4133
▁நம்பிக்கை	-4134
▁நேச	-4135
ையிட	-4136
பத	-4137
ண்டா	-4138
▁நிறுவப்பட்டது	-4139
▁75	-4140
ங்க்	-4141
▁ஈடுப	-4142
▁புரத	-4143
ிக்கப்படும்	-4144
▁ஒட்ட	-4145
▁அறிந்த	-4146
▁”	-4147
ுட்பட்ட	-4148
முடைய	-4149
ிற்காக	-4150
▁அவற்றில்	-4151
மேன்	-4152
▁சீர்த	-4153
ஃபோ	-4154
மைத்த	-4155
▁பங்கே	-4156
ப்பூர்வ	-4157
ிங்	-4158
ொல்	-4159
பிக்	-4160
▁இடது	-4161
▁விவர	-4162
நாதபுரம்	-4163
டிக்	-4164
▁கான	-4165
ளுமன்ற	-4166
ியப்	-4167
▁அணை	-4168
▁கருதுக	-4169
ுகிறார்கள்	-4170
▁குரோ	-4171
▁சோவியத்	-4172
▁பரிமாற்ற	-4173
▁$	-4174
ity	-4175
▁தயாரிப்ப	-4176
▁கோண	-4177
க்கால	-4178
▁இயற்பியல்	-4179
▁வருகின்றனர்	-4180
▁சங்கம்	-4181
▁டீ	-4182
2)	-4183
▁தடுக்க	-4184
ப்பெருமாள்	-4185
ணைக்க	-4186
▁விலக	-4187
ியானது	-4188
▁பாதிக்கப்பட்ட	-4189
▁காட்டிலும்	-4190
த்திரி	-4191
▁போதும்	-4192
▁மேற்பர	-4193
▁படுக	-4194
▁அளித்த	-4195
ard	-4196
▁நுக	-4197
▁தூத்துக்குடி	-4198
▁எச்	-4199
த்ய	-4200
பல்	-4201
▁பந்து	-4202
தைத்	-4203
ுக்களில்	-4204
▁கட்டுமான	-4205
8.	-4206
▁கோட்ப	-4207
ொலை	-4208
▁துரு	-4209
ரைத்	-4210
▁எட்	-4211
▁இந்தியப்	-4212
▁உயரத்தில்	-4213
ாதை	-4214
ுவதாக	-4215
▁வலது	-4216
▁விண்ண	-4217
ாலா	-4218
ச்சேரி	-4219
▁சிறிது	-4220
ess	-4221
▁70	-4222
ல்ஸ்	-4223
▁சபை	-4224
▁அரங்க	-4225
▁முற்ப	-4226
▁படிக	-4227
▁பண்ண	-4228
▁ஆனாலும்	-4229
▁அமைப்புகள்	-4230
நாதன்	-4231
▁விவாத	-4232
▁நூலில்	-4233
▁போரின்	-4234
▁மென்பொருள்	-4235
▁தொடரில்	-4236
▁கதாபாத்திர	-4237
▁சிந்த	-4238
▁முனிவ	-4239
▁செய்யப்படும்	-4240
17	-4241
▁படைத்த	-4242
▁பெப்ரவரி	-4243
க்ட	-4244
ுகளால்	-4245
▁அவரின்	-4246
▁செரு	-4247
▁மாற்றிய	-4248
▁காவல்	-4249
39	-4250
45	-4251
▁அடைந்த	-4252
▁அளவிலான	-4253
▁உருவாகும்	-4254
▁உருவாக்கும்	-4255
ct	-4256
ுவா	-4257
▁எக்ஸ்	-4258
▁செயல்த	-4259
▁வெளியிட்டார்	-4260
ill	-4261
▁45	-4262
ிருத	-4263
▁எதிர்ப்பு	-4264
ian	-4265
▁தழுவ	-4266
போதும்	-4267
▁அறியப்பட்ட	-4268
ோறும்	-4269
▁பயன்படுத்தும்	-4270
கிர	-4271
▁ஒட்டு	-4272
கங்கள்	-4273
▁வளர்க்க	-4274
▁பிரதேசம்	-4275
▁மாற்று	-4276
▁பாகிஸ்த	-4277
▁இம்	-4278
▁சென்னையில்	-4279
சுக	-4280
▁ஏர்	-4281
▁ஆல்க	-4282
டுக்கு	-4283
ாம்ப	-4284
ph	-4285
▁தால	-4286
▁பதவிய	-4287
▁உபயோக	-4288
▁a	-4289
▁1998	-4290
▁அந்தப்	-4291
▁ஒன்பது	-4292
3,	-4293
பாக	-4294
▁நடித்துள்ளனர்	-4295
▁ஆனார்	-4296
▁குறியீ	-4297
▁அமைப்பின்	-4298
ழ்ந்த	-4299
2,	-4300
▁கலந்த	-4301
▁போட்டி	-4302
டுகின்றனர்	-4303
▁நகரத்தில்	-4304
4,	-4305
▁திரவ	-4306
▁கைது	-4307
▁எண்ணெய்	-4308
கத்தின்	-4309
▁பாராளுமன்ற	-4310
▁நட்சத்திர	-4311
▁இவன்	-4312
▁அமைய	-4313
▁இயல்	-4314
▁முறைகள்	-4315
வையும்	-4316
▁வங்கி	-4317
▁திசை	-4318
பர்ட்	-4319
வதால்	-4320
▁வழிமுற	-4321
▁வெளியேற்ற	-4322
பகுப்பு	-4323
▁பெயரிட	-4324
▁ஆஸ்திரேலிய	-4325
ியக்க	-4326
▁அனுமதி	-4327
▁காலங்களில்	-4328
ந்தன்	-4329
▁வேலூர்	-4330
▁தென்கிழ	-4331
▁மருந்து	-4332
▁அட்	-4333
▁எச்ச	-4334
▁அணுக்க	-4335
▁மாலை	-4336
▁தொழிற்ச	-4337
ந்துள்ளார்	-4338
ாட்டி	-4339
▁சேமி	-4340
▁குண்ட	-4341
▁நிறைந்த	-4342
பாய	-4343
▁இரட்டை	-4344
▁வழியில்	-4345
▁நிலுவையில்	-4346
ov	-4347
▁பரப்பளவு	-4348
6.	-4349
சர	-4350
▁அடுக்க	-4351
▁கூடுதல்	-4352
▁செய்கிறது	-4353
▁அடர்த்தி	-4354
▁அடங்கிய	-4355
▁பொருட்கள	-4356
ிருஷ்ண	-4357
நல்லூர்	-4358
▁மேற்கொண்ட	-4359
ீஸ்	-4360
▁சேர	-4361
ிப்படுத்த	-4362
▁அனைவரும்	-4363
90	-4364
▁சக்கர	-4365
இன்	-4366
▁வளைய	-4367
ஸ்தான்	-4368
▁மாறாக	-4369
▁சோடியம்	-4370
▁1950	-4371
▁வானியல்	-4372
▁பேரரசின்	-4373
▁படிப்ப	-4374
▁பிரச்சின	-4375
▁உயரம்	-4376
▁தலைமையில்	-4377
ஜன்	-4378
▁துப்ப	-4379
▁செய்தி	-4380
▁செய்யப்பட்டு	-4381
யன்	-4382
▁அச்சு	-4383
▁குடியே	-4384
ல்லது	-4385
ிச்சி	-4386
்துறை	-4387
▁அப்போ	-4388
▁கோயம்புத்த	-4389
ுல்	-4390
▁மக்களுக்கு	-4391
▁ஏற்றுக்கொள்ள	-4392
ob	-4393
▁ஆரம்பத்தில்	-4394
▁தாம்	-4395
▁அதன்ப	-4396
ினார்கள்	-4397
▁பரிசோ	-4398
▁புளோ	-4399
▁இன்றும்	-4400
▁கம்	-4401
▁1989	-4402
▁விழு	-4403
நெ	-4404
ாசி	-4405
ிவி	-4406
▁இணைந்த	-4407
நூல்	-4408
▁அறியப்படுகிறது	-4409
ித்துவ	-4410
▁கேட்க	-4411
▁அந்ந	-4412
ருக்கான	-4413
▁உண்மையான	-4414
▁பிரிட்டி	-4415
▁ஆண்கள	-4416
▁ஜீ	-4417
ற்றல்	-4418
ில்லா	-4419
ப்பதற்காக	-4420
▁ஆக்	-4421
▁கடுமையான	-4422
ஷி	-4423
ant	-4424
ாலயம்	-4425
▁கலைஞ	-4426
▁வரவே	-4427
▁ஒலிம்பிக்	-4428
▁நாகப்பட்டினம்	-4429
ஷா	-4430
்சு	-4431
▁பரிச	-4432
▁மைல்	-4433
▁மீதான	-4434
ிக்கொண்ட	-4435
இல	-4436
▁வருமான	-4437
தார	-4438
▁",	-4439
▁பேரரசு	-4440
▁நீரில்	-4441
ாதே	-4442
▁செயல	-4443
வர்களும்	-4444
ூறு	-4445
திரு	-4446
▁பிற்க	-4447
ாடுகள்	-4448
▁உதவும்	-4449
▁துல்லிய	-4450
▁ஷா	-4451
துவாக	-4452
▁இந்தி	-4453
ந்துள்ளன	-4454
▁கார்த்த	-4455
▁ஆங்கிலம்	-4456
ிறு	-4457
▁பாற	-4458
ழ்த்த	-4459
▁தொகையில்	-4460
▁3,	-4461
▁டாக	-4462
▁நீல	-4463
மைகள்	-4464
ப்பெய	-4465
ாரும்	-4466
▁அங்கே	-4467
▁விரிவு	-4468
▁உதாரணமாக	-4469
▁மாவ	-4470
▁வது	-4471
ப்படுகின்றனர்	-4472
▁ஒழ	-4473
த்திரே	-4474
▁ஓய்வு	-4475
ிட்டார்	-4476
▁முதன்மையான	-4477
்கோ	-4478
▁குளிர	-4479
▁பயன்பாட்ட	-4480
▁குறுக்க	-4481
ர்வீ	-4482
▁அய்யனார்	-4483
▁அயன	-4484
▁பேச்ச	-4485
ாவிலும்	-4486
▁வந்தனர்	-4487
▁செய்யப்படுகிறது	-4488
1)	-4489
▁மேலே	-4490
▁அவர்களை	-4491
சூர்	-4492
▁கொண்டிருந்தது	-4493
▁மாகாணத்தில்	-4494
▁ஃப்	-4495
▁அவள்	-4496
▁பாடி	-4497
▁வேட்ப	-4498
7)	-4499
▁பென்	-4500
▁கவர்	-4501
விர	-4502
வுக்கு	-4503
வர்களாக	-4504
48	-4505
▁இராச	-4506
ர்களையும்	-4507
ர்களைக்	-4508
▁வெள்ளி	-4509
ர்களுடன்	-4510
▁காங்கிரஸ்	-4511
▁பற்றியும்	-4512
▁கையாள	-4513
▁வெட்ட	-4514
▁மொழிகளில்	-4515
▁தொலைவிலும்	-4516
▁வண்ட	-4517
▁வீரர்	-4518
ிகளுடன்	-4519
▁பிள்ளை	-4520
ரிக்கும்	-4521
▁சிவப்பு	-4522
▁புலவர்	-4523
▁Ch	-4524
விட்	-4525
▁உரிமைய	-4526
▁பூங்கா	-4527
▁நிருவாகியால்	-4528
▁தொல்ல	-4529
▁இலக்கண	-4530
▁நார்	-4531
ைகின்றன	-4532
ுவதால்	-4533
▁பெங்கள	-4534
▁கூடுதலாக	-4535
29	-4536
▁மரம்	-4537
▁பாராட்ட	-4538
ினாலும்	-4539
▁பிறந்தவர்	-4540
▁நன்ன	-4541
வையாகும்	-4542
▁பெண்களின்	-4543
வருக்கும்	-4544
▁பாடல்களை	-4545
].	-4546
சிரியர்	-4547
▁g	-4548
▁தானிய	-4549
▁வழக்கமாக	-4550
▁கிருஷ்ணகிரி	-4551
▁காக	-4552
▁பகி	-4553
ன்களை	-4554
▁பாண்ட	-4555
▁பகுதியை	-4556
யு	-4557
ிப்பது	-4558
▁கார்ட	-4559
கொ	-4560
ுவதில்	-4561
ெல்லாம்	-4562
▁என்பதாகும்	-4563
பொருள்	-4564
▁கோப்ப	-4565
▁அரசியல	-4566
▁நிறைவு	-4567
▁ஒழுங்கு	-4568
▁வலுவ	-4569
▁தில்லி	-4570
▁புரிந்து	-4571
▁முத்த	-4572
▁கட்டப்பட்டது	-4573
▁இப்போ	-4574
ியாகும	-4575
▁சுந்தர	-4576
▁உண்மையில்	-4577
▁வேதி	-4578
▁செய்தனர்	-4579
▁தாக்குதல்	-4580
ையார்	-4581
பாளையம்	-4582
▁நடித்திருந்தனர்	-4583
▁கடவுள	-4584
▁விளையாடி	-4585
▁ஆயிர	-4586
▁உறுதி	-4587
▁கடந்து	-4588
▁குடும்பம்	-4589
ங்கர்	-4590
▁நிலையை	-4591
படிய	-4592
ுக்குள்	-4593
ைகளுடன்	-4594
36	-4595
த்தீன்	-4596
▁பகுப்பா	-4597
▁நாமக்க	-4598
ிந்த	-4599
ங்களுள்	-4600
திரைப்படம்	-4601
▁கட்டாய	-4602
ிதழ்	-4603
னெ	-4604
வால்	-4605
▁க்கு	-4606
▁போரா	-4607
▁மயில	-4608
▁பிரதம	-4609
▁வேட்ட	-4610
▁கலாச்சார	-4611
▁அயோ	-4612
ஞ்ஞான	-4613
89	-4614
மைப்	-4615
▁உறுப்ப	-4616
▁ஒன்றான	-4617
▁பொறுத்து	-4618
▁நிலையான	-4619
பொருள	-4620
▁நேர்ம	-4621
▁நபர்கள்	-4622
▁பொருட்களை	-4623
க்கல	-4624
▁வன்	-4625
▁எளிய	-4626
▁இறக்க	-4627
▁நியூயா	-4628
ெண்	-4629
▁மிகச்	-4630
வதை	-4631
▁90	-4632
▁அண்ட்	-4633
14	-4634
ண்டர்	-4635
ுவதன்	-4636
த்திற்குப்	-4637
ராம்	-4638
▁இன்றைய	-4639
▁பயன்பாடு	-4640
போல	-4641
ேட்	-4642
▁ரீதியாக	-4643
▁கட்டட	-4644
7-	-4645
▁புனை	-4646
▁சற்று	-4647
▁மன்னன்	-4648
85	-4649
▁எளி	-4650
▁கோட	-4651
if	-4652
▁நாட்க	-4653
▁மாவட்டங்களில்	-4654
▁கட்டமை	-4655
▁சிவாகம	-4656
7,	-4657
்டீ	-4658
▁நிகழ்ந்த	-4659
ழிப்பு	-4660
▁வானொலி	-4661
▁கர்நாடக	-4662
▁புதின	-4663
▁சுப்பிரமண	-4664
Ch	-4665
▁தட்ட	-4666
▁அரசியல்வாதி	-4667
▁வேட	-4668
ங்களான	-4669
▁ஈரோடு	-4670
▁ரொ	-4671
▁எதிர்பா	-4672
▁குறுகிய	-4673
▁பெருங்க	-4674
▁முழுமையான	-4675
▁வாய்ப்பாடு	-4676
ணிய	-4677
▁சீர	-4678
▁அந்தக்	-4679
▁ஒன்றில்	-4680
▁கன்னியாகும	-4681
▁இங்கே	-4682
▁திண்டுக்கல்	-4683
வாழ்	-4684
▁வடகிழ	-4685
▁நாமக்கல்	-4686
▁பாலை	-4687
▁துவங்க	-4688
▁கொலை	-4689
▁மங்கோ	-4690
▁எதுவும்	-4691
▁விண்வெளி	-4692
▁உருவாகிறது	-4693
▁சுற்றுச்சூ	-4694
▁அசை	-4695
தையும்	-4696
▁சமயத்தில்	-4697
டான	-4698
ையூர்	-4699
்டின்	-4700
▁கிமு	-4701
ிக்குப்	-4702
▁இரண்டும்	-4703
▁கிடைத்தது	-4704
சுர	-4705
ுகளுடன்	-4706
▁பதிப்பு	-4707
▁சாய	-4708
ளாவிய	-4709
▁நிமிட	-4710
▁மைக்க	-4711
▁உரையா	-4712
22	-4713
86	-4714
▁வாயில	-4715
▁அழுத்தம்	-4716
க்குழு	-4717
▁பெற்றோ	-4718
▁வழங்கி	-4719
▁தர்மபுரி	-4720
விக	-4721
ரிட்ட	-4722
▁இசைக்க	-4723
மாற	-4724
பட்ச	-4725
▁இதழ்	-4726
▁மெய்	-4727
ப்பள்ள	-4728
▁தொகுப்ப	-4729
▁முர	-4730
▁சர்க்க	-4731
▁இவ்வகை	-4732
▁ஆயினும்	-4733
▁நிலப்பர	-4734
▁செயலாளர்	-4735
▁கோவ	-4736
▁திருச்சிரா	-4737
▁1995	-4738
▁சின்	-4739
▁கிழக்க	-4740
▁ஜார்ஜ்	-4741
▁ஒன்றியம்	-4742
▁தொடக்கத்தில்	-4743
த்தன	-4744
ிதாக	-4745
பூர்வ	-4746
ஒரு	-4747
▁நாராயண	-4748
▁எழுத்துக்க	-4749
ra	-4750
ாதிப	-4751
▁காலப்	-4752
▁பேருந்து	-4753
ட்டுப்	-4754
செய்த	-4755
பில்	-4756
▁முறையே	-4757
▁36	-4758
▁டு	-4759
ப்படுகின்ற	-4760
▁பட்டியலில்	-4761
▁கண்	-4762
▁வருடம்	-4763
▁மத்தியில்	-4764
▁கூறுகிறார்	-4765
▁மான்	-4766
▁நிறைவேற்ற	-4767
▁பணம்	-4768
▁இறந்து	-4769
ேயர்	-4770
▁1991	-4771
த்துக்கும்	-4772
8)	-4773
ங்களாகும்	-4774
ப்படுத்தும்	-4775
பன்	-4776
மாய்	-4777
ன்னி	-4778
▁உருவானது	-4779
நாக	-4780
▁அணிக்கு	-4781
▁சிறப்பான	-4782
▁வெற்றிகர	-4783
▁முழுமையாக	-4784
நாட	-4785
▁வேளாண்மை	-4786
▁சரண	-4787
த்துச்	-4788
13	-4789
▁வழிக	-4790
ப்பிரிவ	-4791
ப்பொருள்	-4792
▁தூர	-4793
▁மார்ச்சு	-4794
ட்ரோ	-4795
▁இடைவெள	-4796
▁இன்னொரு	-4797
▁கோயம்புத்தூர்	-4798
▁1994	-4799
ர்ப்பு	-4800
▁மைக்ரோ	-4801
▁செயல்பட்ட	-4802
க்கிர	-4803
ராட்ச	-4804
▁°	-4805
மடைந்த	-4806
▁திருவள்ளூர்	-4807
ங்கே	-4808
▁கடன்	-4809
▁செங்கு	-4810
▁நகரத்தின்	-4811
▁நாட்களில்	-4812
▁பர்	-4813
ுடனான	-4814
▁பெயரை	-4815
▁குடியேற்ற	-4816
ுவன	-4817
மைச்ச	-4818
ரியல்	-4819
▁தொடர்வ	-4820
ொட	-4821
க்ஸ	-4822
வைப்	-4823
▁பின	-4824
▁எப்போ	-4825
▁இவற்றை	-4826
▁எடை	-4827
▁சேர்ந்தார்	-4828
▁சிறை	-4829
▁கட்டி	-4830
ub	-4831
▁கடத்த	-4832
▁இரயில்	-4833
▁சென்	-4834
▁இயங்கும்	-4835
▁மொழிபெயர்	-4836
ிவாச	-4837
▁தோற்றம்	-4838
▁பட்டியல	-4839
▁தோன்றும்	-4840
என்	-4841
▁பதி	-4842
99	-4843
ொல்ல	-4844
▁கருப்பு	-4845
▁இவ்வாற	-4846
▁குறியீடு	-4847
▁பான	-4848
▁இரட்ட	-4849
▁களில்	-4850
▁எழுத்தாள	-4851
▁அவசிய	-4852
▁மிகுத	-4853
▁அமைத்த	-4854
▁மொழிகள்	-4855
யிர	-4856
ாலோ	-4857
▁குடும்பத்தில்	-4858
▁அலங்க	-4859
▁இஸ்லாமிய	-4860
▁வங்காளதேச	-4861
▁நேரடி	-4862
▁இத்திரைப்படம்	-4863
சம	-4864
▁மாறி	-4865
▁விமர்சன	-4866
ைக்கான	-4867
▁வளரும்	-4868
▁மலா	-4869
▁நடத்தி	-4870
▁பஞ்சா	-4871
▁v	-4872
▁உறவு	-4873
▁பூர்	-4874
▁வல்லு	-4875
▁ஆங்கிலத்தில்	-4876
32	-4877
ிகார	-4878
▁படைப்ப	-4879
கட	-4880
▁மகள்	-4881
ொள்ளும்	-4882
ிலிருந்தும்	-4883
ச்செ	-4884
▁கோள	-4885
▁நூல்களை	-4886
▁வீழ்ச்ச	-4887
▁ஆதிக்க	-4888
மையும்	-4889
ரையும்	-4890
மையின்	-4891
▁அறிந்து	-4892
▁வெற்றிய	-4893
▁செயல்படுகிறது	-4894
னன்	-4895
▁5.	-4896
▁ஃபெ	-4897
க்குழ	-4898
அல்லது	-4899
▁விடுதலைப்	-4900
ிக்ஸ்	-4901
▁திட்டமிட	-4902
The	-4903
▁சான்	-4904
▁நடிகை	-4905
▁சீக்கிய	-4906
ஜீ	-4907
ோல்	-4908
▁ரூபாய்	-4909
▁தயாரிப்பு	-4910
நித	-4911
▁முதலான	-4912
▁வண்ணம்	-4913
▁வரையிலான	-4914
போல்	-4915
▁சீனா	-4916
தற்காக	-4917
▁தோற்க	-4918
▁உயர்த்த	-4919
ப்படுத்தப்பட்ட	-4920
31	-4921
qu	-4922
்ச்	-4923
ாடுகள	-4924
ர்களுக்கும்	-4925
ாயி	-4926
னையும்	-4927
▁முயற்சிய	-4928
▁சதவீத	-4929
▁துன்ப	-4930
▁க்கும்	-4931
▁கொண்டதாக	-4932
▁அனுமத	-4933
▁தண்ணீர்	-4934
▁நான்காவது	-4935
▁சேகரி	-4936
தமிழ்	-4937
ழும்ப	-4938
▁ஐதரசன்	-4939
ுகொண்ட	-4940
▁வெளியிடப்பட்ட	-4941
▁வரத	-4942
▁குறு	-4943
▁ஒற்றை	-4944
▁தனக்கு	-4945
ியுள்ளது	-4946
▁இதர	-4947
▁வேற	-4948
▁விசை	-4949
▁தமிழ்ப்	-4950
பல	-4951
▁ஆப்க	-4952
▁விஞ்ஞான	-4953
▁பிரிட்டிஷ்	-4954
▁இதுவரை	-4955
ிக்கப்பட்டுள்ளது	-4956
49	-4957
ாக்ஸ்	-4958
▁படித்த	-4959
கள்	-4960
ளைக்	-4961
▁அடங்க	-4962
▁உட்பட்டது	-4963
லானது	-4964
▁மின்சார	-4965
▁சித்திரை	-4966
ீரல்	-4967
tt	-4968
▁மிகக்	-4969
▁ஆர்வம்	-4970
▁காவல்த	-4971
▁இக்கோயில	-4972
ரிகள்	-4973
லக்ட்	-4974
▁மும்பை	-4975
▁கன்னியாகுமரி	-4976
ேயான	-4977
▁காலை	-4978
நாட்டில்	-4979
கல்	-4980
ூரின்	-4981
ுவி	-4982
ேட்டு	-4983
▁பெருக்க	-4984
▁கோட்பாடு	-4985
▁அறுவை	-4986
ரிகிறது	-4987
▁தவிர்க்க	-4988
பெய	-4989
▁500	-4990
▁1992	-4991
▁இனங்கள்	-4992
▁கடற்கரை	-4993
▁பரிந்துரை	-4994
ep	-4995
ுறவு	-4996
▁சல்ப	-4997
▁வழக்கம்	-4998
▁வழங்கப்படும்	-4999
▁சிவா	-5000
▁சித்திர	-5001
ினைப்	-5002
▁தாயார்	-5003
தோடு	-5004
சித்த	-5005
▁விண்மீன்	-5006
வைகள்	-5007
மையால்	-5008
▁குதிர	-5009
▁ஞ	-5010
முனை	-5011
▁தங்கிய	-5012
▁பெற்றவர்	-5013
▁வரிசையில்	-5014
த்தொடர்	-5015
▁காப்பா	-5016
▁அளவுக்கு	-5017
மின்றி	-5018
ுகளிலும்	-5019
▁இரும்பு	-5020
ளிய	-5021
லாகும்	-5022
ழும்பு	-5023
▁சேர்மமாகும்	-5024
ழில்	-5025
▁அரசன்	-5026
▁எப்படி	-5027
▁வட்டத்தில்	-5028
ந்தம்	-5029
▁முடிக	-5030
கார்	-5031
▁எழுது	-5032
வதில்லை	-5033
▁தந்தைய	-5034
▁டாக்டர்	-5035
▁விழுக்க	-5036
▁சன்னதிகள்	-5037
ஷ்ய	-5038
▁நினைவ	-5039
▁போன்றவற்றை	-5040
-0	-5041
▁உப்பு	-5042
▁மங்கோலிய	-5043
னவே	-5044
வேக	-5045
▁எரு	-5046
▁வித்தியா	-5047
▁நடவடிக்கை	-5048
▁வால	-5049
▁கண்காண	-5050
ீஸ்வரர்	-5051
▁ஆயிரம்	-5052
▁இயற்றிய	-5053
▁ஆச	-5054
▁ஹை	-5055
்க்கு	-5056
ிக்கப்பட்டன	-5057
▁போட்டியிட்டு	-5058
▁ஆலோச	-5059
▁வரையில்	-5060
▁பிரிவில்	-5061
மாகத்	-5062
▁சமீப	-5063
▁இருபது	-5064
▁வீரர்கள்	-5065
▁விளங்கியது	-5066
மனை	-5067
▁180	-5068
▁முடித்த	-5069
▁கருத்துக்க	-5070
▁மூட	-5071
▁டேவிட்	-5072
▁வலைய	-5073
பாடுகளை	-5074
ww	-5075
ூப	-5076
▁கோல	-5077
▁இதழ்க	-5078
▁கருவி	-5079
வடிவ	-5080
ச்சல்	-5081
▁கிளா	-5082
▁முன்னே	-5083
ிடத்தில்	-5084
▁வாழ்கின்றனர்	-5085
▁உருவாக்கினார்	-5086
ாளி	-5087
ிதா	-5088
▁தொடர்ச்சியாக	-5089
▁கவிதை	-5090
▁படிக்க	-5091
▁ஏற்படுகிறது	-5092
▁ஸ	-5093
ரவர்	-5094
ரும்ப	-5095
▁கவனம்	-5096
ப்புக்கு	-5097
எல்	-5098
▁இயற்ற	-5099
▁பிரேச	-5100
▁ஜேம்ஸ்	-5101
▁பத்ம	-5102
▁உலகளாவிய	-5103
76	-5104
ளூ	-5105
ஸ்தான	-5106
ற்றுப்	-5107
▁உயிரியல்	-5108
த்ரா	-5109
ல்லூ	-5110
க்குச்	-5111
க்கப்பட்டது	-5112
▁நிகழும்	-5113
▁பஞ்சாப்	-5114
Th	-5115
▁ராஜ்	-5116
▁சராசரியாக	-5117
▁இரச	-5118
ையாகவும்	-5119
▁மண்டலம்	-5120
ணாம	-5121
▁இலா	-5122
▁சார	-5123
ராலும்	-5124
▁பேராசிரியர்	-5125
ரிஸ்	-5126
முறைகள்	-5127
ூல	-5128
ர்க்கு	-5129
▁வட்டார	-5130
▁வடிவமைப்ப	-5131
நு	-5132
ாவ்	-5133
ர்த்	-5134
▁பச்சை	-5135
▁கப்பல்	-5136
▁படத்தின்	-5137
ங்கொ	-5138
ுதான்	-5139
▁கணக்கிட	-5140
▁நினைவாக	-5141
▁இருப்பதாக	-5142
▁இச்சேர்மம்	-5143
▁குரல்	-5144
▁திருவார	-5145
▁தீவுகள்	-5146
ணன்	-5147
ிப்பை	-5148
▁பிரான்சி	-5149
ைகளைத்	-5150
▁ஹொ	-5151
▁மீற்றர்	-5152
ish	-5153
ாவா	-5154
மானிய	-5155
▁செய்வது	-5156
▁அமைப்பில்	-5157
ொழி	-5158
ையன்	-5159
▁2018	-5160
▁எளிதில்	-5161
▁வெளியேற	-5162
▁எதிர்த்து	-5163
▁மாகாணத்தின்	-5164
ுறம்	-5165
▁உயிரண	-5166
ிற்குப்	-5167
▁ஒழுங்க	-5168
தில்லை	-5169
▁X	-5170
லிச	-5171
ுடிய	-5172
மேற்க	-5173
▁தள்ள	-5174
ளையும்	-5175
▁இயக்குந	-5176
▁பங்கேற்ற	-5177
▁மக்களால்	-5178
க்காக	-5179
▁சஞ்ச	-5180
▁நிலவ	-5181
முன	-5182
தியின்	-5183
▁துண்ட	-5184
ியையும்	-5185
க்சு	-5186
துறை	-5187
▁குன்ற	-5188
▁உடல	-5189
ியலின்	-5190
பவர்கள்	-5191
ாா்	-5192
ிலா	-5193
குந்த	-5194
ச்சிற	-5195
▁சேர்ந்தவர்	-5196
▁உண்மை	-5197
▁அழைத்த	-5198
▁கண்டுபிடித்த	-5199
▁வளர்த்த	-5200
▁மருத்துவமன	-5201
ப்படுவதில்லை	-5202
▁வள்ள	-5203
▁கூறும்	-5204
▁வளர்ந்து	-5205
ிவ்	-5206
▁ரை	-5207
▁கங்க	-5208
▁உருவாக்கி	-5209
ical	-5210
▁மாற்றி	-5211
▁சுற்றிய	-5212
▁1997	-5213
▁எலக்ட்	-5214
▁இறுதியாக	-5215
▁கொழும்பு	-5216
art	-5217
▁பறவைகள்	-5218
▁கொண்டிருக்க	-5219
▁மதி	-5220
▁கோடி	-5221
ாரை	-5222
இந்த	-5223
▁பரப்பு	-5224
37	-5225
நேர	-5226
த்துக்கான	-5227
▁தொழிற்சால	-5228
▁வெளியிட்டது	-5229
▁எனப்படுகிறது	-5230
ge	-5231
▁தொல்கா	-5232
▁ஆத்திரே	-5233
▁ஒருவராக	-5234
வியை	-5235
▁தகுத	-5236
▁இயலா	-5237
▁உதவுகிறது	-5238
▁பனி	-5239
▁மண்டப	-5240
38	-5241
ேஷ்	-5242
ிக்கா	-5243
ம்பூர்	-5244
▁இயலும்	-5245
▁e	-5246
▁நடுவ	-5247
▁தியாக	-5248
▁சாலையில்	-5249
▁அவ்வாறு	-5250
▁கோபுரம்	-5251
▁1986	-5252
▁ஏராள	-5253
▁உடலில்	-5254
▁பயிற்சிய	-5255
▁வருகின்றது	-5256
▁தமிழகத்தில்	-5257
▁கதிர்	-5258
▁இதுவும்	-5259
▁பகுதியாகும்	-5260
▁%	-5261
ுகு	-5262
நாயக்க	-5263
ெடுத்து	-5264
▁இடைப்பட்ட	-5265
ரியன்	-5266
▁விற்பன	-5267
▁பயன்படுத்திய	-5268
ium	-5269
▁4,	-5270
▁நந்த	-5271
மைப்பின்	-5272
ொருட்கள்	-5273
▁கதி	-5274
▁கலிபோர்	-5275
▁தங்களது	-5276
▁அளவீ	-5277
▁சூழல்	-5278
▁போற்ற	-5279
▁1993	-5280
▁;	-5281
▁பழமையான	-5282
▁ஒப்பந்தம்	-5283
ாணம்	-5284
▁குழாய	-5285
▁வழங்கப்படுகிறது	-5286
▁தரை	-5287
26	-5288
வார	-5289
▁பிண	-5290
▁சார்பில்	-5291
▁பிரதேசச்	-5292
▁ஒன்றியத்தில்	-5293
▁நன்ற	-5294
est	-5295
▁உள்ளே	-5296
▁பில்லியன்	-5297
▁1984	-5298
▁கூறி	-5299
▁பிரிட்ட	-5300
▁முடிந்த	-5301
▁விளையாடிய	-5302
கையில்	-5303
▁குடியரசுத்	-5304
▁மருத்துவம்	-5305
லூ	-5306
▁முட	-5307
▁ஊட்ட	-5308
ரிப்பு	-5309
▁இக்கிராம	-5310
▁தொடங்கப்பட்டது	-5311
ுவிட்ட	-5312
▁ஆதரவு	-5313
▁வடிவமைப்பு	-5314
்களைக்	-5315
▁சங்கில	-5316
▁மகள	-5317
▁விவில	-5318
மாற்றம்	-5319
ின்றார்கள்	-5320
▁பீட	-5321
▁அப்த	-5322
▁அவனது	-5323
ளிப்ப	-5324
▁தேவி	-5325
▁தகுதி	-5326
▁6.	-5327
▁ராக	-5328
க்குள்	-5329
▁இதற்க	-5330
▁சம்பந்த	-5331
லஸ்	-5332
மாய	-5333
ருவி	-5334
▁எரிம	-5335
▁ராஜா	-5336
▁உணர்வ	-5337
▁கொன்ற	-5338
▁பெயர்கள்	-5339
▁குறிப்புகள்	-5340
▁சேர்	-5341
த்தோடு	-5342
▁உயிரி	-5343
▁குடியரசு	-5344
ிஸ்ட	-5345
ழ்கிறது	-5346
▁முடிவில்	-5347
47	-5348
▁பிளா	-5349
ary	-5350
▁மகிழ	-5351
னுக்கும்	-5352
ug	-5353
▁தூய	-5354
ide	-5355
▁ஊக்குவ	-5356
▁நடிக்க	-5357
▁கொண்டுவ	-5358
ுகளுக்கும்	-5359
▁St	-5360
ational	-5361
ாக்ச	-5362
▁இரக	-5363
▁பார்வை	-5364
▁வடக்கில்	-5365
▁1947	-5366
▁மேலாக	-5367
▁கொள்ளலாம்	-5368
த்தல	-5369
ராஜன்	-5370
▁சிங்கப்பூர்	-5371
▁பெற்றுள்ளது	-5372
▁ஹே	-5373
▁என்பர்	-5374
▁இலங்கைத்	-5375
▁நம்	-5376
▁பாரசீ	-5377
வல	-5378
▁கிபி	-5379
▁பெல்	-5380
▁பேசும்	-5381
▁இந்நூல்	-5382
▁நடக்கும்	-5383
ுக்கிட	-5384
ுவதை	-5385
▁மகளிர்	-5386
▁அதிகாரப்பூர்வ	-5387
ாவி	-5388
▁மாசி	-5389
▁நிறைய	-5390
▁விஷ்ண	-5391
முடியும்	-5392
▁காட்சிய	-5393
▁மலேசியா	-5394
▁கருவிகள்	-5395
▁தாங்க	-5396
ச்சந்திர	-5397
▁யோக	-5398
▁வயி	-5399
ிருப்பது	-5400
▁விரைவாக	-5401
▁பல்கலைக்	-5402
▁இயக்குனர்	-5403
▁தலைநக	-5404
▁வீட்டில்	-5405
▁இணைக்கும்	-5406
ரைச்	-5407
▁கொடுத்து	-5408
▁சேத	-5409
▁தெரிவு	-5410
▁முன்னதாக	-5411
கூ	-5412
▁வெண்	-5413
▁காப்பு	-5414
ருக்குப்	-5415
ிகளுக்கும்	-5416
95	-5417
▁விற்க	-5418
▁இந்தோனே	-5419
▁புவியியல்	-5420
▁செயல்படும்	-5421
42	-5422
▁அசோ	-5423
▁தருக	-5424
ழுதும்	-5425
ங்களைச்	-5426
▁ஆவார்கள்	-5427
▁விளக்கம்	-5428
ளைத்	-5429
▁1985	-5430
▁அலகு	-5431
▁கொல்க	-5432
▁இலக்கியம்	-5433
▁1940	-5434
▁அஞ்சல்	-5435
▁இவர்கள	-5436
▁பொருளாத	-5437
▁மாற்றங்கள்	-5438
ஸ்ஸ	-5439
னைத்	-5440
▁குக	-5441
▁தரம்	-5442
▁ஏற்கனவே	-5443
▁தெரிவித்த	-5444
▁திருவாரூர்	-5445
ீன	-5446
ட்பு	-5447
ிதம்	-5448
▁அளவை	-5449
▁பழக்க	-5450
▁இவ்வூர்	-5451
▁எசுப்பானிய	-5452
ect	-5453
▁ஆபிர	-5454
▁மாநக	-5455
றுப்பு	-5456
ப்பட்டிருக்கும்	-5457
ியாகக்	-5458
▁செம்ப	-5459
▁படையெடு	-5460
ீழ	-5461
▁வைர	-5462
▁குமார	-5463
▁பிராந்திய	-5464
▁ஏக	-5465
▁300	-5466
▁இனம்	-5467
▁புல்	-5468
▁புவி	-5469
▁மெக்ச	-5470
▁விளங்கிய	-5471
▁எடுக்கப்பட்ட	-5472
ib	-5473
ாகத்	-5474
▁1988	-5475
▁சார்பு	-5476
ைகளுக்கும்	-5477
oh	-5478
ok	-5479
▁லை	-5480
▁அலி	-5481
▁அலும	-5482
▁தொல்லியல்	-5483
ப்ள	-5484
▁1930	-5485
▁மென்	-5486
வுன்	-5487
▁நற்ச	-5488
ியலாளர்	-5489
▁காலகட்டத்தில்	-5490
▁மேள	-5491
ிக்கல்	-5492
டைந்தது	-5493
▁கட்டமைப்பு	-5494
200	-5495
▁ஹா	-5496
▁தூய்	-5497
▁வசதி	-5498
▁ஏற்றுக்	-5499
▁திருப்பூர்	-5500
▁com	-5501
▁உயரமான	-5502
நான	-5503
▁கால்பந்து	-5504
ew	-5505
▁உழை	-5506
▁நிகழ்ச்சி	-5507
▁உபசன்னதிகளும்	-5508
▁சிக்கலான	-5509
ாண்ட்	-5510
னியின்	-5511
ேசுவர	-5512
▁இப்பகுதியில்	-5513
செய	-5514
▁உறை	-5515
▁கிடைக்கிறது	-5516
கும்	-5517
▁150	-5518
▁ஜெர்மானிய	-5519
▁நிறுவனத்தில்	-5520
▁5%	-5521
க்கூட	-5522
▁சுந்த	-5523
▁இறைவன்	-5524
▁போட்டிகள்	-5525
▁அதிர்வ	-5526
▁தொகுதிகளில்	-5527
▁k	-5528
நாத்	-5529
▁ஆணைய	-5530
▁வகுப்பு	-5531
▁மக்களும்	-5532
▁பாப	-5533
ாவதாக	-5534
▁புரட்ச	-5535
ிவா	-5536
▁(20	-5537
▁குர	-5538
▁வழிகாட்ட	-5539
பாட	-5540
ண்டம்	-5541
லியன்	-5542
▁அரபு	-5543
தற்கான	-5544
▁அகற்ற	-5545
▁பாடசால	-5546
▁இறந்தார்	-5547
ப்ர	-5548
▁முயற்சி	-5549
▁பகுதியின்	-5550
28	-5551
மாலை	-5552
ந்தும்	-5553
▁அண்ணா	-5554
▁கரூர்	-5555
ர்சி	-5556
ாதம்	-5557
In	-5558
▁அகல	-5559
மென	-5560
ம்க	-5561
▁அழகிய	-5562
▁கொண்டவை	-5563
▁செல்கிறது	-5564
▁நூலை	-5565
ம்பரம்	-5566
▁பாலின	-5567
ளத்தில்	-5568
▁வாடிக்க	-5569
▁சிவபெருமான	-5570
வட்ட	-5571
▁சூட்ட	-5572
▁கட்டமைப்ப	-5573
ணர்வு	-5574
▁தென்ப	-5575
▁வீதம்	-5576
▁இருந்தும்	-5577
▁பயின்றார்	-5578
▁r	-5579
▁தப்ப	-5580
▁பயன்	-5581
▁சிப்ப	-5582
▁இப்பிர	-5583
▁செய்யப்பட்டார்	-5584
ழக்க	-5585
▁கோரிக்க	-5586
▁சதவீதம்	-5587
த்தனர்	-5588
▁என்றே	-5589
▁வகுப்ப	-5590
▁பரந்த	-5591
▁புதிதாக	-5592
ப்படுத்தி	-5593
▁குறிப்பிடுகிறது	-5594
1-	-5595
▁வீடு	-5596
▁கோபுர	-5597
▁நிலம்	-5598
▁குற்றம்	-5599
▁கிழக்கில்	-5600
▁பிரதேசத்தின்	-5601
ங்டன்	-5602
▁ஆலயம்	-5603
▁சுழற்சி	-5604
▁நுண்ணுய	-5605
▁வருகை	-5606
▁இராகம்	-5607
▁புள்ளி	-5608
ங்களுக்கான	-5609
▁எப்போதும்	-5610
▁இம்மாவட்டத்தின்	-5611
▁அறு	-5612
▁எழுந்த	-5613
▁கௌரவ	-5614
▁புகை	-5615
▁தொடக்கம்	-5616
▁வெளிவந்தது	-5617
ich	-5618
ுகிற	-5619
▁அந்	-5620
▁ஆரோ	-5621
▁கல்வெட்ட	-5622
▁to	-5623
▁1987	-5624
▁கடலூர்	-5625
▁மையமாக	-5626
▁குழுவின்	-5627
und	-5628
▁சண்டை	-5629
▁வழித்த	-5630
ராத்திரி	-5631
▁இந்தியக்	-5632
▁உற்பத்திய	-5633
▁தாவரங்கள்	-5634
▁அன்	-5635
▁தேர்	-5636
▁நோக்கிய	-5637
ேஸ்வரர்	-5638
▁மட்டுமல்ல	-5639
▁லீக்	-5640
▁செங்க	-5641
▁நிறம்	-5642
▁கரைச	-5643
▁மீனா	-5644
ும்படி	-5645
▁கணிப்ப	-5646
▁சுரங்க	-5647
▁வழிபாடு	-5648
▁குறைந்து	-5649
▁தெரிகிறது	-5650
▁நிபு	-5651
பான்	-5652
▁கலவ	-5653
▁அலுவல	-5654
ோத	-5655
ழைய	-5656
▁சுட	-5657
▁கும்பகோ	-5658
▁கொண்டனர்	-5659
▁துறைகளில்	-5660
ாற	-5661
▁ஆக்சிசன	-5662
▁சொற்கள்	-5663
▁சன்னதியும்	-5664
//	-5665
▁முன்வை	-5666
▁அரசாங்கம்	-5667
▁இயேசுவின்	-5668
▁நிறத்தில்	-5669
▁காணப்படுகின்றது	-5670
amp	-5671
ிணை	-5672
▁அறிஞர்	-5673
▁பொருள்க	-5674
88	-5675
▁தொட்ட	-5676
▁குருதி	-5677
▁பெருமை	-5678
▁நற்செய்த	-5679
▁எழுத்தறிவு	-5680
புரா	-5681
▁நின்று	-5682
Cl	-5683
ஷ்மீ	-5684
▁1978	-5685
▁வரைபட	-5686
ளிக்கும்	-5687
▁தெற்கில்	-5688
▁மாநிலமான	-5689
▁வழங்குகிறது	-5690
ினைக்	-5691
▁அணிய	-5692
▁நுரைய	-5693
▁போன	-5694
▁மக்களை	-5695
▁விதமாக	-5696
▁ஆகியோரின்	-5697
ம்மது	-5698
▁அறிவித்தது	-5699
▁கைப்பற்றிய	-5700
பேசி	-5701
▁சர்ச்ச	-5702
வாச	-5703
▁65	-5704
ித்துக்	-5705
ஜிய	-5706
▁இனி	-5707
மூலம்	-5708
▁விசுவ	-5709
▁பணியாற்ற	-5710
▁தாள	-5711
த்தாக்க	-5712
▁மொழிபெய	-5713
ttp	-5714
ாவன	-5715
்து	-5716
மேல்	-5717
▁அசிட்ட	-5718
ப்பெருக்க	-5719
▁ஒதுக்க	-5720
://	-5721
ுமிட	-5722
▁பிரகா	-5723
▁முறையை	-5724
▁விளையாட	-5725
ind	-5726
▁55	-5727
▁ஒப்பி	-5728
▁போதுமான	-5729
▁தகவல்களை	-5730
ராஜா	-5731
▁1000	-5732
▁தெரு	-5733
▁கிரா	-5734
▁அமைப்பை	-5735
3-	-5736
▁""	-5737
▁நியூயார்க்	-5738
▁இந்திர	-5739
▁என்பதைக்	-5740
க்கை	-5741
சப்	-5742
▁காணப்பட்ட	-5743
▁அர்த்த	-5744
▁வெளிப்புற	-5745
சிக	-5746
▁வற	-5747
▁பாதிக்க	-5748
ாறு	-5749
ுதி	-5750
▁1969	-5751
ொருட்க	-5752
▁பீட்டர்	-5753
▁பிரதிநிதி	-5754
▁சமண	-5755
▁பணியில்	-5756
▁பொறுத்த	-5757
▁என்பவற்ற	-5758
34	-5759
▁குழும	-5760
▁என்பவை	-5761
yl	-5762
யே	-5763
னிக்	-5764
ற்றம்	-5765
▁தலைய	-5766
▁பாசு	-5767
▁நிர்ண	-5768
▁ஏராளமான	-5769
▁மணிக்கு	-5770
ஜெ	-5771
கமாக	-5772
▁காத்த	-5773
▁கேள்வ	-5774
▁மனைவிய	-5775
▁முதலமைச்ச	-5776
சரி	-5777
ன்னா	-5778
ரிசு	-5779
▁பொட்டா	-5780
79	-5781
eg	-5782
ஸ்டன்	-5783
▁மரபணு	-5784
▁பணிகள்	-5785
ப்பதற்கான	-5786
ையாளர்கள்	-5787
▁பிரான்சு	-5788
65	-5789
▁1977	-5790
லையில்	-5791
ச்சியம்	-5792
▁சுற்றுச்சூழல்	-5793
மின	-5794
▁சம்ம	-5795
வதற்கான	-5796
▁கதைகள்	-5797
தைக்	-5798
▁முறைய	-5799
▁சீர்திருத்த	-5800
▁வளர	-5801
▁கல்க	-5802
ுக்குச்	-5803
▁செய்தல்	-5804
▁5,	-5805
▁திபெ	-5806
▁தகவல்கள்	-5807
▁இசையமைத்த	-5808
வருக்கு	-5809
▁மாதிரி	-5810
னிடம்	-5811
▁வில்ல	-5812
▁அலுமின	-5813
▁மேற்கில்	-5814
▁சன்	-5815
▁இப்படி	-5816
▁கொண்டிருக்கிறது	-5817
▁இலவச	-5818
▁ஓட்டங்கள்	-5819
விழா	-5820
▁ஆக்சைடு	-5821
▁என்றார்	-5822
ம்பெய	-5823
இந்திய	-5824
டைந்து	-5825
ந்தாட்ட	-5826
▁என்பதும்	-5827
▁இயக்குநர்	-5828
▁முற்றிலும்	-5829
குற	-5830
▁அரசர்	-5831
▁செல்வா	-5832
▁தீர்க்க	-5833
▁மாகாணம்	-5834
▁என்பதற்கு	-5835
An	-5836
▁’	-5837
▁கம்யூ	-5838
▁உள்ளடக்க	-5839
▁உட்படுத்த	-5840
▁பண்பாட்டு	-5841
▁கருதப்படும்	-5842
நியோ	-5843
▁ஃபி	-5844
ண்முக	-5845
▁இவ்வி	-5846
▁மாறியது	-5847
24	-5848
ஸ்ச	-5849
ரியோ	-5850
▁திண்ம	-5851
▁அணுகும	-5852
▁நகராட்சி	-5853
▁பாண	-5854
▁போர்த்துக்க	-5855
▁கனட	-5856
▁அறிஞ	-5857
▁எனத்	-5858
▁அலெக்ச	-5859
க்கூடியது	-5860
ுக்கிடையே	-5861
▁வென்றார்	-5862
▁வாயு	-5863
▁இடத்தை	-5864
▁சிறுகத	-5865
▁குஜ	-5866
▁இந்நிற	-5867
▁இருக்கிறார்	-5868
ேஸ்	-5869
▁அவள	-5870
ையாது	-5871
▁காஷ்மீ	-5872
▁செய்திகள்	-5873
▁துள	-5874
▁தொடர	-5875
▁எனில்	-5876
▁கலைஞர்	-5877
▁சுற்றுப்ப	-5878
▁விலங்குகள்	-5879
78	-5880
குவ	-5881
▁அன்னை	-5882
▁எனலாம்	-5883
▁அணுக்கரு	-5884
▁1979	-5885
்கிறது	-5886
வராகவும்	-5887
▁பேச்சு	-5888
▁காச	-5889
▁1975	-5890
▁வியட்	-5891
▁முதன்முதலில்	-5892
ிம்	-5893
மாகவே	-5894
▁பிராம	-5895
▁ஆண்டுகளாக	-5896
▁மாய	-5897
▁நடந்து	-5898
▁நாகரிக	-5899
லுடன்	-5900
▁நெடுஞ்சால	-5901
▁முக்கியமாக	-5902
▁பாரதிய	-5903
▁உளவியல்	-5904
▁உறுதிப்படுத்த	-5905
சட்ட	-5906
ெழுத்த	-5907
▁குமார்	-5908
▁முயன்ற	-5909
▁வழக்கறி	-5910
▁கட்டிடக்கலை	-5911
▁சீட	-5912
▁சிந்து	-5913
▁அனைத்துலக	-5914
இய	-5915
▁1971	-5916
▁ஜனதா	-5917
▁இளவரச	-5918
்களையும்	-5919
▁சுகாதார	-5920
▁குறைந்தது	-5921
▁வழங்கியது	-5922
▁நிகழ்வுகள்	-5923
ain	-5924
▁ஊடு	-5925
▁கள்ள	-5926
▁சொற்ப	-5927
த்திட்ட	-5928
ப்பொருள	-5929
▁நோக்கம்	-5930
ank	-5931
▁வீத	-5932
ட்டன்	-5933
iy	-5934
போன்ற	-5935
ென்று	-5936
▁நிறு	-5937
▁ஒத்து	-5938
▁வேகமாக	-5939
▁கருநாடக	-5940
ட்டான	-5941
ள்ளது	-5942
▁1976	-5943
▁கோடை	-5944
▁தனித்துவ	-5945
ங்களுக்காக	-5946
ோள்	-5947
ல்லை	-5948
▁சிலை	-5949
▁அமைச்சர்	-5950
த்திரை	-5951
▁விசார	-5952
▁கடலில்	-5953
▁வளிமண்டல	-5954
▁அக்காலத்தில்	-5955
ிமுறை	-5956
▁செவ்	-5957
▁காமிக	-5958
ர்களான	-5959
atti	-5960
தேவி	-5961
▁ஒலிய	-5962
லிங்கம்	-5963
▁மாறுபட்ட	-5964
▁காங்கிரசு	-5965
▁மாற்றப்பட்டது	-5966
▁அமைக்கப்பட்டது	-5967
▁அழைக்கப்பட்டது	-5968
ுடா	-5969
ிகர்	-5970
▁ஃபோ	-5971
▁ஹார்	-5972
▁அழைக்கப்பட்ட	-5973
▁பகுதிகளிலும்	-5974
மால	-5975
▁பாச	-5976
▁பெட்ட	-5977
▁பெரம்ப	-5978
▁நிறுவப்பட்ட	-5979
லிங்	-5980
▁தீய	-5981
ப்படியாக	-5982
▁தலைநகர்	-5983
▁வெடி	-5984
ச்சுவை	-5985
▁பூங்க	-5986
வதற்காக	-5987
▁வடக்கே	-5988
▁தம	-5989
வந்த	-5990
▁முஸ்லிம்	-5991
▁புற்றுநோய்	-5992
▁தமிழகத்தின்	-5993
வல்	-5994
▁சல	-5995
ிழமை	-5996
▁நிரூப	-5997
▁வழக்கில்	-5998
▁ஆண்டுத	-5999
▁வீட்டு	-6000
▁குளோரைடு	-6001
▁நரசி	-6002
▁ஆக்கிர	-6003
▁உடன்படிக்க	-6004
▁|	-6005
▁ஜா	-6006
▁1956	-6007
▁பெறு	-6008
ட்டார்	-6009
▁நின்ற	-6010
▁இசையில்	-6011
ம்பாளையம்	-6012
வினை	-6013
▁உணர	-6014
விடம்	-6015
▁தண்ணீ	-6016
▁நெருங்கிய	-6017
அம	-6018
▁கொண்டுவர	-6019
ட்ரா	-6020
ப்படுவதால்	-6021
வியலில்	-6022
▁வெப்பம்	-6023
▁அளவிற்கு	-6024
ast	-6025
ெண்ண	-6026
▁நடந்தது	-6027
▁உறி	-6028
ினுள்	-6029
▁தனிந	-6030
▁வென்று	-6031
▁இப்பகுத	-6032
▁பெற்றுள்ளார்	-6033
▁தச	-6034
தூர்	-6035
▁நிரந்தர	-6036
▁பெயரால்	-6037
▁கொழுப்பு	-6038
44	-6039
▁),	-6040
ேற்ப	-6041
களின்	-6042
▁கனடா	-6043
▁தனியாக	-6044
▁ஒவ்வொன்ற	-6045
▁பிரதிநித	-6046
▁தேவைப்படும்	-6047
ூன்	-6048
▁47	-6049
▁மாநகர	-6050
▁மாணவர்	-6051
▁வரவேற்ப	-6052
▁பாதுகாப்ப	-6053
வுத்	-6054
▁எலும்ப	-6055
▁உணர்ந்த	-6056
▁சூரியன்	-6057
▁வார்	-6058
▁நிதிய	-6059
▁ரிச்ச	-6060
ப்பதில்	-6061
▁விநியோ	-6062
▁நிலைக்கு	-6063
ங்களிலிருந்து	-6064
▁பிக	-6065
▁குட்ட	-6066
▁விடுவ	-6067
▁அட்டவண	-6068
▁பொதுவ	-6069
▁நோபல்	-6070
▁இடையிலான	-6071
▁மகிழ்ச்ச	-6072
▁மட்டக்கள	-6073
▁படங்களில்	-6074
act	-6075
ans	-6076
▁முடிவுகள்	-6077
▁தெரிவித்தார்	-6078
▁7.	-6079
ல்களும்	-6080
▁திரைக்க	-6081
uth	-6082
ாவர்	-6083
லிலும்	-6084
▁நம்பப்படுகிறது	-6085
▁கவிஞர்	-6086
▁செயல்முற	-6087
▁காணப்பட்டது	-6088
▁பச	-6089
▁உறுப்பு	-6090
▁கணக்கில்	-6091
▁வழக்கமான	-6092
மட	-6093
96	-6094
ீட	-6095
ith	-6096
▁1972	-6097
▁ஆகவே	-6098
▁சகோத	-6099
▁வடக்க	-6100
▁பொருட்டு	-6101
ive	-6102
▁கியூ	-6103
▁மாட்ட	-6104
▁சிந்தன	-6105
▁அடுக்கு	-6106
▁நச்ச	-6107
▁மாசு	-6108
▁கட்டுரை	-6109
▁கதிர்வீ	-6110
▁அருங்காட்சியகம்	-6111
III	-6112
▁மீத	-6113
ach	-6114
▁என்பதே	-6115
ந்துள்ளனர்	-6116
ிருந்தாலும்	-6117
▁ஆண்டுதோறும்	-6118
▁திரைப்படங்கள்	-6119
நடை	-6120
▁தாழ்	-6121
▁விக்	-6122
▁செலவு	-6123
▁அடைந்து	-6124
▁காமிகாகம	-6125
▁வித்தியாச	-6126
கண	-6127
▁உக	-6128
▁1965	-6129
▁வீடியோ	-6130
▁ஆட்சியின்	-6131
▁நாட்காட்ட	-6132
வொ	-6133
▁சும	-6134
ற்கள்	-6135
▁1948	-6136
ர்க்கை	-6137
▁இத்தொ	-6138
▁வந்தன	-6139
ென்றால்	-6140
▁அணியில்	-6141
▁எலும்பு	-6142
▁எல்லாம்	-6143
▁நிகழ்வு	-6144
▁இத்தாலிய	-6145
▁நூல்களில்	-6146
▁நடவடிக்கைகள்	-6147
தாவ	-6148
ாலேயே	-6149
▁கதாநாயக	-6150
▁மக்களவை	-6151
▁வளர்ச்சிய	-6152
▁தீர்வ	-6153
▁செயல்பட	-6154
▁அனுமதிக்க	-6155
▁6,	-6156
டுவதற்கு	-6157
▁பெருங்கட	-6158
▁பரப்பளவில்	-6159
▁நூலின்	-6160
▁அறியப்படும்	-6161
▁ஐரோப்பாவில்	-6162
ஆர்	-6163
▁ஜென	-6164
▁மரா	-6165
ாணும்	-6166
▁கல்யா	-6167
▁கொலம்ப	-6168
▁எதிர்த்த	-6169
▁இராச்சியம்	-6170
க்தி	-6171
ிதல்	-6172
▁மல்ல	-6173
▁அறிவித்தார்	-6174
▁அரசியல்வாதியும்	-6175
▁மோத	-6176
ீடுகள்	-6177
▁பாம்ப	-6178
▁இடங்கள்	-6179
▁எதிர்க்க	-6180
▁குளி	-6181
▁கன்னட	-6182
▁அறிவித்த	-6183
▁கழகத்தின்	-6184
▁வெப்பநிலையில்	-6185
▁பேண	-6186
▁யார்	-6187
▁வெகு	-6188
ரிக்கு	-6189
▁இளங்க	-6190
▁குழுக்கள	-6191
▁பன்	-6192
▁1983	-6193
▁திரி	-6194
▁கூடும்	-6195
ராக்சைடு	-6196
▁விரைவில்	-6197
▁பெருமளவில்	-6198
▁இத்	-6199
▁அமைதி	-6200
▁அறிக்கை	-6201
▁பாதை	-6202
▁சடங்க	-6203
▁ஆண்டும்	-6204
▁வெளிப்பட	-6205
ாவிலிருந்து	-6206
நூ	-6207
விள	-6208
▁http	-6209
▁அடிய	-6210
▁கோவை	-6211
▁பட்டு	-6212
ஷ்க	-6213
▁எய	-6214
ளால்	-6215
ன்களின்	-6216
ப்படியான	-6217
▁போதிலும்	-6218
olog	-6219
ஸ்தா	-6220
னியில்	-6221
▁நியூசில	-6222
▁பேரரசர்	-6223
▁உற்ச	-6224
▁சிறித	-6225
▁மூலக்கூறு	-6226
▁பொட்டாசியம்	-6227
4-	-6228
▁1967	-6229
ீட்டின்	-6230
னியன்	-6231
▁தற்ப	-6232
வியலாள	-6233
▁செம்ம	-6234
▁விவிலிய	-6235
▁உடனடியாக	-6236
▁தயாரித்த	-6237
▁பெற்றோர்	-6238
ராஷ்ட	-6239
ாவுடன்	-6240
▁புதுப்ப	-6241
▁ஆந்திரப்	-6242
▁பொருளின்	-6243
▁நகைச்சுவை	-6244
▁தலைவராகவும்	-6245
▁பிரே	-6246
▁ஆராய்	-6247
▁பன்னிர	-6248
க்கணக்கான	-6249
ப்பாத்திர	-6250
▁பார்த்து	-6251
▁இவர்களின்	-6252
▁மேற்கத்திய	-6253
▁ஏற்படுத்தும்	-6254
▁அமைந்திருக்கும்	-6255
▁48	-6256
ஸ்டு	-6257
▁பில்	-6258
ிலிருந்தே	-6259
▁இலிருந்து	-6260
பில	-6261
▁1962	-6262
▁எளிதாக	-6263
ுக்குள்ள	-6264
▁அதிகாரம்	-6265
▁குடியிரு	-6266
▁அறுவ	-6267
▁முப்ப	-6268
▁இயக்குன	-6269
▁முடிகிறது	-6270
▁தொகுதியின்	-6271
ார்டு	-6272
▁அலுவலகம்	-6273
▁அருகிலுள்ள	-6274
ஞ்ச்	-6275
மீது	-6276
▁மாச	-6277
▁வேறுபாடு	-6278
மட்ட	-6279
▁துகள	-6280
▁மரபுவ	-6281
▁நடுவில்	-6282
▁வலியுறுத்த	-6283
▁அறிமுகமானார்	-6284
33	-6285
▁தேனி	-6286
▁நூறு	-6287
▁வழியே	-6288
▁சூழலில்	-6289
▁கட்டத்தில்	-6290
▁கொடுக்கப்பட்ட	-6291
ரியை	-6292
▁ஆழ்	-6293
ரித்த	-6294
▁கொண்டே	-6295
▁பக்கம்	-6296
▁முடிந்தது	-6297
▁முடியவில்லை	-6298
செல்	-6299
விற்கு	-6300
▁குஜரா	-6301
hy	-6302
▁திண	-6303
▁ராணுவ	-6304
▁அறக்கட்ட	-6305
▁தலைநகரம்	-6306
▁இருந்தவர்	-6307
▁49	-6308
▁ரக	-6309
த்மா	-6310
ுவரை	-6311
ிக்காட்ட	-6312
▁உண்டாக்க	-6313
▁தற்காலிக	-6314
ஜர்	-6315
ாயன	-6316
ப்ட்	-6317
▁குதிரை	-6318
▁இணைப்பு	-6319
▁பிரதமர்	-6320
▁குழுவில்	-6321
▁கோயில்கள்	-6322
▁இசைக்	-6323
ர்களிடம்	-6324
▁சார்பாக	-6325
▁திருச்சி	-6326
▁நகரங்களில்	-6327
ையூ	-6328
▁400	-6329
மொத்த	-6330
▁காற்ப	-6331
▁விவரி	-6332
▁நுகர்வ	-6333
▁ராபர்ட்	-6334
ாட்சியில்	-6335
ிக்கிறார்	-6336
▁பங்களிப்ப	-6337
ப்பெற	-6338
▁விரிவாக்க	-6339
▁திரைப்படத்தின்	-6340
ம்போ	-6341
▁உயி	-6342
சாரம்	-6343
▁எவ்வ	-6344
விட்டு	-6345
▁விஜய்	-6346
▁பின்னா	-6347
▁பயணிகள்	-6348
ப்பதன்	-6349
றையில்	-6350
▁செல்சிய	-6351
▁இலை	-6352
ற்றது	-6353
▁ஆளுந	-6354
▁வேர்	-6355
முறையாக	-6356
▁ஏற்பாடு	-6357
▁நான்காம்	-6358
▁தலைப்பில்	-6359
▁தொகுதிகள்	-6360
ann	-6361
ிதை	-6362
▁இறைவ	-6363
▁தேடி	-6364
▁பாக்கித்தான்	-6365
▁1982	-6366
ர்களைப்	-6367
▁சேவைகள்	-6368
க்கின்	-6369
லுக்கான	-6370
▁தேசியப்	-6371
▁என்பதுடன்	-6372
Al	-6373
▁மழ	-6374
▁பசி	-6375
ருமான	-6376
▁கொரிய	-6377
ன்பட்டி	-6378
▁பணியாற்றி	-6379
▁வெளிநாட்டு	-6380
▁கடும்	-6381
▁சொல்க	-6382
▁உரிமைகள்	-6383
▁ஒளிபரப்ப	-6384
▁எதிர்பார்க்க	-6385
ial	-6386
▁இவ்விரு	-6387
▁ஆட்சியில்	-6388
▁மனிதன்	-6389
▁அரண்மனை	-6390
▁தாக்கம்	-6391
ந்துகொள்ள	-6392
▁இத்திட்ட	-6393
▁வழங்கப்பட்ட	-6394
▁கருதுகின்றனர்	-6395
sh	-6396
ாகோ	-6397
ினின்	-6398
▁சத்திய	-6399
ass	-6400
ert	-6401
▁குறி	-6402
▁மிகச்சிற	-6403
▁பயன்படுகின்றன	-6404
ர்ப	-6405
நோக்க	-6406
▁ஸ்ட்	-6407
க்கிந்திய	-6408
▁தலைநகரான	-6409
▁அண்மையில்	-6410
▁38	-6411
▁விதை	-6412
▁ஆசியா	-6413
மத	-6414
▁புகழ	-6415
▁என்பவரின்	-6416
வாங்க	-6417
▁பிரீ	-6418
▁வெளியாக	-6419
வேண்டிய	-6420
▁பாக்டீ	-6421
▁பாரசீக	-6422
▁பெருந்த	-6423
▁திட்டமிட்ட	-6424
21	-6425
▁தண்டனை	-6426
▁தமிழர்கள்	-6427
▁மாள	-6428
ப்படம்	-6429
▁எஞ்சிய	-6430
▁மரங்கள்	-6431
▁இந்நகரம்	-6432
▁சட்டத்தின்	-6433
ரத்த	-6434
▁இதன	-6435
▁அழகு	-6436
▁கண்ணாடி	-6437
23	-6438
முடிய	-6439
▁சில்	-6440
▁மங்க	-6441
▁செயல்பட்டு	-6442
நிலையை	-6443
▁வணங்க	-6444
▁ஒருமுறை	-6445
▁கிரிக்க்ட்	-6446
மூர்த்தி	-6447
ாகம்	-6448
▁அரே	-6449
▁திரை	-6450
ையியல்	-6451
▁சொன்ன	-6452
▁விளைவு	-6453
பெருமாள்	-6454
▁அறிமுகம்	-6455
▁காட்	-6456
▁விடய	-6457
ச்சை	-6458
▁மக்	-6459
▁கோவி	-6460
▁சாம்பியன்	-6461
CH	-6462
rom	-6463
▁8,	-6464
▁ஆஞ்ச	-6465
ிகளைத்	-6466
ுகிறான்	-6467
▁வர்க்க	-6468
our	-6469
▁ஊழிய	-6470
▁அவர்களால்	-6471
▁கிழக்கிந்திய	-6472
▁இரை	-6473
▁1920	-6474
▁அகில	-6475
▁தெற்கே	-6476
▁சமயங்களில்	-6477
▁37	-6478
ாகிய	-6479
▁வசத	-6480
▁ஃபிர	-6481
▁பறவை	-6482
▁குறிப்பு	-6483
▁சிவபெருமான்	-6484
சொ	-6485
▁கம்யூனி	-6486
▁தலைமையிலான	-6487
55	-6488
66	-6489
▁காக்க	-6490
▁1952	-6491
▁தலைப்ப	-6492
▁பொருளியல்	-6493
ர்கா	-6494
▁நடி	-6495
▁ஏக்கர்	-6496
▁கழகத்தில்	-6497
▁கோப	-6498
வெப்ப	-6499
மாவட்ட	-6500
▁அங்கீகர	-6501
▁இடம்பெற	-6502
▁பகுதிக்கு	-6503
▁இவற்றுள்	-6504
ண்கல	-6505
தாகத்	-6506
▁செயலாள	-6507
▁நீடித்த	-6508
▁அடிப்படையாக	-6509
ோள	-6510
▁சய	-6511
▁கொடி	-6512
▁சாதனை	-6513
uc	-6514
சேகர	-6515
ியான்	-6516
▁ரஷ்ய	-6517
னேட்டு	-6518
▁கரும்	-6519
▁சரியாக	-6520
▁அலுவலர்	-6521
▁மண்டபம்	-6522
ைகளுக்கான	-6523
▁ஆத்திரேலிய	-6524
98	-6525
மென்	-6526
▁முன்பே	-6527
▁கரையில்	-6528
▁நகைச்சுவ	-6529
▁மகன	-6530
▁தானே	-6531
▁நிலக்க	-6532
▁பாலைவன	-6533
▁அடர்த்த	-6534
▁இணைத்து	-6535
▁மதிப்பிட	-6536
வேளை	-6537
▁வெண்ண	-6538
▁குளிர்	-6539
ல்களையும்	-6540
▁திரும்பி	-6541
▁கண்டுபிடிப்ப	-6542
ort	-6543
▁அக்கால	-6544
▁பயிற்ச	-6545
▁வரையான	-6546
▁விண்டோ	-6547
▁நிறுவிய	-6548
▁வசதிகள்	-6549
ணவ	-6550
▁உதவியுடன்	-6551
▁விருதுகள்	-6552
▁காட்டுகிறது	-6553
▁செயற்கைக்கோ	-6554
▁33	-6555
▁கய	-6556
▁உறவ	-6557
ப்புல	-6558
சுவரர்	-6559
ிப்பாக	-6560
▁அறிஞர்கள்	-6561
▁செயல்முறை	-6562
▁பரிந்துரைக்க	-6563
▁ஹீ	-6564
நீதி	-6565
மண்டல	-6566
ுவதும்	-6567
▁கொடிய	-6568
▁சிறுநீ	-6569
▁சூப்பர்	-6570
லைச்	-6571
▁சூற	-6572
ிகளான	-6573
▁பெண்க	-6574
▁நாட்டை	-6575
▁டா	-6576
ுவனம்	-6577
▁அதற்க	-6578
▁குத்த	-6579
▁44	-6580
▁The	-6581
▁உப்ப	-6582
▁மூழ்க	-6583
க்குறைய	-6584
▁கழித்து	-6585
▁பிற்காலத்தில்	-6586
▁அவு	-6587
▁கழு	-6588
▁அழிவ	-6589
▁அமைத்து	-6590
▁இவ்வாறான	-6591
;.	-6592
▁10,	-6593
▁சாட்ட	-6594
வரையும்	-6595
▁குழுக்கள்	-6596
▁பாகிஸ்தான்	-6597
▁ஆடு	-6598
▁சின	-6599
▁சதவிக	-6600
▁கட்டிய	-6601
ிக்கொண்டு	-6602
ht	-6603
த்துத்	-6604
▁நிர்ணய	-6605
▁புரட்சி	-6606
▁பட்டியலிட	-6607
▁பெரம்பலூர்	-6608
aw	-6609
ங்களே	-6610
▁1945	-6611
▁தொழில்நுட்பம்	-6612
▁எடுத்துக்காட்டு	-6613
த்தவர்	-6614
▁எண்கள்	-6615
▁வெங்கட	-6616
▁மில்லிய	-6617
▁கோயிலின்	-6618
▁நீதிமன்றம்	-6619
uk	-6620
ice	-6621
▁உழ	-6622
ப்பால்	-6623
▁தெளிவாக	-6624
▁இலத்தீன்	-6625
ry	-6626
ப்பண	-6627
மிகு	-6628
▁மாட	-6629
ெலும்	-6630
ுகளைத்	-6631
aj	-6632
மாட்ட	-6633
▁கல்வெட்டு	-6634
▁தொழிலாளர்	-6635
மரு	-6636
ித்திர	-6637
▁தோராய	-6638
▁வழங்கினார்	-6639
▁ஆர்க	-6640
▁தலைவ	-6641
▁படிவ	-6642
▁விலங்கு	-6643
▁பகுப்பாய்வு	-6644
▁உறுப்பினரும்	-6645
ens	-6646
▁மௌ	-6647
▁ஒற்று	-6648
▁சுவாச	-6649
▁துருவ	-6650
▁வான்ப	-6651
▁கிராம்	-6652
ாளர்களின்	-6653
▁கொண்டவர்	-6654
்கால	-6655
ியாகப்	-6656
▁வரதராஜ	-6657
▁திறந்து	-6658
பெரும்	-6659
ார்ந்த	-6660
▁இத்தீ	-6661
▁வெங்க	-6662
▁புவியின்	-6663
▁வேட்டையா	-6664
ure	-6665
ாயம்	-6666
▁மீள	-6667
▁கிங்	-6668
▁மனம்	-6669
▁மாறுப	-6670
▁உடையது	-6671
▁கொண்டிருந்தார்	-6672
▁அணிவ	-6673
மில்லை	-6674
▁பாலியல்	-6675
▁எடுத்துச்	-6676
▁திருக்குற	-6677
▁யாழ்ப்பாணம்	-6678
▁வீச	-6679
ங்கன்	-6680
▁சபா	-6681
▁புன	-6682
▁பணிபு	-6683
ையிலேயே	-6684
▁எழுப்ப	-6685
▁பயிரிட	-6686
▁முதலாக	-6687
▁தொடரின்	-6688
▁வீழ்த்த	-6689
வட	-6690
ீத	-6691
▁46	-6692
▁சாள	-6693
▁மதம்	-6694
▁வெறு	-6695
▁ஒடுக்க	-6696
▁குழப்ப	-6697
▁என்பதன்	-6698
▁கடற்படை	-6699
▁காப்பாற்ற	-6700
▁அறை	-6701
மியம்	-6702
▁விஷய	-6703
▁கலைக்க	-6704
▁மார்க்க	-6705
▁கொட	-6706
▁மனோ	-6707
▁காசி	-6708
▁சமைய	-6709
▁பதில்	-6710
▁முள்ள	-6711
▁வெளியி	-6712
▁வேளாண்	-6713
▁பழங்குடி	-6714
▁மாவட்டத்திலுள்ள	-6715
27	-6716
▁7,	-6717
-200	-6718
ence	-6719
▁நீலக	-6720
▁மைக்கேல்	-6721
ுமிடத்தில்	-6722
ிகழ்	-6723
▁கவிதைகள்	-6724
க்கிழ	-6725
ற்றின்	-6726
▁8.	-6727
▁வான்க	-6728
▁தீவிரவாத	-6729
▁தொகுதிக்கு	-6730
▁துறவ	-6731
▁மனிதர்கள்	-6732
▁இருக்கின்றது	-6733
ற்றை	-6734
ங்கால	-6735
▁மரியா	-6736
▁என்பதில்	-6737
▁சூழப்பட்டுள்ளது	-6738
ப்ஸ்	-6739
ெதிர	-6740
▁அதிகள	-6741
ேசுவரர்	-6742
▁39	-6743
மித்	-6744
▁வறு	-6745
▁கணிச	-6746
▁பாதி	-6747
▁குளம்	-6748
க்கிறது	-6749
ுவதில்லை	-6750
▁சிறையில்	-6751
▁).	-6752
ment	-6753
மீன்	-6754
▁ஸ்டீ	-6755
▁உத்திர	-6756
▁விழிப்பு	-6757
ட்டாசி	-6758
▁சோழன்	-6759
▁நடுவண்	-6760
▁காட்டும்	-6761
▁கிடையாது	-6762
ஜு	-6763
ேட்டை	-6764
▁மும்	-6765
ப்புச்	-6766
▁கருது	-6767
▁கச	-6768
▁ஒலிபர	-6769
மையானது	-6770
▁மருத்துவர்	-6771
்டி	-6772
முதல்	-6773
▁படிய	-6774
▁கடற்கர	-6775
▁தொழிற்	-6776
▁சதுரங்க	-6777
▁CH	-6778
▁தண	-6779
ுவார்	-6780
▁நீரை	-6781
▁நெதர்	-6782
முழ	-6783
▁எத்த	-6784
▁தொன்	-6785
மையைக்	-6786
▁படப்பி	-6787
▁இராச்சியத்தின்	-6788
ond	-6789
▁ஹால	-6790
ையற்ற	-6791
▁நீர்த்த	-6792
▁இசைக்குழுவ	-6793
▁நடைமுறையில்	-6794
▁முதன்முதலாக	-6795
▁சாம்	-6796
▁கோப்பை	-6797
▁உணர்த்த	-6798
▁ஐரோப்பா	-6799
▁விருந்த	-6800
ைகு	-6801
புளோ	-6802
▁1964	-6803
▁கில்	-6804
ைகளைச்	-6805
வற்றில்	-6806
▁காய்ச்ச	-6807
▁சீனாவின்	-6808
▁இனப்பெருக்க	-6809
ப்பினை	-6810
▁காவிரி	-6811
ிக்கொள்ள	-6812
▁மைக்ரோசா	-6813
ord	-6814
ுக்கொ	-6815
▁அப்பா	-6816
ாளியம்மன்	-6817
▁ஆகியவற்றைக்	-6818
ff	-6819
கர்கள்	-6820
▁சுவாம	-6821
▁இக்கால	-6822
▁மடங்கு	-6823
ையிலுள்ள	-6824
ுக்கொண்டார்	-6825
ுக்காகவும்	-6826
▁ஆசிரியராக	-6827
▁பாண்டியன்	-6828
▁செய்வதற்கு	-6829
▁இமய	-6830
ச்சின்	-6831
▁பண்பாடு	-6832
▁பிரிந்து	-6833
%,	-6834
யிர்	-6835
ம்கள்	-6836
▁வேறுபடுத்த	-6837
சம்ப	-6838
▁பாறை	-6839
▁புரட்டாசி	-6840
ச்சா	-6841
▁கோர	-6842
ட்சர்	-6843
▁அயர்	-6844
▁ஊராட்ச	-6845
▁வரையறை	-6846
▁புரிந்த	-6847
▁வாய்ப்ப	-6848
▁நிறுவினார்	-6849
ைன்	-6850
▁காலமானார்	-6851
▁திருச்சபை	-6852
▁1968	-6853
ண்டின்	-6854
ர்கிறது	-6855
▁விடும்	-6856
▁விரிவான	-6857
▁தூரத்தில்	-6858
▁கூட்டமைப்பு	-6859
கமான	-6860
▁நுண	-6861
ிறேன்	-6862
▁இதற்கான	-6863
▁அங்கிருந்து	-6864
▁பயன்பாட்டில்	-6865
ஸ்ப	-6866
ையில	-6867
ினதும்	-6868
▁உணர்வு	-6869
▁பூசைகள்	-6870
▁பேருந்த	-6871
▁தொடர்ச்சியான	-6872
ari	-6873
ர்ச	-6874
▁அபி	-6875
▁சுல்தான	-6876
ல்களுக்கு	-6877
▁for	-6878
▁ஏதே	-6879
▁தசை	-6880
▁1966	-6881
▁இளைஞ	-6882
▁கர்த	-6883
▁பயிர்	-6884
ருக்கள்	-6885
▁நடித்து	-6886
▁என்பதையும்	-6887
▁ஒட்டுமொத்த	-6888
▁அதிகரிக்கும்	-6889
ுமே	-6890
▁நாத	-6891
▁1974	-6892
▁தலைவன்	-6893
▁பிரச்சன	-6894
ப்பார்கள்	-6895
▁புகைப்பட	-6896
▁சன்னதிகளும்	-6897
▁பரப்பளவ	-6898
▁கடவுளின்	-6899
▁பிரித்து	-6900
▁நாட்டுப்புற	-6901
ுடும்ப	-6902
▁காண்க	-6903
▁என்பவரை	-6904
end	-6905
▁இசையமைப்ப	-6906
▁சேர்மங்கள்	-6907
மாகச்	-6908
▁அட்லா	-6909
ன்பு	-6910
▁நிவ	-6911
▁நெட்	-6912
▁பாகு	-6913
▁அவற்றுள்	-6914
▁பிற்பகுதியில்	-6915
87	-6916
பவை	-6917
▁:.	-6918
▁கலப்பு	-6919
▁நோய்க்க	-6920
ிகளுக்கான	-6921
▁காரணத்தால்	-6922
▁தெரியவில்லை	-6923
ஆவது	-6924
▁ஊர்வ	-6925
▁நீட்ட	-6926
▁மயிலாடு	-6927
▁வழிபட்ட	-6928
▁பொருள்கள்	-6929
▁கதாப்பாத்திர	-6930
▁மெல்ல	-6931
▁வரம்ப	-6932
▁ஒன்றும்	-6933
▁அமைகிறது	-6934
▁ஆண்களின்	-6935
ாரா	-6936
▁அகாத	-6937
▁வலிமை	-6938
▁தலைவர்கள்	-6939
▁படிப்படியாக	-6940
▁12,	-6941
▁பூஜ	-6942
▁அளவிட	-6943
▁120	-6944
▁ஸ்ப	-6945
த்திற	-6946
▁கொழு	-6947
▁பொன்	-6948
யிற்று	-6949
▁தில்ல	-6950
▁நிற்க	-6951
▁உள்ளடக்கியது	-6952
43	-6953
▁பொருட்களின்	-6954
▁11,	-6955
▁நமது	-6956
▁தூரம்	-6957
▁ஆக்கிரமி	-6958
▁வாய்ப்பாட்ட	-6959
ae	-6960
ாமை	-6961
▁கழிவ	-6962
▁மலைய	-6963
▁வேகம்	-6964
▁வென்றது	-6965
▁நகருக்கு	-6966
▁மாணவர்கள	-6967
▁ஏறக்குறைய	-6968
ுவிட்டு	-6969
▁வியாபார	-6970
▁இவர்களுக்கு	-6971
▁பொறுப்பேற்ற	-6972
▁மண்டலத்தில்	-6973
▁வாழ்க்கையில்	-6974
umb	-6975
ையோர	-6976
▁முன்பாக	-6977
ங்களுக்குப்	-6978
மாவ	-6979
்சி	-6980
▁85	-6981
சிக்	-6982
ுவில்	-6983
▁பேட்	-6984
ிக்கலாம்	-6985
▁கூட்டணி	-6986
▁ஒன்றியத்தின்	-6987
ர்வே	-6988
▁பரம	-6989
▁ஒல்ல	-6990
▁நச்சு	-6991
ுகையில்	-6992
▁நாடகம்	-6993
▁அதிகபட்ச	-6994
▁வடிவத்தில்	-6995
ீழ்	-6996
ஞ்சல்	-6997
▁ராவ்	-6998
ில்லாத	-6999
▁லட்சுமி	-7000
▁நிலையத்தில்	-7001
▁நிகழ்ச்சியில்	-7002
▁சிட்	-7003
▁தளம்	-7004
▁போய்	-7005
▁இந்நோ	-7006
▁திகழ்	-7007
▁விளி	-7008
▁உடலின்	-7009
▁கூற்று	-7010
▁பொதுத்	-7011
▁நிர்வாகம்	-7012
▁லூயி	-7013
▁மக்கட	-7014
▁எதிர்கால	-7015
ஆக	-7016
சப	-7017
amb	-7018
▁ஊட	-7019
்களாக	-7020
▁நன்க	-7021
▁வளைக	-7022
ித்திய	-7023
இது	-7024
▁டிய	-7025
▁செவ்வ	-7026
▁தோன்றி	-7027
▁பின்னணி	-7028
▁ஆரோக்கிய	-7029
▁நாட்டுப்	-7030
▁தோன்றியது	-7031
▁சுற்றியுள்ள	-7032
▁இடு	-7033
ளித்த	-7034
▁வருவ	-7035
▁மகாபார	-7036
நாட்டின்	-7037
▁தெரிந்த	-7038
▁இப்பகுதி	-7039
▁கட்டிடம்	-7040
▁பகுதியான	-7041
▁பொல	-7042
▁இவரே	-7043
▁கொழும்ப	-7044
ுக்கொண்டு	-7045
ஹோ	-7046
ரித	-7047
ார்வ	-7048
ூடாக	-7049
▁கிழக்கே	-7050
▁9,	-7051
ிகளுள்	-7052
▁வீச்ச	-7053
▁மூலவர்	-7054
▁பொறுப்பு	-7055
ிருப்பதால்	-7056
▁உறுப்பினராகவும்	-7057
istr	-7058
▁ஐம்ப	-7059
ணிப்பு	-7060
ையினர்	-7061
▁பொருளை	-7062
▁இப்படம்	-7063
▁பற்றிக்	-7064
▁அணிக்காக	-7065
▁தொடர்பாக	-7066
ர்மன்	-7067
▁அடையும்	-7068
▁தருகிறது	-7069
▁முடிவுக்கு	-7070
▁தயாரிப்பில்	-7071
புற	-7072
முடி	-7073
▁1957	-7074
▁1959	-7075
▁அதிப	-7076
▁தலைநகராக	-7077
▁புத்தகம்	-7078
▁கிலோமீட்ட	-7079
ாகி	-7080
▁அதன	-7081
ுக்கிய	-7082
▁இதன்ப	-7083
▁புவிய	-7084
▁அரசால்	-7085
▁அரண்மன	-7086
▁இதழில்	-7087
68	-7088
ஸை	-7089
▁கூடாது	-7090
▁மக்கட்தொ	-7091
▁மத்தியப்	-7092
▁நடக்கின்றன	-7093
▁பயன்படுத்தலாம்	-7094
பன	-7095
ணியின்	-7096
▁ஈர்க்க	-7097
▁மார்க்	-7098
▁மாறும்	-7099
▁பதினெட்ட	-7100
▁மாதங்கள்	-7101
▁தவிர்த்து	-7102
ark	-7103
ory	-7104
மீக	-7105
ழ்க்	-7106
ளிலும்	-7107
▁ஆப்கான	-7108
ஃபா	-7109
▁மந்த	-7110
ாவிட்ட	-7111
▁பெருமளவு	-7112
▁வேட்பாளராக	-7113
▁எட	-7114
▁1946	-7115
▁தொண்ட	-7116
ங்குளம்	-7117
▁தீவில்	-7118
▁முறையான	-7119
▁வேதிப்ப	-7120
▁அமைச்சராக	-7121
▁பெறப்பட்ட	-7122
▁ஆசிரியர்கள்	-7123
▁துவக்கத்தில்	-7124
▁பிரி	-7125
▁முதி	-7126
ம்பாடி	-7127
▁ரீதியான	-7128
▁வீடுகள்	-7129
▁மருந்துகள்	-7130
▁x	-7131
மிக	-7132
டில்	-7133
தாகவே	-7134
▁பிலி	-7135
▁லியோ	-7136
▁ஆஞ்சந	-7137
▁தவறான	-7138
▁தொற்று	-7139
▁மெதுவாக	-7140
▁பருவத்தில்	-7141
ுண்ட	-7142
த்தலை	-7143
▁சமாத	-7144
▁தாது	-7145
▁ஆனந்த	-7146
▁பாரதி	-7147
▁மோசமான	-7148
▁முகம்மது	-7149
▁வகைகளில்	-7150
▁சூட	-7151
▁வெல்ல	-7152
▁கடினமான	-7153
▁கட்டுப்பாட்டு	-7154
▁குடும்பத்தைச்	-7155
ஷே	-7156
ஃபி	-7157
▁1949	-7158
▁ஆரணி	-7159
▁துணி	-7160
▁அப்போதைய	-7161
▁கிழக்குப்	-7162
▁புற்றுநோய	-7163
▁எழுத்துக்கள்	-7164
ரொ	-7165
தாய்	-7166
விளை	-7167
▁நாற்ப	-7168
கிருஷ்ண	-7169
72	-7170
ஜின	-7171
பெற	-7172
த்தர்	-7173
▁கட்சிய	-7174
▁கையில்	-7175
▁ஐந்தாம்	-7176
▁பணிபுரிந்தார்	-7177
▁1973	-7178
▁ஹைட்	-7179
▁பவுல்	-7180
▁குழாய்	-7181
▁மலையில்	-7182
▁எண்ணிக்கையில்	-7183
மில்	-7184
ானம்	-7185
மைக்கு	-7186
▁சிவாஜி	-7187
▁திருக்க	-7188
▁பயன்பட்ட	-7189
▁ஆண்டுக்கு	-7190
▁விழுக்காடு	-7191
க்ள	-7192
▁கும்	-7193
▁நீரி	-7194
▁வேண்டி	-7195
▁சித்தரிக்க	-7196
tern	-7197
ன்சு	-7198
லகம்	-7199
▁இயலாத	-7200
▁அமைந்து	-7201
▁காலத்தின்	-7202
▁செய்கின்றன	-7203
▁இம்மாவட்டம்	-7204
▁re	-7205
ையிற	-7206
ுமாறு	-7207
▁ஹோட்ட	-7208
▁வேற்று	-7209
▁திசையில்	-7210
▁காலத்திற்கு	-7211
▁பொருள்படும்	-7212
▁கூறுகின்றனர்	-7213
▁கரி	-7214
▁1955	-7215
▁பரவிய	-7216
ுகளாகும்	-7217
▁சாம்பல்	-7218
▁படிப்பை	-7219
▁முன்னில	-7220
▁சட்டப்படி	-7221
ஜன	-7222
▁தொடு	-7223
▁நிபுண	-7224
▁பிறந்து	-7225
▁வெளியில்	-7226
▁அவர்களுடைய	-7227
▁இருந்ததால்	-7228
▁தொடர்வண்டி	-7229
▁தொகுதியாகும்	-7230
பாத	-7231
▁கடித	-7232
▁அதிகாரிகள்	-7233
▁திட்டங்கள்	-7234
சாத்	-7235
▁செது	-7236
▁தனிப்ப	-7237
▁தேசியக்	-7238
ுவதற்கும்	-7239
▁தொலைபேசி	-7240
▁இயக்கினார்	-7241
வீர	-7242
ோனிய	-7243
▁ஆணையம்	-7244
▁வகையைச்	-7245
ict	-7246
லைய	-7247
ுறி	-7248
சிஸ்	-7249
ூராட்சி	-7250
▁விழாவில்	-7251
▁போராட்டம்	-7252
▁விளைவுகள்	-7253
▁நிலையங்கள்	-7254
56	-7255
CO	-7256
▁Y	-7257
▁மீன	-7258
▁அவசர	-7259
▁மேடை	-7260
▁இழந்த	-7261
ங்களாகப்	-7262
▁இருக்கு	-7263
ies	-7264
man	-7265
per	-7266
ான்ஸ்	-7267
▁அன்றைய	-7268
▁இந்தியன்	-7269
▁பெறுகிறது	-7270
▁மருத்துவமனை	-7271
▁பெரும்பான்மையான	-7272
ுபடி	-7273
▁நதி	-7274
ஃப்ட்	-7275
▁ஓய்வ	-7276
▁குறைவு	-7277
▁மேற்கொண்டு	-7278
▁மெய	-7279
▁1939	-7280
▁கடலோ	-7281
ங்கின்	-7282
▁அப்பட	-7283
ப்பினார்	-7284
▁வேளையில்	-7285
வதி	-7286
▁15,	-7287
நோக்கி	-7288
▁செறிவ	-7289
டுகளும்	-7290
▁பழங்கால	-7291
புரத்தில்	-7292
▁பள்ளிகள்	-7293
▁கருத்தில்	-7294
வணை	-7295
ாயிரம்	-7296
▁முரண்	-7297
▁வெளியீடு	-7298
ிக்கின்றனர்	-7299
▁பின்னாளில்	-7300
0.	-7301
த்தொகு	-7302
வாயில்	-7303
▁திரைய	-7304
▁பட்டிய	-7305
▁பிறப்ப	-7306
▁அழிந்து	-7307
▁கற்றார்	-7308
▁மார்கழி	-7309
▁முடிக்க	-7310
▁வசித்து	-7311
=.	-7312
புத	-7313
▁களை	-7314
▁மெல்லிய	-7315
▁நகரங்கள்	-7316
ிக்கப்பட்டுள்ளன	-7317
▁சிம்	-7318
ையாகப்	-7319
▁அதிகரித்த	-7320
▁தலங்களில்	-7321
age	-7322
பாட்ட	-7323
▁தரிச	-7324
▁ராக்	-7325
▁தாவரவ	-7326
ெழுத்து	-7327
▁இயலாது	-7328
▁நன்றாக	-7329
▁சிறப்புப்	-7330
ெடுக்கப்பட்ட	-7331
ly	-7332
▁1981	-7333
▁இயல்பு	-7334
▁நரம்பு	-7335
▁de	-7336
▁பங்குனி	-7337
▁அளிக்கும்	-7338
▁உருவாக்குகிறது	-7339
ழ்ச்சி	-7340
▁செயலா	-7341
▁தொன்ம	-7342
▁கல்லூரிய	-7343
▁ஜப்பானிய	-7344
▁ஓடி	-7345
▁பென	-7346
▁இண்ட	-7347
▁இன்ப	-7348
▁ஊடாக	-7349
▁புரூ	-7350
ிகிறது	-7351
▁தொகைக்	-7352
,"	-7353
▁34	-7354
▁An	-7355
ேட்ட	-7356
▁பகா	-7357
▁மாநிலங்களில்	-7358
▁அடிப்படையிலான	-7359
நோய	-7360
▁நிலவிய	-7361
▁வாக்கு	-7362
▁விட்டது	-7363
▁வைத்தார்	-7364
ிர்த	-7365
▁இவ்வு	-7366
▁அழைப்பர்	-7367
▁தளத்தில்	-7368
▁தற்பொழுது	-7369
▁160	-7370
திக்கு	-7371
▁ஐந்தாவது	-7372
▁கொடுத்தார்	-7373
மண்ட	-7374
▁விருத	-7375
▁கல்வியை	-7376
▁மையத்தில்	-7377
▁மின்னழுத்த	-7378
▁இங்கிலாந்தில்	-7379
த்தொகை	-7380
▁பித்த	-7381
▁அர்ப்ப	-7382
▁இணைப்ப	-7383
ிருந்தால்	-7384
▁செயலாக்க	-7385
iz	-7386
]],	-7387
நாம	-7388
▁எண்க	-7389
ந்தூர்	-7390
ேயுள்ள	-7391
▁வழிவகு	-7392
▁விவசாயம்	-7393
▁கீழ்க்காணும்	-7394
குரு	-7395
ீசிய	-7396
ிட்டது	-7397
▁தேவாலய	-7398
▁சூழ்நில	-7399
▁சார்ந்து	-7400
▁கட்டுப்பாடு	-7401
மூல	-7402
ாடிய	-7403
▁திவ	-7404
▁தோழ	-7405
▁படங்கள்	-7406
▁பெண்களும்	-7407
▁பொருளாதாரம்	-7408
த்ர	-7409
வாடி	-7410
ுற்ற	-7411
▁ஒர்	-7412
▁கிண	-7413
▁அழிக்க	-7414
▁மன்றம்	-7415
▁முன்னரே	-7416
▁ஒருங்கிணைந்த	-7417
▁மேற்கொண்டார்	-7418
ear	-7419
▁ஒடு	-7420
றுகள்	-7421
▁முகமது	-7422
▁சேர்மம்	-7423
▁வட்டத்தின்	-7424
ணித	-7425
ேடு	-7426
▁தடுப்பு	-7427
▁நீங்கள்	-7428
▁மொழியின்	-7429
ரைகள்	-7430
க்குத்	-7431
தாலும்	-7432
்களால்	-7433
ராட்டிர	-7434
போதிலும்	-7435
▁கிருஷ்ணன்	-7436
▁வடிவமைக்கப்பட்ட	-7437
ிதழ	-7438
ன்மா	-7439
ிறகு	-7440
▁மனைவ	-7441
▁கொட்ட	-7442
▁சிம்ப	-7443
▁மொழிய	-7444
▁அழைத்து	-7445
▁தொடங்கும்	-7446
▁கொடுக்கும்	-7447
▁பிரதிநிதித்துவ	-7448
6,	-7449
மையா	-7450
▁13,	-7451
லைகள்	-7452
▁1963	-7453
▁சுவி	-7454
ுகொள்ள	-7455
▁குருவ	-7456
▁பிடிக்க	-7457
▁புலிகள்	-7458
▁வோ	-7459
▁ஆலை	-7460
▁சிக்	-7461
▁உணவாக	-7462
▁இவ்வித	-7463
▁நூலகம்	-7464
▁பட்டது	-7465
▁அதிகாரி	-7466
▁கார்த்திகை	-7467
▁பிரதேசத்தில்	-7468
NA	-7469
ong	-7470
▁மூளை	-7471
▁பாலம்	-7472
▁வியாழ	-7473
▁விளையாட்டுப்	-7474
92	-7475
தூ	-7476
தொரு	-7477
வுப்	-7478
ையினை	-7479
▁ஆரிய	-7480
▁டிவி	-7481
▁பெருக	-7482
▁வணிகம்	-7483
▁குடியேற	-7484
▁சகோதரர்	-7485
ie	-7486
ிரம	-7487
மயம்	-7488
ாசிய	-7489
▁1958	-7490
▁யானை	-7491
▁நியமி	-7492
▁முகலாய	-7493
▁திருத்தந்த	-7494
▁எல	-7495
▁எஃப்	-7496
ங்காய்	-7497
▁நீளமான	-7498
▁செய்யலாம்	-7499
▁விளையாடினார்	-7500
▁இவ்வின	-7501
▁மைசூர்	-7502
லுக்கும்	-7503
▁பாக்கித்த	-7504
ப்பட்டிருந்தது	-7505
-20	-7506
▁கோழ	-7507
▁நீரின்	-7508
▁பராமரி	-7509
▁பசிபிக்	-7510
▁தந்தையின்	-7511
ெல	-7512
▁51	-7513
சாரி	-7514
ிக்கொ	-7515
▁நபர்	-7516
▁மலர்	-7517
▁இடமாக	-7518
டுகையில்	-7519
ுக்களும்	-7520
▁ஏதேனும்	-7521
▁ஆக்சிசன்	-7522
▁கோயிலில்	-7523
▁நடத்தப்பட்ட	-7524
ey	-7525
சலே	-7526
ிமீ	-7527
ிவில	-7528
▁பிடி	-7529
▁ஒருவன்	-7530
▁தொண்டை	-7531
▁ஹொங்கொ	-7532
▁கடுமையாக	-7533
▁பொதுமக்க	-7534
▁பதினெட்டாம்	-7535
41	-7536
ஸ்க்	-7537
▁ஆணை	-7538
ுந்து	-7539
அமெரிக்க	-7540
மைப்பில்	-7541
▁கதிரியக்க	-7542
▁பக்கத்தில்	-7543
ழிவு	-7544
ிவர்	-7545
கத்தை	-7546
▁நிலந	-7547
▁சமவெள	-7548
▁பங்கா	-7549
▁பதின்	-7550
▁விலகி	-7551
▁அளிப்ப	-7552
வல்ல	-7553
ாத்த	-7554
▁அகர	-7555
▁தவி	-7556
ிறோம்	-7557
▁நுரையீரல்	-7558
67	-7559
லாச	-7560
▁78	-7561
▁ஊர	-7562
மன்றத்	-7563
த்திறன்	-7564
ப்பெயர்	-7565
லாந்தின்	-7566
▁விமானம்	-7567
▁தலைமையிட	-7568
▁பெற்றனர்	-7569
க்குறிச்சி	-7570
▁தற்காலத்தில்	-7571
▁அறியப்படுகிறார்	-7572
ாலின்	-7573
▁பண்பு	-7574
▁உட்புற	-7575
▁தமிழ்ச்	-7576
▁வடகிழக்கு	-7577
▁அறிகுறிகள்	-7578
▁பொதுமக்கள்	-7579
▁அரசியலமைப்பு	-7580
▁அருண	-7581
▁ஒட்டி	-7582
▁அட்டவணை	-7583
▁பொழுதுபோ	-7584
▁வரையிலும்	-7585
▁மயிலாடுதுறை	-7586
▁ராமநாதபுரம்	-7587
▁அடிவ	-7588
▁பூமியின்	-7589
▁பெற்றுள்ளன	-7590
500	-7591
நிர	-7592
▁ஜு	-7593
பக்க	-7594
▁அப்	-7595
▁மேய	-7596
▁ரசிக	-7597
▁செயலி	-7598
▁பட்டத்தை	-7599
த்துறையில்	-7600
ளாக	-7601
▁மேட	-7602
▁ரிஷ	-7603
▁காதல	-7604
ண்டில்	-7605
▁விஸ்வ	-7606
▁சமூகம்	-7607
▁பிராமண	-7608
▁விஷ்ணு	-7609
▁உயர்நிலை	-7610
▁கட்டுப்பா	-7611
▁வந்துள்ளது	-7612
ோனியம்	-7613
▁கூறலாம்	-7614
▁மூலமும்	-7615
▁கூடுதலான	-7616
▁வைத்துக்	-7617
▁நிலப்பகுத	-7618
▁தீர்	-7619
▁மின்னோ	-7620
▁விருதை	-7621
▁மலைத்தொட	-7622
ப்படுத்திய	-7623
▁படித்தார்	-7624
▁தொகுதியிலும்	-7625
▁நிகழ்ச்சிகள்	-7626
▁9.	-7627
▁Un	-7628
க்ட்	-7629
ல்டு	-7630
ுவன்	-7631
▁இறப்ப	-7632
▁மின்த	-7633
▁விதமான	-7634
▁ஒன்றின்	-7635
▁எடுத்தார்	-7636
▁உவ	-7637
பியா	-7638
பென்	-7639
▁உறிஞ்ச	-7640
▁ஆய்வில்	-7641
▁அனைத்தையும்	-7642
ous	-7643
வரிசை	-7644
ப்பியம்	-7645
▁விண்டோஸ்	-7646
▁விளங்கினார்	-7647
▁வடிக	-7648
ாட்சிய	-7649
▁எந்திர	-7650
▁சந்தர்ப்ப	-7651
▁சங்கத்தின்	-7652
▁நய	-7653
ன்னிய	-7654
▁1954	-7655
▁தெய்	-7656
▁தேவத	-7657
▁அம்மா	-7658
▁மறுக்க	-7659
க்கூடாது	-7660
▁உருவாகின்றன	-7661
▁மல்	-7662
ாவைச்	-7663
▁வலிமையான	-7664
▁முன்னேற்றக்	-7665
▁திருச்சபையின்	-7666
ரஸ்	-7667
ந்தல்	-7668
கர்த்த	-7669
▁நடுத்த	-7670
▁படுகிறது	-7671
▁நாடுகளிலும்	-7672
▁வசிக்கின்றனர்	-7673
▁காலப்பகுதியில்	-7674
மத்	-7675
▁95	-7676
சென்	-7677
ொடர்	-7678
மைகளை	-7679
▁சிறீ	-7680
▁மிரு	-7681
▁தொழிற்ப	-7682
▁நோய்கள்	-7683
▁தலைமையகம்	-7684
▁வெற்றிகரமாக	-7685
▁மகர	-7686
ேயும்	-7687
ர்களுள்	-7688
▁கற்றல்	-7689
ப்பாக்கம்	-7690
த்துக்குப்	-7691
▁ஆராய்ச்சிய	-7692
▁மருத்துவக்	-7693
▁பள்ளத்தாக்க	-7694
▁வேறுபாடுகள்	-7695
▁போன்றவற்றில்	-7696
▁டூ	-7697
செய்	-7698
த்யா	-7699
வதில்	-7700
▁ஐதரா	-7701
▁கிருட்டி	-7702
▁பட்டப்படி	-7703
▁பழங்குடிய	-7704
▁பயனுள்ள	-7705
▁போர்க்க	-7706
▁இந்தோனேசிய	-7707
akk	-7708
லப்	-7709
ிக்ஞ	-7710
காரம்	-7711
▁மேரி	-7712
வர்களால்	-7713
▁அவசியம்	-7714
▁விநியோக	-7715
▁ஓவியங்கள்	-7716
ern	-7717
eth	-7718
▁மீனாட்சி	-7719
▁செயல்பாடு	-7720
▁தென்மேற்கு	-7721
▁நம	-7722
ிகம்	-7723
▁டார்	-7724
ரானார்	-7725
▁இதைத்	-7726
▁படுக்க	-7727
▁அப்துல்	-7728
▁ஜெர்மன்	-7729
▁ஆட்சிக்க	-7730
▁எதிர்ப்ப	-7731
▁மேற்குப்	-7732
ite	-7733
தின்	-7734
வுக்	-7735
▁பாகை	-7736
ிகளைச்	-7737
▁மார்ட	-7738
▁செங்கோ	-7739
ருக்குத்	-7740
▁அனுப்பி	-7741
▁வெளியீட்ட	-7742
▁பாதுகாப்புச்	-7743
▁ஐதரோ	-7744
▁பாடு	-7745
▁ஆக்சை	-7746
▁ஆறாம்	-7747
▁ஒப்பு	-7748
▁செட்ட	-7749
ிவிடும்	-7750
▁இவரும்	-7751
▁கூட்டி	-7752
▁வலுவான	-7753
ன்த	-7754
▁பட்	-7755
▁லட்ச	-7756
விட்டது	-7757
▁அந்தத்	-7758
▁ஆற்றலை	-7759
▁அமர்ந்த	-7760
▁இந்திரா	-7761
▁கிறிஸ்தவ	-7762
▁கும்பகோணம்	-7763
▁(18	-7764
▁இலக	-7765
▁கவிஞ	-7766
▁யுனை	-7767
ுகிறாள்	-7768
ace	-7769
கப்	-7770
▁ஏவுக	-7771
▁ராணி	-7772
பேட்டை	-7773
▁ஆட்டம்	-7774
▁ஆட்சிக்	-7775
பான	-7776
னைச்	-7777
▁16,	-7778
▁Ind	-7779
ற்காடு	-7780
▁வகித்த	-7781
▁வாழ்க்கையை	-7782
oun	-7783
சாம	-7784
▁42	-7785
முகம்	-7786
▁பியூ	-7787
▁இத்தல	-7788
▁இப்பள்ள	-7789
▁காடுகள்	-7790
▁காலநிலை	-7791
▁நோக்கில்	-7792
▁பதவியில்	-7793
நோய்	-7794
▁குரூ	-7795
▁சாரா	-7796
▁முன்னு	-7797
▁முயற்சிகள்	-7798
▁ஆய்வாளர்கள்	-7799
புரோ	-7800
▁பாடக	-7801
ண்டனில்	-7802
▁உயிரிழ	-7803
ிழமையில்	-7804
▁வைத்திய	-7805
ப்படுத்தல்	-7806
▁கலிபோர்னியா	-7807
சிங்	-7808
▁வாட்ட	-7809
ிலக்கிய	-7810
மையையும்	-7811
▁ஒன்றிணை	-7812
▁புராணம்	-7813
▁முழுவது	-7814
த்திற்குத்	-7815
▁நிலைகளில்	-7816
▁வகையாகும்	-7817
▁ஆஸ்திரேலியா	-7818
▁கட்டிடங்கள்	-7819
ism	-7820
▁Al	-7821
ிமம்	-7822
▁1936	-7823
▁எண்கள	-7824
▁கவுன்	-7825
▁ஜெர்மனி	-7826
▁பந்துவீ	-7827
ேத	-7828
ாகு	-7829
காலம்	-7830
▁ராம்	-7831
▁அரிசி	-7832
▁தீர்வு	-7833
▁நடிப்ப	-7834
▁நோய்த்த	-7835
▁இடையேயான	-7836
▁பண்புகள்	-7837
▁கிடைக்கின்றன	-7838
ஜென்	-7839
▁கேர	-7840
▁வண்டி	-7841
ுள்ளார்கள்	-7842
▁புள்ளிகள்	-7843
பதிய	-7844
ப்பிள்	-7845
வகையான	-7846
▁தங்கி	-7847
▁தேயில	-7848
டுவதால்	-7849
▁காணும்	-7850
▁காவல்துறை	-7851
▁பராமரிக்க	-7852
..	-7853
97	-7854
ாமல	-7855
▁நிழ	-7856
▁பிட்	-7857
▁கைவிட	-7858
▁லிங்க	-7859
▁பழுப்பு	-7860
▁சர்க்கரை	-7861
▁நாடாளுமன்றத்	-7862
இத	-7863
சின	-7864
▁10.	-7865
▁14,	-7866
வர்ட்	-7867
▁ஒப்பட	-7868
▁சோழர்	-7869
ட்டியில்	-7870
▁அமர்த்த	-7871
▁கோவிலில்	-7872
▁பாதையில்	-7873
▁முறையாகும்	-7874
ம்மு	-7875
▁இட்ட	-7876
▁சம்பவ	-7877
சார்ந்த	-7878
ex	-7879
ாயின்	-7880
▁மேன்	-7881
▁சமஸ்க	-7882
▁இரசாயன	-7883
▁உடல்நல	-7884
▁தொடங்கினர்	-7885
▁சுப்பிரமணிய	-7886
▁ஹி	-7887
மாரி	-7888
▁சிய	-7889
ிவுட்	-7890
ொருளை	-7891
▁சங்கர	-7892
ப்பதால்	-7893
▁அவ்வாற	-7894
▁ஆறுகள்	-7895
▁வெளியீ	-7896
▁வலைத்தள	-7897
ெரு	-7898
▁அருள	-7899
▁காசு	-7900
▁கிளி	-7901
▁சாய்	-7902
▁டிரை	-7903
▁இப்பு	-7904
▁கட்டண	-7905
▁தஞ்சை	-7906
▁இதனுடைய	-7907
▁உத்தரப்	-7908
சான்	-7909
லாய்	-7910
▁அமீ	-7911
▁சேகர	-7912
▁பிழை	-7913
ுவதற்க	-7914
ச்சந்திரன்	-7915
▁சான்றுகள்	-7916
▁உயர்நிலைப்	-7917
▁அண்	-7918
▁நவா	-7919
▁மீள்	-7920
ாட்டம்	-7921
ினையும்	-7922
▁வசிக்கும்	-7923
▁இடத்திற்கு	-7924
▁II	-7925
▁ஹூ	-7926
ெட்டி	-7927
▁இலாப	-7928
▁வைணவ	-7929
லங்கள்	-7930
▁பாயும்	-7931
▁இதற்காக	-7932
▁மாற்றாக	-7933
▁அமைகின்றன	-7934
▁மதிப்பீடு	-7935
▁அலுமினியம்	-7936
▁உருவாக்கம்	-7937
ont	-7938
▁00	-7939
மானு	-7940
ற்றுவ	-7941
ிலின்	-7942
▁டபிள்	-7943
▁பெற்றன	-7944
▁நகர்த்த	-7945
▁முனிவர்	-7946
▁உருவாக்கியது	-7947
ick	-7948
▁டன்	-7949
▁போத	-7950
▁ராய்	-7951
▁சுல்தான்	-7952
்காலத்தில்	-7953
லார்	-7954
▁சனி	-7955
▁ஹில்	-7956
ையினால்	-7957
▁மாதிரிய	-7958
▁மக்களிடையே	-7959
இர	-7960
ொளி	-7961
▁திரௌ	-7962
▁நீள்	-7963
ுகளுக்கான	-7964
▁நிப	-7965
▁உலகெ	-7966
▁கரிய	-7967
▁முளை	-7968
மையைப்	-7969
▁சமிக்ஞ	-7970
▁செயல்திற	-7971
▁தங்களின்	-7972
ivers	-7973
▁சூறாவ	-7974
▁சண்முக	-7975
▁விக்டோ	-7976
▁அளித்தார்	-7977
▁பெறப்படும்	-7978
▁தென்கிழக்கு	-7979
ளே	-7980
▁சற்ற	-7981
ாளரும்	-7982
▁மைதான	-7983
▁லண்டன்	-7984
▁ஈடுபாடு	-7985
▁நெறிமுற	-7986
▁சீனாவில்	-7987
▁மன்னர்கள்	-7988
▁முடித்தார்	-7989
▁இராமநாதபுரம்	-7990
ந்தோ	-7991
▁அற்ப	-7992
▁வாழை	-7993
▁ஆற்று	-7994
ாட்டுக்	-7995
▁பிந்தைய	-7996
▁அடைந்தது	-7997
▁வினைபுரி	-7998
▁நிலத்தில்	-7999
▁மலேசியாவில்	-8000
";	-8001
',	-8002
ிண	-8003
ன்பி	-8004
▁1961	-8005
▁அடக்க	-8006
▁இதைப்	-8007
▁இயங்கி	-8008
▁மாதங்களில்	-8009
▁இக்கோயிலின்	-8010
▁தயாரிக்கப்பட்ட	-8011
▁Th	-8012
நாம்	-8013
முற்ற	-8014
▁சாதி	-8015
▁பாஸ்	-8016
ாதிபதி	-8017
ைகளுள்	-8018
▁நாயக்க	-8019
▁பறக்கும்	-8020
▁இவ்வூரின்	-8021
ics	-8022
▁ஒடி	-8023
▁யுரே	-8024
▁ஏதும்	-8025
▁கங்கை	-8026
▁அத்தியாய	-8027
▁முதலீட்ட	-8028
ியலாளர்கள்	-8029
▁திட்டத்தை	-8030
▁தொல்காப்பிய	-8031
77	-8032
ம்பா	-8033
வரிச	-8034
வோர்	-8035
ாயிர	-8036
▁புலி	-8037
▁சிறும	-8038
▁போதிய	-8039
▁பெட்ரோ	-8040
▁அதற்கான	-8041
▁இறுதிப்	-8042
▁அமைவிடம்	-8043
▁செல்வாக்கு	-8044
ிடை	-8045
ன்கோ	-8046
▁சோத	-8047
▁யுக	-8048
▁சப்த	-8049
▁இறைவன	-8050
▁இப்பாட	-8051
▁கருவிய	-8052
ாவிலுள்ள	-8053
▁மரபுவழி	-8054
▁பிரிவுகள்	-8055
மைடு	-8056
▁இட்	-8057
▁இயல	-8058
▁பகவ	-8059
வனந்த	-8060
▁கொடை	-8061
▁ஆகஸ்டு	-8062
▁கல்லூர	-8063
▁போன்றே	-8064
▁இருப்பதை	-8065
▁வேண்டுமெ	-8066
▁சந்தையில்	-8067
▁நுண்ணுயிர	-8068
டீ	-8069
▁மஹ	-8070
▁59.	-8071
ுவான்	-8072
▁புனே	-8073
ரங்கம்	-8074
ன்களில்	-8075
▁கணேசன்	-8076
ருக்குக்	-8077
▁ஒளிப்பட	-8078
▁மேம்பட்ட	-8079
▁திரும்பிய	-8080
adi	-8081
▁64	-8082
▁17,	-8083
மானம்	-8084
▁சுண்ண	-8085
ett	-8086
ாவோ	-8087
▁56	-8088
▁தூக்க	-8089
▁இலக்கு	-8090
▁ஒழுக்க	-8091
▁வடமேற்கு	-8092
8,	-8093
94	-8094
▁st	-8095
▁ஏன்	-8096
தியம்	-8097
ுடையது	-8098
▁தேவர்	-8099
▁அலங்கார	-8100
▁அங்குள்ள	-8101
▁இடத்தைப்	-8102
▁விளையாடு	-8103
▁மக்கட்தொகை	-8104
2-	-8105
சபை	-8106
ல்வி	-8107
▁இழை	-8108
மில்லா	-8109
▁பதக்க	-8110
சட்டமன்றத்	-8111
▁எதிர்மின்	-8112
▁சுதந்திரம்	-8113
▁அகா	-8114
பட்டு	-8115
லாகப்	-8116
▁ஜோசப்	-8117
▁முறிய	-8118
▁சொத்து	-8119
▁தங்கம்	-8120
▁நிக்கோ	-8121
▁நரசிம்ம	-8122
%)	-8123
ுவே	-8124
▁66	-8125
தற்க	-8126
விச்	-8127
ெயின்	-8128
▁அபாய	-8129
க்குறை	-8130
ிக்கப்	-8131
▁உயிரிய	-8132
ப்பிள்ளை	-8133
▁விசாரணை	-8134
தமிழ்நாடு	-8135
▁தியான	-8136
▁கூட்டம்	-8137
▁வடிவமைக்க	-8138
வேள	-8139
▁அமினோ	-8140
ித்துறை	-8141
▁பிலிப்ப	-8142
▁ஆட்சிக்கு	-8143
▁பார்வையாள	-8144
்தா	-8145
மீட்டர்	-8146
▁கொங்கு	-8147
ப்படாமல்	-8148
▁எல்லையில்	-8149
▁கோயில்களில்	-8150
கோண	-8151
மால்	-8152
▁ரிச	-8153
டியான	-8154
▁குடை	-8155
▁தட்ப	-8156
▁வர்ண	-8157
▁கந்தக	-8158
▁ஜனநாயக	-8159
▁தெலுங்க	-8160
▁மின்னணு	-8161
▁இயக்கத்தின்	-8162
▁முன்னிலையில்	-8163
▁வரையறுக்கப்பட்ட	-8164
கையான	-8165
ஞ்சம்	-8166
ாண்டர்	-8167
ிவரும்	-8168
▁இட்டு	-8169
▁காய்க	-8170
▁பூஞ்ச	-8171
▁அருகாம	-8172
▁காட்டி	-8173
▁குண்டு	-8174
ஸ்டா	-8175
▁அகழ்	-8176
▁நாற்க	-8177
▁பாடசாலை	-8178
▁பெண்களுக்கு	-8179
ரெட்	-8180
▁20,	-8181
ட்டான்	-8182
▁அதைத்	-8183
▁கொத்த	-8184
▁பரிசோதன	-8185
▁திட்டத்தில்	-8186
▁மருத்துவமனையில்	-8187
▁பூமி	-8188
▁கழிவு	-8189
▁பதினாற	-8190
▁பனிக்க	-8191
▁மட்டக்களப்பு	-8192
ங்கர	-8193
ப்பன	-8194
▁அவனை	-8195
▁தாரா	-8196
டியின்	-8197
▁ஜப்பான்	-8198
▁முன்னால்	-8199
▁கப்பல்கள்	-8200
▁கால்சியம்	-8201
▁பொருத்தமான	-8202
▁இங்கிலாந்தின்	-8203
▁18,	-8204
▁பூத	-8205
ட்டல்	-8206
▁சேது	-8207
போர்ட்	-8208
▁பிரபு	-8209
▁தமிழீழ	-8210
▁மேற்கே	-8211
வியலாளர்	-8212
சியின்	-8213
▁தேவார	-8214
▁பாஸ்க	-8215
▁வாழ்நாள்	-8216
▁எச்சரிக்க	-8217
▁நகரமாகும்	-8218
▁அதிர	-8219
▁பழனி	-8220
▁உமிழ்	-8221
▁சமமான	-8222
▁சங்ககால	-8223
▁பள்ளிவாச	-8224
▁பிணைப்பு	-8225
க்கூடியதாக	-8226
▁புதுச்சேரி	-8227
pl	-8228
ஜோ	-8229
ிவே	-8230
▁IS	-8231
ிரியா	-8232
▁நடத்தை	-8233
▁மோட்டார்	-8234
▁அரசியலில்	-8235
Ar	-8236
ஃபெ	-8237
னைல்	-8238
▁வர்	-8239
▁அர்ப்பண	-8240
▁பருத்தி	-8241
▁நிறுவனத்தை	-8242
▁பிள்ளையார்	-8243
ணர்வ	-8244
▁லாக	-8245
▁ஆதரி	-8246
▁கருதி	-8247
▁பயனர்	-8248
▁லட்சம்	-8249
▁இப்பெயர்	-8250
▁இடங்களிலும்	-8251
AT	-8252
தள	-8253
ழிவ	-8254
▁250	-8255
▁மணம்	-8256
▁இரவில்	-8257
ிக்கவும்	-8258
▁ஆகையால்	-8259
▁சென்றது	-8260
▁முற்றுக	-8261
ந்துகொண்ட	-8262
▁பட்டமும்	-8263
▁நடத்தினார்	-8264
▁ஏற்படுத்தியது	-8265
ஸ்ரீ	-8266
▁பகை	-8267
▁சந்தேக	-8268
ிகளாகும்	-8269
▁துப்பாக்கி	-8270
▁இப்படத்தில்	-8271
5.	-8272
ங்ச	-8273
குளோ	-8274
▁19,	-8275
ுக்கே	-8276
▁முன்க	-8277
▁பிளாக்	-8278
▁வருவது	-8279
▁வார்த்தை	-8280
▁துப்பாக்க	-8281
▁ஆயிரக்கணக்கான	-8282
▁இம்மாவட்டத்தில்	-8283
ுதள	-8284
நாளில்	-8285
▁யுத்த	-8286
ர்ச்சிய	-8287
▁நிரப்ப	-8288
▁இயல்பான	-8289
▁காஷ்மீர்	-8290
▁பிடித்து	-8291
▁இப்படத்தை	-8292
▁பக்தர்கள்	-8293
▁மெய்யியல்	-8294
▁இணைக்கப்பட்ட	-8295
▁Sh	-8296
▁சோம	-8297
▁ரகு	-8298
லியம்	-8299
▁கிரக	-8300
▁நீரோ	-8301
ப்பாடி	-8302
நிறுத்த	-8303
லாந்தில்	-8304
▁வழித்தட	-8305
▁வாழ்வில்	-8306
▁செல்வாக்க	-8307
ேவ	-8308
ஸ்து	-8309
▁பாப்	-8310
▁பிரச	-8311
ுறிச்சி	-8312
▁சிக்கல்	-8313
▁நடுத்தர	-8314
▁குறைபாடு	-8315
▁ஆஞ்சநேயர்	-8316
ack	-8317
ிகே	-8318
▁உபகர	-8319
▁மகாவ	-8320
ல்லூரி	-8321
▁டச்சு	-8322
▁பைரவர்	-8323
▁வருவாய	-8324
▁ஏற்றுமதி	-8325
▁ஏற்படலாம்	-8326
▁திருவனந்த	-8327
▁சுருக்கமாக	-8328
eb	-8329
னியல்	-8330
ிப்போ	-8331
▁தீபக	-8332
▁இப்பற	-8333
▁உயிரு	-8334
▁பொம்ம	-8335
மற்றும்	-8336
▁கற்பனை	-8337
▁ஹென்றி	-8338
ைகளாகும்	-8339
▁பரத	-8340
ானில்	-8341
▁1944	-8342
▁1951	-8343
▁நன்ம	-8344
▁இவனது	-8345
▁ஆதரவாள	-8346
▁இழந்து	-8347
▁கருத்தை	-8348
▁கூறுவர்	-8349
▁கூறுகின்றன	-8350
ரேய	-8351
▁Ar	-8352
▁இச்	-8353
▁தேட	-8354
▁ஹரி	-8355
▁நிச்ச	-8356
▁ஒல்லாந்த	-8357
▁தொடங்கின	-8358
▁ஏனென்றால்	-8359
▁வடிவங்கள்	-8360
▁தொழில்முறை	-8361
▁கூறியுள்ளார்	-8362
▁கண்டுபிடித்தார்	-8363
▁பாளைய	-8364
▁வாங்கி	-8365
▁கூடியது	-8366
▁மொழியாக	-8367
▁வயதுக்க	-8368
▁கைப்பற்றி	-8369
▁அச்சுறுத்த	-8370
▁நிறுவனங்களின்	-8371
-3	-8372
ons	-8373
▁எழ	-8374
ுடல்	-8375
▁கண்டி	-8376
▁லிட்ட	-8377
டுகின்ற	-8378
▁ஆன்மீக	-8379
▁எருசலே	-8380
▁பயின்ற	-8381
▁சிறுபான்	-8382
▁தாக்கத்தை	-8383
▁இடத்தையும்	-8384
▁திரைப்படத்	-8385
ore	-8386
ினரின்	-8387
▁ஈர்ப்பு	-8388
▁எவ்வளவு	-8389
▁அணுக்கள்	-8390
▁சந்திப்ப	-8391
▁மின்சாரம்	-8392
▁விதத்தில்	-8393
ப்பட்டாலும்	-8394
▁52	-8395
னான்	-8396
▁கோர்	-8397
ச்சில்	-8398
ண்டிக்	-8399
▁கோபால	-8400
ுக்கோட்டை	-8401
▁குற்றச்ச	-8402
ொகை	-8403
▁ஐசோ	-8404
▁காமா	-8405
▁பெண்ம	-8406
ர்ந்தது	-8407
▁சிறுகதைகள்	-8408
▁பாடியுள்ளார்	-8409
லைக	-8410
மகன்	-8411
ாமணி	-8412
ள்களை	-8413
▁எடைய	-8414
▁ராயல்	-8415
▁அறுவடை	-8416
▁வாயிலாக	-8417
▁பெற்றுக்	-8418
▁குறியீட்ட	-8419
▁படிப்பறிவு	-8420
("	-8421
மில	-8422
படம்	-8423
▁நெகி	-8424
▁அதிபர்	-8425
▁இன்றிய	-8426
▁அடக்கம்	-8427
▁தலைமுறை	-8428
▁தன்னாட்சி	-8429
்தி	-8430
▁22,	-8431
ology	-8432
▁முறைமை	-8433
▁தெளிவான	-8434
ிருப்பதாக	-8435
▁நிறுவனத்தால்	-8436
ரிசை	-8437
▁கத்த	-8438
▁செர்	-8439
ண்மைக்	-8440
ரேட்டு	-8441
▁அவதான	-8442
ப்புறம்	-8443
▁பொதுச்	-8444
லர்களால்	-8445
▁அத்தகைய	-8446
▁இடம்பெய	-8447
▁குடிமக்கள்	-8448
▁உயிரினங்கள்	-8449
▁தயாரிக்கும்	-8450
லின	-8451
ம்பிய	-8452
ல்லாத	-8453
ிப்பி	-8454
▁நகரை	-8455
▁கொன்று	-8456
▁பொதுநல	-8457
விட்டார்	-8458
▁ஆதிக்கம்	-8459
▁எனப்படுவது	-8460
▁செயல்திறன்	-8461
ேர	-8462
ார்ப	-8463
▁வீழ்	-8464
▁உறவின	-8465
▁நிராக	-8466
▁வழிநட	-8467
▁வைக்கப்பட்டது	-8468
சோன்	-8469
ானியா	-8470
▁அணுவ	-8471
▁மிகை	-8472
▁பதினை	-8473
▁பிரதிபல	-8474
▁வளர்ப்பு	-8475
த்ரி	-8476
▁மறைந்த	-8477
▁வினையூ	-8478
ுகின்றார்	-8479
▁மிகுதியாக	-8480
73	-8481
ாவால்	-8482
ியாக்க	-8483
▁கீழ்க	-8484
பாண்டிய	-8485
▁அப்படி	-8486
▁அழற்சி	-8487
▁கேள்வி	-8488
▁மகாராஷ்ட	-8489
▁கண்டுபிடி	-8490
▁தேர்தல்களில்	-8491
ஜின்	-8492
▁26,	-8493
▁லேச	-8494
▁பட்ச	-8495
▁தீபகற்ப	-8496
▁பிரம்மா	-8497
▁வெளிச்ச	-8498
▁கையெழுத்த	-8499
▁முக்கியப்	-8500
▁பார்க்கும்	-8501
▁கொல்லப்பட்ட	-8502
▁தனித்துவமான	-8503
▁வாடிக்கையாள	-8504
▁பாத்திரத்தில்	-8505
▁கொல்லப்பட்டனர்	-8506
ott	-8507
னவாக	-8508
▁கன்	-8509
ையோடு	-8510
▁சத்த	-8511
▁பந்தய	-8512
▁ராஜகோ	-8513
▁யோவான்	-8514
▁சூத்திர	-8515
▁திங்கள்	-8516
▁உபசன்னதியும்	-8517
▁தொடங்கப்பட்ட	-8518
uv	-8519
are	-8520
தலை	-8521
வள்	-8522
்கா	-8523
▁is	-8524
எஃப்	-8525
▁ரோம	-8526
லோகம்	-8527
▁படிம	-8528
▁லாஸ்	-8529
▁நடனம்	-8530
▁அரேபிய	-8531
▁ஆற்றில்	-8532
▁சிலிக்க	-8533
▁தற்கொலை	-8534
▁ஆரம்பித்த	-8535
▁எரிபொருள்	-8536
▁குறியீட்டு	-8537
▁நாட்களுக்கு	-8538
ump	-8539
மியர்	-8540
▁அயனி	-8541
▁ஸ்பெ	-8542
▁மகிழ்	-8543
▁வெறும்	-8544
ப்பேட்டை	-8545
▁கரும்பு	-8546
▁மாணிக்க	-8547
▁வரலாற்றை	-8548
▁கிராமங்கள்	-8549
ci	-8550
ுகா	-8551
க்கொ	-8552
▁org	-8553
▁சல்	-8554
▁நார	-8555
சனின்	-8556
மையாத	-8557
▁1935	-8558
▁சூடு	-8559
▁விசய	-8560
சிறந்த	-8561
▁தகுந்த	-8562
ட்ச்	-8563
▁ஐயர்	-8564
க்கோணம்	-8565
▁தாங்கள்	-8566
▁துணைக்க	-8567
▁பாதிப்பு	-8568
▁தொகுப்புக்	-8569
▁போட்டியிட்ட	-8570
▁பேசப்படுகிறது	-8571
ிவர	-8572
uram	-8573
▁படக	-8574
▁திறன	-8575
▁உகந்த	-8576
▁இருப்பு	-8577
▁பயின்று	-8578
ியுள்ளார்	-8579
▁தயாரித்து	-8580
▁பிரான்சின்	-8581
91	-8582
▁லு	-8583
ூர்த்தி	-8584
▁மலைகள்	-8585
▁பிற்கால	-8586
▁பூங்காவ	-8587
▁இந்நிறுவனம்	-8588
▁குடியிருப்ப	-8589
74	-8590
தியை	-8591
மைத்	-8592
ராமன்	-8593
ாடுகளை	-8594
▁மாண்ட	-8595
▁இரும்ப	-8596
▁இலத்திர	-8597
▁பொருந்த	-8598
▁தோராயமாக	-8599
▁பரிசோதனை	-8600
▁ஒன்றுக்கு	-8601
▁சிற்பங்கள்	-8602
alay	-8603
ress	-8604
▁டிக	-8605
▁தூது	-8606
▁ஒருவரான	-8607
▁புத்தர்	-8608
▁பங்கேற்க	-8609
▁படைப்புகள்	-8610
▁பத்திரிக்க	-8611
▁மாநாட்டில்	-8612
▁கருதப்படுகிறார்	-8613
▁23,	-8614
ல்களைக்	-8615
▁கார்ல்	-8616
▁பார்க்	-8617
▁எளிமையான	-8618
▁சொந்தமான	-8619
▁எலக்ட்ரான	-8620
▁ஈடுபட்டார்	-8621
▁ஆக்சிசனேற்ற	-8622
▁அதிகப்படியான	-8623
▁திரைப்படத்தை	-8624
▁நியூசிலாந்து	-8625
64	-8626
▁600	-8627
▁நின	-8628
▁1929	-8629
▁ஓட்டு	-8630
▁சமச்ச	-8631
▁மூடிய	-8632
மையுடன்	-8633
▁ஓவியம்	-8634
▁நிற்கும்	-8635
▁பள்ளத்தா	-8636
▁பிரபலமாக	-8637
▁வைத்துக்க	-8638
▁நிறுவனங்களில்	-8639
▁கென்	-8640
▁தொல்ப	-8641
▁நடைமுற	-8642
டுகிறார்கள்	-8643
ப்பெருக்கம்	-8644
▁கருதப்பட்டது	-8645
ைல்	-8646
▁ஈட்ட	-8647
▁எபிர	-8648
▁கூடி	-8649
நாராயண	-8650
ாந்திர	-8651
ையுடைய	-8652
▁நந்தி	-8653
▁மறுமல	-8654
▁உத்திய	-8655
▁மாநாடு	-8656
▁ஆரம்பித்தார்	-8657
டுவர்	-8658
▁டெல்	-8659
▁இயற்பெயர்	-8660
▁ஆகியோருடன்	-8661
கக்	-8662
வராய	-8663
▁ரவி	-8664
▁உந்த	-8665
▁இனத்த	-8666
▁கடிகார	-8667
▁கேட்டு	-8668
▁வாயில்	-8669
▁இடைவெளி	-8670
▁பத்திரிகை	-8671
az	-8672
▁21,	-8673
▁கரோ	-8674
▁போய	-8675
அள்ளி	-8676
▁தரும	-8677
▁வெண்பா	-8678
ப்பிற்கு	-8679
▁இரயில்வே	-8680
71	-8681
82	-8682
▁சாஸ்த	-8683
▁செந்த	-8684
▁திறனை	-8685
▁கிரிக்	-8686
▁கிறிஸ்ட	-8687
▁ஆபிரிக்க	-8688
▁ஆரம்பகால	-8689
▁மூள	-8690
▁சுழல்	-8691
மிருந்த	-8692
▁ஏதாவது	-8693
▁பாடகர்	-8694
▁இத்தாலி	-8695
▁எல்லைகளாக	-8696
▁விளங்கும்	-8697
▁விளையாடும்	-8698
▁செய்துள்ளார்	-8699
▁அடு	-8700
▁கூழ்	-8701
பதியாக	-8702
ுகளைச்	-8703
ம்பட்டு	-8704
▁ஊட்டச்ச	-8705
▁நிலைத்த	-8706
▁கொண்டும்	-8707
▁குடியேறிய	-8708
▁செயல்பாடுகள்	-8709
▁ஆடை	-8710
▁பிழ	-8711
ங்கரை	-8712
ம்பரில்	-8713
ாளராகவும்	-8714
▁புரிந்தார்	-8715
வய	-8716
ற்த	-8717
ூரு	-8718
▁ஓட	-8719
லான்	-8720
▁பழமை	-8721
▁பிரக	-8722
ர்த்தன	-8723
▁மதுரா	-8724
கர்த்தா	-8725
க்கியது	-8726
▁இந்துக்	-8727
▁மீன்கள்	-8728
▁ஈடுபட்டு	-8729
▁கர்தினால்	-8730
ப்பழ	-8731
வைக்	-8732
சுக்க	-8733
அதாவது	-8734
முத்து	-8735
▁மகனான	-8736
▁முதலீடு	-8737
▁நாயக்கர்	-8738
▁தொடர்பில்	-8739
▁கணிதத்தில்	-8740
▁நாடுகளுக்கு	-8741
5,	-8742
டிர	-8743
யான	-8744
▁43	-8745
▁குச	-8746
▁பது	-8747
வதும்	-8748
▁காரை	-8749
▁தற்ச	-8750
ங்கூர்	-8751
▁தளபதி	-8752
▁ஆதரிக்க	-8753
▁காலகட்ட	-8754
▁தமிழ்க்	-8755
▁வைக்கப்பட்ட	-8756
லாவ	-8757
▁11.	-8758
▁50%	-8759
வாசல்	-8760
விதமான	-8761
▁அற்புத	-8762
▁உயிரணு	-8763
ித்தியம்	-8764
▁பின்னால்	-8765
▁முக்கோணத்தின்	-8766
one	-8767
ராதி	-8768
▁யாத	-8769
ெதிர்	-8770
▁நேரு	-8771
▁மங்கள	-8772
▁இயற்கையாக	-8773
▁உற்பத்தியில்	-8774
▁இழு	-8775
▁அபிவ	-8776
▁பிளே	-8777
▁மரபண	-8778
▁மாணவ	-8779
▁எல்லோ	-8780
▁மரணம்	-8781
க்குரிய	-8782
▁நிலத்த	-8783
▁இம்மொழி	-8784
▁கணிசமான	-8785
▁புறக்கண	-8786
▁அவ்வப்போது	-8787
93	-8788
ran	-8789
றிந்த	-8790
▁1937	-8791
▁அறுப	-8792
▁பாக்	-8793
▁திறனா	-8794
▁உணவுப்	-8795
▁வெட்டி	-8796
ப்பினால்	-8797
▁புறநகர்	-8798
▁வயதுக்குட்பட்ட	-8799
ம்ப்	-8800
ருதி	-8801
▁உடு	-8802
▁மிள	-8803
▁டான்	-8804
▁மதுர	-8805
க்குக்	-8806
▁செயலக	-8807
▁மேலான	-8808
▁வரையறு	-8809
▁ஆண்களும்	-8810
▁செய்யப்பட்டன	-8811
▁தயாரிப்பாளர்	-8812
மினி	-8813
▁லோக	-8814
ெட்டு	-8815
▁நாவல்	-8816
ணத்தில்	-8817
ொருளின்	-8818
▁நகரும்	-8819
▁மொழியை	-8820
▁மறைந்து	-8821
ைகளுக்காக	-8822
▁வளாகத்தில்	-8823
ஜூ	-8824
▁வளம்	-8825
▁ஆலோசனை	-8826
▁பொருளாக	-8827
▁உலகளவில்	-8828
▁ஆட்டத்தில்	-8829
▁தோன்றினார்	-8830
ோட	-8831
சனம்	-8832
▁கிரீ	-8833
▁ஆறாவது	-8834
ப்பிரதேச	-8835
▁கூறியது	-8836
▁முற்பட்ட	-8837
▁இப்பிரிவு	-8838
St	-8839
சீர	-8840
ொன்	-8841
▁தீப	-8842
ுவேல்	-8843
▁கிண்ண	-8844
▁விரிக	-8845
▁சின்னம்	-8846
▁படிப்பு	-8847
▁கூட்டுறவு	-8848
▁செலுத்திய	-8849
▁மட்டத்தில்	-8850
▁போர்த்துக்கேய	-8851
----	-8852
வுள்ள	-8853
ையாறு	-8854
▁1953	-8855
நத்தம்	-8856
படியும்	-8857
▁பஞ்சாய	-8858
▁பொதுப்	-8859
ப்படுகிற	-8860
▁பிரேசில்	-8861
▁முதன்மையாக	-8862
▁அதிலிருந்து	-8863
▁இயங்குகிறது	-8864
▁எடுத்துக்கொள்ள	-8865
ஹீ	-8866
▁தார	-8867
சுந்த	-8868
▁எலிச	-8869
▁ஓரளவு	-8870
▁வயதான	-8871
▁உண்மைய	-8872
▁பதினான	-8873
▁அரியலூர்	-8874
▁அப்பொழுது	-8875
▁என்கிறார்	-8876
▁முறைகளில்	-8877
▁திரைப்படமான	-8878
84	-8879
பிள	-8880
த்துற	-8881
ர்தல்	-8882
ுகளான	-8883
▁நீரே	-8884
▁மணல்	-8885
▁அன்பு	-8886
ிவிட்டு	-8887
▁இவைகள்	-8888
▁தீவின்	-8889
▁வழங்கு	-8890
▁அடியில்	-8891
லாசிரியர்	-8892
▁ஏற்பட்டு	-8893
▁காட்சிகள்	-8894
▁நாட்காட்டியில்	-8895
நாயகி	-8896
வெள்ள	-8897
ாச்சி	-8898
குமார்	-8899
▁டாலர்	-8900
ிக்குத்	-8901
▁எரிமலை	-8902
▁படைகளை	-8903
▁இருந்தே	-8904
▁எகிப்திய	-8905
▁என்பதோடு	-8906
▁பத்தாண்ட	-8907
▁அமெரிக்கப்	-8908
▁இருந்தபோது	-8909
erv	-8910
▁எற	-8911
ப்பற்றி	-8912
▁சனிக்க	-8913
▁நாட்கள	-8914
▁முதலியன	-8915
▁மலையாளம்	-8916
▁மேல்நிலை	-8917
▁கட்சியில்	-8918
OH	-8919
▁24,	-8920
▁25,	-8921
ப்பாத	-8922
▁மாந்த	-8923
▁எதிர்வ	-8924
னியாவில்	-8925
▁சந்திக்க	-8926
▁தரவுத்தள	-8927
▁முடியாமல்	-8928
▁இணைக்கிறது	-8929
▁ஆண்டிலிருந்து	-8930
▁இருந்துள்ளார்	-8931
CC	-8932
ult	-8933
கால்	-8934
▁முசு	-8935
மானால்	-8936
விடும்	-8937
ப்புள்ள	-8938
▁அகாதமி	-8939
▁பெயரும்	-8940
▁காரணிகள்	-8941
கல	-8942
ம்சு	-8943
▁அநே	-8944
▁1942	-8945
▁இலைகள்	-8946
▁டைம்ஸ்	-8947
▁சுழற்சிய	-8948
ப்படுவதற்கு	-8949
ாளர்களுக்கு	-8950
யை	-8951
பேச	-8952
▁12.	-8953
▁எப்	-8954
▁கூர்	-8955
▁மில்	-8956
▁அளித்து	-8957
▁உணர்ச்ச	-8958
▁படுகொலை	-8959
▁இக்கோவில	-8960
▁சந்தித்த	-8961
▁சென்றனர்	-8962
▁விட்டார்	-8963
▁சந்திப்பு	-8964
▁மின்காந்த	-8965
▁செயல்பாட்ட	-8966
▁மொழிபெயர்க்க	-8967
▁அட்டை	-8968
▁கொண்டா	-8969
▁பேரில்	-8970
▁முத்திர	-8971
மைப்படுத்த	-8972
▁அடைந்தார்	-8973
▁நியமிக்கப்பட்ட	-8974
69	-8975
துமை	-8976
விக்	-8977
▁மோக	-8978
ர்ட்ட	-8979
▁அற்ற	-8980
▁ஆர்ம	-8981
▁காலி	-8982
▁ஃபார்	-8983
▁வள்ளி	-8984
▁நகராட்ச	-8985
▁வகித்தார்	-8986
▁வெளிவரும்	-8987
ana	-8988
றிகள்	-8989
▁ஜெய்	-8990
த்தளம்	-8991
▁உடற்ப	-8992
ள்களின்	-8993
▁இரகசிய	-8994
▁பரவலான	-8995
▁பிரான்ஸ்	-8996
▁தொடர்ச்சி	-8997
ood	-8998
டிகை	-8999
ேக்க	-9000
▁வரவ	-9001
மன்றி	-9002
ாண்டி	-9003
ாளரான	-9004
▁மெகா	-9005
விலேயே	-9006
▁ஆரம்பமான	-9007
▁கொல்கத்தா	-9008
▁நடக்கிறது	-9009
▁நிறுவனமான	-9010
▁இங்கிருந்து	-9011
▁பகுதிகளுக்கு	-9012
யன்ப	-9013
▁தூத	-9014
▁ஓரிட	-9015
▁அதுவே	-9016
மாகிறது	-9017
ர்களாலும்	-9018
▁வாக்குகள்	-9019
pt	-9020
தாய	-9021
ிலு	-9022
▁ஊழ	-9023
த்தூ	-9024
▁வசன	-9025
▁ஆன்ம	-9026
▁காளி	-9027
▁கோளா	-9028
▁நகர்வ	-9029
ப்புடன்	-9030
▁தலைவரான	-9031
▁பிறப்பிட	-9032
ுடு	-9033
சும்	-9034
மியா	-9035
ம்பூ	-9036
▁கும	-9037
▁சாமி	-9038
▁புரு	-9039
▁ஆய்வுக்	-9040
▁எகிப்து	-9041
▁பெயரிட்ட	-9042
ிப்பதற்காக	-9043
▁துறைமுகம்	-9044
▁கண்டுபிடிக்க	-9045
▁அழைக்கின்றனர்	-9046
▁சுட்டிக்காட்ட	-9047
!.	-9048
வா்	-9049
▁(,	-9050
ஸ்கி	-9051
துடன்	-9052
றையான	-9053
ுக்கண	-9054
▁அல்ப	-9055
ட்ரிக்	-9056
▁ஆழமான	-9057
▁வைட்ட	-9058
▁அகவையில்	-9059
▁முறையும்	-9060
▁தேர்ந்தெடுத்த	-9061
amil	-9062
கான்	-9063
ின்க	-9064
பவர்கள	-9065
▁அழகான	-9066
▁தப்பி	-9067
▁சொற்பொழ	-9068
▁முன்னோடி	-9069
▁மொத்தமாக	-9070
▁உண்டாகும்	-9071
▁எடுக்கும்	-9072
விஸ்	-9073
▁கடல	-9074
ப்பதும்	-9075
▁விரைவு	-9076
▁அல்லாமல்	-9077
▁திகழ்கிறது	-9078
▁குடும்பத்தின்	-9079
58	-9080
நம்ப	-9081
ருள்	-9082
▁28,	-9083
ிலில்	-9084
▁தனிய	-9085
▁நாயக	-9086
▁தேற்ற	-9087
்களுடன்	-9088
▁தாவரம்	-9089
▁மனிதர்	-9090
▁முன்மொழ	-9091
▁இடைக்கால	-9092
▁தெரியும்	-9093
▁மையமாகக்	-9094
ha	-9095
்கர்	-9096
▁கலவை	-9097
வர்மன்	-9098
▁வருமானம்	-9099
ர்களுக்கான	-9100
▁ஆண்டுக்கான	-9101
▁கண்டறியப்பட்டது	-9102
▁செழ	-9103
▁போட	-9104
▁நிர்	-9105
▁பிளவு	-9106
▁அணிகள்	-9107
▁பாலூட்ட	-9108
▁அணுகுமுற	-9109
▁சொல்லும்	-9110
▁அளிக்கிறது	-9111
▁குறிப்பிடும்	-9112
▁வளர்ச்சிக்கு	-9113
-10	-9114
▁140	-9115
▁போர	-9116
▁சீர்	-9117
ப்பதாக	-9118
புத்திர	-9119
▁தங்களை	-9120
▁முட்டை	-9121
▁வைகாசி	-9122
ிவிட்டது	-9123
▁சேவைகளை	-9124
▁தன்மையை	-9125
▁பகிர்ந்து	-9126
▁குழந்தைகளுக்கு	-9127
யும்	-9128
ிவிட	-9129
▁நெச	-9130
▁கருணா	-9131
▁கேம்ப	-9132
ிருத்தி	-9133
ுக்குரிய	-9134
▁வைக்கும்	-9135
▁சுவிட்சர்	-9136
▁கிராமப்புற	-9137
▁அதிகாரபூர்வ	-9138
▁நடவடிக்கைகளை	-9139
▁அறங்காவலர்களால்	-9140
iss	-9141
நான்	-9142
தாசன்	-9143
ியூர்	-9144
▁1938	-9145
▁உலகக்	-9146
▁போகும்	-9147
▁அவருடன்	-9148
▁என்பவன்	-9149
▁வடமேற்க	-9150
▁அமைச்சரவ	-9151
▁போர்த்துக	-9152
62	-9153
ஹெ	-9154
னாவ	-9155
▁கஜ	-9156
பள்ளி	-9157
▁மருத	-9158
▁பின்த	-9159
முடியாத	-9160
ாக்கும்	-9161
▁ஒப்பிடும்	-9162
▁செலுத்தும்	-9163
ஹி	-9164
பத்	-9165
ிவெ	-9166
ச்சர்	-9167
▁உடனே	-9168
த்தையே	-9169
ிகாரம்	-9170
▁மோகன்	-9171
▁செலவில்	-9172
▁மலையின்	-9173
த்திற்குள்	-9174
▁ஆண்களுக்கு	-9175
▁துவங்கியது	-9176
▁இக்காலத்தில்	-9177
oth	-9178
ப்பார்	-9179
ஸ்டின்	-9180
ாமலும்	-9181
▁ஈடுபட	-9182
▁தாமஸ்	-9183
மாக்கல்	-9184
▁உருவம்	-9185
ாடுகளில்	-9186
▁தினமும்	-9187
▁பொருளில்	-9188
▁கோட்பாட்ட	-9189
▁திரும்பினார்	-9190
ust	-9191
ரிமாண	-9192
லைவர்	-9193
ாரணம்	-9194
▁சுவை	-9195
▁பக்தி	-9196
▁தடுத்து	-9197
த்தின்படி	-9198
▁தங்களுடைய	-9199
▁மறைமாவட்ட	-9200
▁அறக்கட்டளை	-9201
yn	-9202
▁வேதா	-9203
வியில்	-9204
▁வசந்த	-9205
▁ஸ்டுட	-9206
▁நெட்வொ	-9207
▁அடித்தள	-9208
▁கூறுகள்	-9209
ிப்பதற்கு	-9210
▁இவ்வூரில்	-9211
▁சிதம்பரம்	-9212
▁விரிவுபடுத்த	-9213
▁27,	-9214
▁மசூ	-9215
ுகொண்டு	-9216
▁செய்யு	-9217
▁உலகப்போ	-9218
ப்பதில்லை	-9219
ம்பாக்கம்	-9220
▁பற்றாக்க	-9221
ுகளிலிருந்து	-9222
▁தொடங்குகிறது	-9223
▁ch	-9224
▁தாக	-9225
ளவும்	-9226
▁கரைய	-9227
லட்சுமி	-9228
▁நிகழ்க	-9229
▁கோவிந்த	-9230
▁கிருட்டிண	-9231
▁நிகழ்ந்தது	-9232
▁மேளகர்த்தா	-9233
ile	-9234
ிறை	-9235
கட்ட	-9236
பைல்	-9237
▁தில	-9238
▁அவைய	-9239
▁இசைத்	-9240
▁கம்பெ	-9241
▁கர்நாட	-9242
▁உலகக்கோ	-9243
▁நடத்துவ	-9244
▁பார்வதி	-9245
▁வேகத்தில்	-9246
▁பெறுகின்றன	-9247
▁j	-9248
ிமு	-9249
ந்தே	-9250
க்காடு	-9251
▁இறங்க	-9252
▁துரித	-9253
ைக்குத்	-9254
▁அச்சிட	-9255
▁இயங்கு	-9256
க்கப்பட்டன	-9257
▁திரைக்கதை	-9258
omm	-9259
www	-9260
ரோன்	-9261
ரோஸ்	-9262
ையாட	-9263
னியர்	-9264
▁சத்ய	-9265
▁இசுரே	-9266
▁சாக்க	-9267
▁சாதிய	-9268
▁பென்ச	-9269
▁பகுத்த	-9270
▁உண்ணும்	-9271
▁அரசுக்கு	-9272
▁இயற்கையான	-9273
▁துருக்கிய	-9274
▁சகோதரர்கள்	-9275
▁தொகுப்பில்	-9276
▁ஆப்பிரிக்கா	-9277
▁உள்நாட்டுப்	-9278
இற	-9279
ohn	-9280
▁கழி	-9281
மொன்ற	-9282
▁மேலோ	-9283
▁ரங்க	-9284
நிலைக்	-9285
ிருதம்	-9286
▁உபகரண	-9287
▁கடலோர	-9288
▁திறமை	-9289
▁போனது	-9290
ுகளாகப்	-9291
▁படத்தை	-9292
▁ஒளிப்பத	-9293
▁சபையின்	-9294
▁அதன்பின்	-9295
▁தனிமங்கள்	-9296
▁குழந்தைகளின்	-9297
▁முக்கியத்துவ	-9298
ொள	-9299
▁pro	-9300
▁ஏஞ்ச	-9301
▁தம்ம	-9302
▁கூற்ற	-9303
▁உண்டாக	-9304
▁தாண்டி	-9305
▁தாழ்த்த	-9306
▁மகாபாரத	-9307
நாதசுவாமி	-9308
ப்பாளையம்	-9309
▁சந்தித்து	-9310
▁தாய்லாந்து	-9311
▁பரப்பளவைக்	-9312
▁கிலோமீட்டர்கள்	-9313
9,	-9314
▁58	-9315
▁கோபால்	-9316
▁சுரப்ப	-9317
▁திரட்ட	-9318
த்தாலும்	-9319
▁பயன்பாட்டு	-9320
ைகளிலிருந்து	-9321
▁மேற்கொள்ளப்பட்ட	-9322
▁72	-9323
ழற்சி	-9324
▁பாரத	-9325
ாண்டம்	-9326
▁ஏழாம்	-9327
▁முகாம	-9328
▁மிதமான	-9329
நீதிமன்ற	-9330
த்துக்காக	-9331
▁வருடங்கள்	-9332
▁கூறப்படும்	-9333
▁மலேசியாவின்	-9334
IS	-9335
வாட	-9336
▁up	-9337
லிஸ்	-9338
ிகன்	-9339
▁சகா	-9340
▁பனை	-9341
▁பீர	-9342
▁வலு	-9343
சிங்க	-9344
▁தாமத	-9345
▁தேன்	-9346
பொழுது	-9347
▁குஞ்ச	-9348
▁ஆளுநர்	-9349
▁இணையாக	-9350
▁நீலகிரி	-9351
▁கல்வியறிவ	-9352
▁சமீபத்திய	-9353
▁முன்னேற்றம்	-9354
▁விளங்குகின்றது	-9355
வனாக	-9356
மிடம்	-9357
ாங்க்	-9358
ுக்கூ	-9359
▁நஞ்ச	-9360
▁பழம்	-9361
▁பணியை	-9362
மைகளில்	-9363
ிக்குச்	-9364
▁கருப்பை	-9365
▁சூழ்நிலை	-9366
▁இதழ்களில்	-9367
▁நிர்வாகத்	-9368
▁ஒவ்வொன்றும்	-9369
▁முயற்சியில்	-9370
▁அவத	-9371
சக்தி	-9372
ுறுப்ப	-9373
▁தயார்	-9374
▁ஹார்ட	-9375
▁வானியலாள	-9376
▁குறைவாகவே	-9377
▁நிகழ்கிறது	-9378
ox	-9379
மள	-9380
ரின	-9381
ாவு	-9382
▁நால	-9383
▁உணர்	-9384
▁போதி	-9385
▁காகித	-9386
▁நிரல்	-9387
ில்தான்	-9388
▁காந்திய	-9389
▁செய்தித்த	-9390
▁விளக்கும்	-9391
▁தொழிலாளர்கள்	-9392
▁பெயரிடப்பட்டது	-9393
app	-9394
▁ஏது	-9395
▁கேச	-9396
ction	-9397
ராமல்	-9398
▁கைலாச	-9399
▁பாரிய	-9400
▁அவைகள்	-9401
▁எவ்வித	-9402
▁காலமாக	-9403
▁ஜப்பான	-9404
▁பருவம்	-9405
▁வரையும்	-9406
▁இந்நூலில்	-9407
▁பதிப்பகம்	-9408
▁உருவாக்கப்படும்	-9409
ரவை	-9410
ையி	-9411
லியோ	-9412
பாண்ட	-9413
வுகளை	-9414
▁அல்க	-9415
▁காய்	-9416
▁நாளை	-9417
▁உயர்வ	-9418
▁தட்சி	-9419
▁பலவீன	-9420
மூர்த்த	-9421
▁ஈரப்பத	-9422
▁பேச்சுவ	-9423
▁முதல்வர்	-9424
ப்பதற்கும்	-9425
▁காரணமாகும்	-9426
▁தொலைக்காட்ச	-9427
ஜம்	-9428
வீக	-9429
பிட்	-9430
▁நாச	-9431
▁1900	-9432
▁துளை	-9433
ரீதியான	-9434
▁கண்டது	-9435
▁தம்பதிய	-9436
▁பஞ்சாபி	-9437
▁நிலக்கரி	-9438
▁ஸ்டுடியோ	-9439
ங்களாகவும்	-9440
த்தின்போது	-9441
▁ஆதாரங்கள்	-9442
▁எழுதப்பட்டது	-9443
்தோ	-9444
▁பரா	-9445
▁மலாய	-9446
▁மெக்	-9447
▁கம்போ	-9448
▁கோலால	-9449
ரீதியாக	-9450
▁அணிந்த	-9451
▁பரிணாம	-9452
▁இருப்பிட	-9453
▁ஏற்படுத்திய	-9454
▁பள்ளத்தாக்கு	-9455
▁தொல்காப்பியம்	-9456
▁இயக்கியுள்ளார்	-9457
52	-9458
துர	-9459
மெண்ட்	-9460
▁பேசுவ	-9461
ண்டுகள்	-9462
▁தனிநபர்	-9463
▁தாவரவியல்	-9464
▁ரிச்சர்ட்	-9465
▁நடத்தப்பட்டது	-9466
கள	-9467
ராஜர்	-9468
ருவின்	-9469
வுண்ட்	-9470
▁சமமாக	-9471
▁வாரிய	-9472
▁எபிரேய	-9473
▁கட்டளை	-9474
▁சகோதரி	-9475
▁இம்முறை	-9476
▁அதற்குப்	-9477
ணாமூர்த்தி	-9478
▁பகுதிகளைக்	-9479
ost	-9480
இரு	-9481
▁ஷோ	-9482
வெல்	-9483
்சன்	-9484
ளிப்பு	-9485
▁படும்	-9486
▁இறுக்க	-9487
▁வினைபு	-9488
▁சிறுவர்	-9489
▁நீதிபதி	-9490
▁உள்ளதால்	-9491
▁செலுத்தி	-9492
▁நடைபெற்று	-9493
▁பிரீமியர்	-9494
▁மேம்பாட்டு	-9495
▁செய்கின்றனர்	-9496
ப்படுகிறார்கள்	-9497
cl	-9498
ப்ரா	-9499
▁இமா	-9500
▁உன்ன	-9501
▁நானோ	-9502
▁பாணி	-9503
ுவார்கள்	-9504
▁சதவிகித	-9505
▁நிபந்தன	-9506
▁ஓட்டங்களை	-9507
▁அமைப்பாகும்	-9508
▁யாக	-9509
த்தேன்	-9510
▁காஞ்ச	-9511
▁தண்டு	-9512
வாக்கம்	-9513
iversity	-9514
▁நிலைகள்	-9515
▁கோவிலின்	-9516
▁புத்தகங்கள்	-9517
▁குறிப்பிட்டார்	-9518
arl	-9519
▁63	-9520
▁கம	-9521
திக்	-9522
பாடி	-9523
▁30,	-9524
▁சியா	-9525
▁பேது	-9526
▁மியூ	-9527
▁வாசி	-9528
ைக்காக	-9529
▁என்னவெ	-9530
▁கரையோர	-9531
▁பெருநகர	-9532
▁அரக்கோணம்	-9533
▁முதுகெலும்	-9534
▁ஆகியோருக்கு	-9535
▁செயல்பாடுகள	-9536
புல்	-9537
வதன்	-9538
▁பாலி	-9539
▁அதைப்	-9540
▁சில்ல	-9541
▁கணக்கு	-9542
▁ஆற்காடு	-9543
▁பதக்கம்	-9544
▁மைல்கள்	-9545
▁திருமால்	-9546
▁பெருங்கோ	-9547
▁சித்தாந்த	-9548
▁விரும்பிய	-9549
▁வாழ்கின்றன	-9550
▁வடிவங்களில்	-9551
▁கருத்துக்கள்	-9552
ேயு	-9553
▁உதய	-9554
▁சேர்வ	-9555
▁தொற்ற	-9556
▁மாங்க	-9557
ப்பினர்	-9558
▁கம்பெனி	-9559
▁வருகின்ற	-9560
▁செலுத்துவ	-9561
▁தோன்றுகிறது	-9562
▁அமைந்திருந்தது	-9563
rap	-9564
ணியை	-9565
▁மன்	-9566
▁உணவை	-9567
▁புதை	-9568
ாததால்	-9569
▁நாடாக	-9570
▁யாரும்	-9571
▁செல்சியசு	-9572
▁சமூகத்தில்	-9573
▁இனப்பெருக்கம்	-9574
▁கைப்பற்றினார்	-9575
""	-9576
ங்ட	-9577
ுதவி	-9578
▁29,	-9579
▁சீத	-9580
▁புழ	-9581
▁அளக்க	-9582
▁விவேக	-9583
▁எலிசபெ	-9584
லுக்குப்	-9585
▁அதன்படி	-9586
▁அடங்குவர்	-9587
▁கலைஞர்கள்	-9588
▁மதிப்பீட்டின்	-9589
ிக்கப்படுகின்றன	-9590
oll	-9591
ைகோ	-9592
▁பெர	-9593
▁மீற	-9594
வித்த	-9595
▁1943	-9596
▁சால்	-9597
ண்டாம்	-9598
போர்டு	-9599
ர்தான்	-9600
▁இலகுவ	-9601
▁வன்முறை	-9602
ப்போக்கில்	-9603
▁சக்கரத்தின்	-9604
▁நாடாளுமன்றம்	-9605
▁தேவைப்படுகிறது	-9606
▁பயன்படுத்துவது	-9607
ிமலை	-9608
தாக்க	-9609
▁இலட்ச	-9610
▁துவார	-9611
ப்பாடல்	-9612
ிற்குத்	-9613
▁சாகுபடி	-9614
▁ஒருவரின்	-9615
▁கால்வாய்	-9616
▁மகேந்திர	-9617
▁பாக்டீரிய	-9618
▁இடம்பெறும்	-9619
▁பணிபுரிந்த	-9620
▁மெக்சிக்கோ	-9621
▁இடம்பெற்றது	-9622
))	-9623
83	-9624
மஸ்	-9625
ம்மை	-9626
்தல்	-9627
ழ்வார்	-9628
▁நியாய	-9629
▁வேண்டுகோ	-9630
▁ஆகியோரால்	-9631
▁மென்பொருள	-9632
▁விருதுநகர்	-9633
▁En	-9634
▁US	-9635
ழாய்	-9636
▁ஆகம	-9637
▁1941	-9638
▁படகு	-9639
▁அடிமை	-9640
▁உயர்த	-9641
▁சொக்க	-9642
▁ஆதரவாக	-9643
▁ஏற்படுவத	-9644
▁நடத்தும்	-9645
▁கொள்கைகள்	-9646
ச்சொ	-9647
ஜித்	-9648
ாச்ச	-9649
ுதலை	-9650
ொப்ப	-9651
▁நிறைவ	-9652
▁நேர்க	-9653
▁பிரகட	-9654
லாசிரிய	-9655
▁இதழின்	-9656
▁நடுக்க	-9657
▁பணிகளை	-9658
▁மீதும்	-9659
▁வெண்கல	-9660
▁இலண்டன்	-9661
▁பிளாட்ட	-9662
ர்களிலும்	-9663
▁இந்நகரத்தின்	-9664
▁என்னுமிடத்தில்	-9665
த்ச	-9666
மாகவோ	-9667
லியல்	-9668
▁1934	-9669
▁யின்	-9670
▁அரக்க	-9671
▁இதனைத்	-9672
▁ஹார்ட்	-9673
▁மனிதனின்	-9674
▁பாடல்களில்	-9675
▁மீட்டர்கள்	-9676
▁மும்பையில்	-9677
▁வெற்றிகரமான	-9678
ரூர்	-9679
ணிகள்	-9680
ிப்பீ	-9681
ுவந்த	-9682
▁தம்பி	-9683
▁ஸ்டார்	-9684
▁நடிப்பு	-9685
▁கிருஷ்ணா	-9686
▁வயதிலேயே	-9687
▁தயாரிப்பாள	-9688
▁பெருங்கடல்	-9689
ue	-9690
நொ	-9691
லாக்	-9692
▁இவா்	-9693
லர்கள்	-9694
▁இன்றி	-9695
க்கோட்ட	-9696
▁தெளிவு	-9697
▁முழுதும்	-9698
▁படைப்பிரிவ	-9699
▁கிடைக்கவில்லை	-9700
▁சேர்ந்தவர்கள்	-9701
▁மொழிபெயர்ப்பு	-9702
▁As	-9703
▁1919	-9704
▁ஆட்டோ	-9705
ுக்கொள்	-9706
▁கர்ப்ப	-9707
▁இராணுவம்	-9708
▁காற்பந்து	-9709
▁சட்டங்கள்	-9710
▁இன்றியமையாத	-9711
udi	-9712
்கி	-9713
▁ஹு	-9714
க்கூற	-9715
▁ஹால்	-9716
யிற்சி	-9717
▁கனடிய	-9718
ிக்குள்	-9719
▁சொல்லி	-9720
▁எண்ணற்ற	-9721
▁சிலப்பத	-9722
ப்பெற்றது	-9723
▁தொகுத்து	-9724
▁இயந்திரம்	-9725
▁பங்களிப்பு	-9726
▁விளக்குகிறது	-9727
டத்த	-9728
▁வலய	-9729
ளையம்	-9730
வாதம்	-9731
▁ஆவிய	-9732
▁வீதி	-9733
▁நெல்ல	-9734
▁ஊர்கள்	-9735
▁விசாரண	-9736
▁குஜராத்	-9737
▁விண்வெள	-9738
▁கேரளத்தின்	-9739
▁தொழிற்சாலை	-9740
▁சிவராத்திரி	-9741
▁அமைந்திருந்த	-9742
▁ஆகியவற்றுடன்	-9743
லசு	-9744
கிள்	-9745
வுஸ்	-9746
்டிக்	-9747
▁நுண்	-9748
▁உரோமை	-9749
▁ஆல்பம்	-9750
▁மழைக்க	-9751
▁தீர்ப்ப	-9752
▁துவங்கிய	-9753
ிரோ	-9754
நைட்	-9755
றிதல்	-9756
றியது	-9757
லகில்	-9758
▁இடர்	-9759
▁கற்று	-9760
▁வெகுவ	-9761
ப்பதற்க	-9762
▁இயக்கி	-9763
▁எண்ணெய	-9764
▁அறியலாம்	-9765
திலிருந்து	-9766
▁இருக்கும்போது	-9767
▁பிரிக்கப்பட்ட	-9768
▁மூத	-9769
▁துரோ	-9770
▁துத்த	-9771
▁தந்திர	-9772
ைகின்றது	-9773
▁படித்து	-9774
▁இந்நிகழ்	-9775
▁திருப்பு	-9776
▁வேளைகளில்	-9777
▁கருதப்படுகின்றன	-9778
_1	-9779
வேற	-9780
▁எஃ	-9781
ுதிய	-9782
ுவல்	-9783
▁மலே	-9784
▁லக்	-9785
▁கலாச்ச	-9786
▁காற்றில்	-9787
▁அம்சங்கள்	-9788
▁பெங்களூர்	-9789
▁மைக்ரோசாப்ட்	-9790
ுரு	-9791
டெட்	-9792
ைகளான	-9793
▁அவளை	-9794
▁உருது	-9795
▁சிட்ட	-9796
▁ஜம்மு	-9797
▁நூலாக	-9798
▁எனக்கு	-9799
▁தாங்கி	-9800
▁எக்ஸ்பிர	-9801
▁மாபெரும்	-9802
▁இராகத்தில்	-9803
▁பயன்படுத்திக்	-9804
61	-9805
ரத்	-9806
ந்தீ	-9807
▁ஆண்க	-9808
▁காலா	-9809
▁சந்ந	-9810
ச்சொல்	-9811
▁திமுக	-9812
னீசியம்	-9813
▁கூறுவது	-9814
▁யூனியன்	-9815
▁வான்காண	-9816
▁அரசர்கள்	-9817
▁விக்டோரியா	-9818
▁நெதர்லாந்து	-9819
▁முழுவதிலும்	-9820
அக	-9821
டித்	-9822
ாரன்	-9823
▁அசு	-9824
ாவற்ற	-9825
▁பம்ப	-9826
▁புரிய	-9827
▁எண்ணிம	-9828
ட்சியின்	-9829
▁பெரியார்	-9830
5)	-9831
ங்கல	-9832
ட்சை	-9833
பெர்	-9834
ொத்த	-9835
▁புண	-9836
ப்புர	-9837
ின்ஸ்	-9838
▁இழக்க	-9839
▁மறைமுக	-9840
▁அதனுடைய	-9841
▁முழுமைய	-9842
ர்களிடையே	-9843
▁முனையில்	-9844
▁வினையில்	-9845
▁அருகாமையில்	-9846
▁கம்யூனிஸ்ட்	-9847
▁வினைபுரிந்து	-9848
▁மட்டுமல்லாமல்	-9849
ீய	-9850
நியூ	-9851
ப்பணி	-9852
▁செங்கி	-9853
▁இங்குக்	-9854
ப்படுவதாக	-9855
▁அளித்தது	-9856
▁சிறிதளவு	-9857
▁தேர்ச்சி	-9858
▁வெப்பநில	-9859
▁வழிவகுத்தது	-9860
▁அறியப்பட்டது	-9861
▁படப்பிடிப்பு	-9862
oy	-9863
▁al	-9864
வதம்	-9865
▁எர்	-9866
▁மேன	-9867
ப்ரமண	-9868
▁சினி	-9869
▁கணிதம்	-9870
▁முல்லை	-9871
▁சிறுநீரக	-9872
▁அதிகரித்து	-9873
▁பயன்பாடுகள	-9874
53	-9875
ld	-9876
வாரி	-9877
▁கோள்	-9878
▁உருளை	-9879
▁பிரிய	-9880
▁இலட்சம்	-9881
▁சிறுகதை	-9882
▁விடுத்த	-9883
▁விளிம்ப	-9884
▁தந்தையார்	-9885
▁விலங்குகளின்	-9886
▁ற	-9887
ண்ணி	-9888
▁சக்	-9889
ின்ட்	-9890
▁களின்	-9891
க்குகள்	-9892
ட்டிகள்	-9893
▁கிரீன்	-9894
▁மீன்பி	-9895
▁விதிகள்	-9896
கப்படுத்த	-9897
வையாகவும்	-9898
▁விளைவுகளை	-9899
▁சிக்கல்கள்	-9900
ெக்	-9901
முன்	-9902
▁வாட	-9903
▁நால்	-9904
▁இடைநிலை	-9905
▁காட்டிய	-9906
▁விளக்கு	-9907
▁அமிலங்கள்	-9908
▁இருக்காது	-9909
▁இந்நிலையில்	-9910
▁இப்படத்தின்	-9911
63	-9912
லிதா	-9913
ாவல்	-9914
▁எலி	-9915
▁தருவ	-9916
▁வேல்	-9917
▁வானொல	-9918
்குமார்	-9919
▁கருவறை	-9920
▁கருதுகோ	-9921
▁பத்தாம்	-9922
▁தத்துவம்	-9923
enn	-9924
anth	-9925
▁130	-9926
ியாது	-9927
ோரின்	-9928
▁ஒளிய	-9929
▁டாம்	-9930
▁நூற்ப	-9931
இந்தியா	-9932
▁இறக்கு	-9933
▁புறநான	-9934
▁பூக்கள்	-9935
▁மூன்றில்	-9936
▁இணைந்தார்	-9937
▁இதுவாகும்	-9938
▁சமஸ்கிருத	-9939
▁செய்யவும்	-9940
▁நாடகங்கள்	-9941
▁ஜெர்மானியப்	-9942
▁நடத்தப்படும்	-9943
AS	-9944
ர்மு	-9945
வண்ண	-9946
▁கூடு	-9947
▁சிதற	-9948
▁பேசிய	-9949
▁அலைகள்	-9950
▁இழப்பு	-9951
▁வேறொரு	-9952
ையடுத்து	-9953
▁சங்கிலி	-9954
▁பொங்கல்	-9955
▁குடும்பங்கள்	-9956
▁இலக்கியத்தில்	-9957
▁காலப்போக்கில்	-9958
▁நூற்றாண்டுகளில்	-9959
ஸா	-9960
மிக்	-9961
▁மேக	-9962
தனால்	-9963
▁ஆர்த	-9964
▁ஹெர்	-9965
▁இழப்ப	-9966
▁மீட்க	-9967
▁ஒருவரை	-9968
▁தெரியவ	-9969
▁குறுந்த	-9970
▁தீவிரமாக	-9971
▁பூக்கும்	-9972
▁ஆரம்பித்து	-9973
▁குடியரசின்	-9974
ப்பகுதிகளில்	-9975
▁தொடர்ந்தார்	-9976
▁மேற்பரப்பில்	-9977
▁நடைபெறுகின்றன	-9978
ாலே	-9979
▁3-	-9980
▁53	-9981
மாயண	-9982
▁அத்	-9983
▁பலக	-9984
க்கரை	-9985
செல்ல	-9986
▁மால்	-9987
▁சற்றே	-9988
▁பொள்ள	-9989
▁இச்செய	-9990
▁திருகோண	-9991
▁வழக்கறிஞ	-9992
▁பூச்சிகள்	-9993
▁ஐதராக்சைடு	-9994
▁நிமிடங்கள்	-9995
▁கொண்டதாகும்	-9996
▁ஜெர்மனியின்	-9997
▁வருடங்களுக்கு	-9998
▁1931	-9999
▁காண்ட	-10000
▁குறைய	-10001
ாக்களில்	-10002
▁இளங்கலை	-10003
▁பூச்சிய	-10004
▁விரிவுர	-10005
▁இருபதாம்	-10006
▁பூமியில்	-10007
▁ஆசியாவில்	-10008
▁அட்லாண்டிக்	-10009
▁பெரும்பான்மை	-10010
▁பயன்படுத்தினர்	-10011
ech	-10012
son	-10013
ாதா	-10014
வோம்	-10015
▁உக்	-10016
▁நறு	-10017
ந்துறை	-10018
ாசிரிய	-10019
▁முஸ்லீ	-10020
▁முந்திய	-10021
▁இருத்தல்	-10022
▁பின்பற்றி	-10023
▁அரசாங்கத்தின்	-10024
ாரோ	-10025
▁அரா	-10026
ாவைக்	-10027
▁ஹாரி	-10028
டியும்	-10029
மாற்று	-10030
ிட்டல்	-10031
▁கொம்ப	-10032
▁பதினே	-10033
▁பாடலை	-10034
▁முகம்	-10035
▁தினசரி	-10036
▁வைகுண்ட	-10037
டுகளுக்கு	-10038
ப்பட்டால்	-10039
▁அறிவுறுத்த	-10040
▁குறித்தும்	-10041
▁பகுதிகளும்	-10042
59	-10043
▁கோவா	-10044
▁தியோ	-10045
க்கோடு	-10046
▁நன்மை	-10047
ொன்றில்	-10048
க்கத்தில்	-10049
▁தேவையில்	-10050
▁புத்தகத்தில்	-10051
▁போராட்டத்தில்	-10052
▁களிம	-10053
ிருவிழா	-10054
▁தோல்வி	-10055
▁முதுகு	-10056
▁உறுதியான	-10057
▁நீண்டகால	-10058
▁விரும்பி	-10059
▁இயக்கத்தை	-10060
▁முதலியார்	-10061
▁மட்டுமன்றி	-10062
▁கூட்டத்தில்	-10063
▁மேற்கிந்திய	-10064
▁கருத்துக்களை	-10065
ஞ்சா	-10066
▁350	-10067
னியாக	-10068
▁யுனெ	-10069
ுறிப்ப	-10070
▁அசாம்	-10071
▁திடீர	-10072
▁தரையிற	-10073
▁மேலதிக	-10074
▁தெற்காசிய	-10075
▁இடங்களுக்கு	-10076
▁கடற்கரையில்	-10077
▁கிராமத்தின்	-10078
▁ஒப்பிடுகையில்	-10079
▁சொல்லப்படுகிறது	-10080
ிவை	-10081
ியற்	-10082
▁கரீ	-10083
▁வரைக	-10084
▁இப்பூ	-10085
▁பேரவை	-10086
Br	-10087
ook	-10088
ight	-10089
சிதை	-10090
சைன்	-10091
ுறிய	-10092
▁சேன	-10093
▁வாண	-10094
்ச்சி	-10095
▁பேரின	-10096
வுகளில்	-10097
▁தொலைவு	-10098
▁நார்வே	-10099
முழுக்கு	-10100
வதாகவும்	-10101
ுக்கொள்க	-10102
▁கால்நடை	-10103
ாவுக்கும்	-10104
ெடுக்கும்	-10105
▁உட்கொள்ள	-10106
▁வழிகளில்	-10107
▁திபெத்திய	-10108
▁ஆகியவையும்	-10109
▁கண்காணிப்ப	-10110
ிருக்கின்றனர்	-10111
▁170	-10112
▁ஓரா	-10113
▁ஜான	-10114
▁தலைக	-10115
▁ரத்த	-10116
▁அவளது	-10117
▁தரையில்	-10118
▁நீளமும்	-10119
▁பிரிவின	-10120
▁தொழிலில்	-10121
▁பிரிவின்	-10122
▁அமெரிக்கக்	-10123
▁வகிக்கிறது	-10124
▁இலக்கியங்கள்	-10125
▁கண்டறிந்தார்	-10126
▁பயன்படுகின்றது	-10127
yst	-10128
வாயு	-10129
▁Pro	-10130
▁டிஜ	-10131
▁நிச்சய	-10132
▁வங்கிய	-10133
▁பரவியது	-10134
▁இன்னமும்	-10135
▁இசைத்தொகு	-10136
▁ஈடுபடுத்த	-10137
▁பதவியேற்ற	-10138
81	-10139
சங்க	-10140
மோன்	-10141
▁அரசை	-10142
▁வகைய	-10143
▁ஓடும்	-10144
▁தற்கா	-10145
▁சங்கர்	-10146
▁வல்லுந	-10147
▁நாடுகளை	-10148
▁மட்டுமின்றி	-10149
▁ஒழுங்குபடுத்த	-10150
▁நீதிமன்றத்தில்	-10151
▁பயன்படுத்தினார்	-10152
ெஸ்	-10153
டியை	-10154
லித்	-10155
ச்செய	-10156
▁அதிவ	-10157
▁எரிய	-10158
▁ஆண்ட்	-10159
▁தலைவி	-10160
டைகிறது	-10161
▁தரவரிச	-10162
ப்பெறும்	-10163
▁கால்வாய	-10164
▁ரயில்வே	-10165
▁கட்சியைச்	-10166
ஷ்வ	-10167
▁Cl	-10168
ரஜன்	-10169
ரணம்	-10170
▁சோச	-10171
றைகள்	-10172
ிஸ்தான்	-10173
ுவதாகும்	-10174
▁அணிந்து	-10175
▁அளவுகள்	-10176
▁மராத்திய	-10177
▁விக்கிப்பீ	-10178
▁பணியாற்றியவர்	-10179
வாண	-10180
▁ஜொ	-10181
▁துய	-10182
▁ஊர்த	-10183
▁உருவாவ	-10184
▁சான்று	-10185
▁தக்கவை	-10186
ையின்படி	-10187
▁பின்னரே	-10188
▁பூர்த்தி	-10189
▁போன்றோர்	-10190
▁ஏற்படுத்தி	-10191
▁ஆகியவற்றைப்	-10192
வையே	-10193
ட்சன்	-10194
த்தாக	-10195
ரங்கு	-10196
ர்களே	-10197
▁1928	-10198
▁உரோம	-10199
▁பயில	-10200
▁அருவி	-10201
▁தரமான	-10202
▁தொழிற	-10203
▁நீர்வ	-10204
▁போர்ட்	-10205
▁திட்டமி	-10206
▁மகாத்மா	-10207
▁பெண்ணின்	-10208
த்திற்குச்	-10209
▁தீவுகளில்	-10210
▁தங்களுக்கு	-10211
▁மருத்துவப்	-10212
▁டெக்	-10213
ரிட்டு	-10214
மடைந்து	-10215
▁இடப்பெய	-10216
▁இதன்படி	-10217
▁நீக்கம்	-10218
▁மேற்கோள்	-10219
▁அவர்களில்	-10220
▁மேற்பரப்பு	-10221
▁பேராசிரியராக	-10222
ric	-10223
கரு	-10224
▁2-	-10225
ராவ்	-10226
வாசி	-10227
▁அனி	-10228
ேயின்	-10229
▁1926	-10230
▁இளைஞர்	-10231
▁துணைத்	-10232
▁மறுசீர	-10233
மெத்தில்	-10234
▁நாகர்கோ	-10235
▁புதினம்	-10236
▁இறக்கும்	-10237
▁நச்சுத்த	-10238
▁சிங்கப்பூ	-10239
▁பொதுநலவாய	-10240
▁வியட்நாம்	-10241
▁பேரூராட்சி	-10242
▁மாணவர்களுக்கு	-10243
டிப்	-10244
▁சமகால	-10245
▁ஆழ்ந்த	-10246
▁பூச்சி	-10247
▁தனித்து	-10248
▁நாட்டைச்	-10249
ரிடமிருந்து	-10250
▁தொழில்துறை	-10251
▁வெற்றிபெற்ற	-10252
IV	-10253
கலை	-10254
ஹர்	-10255
▁Jump	-10256
ந்துக்	-10257
படியாக	-10258
▁பிக்ச	-10259
▁செறிவு	-10260
▁தாக்கி	-10261
▁துணைக்	-10262
▁எங்கும்	-10263
▁கண்டார்	-10264
▁உருவாகிய	-10265
▁மாநிலங்கள்	-10266
▁மூலக்கூறுகள்	-10267
சுத	-10268
ப்பைக்	-10269
ையிட்ட	-10270
▁ஊரின்	-10271
▁கதையை	-10272
▁சாந்த	-10273
▁சுவர்	-10274
▁அலுவல்	-10275
▁இதனைப்	-10276
▁கல்யாண	-10277
▁திருவி	-10278
▁நகரமாக	-10279
டிக்கும்	-10280
▁குடிபெய	-10281
▁கொள்வது	-10282
▁மதிப்பெ	-10283
▁காடுகளில்	-10284
▁சார்ந்தது	-10285
▁ஆண்டுகளின்	-10286
▁அனைவருக்கும்	-10287
ft	-10288
ung	-10289
கத்	-10290
பகுத	-10291
▁சரவ	-10292
▁சேம	-10293
▁டிஸ்	-10294
▁எக்சு	-10295
▁நட்பு	-10296
▁வரிகள்	-10297
▁மாத்திர	-10298
▁வாங்கிய	-10299
▁சமன்பாடு	-10300
▁கண்டறிந்த	-10301
▁நண்பர்கள்	-10302
▁ஆகியவற்றால்	-10303
100	-10304
▁54	-10305
▁ஷே	-10306
▁நூல	-10307
மைந்த	-10308
ுவரும்	-10309
▁முதுகலை	-10310
▁அப்படியே	-10311
▁செல்கின்றன	-10312
▁துல்லியமாக	-10313
▁துல்லியமான	-10314
▁எழுத்தாளரும்	-10315
▁மொழிபெயர்த்த	-10316
▁தொலைக்காட்சித்	-10317
ீச	-10318
ara	-10319
வாதி	-10320
ப்போல	-10321
▁பாலா	-10322
▁1927-	-10323
▁கேரளா	-10324
▁வழிவக	-10325
ாளர்களை	-10326
ர்க்கில்	-10327
ிக்கப்பட	-10328
▁சூரியக்	-10329
▁சேமிப்பு	-10330
▁மாற்றும்	-10331
▁அனைத்துப்	-10332
▁காரணங்கள்	-10333
▁படிக்கும்	-10334
▁காலத்திலேயே	-10335
▁கூறப்பட்டுள்ளது	-10336
rid	-10337
மறை	-10338
▁(3	-10339
▁1932	-10340
▁மேக்	-10341
ுதலில்	-10342
▁இம்மா	-10343
▁மின்கல	-10344
படுகிறது	-10345
▁அணுக்கள	-10346
▁பயிற்றுவ	-10347
▁எனப்படுகின்றன	-10348
▁உருவாக்குகின்றன	-10349
ண்டே	-10350
பாணி	-10351
ரியான	-10352
▁திமி	-10353
▁யில்	-10354
▁தாமிர	-10355
பார்த்த	-10356
▁வாழ்வு	-10357
▁எப்போது	-10358
▁முழுக்க	-10359
▁அலுவலரால்	-10360
▁பெறவில்லை	-10361
▁இந்துக்கள்	-10362
▁பகுதியிலும்	-10363
54	-10364
உலக	-10365
புல	-10366
alam	-10367
▁காட	-10368
▁கிரி	-10369
▁நாய்	-10370
▁மூலதன	-10371
▁நீராவி	-10372
▁பாக்கி	-10373
▁அருச்சு	-10374
▁பழங்கள்	-10375
▁எதிர்மறை	-10376
▁என்பதைப்	-10377
▁நற்செய்தி	-10378
▁மாநிலங்கள	-10379
▁அதிகமாகும்	-10380
▁இயற்கையில்	-10381
▁பள்ளிகளில்	-10382
▁கல்வெட்டுகள்	-10383
ase	-10384
பஸ்	-10385
தண்ட	-10386
பெல்	-10387
மானி	-10388
▁தடி	-10389
றுக்க	-10390
▁மாடு	-10391
்களைப்	-10392
▁உடற்க	-10393
ச்செல்ல	-10394
▁பிரகாச	-10395
ப்பாட்டு	-10396
▁முறைகளை	-10397
▁தவிர்த்த	-10398
ஸன்	-10399
▁தலம்	-10400
▁பர்ம	-10401
▁ஆலோசன	-10402
▁ஒன்றே	-10403
▁மாளிக	-10404
▁அருந்த	-10405
▁பரிமாற	-10406
▁மனதில்	-10407
▁ரெட்டி	-10408
▁ரீதியில்	-10409
▁தெரிவிக்க	-10410
▁நுகர்வோர்	-10411
▁மென்மையான	-10412
▁சாம்பியன்ஷ	-10413
Am	-10414
ail	-10415
iam	-10416
omp	-10417
குல	-10418
▁1910	-10419
▁பிக்	-10420
ஸ்வரன்	-10421
ிவப்பு	-10422
▁2011-	-10423
▁அண்மை	-10424
▁டவுன்	-10425
ிற்குள்	-10426
▁அடிகள்	-10427
▁குடியு	-10428
▁முசுலி	-10429
▁எட்டாம்	-10430
▁கன்னடம்	-10431
▁நடுநிலை	-10432
▁நீதிக்க	-10433
▁வருமாறு	-10434
▁தனித்தனி	-10435
▁திருச்செ	-10436
▁நிறுத்தி	-10437
▁கொண்டாட்ட	-10438
▁நகர்ப்புற	-10439
▁ராஜஸ்தான்	-10440
▁அமைப்புகளில்	-10441
சுட	-10442
ேவி	-10443
▁ப்ள	-10444
ங்கான	-10445
லாமல்	-10446
னையில்	-10447
▁நடுவே	-10448
▁சண்டிக	-10449
▁பலமுறை	-10450
▁வித்திய	-10451
▁சப்பானிய	-10452
▁41	-10453
இதழ்	-10454
▁புய	-10455
▁லின	-10456
சியன்	-10457
▁உடலை	-10458
▁இறைவி	-10459
istrict	-10460
▁ஆற்றிய	-10461
▁இதனைக்	-10462
▁பாம்பு	-10463
▁ஆட்சியை	-10464
▁இரத்தின	-10465
▁பங்கேற்ப	-10466
▁வைட்டமின்	-10467
ப்படும்போது	-10468
▁காப்புரிமை	-10469
▁மண்டலத்தின்	-10470
▁அதிகரிக்கிறது	-10471
ee	-10472
ுவதே	-10473
▁அணிக	-10474
▁உலகத்	-10475
▁கணவர்	-10476
▁குப்த	-10477
▁சீரான	-10478
▁சுழற்ச	-10479
▁போக்கு	-10480
▁டபிள்யூ	-10481
▁இவர்களது	-10482
▁கல்லீரல்	-10483
▁கல்லூரிகள்	-10484
▁பிரான்சிசு	-10485
▁செய்வதற்காக	-10486
▁மாவட்டங்கள்	-10487
▁ஒருங்கிணைக்க	-10488
▁செயற்கைக்கோள்	-10489
அடி	-10490
வேல	-10491
போன்	-10492
வருவ	-10493
ிகளே	-10494
ிராய	-10495
ஸ்ட்ட	-10496
ுமொரு	-10497
ோனியா	-10498
▁சமாள	-10499
▁மோர்	-10500
▁செரும	-10501
▁இல்லைய	-10502
மைக்கும்	-10503
▁காரைக்க	-10504
▁இருந்ததாக	-10505
▁சுவாமிகள்	-10506
▁அட்டவணையில்	-10507
▁குறியீடுகள்	-10508
▁சம்பந்தப்பட்ட	-10509
▁கவர	-10510
▁உட்ச	-10511
▁சுவீ	-10512
▁டெய்	-10513
▁நாசி	-10514
பத்திர	-10515
ப்பற்ற	-10516
வரிடம்	-10517
ஞ்சியம்	-10518
வராவார்	-10519
▁அதனைத்	-10520
▁மில்லி	-10521
▁அவரிடம்	-10522
▁இரத்தம்	-10523
▁கறுப்பு	-10524
▁நகரத்தை	-10525
Sh	-10526
சய	-10527
▁ரவ	-10528
ரிட்	-10529
▁இடி	-10530
ூட்டி	-10531
▁1925	-10532
▁எனச்	-10533
▁துரை	-10534
▁புஷ்	-10535
▁பூஜை	-10536
▁ஆளும்	-10537
▁புல்ல	-10538
▁கால்நட	-10539
▁சமநிலை	-10540
▁பரிந்துர	-10541
▁வழிபாட்ட	-10542
▁இசையமைப்பாளர்	-10543
enc	-10544
யணம்	-10545
▁நட்ப	-10546
▁அரசுப்	-10547
▁இருவர்	-10548
▁உரையாட	-10549
▁வாகனம்	-10550
▁அறநிலையப்	-10551
▁போட்டியின்	-10552
▁கல்வியறிவான	-10553
▁மிகச்சிறந்த	-10554
PA	-10555
ash	-10556
▁போலி	-10557
ன்றும்	-10558
வையின்	-10559
▁இத்தே	-10560
▁கோடைக	-10561
▁போராள	-10562
ாரர்கள்	-10563
▁சிட்டி	-10564
▁போரிட்ட	-10565
▁விரிவாக	-10566
▁உணர்ந்து	-10567
▁திரௌபதிய	-10568
▁நூலாகும்	-10569
▁வினையின்	-10570
▁இக்கோவில்	-10571
▁மதுரையில்	-10572
▁அமெரிக்கன்	-10573
ிசை	-10574
ீவ்	-10575
ராஸ்	-10576
ைகளே	-10577
▁திம	-10578
வியர்	-10579
▁1500	-10580
▁அசுர	-10581
▁காம்	-10582
▁கூறு	-10583
சுக்கு	-10584
ஸ்வரம்	-10585
▁மலாய்	-10586
க்கிண்ண	-10587
ாவையும்	-10588
▁பரந்து	-10589
▁அரசுகள்	-10590
▁ஆட்சிப்	-10591
▁நாங்கள்	-10592
▁அறிவிப்ப	-10593
▁அவனுக்கு	-10594
▁உறுப்புகள்	-10595
வர்களுக்கும்	-10596
▁ஐரோப்பாவின்	-10597
சாத	-10598
▁கேம	-10599
சியில்	-10600
ையேயான	-10601
▁பெர்ன	-10602
ொருட்களை	-10603
▁காவல்துற	-10604
▁கூற்றுப்படி	-10605
ீல்	-10606
மாகி	-10607
ிண்ட்	-10608
▁ஞாயி	-10609
▁பர்க	-10610
▁ஸ்டே	-10611
▁எண்ணி	-10612
▁ஆல்க்க	-10613
டைந்தார்	-10614
▁கண்டறிவ	-10615
▁உலகிலேயே	-10616
▁பிரசித்த	-10617
▁வளர்சிதை	-10618
▁அழைத்துச்	-10619
▁எக்ஸ்பிரஸ்	-10620
▁கிரிக்கெட்	-10621
▁சமீபத்தில்	-10622
▁பொருளாகும்	-10623
▁மாவட்டமும்	-10624
▁திருக்குறள்	-10625
▁குறிப்பிடலாம்	-10626
▁தொழில்நுட்பக்	-10627
▁அழைக்கப்பட்டார்	-10628
ton	-10629
ீம்	-10630
▁as	-10631
துரை	-10632
த்தக	-10633
▁ஏழை	-10634
▁ஆகக்	-10635
▁சமசுக	-10636
▁ஸ்காட்	-10637
▁தோட்டம்	-10638
▁இயற்கணித	-10639
▁நியமிக்க	-10640
▁ஹொங்கொங்	-10641
▁எலக்ட்ரான்	-10642
▁பொறுத்தவரை	-10643
▁விரும்பும்	-10644
சுப	-10645
alli	-10646
டைடு	-10647
தற்போ	-10648
மித்த	-10649
▁எக்ச	-10650
▁நெறி	-10651
த்திலே	-10652
ன்றால்	-10653
▁காரிய	-10654
ிருப்பு	-10655
▁அவரால்	-10656
▁நாயுடு	-10657
▁வல்லுன	-10658
▁விஜயநகர	-10659
▁இலக்கணம்	-10660
▁விண்ணப்ப	-10661
மாரியம்மன்	-10662
சாக	-10663
▁77	-10664
▁on	-10665
▁பவள	-10666
▁மெக	-10667
ional	-10668
▁சிரம	-10669
▁மறுப	-10670
பட்சம்	-10671
▁இதைக்	-10672
▁தேக்க	-10673
மில்லாத	-10674
ியாவின்	-10675
▁பனிப்ப	-10676
▁ஐதராக்ச	-10677
▁கட்டற்ற	-10678
ாளர்களும்	-10679
▁இதழாகும்	-10680
▁வாக்கெடு	-10681
▁குழுவினர்	-10682
▁பாத்திரம்	-10683
▁அடிப்படையான	-10684
ுதூர்	-10685
▁தேனீ	-10686
▁ஆண்டி	-10687
▁இராவண	-10688
▁விண்க	-10689
▁ஜன்னிய	-10690
ிருத்தல்	-10691
▁அகத்திய	-10692
▁மீதமுள்ள	-10693
▁மேற்கொள்	-10694
▁மாற்றங்களை	-10695
▁ஆண்டுகளுக்குப்	-10696
க்கட	-10697
மேடு	-10698
வானி	-10699
வைச்	-10700
ண்டல்	-10701
ஸ்கர்	-10702
ும்பு	-10703
▁அசல்	-10704
▁அவரே	-10705
▁ஆலன்	-10706
▁ஏகாத	-10707
ிடமும்	-10708
▁சிஸ்ட	-10709
▁மகாதே	-10710
▁மேலாள	-10711
▁உட்பிர	-10712
▁பாபிலோ	-10713
ர்கின்றன	-10714
▁இத்தலம்	-10715
▁சிறந்து	-10716
▁குளுக்கோ	-10717
▁சங்ககாலப்	-10718
▁பொதுவாகக்	-10719
▁இருப்பதில்லை	-10720
▁கொண்டிருந்தன	-10721
ளூர்	-10722
வேல்	-10723
▁ஏறி	-10724
▁1924	-10725
▁ஆயர்	-10726
▁சூர்	-10727
▁தோழி	-10728
▁மணிய	-10729
ாய்ச்ச	-10730
▁சுப்ப	-10731
▁தாமரை	-10732
்க்கும்	-10733
▁அமிர்த	-10734
▁பண்டித	-10735
▁குறும்ப	-10736
▁சதுப்பு	-10737
பாடுகளில்	-10738
▁தீவிரமான	-10739
▁நூற்றுக்கண	-10740
▁காரணங்களால்	-10741
▁ac	-10742
போதே	-10743
்குடி	-10744
▁அருவ	-10745
த்தாண்டு	-10746
னியாவின்	-10747
▁எழுதும்	-10748
▁தலைமைப்	-10749
▁திருமலை	-10750
▁பொறுப்பை	-10751
▁இப்பொழுது	-10752
▁பொருந்தும்	-10753
▁தெரிவிக்கின்றன	-10754
eng	-10755
▁த்	-10756
ஷனல்	-10757
▁ஆத்	-10758
ராக்க	-10759
ோவின்	-10760
▁கபில	-10761
ங்கால்	-10762
▁தினம்	-10763
ங்குகள்	-10764
▁மண்ணில்	-10765
முத்திரம்	-10766
▁மாறுகிறது	-10767
▁வினையூக்க	-10768
▁பரிமாற்றம்	-10769
▁மண்டபத்தில்	-10770
ne	-10771
old	-10772
ன்ட	-10773
ுகி	-10774
▁கள்	-10775
▁தர்	-10776
▁காலக்	-10777
▁புறம்	-10778
வியலின்	-10779
▁அண்மைய	-10780
▁இயேசுவ	-10781
▁படையின	-10782
ர்க்கும்	-10783
▁பழக்கம்	-10784
▁மரத்தின்	-10785
▁அதிகளவில்	-10786
▁மற்றொன்று	-10787
▁வாழ்க்கையின்	-10788
ock	-10789
கரம்	-10790
யுத்த	-10791
▁கட்டள	-10792
▁மகனாக	-10793
▁வழிபட	-10794
மையாக்க	-10795
▁தாயின்	-10796
▁வகுக்க	-10797
▁வானிலை	-10798
▁ஒளியின்	-10799
▁முன்னேற	-10800
▁சுந்தரம்	-10801
▁வழிபாட்டு	-10802
▁பேசப்படும்	-10803
▁கதிர்வீச்சு	-10804
MD	-10805
ரிங்	-10806
ிவரை	-10807
▁மிர	-10808
ராசர்	-10809
▁ஆர்ட	-10810
▁கூடை	-10811
▁கோபி	-10812
▁ஜோன்	-10813
ிவாங்க	-10814
▁சிதைவ	-10815
▁முனைய	-10816
▁ஒருவகை	-10817
▁பணத்தை	-10818
▁புழக்க	-10819
▁விலக்க	-10820
▁பொதுவுட	-10821
▁மூர்த்தி	-10822
▁இதன்மூலம்	-10823
▁திரௌபதியம்மன்	-10824
–19	-10825
▁அஸ்	-10826
▁ஆசை	-10827
▁லார	-10828
மண்ட்	-10829
▁கலக்க	-10830
▁தனிநப	-10831
ரத்தின்	-10832
▁முற்போ	-10833
▁வளாகம்	-10834
ர்க்கின்	-10835
▁உருவாகி	-10836
▁நகரமும்	-10837
▁நுண்ணிய	-10838
▁கனடாவில்	-10839
▁புளோரைடு	-10840
▁பிரிவுகளில்	-10841
▁காட்டுகின்றன	-10842
ork	-10843
தென	-10844
ுமா	-10845
▁கற	-10846
▁செப	-10847
▁யுன	-10848
குப்த	-10849
▁கோடு	-10850
▁மர்ம	-10851
▁தவறாக	-10852
▁பாரிச	-10853
ையம்மன்	-10854
▁இணையான	-10855
▁வழிப்ப	-10856
▁கட்டணம்	-10857
▁நகரியம்	-10858
▁வெடித்த	-10859
▁ஒன்றுக்க	-10860
▁துத்தநாக	-10861
▁பாடினார்	-10862
்	-10863
▁	-10864
க	-10865
ி	-10866
ு	-10867
த	-10868
ப	-10869
ம	-10870
ர	-10871
ட	-10872
ா	-10873
ல	-10874
ன	-10875
வ	-10876
ற	-10877
ய	-10878
ை	-10879
ள	-10880
ச	-10881
ந	-10882
.	-10883
இ	-10884
ண	-10885
அ	-10886
ெ	-10887
ே	-10888
,	-10889
ோ	-10890
ொ	-10891
ழ	-10892
ஆ	-10893
ங	-10894
எ	-10895
ூ	-10896
உ	-10897
ீ	-10898
1	-10899
0	-10900
"	-10901
ஒ	-10902
2	-10903
a	-10904
ஸ	-10905
)	-10906
(	-10907
9	-10908
e	-10909
ஜ	-10910
i	-10911
5	-10912
r	-10913
n	-10914
ஊ	-10915
7	-10916
8	-10917
t	-10918
o	-10919
3	-10920
-	-10921
4	-10922
ஏ	-10923
6	-10924
l	-10925
s	-10926
ஞ	-10927
h	-10928
m	-10929
:	-10930
c	-10931
u	-10932
ஷ	-10933
ஹ	-10934
d	-10935
ஐ	-10936
ஓ	-10937
p	-10938
y	-10939
ஃ	-10940
g	-10941
C	-10942
S	-10943
P	-10944
ஈ	-10945
A	-10946
'	-10947
f	-10948
I	-10949
;	-10950
]	-10951
b	-10952
M	-10953
[	-10954
k	-10955
G	-10956
T	-10957
%	-10958
v	-10959
B	-10960
N	-10961
/	-10962
D	-10963
H	-10964
R	-10965
ௌ	-10966
E	-10967
w	-10968
O	-10969
L	-10970
F	-10971
–	-10972
K	-10973
”	-10974
V	-10975
x	-10976
’	-10977
=	-10978
W	-10979
U	-10980
“	-10981
_	-10982
J	-10983
|	-10984
z	-10985
‘	-10986
+	-10987
j	-10988
°	-10989
X	-10990
?	-10991
!	-10992
$	-10993
­	-10994
q	-10995
Y	-10996
