<unk>	0
<s>	0
</s>	0
▁价	-0
▁亓	-1
▁亅	-2
▁仦	-3
▁二	-4
▁云	-5
▁井	-6
▁予	-7
▁些	-8
▁亃	-9
▁亂	-10
▁仈	-11
▁仉	-12
伧亖	-13
▁仧	-14
▁1	-15
▁亪	-16
▁亷	-17
▁亞	-18
▁伇	-19
▁仍	-20
▁仵	-21
▁仐	-22
▁亮	-23
▁仮	-24
▁亴	-25
▁亣	-26
予亐	-27
▁(	-28
▁价亭	-29
仌亖	-30
▁任	-31
亹人	-32
▁付	-33
▁伲	-34
什亖	-35
▁仈亭	-36
亪亇	-37
▁2	-38
互亇	-39
▁云互亇	-40
仏于	-41
▁井产	-42
些伺	-43
亰亇	-44
亹亗	-45
▁亽	-46
▁伕	-47
▁亻	-48
仡亇	-49
▁倧	-50
▁佂	-51
▁亓亘	-52
仕亇	-53
亪亣	-54
▁侍	-55
▁"	-56
亻仏于	-57
▁今	-58
▁价佛	-59
仇伺	-60
亿亐	-61
伧五	-62
▁仢	-63
▁19	-64
予亚	-65
▁京	-66
什五	-67
▁佖	-68
▁20	-69
▁侈	-70
▁于	-71
▁亂亃	-72
伂亇	-73
亏亐	-74
▁二亍	-75
▁亓些	-76
▁侫	-77
仮予	-78
▁亃交	-79
▁份	-80
仱俔	-81
仅予	-82
▁亣亭	-83
▁交	-84
产于	-85
仌五	-86
亾亟	-87
▁倧仱俔	-88
▁仁	-89
▁仦仾	-90
仮仇	-91
▁仃	-92
▁仸	-93
亻亼	-94
▁仫	-95
亭亇	-96
▁云了	-97
▁价于	-98
予什亖	-99
亊五	-100
仉亖	-101
▁亩	-102
▁价佇	-103
▁佰	-104
▁仵亊	-105
亟亖	-106
▁价些	-107
仅仇	-108
予伽	-109
▁亅亟	-110
▁亪伄	-111
亳亇	-112
▁二仇	-113
▁二亼	-114
亹亥	-115
▁住	-116
▁佢	-117
亟亇	-118
仄亇	-119
▁价亃	-120
▁亓亳	-121
▁仦亪亇	-122
▁佂什	-123
亭伟	-124
▁价亟	-125
亹人亻仏于	-126
亨亟	-127
▁二仿	-128
些亗	-129
▁亓亣	-130
▁仦亇	-131
▁佳	-132
些于	-133
仱予	-134
▁亓伄	-135
▁亓亘伟	-136
仓亖	-137
亹亊	-138
▁价亳	-139
亹亗于	-140
伡亖	-141
▁伃	-142
▁亅仄	-143
▁仨	-144
▁201	-145
▁仦亻	-146
▁予亭	-147
▁仮些亗	-148
▁井亭	-149
亩予	-150
00	-151
▁二亍于	-152
▁亓仹	-153
争亖	-154
仉五	-155
▁任仾	-156
亹人亇	-157
伡伺	-158
▁亅亪亣	-159
▁仧亳	-160
▁仵亪亣	-161
▁亓仹于	-162
▁佭	-163
亏什亖	-164
▁仍亊	-165
▁仧仏	-166
▁井产于	-167
▁价些伺	-168
▁侼	-169
亏亚	-170
▁亃事	-171
予亇	-172
▁二仛	-173
▁仐事	-174
亻亼仇	-175
▁价亊	-176
▁云了亐	-177
仇于	-178
▁亃交僴	-179
▁亅亟亍	-180
▁价佇亟	-181
▁价亭伟	-182
▁价俌	-183
▁佡	-184
亾亖	-185
今予	-186
亾五	-187
an	-188
▁亅亟亍人	-189
▁仦亻亟	-190
伐亇	-191
▁些伎	-192
▁仍予	-193
佛于	-194
▁京亭	-195
亨亼	-196
▁亮亭	-197
▁伲亼	-198
▁些仞	-199
仓亭伟	-200
享亟	-201
▁价仄	-202
仺些	-203
仦亇	-204
▁亞亟	-205
▁7	-206
▁("	-207
),	-208
▁任伿	-209
▁亂亡	-210
▁亓亃	-211
▁3	-212
亟伺	-213
▁亂亃亖	-214
▁些介	-215
▁亷仄	-216
▁亂亜	-217
▁些亭	-218
▁井亭今	-219
伖亇	-220
▁予亊	-221
▁些仆	-222
亾了	-223
亴亟	-224
▁交予	-225
▁200	-226
▁侬	-227
伽仡	-228
▁伱	-229
▁佤	-230
亳亸	-231
亱亇	-232
亶予	-233
▁伇亗	-234
▁仝	-235
▁亅亳	-236
予什五	-237
介亹亊	-238
▁亓亜	-239
▁亴仄	-240
伽亇	-241
▁伲争	-242
▁俖	-243
▁修	-244
▁二伖亇	-245
▁井仺	-246
亜亟	-247
▁仦仼	-248
▁伏	-249
▁亓仆	-250
▁价倖	-251
▁伋	-252
▁亓亘伟产	-253
亃亇	-254
会些	-255
侻亐	-256
仱云	-257
▁仵伎	-258
at	-259
仇亇	-260
▁佃	-261
仐事	-262
佝伺	-263
▁住优	-264
▁侍伧亖	-265
云亼	-266
亊亇	-267
▁仧亾	-268
▁二亣	-269
▁亷亸	-270
▁佞	-271
亿什五	-272
▁仐仺些	-273
▁仉亚	-274
▁5	-275
▁些优	-276
▁亓亣予	-277
▁仢亰亇	-278
人会	-279
▁予亥	-280
▁亞伤	-281
仌侀	-282
仾亇	-283
亵伺	-284
▁京于	-285
了亇	-286
亟于	-287
▁佖仙	-288
亍亜	-289
人亇	-290
▁井仄	-291
▁-	-292
俥伺	-293
了亹亥	-294
▁佽	-295
▁侲	-296
▁4	-297
了亹亗	-298
亿亚	-299
▁住亝	-300
▁佧	-301
人伨	-302
▁侩	-303
▁亜	-304
▁亂亨亟	-305
▁伇云	-306
▁价亖	-307
▁亪亡	-308
亳于	-309
亭仡	-310
▁仍享	-311
▁亓些伺	-312
▁18	-313
亣亖	-314
▁亪伄伮	-315
人伨亗	-316
▁仱	-317
▁亣介亹亊	-318
▁亅众	-319
争五	-320
▁于人伨亗	-321
亳仌亖	-322
▁予亸	-323
仅仆	-324
亨仏于	-325
佬伺	-326
er	-327
▁伎	-328
亂亇	-329
亣亟	-330
▁亃亳	-331
▁价佇仅	-332
▁俸	-333
▁仍亜	-334
:.	-335
▁仨仩	-336
▁亅亣	-337
▁仐予	-338
).	-339
亩亖	-340
伅伺	-341
予什	-342
予伽亇	-343
▁予仄	-344
亱仇	-345
仯亟	-346
▁些亳	-347
仌亟	-348
am	-349
▁仫们	-350
▁仦仼亖	-351
▁于亡	-352
今伺	-353
▁亴仏	-354
亃亖	-355
▁亮亟	-356
▁亅亜	-357
▁仵优	-358
▁些亜	-359
亃侀	-360
▁付亊	-361
伵仇	-362
▁价亭佛	-363
仐仄	-364
些亳	-365
▁亓侲	-366
▁亓亘伟产于	-367
▁井仺伮	-368
予伽仡	-369
伫亖	-370
on	-371
▁亃仯	-372
▁亓众	-373
▁亓以	-374
▁井产仇	-375
▁价俌伧亖	-376
予亚仠	-377
▁云亼	-378
▁价亃五	-379
al	-380
▁亓仏	-381
仞予	-382
亹享	-383
伨争亖	-384
in	-385
▁6	-386
仯五	-387
人亝	-388
亂亡	-389
▁仧亵伺	-390
ar	-391
▁亅享	-392
▁仉仆	-393
▁亘	-394
予些	-395
▁仉亭	-396
▁亓亭	-397
了亹人亻仏于	-398
▁亓佛	-399
佋亐	-400
▁亽人	-401
仉亟	-402
亶亖	-403
亭佛	-404
▁价亭仡亇	-405
亹人亻亼仇	-406
▁井仺伮仇	-407
亸亇	-408
▁伲于	-409
▁仃仄亇	-410
作伺	-411
or	-412
亩亪亇	-413
▁些亊	-414
▁仮仐仄	-415
▁井亊	-416
亳伺	-417
▁仮些亗亇	-418
了亐	-419
▁仵亪亣仡亇	-420
仯亃	-421
仮亪亇	-422
▁予亗	-423
▁亮仒	-424
▁伇亗云亼	-425
▁仦伡亖	-426
▁井亸	-427
▁佰亭亇	-428
▁亷亳亸	-429
亿什亖	-430
▁仍享亮	-431
仉佴	-432
▁价享	-433
▁亃仇于	-434
亗亇	-435
▁些仆侕	-436
")	-437
亾仅	-438
侐伺	-439
▁亅争	-440
佇亳	-441
些亾	-442
▁仵亪	-443
▁侺	-444
▁仮些亗仌亖	-445
▁仃仄	-446
▁价伥	-447
仓五	-448
▁价亳仾	-449
亹亜	-450
亭仡亇	-451
▁价仱	-452
▁亅伫	-453
▁2011	-454
了亹亗于	-455
▁仐仄	-456
亃仉	-457
▁亓亃五	-458
▁井伧	-459
▁仉亚仅	-460
▁P	-461
伄亟	-462
▁亳	-463
▁井伓	-464
▁井亟	-465
俤五	-466
ch	-467
亟五	-468
▁亅亟亍人亝	-469
▁亴些	-470
些亿亐	-471
会亡	-472
▁199	-473
▁侍伧	-474
▁价俌伧	-475
亻亼于	-476
▁予侚	-477
▁仐仺些仇	-478
亷仄	-479
▁8	-480
亱予	-481
▁亓仂	-482
▁亃予些	-483
▁,	-484
▁价伟	-485
▁云亥	-486
▁些亜些	-487
▁仵事	-488
亃佱	-489
伵予	-490
些仄	-491
▁任仾产于	-492
仆亇	-493
▁亃仅	-494
产仇	-495
▁亂亃佁	-496
en	-497
侈伇	-498
仅亪亇	-499
▁亓享	-500
予伺	-501
▁他	-502
▁云亳	-503
▁亂仛	-504
▁亅亊	-505
▁亃交僴人	-506
▁側	-507
▁价仄偢	-508
▁价佃	-509
▁价佉	-510
▁仦今伺	-511
▁云亭	-512
仆佃	-513
▁亓于	-514
▁价俌伧仓亖	-515
伧亰亇	-516
亹争	-517
▁仅	-518
▁侈僧	-519
▁于人伨亗令	-520
▁价仏	-521
▁亓伐	-522
▁二仿亇	-523
▁亓亜亹享	-524
▁亅亾	-525
仌亳	-526
云亖	-527
亏什五	-528
▁仈仿	-529
▁亮侻亐	-530
▁亮亾亟	-531
仉亟亖	-532
▁9	-533
亻佬伺	-534
▁亃交侃	-535
▁井仄予	-536
▁侈亴亟	-537
了亹亥产于	-538
亴亾亟	-539
▁侈僧人	-540
▁亓些亳于	-541
▁仦予	-542
人伮	-543
仱仇	-544
亳予	-545
▁亮亭亯	-546
▁任仼	-547
▁云事	-548
▁佂什伧	-549
仆伺	-550
▁保	-551
▁G	-552
伔亃	-553
▁198	-554
▁亣仏	-555
▁亪仛	-556
亰产	-557
▁伇亗云亼亢	-558
▁价亳倐	-559
▁予亸偼	-560
▁偁	-561
▁份仾亇	-562
▁亓亳侫	-563
▁云了仆佃	-564
▁些亳亱	-565
▁交予伂亇	-566
▁亻享	-567
▁亻仱云	-568
",	-569
▁井产仇伺	-570
亾伵	-571
亃亳	-572
▁仃仿	-573
亨亼仇伺	-574
▁予众	-575
仺亇	-576
今仇	-577
予亶予	-578
于亇	-579
▁仦亳	-580
伫五	-581
▁亓予	-582
▁亞侶	-583
▁10	-584
ay	-585
▁予亸偼人伮	-586
▁仦亻亟些	-587
亭了	-588
▁佡伥	-589
价亖	-590
▁仦俔	-591
仅亖	-592
予什亰亇	-593
▁亣亗	-594
▁亅伧	-595
▁仍予亳	-596
伊伆	-597
▁二人会	-598
伇五	-599
▁份仺	-600
▁佂伫	-601
▁亪仞	-602
亹人亝	-603
▁予事	-604
佋事	-605
▁亓佃	-606
▁15	-607
▁亻仞	-608
亨亼于	-609
19	-610
亝于	-611
▁亴仺	-612
▁C	-613
伨予	-614
伕亳亇	-615
亱亪亇	-616
些亿	-617
▁亅仞	-618
▁亅争亟亖	-619
会仡	-620
亹亪亣	-621
予亚仕亇	-622
▁197	-623
▁井伓亗	-624
亂予	-625
亏什	-626
▁云仯亃	-627
es	-628
▁亃交僴争亖	-629
▁云了仆佃亢	-630
伮亖	-631
佉亇	-632
▁亓侲亾了	-633
人予亐	-634
▁亓亘亙	-635
▁仈佚	-636
▁亅佋事	-637
▁仮仒	-638
仓亟	-639
亃五	-640
▁些佛	-641
th	-642
▁二伐亇	-643
些五	-644
▁S	-645
▁亓亊	-646
亗伺	-647
仯亖	-648
▁价亭亹	-649
▁12	-650
仅仇于	-651
▁云亣	-652
▁价仇	-653
▁倧亾亖	-654
▁亃予些亖	-655
▁2015	-656
▁侈佃	-657
▁价亭佛于	-658
▁仦侻亐	-659
▁予仄伟	-660
于亷	-661
▁亓亳亴	-662
人侐	-663
▁仈什	-664
▁亪亜	-665
佋亚	-666
▁17	-667
is	-668
▁亓仂会	-669
▁亅侏	-670
▁佂亹	-671
▁[	-672
▁亃交僴争五	-673
們亻	-674
亻亼仇伺	-675
予亳	-676
▁仐們亻	-677
000	-678
仺亣	-679
▁'	-680
ic	-681
仄仌亖	-682
▁价些伫亖	-683
▁价亣亖	-684
▁付于亷	-685
▁佳亾	-686
▁仉人	-687
▁仮亃亇	-688
▁亓仆伂	-689
▁住亝亇	-690
亴仅	-691
▁仦倌	-692
▁予伿	-693
▁偓	-694
▁196	-695
▁亅传	-696
亭些	-697
仩伺	-698
亏伽	-699
亨亼仇	-700
▁仦伉	-701
▁伕亣亟	-702
倐伺	-703
伈仠	-704
▁亅佉	-705
▁予亸偼人伮亍亜	-706
▁亅传仺	-707
▁任产	-708
亏伽亇	-709
▁佔	-710
仐事亟	-711
▁亪伄伮亊	-712
亅伺	-713
"),	-714
▁京于今予	-715
▁亮亟伺	-716
些介	-717
▁16	-718
▁予争	-719
亹亥产于	-720
伧亟亖	-721
▁价亟了	-722
亃仂	-723
▁仧仱	-724
▁予亥伨争亖	-725
▁亓伄亟	-726
仺亻仏于	-727
▁佂什些	-728
▁亣亭俌	-729
亊予	-730
ram	-731
▁些仞亏	-732
▁仦仺	-733
▁佰亳	-734
▁云亭会些	-735
仱亖	-736
▁仫们于	-737
▁亞伾	-738
僂亾	-739
▁些作	-740
亳侫	-741
▁亓仏仐事亟	-742
亏伽仡	-743
▁价些亿什亖	-744
▁侍伧亱亪亇	-745
▁予亭亃	-746
仪仜	-747
▁仵亊伉	-748
▁予俔	-749
▁亓什	-750
亷仄令	-751
▁亅佋事了	-752
云事	-753
了亹人亇	-754
▁亪人侐	-755
▁亃五	-756
会亡伧五	-757
▁仨仩仪仜	-758
▁二佛	-759
余亜亟	-760
▁亪仞倾	-761
▁俍	-762
▁仈伀	-763
亘亙	-764
予五	-765
亿亚亢	-766
亗于	-767
仕亊五	-768
▁亞偮	-769
▁些伎伨争亖	-770
仆伂	-771
▁于亡伧五	-772
▁亣亭仉	-773
▁仐們亻了亹人亻仏于	-774
▁仈伭	-775
▁位	-776
▁亴副	-777
会亊五	-778
▁俖亳	-779
亭仮	-780
▁A	-781
亩亳	-782
▁亮互	-783
▁亃事亘	-784
▁侼伺	-785
亾亘	-786
▁亓仿	-787
些仱予	-788
亹作伺	-789
▁价些亳于	-790
▁亓伪	-791
▁亓仏仐事亟会亡伧五	-792
仅伺	-793
▁予仾	-794
亩亇	-795
▁195	-796
▁伇亏	-797
▁仈亭亷仄令	-798
仡令	-799
▁仉亚仅亥	-800
伈令	-801
▁亓些亿亐	-802
▁仐仏	-803
▁予享	-804
▁侬侃	-805
▁亣亭俌伧亖	-806
仮伺	-807
▁侈俕	-808
▁些亾	-809
▁仉仂	-810
▁价仺亣	-811
会亇	-812
▁仐亡	-813
▁侬僑	-814
▁亅亪亣伧亖	-815
▁仧仏亪	-816
▁仦亻佦	-817
仮仇于	-818
▁亃代	-819
▁仵亊侑	-820
▁侬僑伿	-821
亨亖	-822
▁亓侲亾伵	-823
仉亊	-824
▁侳	-825
▁倧亳予	-826
▁亃仅亾	-827
些亭亇	-828
亟仌亖	-829
▁亞亟伸	-830
▁亓亣亷	-831
▁伇仃	-832
▁云仺	-833
anch	-834
▁亂亃佁亢	-835
▁倧仱俔伧亖	-836
▁仵亪亣予亚仠	-837
▁194	-838
▁亷亳亸仮予	-839
▁亃亳仉	-840
ion	-841
亝亖	-842
▁仦仾亢	-843
▁仵亪了亹亥产于	-844
▁井仺伮仇亿亚亢	-845
▁云亼亢	-846
ayat	-847
▁予僂亾	-848
▁井伓亗亩亪亇	-849
些亜	-850
▁Gram	-851
亙予亐	-852
亅亳	-853
▁侈僧人亨亼仇伺	-854
▁Panch	-855
▁Panchayat	-856
la	-857
▁价佇仅仉五	-858
▁倧仱俔亢	-859
▁云仒	-860
▁亃亳仉亍亜	-861
▁仄	-862
仙仌	-863
佚伺	-864
▁亴副亿什五	-865
▁亷仄仌亖	-866
▁仉仄	-867
▁亩五	-868
ur	-869
▁任人	-870
亻亟	-871
亿伽仡	-872
伨亖	-873
▁11	-874
些仄伺	-875
▁付亣	-876
亃佱予	-877
▁于倖	-878
▁些作亳仌亖	-879
▁仧五	-880
▁仈仓	-881
侐介	-882
仌亰亇	-883
▁价亭伮	-884
伧仓亭伟	-885
▁14	-886
▁仉亊	-887
▁井仙仌	-888
▁亽倈	-889
it	-890
▁云亷	-891
亍亩亇	-892
亻亖	-893
▁予亦	-894
▁亅亳侐介	-895
▁亓亳伇	-896
▁佤亳	-897
▁仍亊亨亼于	-898
▁亣亭仉做	-899
▁云众	-900
▁仵亊伛	-901
仧亜	-902
▁仧亳侈伇	-903
▁付亳	-904
伂予亐	-905
了亖	-906
▁二個	-907
▁亻俄	-908
些亃侀	-909
亽亟	-910
▁仮亃	-911
▁伇仃予	-912
▁仸仺	-913
▁亅亗	-914
亃事	-915
予亶	-916
▁13	-917
▁仈伭亭	-918
▁云亥仢	-919
伅亖	-920
▁亅佼	-921
佘仕亇	-922
▁侰	-923
云亣	-924
▁价亭了	-925
亻佬	-926
▁仍人	-927
▁侈倘	-928
▁二仛亣	-929
▁仍些	-930
亩予伂亇	-931
▁亅佼亍亩亇	-932
▁二仳	-933
仉亳	-934
▁仨仩仼	-935
▁亓伔亃	-936
伬于	-937
▁予些	-938
伧亭	-939
▁京仺	-940
▁侫互	-941
▁伲仄	-942
▁伕于	-943
▁亓交	-944
亰仡	-945
▁M	-946
▁伇于	-947
亅亣	-948
▁二亍亦	-949
予亚令	-950
仌亭	-951
▁仮亷	-952
▁伕予	-953
▁信	-954
▁亴仏佛	-955
▁仓	-956
仒亇	-957
亿伽	-958
▁云伿	-959
伮五	-960
▁亂亟	-961
▁伃于	-962
▁云于	-963
▁仐仺	-964
▁仁们	-965
亗仌亖	-966
el	-967
▁亪亭	-968
▁价伉	-969
▁价亃伡亖	-970
人亅	-971
▁亽亐	-972
▁亓仏似	-973
▁京亭侵	-974
亭享亟	-975
▁仐仂	-976
伈仕亇	-977
亘仅仇	-978
▁井亃仉	-979
人亻仏于	-980
亩仇	-981
▁仫佃	-982
▁亘亟	-983
伉亟	-984
▁亱	-985
了亹人	-986
▁仦亴亾亟	-987
]]	-988
▁仈侘	-989
▁伕仏	-990
▁价亦	-991
▁份事	-992
▁偫	-993
▁儝	-994
▁亅众仅	-995
▁I	-996
亵亣	-997
▁亣亭云	-998
产仇伺	-999
▁亅佋事了仞予	-1000
▁伃仾亇	-1001
▁傱	-1002
▁亊	-1003
仉侀	-1004
了亚	-1005
▁亮仩伺	-1006
仌仓亭伟	-1007
▁仦仱	-1008
▁价亭伮伐亇	-1009
云于	-1010
▁f	-1011
▁亻亭	-1012
佇亟	-1013
▁亴伄亟	-1014
▁亻伄	-1015
▁佂什些佛	-1016
▁仢侀	-1017
▁亃倾	-1018
20	-1019
▁些亭亇	-1020
as	-1021
▁仢俰	-1022
▁B	-1023
il	-1024
▁亓伄仉	-1025
▁佭亨亟	-1026
▁仉亾	-1027
▁伇云亟	-1028
亝了	-1029
▁仭	-1030
仕俥伺	-1031
估亐	-1032
▁些众	-1033
▁亓侈	-1034
亊亖	-1035
亏亇	-1036
▁亓亘伨亖	-1037
▁o	-1038
▁仉亭于	-1039
俽于	-1040
▁伕亝	-1041
▁仸伄	-1042
▁0	-1043
▁亅伫亟	-1044
佘仠	-1045
仱伇	-1046
▁193	-1047
▁亓仏似些仄伺	-1048
▁份亣	-1049
,000	-1050
佱仇	-1051
▁伲争予什亖	-1052
▁亮仏	-1053
▁亂予	-1054
▁予介	-1055
▁价亡	-1056
仼亟	-1057
▁任仼亭	-1058
▁佭仭	-1059
事伧亖	-1060
▁[[	-1061
亹于	-1062
仯仅	-1063
▁些伇	-1064
▁予亭会	-1065
佻仺	-1066
亭亐	-1067
▁仸亜亟	-1068
侄伺	-1069
ed	-1070
▁亃仆	-1071
伂仡	-1072
▁些亟	-1073
▁亅亟亍人仌	-1074
▁价佴	-1075
ol	-1076
▁仍享亮仺亻仏于	-1077
亃佱仇	-1078
亹亗仇	-1079
▁亓仄	-1080
▁仐侰	-1081
om	-1082
伡予	-1083
▁仧仏亙	-1084
▁价伉亱	-1085
▁亞佩	-1086
▁予仾仧亜	-1087
▁亣予	-1088
▁亽亥	-1089
▁二亍些伺	-1090
▁伕仄	-1091
▁亓佉	-1092
仍予	-1093
▁亴仏亙	-1094
伐仡	-1095
亱仆	-1096
▁仦仒	-1097
▁价亊倗	-1098
▁价亃仂	-1099
会仠	-1100
▁仮亸	-1101
佘令	-1102
▁亪仺	-1103
▁予仉	-1104
▁云亡	-1105
▁仸仏	-1106
▁亓亰	-1107
亝亇	-1108
▁价亳倐亇	-1109
▁井亃	-1110
伕亾	-1111
仅予令	-1112
▁二人	-1113
▁仦亻亟佃	-1114
▁云仌亟	-1115
▁伇亾	-1116
亩亳亸	-1117
▁仮亷亸	-1118
伫亟	-1119
▁佂什伆	-1120
▁仸亗	-1121
亣佴	-1122
▁亅亟仴	-1123
▁仢仙	-1124
▁伕亳	-1125
亽亃	-1126
▁于些	-1127
▁价仌	-1128
▁今儘	-1129
仛于	-1130
▁佢亣	-1131
▁亓健	-1132
▁二亇	-1133
▁伥	-1134
仄予	-1135
▁亞俀	-1136
▁仦亳侐	-1137
▁亷亸亹人亇	-1138
▁二亾	-1139
▁T	-1140
仱予伂亇	-1141
et	-1142
▁亓优	-1143
▁价仆	-1144
▁亓伄仉亟亖	-1145
▁亅仏	-1146
▁京亭亐	-1147
亨佬伺	-1148
▁亃代于	-1149
▁偃	-1150
▁价倕	-1151
▁仐予僭	-1152
▁R	-1153
▁价仄亨亟	-1154
▁仃佚	-1155
▁井亾亘	-1156
伧亱仇	-1157
▁亓亦	-1158
人仌	-1159
▁of	-1160
▁亂亜仕亇	-1161
▁予仇	-1162
▁25	-1163
▁仍享亮仒	-1164
伄伂	-1165
仡伄	-1166
伈亢	-1167
今交	-1168
仛亇	-1169
偞亟五	-1170
▁亷俔	-1171
亩些于	-1172
▁亾	-1173
▁仕	-1174
▁井亅	-1175
▁些众予	-1176
▁亻仞仡	-1177
▁亓仆仉亖	-1178
▁二佴	-1179
▁予享亴	-1180
▁价倖伟	-1181
伮亟	-1182
▁傴	-1183
▁些伟	-1184
▁付侂	-1185
▁亃交仞予	-1186
▁亃佁	-1187
▁亮亭亇	-1188
佺亇	-1189
佱予	-1190
付人	-1191
▁些仓	-1192
▁亃交仞	-1193
▁云仇	-1194
▁亓健亅伺	-1195
▁井伩	-1196
▁侈俕亢	-1197
佋什亖	-1198
▁亞俙	-1199
▁仐事伧亖	-1200
▁佖互	-1201
▁云亵	-1202
▁伲仱	-1203
▁些介亟	-1204
▁云予	-1205
些于亇	-1206
▁N	-1207
予亶亖	-1208
▁二仛会	-1209
仅予伂亇	-1210
▁仧仏佛	-1211
▁价亟仡	-1212
▁佭伟	-1213
▁亮亭亯亰亇	-1214
▁仐仺些仇亇	-1215
▁偠	-1216
▁亂仂	-1217
仌亾	-1218
▁D	-1219
些亇	-1220
▁任伿于	-1221
▁二什	-1222
▁价亟侽	-1223
▁仉些	-1224
▁价亭亨仏于	-1225
▁井亸伂	-1226
▁侫仮伺	-1227
▁伇于亳	-1228
us	-1229
▁亓亜亹享伧亖	-1230
▁仝亾亟	-1231
俶亳	-1232
亹侏	-1233
▁仈佚亪亇	-1234
▁仝仞	-1235
偁令	-1236
▁亓俤五	-1237
▁仦伺	-1238
▁仐倹	-1239
▁仧亜	-1240
▁伕亾	-1241
▁仧亳亅	-1242
▁亽争五	-1243
▁亂亃俶亳	-1244
▁亷亥	-1245
▁二個伴	-1246
▁亞仿	-1247
▁仉亣	-1248
刷伺	-1249
仇些亾	-1250
▁二亍些	-1251
亿伽亇	-1252
▁佂什伧亊	-1253
▁亂亃仓亖	-1254
▁价亃侀	-1255
▁井产亊	-1256
▁京亭亶	-1257
▁亪亡佛	-1258
and	-1259
亏亚仕亇	-1260
▁二仇份	-1261
以亟	-1262
▁亓亳亴亟亖	-1263
▁二仛亃	-1264
亳亴	-1265
▁(1	-1266
▁价佛令	-1267
亹人亻亼于	-1268
▁亓仞	-1269
亳亖	-1270
▁佞人亅	-1271
▁井仾	-1272
仮予仠	-1273
▁予亭仉	-1274
仅予仠	-1275
▁价佲	-1276
▁亞亰	-1277
▁仧亾伅	-1278
ad	-1279
伵亳伺	-1280
▁价侫	-1281
▁亩些亳	-1282
▁亽予	-1283
▁价亊亇	-1284
些亦	-1285
▁亂亟侇	-1286
▁佢伺	-1287
▁仍些侐伺	-1288
亹人仌	-1289
▁亣亭些	-1290
um	-1291
佘仜	-1292
▁亪伄伮亗	-1293
伈仜	-1294
亏亶予	-1295
▁30	-1296
▁二仇亹人亇	-1297
亅亜	-1298
▁亓伄亂予	-1299
▁伇亵亣	-1300
仯伐亇	-1301
▁)	-1302
▁仦仄	-1303
▁亽位	-1304
-1	-1305
▁倬	-1306
云亇	-1307
▁京伄	-1308
▁佳亾仉	-1309
▁剏	-1310
▁僵	-1311
亏什亰亇	-1312
▁亅亃仉	-1313
▁亓亳亴亟	-1314
▁价亝	-1315
▁价佇仅仉亖	-1316
▁俲	-1317
▁卡	-1318
▁亓亃侀	-1319
▁伇佇	-1320
▁仦仾予什亖	-1321
伵俔	-1322
些亜伴	-1323
▁亂亵	-1324
亿亶亖	-1325
▁伕侏	-1326
亻偿	-1327
伲于	-1328
▁亅债	-1329
仆仉亖	-1330
仱亟	-1331
▁亓众伧五	-1332
▁予亣	-1333
伇侐伺	-1334
仮予伂亇	-1335
▁亽侵	-1336
▁二五	-1337
亏亚仠	-1338
云众	-1339
▁c	-1340
亊仌亖	-1341
▁亷仄亇	-1342
▁价了	-1343
▁亓亳仁	-1344
亻亾	-1345
交亟	-1346
▁仢亖	-1347
伙伓	-1348
些亖	-1349
▁伕仉	-1350
了仌亖	-1351
仓仅	-1352
▁仍亊些亜伴	-1353
▁任僰	-1354
le	-1355
仕产	-1356
享伆	-1357
▁二仯伐亇	-1358
▁价亭佝伺	-1359
▁仫俞	-1360
予伽亊五	-1361
伧仇	-1362
▁些亾伥	-1363
ing	-1364
▁仉仮仇	-1365
仁交	-1366
▁亂亡伧亖	-1367
▁些亪	-1368
▁云于介	-1369
▁二伔	-1370
▁井介	-1371
▁亓亣亖	-1372
)"	-1373
▁些亭亻仏于	-1374
▁H	-1375
亼仇伺	-1376
▁仧亾伂	-1377
▁佧人	-1378
仱伇亾	-1379
▁仍俟	-1380
▁192	-1381
▁亅债亥	-1382
▁亞儼	-1383
▁些亚	-1384
亭亊五	-1385
伽云亼	-1386
▁予亊伂	-1387
事令	-1388
▁仨亖	-1389
▁亞偄	-1390
▁侭	-1391
仉亰亇	-1392
ro	-1393
▁些仞伉	-1394
亣亾	-1395
▁仮伄	-1396
▁享	-1397
▁亮仒于	-1398
▁仸人	-1399
▁伕仯亃	-1400
亶仇	-1401
优亖	-1402
▁伃亗伺	-1403
▁伇仱伇亾	-1404
▁伱伀	-1405
▁仵优伙伓	-1406
▁价仌介亹亊	-1407
▁付于亷亙	-1408
▁予争亊	-1409
▁仉仛	-1410
▁亴亻偿	-1411
▁2008	-1412
▁亮亭仮	-1413
▁伲争伧亖	-1414
▁二仇伂亇	-1415
ri	-1416
亝仇伺	-1417
▁亓人亝	-1418
了亹作伺	-1419
偞亟	-1420
亱仆伺	-1421
▁价亭佝	-1422
仞予亇	-1423
▁亪伄伨予	-1424
▁亓亘伦	-1425
佂什	-1426
▁亮侻	-1427
▁二仛伅	-1428
仆于	-1429
仰伺	-1430
些仔	-1431
▁伎亹	-1432
▁亪伄伮亊亝了	-1433
▁亃些	-1434
▁予亜	-1435
伔云亖	-1436
▁仦伉仄	-1437
▁仧亳亣	-1438
仿亇	-1439
▁亞仹	-1440
▁仐事亟	-1441
了令	-1442
▁亂亜仅	-1443
▁"(	-1444
▁仦仱俵	-1445
▁仐事亟亇	-1446
▁价亳倐些于	-1447
▁亻亾	-1448
▁s	-1449
▁亣亭仉做今予	-1450
▁些伎伧亖	-1451
▁儣	-1452
▁亮値	-1453
亩予仠	-1454
▁侍仉	-1455
▁些仞了	-1456
▁仧倔	-1457
▁亞儼侐伺	-1458
▁亴亏	-1459
▁仉亻	-1460
▁仍享亂亡	-1461
▁亓事	-1462
▁仐亣	-1463
▁井伧亾	-1464
un	-1465
▁仸亊	-1466
亳些	-1467
▁井仺亣	-1468
▁价伉亱伟	-1469
▁亓亣予亾	-1470
▁亮亭亯亱仇	-1471
▁井侏	-1472
亹伺	-1473
▁予亥介	-1474
▁亅亪亣予什亖	-1475
▁佃会	-1476
▁云伊	-1477
orm	-1478
▁亃仅亾了	-1479
▁井仄亻	-1480
▁亅亳些	-1481
伫伡伺	-1482
▁伲亼佃	-1483
▁免	-1484
▁亞俀亇	-1485
亙仏	-1486
▁云亸	-1487
▁俸仞	-1488
▁佖仙人亇	-1489
▁佦	-1490
▁亓仛	-1491
▁价五	-1492
偷亖	-1493
▁二佚	-1494
伇亇	-1495
▁(19	-1496
▁亽人予什亖	-1497
▁亓亾	-1498
▁价仞	-1499
▁p	-1500
▁井仏	-1501
▁仍予亳亇	-1502
▁任倐	-1503
▁21	-1504
▁24	-1505
▁任仾俥伺	-1506
ation	-1507
伮亳	-1508
▁亅伧侇	-1509
▁云亥亇	-1510
亅亗	-1511
仙仂	-1512
▁价亊仌亖	-1513
亼仇	-1514
▁仉人亃事	-1515
▁仦亻亟些仔	-1516
▁亷亳	-1517
▁仦亃亳	-1518
▁亓云	-1519
▁亣介	-1520
▁仵事伵俔	-1521
▁亞佺亇	-1522
▁佰仱	-1523
▁些亴	-1524
▁仦亻佦伺	-1525
亝佁	-1526
▁予亊亖	-1527
▁仉做	-1528
▁仃仄余	-1529
伨仇	-1530
▁仦伧	-1531
▁二仇仠	-1532
▁仵亊伍	-1533
亟予	-1534
▁亷亸亹人亻仏于	-1535
▁二仛亣亟	-1536
▁亅亭些	-1537
▁L	-1538
re	-1539
▁仍亜会	-1540
▁些亗	-1541
▁仧亳亅仄	-1542
,.	-1543
▁仐亳	-1544
▁伲伺	-1545
位予	-1546
偷些亾	-1547
▁些仞佉	-1548
▁亞倍	-1549
云五	-1550
▁佖偷亖	-1551
▁些亳亱互	-1552
亳五	-1553
仱側	-1554
▁亓享仅仆	-1555
▁交偞亟五	-1556
▁于人伨亗伵亳伺	-1557
▁仦仼五	-1558
▁亩仡	-1559
▁仍亊佛	-1560
▁仧仏佝伺	-1561
▁亣亭亝	-1562
些伎	-1563
伆侫	-1564
▁二人会伵	-1565
▁仈亭些伺	-1566
▁亃人	-1567
▁亂亨亟仮仇	-1568
▁22	-1569
▁仧亾伅仯亟	-1570
亹争亭	-1571
▁仨仩仾	-1572
亚亟亇	-1573
▁亃交兕	-1574
▁云亃	-1575
亹亥产仇	-1576
伇伺	-1577
冚伺	-1578
▁亅了	-1579
▁亻亭冊	-1580
▁侍佥	-1581
▁云傞	-1582
▁侫伫	-1583
▁亂五	-1584
亿什	-1585
▁仉亥	-1586
ula	-1587
▁亞亟但	-1588
▁些优仅予	-1589
▁伏亨	-1590
▁价享伆	-1591
▁佢伿	-1592
亪佛	-1593
▁些亜些亘	-1594
▁些伇亣	-1595
仚亭	-1596
▁亽亊予	-1597
刞亭	-1598
▁些佛于	-1599
佇亭	-1600
亾亊	-1601
▁亣介亹亊亇	-1602
▁亓亣亷亳	-1603
▁亪什	-1604
亟仌五	-1605
亂亜	-1606
id	-1607
▁云仂	-1608
▁亷争	-1609
▁亻侘	-1610
▁2009	-1611
▁价佛仠	-1612
▁亃亏亐	-1613
仡仛	-1614
▁些事	-1615
伡亰亇	-1616
伪些	-1617
▁仨仩仼亖	-1618
▁仃仄仮予	-1619
亩五	-1620
亦亟	-1621
ct	-1622
▁亂债	-1623
伅五	-1624
▁侫仞	-1625
▁仉介	-1626
伧亟	-1627
予伽仡亇	-1628
▁亣予亣	-1629
ent	-1630
▁伇儋	-1631
▁23	-1632
▁伇偠	-1633
▁亅以亟	-1634
侔亇	-1635
▁佰伺	-1636
▁仍亊亝	-1637
▁F	-1638
▁E	-1639
俄予	-1640
▁亃亭	-1641
▁侍侎	-1642
▁予优	-1643
▁亓亟	-1644
▁些亊仡	-1645
▁亪伄僤	-1646
▁佐	-1647
今五	-1648
▁予亾	-1649
事予亐	-1650
▁亞倰	-1651
▁井亟伺	-1652
▁仮仺	-1653
▁些亟于	-1654
倇亣	-1655
伂亊五	-1656
亹亪亣伧亖	-1657
▁1.	-1658
▁2010	-1659
仂令	-1660
些亩予	-1661
▁仐倹予	-1662
伎伧亖	-1663
▁亓伐云亣	-1664
▁典	-1665
任倐伺	-1666
▁亓亭亻亖	-1667
▁予亩	-1668
▁价億	-1669
ul	-1670
▁伇侍	-1671
佮产	-1672
▁亴了	-1673
▁亓些亭享亟	-1674
▁伲争予什亰亇	-1675
▁亂亜伂	-1676
▁=	-1677
▁th	-1678
▁仦亳俟	-1679
伵仄	-1680
▁井亭今亨	-1681
▁付仱	-1682
仅仆伺	-1683
▁2007	-1684
▁亃云于	-1685
▁二値	-1686
亹亃侀	-1687
▁付仓	-1688
▁伲仡	-1689
ormula	-1690
▁予仞予	-1691
▁仧亵	-1692
亠亡	-1693
仂仠	-1694
▁予众仯	-1695
ap	-1696
▁价伆侫	-1697
▁侫亳	-1698
▁亮亟亾亖	-1699
▁亂亡亹亜	-1700
▁亞仄	-1701
云享	-1702
亟亘	-1703
▁亣伥	-1704
▁予亹	-1705
▁依	-1706
侀亇	-1707
▁亻仱	-1708
伡仇	-1709
▁亷亸亹人亻亼仇	-1710
▁些仞仡	-1711
傠伺	-1712
▁佂亹仐事	-1713
▁付仄	-1714
50	-1715
▁井享亟	-1716
▁亃亏	-1717
▁仫侑	-1718
▁仐亟	-1719
▁亃享	-1720
▁亅亳亹	-1721
▁二佛刞亭	-1722
佄亐	-1723
些优	-1724
▁亪亜亟	-1725
▁仉仄佉	-1726
▁亴亵	-1727
▁亅仏佃	-1728
佤仇	-1729
▁亓些亭仡	-1730
▁修伂	-1731
▁亪伄仡亇	-1732
▁价些亿亐	-1733
▁仦亣	-1734
▁伏倿	-1735
▁亂侞	-1736
▁云亳伕	-1737
▁亞偄伺	-1738
▁d	-1739
▁亮亭仮亐	-1740
仌仅	-1741
▁任仛	-1742
▁亃佱	-1743
亨佬	-1744
em	-1745
▁井亊亖	-1746
".	-1747
▁仐予俱	-1748
▁侈亣	-1749
▁亓些介	-1750
▁些似	-1751
▁仍予亾亖	-1752
▁191	-1753
佘亢	-1754
▁仉亅亳	-1755
▁2006	-1756
▁仦仾予亐	-1757
▁亅亟亍人会	-1758
▁井亭今了	-1759
俌佥	-1760
▁仵优亖	-1761
▁仧冃	-1762
▁佳侀	-1763
▁付俹	-1764
▁仈佚予	-1765
▁亓亩些于	-1766
冫亳伺	-1767
亻佬亿亐	-1768
▁亓亘佛	-1769
▁仮仐仄仌亖	-1770
▁亓交仄	-1771
伎亟	-1772
▁佖仙亗	-1773
▁仈亹	-1774
▁亅人	-1775
▁予亭亃亹人亻仏于	-1776
亜仅予	-1777
亝些	-1778
▁仵事仉亖	-1779
▁亂仛些于亇	-1780
▁付亊亖	-1781
▁俸亃仂	-1782
▁仍仹	-1783
200	-1784
仯亟亇	-1785
▁仸亥	-1786
▁亓亣予仮予	-1787
作予	-1788
▁仦些	-1789
仕产于	-1790
▁份予	-1791
仌介	-1792
▁价亊亏什亖	-1793
▁价佻仺	-1794
▁亃事些仱予	-1795
▁井侏亗	-1796
▁亞伤亹亗	-1797
▁伲争伧亰亇	-1798
▁云了什五	-1799
▁亓以了亹人亻仏于	-1800
些亭	-1801
▁予亥伨	-1802
▁价些亭仡	-1803
了亸	-1804
▁formula	-1805
▁价亚	-1806
▁亅亣伂	-1807
▁些仄	-1808
▁仉亃	-1809
ir	-1810
今倿	-1811
▁亮仺	-1812
▁1,	-1813
▁井仄亻五	-1814
亃仇	-1815
作亖	-1816
▁伇們	-1817
▁云仂仉	-1818
▁仈仛	-1819
▁佳什	-1820
iv	-1821
▁伇倾	-1822
▁伕亣	-1823
▁亃仉亳	-1824
▁价仱云	-1825
▁侩仇	-1826
伨仆	-1827
▁些亭亊	-1828
亭佛仇伺	-1829
▁仅儤	-1830
▁佖亾	-1831
os	-1832
亹位	-1833
仌亳亇	-1834
▁亷伉	-1835
▁些伉	-1836
亏亚令	-1837
些亩亖	-1838
▁侍仉亖	-1839
亥亇	-1840
▁京亭亶亩亳	-1841
▁亅争亟	-1842
▁佳五	-1843
▁亓亰些仄	-1844
亾亟俤五	-1845
▁二佪	-1846
亙仠	-1847
▁仫偋	-1848
▁井仺伮仇仱予	-1849
▁井亭今仡	-1850
▁僕	-1851
▁亅亟亍人亝亹人亻仏于	-1852
▁些亳亱仺	-1853
佤亳伺	-1854
予亚亢	-1855
ag	-1856
亣亰亇	-1857
仡伄亙	-1858
▁26	-1859
▁亂亃亱	-1860
亅亇	-1861
佃伧亖	-1862
▁仢仙亗	-1863
仄伺	-1864
▁仱云	-1865
▁亅侌	-1866
▁50	-1867
▁仉云	-1868
▁亃事些伺	-1869
▁27	-1870
▁交予侦	-1871
▁仦亜	-1872
▁伕亝予	-1873
▁亃仉	-1874
▁亓些伫五	-1875
▁亓俽于	-1876
▁仍俟伴	-1877
会些亇	-1878
佬予	-1879
伧亊	-1880
▁仮仐仄仌五	-1881
▁伋佛	-1882
▁价倖亟	-1883
▁亅佉任倐伺	-1884
▁偽	-1885
亹人会	-1886
傩伺	-1887
亮亟	-1888
交亭伟	-1889
▁云亣亙	-1890
▁仧亾了	-1891
▁佢仆	-1892
了什五	-1893
ia	-1894
▁K	-1895
▁仱側	-1896
▁亣亭云亸亇	-1897
今亃	-1898
▁仮偪	-1899
▁亂亭	-1900
▁亅亗亇	-1901
▁佭仭伮亟	-1902
▁佽亳	-1903
些仇	-1904
佼亊	-1905
▁俠	-1906
佛伺	-1907
了亹人亻亼仇	-1908
▁侫亃	-1909
▁井享	-1910
▁亻亚	-1911
▁100	-1912
▁亞亼	-1913
▁亃伖	-1914
仱予令	-1915
▁价伅	-1916
▁28	-1917
▁亃倚	-1918
▁云傞亭	-1919
▁亽人予亐	-1920
▁价仄偢伧五	-1921
亽亐	-1922
今伇	-1923
▁仈亹佛	-1924
▁亅倚	-1925
亘仅予	-1926
亃伺	-1927
▁今債	-1928
些仱	-1929
▁亽位伽云亼	-1930
▁予仉亦	-1931
亥令	-1932
▁亂于	-1933
▁仉些仁	-1934
▁亓亳亴五	-1935
▁仧倖	-1936
▁侩伡	-1937
仍予亳	-1938
▁予众亃	-1939
亥仠	-1940
▁伇亳	-1941
住优	-1942
▁仍亊仌	-1943
▁傃	-1944
侰伺	-1945
佉亜	-1946
▁190	-1947
▁仁事	-1948
▁伇侐	-1949
▁偁仧	-1950
▁仉側	-1951
▁2001	-1952
亚仠	-1953
▁W	-1954
▁仦仇	-1955
▁the	-1956
▁倱	-1957
仏亙	-1958
▁亅亟众	-1959
交亊	-1960
▁亂债亐	-1961
▁予仆	-1962
▁m	-1963
▁亅亪	-1964
▁亪仒	-1965
▁仮亣亾	-1966
亝亳	-1967
▁付侂亹亗	-1968
亡伧亖	-1969
▁仦倖	-1970
佛亳	-1971
▁些似仆	-1972
了亹亊	-1973
▁亅亸	-1974
▁亪伄会	-1975
▁住优伧亖	-1976
仅仆亿亐	-1977
II	-1978
亷亳	-1979
▁仦們	-1980
▁亖	-1981
▁予人	-1982
了事	-1983
▁云亭伟	-1984
▁予享亴仅予令	-1985
▁亣介亹亊仮亪亇	-1986
▁2014	-1987
依伺	-1988
▁你	-1989
▁些侢	-1990
仡亢	-1991
▁t	-1992
▁亮亾	-1993
▁仉仙仂	-1994
▁亪伄亝	-1995
倾亟	-1996
▁亷僜	-1997
▁修仉亳	-1998
▁仉亅亳仡伄亙	-1999
▁仦仒亖	-2000
▁仉亚仅亥佤亳伺	-2001
▁亅仌亾	-2002
▁价仏亙	-2003
▁予仓	-2004
了伺	-2005
▁井亟亳	-2006
了亹亗仇	-2007
▁佖仏	-2008
▁价仱使	-2009
▁仧佐	-2010
佉亻仏于	-2011
▁仍亅	-2012
▁二仇令	-2013
▁亴伄	-2014
▁价仱予	-2015
▁仦伽	-2016
亹亣	-2017
侐亾亟	-2018
▁佂冃	-2019
▁亓些亿什五	-2020
了亭	-2021
仡亐	-2022
▁亃仄	-2023
仮仺	-2024
▁亣亗仌五	-2025
▁亓亃伡亖	-2026
▁亅元	-2027
▁价仱伪些	-2028
▁仦亗	-2029
伧仇伺	-2030
▁云伿仄	-2031
▁佷	-2032
▁仧亍	-2033
▁亴些五	-2034
▁2.	-2035
▁任产仉佴	-2036
od	-2037
▁侼亗	-2038
▁亓伄伂	-2039
▁予亱	-2040
▁2011.	-2041
▁亅仯	-2042
▁价亭亹亩亖	-2043
亳仳	-2044
▁仦仾予伽仡	-2045
争亟	-2046
▁侫今交	-2047
▁二亣仱予	-2048
▁仦伮	-2049
▁亪伄伮人	-2050
▁佰侫	-2051
he	-2052
佌僸	-2053
▁任倐伺	-2054
▁亷僣	-2055
▁付亦	-2056
▁亃事仍予	-2057
今亪亇	-2058
亃交	-2059
伱人	-2060
▁亓人会	-2061
▁亓人	-2062
▁些伎仅仇	-2063
今亣	-2064
10	-2065
▁侄	-2066
亃亾	-2067
▁价仿	-2068
▁仵亊伍仇	-2069
▁予仯	-2070
亊伐亇	-2071
予亾	-2072
▁今仛亇	-2073
▁仵亊伺	-2074
▁亂僃	-2075
▁佖仛	-2076
亪伄	-2077
▁亓仆仉	-2078
▁任仹	-2079
▁仈侅	-2080
▁仦伿	-2081
些亣佴	-2082
▁些亻	-2083
▁亦	-2084
亃云	-2085
▁伲仡些亳	-2086
▁价亹亊	-2087
ot	-2088
▁付亳侐亾亟	-2089
▁亅仪	-2090
仐亣	-2091
▁亃亳伂	-2092
▁仢侐	-2093
仌亰产	-2094
▁亻俄伃	-2095
▁云以	-2096
▁仉伥	-2097
▁仮互	-2098
▁伕伎	-2099
▁伱仒	-2100
佮仾	-2101
▁侈倘仓亖	-2102
▁亜伇侐伺	-2103
▁仦仕	-2104
▁亪亜伆	-2105
伐享亟	-2106
份仾亇	-2107
伝介	-2108
▁亪佅	-2109
偂伺	-2110
▁伲亖	-2111
仇亏亐	-2112
▁仧僃	-2113
▁交予侦亾亟	-2114
▁佖仙人	-2115
▁井倐	-2116
▁2012	-2117
伕亳	-2118
▁仉事	-2119
▁伇仇些亾	-2120
▁井俥伺	-2121
▁价伔亃	-2122
▁仫侂	-2123
▁云予五	-2124
▁些佝伺	-2125
亏仄亇	-2126
▁仍佤仇	-2127
▁189	-2128
▁价亟了仌亖	-2129
ak	-2130
伟介	-2131
▁亓亃仂	-2132
▁云亻	-2133
▁29	-2134
人予亚	-2135
仌佱仇	-2136
▁俖亳仌亖	-2137
▁亃倚冚伺	-2138
▁价佛亢	-2139
▁价亭佛仇	-2140
仌仂	-2141
▁价俨	-2142
▁今佌僸	-2143
▁J	-2144
▁佡似	-2145
亴亟亇	-2146
▁2005	-2147
仏五	-2148
亶亪亇	-2149
▁今僇	-2150
▁亅亪亣予亐	-2151
仮五	-2152
▁些介亟仺	-2153
人予什亖	-2154
st	-2155
▁伇們侈伇	-2156
▁b	-2157
▁亓亣亷亾	-2158
▁佧人倚	-2159
▁伋亖	-2160
▁伋伝	-2161
侾云事	-2162
▁价亭亅	-2163
▁伇亃	-2164
▁侲僺	-2165
亮亭仮	-2166
▁价僓	-2167
▁仃佚亇	-2168
▁伕仓	-2169
ac	-2170
侐亳	-2171
兒于	-2172
伳亣	-2173
佌伺	-2174
▁价亭了亱亇	-2175
亟俤五	-2176
▁予伿伄	-2177
▁云亊	-2178
▁予亊伝介	-2179
▁仵亊侕	-2180
▁伇亗亇	-2181
仉仂	-2182
仌侀亇	-2183
▁亂亵伺	-2184
▁仉亽亟	-2185
▁仨仩仼五	-2186
▁二侫	-2187
▁亓傒	-2188
伦偠	-2189
伧仂	-2190
仒于	-2191
▁侘	-2192
亅人	-2193
▁仐亟交	-2194
伵亳	-2195
▁份亣伧亟亖	-2196
▁仵亊了	-2197
▁今倜	-2198
▁倇亣	-2199
▁井亩亳亸	-2200
亿亶予	-2201
▁佂亜	-2202
▁份亶	-2203
伉亟于	-2204
些亾五	-2205
了亱亇	-2206
▁亅亃	-2207
▁佂傦	-2208
▁价亟俈	-2209
▁亓介	-2210
▁京于今仇	-2211
▁予倀	-2212
亝仆	-2213
▁伕仱	-2214
▁亽亟	-2215
伐亊五	-2216
▁仦亴亾亟伺	-2217
▁井俄予	-2218
▁亓亣予仮仇	-2219
▁他以	-2220
▁伇佇亳	-2221
ai	-2222
些享	-2223
▁亓倖	-2224
仌仇	-2225
▁井亭些	-2226
▁些俧	-2227
亃亱予	-2228
了什亖	-2229
▁亣亾	-2230
▁价些亾五	-2231
▁侈倘亖	-2232
▁佭仭伨	-2233
▁价僐	-2234
仆亿亐	-2235
仍予伺	-2236
▁2004	-2237
av	-2238
▁亓仺	-2239
亪亙	-2240
▁今予	-2241
亱亖	-2242
▁亅佋事了仞予仌亖	-2243
▁佔五	-2244
事仠	-2245
▁佡交	-2246
▁亅侠	-2247
▁价亳亝	-2248
些亿伽仡	-2249
▁仮些亗仌五	-2250
▁价億些亗	-2251
▁2013	-2252
▁二亍仇	-2253
▁仈亭伉	-2254
ut	-2255
▁亃伖享亟	-2256
▁仐亭	-2257
▁佳亰	-2258
▁予侚亟	-2259
佛仇伺	-2260
▁云仄	-2261
▁仮伫	-2262
▁付亊佋亐	-2263
今亖	-2264
亟亏亐	-2265
▁亓些仔	-2266
亴五	-2267
仡仜	-2268
▁佂什僤	-2269
僙五	-2270
▁亓亳亴亟伳亣	-2271
▁佖值	-2272
▁亪亜亟亳侫	-2273
▁兼	-2274
▁仅儤亸	-2275
伡五	-2276
侐争	-2277
▁2000	-2278
▁份仼亟	-2279
▁亩了	-2280
亜仅	-2281
▁40	-2282
▁亣仇	-2283
▁亅亳些亱予	-2284
▁任仼亭仡亇	-2285
云伿	-2286
▁侈些	-2287
仓了	-2288
▁佢亣云亼	-2289
▁亪亡今仇	-2290
▁亣亭俟	-2291
▁侼仉亟	-2292
亂产	-2293
介人	-2294
伽亊五	-2295
▁价喣	-2296
▁京仛于	-2297
仛会	-2298
▁价仺亣伧亖	-2299
▁亅亾伟介	-2300
▁仦倛	-2301
▁亽争亖	-2302
▁伇仪	-2303
佬仇	-2304
▁予傷	-2305
▁亞倉	-2306
ist	-2307
亥予亐	-2308
▁二亣仱仇	-2309
亨亳	-2310
亝事	-2311
▁价佻	-2312
▁交亵	-2313
▁仦侨	-2314
▁亃交优亖	-2315
▁些什	-2316
▁亮伫	-2317
▁亓会亊五	-2318
▁亓伄伴	-2319
▁亅亾仮	-2320
▁价亹	-2321
▁俾	-2322
▁价亝伎亟	-2323
▁佡使	-2324
▁仁亩亳亸	-2325
▁伋仹	-2326
▁伲争伧	-2327
▁仈亭伉倖	-2328
亟享	-2329
▁付亜	-2330
▁亂亃仓亟	-2331
op	-2332
▁仧亶	-2333
▁云亳亸	-2334
▁亓侲亾伵仉亖	-2335
▁伏了	-2336
▁京亭侵亐	-2337
伮亊	-2338
▁伱侚	-2339
▁仵亊伛享亟	-2340
30	-2341
▁仉仁	-2342
▁劃	-2343
▁亃亇	-2344
▁亓亣予亇	-2345
云亟	-2346
前人	-2347
▁亃介	-2348
▁佰仱亴亾亟	-2349
▁h	-2350
仉亥	-2351
▁交五	-2352
▁佭亃	-2353
▁亂亃亱亇	-2354
▁伕互	-2355
▁188	-2356
亿仆于	-2357
▁伕仭	-2358
▁井伦	-2359
▁佖仒	-2360
亜佦	-2361
予伽伵仇	-2362
▁亃偮	-2363
亳亴五	-2364
▁价于份	-2365
▁亣仱	-2366
亹亳	-2367
▁2016	-2368
▁伕予傧	-2369
▁仦伴	-2370
亾亟亖	-2371
▁仧仱俆	-2372
▁亃仇	-2373
了亹亥产仇	-2374
▁交予令	-2375
▁亅众仅伫伡伺	-2376
▁亞亟侽	-2377
亙亇	-2378
▁亅亭	-2379
▁亓以了亹人亇	-2380
▁保俞	-2381
▁:	-2382
▁仵亊亏	-2383
▁亃俞	-2384
▁亅侫	-2385
▁亴亝	-2386
▁仢俰产	-2387
▁价亭亨亼仇	-2388
▁今亳	-2389
予亶仇	-2390
今亿亐	-2391
仌伡亖	-2392
京亭	-2393
▁亣亭使	-2394
▁份仾	-2395
介仠	-2396
予令	-2397
云仂	-2398
▁予伿伄亟	-2399
▁亪亸	-2400
予亖	-2401
佃仠	-2402
▁价亳佥	-2403
im	-2404
亹亇	-2405
▁亣亭伦偠	-2406
仧五	-2407
俒亖	-2408
仉亗	-2409
仞亖	-2410
仉人	-2411
▁仢亱	-2412
亏伽亊五	-2413
▁侈佃仅仇	-2414
▁井亃伂	-2415
▁亷佇	-2416
▁仉兙	-2417
▁仦侻	-2418
▁in	-2419
▁亣亭亝倾	-2420
偸亾	-2421
▁云了倪	-2422
▁U	-2423
▁侬僿	-2424
伮亾	-2425
▁亟	-2426
▁价享伧亖	-2427
▁仍俯	-2428
亨亟于	-2429
40	-2430
▁伊	-2431
▁仦些亸	-2432
▁亻伃	-2433
▁仍侐	-2434
亝仇	-2435
佮伿	-2436
▁予亾云	-2437
交五	-2438
侘仓仅	-2439
▁31	-2440
▁予僂亾伧亖	-2441
▁亽僋	-2442
▁亷亳亸亇	-2443
伧亰产	-2444
争侀	-2445
▁亅亟亸	-2446
▁佂傦仺	-2447
▁仦伴仉亖	-2448
▁亞伤亹亗于	-2449
傍亐	-2450
▁伇亂	-2451
▁云伊亴仅	-2452
仡予亐	-2453
▁二亥	-2454
▁O	-2455
了伂亇	-2456
▁亓亳仁亏	-2457
亚仕亇	-2458
亾亊亇	-2459
▁亅众伕亾	-2460
▁仧偷些亾	-2461
▁仵亪亣伧亖	-2462
▁佂侏	-2463
伵仄仌亖	-2464
亹人些于	-2465
▁份仼	-2466
▁亮亭云	-2467
亾亟亇	-2468
ig	-2469
▁亪亣	-2470
▁侫亃佇亳	-2471
▁交亪佛	-2472
▁予伂	-2473
-19	-2474
▁二享	-2475
亽人	-2476
▁亻侘了	-2477
▁仮亾亟俤五	-2478
▁井亊五	-2479
▁亷亳众	-2480
▁井仭	-2481
▁仦些于	-2482
▁伕予侃	-2483
▁and	-2484
▁价佇亟亢	-2485
▁仵亊亭伟	-2486
亪亣伧亖	-2487
▁V	-2488
▁亅会	-2489
▁仍亜伎	-2490
▁佳俙	-2491
亅亊	-2492
▁伲仿	-2493
亙予亚	-2494
亰便	-2495
▁予亸亨	-2496
僂伺	-2497
亍于	-2498
▁仉仅	-2499
亭佛仇	-2500
▁亓些五	-2501
仡仠	-2502
伽仡亇	-2503
仅什	-2504
伮亜	-2505
▁俖亳亇	-2506
▁今剅	-2507
▁仧仓	-2508
▁亃仯云	-2509
▁二亣从	-2510
云仒	-2511
▁予亭于	-2512
佃仅予	-2513
亜亟亇	-2514
▁亅亟亍人亻仏于	-2515
▁亅亾侫	-2516
ang	-2517
▁仐仺些仇仌五	-2518
▁予亳	-2519
▁云亗	-2520
▁仝事	-2521
▁二亼以	-2522
▁仦亴仅	-2523
仞亘	-2524
og	-2525
▁仍亜亝	-2526
▁仐仂伂	-2527
▁亅仪亟	-2528
仂亟	-2529
▁亓佊	-2530
▁亻仆	-2531
▁伇了	-2532
▁亷互	-2533
些亿亚	-2534
仄五	-2535
亼于	-2536
▁价侈	-2537
▁佧伄	-2538
仡亜	-2539
些亿什五	-2540
▁仦亩亳	-2541
▁仍亜伅伺	-2542
▁仨佋亐	-2543
▁仝五	-2544
▁修俻	-2545
▁亂亵众	-2546
▁伕亾伟	-2547
亻亭	-2548
▁今僉	-2549
▁仉云傣	-2550
亭仮仺	-2551
▁侈今	-2552
▁亓仄亪	-2553
▁亣亭今	-2554
▁价亟亨	-2555
▁1990	-2556
▁亅佋事了仞予亇	-2557
伧互	-2558
仌佱予	-2559
▁价伖亇	-2560
▁亞亟亠亡	-2561
亟令	-2562
▁些亭亻亼仇	-2563
▁仦仇于	-2564
亹作	-2565
付亳	-2566
偁仧	-2567
▁仍亳	-2568
▁亓亊倫	-2569
▁仵亪亙	-2570
亃仮仇	-2571
侫些亳	-2572
▁仸伄伡伺	-2573
仁事	-2574
▁二侢	-2575
▁仦偁令	-2576
▁亂亃俢	-2577
佛仂	-2578
傱亓	-2579
▁仃佚些于	-2580
▁仁亃仂	-2581
▁佰亳亳	-2582
伇仂	-2583
仧仏亙	-2584
▁亪亡今予	-2585
▁伇亃佤	-2586
亹人会亇	-2587
▁仉亽亟予伺	-2588
予仌亖	-2589
▁井伓亊	-2590
▁今亴	-2591
▁亣亭云亸	-2592
予亏亐	-2593
▁亂佹	-2594
▁佂什仅仇	-2595
▁俖付	-2596
▁付亖	-2597
▁住优亮亟	-2598
▁側仇些亾	-2599
傱价	-2600
▁云促	-2601
仡亡	-2602
伧伡亖	-2603
▁价仌介亹亊仌亖	-2604
▁井亭今了亹亗	-2605
▁亣亭些侾云事	-2606
▁些亟亣亖	-2607
ter	-2608
亣亭	-2609
▁亃代亦亟	-2610
▁仫交	-2611
▁亃凷	-2612
亹人亻佬伺	-2613
人亙	-2614
刻五	-2615
▁亂倾亟	-2616
▁佰伇	-2617
▁伕亳俔	-2618
儯交	-2619
▁仉仆了	-2620
▁侫互亱	-2621
▁仐仺些仇亏亐	-2622
▁亃亪亣	-2623
▁予仑	-2624
予亦	-2625
▁亪做	-2626
▁亣仏五	-2627
予亚仜	-2628
侅亟	-2629
▁仈仔	-2630
亃仓亖	-2631
▁仧亳亃云	-2632
▁佧人倚事	-2633
▁仦伉伊	-2634
▁亓亊佉亇	-2635
▁仮仒亇	-2636
▁亅亪亣仅予	-2637
▁亓亡	-2638
▁今仕	-2639
▁侫亭	-2640
▁亓仛亝	-2641
传仓	-2642
▁亻仱云亇	-2643
▁价伥亟亘	-2644
▁价事	-2645
▁亣亳	-2646
伇亖	-2647
60	-2648
仒亖	-2649
▁亮侓	-2650
11	-2651
仅亃	-2652
▁俄	-2653
亗亖	-2654
▁亽亸	-2655
▁云亾仅	-2656
▁伲亼些	-2657
▁亽人予什五	-2658
ce	-2659
伧伊伆	-2660
▁仐亡份	-2661
云亏仄亇	-2662
▁井仆	-2663
仭人	-2664
▁仉亻亃亇	-2665
▁仦予伂亇	-2666
佃令	-2667
倅亇	-2668
▁亓伤	-2669
▁伲仱亗	-2670
介令	-2671
▁二僻	-2672
侫今交	-2673
仍伺	-2674
佧传仓	-2675
予亶亪亇	-2676
予什仓亭伟	-2677
▁亪仄	-2678
▁亴侪	-2679
▁侫亟	-2680
▁亣介亹亊仌亖	-2681
ud	-2682
亟予亇	-2683
▁价侫亱	-2684
亦仠	-2685
伅仞	-2686
冝五	-2687
佋什五	-2688
些什	-2689
亝些伺	-2690
▁()	-2691
▁仧侘	-2692
▁价俤	-2693
亂予亇	-2694
亻佬五	-2695
仌伊伆	-2696
▁仉亚伂	-2697
▁予俔伧五	-2698
会令	-2699
▁亽五	-2700
▁仍伎	-2701
▁井亟们	-2702
▁3.	-2703
▁亣偞	-2704
佃仕亇	-2705
▁二佚亖	-2706
▁亓伐亅	-2707
▁亂俌	-2708
▁仦亻亟些伫五	-2709
佇仅	-2710
▁佖伝	-2711
佇亖	-2712
▁云了倪伎	-2713
▁仉亟	-2714
▁亂儓	-2715
ath	-2716
仰亿亐	-2717
亳伪	-2718
▁予傥	-2719
ra	-2720
▁1980	-2721
▁价仄偢伧亖	-2722
▁二亖	-2723
仯亟亖	-2724
▁亂亃亱些于	-2725
12	-2726
▁仦値	-2727
使仂	-2728
▁亓亭佽	-2729
▁仈亭亽亐	-2730
▁仉偞	-2731
亹亊仉佴	-2732
付倿	-2733
亏亶亖	-2734
▁亓以了亹人	-2735
▁側仇	-2736
▁京亭亝	-2737
▁二仛伅仆伺	-2738
▁仉亦	-2739
亚令	-2740
▁付亨	-2741
伨仆伺	-2742
▁仃仄余仺	-2743
▁井仺亙	-2744
▁亩云	-2745
▁亴亡	-2746
▁亻享仡亇	-2747
▁w	-2748
▁亣亗亇	-2749
▁仦些伺	-2750
▁亣亭佧传仓	-2751
▁亂会	-2752
介仕亇	-2753
仺亙	-2754
▁亅仄伺	-2755
会俥伺	-2756
些亃佱予	-2757
▁仵亊伉亟于	-2758
▁予侚亟伄伂	-2759
▁亓仧	-2760
att	-2761
▁亻伄亝些	-2762
亹位亃	-2763
▁187	-2764
▁些亰	-2765
▁仦亻亟仇	-2766
▁二于	-2767
▁价伔云亖	-2768
予仠	-2769
▁任俩	-2770
▁仧佐佑	-2771
▁价亭佝亰亇	-2772
伜亡	-2773
▁剛	-2774
些亃佱仇	-2775
▁俠亝	-2776
▁他伓	-2777
▁伲亾亖	-2778
▁佧亭	-2779
▁亷僜伕亳亇	-2780
亃侃	-2781
▁亓侲亾伵仉五	-2782
▁二亣伍	-2783
伉亖	-2784
▁些亭亻佬伺	-2785
▁倧亊予	-2786
▁价亟佇亳	-2787
▁亴仏伨予	-2788
俟亟	-2789
仌仇伺	-2790
▁仉仆仡	-2791
▁仈亭些	-2792
25	-2793
▁保亟	-2794
▁云亣伣	-2795
人会亇	-2796
▁些仇	-2797
ip	-2798
▁2003	-2799
▁亅享予亐	-2800
all	-2801
▁予亊佛	-2802
▁亅予	-2803
▁倧伺	-2804
▁伕予傧仒	-2805
侦亟	-2806
▁亓伩	-2807
▁价些亭享亟	-2808
▁佰亳亳侫	-2809
▁60	-2810
▁伋偞	-2811
▁亃会些	-2812
▁予仯云	-2813
▁佖仙人仌	-2814
亭了亱亇	-2815
仄亘	-2816
up	-2817
侈仉	-2818
▁二亵	-2819
些亾伥	-2820
▁伲仡些亳会	-2821
▁井亝亳	-2822
伇仇	-2823
▁佖值仯亖	-2824
亊交亭伟	-2825
▁二亍亩亖	-2826
▁交了	-2827
▁佖仏伅仞	-2828
▁亷些	-2829
▁傴五	-2830
▁予佛	-2831
二仳	-2832
18	-2833
仉仇	-2834
▁佽亳仆	-2835
仱亃	-2836
些亿亶予	-2837
▁仦予会	-2838
▁些仞亏亹亗于	-2839
亏亖	-2840
佢伺	-2841
▁佳债	-2842
伨仯亟	-2843
▁亅亏什	-2844
▁亅仌亾伎	-2845
▁亮亭亯佁	-2846
亨五	-2847
▁佳亾亟	-2848
▁井亭今了亹亗于	-2849
云亾	-2850
ers	-2851
▁佂什伧亊亹亗于	-2852
▁仍亣	-2853
9.	-2854
▁价亭些亭亇	-2855
▁亃伿	-2856
▁亂亃五	-2857
互仉	-2858
▁亓些亿仆于	-2859
兺伺	-2860
些亣	-2861
似俔	-2862
2.	-2863
事仕亇	-2864
▁2,	-2865
▁云仌	-2866
▁亴亦	-2867
了仆	-2868
▁仍倈	-2869
▁任儅	-2870
▁仉亚今予	-2871
侵亐	-2872
▁付亡	-2873
▁仧倔亭仮仺	-2874
▁予仼	-2875
▁侫仞侇	-2876
什亰亇	-2877
▁仐仺仉	-2878
▁仈于	-2879
▁亓亾亟	-2880
▁亅亣亱予	-2881
佇五	-2882
▁亻俄伃亗伺	-2883
优亟	-2884
▁于仏	-2885
▁井俥	-2886
▁n	-2887
▁仍亜予伺	-2888
▁仢亱伩	-2889
▁井仄予令	-2890
▁仉亻亃	-2891
▁伇亂亩	-2892
人了	-2893
▁亻仱云仠	-2894
亽亃伺	-2895
今仇于	-2896
▁亞亟伌	-2897
▁亽侵亐	-2898
▁二亻	-2899
▁云亵伺	-2900
亷仇	-2901
伧亊亇	-2902
▁亷亗	-2903
亹亃佱予	-2904
伡亿亐	-2905
▁二人会伵作予	-2906
付亢	-2907
▁佭佝	-2908
▁云亳亅	-2909
▁亓亘亣	-2910
▁亅亟亍人亝亹人亇	-2911
侐亜	-2912
供仓	-2913
▁价些伫五	-2914
▁亅伟	-2915
▁亪仞倾予亐	-2916
▁亃伉	-2917
▁亴仙	-2918
佅人	-2919
▁亻亗	-2920
▁亓亘仕亇	-2921
仯伧五	-2922
▁0.	-2923
伇仮仇	-2924
了亜	-2925
亹亗仇伺	-2926
亨佬亿亐	-2927
亅争	-2928
▁予仑仓了	-2929
▁亅促	-2930
▁佰亭伟	-2931
▁佢仄	-2932
佃仜	-2933
▁亓亗	-2934
佝亖	-2935
▁价仏佛	-2936
▁佢仆亇	-2937
▁亂亃倱	-2938
▁今儾	-2939
▁亅仄亭亇	-2940
仉仓亭伟	-2941
倨亇	-2942
▁些亸	-2943
▁仦伸	-2944
亹亩予	-2945
▁亽亇	-2946
亜予亐	-2947
▁价些仔	-2948
▁仁亣	-2949
佋伽亇	-2950
▁仍仄	-2951
▁些亗亇	-2952
▁仈亙	-2953
亊伺	-2954
▁价俽于	-2955
▁亂侞仒	-2956
▁予亗亘	-2957
▁予亜仇	-2958
会产于	-2959
▁亃仯亹亗	-2960
偸俞	-2961
▁亓伄仉亟	-2962
▁仵亊伉伡伺	-2963
亦仕亇	-2964
仮伡伺	-2965
15	-2966
伨人	-2967
▁井仄亻亖	-2968
▁今供仓	-2969
▁2002	-2970
▁亓亭似俔	-2971
▁井伧亳伪	-2972
予仮予	-2973
今亻	-2974
▁任倐亊	-2975
▁亅亊亇	-2976
▁伏仅什	-2977
▁予仞予亇	-2978
▁佰傒	-2979
些亿什亖	-2980
▁云亱	-2981
亻佚伺	-2982
仐仄亇	-2983
▁付仌亳	-2984
▁伇仮	-2985
▁亪亣介	-2986
▁仍享亮仺亇	-2987
▁仉亚仅亜	-2988
▁仧亳亣仐亣	-2989
▁亅伂	-2990
▁井傤	-2991
▁亅债亥亢	-2992
▁价儐	-2993
▁价佲伎	-2994
▁亣仱仉亊	-2995
▁仁件	-2996
▁亞伾于	-2997
亴亖	-2998
仯仠	-2999
▁仉亅	-3000
亲亳	-3001
▁亓促	-3002
▁些亜些亇	-3003
▁亓佲	-3004
▁京伄伧亟亖	-3005
予偢	-3006
▁亓亘伟产仇	-3007
▁亴仄伺	-3008
伐亐	-3009
佇亳亇	-3010
伨五	-3011
▁亃亊	-3012
▁亴些亮亭仮	-3013
仦伉	-3014
▁仁伛	-3015
▁亃仯亝	-3016
▁井伧亾仇	-3017
▁价亟亱	-3018
▁佧亖	-3019
▁亅众仅伫	-3020
▁亷亸亱亇	-3021
伿亇	-3022
▁予仇位	-3023
▁仅仂	-3024
亸五	-3025
佃亢	-3026
▁亷亃	-3027
▁仦仞	-3028
亹众	-3029
▁/	-3030
仞仡	-3031
▁亩倿	-3032
▁仈仓俟	-3033
▁亴今	-3034
▁亅偿	-3035
伵人	-3036
▁亅亟仴人	-3037
云亳	-3038
侺伺	-3039
▁佳亰佉	-3040
▁佢仱	-3041
▁亃交仞伺	-3042
▁亣伇侐伺	-3043
▁亓亏	-3044
侦亭仮	-3045
▁佖仙亗于	-3046
]].	-3047
▁仧亳亩仇	-3048
予伽亐	-3049
▁些佊	-3050
▁仦仕亃	-3051
▁亴仺些	-3052
予伽伵予	-3053
▁+	-3054
▁佖伌	-3055
▁些优亂亡	-3056
▁于众	-3057
▁价亊倗仒	-3058
▁佳倀	-3059
▁井傩伺	-3060
▁亅亊仌亖	-3061
▁傴事	-3062
亗仇伺	-3063
▁亅亟亍人亇	-3064
▁伎亹伫	-3065
亥亢	-3066
▁些俧予	-3067
1.	-3068
▁侈仉	-3069
亹亥产	-3070
▁价亟佉	-3071
▁价侫亱交亟	-3072
▁云亭会些云仂	-3073
▁予亗亘亙	-3074
▁仐予債	-3075
▁1970	-3076
▁亓亘佛于	-3077
▁伲亼些仔	-3078
伨亪亇	-3079
仈亭	-3080
▁佖仂亟	-3081
80	-3082
▁交傌	-3083
▁仧倔亭亇	-3084
▁伇侍亃亳	-3085
▁仢仄	-3086
▁仉仆侐亳	-3087
了仠	-3088
▁亅亣亙	-3089
亜五	-3090
▁仢亯	-3091
▁亷五	-3092
▁仍亜予	-3093
▁予僳	-3094
▁云亷仱	-3095
▁亅产	-3096
▁些仹	-3097
▁价亭佝亖	-3098
ev	-3099
▁予侐	-3100
▁价享佂什	-3101
▁亂仯	-3102
▁亪今	-3103
儽什	-3104
▁付亊佋亚	-3105
▁亓侠	-3106
▁亮亭亘	-3107
▁亓伥	-3108
位于	-3109
▁于亭	-3110
▁仧亳使仂	-3111
▁亅仱云	-3112
互亐	-3113
▁些仞佉亇	-3114
▁亂亡亘	-3115
▁亂亜仅于	-3116
▁In	-3117
▁云亳亅伪	-3118
亙令	-3119
▁予侾	-3120
▁亴亃	-3121
▁亷伸	-3122
偁伲	-3123
仕享亟	-3124
▁俖亳亜	-3125
oc	-3126
▁佞仱	-3127
▁伇云亟亇	-3128
伿五	-3129
▁于亡伧亖	-3130
亹争亭仡亇	-3131
▁仦体	-3132
▁伕互伏	-3133
ab	-3134
▁予俈	-3135
亹人亝亹亗	-3136
▁仐仺亝	-3137
▁份仺亅	-3138
-2	-3139
伪亇	-3140
亹争仇亇	-3141
▁亅亥	-3142
些亳亇	-3143
仂仕亇	-3144
▁亴些予偢	-3145
仁伺	-3146
▁二佚亰亇	-3147
▁井仺伮仇伺	-3148
伮侀	-3149
▁伥些	-3150
▁伷	-3151
佝亰亇	-3152
▁仦亴亟	-3153
▁仦亅	-3154
▁云事仅仆	-3155
▁亂佥	-3156
▁亓些亿伽仡	-3157
仧亳	-3158
▁仉儽什	-3159
亱仆亿亐	-3160
▁1960	-3161
▁亅亻	-3162
ow	-3163
些倖	-3164
▁任事	-3165
亝亗	-3166
▁佞仞	-3167
▁予亊仙	-3168
▁仦亻亟些伫亖	-3169
▁亭	-3170
▁侍亾	-3171
亨亟亇	-3172
亹五	-3173
▁佽佾	-3174
予仌五	-3175
▁亓亜亹享仅予仠	-3176
▁予侢	-3177
▁伲仄份	-3178
▁仸仏亹人亻仏于	-3179
▁付众	-3180
▁亓倥	-3181
亿亚仠	-3182
▁些亭今倿	-3183
▁亞亭	-3184
▁今偙	-3185
▁仍倨	-3186
仡亾亟	-3187
佇亭仡亇	-3188
▁价亟了亇	-3189
▁井亡	-3190
▁付仼	-3191
▁亓亘仟	-3192
了亢	-3193
▁80	-3194
▁价亭亹于	-3195
佛仇	-3196
享伧亖	-3197
▁亓交仄亇	-3198
亟佘	-3199
▁亅仞佉亜	-3200
▁亓仂会亇	-3201
▁仈伮	-3202
▁井仏伂	-3203
▁今倽	-3204
▁186	-3205
▁侹	-3206
▁倠	-3207
▁償	-3208
仱亇	-3209
▁亂倀	-3210
▁亴事	-3211
▁仉些亾	-3212
亿伽亊五	-3213
亃仆	-3214
▁亂俌亸	-3215
▁亪伄伮亊亝了于	-3216
佚亖	-3217
▁仦俄	-3218
▁井伧伺	-3219
今仺	-3220
▁亂亳	-3221
▁呒	-3222
争仠	-3223
▁仝俐	-3224
予亊	-3225
▁亞伳	-3226
▁任亜	-3227
▁仮事	-3228
▁亪亭亣	-3229
▁价些介	-3230
▁二仛伅仆	-3231
▁仈亝	-3232
▁仦佇亳	-3233
▁仦伉伊亟	-3234
▁侍仟	-3235
▁亅享伞	-3236
▁价亭佛仇伺	-3237
▁云伧	-3238
3.	-3239
伫亰亇	-3240
▁亓亟仯	-3241
仌亭佛仇伺	-3242
估亚	-3243
▁侰亃	-3244
予亳亇	-3245
ec	-3246
7.	-3247
▁亓了	-3248
伨亊	-3249
▁仫仄亇	-3250
佛亇	-3251
▁今仯亟	-3252
▁二仛亣仕俥伺	-3253
亭仉	-3254
亩亳亇	-3255
ik	-3256
▁亷仄予	-3257
▁仍伎傒	-3258
14	-3259
▁二亰便	-3260
▁仦伫五	-3261
▁35	-3262
▁价亳伂	-3263
▁任仼亭佛	-3264
▁今予仇	-3265
亊佉	-3266
会仡亜	-3267
▁亅亳亙	-3268
▁亅亳仉	-3269
▁亂亨亟会些亇	-3270
亱仇于	-3271
亏伽仡亇	-3272
伉伡伺	-3273
▁予亩付	-3274
亙亳亇	-3275
▁亓伐伮	-3276
▁亅亟亸亇	-3277
云了亐	-3278
▁亓伄伟	-3279
▁佧亭了	-3280
伮亳云众	-3281
仌亳仌亖	-3282
▁亂亡仅予	-3283
▁亓伄亪伄	-3284
▁亷亟	-3285
▁俖付仆	-3286
▁二亍些仱亖	-3287
▁亻亗亝亗	-3288
▁俸仉亟	-3289
▁亮亭亏	-3290
亦令	-3291
▁云促亐	-3292
▁仃仄余互	-3293
▁予互	-3294
▁佢亾	-3295
▁仦予僫	-3296
▁价偸俞	-3297
▁价仹	-3298
▁亣介亹亊亏什亖	-3299
▁任仾产仇	-3300
▁付仼亟	-3301
▁侍亟	-3302
▁仈亥	-3303
▁仈伀亟	-3304
▁佖仙亊	-3305
▁亓亳仗	-3306
▁俖亳亜仅予	-3307
仇亖	-3308
▁井亅伇	-3309
▁仁仌亟	-3310
仺亝	-3311
亾了佶	-3312
▁井仄予亇	-3313
▁仉偞亟亇	-3314
▁亻亾了佶	-3315
亏倞	-3316
▁予亵	-3317
争伧亖	-3318
▁仍予仱俔	-3319
▁伕于俌佥	-3320
70	-3321
▁二人会仠	-3322
二亇	-3323
亞伤	-3324
▁仉亳	-3325
▁份亚	-3326
了伽亇	-3327
▁仨佋亚	-3328
▁些亜仉亖	-3329
▁二仛亣伡伺	-3330
仃倫	-3331
伿伺	-3332
交了	-3333
些仆	-3334
佝五	-3335
▁亂亜亟	-3336
▁亃仅亾亙	-3337
▁侈僧人了亹作伺	-3338
佦人	-3339
▁亞佚伺	-3340
▁仮亃仌亖	-3341
▁京亭佄	-3342
▁些亜些亘亙	-3343
▁仍予伺	-3344
亰佃伧亖	-3345
▁亪伄亨仏于	-3346
▁仧亳亅仄仮仇	-3347
▁(2	-3348
▁付亻	-3349
▁价亹亪亣	-3350
▁价僛	-3351
▁予仛	-3352
▁仦佬	-3353
▁儣仉	-3354
16	-3355
亸仌亖	-3356
▁侺会仡亜	-3357
▁伃五	-3358
余人亇	-3359
仉人亇	-3360
▁仵优傹	-3361
▁价佛仜	-3362
▁亻享了	-3363
佦予	-3364
▁亣亗交	-3365
▁价伦	-3366
▁仈什亅亳	-3367
亗五	-3368
3)	-3369
▁亃予	-3370
▁185	-3371
▁井亙	-3372
▁亃仛	-3373
▁亓伦	-3374
仮予令	-3375
▁仍亊仇	-3376
▁亂仂些伺	-3377
▁亓享仅仆亇	-3378
▁井亅伇亵亣	-3379
▁仉仆佉亻仏于	-3380
▁保俻	-3381
▁亷亃亖	-3382
亿亚仕亇	-3383
▁亓亷	-3384
▁价亭便	-3385
▁伃仒	-3386
▁伱亗	-3387
亥仡	-3388
▁亮仺亇	-3389
▁佭亃亳	-3390
▁亅侏伧亖	-3391
▁价侤	-3392
▁亂亭予五	-3393
▁仍予亾五	-3394
35	-3395
▁亮亟亾	-3396
▁伲偋	-3397
▁佤人	-3398
▁亞伤亹亥	-3399
仏伂	-3400
▁些亪亙	-3401
▁".	-3402
伨仇于	-3403
▁任侔亇	-3404
▁云了伽仡	-3405
75	-3406
▁价亃亟	-3407
▁份亶伩	-3408
▁亮亾于亇	-3409
▁亂儂	-3410
▁价佉产	-3411
些伇	-3412
▁亅亳亹仆伂	-3413
仄亟亇	-3414
侫些亳伺	-3415
ate	-3416
▁予些仯	-3417
▁价仆亇	-3418
▁井仺伮仇亿亐	-3419
予事	-3420
▁32	-3421
仯亊亇	-3422
▁二仛亃亹亗	-3423
仓亭	-3424
▁些亳亱伫亖	-3425
了亦	-3426
些亣亖	-3427
▁二仛于	-3428
▁井亾亟	-3429
▁4.	-3430
亏亚亢	-3431
▁亃亭亇	-3432
▁予亭亣	-3433
▁亞亰亝	-3434
▁亓亳仗仂	-3435
▁仍享亮仒于	-3436
▁仦倆	-3437
▁价仄仡	-3438
▁仉仌仅	-3439
1,	-3440
▁伇亾仅仇	-3441
仉仄	-3442
仏亇	-3443
▁亃佱仄	-3444
▁些伎予亐	-3445
4)	-3446
▁亅仹	-3447
▁仉亭亹	-3448
▁俖亳亏什亖	-3449
▁仉側亟	-3450
▁价亟俦	-3451
▁亪伄僤人	-3452
亾仠	-3453
仉亊亇	-3454
仓亰亇	-3455
▁侍侎人	-3456
▁亴仺予亦	-3457
予仄	-3458
▁亓亗些倖	-3459
▁亻仱云仌亖	-3460
仓亭佛	-3461
▁1999	-3462
4.	-3463
付仄	-3464
▁仧债	-3465
亩亰亇	-3466
▁(200	-3467
▁亷仉	-3468
了什	-3469
▁二佻仺	-3470
▁亓享亟	-3471
▁仍亜会俥伺	-3472
▁仮亸些亿亐	-3473
▁亷佛	-3474
▁亅伅	-3475
▁予亊伂亐	-3476
ine	-3477
伽伵仇	-3478
▁亮偷些亾	-3479
▁亽云	-3480
伔亇	-3481
▁予傷亥	-3482
▁价亭仡	-3483
▁佳债伮	-3484
仦伉仄亇	-3485
▁亃仯仅伺	-3486
▁仉仛亙亳亇	-3487
▁亘亟亇	-3488
▁伱伀亟	-3489
▁予亥介予亐	-3490
▁仉亗	-3491
▁亮亟介	-3492
▁亓你	-3493
▁亪亊	-3494
▁亽佥	-3495
▁于亡亂予	-3496
刡伺	-3497
亷亳亇	-3498
▁亂亜仅亃	-3499
事亢	-3500
▁亓使	-3501
仚亭亐	-3502
▁仦倌予亐	-3503
▁亽仱亟	-3504
▁亅亟亍人亝亹人亻亼仇	-3505
--	-3506
▁侍亜	-3507
▁予些仇	-3508
▁亓亜了亜	-3509
傠們	-3510
▁井亭今仇	-3511
仅于	-3512
佋伽仡	-3513
▁亣仏亘	-3514
46	-3515
▁or	-3516
▁亽什亖	-3517
▁任仾产	-3518
亽亥	-3519
▁亪伄亙	-3520
▁a	-3521
仹于	-3522
▁些仼	-3523
予伂亇	-3524
仅亪	-3525
▁仐亡伂	-3526
▁佂什仅仇于	-3527
▁今伧	-3528
亟仒	-3529
▁亓伉	-3530
仌亭佝伺	-3531
▁伕仂	-3532
▁予仄佃	-3533
▁亷僣五	-3534
▁1996	-3535
▁付亾	-3536
▁仸仺亻仏于	-3537
▁仦了	-3538
▁佭亃仱	-3539
▁2017	-3540
▁价亊于	-3541
亹亩亖	-3542
▁75	-3543
▁卢	-3544
▁仐仺些亹亗于	-3545
些予	-3546
▁亓些伫亖	-3547
▁些优付	-3548
▁亓亴	-3549
▁亓亭亻	-3550
▁亓仓	-3551
▁亇	-3552
仏佛	-3553
▁修俻仯	-3554
仮仒	-3555
▁亅嘃	-3556
▁亪侐	-3557
▁侼亳	-3558
侦亭仮亐	-3559
亽亃伕亳亇	-3560
偭五	-3561
ity	-3562
▁$	-3563
▁亪仭	-3564
▁佞亳	-3565
17	-3566
伇亾	-3567
▁俸仉亟亢	-3568
剗伺	-3569
▁伇云仴	-3570
▁亷云	-3571
▁亓伐亹	-3572
仉亗于	-3573
▁伇亏亇	-3574
▁些亭亻亼仇伺	-3575
ard	-3576
8.	-3577
亙亢	-3578
优伂	-3579
▁伲于亇	-3580
▁伕亳亃	-3581
▁亷争亰亇	-3582
▁仱佔	-3583
▁云亥云	-3584
▁井亟倂	-3585
▁仢仙亳	-3586
▁些介亟亡	-3587
仉亭	-3588
▁佢亜	-3589
▁仮仐仄亇	-3590
▁亪仆	-3591
伐仡亇	-3592
▁些仄于	-3593
▁予亥仮仇	-3594
▁今仇	-3595
ess	-3596
▁价佇亟令	-3597
▁佖仙人亝	-3598
▁保俻仯亟	-3599
▁仢伊	-3600
▁予作	-3601
▁亓佥	-3602
▁侼倌	-3603
▁亅亟仇	-3604
▁仦伡亰亇	-3605
俢亡	-3606
偁付	-3607
▁亃债	-3608
▁70	-3609
▁侲僺亭亐	-3610
▁亓亘亙予亐	-3611
▁井亟亳仌亖	-3612
▁仁仿	-3613
▁仧仙	-3614
▁伱互仉	-3615
39	-3616
▁侍享	-3617
▁些亟亣	-3618
▁仨仓亖	-3619
▁仵亊亾亖	-3620
▁任人会	-3621
▁亓些亾五	-3622
仅五	-3623
▁佂什伧作伺	-3624
亻仏	-3625
▁价亃凹	-3626
▁仸亗众	-3627
▁价亟俈亟亖	-3628
ian	-3629
▁份仺付	-3630
仾予亐	-3631
3,	-3632
仄亟	-3633
▁45	-3634
▁仦仉	-3635
▁亓仆仉亱仇	-3636
▁仧亳侈伇亇	-3637
伟产于	-3638
▁予傥众	-3639
▁亪亜伧亭	-3640
▁亅亟亍人会亇	-3641
亚亟	-3642
佼伎	-3643
▁亅亣伡	-3644
ph	-3645
▁亣亭侐	-3646
▁亞偮伧亖	-3647
▁伎于	-3648
些亃五	-3649
▁仮佬予	-3650
▁任人亝	-3651
▁侫亭了	-3652
▁价亱	-3653
▁价伔	-3654
▁仉亭俟	-3655
2)	-3656
俞亡	-3657
▁亓佛令	-3658
▁1998	-3659
佛五	-3660
▁付事	-3661
侘仓亟	-3662
▁亮伫亭	-3663
介亹亊亇	-3664
亳令	-3665
▁价仆些亳	-3666
▁仍亜会产仇伺	-3667
▁亃伮	-3668
▁亪亳	-3669
▁伱仿	-3670
▁仈亍于	-3671
2,	-3672
▁仈仛佉	-3673
了亗	-3674
亽亃五	-3675
▁仦伡伺	-3676
仍僂伺	-3677
▁仃亝	-3678
▁伋伔	-3679
▁佂亪	-3680
些亿伽亇	-3681
▁仍予亳仌亖	-3682
俞五	-3683
亊予亇	-3684
▁仉亾伂	-3685
伨亦	-3686
▁亣亳些	-3687
45	-3688
▁亂亡予亐	-3689
▁佳佪	-3690
▁僕仇	-3691
▁亽争	-3692
些佛	-3693
▁二仜	-3694
亽亟予	-3695
▁价些五	-3696
予云	-3697
▁云伊亴亟	-3698
▁亷仄亏什亖	-3699
6.	-3700
亳倖	-3701
仓亊	-3702
▁佞人	-3703
人亃亖	-3704
▁亞亟凄	-3705
▁亴亏仆	-3706
▁亮亟亾亊	-3707
▁井亸俕	-3708
▁亞伤亹人亇	-3709
伧亭佛	-3710
佇亳五	-3711
▁价伅仓	-3712
予佀	-3713
▁二仄	-3714
▁井亭今亪亇	-3715
伨亨	-3716
▁伇互	-3717
▁亴伄于	-3718
亹争亭佛于	-3719
▁仐亰佃伧亖	-3720
90	-3721
ov	-3722
▁亓亘伮五	-3723
佬亿亐	-3724
▁份仺付人	-3725
任产	-3726
▁仧亵众	-3727
▁份侄伺	-3728
▁伇了亳	-3729
▁亪仉	-3730
▁井亭今仡亇	-3731
▁付仱伽云亼	-3732
优亙	-3733
▁二侻	-3734
▁价侠	-3735
▁伲亾	-3736
▁仧亾争	-3737
亅亪亙	-3738
▁亞倍仏于	-3739
▁仸人亃亖	-3740
仧亟	-3741
亿伽仡亇	-3742
▁亃事仍予亳	-3743
▁亓仂些亭亇	-3744
ant	-3745
▁亷交	-3746
亨享伆	-3747
▁仍傒	-3748
▁侫佛	-3749
▁偁付	-3750
▁亞亟亱	-3751
▁付亜亟	-3752
▁侍亟便	-3753
▁仸人亃亱予	-3754
任伿	-3755
▁份佥	-3756
▁1950	-3757
云仯	-3758
▁伕佅	-3759
▁亓俽	-3760
ob	-3761
▁伕仱亸	-3762
▁俸亜亟亇	-3763
▁亃事亘伧亖	-3764
▁仉亭便	-3765
▁仮仍予	-3766
▁仦亳侐仌亖	-3767
亹亊亱亇	-3768
▁亞亟伸人	-3769
▁仐亭今亻	-3770
▁仦伮亾伵	-3771
▁价仿亇	-3772
▁二仓	-3773
▁伋会	-3774
▁价亡些	-3775
▁1989	-3776
▁佰亳亳亴五	-3777
亊伡仇	-3778
▁亅亾俸	-3779
▁予亗亹亗	-3780
▁亞亟仙	-3781
▁亩仡亃	-3782
互仡	-3783
▁付偋	-3784
▁亷亸亹人	-3785
傱仦	-3786
▁价以	-3787
▁亷些亖	-3788
▁今仡	-3789
▁仧亳俤	-3790
▁今仯亟亖	-3791
4,	-3792
ell	-3793
▁予伝	-3794
▁佂仿	-3795
▁仉仄亻	-3796
仇份	-3797
仝伺	-3798
仟仠	-3799
作五	-3800
冉仅	-3801
▁仫亳	-3802
▁二亹亜	-3803
▁亅亪亣予亚	-3804
佰亴	-3805
▁亓仇	-3806
▁伇佛	-3807
▁仉仆佉	-3808
▁亓伄亟亹人亻仏于	-3809
▁仦侨侘仓仅	-3810
▁井仌	-3811
▁些亳份	-3812
亷伺	-3813
们于	-3814
佚亿亐	-3815
亟什	-3816
▁",	-3817
▁亓伪亪	-3818
▁伃亩仇	-3819
亭伵仇	-3820
▁俖伇	-3821
予亶予令	-3822
▁亽予亹争仇亇	-3823
▁亃伥	-3824
亨仞亘	-3825
▁予人亘仅仇	-3826
▁亓些亿亚	-3827
▁井伩仅仇	-3828
▁亻亭冊亻亾	-3829
▁价介	-3830
仉亰产	-3831
▁二僻倿	-3832
▁井亟亳亇	-3833
▁井产亊亨亟	-3834
1)	-3835
▁亂仙	-3836
佦亻	-3837
▁二佪仏	-3838
▁仦伉仄亇	-3839
▁佂什伧亗	-3840
▁予事仰	-3841
▁些亭仮仇	-3842
▁些优伧亖	-3843
亜伧亖	-3844
▁些亭伎	-3845
▁井亩亳亸仮予	-3846
▁亃了	-3847
▁予亊伟	-3848
▁于偞亟	-3849
伇偠	-3850
▁亷什	-3851
▁京仺会	-3852
▁仧佱	-3853
▁亷伸伟	-3854
亹亟	-3855
▁3,	-3856
▁佢亾亖	-3857
▁仵伎伧亖	-3858
▁亂亃佁仅仇	-3859
▁任仼亭佛于	-3860
会仜	-3861
▁亴些亙	-3862
▁亪仮	-3863
▁仁亃仇	-3864
▁些佛仇伺	-3865
▁亅亟亍人会些	-3866
▁亞亟亖	-3867
▁亞伤亹人亻仏于	-3868
7)	-3869
▁亣仾	-3870
▁亓仆佃	-3871
亂享亟	-3872
佋伅	-3873
▁他予	-3874
仱亹侏	-3875
▁亅亪亣伈	-3876
▁亳伧亖	-3877
▁仵亊伉亟	-3878
亏伺	-3879
▁井亃伂亇	-3880
云伿仄	-3881
7-	-3882
▁些于	-3883
▁亓些亐	-3884
仮事	-3885
仱仆	-3886
偌伟	-3887
▁亃事些	-3888
29	-3889
▁亅伫仕亇	-3890
▁仮亷亸仌亖	-3891
▁侸	-3892
▁亓伤伡伺	-3893
▁住优予什亖	-3894
▁仐亭今亻仅亖	-3895
亿亶	-3896
伇亳	-3897
▁児	-3898
仑人	-3899
▁价休	-3900
亅人亝	-3901
▁亓人仡	-3902
亴亾亟伺	-3903
▁亷倫	-3904
▁仦人	-3905
侦亟伺	-3906
▁仵事仉亰亇	-3907
伇云	-3908
▁价仄了亸	-3909
介亢	-3910
仮亻	-3911
▁Ch	-3912
▁仦仌	-3913
▁仐事伈	-3914
▁仈仓俟仠	-3915
▁仍倨仌亳	-3916
▁亮侻什五	-3917
].	-3918
89	-3919
予亾了	-3920
▁亘亖	-3921
▁份侎	-3922
▁亅亪伨	-3923
▁亷伉亳仳	-3924
▁仧仏佛些伺	-3925
85	-3926
▁佂产	-3927
▁g	-3928
▁伇伃	-3929
亅亥	-3930
▁云亳亇	-3931
▁亣仏佛	-3932
▁予亗亹亗于	-3933
介伧亖	-3934
亜仠	-3935
亻亃	-3936
伉仓	-3937
▁佤亳伺	-3938
▁价仯	-3939
亘伧亖	-3940
▁京亭侵亚	-3941
▁二亍亩亪亇	-3942
▁些仞了仮予	-3943
亸伺	-3944
亰亊五	-3945
▁亮仺些	-3946
▁价俽	-3947
▁井亭今亨亟	-3948
▁亓侾	-3949
仄予亇	-3950
▁伕仄些伺	-3951
亣介亹亊亇	-3952
亸俕	-3953
亘仅	-3954
些亪	-3955
▁刻	-3956
于今予	-3957
▁价仏伟	-3958
▁仍亜仌亭佛仇伺	-3959
▁佂亏	-3960
36	-3961
8)	-3962
▁亻亶	-3963
▁仁伍	-3964
亾予亐	-3965
亿什亊亇	-3966
▁亞伾仇伺	-3967
仩亖	-3968
亏伽亐	-3969
▁仍亳便	-3970
▁伎仅	-3971
▁亪人侐亇	-3972
ah	-3973
亃伡亖	-3974
仅亪云亾	-3975
▁侫伮亳云众	-3976
▁井使	-3977
▁付予	-3978
▁价仠	-3979
▁亩仡亃亖	-3980
▁亓亖	-3981
▁二伦	-3982
▁仉些亳	-3983
亻佬亐	-3984
▁京亭什	-3985
▁今剅人	-3986
▁价亚亟	-3987
亏亶	-3988
今亳	-3989
▁份亃	-3990
▁予亱亲亳	-3991
▁今伇	-3992
▁二亭	-3993
▁亓佦	-3994
▁侫亷	-3995
▁仐侰仅	-3996
▁井伩伧亖	-3997
▁仍亅亿亐	-3998
▁价于些介	-3999
▁人	-4000
佡伺	-4001
▁亷亴	-4002
争予亐	-4003
▁交予仜	-4004
亟仠	-4005
今予云	-4006
仌侀令	-4007
▁些仓仕	-4008
▁亴佛仂	-4009
▁仐事仅仇	-4010
▁傋	-4011
仧仠	-4012
仨亖	-4013
亜伴	-4014
▁二仛亝	-4015
▁亓偮	-4016
▁亴仓	-4017
亹人会些	-4018
if	-4019
▁90	-4020
▁仫予亾	-4021
▁价亹亜	-4022
交伀	-4023
7,	-4024
于亡	-4025
▁仈佚仇	-4026
▁亃仆亅亣	-4027
▁予亸偼人伮五	-4028
86	-4029
▁伃亗	-4030
▁价侅亟	-4031
▁亴今予云	-4032
亳亏	-4033
▁仮亴	-4034
仕产仇	-4035
▁二什亟	-4036
▁云予什	-4037
▁亅众仅伫亟	-4038
付亚亟亇	-4039
▁修俧	-4040
▁份仺亅亗	-4041
▁仮些亗亏什亖	-4042
▁亃俞伕亾	-4043
仌亟亇	-4044
估什五	-4045
▁二亣伺	-4046
▁云亵五	-4047
▁亓億	-4048
▁井介仅	-4049
仂亢	-4050
▁井亾	-4051
▁亮亏倞	-4052
Ch	-4053
▁任伿佃	-4054
▁亞亟但人	-4055
▁仈伀亖	-4056
▁佞仭人	-4057
▁些亊亻	-4058
仇五	-4059
▁亓佛仠	-4060
亏亶仇	-4061
▁亅享亙	-4062
▁亞仄伂	-4063
▁侫互傻	-4064
伉五	-4065
▁亻亂	-4066
▁亴仌介	-4067
▁亂仛亘仅仇	-4068
▁井俋	-4069
仱亪亇	-4070
22	-4071
似仄	-4072
▁予亭亙	-4073
▁二于伂亇	-4074
▁亪仺亻亟	-4075
▁付亊仁事	-4076
▁予倀仅亪云亾	-4077
▁佳亭	-4078
▁二人亝	-4079
▁亽云了亖	-4080
▁井亭今亻仏于	-4081
▁亅倀	-4082
亰伵仇	-4083
▁伇云亟仌亖	-4084
傱井	-4085
▁亴伫	-4086
▁仃亚	-4087
僸亭	-4088
▁云傈	-4089
▁些仆侑	-4090
▁侲僺亭	-4091
▁亣仾了亖	-4092
亱伟	-4093
▁亞佉	-4094
▁仝俐事	-4095
▁亻享亝于	-4096
▁价亳仾亇	-4097
▁亪仾	-4098
▁伇亘	-4099
亨仱云	-4100
▁亓仛亝亇	-4101
仼五	-4102
▁云値	-4103
▁价倖亙	-4104
▁仉些亾了	-4105
▁仦伧伐亇	-4106
争亭	-4107
側五	-4108
▁仦享	-4109
▁价仇侦	-4110
▁云仱	-4111
▁仍佇	-4112
亅亖	-4113
▁些佺	-4114
佮倐伺	-4115
▁保俞仯	-4116
▁仈伀亟亇	-4117
▁亞亟亱仆伺	-4118
▁仵亊了仌亖	-4119
▁仐仄亹亳	-4120
▁佤亣	-4121
仮亻亟	-4122
▁1995	-4123
侯仄	-4124
互亘	-4125
▁冸	-4126
▁亂亡伆	-4127
▁亷仄令	-4128
▁仦伧亳	-4129
▁亩仯亟	-4130
伧亭仡亇	-4131
13	-4132
ill	-4133
▁亅亴	-4134
▁仮偎	-4135
▁亓亘了	-4136
▁亣亭使仱亹侏	-4137
▁些亭亊亇	-4138
▁亅争亟仓亖	-4139
价五	-4140
佡們	-4141
▁36	-4142
▁佔偐	-4143
▁井亊仇	-4144
▁井亭今仇于	-4145
▁伇仯	-4146
▁1991	-4147
▁仸仺亻佬伺	-4148
▁云仌伧亖	-4149
▁井亭今亻	-4150
伧伺	-4151
份亚	-4152
仓亏	-4153
▁今五	-4154
▁佂伫予亳	-4155
▁侈伇	-4156
▁侍亸	-4157
亅五	-4158
▁亷事	-4159
位仇	-4160
▁佤亥	-4161
▁亪伄伮亥	-4162
▁亂仛亘仅予	-4163
亪位	-4164
▁亷亙	-4165
▁亅亸亇	-4166
▁仨仄予	-4167
▁1994	-4168
▁亴仏伨仇	-4169
▁事	-4170
云亸	-4171
今亴	-4172
伀亖	-4173
▁亓侫	-4174
▁仦俙	-4175
▁亻仞亨	-4176
▁亓亘佇亭	-4177
▁侍亟便刷伺	-4178
了佘	-4179
▁亘先	-4180
▁仉僊	-4181
▁亓众仡	-4182
亏亶亪亇	-4183
▁些伎亹人亝	-4184
▁仍亊伟	-4185
▁仐亡佛	-4186
▁亅仱云亾	-4187
▁亓伄亟亹亗	-4188
▁二亣偋	-4189
亣仓亭伟	-4190
▁亣亭些傩伺	-4191
了伽仡	-4192
▁亽侵什亖	-4193
▁价伥仡仛	-4194
伅仇	-4195
京亭亐	-4196
▁伲亾五	-4197
▁l	-4198
99	-4199
▁予亗亊	-4200
ub	-4201
伧事	-4202
▁付侫	-4203
▁予争亊了事	-4204
▁仢伝	-4205
▁予侾亜	-4206
▁仫偂伺	-4207
▁价亃侃	-4208
亹亃佱仇	-4209
▁仍予亳仌五	-4210
▁仉刻	-4211
▁些仓亘	-4212
亹亦	-4213
亶仉亟	-4214
▁亂互	-4215
▁二俽	-4216
▁些亊仢	-4217
▁伱仒亇	-4218
亅俬	-4219
倀亟	-4220
亾亟五	-4221
仓亟亇	-4222
▁仍亊佘	-4223
亓仹于	-4224
▁予亭些	-4225
▁云了什	-4226
▁伱仿亇	-4227
▁亂亣	-4228
▁任仛便	-4229
亹亣亖	-4230
▁些优亷	-4231
云仄	-4232
▁修俕	-4233
▁付亳亣	-4234
▁住优予亐	-4235
▁佃了	-4236
仉仇伺	-4237
伮亾伂	-4238
仕产仇伺	-4239
▁亪人侐仌亖	-4240
佮仼	-4241
▁亅仛	-4242
▁价亟佉亇	-4243
▁仉亾今	-4244
▁些似仆侈伇	-4245
▁价仌介亹亊亇	-4246
▁价仱側	-4247
了亸伵仇	-4248
亂亃	-4249
▁亜仱	-4250
▁二人会伵亥	-4251
▁&	-4252
▁亃予些佋亚	-4253
▁予什亖	-4254
▁亓些亴亟	-4255
伨伺	-4256
▁5.	-4257
▁偁亮	-4258
▁佖互佮产	-4259
▁v	-4260
▁亽些	-4261
▁亅产伅	-4262
▁予亊五	-4263
亅倨	-4264
ect	-4265
32	-4266
▁亓俜	-4267
▁仁亃	-4268
▁仍亊仌亟	-4269
▁仦伉仄仌亖	-4270
▁亞佺	-4271
▁佤僭	-4272
▁亂亃倰	-4273
▁亃交优	-4274
亹作亰亇	-4275
▁亻倇	-4276
The	-4277
亾伧五	-4278
▁亓仺佃	-4279
▁交亪亣	-4280
▁仉人亃事令	-4281
▁亪亜伆仒	-4282
▁亻什	-4283
▁仦互	-4284
▁亂予些	-4285
▁伇侍亃亾	-4286
▁亞亟伸人亻仏于	-4287
▁亓亹亜	-4288
佚予	-4289
▁仦亟	-4290
▁亓亜亘	-4291
▁云予亐	-4292
qu	-4293
了亥	-4294
仅亻	-4295
▁些侢亇	-4296
▁依付倿	-4297
▁仧以	-4298
▁仮侫	-4299
仉作伺	-4300
▁亃伿仂	-4301
予伽仡令	-4302
▁仍伎傒佃	-4303
▁价亟俈亟	-4304
ric	-4305
▁佂什伧亥	-4306
倮事	-4307
▁今仞	-4308
▁侺亳	-4309
亻亭冊	-4310
仡伓	-4311
▁些介伧亱仇	-4312
▁仡亇	-4313
▁仦亊	-4314
了亊	-4315
▁今伉	-4316
▁佢亣亅亣	-4317
31	-4318
▁仐仿	-4319
亣予亐	-4320
仓亏亇	-4321
会仡亇	-4322
▁亣亭亹	-4323
予仮仇	-4324
▁亽僋些于	-4325
▁介	-4326
佇仱	-4327
▁些仆亭亇	-4328
ran	-4329
▁亓亯	-4330
▁亃交傲	-4331
▁些亳亃	-4332
▁仢俰伿	-4333
▁予亊仙享	-4334
▁仧仱傘	-4335
49	-4336
▁亞亟仓	-4337
tt	-4338
▁仉侫	-4339
仡仉	-4340
▁亷伨	-4341
▁任伿亩予	-4342
亅些伺	-4343
云什	-4344
亾佦	-4345
▁侲倝	-4346
▁价儐交亟	-4347
伦亖	-4348
▁些亶予	-4349
▁交予仠	-4350
仺仌	-4351
▁仐交亊	-4352
▁井伓亗于	-4353
伝亜	-4354
▁仧亾争円	-4355
ge	-4356
▁价休亭	-4357
伵云亖	-4358
▁仦們亇	-4359
▁佭亃亳伇五	-4360
48	-4361
伇亟	-4362
▁1992	-4363
▁些仞了亇	-4364
▁劘	-4365
▁St	-4366
▁于亚	-4367
est	-4368
▁500	-4369
▁仵亊們	-4370
▁价仇亏亐	-4371
▁交亃	-4372
▁亓伨	-4373
▁亩仅伺	-4374
侐亖	-4375
伴伧亖	-4376
▁于伨亨	-4377
▁些亾伥伧亖	-4378
▁仫俞仮亪亇	-4379
▁伱亖	-4380
▁亩亇	-4381
▁仵亊件	-4382
▁价亭亅于	-4383
▁价伀	-4384
▁e	-4385
▁亮仒些伺	-4386
▁仦亃亳伂	-4387
-0	-4388
▁亓亳伇五	-4389
▁伇亵亣予亐	-4390
了亹亥产	-4391
▁仈会	-4392
亿亶仇	-4393
仚仛于	-4394
▁仉仆伉亟于	-4395
了众	-4396
傱二	-4397
▁仉兙五	-4398
▁侩亨亟	-4399
▁仉些仁亟	-4400
▁些仞亏亹人亇	-4401
▁位兺伺	-4402
▁些介伧亖	-4403
▁伲争伧亥	-4404
▁仦令	-4405
▁仉亚仉	-4406
▁伇伃亅	-4407
伧亭佛于	-4408
▁亃事亂亡	-4409
▁佤亳亿亐	-4410
仓仠	-4411
▁亪伎	-4412
▁价倃	-4413
▁180	-4414
▁交傌亳	-4415
▁价亃亳	-4416
▁仦伧亳亇	-4417
ww	-4418
侂介	-4419
佇亭佛	-4420
▁亃凷伺	-4421
▁亓伄亂予亹人亝	-4422
▁付俧	-4423
▁亣亭仡	-4424
▁侩僸亭	-4425
▁亅亾俸亃仂	-4426
儆优	-4427
仆仱予	-4428
▁些亗仌亖	-4429
▁价亟但	-4430
▁伱伝亜	-4431
伧亭佝伺	-4432
▁仧亾仉亖	-4433
伲仄	-4434
▁亻亳	-4435
▁井亭今亨伡伺	-4436
ry	-4437
▁予冔	-4438
▁亽亸亟	-4439
76	-4440
仉做	-4441
仮倿	-4442
伇侖	-4443
▁二亻侮	-4444
▁今僉亼仇伺	-4445
▁井仄予亶仉亟	-4446
伵亃	-4447
▁佖仙人亻仏于	-4448
亏伽伵予	-4449
Th	-4450
▁侍佃	-4451
▁仦亃亾	-4452
▁予些仇亇	-4453
▁伇仱伇亾仅予	-4454
▁任仄	-4455
仏亪	-4456
仏佃	-4457
▁些优付人	-4458
任仾	-4459
▁仐予仛亇	-4460
▁佰仱亴亾亟伺	-4461
付亖	-4462
▁仮亽	-4463
▁予亗亚	-4464
▁儣仉佶	-4465
▁云伿仄亇	-4466
亷亃	-4467
▁佭亟	-4468
▁亓俤	-4469
仅予亢	-4470
▁亅倚令	-4471
仯亟伺	-4472
▁价偸俞亇	-4473
亴予	-4474
仓亟五	-4475
▁伃仒伺	-4476
▁亷伉亳侫	-4477
▁仐仂今予	-4478
ish	-4479
▁佢俞	-4480
▁仧亳亷	-4481
▁修伂予亐	-4482
伮仇	-4483
▁亞俙于	-4484
▁价亭亹亩予	-4485
仅仆仱予	-4486
▁仵优傹事	-4487
▁免兎	-4488
▁2018	-4489
交仅	-4490
▁亓亘伮亖	-4491
▁亓亳伕	-4492
▁仡	-4493
作亇	-4494
▁偁伲	-4495
▁云了亶亖	-4496
▁亓仆伂仡	-4497
▁X	-4498
▁亃仇仡	-4499
▁价亟伉	-4500
▁仮亷亸仌五	-4501
亟亳	-4502
会亡伧亖	-4503
▁予亹亖	-4504
▁二什亣亖	-4505
▁井伧亾亟亖	-4506
▁井儗	-4507
art	-4508
▁亓伿	-4509
▁亅亊仌五	-4510
ep	-4511
▁仢亱予	-4512
▁佂什伧亊亹亗	-4513
▁井以	-4514
▁亃仯亝仯	-4515
▁予亩付仌亳	-4516
仄令	-4517
▁他介	-4518
仮予亢	-4519
▁予僳亊予	-4520
亜亙	-4521
▁仵冹	-4522
▁亪亡伟	-4523
▁仸仺亇	-4524
▁予亸亨亊	-4525
仱佔	-4526
侖亥	-4527
云互亇	-4528
▁仦仄亟	-4529
37	-4530
伫侀	-4531
▁佂什伧亗于	-4532
▁仉仉	-4533
▁亓佻仺	-4534
38	-4535
伇令	-4536
偞亟亖	-4537
▁予仓伲	-4538
▁亷些伜亡	-4539
▁亅仏佃予亐	-4540
亳些伺	-4541
▁亓伐亅些	-4542
▁二仇亹人亻仏于	-4543
仧仅	-4544
偘五	-4545
▁仫们些伺	-4546
亿伽亐	-4547
▁些亭亻亼于	-4548
▁亰	-4549
仞了	-4550
▁予俟	-4551
交亖	-4552
▁仃亊	-4553
▁仐仄伂	-4554
▁1986	-4555
▁井亃伂亻仏于	-4556
▁亽僟	-4557
▁伃伡	-4558
▁云伿亅	-4559
▁亓亘会	-4560
▁亃交仞予仌亖	-4561
▁佰亴	-4562
▁井亊仓亖	-4563
▁侍伕亳亇	-4564
▁%	-4565
▁亮亳	-4566
些亭仡	-4567
▁价仱伇	-4568
▁伎亹仒	-4569
▁1997	-4570
▁予亥亹人亝	-4571
ium	-4572
▁侈亜	-4573
▁俸亣	-4574
▁亅亣值	-4575
▁些仆侂	-4576
▁佳亾伂	-4577
▁亃亏仆于	-4578
▁4,	-4579
▁价于伂亇	-4580
▁价亟亰亇	-4581
二五	-4582
▁仁事伧亖	-4583
26	-4584
亘仠	-4585
▁价令	-4586
▁亓仆佤	-4587
亣亅亣	-4588
▁亻仧	-4589
▁佖仱仆	-4590
亂仂	-4591
云伺	-4592
內亇	-4593
▁价享亹亗	-4594
▁伇亂亩亟	-4595
▁倇	-4596
▁仈亹佛亇	-4597
▁云亳仧	-4598
▁1993	-4599
了亹亗仇伺	-4600
▁仧亳侈伇仜	-4601
▁予仹	-4602
▁佂亼	-4603
▁侩亳	-4604
▁仁件亖	-4605
▁亅仞亘仅仇	-4606
▁亅亪亣仅亪亇	-4607
▁价亟仡仍	-4608
▁仵亊亏亹亗于	-4609
▁他內	-4610
▁侫亝	-4611
▁亓享佛	-4612
仱刄	-4613
▁亓仁	-4614
亾仅伺	-4615
会伵仇	-4616
▁1984	-4617
▁亪亜亟亳侫亢	-4618
▁仦僌	-4619
▁些仞亏亹人亻仏于	-4620
▁凛	-4621
介仜	-4622
亃仌亖	-4623
什予亐	-4624
伇仇亇	-4625
亾仓亭伟	-4626
亙仡	-4627
▁仮亿	-4628
互亊五	-4629
ical	-4630
▁井傤亥	-4631
▁亣亭仮	-4632
▁亂亃亱仇	-4633
▁亓些仇于	-4634
▁亅亟亍人亝亹亗于	-4635
▁仍佁	-4636
▁佳什今予	-4637
▁云亭会些亇	-4638
▁二僜	-4639
▁;	-4640
▁侫佃	-4641
僉仏于	-4642
▁亓仞亪	-4643
▁些作亳	-4644
▁仸伄亟	-4645
▁6.	-4646
亗仌五	-4647
▁伇侐佛	-4648
▁亮亟亿亐	-4649
▁仈亭些仱予	-4650
▁亪伄亙予亐	-4651
▁亅亜予	-4652
▁亮亭侐	-4653
47	-4654
ary	-4655
▁仉仁亳倖	-4656
仼亖	-4657
▁亅佥	-4658
▁亓仌仅	-4659
ide	-4660
▁亓亻	-4661
▁倧仡仉	-4662
ug	-4663
▁仮伫亟	-4664
▁佞人亅亥	-4665
些亭仡亇	-4666
▁价亨仱云	-4667
ational	-4668
伯亇	-4669
▁亓亝	-4670
亂亜仕亇	-4671
▁些优些亪	-4672
▁1947	-4673
▁亞亰仌	-4674
▁任产亱亇	-4675
▁伕亣亩予	-4676
▁交伎	-4677
仱今伺	-4678
亏伽伵仇	-4679
▁价仄偢亢	-4680
▁付亳侩	-4681
亾侫	-4682
伧传	-4683
卯亟	-4684
▁亞亜	-4685
▁仵人	-4686
▁伕亣仇	-4687
▁些亊亨亖	-4688
亏什仓亭伟	-4689
▁仵亊侕仅予	-4690
▁价仺亣仅予	-4691
▁伇仇	-4692
▁佖做	-4693
侦仒	-4694
個五	-4695
▁佃仌	-4696
▁二亣亾	-4697
▁云了亚	-4698
▁价僐亖	-4699
▁仧偞亟五	-4700
▁佂什亙仏	-4701
95	-4702
伲于亇	-4703
▁佰侫亇	-4704
▁亓伪了亭	-4705
亽亊予	-4706
仱側五	-4707
▁二亍亃侀	-4708
亣伺	-4709
▁亷伳	-4710
▁二亍伺	-4711
▁予亭仉予亐	-4712
▁亓亣亷亳傠們	-4713
▁仈争	-4714
▁云予什伺	-4715
佬五	-4716
▁亅佛	-4717
▁亓俸	-4718
▁亮互产于	-4719
▁仉介今予	-4720
伵于	-4721
▁伏傍	-4722
伦仂	-4723
▁亂亃仓	-4724
▁亅佋事仠	-4725
▁价亟仡仇伺	-4726
仍仄	-4727
▁亴亏傠伺	-4728
1-	-4729
▁亷仓	-4730
▁仉厅	-4731
仇于亇	-4732
▁亂亵亩予	-4733
仉仅	-4734
亏亚仜	-4735
▁佤争亖	-4736
▁1985	-4737
▁仦今亿亐	-4738
▁伇伉仓	-4739
▁仉仆了亇	-4740
▁京仺亙	-4741
▁价僛侖	-4742
▁1940	-4743
▁佖伝仇份	-4744
▁价仄亨亟亇	-4745
▁亓伂	-4746
仡伬于	-4747
▁予仙仂	-4748
交亊仌亖	-4749
42	-4750
▁仁侑	-4751
▁300	-4752
▁京仺倻	-4753
▁亻伄傟	-4754
▁予仓伲冉仅	-4755
ib	-4756
亳伇	-4757
▁价亙	-4758
▁亻享亝	-4759
仺予亐	-4760
▁价仱仮	-4761
▁仮仒亏亐	-4762
oh	-4763
ok	-4764
▁仦亃	-4765
▁云亟	-4766
▁仵偞亟亖	-4767
▁伇交	-4768
▁侺亟	-4769
▁1930	-4770
▁1988	-4771
▁亓伃	-4772
▁倇亣仅予	-4773
仮仯	-4774
▁仈伀亟仌亖	-4775
▁亷仄予亗仌亖	-4776
伮冃	-4777
▁亪优	-4778
▁com	-4779
▁仍人些	-4780
▁价仇亇	-4781
▁佖互仠	-4782
亘仅亖	-4783
▁亣亭傠伺	-4784
▁亣亭今依伺	-4785
仩予	-4786
伲亖	-4787
▁亩亨	-4788
▁仦仧	-4789
▁价倖仡亇	-4790
伧亳	-4791
▁亓仞亻亟	-4792
▁二亼以了亹人亇	-4793
▁井亅伇亵亣予伽亇	-4794
了仉佴	-4795
▁仦前人	-4796
ew	-4797
▁亂亷	-4798
亟仇	-4799
佤亳	-4800
亪仆亇	-4801
侐亳亇	-4802
▁亓促亖	-4803
佥仠	-4804
▁亃俟	-4805
仄亏亐	-4806
▁侫佛亳	-4807
▁5%	-4808
▁亻亊	-4809
▁仍卐	-4810
▁佳傳	-4811
依仱俔	-4812
▁二亍佃	-4813
▁亓亰交	-4814
▁些仆们	-4815
▁150	-4816
▁仧亳伕	-4817
▁仐仺些仇仌亖	-4818
▁仢仆	-4819
▁仝仞亖	-4820
▁侫仉	-4821
▁侲倛	-4822
▁亂仛亘	-4823
▁伲争予亐	-4824
▁井亟亳仮仇	-4825
▁亻享亨仏于	-4826
▁价亹亪亣伧亖	-4827
▁井亭亴亟	-4828
28	-4829
In	-4830
▁仨事	-4831
▁亃亳亇	-4832
▁仵亪亣予什亖	-4833
亹亃五	-4834
▁份亣伧亟	-4835
亷五	-4836
▁二亾云事	-4837
▁亅似	-4838
▁二倁	-4839
▁亓仌	-4840
亭仡令	-4841
▁价喣伺	-4842
▁云了伽亇	-4843
▁亴了亱仇	-4844
▁仵事佰亴	-4845
▁亂亡伈	-4846
▁亪亳亖	-4847
▁价倖会	-4848
▁仍亊仡亇	-4849
交侃	-4850
▁予偢	-4851
▁价仛	-4852
▁予依伺	-4853
▁佃仌亭	-4854
▁佂什些佛于	-4855
凟五	-4856
▁亓倕	-4857
▁些亳亱仔	-4858
▁价亡些五	-4859
▁亞亟伸人亇	-4860
▁亓兛	-4861
▁亷介	-4862
▁(20	-4863
▁佤亃亇	-4864
▁价仏佝伺	-4865
俖亳	-4866
▁仦事	-4867
▁佧伄亂亡	-4868
▁亞伤亹作伺	-4869
▁伕仉伧亟亖	-4870
▁亞亰会	-4871
▁亂亜些享	-4872
▁价亭伟亇	-4873
▁付亣了亹亗	-4874
佫五	-4875
▁亣侫	-4876
▁伇亊佉	-4877
▁侍伕亳	-4878
亅仓	-4879
伞仛	-4880
▁伇亃佤亃亇	-4881
▁仢享	-4882
▁亓亘亟	-4883
▁亞倉仏于	-4884
▁亅亪亣伧五	-4885
▁仧亳侈伇仌五	-4886
▁亪伄伮人亻仏于	-4887
ich	-4888
▁亅伧佚伺	-4889
亣五	-4890
▁亴仅	-4891
仮些亗	-4892
▁今亜伴	-4893
▁亂亜仉亖	-4894
▁仦仄亟亇	-4895
▁价仱予亇	-4896
▁价億些亗仌五	-4897
▁亓享伟	-4898
▁伇付	-4899
▁亂亜佛于	-4900
▁亻仞亨亖	-4901
今亾	-4902
刕五	-4903
▁亪仒亇	-4904
▁仵亊了亇	-4905
亥仜	-4906
伝亐	-4907
und	-4908
▁to	-4909
▁仈人	-4910
▁仦仭	-4911
▁仐仄亇	-4912
▁亓仆仉侀	-4913
▁予什	-4914
▁亅仓	-4915
▁仦亴	-4916
▁侫些	-4917
▁价仄了	-4918
▁价佇亟仠	-4919
▁1987	-4920
▁二俽于亇	-4921
侍亸	-4922
▁倱仠	-4923
伵予伂亇	-4924
▁予亊侄伺	-4925
▁井产亊亨	-4926
▁亪仛仉五	-4927
▁亷仄仐事	-4928
▁亩些亳亏亐	-4929
亘令	-4930
▁侺凾	-4931
▁侫亳亏	-4932
▁些俢亡	-4933
▁亞亟伸亥	-4934
▁佳亾亻仏于	-4935
傱亅	-4936
▁亅儋	-4937
▁仐伕	-4938
▁价人	-4939
▁些亚亟	-4940
▁价亊倗互	-4941
▁仉亨	-4942
▁仐仏亇	-4943
3-	-4944
88	-4945
▁今僴	-4946
▁仫亃	-4947
▁伇伂	-4948
▁任伿仇伺	-4949
▁二仛亝伄伂	-4950
▁于亡予什亖	-4951
▁伇亵亣仕亇	-4952
▁亷亸亹人亻亼于	-4953
//	-4954
▁亃侐	-4955
▁伕亦	-4956
伧亳亇	-4957
▁亴仺佢	-4958
▁仉云傣仇	-4959
▁仢侐人亝	-4960
amp	-4961
▁亅偔	-4962
仯亟五	-4963
▁价亳予	-4964
▁份仾侲	-4965
亳众	-4966
了亭仉	-4967
▁仍卐佩	-4968
▁伇云佂什	-4969
▁佂什伆仒	-4970
▁价伆侫仉五	-4971
伂五	-4972
俤于	-4973
▁亂侊	-4974
▁伋伝亐	-4975
▁亓伄仰伺	-4976
▁亓亳仁亏亇	-4977
▁侍亾伴	-4978
▁亅亾仮仒	-4979
▁予介伇	-4980
▁仐仺仌	-4981
▁1978	-4982
伵亖	-4983
▁亓亹	-4984
▁京作	-4985
亯亚亟亇	-4986
▁亘亟仮予	-4987
▁仐仏仌亖	-4988
4-	-4989
亘伈	-4990
仟仕亇	-4991
▁亓伄仉亝于	-4992
▁些仞佉亻仏于	-4993
亽亟了	-4994
▁亃仉侂	-4995
▁仦亻佦亾五	-4996
价仄	-4997
▁佳俒亖	-4998
▁亅亪伨倌	-4999
▁仮仐仄仮仇	-5000
亷亴	-5001
侸伺	-5002
▁倧人	-5003
今伇亖	-5004
▁佽亳亶	-5005
仍亊	-5006
ttp	-5007
▁亽仆	-5008
▁云事佼亊	-5009
▁65	-5010
▁位仄	-5011
▁二仄噎	-5012
仉亟仓亖	-5013
▁仉亃仮予	-5014
://	-5015
ind	-5016
▁亅亭仌	-5017
▁他介僤	-5018
▁r	-5019
▁亓侢	-5020
▁伲于仮仇	-5021
▁井亐	-5022
▁仁亻	-5023
▁佳亾仅	-5024
▁1000	-5025
▁亞亏	-5026
▁亴伟	-5027
▁二亍亦仠	-5028
▁仉仆伉亟	-5029
▁亴仌亳	-5030
▁亓亣予亾了	-5031
▁55	-5032
▁""	-5033
▁侍亱	-5034
▁侍优	-5035
▁付仓仇	-5036
▁仐侰仅偛	-5037
▁亞争	-5038
▁1969	-5039
▁仸争	-5040
▁交亵伪	-5041
▁仦伮亾了	-5042
▁价伅仓亟	-5043
▁价亊佘	-5044
▁亷亖	-5045
65	-5046
僪仯	-5047
▁云侜	-5048
▁佽亥	-5049
仄亘伦	-5050
▁亅众伧亖	-5051
仛亝	-5052
▁亂佹亜	-5053
79	-5054
▁仵互	-5055
▁仸互	-5056
亴仅仉五	-5057
▁仧亳伦仂	-5058
eg	-5059
了仄	-5060
▁价亟仒	-5061
▁唅	-5062
▁交估	-5063
▁仐儇	-5064
▁仮伄亟于	-5065
仐事伧亖	-5066
▁予亦予亐	-5067
▁亓俧	-5068
▁侈仯	-5069
▁亃事仉	-5070
▁1977	-5071
iy	-5072
亮亭	-5073
▁伇亃佤亃	-5074
予亢	-5075
偕仠	-5076
▁伕亃	-5077
▁亪仛云	-5078
亿伽享亟	-5079
▁5,	-5080
▁予作亟	-5081
▁亅众予亐	-5082
▁亣亮	-5083
▁侫冝	-5084
▁些亊価	-5085
▁些仆亳	-5086
▁伇云亸	-5087
▁仢俒亖	-5088
▁价亟亨亟	-5089
▁任仼亭亨仏于	-5090
了仜	-5091
▁价亜	-5092
▁伇予	-5093
▁亓予仄	-5094
▁亷仉亾	-5095
▁亽予亾	-5096
▁侩僸亭亝	-5097
▁亂亃仄亘伦	-5098
▁亃予些佋亐	-5099
亭亃	-5100
▁亂仴	-5101
▁亞伾亖	-5102
予亶予伂亇	-5103
▁侫互傻仞亖	-5104
34	-5105
亦亢	-5106
伲亼	-5107
伱仺亇	-5108
▁二亍于亇	-5109
An	-5110
亂仛	-5111
二亖	-5112
亨佬五	-5113
▁二佚伺	-5114
▁側仇亩	-5115
伕仱	-5116
▁些仝	-5117
仮仒亇	-5118
▁亂伫亰亇	-5119
▁仮亷亸亇	-5120
▁兹	-5121
住亝	-5122
▁亅作	-5123
亝些亿亐	-5124
余亜亟于	-5125
▁侼亗亏亐	-5126
▁亓伪亪亂亡	-5127
亳云	-5128
▁云众仡	-5129
▁亻伄侧	-5130
▁予亭亃亹人亇	-5131
▁予値	-5132
▁仦仾予亶予	-5133
今仆	-5134
份亖	-5135
▁二仇亢	-5136
▁云伧亱	-5137
▁亃云	-5138
▁云亏	-5139
▁亓亳伇伺	-5140
▁亞俙亃侀	-5141
亹人仌伡伺	-5142
▁云仏	-5143
▁价亟仡仍伺	-5144
儀伺	-5145
▁亷僥	-5146
▁仉伝	-5147
▁亞佩予亐	-5148
▁凖	-5149
▁亣仗	-5150
▁亪亡佛于	-5151
78	-5152
亍争	-5153
▁任伢	-5154
亰仡亇	-5155
▁二仯亖	-5156
▁亓亊佉	-5157
▁予事仰伺	-5158
▁价亭亨佬伺	-5159
個亟	-5160
▁1979	-5161
▁仉仄佉予亐	-5162
▁任仛亙	-5163
仯事	-5164
▁1975	-5165
▁亪佅介人	-5166
伏亨	-5167
▁价仓	-5168
▁佰亾	-5169
▁二仇亱亇	-5170
▁佂佚伺	-5171
▁仸亗亘亙	-5172
佃仅亪亇	-5173
佂亹	-5174
▁井伄	-5175
▁仧亾会	-5176
▁些仞伉亟于	-5177
▁仐亟交了亹作伺	-5178
伇亗	-5179
▁佖仱仆仮仇	-5180
▁亂亃俢亃仓亖	-5181
側仱	-5182
▁亅仼	-5183
▁亓亾亴	-5184
▁仉介伂	-5185
▁云傈仓亟	-5186
伧仺	-5187
▁付人	-5188
▁价亸	-5189
▁1971	-5190
▁侫亷亩亳	-5191
仟令	-5192
劬伺	-5193
▁付些	-5194
亪佅	-5195
亳仾	-5196
亷亖	-5197
佇亾	-5198
▁伏了亇	-5199
▁些仞了伄	-5200
▁价仄些伇	-5201
▁亅佋事了仞予仌五	-5202
hy	-5203
▁二亍侈	-5204
▁1976	-5205
▁份予仮予	-5206
▁亓伵仄仌亖	-5207
▁亽什	-5208
▁仐依	-5209
▁份亊	-5210
▁亪仮伺	-5211
▁仵亊們仼	-5212
▁井偧	-5213
▁二什亩予	-5214
▁价仡	-5215
位云亖	-5216
atti	-5217
▁亓亘了亹亗于	-5218
仄仌五	-5219
今亃亇	-5220
▁亅亪亣予什亰亇	-5221
仉亟亇	-5222
▁予亊仓亖	-5223
▁亓以了亹亗于	-5224
Cl	-5225
亮仒	-5226
倎享	-5227
▁予亃	-5228
▁仦亖	-5229
会些伺	-5230
▁亣仅予	-5231
24	-5232
▁仢倒	-5233
▁侩亊	-5234
▁佖伌人	-5235
▁亓仂会仄予	-5236
▁亓亭似俔亟予	-5237
▁仨仺	-5238
▁亓伄仰	-5239
▁仮仒亹亗于	-5240
亅予	-5241
亹亊亇	-5242
仮予份	-5243
▁井亊亍亜	-5244
▁些仞亨亖	-5245
▁亃交仞予仌五	-5246
▁偾	-5247
▁佧亻	-5248
仓亭侉	-5249
▁仍亳亴	-5250
▁亅亜亹亜	-5251
▁亓亘伦伺	-5252
▁予亭亽亊予	-5253
▁仍便	-5254
▁亂亨亟仮予	-5255
▁亅侌人	-5256
▁于些了	-5257
▁1956	-5258
▁亃事仍予伺	-5259
仸伺	-5260
傱傱	-5261
▁侬仞	-5262
亿亚令	-5263
▁予亥伨亥	-5264
▁价伥伧亖	-5265
▁任仾些亳	-5266
▁伕互伏倿	-5267
▁|	-5268
▁亷兮	-5269
▁亅亳佛	-5270
▁亓佻	-5271
亨伡伺	-5272
仡伄使	-5273
▁亓伄佛	-5274
了亚仕亇	-5275
亅人亇	-5276
些仱今伺	-5277
▁仉仉仓亟	-5278
儃亐	-5279
▁仉仐	-5280
▁亂儂亇	-5281
▁亂亃亱予	-5282
▁任享	-5283
伅亰亇	-5284
▁仐事仡	-5285
▁仍亊佛于	-5286
sh	-5287
▁二亝	-5288
仇仌五	-5289
▁二仛佛	-5290
▁仦亨亳	-5291
▁予亚	-5292
亗亹亗	-5293
▁京亭侷	-5294
▁佂亹亇	-5295
▁亮亟仱亖	-5296
2-	-5297
伂佶	-5298
▁47	-5299
▁亓付	-5300
▁予僪仯	-5301
▁井仆仉亟亖	-5302
佦伺	-5303
▁亂亭予	-5304
▁亓仞侇	-5305
▁佤亜佦	-5306
▁仐亳佛亳	-5307
▁亓以了亹人亻亼仇	-5308
仧亾	-5309
会亢	-5310
▁亃亾	-5311
▁佖伂	-5312
▁仈亭亂亡	-5313
▁),	-5314
▁二亣吵	-5315
亹人仌亟	-5316
▁仉亚仅亊	-5317
96	-5318
亝五	-5319
▁井亳	-5320
▁仐亡亟	-5321
仁五	-5322
▁亅冴	-5323
▁亮互俥伺	-5324
▁价俨仺些	-5325
▁佳亾仉伅伺	-5326
▁亃债俔	-5327
▁云亻僭	-5328
▁亷交亷	-5329
▁亪亡付人	-5330
▁仝亾亟五	-5331
▁价享伧亱仇	-5332
▁亃仯仍	-5333
▁予亥伨人	-5334
▁云亗了仆	-5335
▁亷亸亹亗于	-5336
云亭	-5337
uth	-5338
▁7.	-5339
▁亃事亙	-5340
▁亓亘了亹亗	-5341
▁仧佀	-5342
▁京仺亝	-5343
▁仉人仉	-5344
▁伏亅亖	-5345
亹争亭佛	-5346
佮儅	-5347
▁予卑	-5348
▁亷侫	-5349
▁交予使	-5350
▁任人了	-5351
▁亅亊亏什亖	-5352
什亟	-5353
ith	-5354
▁亩伉	-5355
▁亅亣亹	-5356
▁佖仙亥	-5357
▁予亸亨亖	-5358
▁仮亸些伺	-5359
▁仧倇	-5360
▁仦予份	-5361
▁京亭亶予	-5362
▁仉些仁伧	-5363
▁佂什伆伄	-5364
ive	-5365
▁二仧	-5366
▁价亹侏	-5367
似亳	-5368
▁亴伅	-5369
些亜些	-5370
▁予亣兄	-5371
▁些仞了仮仇	-5372
▁仍侐亹人亻仏于	-5373
亣亷	-5374
仌亗	-5375
佮俩	-5376
III	-5377
▁亻侰	-5378
▁予仄佛	-5379
▁仧倖亙	-5380
▁予仉仰伺	-5381
▁亮亭亏亊	-5382
伵五	-5383
▁亷人	-5384
▁侫争	-5385
▁侺仾	-5386
亟亘亙	-5387
交亟伺	-5388
▁伇侂介	-5389
▁亣介亹亊亏亐	-5390
▁亂亹	-5391
▁仐侰亴	-5392
▁亷交亷予云	-5393
▁仮仍予仱俔	-5394
▁亪伄伮人亻佬伺	-5395
▁予侻	-5396
伽亐	-5397
▁价亵	-5398
▁1948	-5399
▁1965	-5400
▁佧亭伉亟	-5401
▁仨佋什亖	-5402
▁亓伄仉伅伺	-5403
▁仦仾伱仺亇	-5404
▁亜介	-5405
▁二伔亇	-5406
▁些佛仇	-5407
▁亂亜亟仉佴	-5408
俌亐	-5409
伎予亐	-5410
▁京亭亚	-5411
▁价亃做	-5412
▁仦倛伇侖	-5413
▁亓亭似俔亟予亇	-5414
▁仍亊些亜伴予亐	-5415
付伺	-5416
伧亾	-5417
侐侄伺	-5418
▁亓众伧亖	-5419
▁些仞伉亟	-5420
▁亣亗交亊	-5421
▁价享仐事	-5422
了亏亐	-5423
仄亘亙	-5424
▁京亭亥	-5425
▁仦俄伇仂	-5426
▁亂亜伂予亐	-5427
侜伺	-5428
▁6,	-5429
仁亳	-5430
▁予优伂	-5431
▁亓你倡	-5432
伡亣亅亣	-5433
▁佭仭伨仉亖	-5434
44	-5435
▁亓亂	-5436
▁价仱使亟亇	-5437
了亗亚	-5438
些亃侀亇	-5439
▁亓伄亟亹人亇	-5440
▁亷傍	-5441
仅予份	-5442
▁仐仄亹亪亣	-5443
▁亅亳亹仆仉亖	-5444
仉亃	-5445
仉伡亖	-5446
▁1983	-5447
▁井亝	-5448
▁伲冦	-5449
▁价仓亭伟	-5450
▁佂亹仐事伧亖	-5451
▁亃佨	-5452
▁仐事亘	-5453
亩倿	-5454
▁付來	-5455
▁佳俑	-5456
仱亰亇	-5457
卨亾仅	-5458
▁仈伮人	-5459
▁任佋伅	-5460
冫亳	-5461
▁二亣偦	-5462
▁仉介仉亖	-5463
▁伲亣亰亇	-5464
▁佖互云亣	-5465
▁佳倀佇亟	-5466
▁予仞予仌五	-5467
▁侈佃亹人亇	-5468
了介	-5469
伐产	-5470
rom	-5471
▁亣亊	-5472
olog	-5473
▁价亊亏亐	-5474
▁佳债伮亾了	-5475
▁亮亭云仆仉亖	-5476
▁亓亳亴亟伳亣仕亇	-5477
亴仄	-5478
個亖	-5479
儜五	-5480
▁http	-5481
▁亂亜伂仡	-5482
任事	-5483
伮仂	-5484
▁仢亾	-5485
▁仦仾亇	-5486
▁仍享亮仺	-5487
俌人	-5488
▁仱众	-5489
▁井亊仇亜仅予	-5490
位亃	-5491
▁二伖	-5492
▁亓僃	-5493
▁侳亊	-5494
▁倧亗	-5495
▁亷倎享	-5496
▁佰亳亳伇伺	-5497
▁k	-5498
云予	-5499
▁价偭	-5500
仓予亐	-5501
▁些优伆	-5502
▁亮侓伺	-5503
▁1967	-5504
▁京作亴亟亇	-5505
▁价些亿什五	-5506
▁48	-5507
▁佂仺	-5508
伂仡亇	-5509
▁亂互伎	-5510
▁仦佇亳令	-5511
▁亃事些仱予伂亇	-5512
33	-5513
俟亖	-5514
▁云亊佉	-5515
▁价亟仡仇	-5516
仇佛	-5517
仚伄	-5518
▁予倗	-5519
▁亂亜亻仏于	-5520
伿亖	-5521
▁仵仪	-5522
▁亓亣亷亳亇	-5523
▁亓亰些仄予亇	-5524
▁仨仓五	-5525
亷仄仌亖	-5526
▁佖仙人会亇	-5527
▁亓伄亂予仮伡伺	-5528
▁助	-5529
佁仅仇	-5530
▁于仏仉	-5531
▁仝仞仓亖	-5532
▁仢伝仌亟	-5533
▁仦亨亳交	-5534
▁伕于偸亾	-5535
▁亓亘佇亭仡亇	-5536
▁亃亜	-5537
▁于予	-5538
▁佂争	-5539
仌仏五	-5540
▁仧仱云	-5541
伕仏	-5542
▁仉伡	-5543
佮侔亇	-5544
▁亃佱仓	-5545
▁井亸亳	-5546
▁亣亭亙	-5547
▁亪側仱	-5548
▁价倖佛	-5549
▁仐亡份仒	-5550
事仜	-5551
仆仉	-5552
ert	-5553
亽亟亻	-5554
▁亅了亇	-5555
▁仐予关	-5556
▁49	-5557
▁仍人仉亖	-5558
▁亓亭亻亰产	-5559
予佘	-5560
仱五	-5561
▁亜仉	-5562
亟亿亐	-5563
▁予亗仌亖	-5564
▁侍伧佋亐	-5565
▁仐予俱予亐	-5566
▁价亭佛些伺	-5567
▁400	-5568
▁亅亊亪	-5569
▁予亩伨	-5570
佝亗	-5571
▁些侏	-5572
▁亓亃偍	-5573
▁价伥仠	-5574
▁佂什僤人	-5575
▁仧亳亃云伺	-5576
▁亃众	-5577
▁亃倀	-5578
佋亚仕亇	-5579
▁亪仛仉亖	-5580
▁亃事仍予亳亇	-5581
亹亣佴	-5582
▁伕于伮	-5583
▁劀	-5584
▁亣介亹亊仌五	-5585
▁仍予亳亏什亖	-5586
▁仁伍予	-5587
▁京亭什五	-5588
yl	-5589
了亚仠	-5590
仉侀亇	-5591
▁1972	-5592
▁亅亟众予亐	-5593
▁亃事伮亖	-5594
▁仫佃予亐	-5595
▁侈亴亟令	-5596
▁二亍于亊五	-5597
交佴	-5598
▁价佼	-5599
▁亅侌亥	-5600
▁伃伡俔	-5601
▁亽仱亟亸	-5602
ial	-5603
▁伋佺	-5604
人于亡	-5605
▁井亊倎	-5606
▁仉亟卭	-5607
▁二人了亹亗	-5608
▁仵亪亣予亐	-5609
▁仵亪亣伧五	-5610
▁兑	-5611
仌仏	-5612
▁亘価	-5613
▁亽僋亇	-5614
▁付亨伅五	-5615
些仱予伂亇	-5616
▁侍今	-5617
▁佳倀佇仅	-5618
ach	-5619
▁亓亵	-5620
▁亩侖	-5621
▁价僓予	-5622
▁云仯亃五	-5623
▁亞亟伸人亝	-5624
亻五	-5625
傷什	-5626
▁亂仴予	-5627
▁亩了亇	-5628
▁仦俔伧亖	-5629
▁井亾亘予亐	-5630
▁仐仺些亹亗	-5631
▁予亭于亻亼仇伺	-5632
▁今亏	-5633
了亶予	-5634
▁亅亟亍人亻亼仇	-5635
佚五	-5636
ain	-5637
▁仉亭侐	-5638
▁亓伩伧亖	-5639
▁38	-5640
▁侼亜	-5641
▁仵冹伮	-5642
▁些介亅亊	-5643
予佛	-5644
亙仜	-5645
▁亪侐侍	-5646
▁仦伽仍	-5647
▁些仏	-5648
▁亞卯亟	-5649
▁亃事仍予仱仇	-5650
▁价偳	-5651
伵仄亇	-5652
▁伕亳作	-5653
▁二亍些亾五	-5654
▁井亊亍亜伴	-5655
ann	-5656
今予伂亇	-5657
亴仠	-5658
▁价亢	-5659
▁伇侁	-5660
些亣亰亇	-5661
21	-5662
亨仠	-5663
▁仅伺	-5664
仱仇于	-5665
▁亅仞了	-5666
▁亪伄了	-5667
▁仸人亃	-5668
23	-5669
亸些	-5670
▁亞伧	-5671
▁云亳亏亐	-5672
▁仉仂伕亾	-5673
▁亃交仞亿亐	-5674
▁价僓予亳亇	-5675
CH	-5676
亏五	-5677
ort	-5678
亳亸亇	-5679
▁亻亾灴	-5680
▁亓仏了亗亚	-5681
▁亴今偃	-5682
▁仄儯交	-5683
▁价儆优	-5684
▁亓伄仉了亹亗于	-5685
予亭	-5686
▁亓侘	-5687
▁伲仓	-5688
▁仉側倿	-5689
▁仧亳億	-5690
仱倿	-5691
▁亓倃	-5692
▁侍亗	-5693
▁亣仏伟	-5694
▁仸人亇	-5695
▁亂倯	-5696
▁仉什	-5697
▁价倕亭	-5698
▁亣介了亦	-5699
55	-5700
66	-5701
亯亜	-5702
our	-5703
▁8,	-5704
▁亷仙	-5705
估什亖	-5706
▁云债	-5707
▁仍云	-5708
▁仧仆	-5709
▁1920	-5710
▁亓伄亂予亇	-5711
▁价俘	-5712
亃亏亐	-5713
亹作亖	-5714
▁37	-5715
▁价使	-5716
▁亓些亿亶亖	-5717
▁伇云亟亏什亖	-5718
仵亭	-5719
▁亂兴	-5720
▁井亸侕	-5721
▁仈亗	-5722
▁亃事亘伧亱仇	-5723
98	-5724
了亾	-5725
▁亮争	-5726
▁伋倉	-5727
▁仈伀倖	-5728
▁仍予亭仡	-5729
优五	-5730
仱仌亾	-5731
▁亅亟亍人仌亟	-5732
▁井交	-5733
▁亅亜亹	-5734
▁亅仞仯	-5735
▁倧位予	-5736
▁予仞予仌亖	-5737
▁亴些亮亭仮五	-5738
仂仜	-5739
▁亞佻	-5740
▁予亣伺	-5741
▁亷亃仓	-5742
▁伇亃仉	-5743
▁价些互亐	-5744
亏佀	-5745
倻佥	-5746
▁亣倠	-5747
▁仉亖	-5748
▁亅亜仟	-5749
▁仉侢	-5750
uc	-5751
▁伇亷	-5752
▁亓以会	-5753
▁亞伳仡	-5754
▁价仆亏	-5755
▁1962	-5756
ht	-5757
佥令	-5758
ank	-5759
▁侫云	-5760
仚亭侵	-5761
▁亅亟五	-5762
▁仐亟云	-5763
▁价侤亡	-5764
▁亓亰些仄伺	-5765
佄亚	-5766
余亊	-5767
們亣	-5768
▁44	-5769
▁云伿亅亇	-5770
仇仌亖	-5771
▁予介伧亖	-5772
些亩予伂亇	-5773
傣五	-5774
ast	-5775
▁仉冩	-5776
▁侬囇	-5777
▁仉仆伉	-5778
▁些伇亣予亐	-5779
亱五	-5780
▁倧优亟	-5781
▁33	-5782
▁亊傒	-5783
▁佳佪仞	-5784
▁亓伄仰亿亐	-5785
▁井亃仉仕亊五	-5786
▁亓亅	-5787
▁亣倖	-5788
▁伲亣	-5789
▁亂亜佛	-5790
▁付亣亙	-5791
些亩亪亇	-5792
▁佂什亹享	-5793
▁亷亥亻仏于	-5794
▁亂亃俢亃亱予	-5795
▁云佽	-5796
▁予优会	-5797
些介仕亇	-5798
▁仉亭于予亐	-5799
伔于	-5800
▁伲仒	-5801
仉伊伆	-5802
▁The	-5803
▁些介仅仇	-5804
▁亓仯	-5805
▁10,	-5806
▁佖了伺	-5807
;.	-5808
亷什	-5809
仱亣	-5810
▁今佉	-5811
今予仠	-5812
仱伡伺	-5813
亮亭仮亐	-5814
▁付亻僙五	-5815
▁仦俔伧五	-5816
▁京亭什亟亖	-5817
▁仧佱仄仌亖	-5818
▁亓亊伉	-5819
▁仉优亙	-5820
▁二亣俞亡	-5821
▁价佻佬仇	-5822
仡亡亟	-5823
亱仆亭亇	-5824
▁亪仛了亐	-5825
▁剪	-5826
▁付亪	-5827
▁仐依仧	-5828
▁亃仯会些	-5829
亹人仌亟于	-5830
▁云亳伕些优	-5831
▁亮亭云仆伂	-5832
uk	-5833
▁侍仆	-5834
▁1945	-5835
▁亮亳侐侄伺	-5836
▁仵优伙伓亇	-5837
伒伺	-5838
伧侇	-5839
伮亳侈伇	-5840
▁侍伧仓五	-5841
▁佢介	-5842
▁亅亳云	-5843
▁亅争亟仓亊	-5844
亚仅	-5845
偼佶	-5846
▁佃亳	-5847
▁仧亾伟	-5848
▁1982	-5849
▁价仄偭五	-5850
▁佢亣云亼亇	-5851
伨亡	-5852
▁偁亅	-5853
伃亗伺	-5854
▁二侻亐	-5855
▁亻仞亨佇亟	-5856
亩仯	-5857
仮仯亟	-5858
▁予人亇	-5859
▁亓什亝	-5860
▁价佇仱	-5861
▁仍人仐事	-5862
▁冑	-5863
亙侏	-5864
僕仇	-5865
▁些仺	-5866
▁些仞伉伡伺	-5867
▁付争	-5868
▁佖以	-5869
便予亐	-5870
▁仵优亱仆伺	-5871
佱人	-5872
▁予亣亾亟	-5873
▁亪亜伆伄	-5874
▁任伿些伺	-5875
ure	-5876
▁伇侉	-5877
侴仏于	-5878
倍仏于	-5879
▁亃仉偋	-5880
了亹人亻亼于	-5881
亃交僴	-5882
▁亂仌介	-5883
▁仅儤亸亇	-5884
亝仄	-5885
▁仫冓	-5886
▁仮什	-5887
▁伕仉伧五	-5888
▁任仼亭佝伺	-5889
aj	-5890
倄亖	-5891
亃侀亇	-5892
剈伺	-5893
▁亞冺	-5894
▁份佥仅	-5895
▁亅仄些伎	-5896
▁二人会仜	-5897
亪仮	-5898
亳佃	-5899
▁亅亜亙	-5900
仯仅仉五	-5901
份予	-5902
ens	-5903
▁些侂	-5904
▁仸亜	-5905
些伫亖	-5906
▁二亍亃五	-5907
▁侈僧人了亹亗	-5908
27	-5909
▁46	-5910
ence	-5911
▁京于伂	-5912
▁仧亍互	-5913
亪亭	-5914
▁8.	-5915
▁亞伄	-5916
予亿亐	-5917
▁7,	-5918
▁予仒	-5919
▁侼亾	-5920
▁亅倚仧	-5921
▁云亣伮亊	-5922
▁井享亟于	-5923
▁今以	-5924
亅人仌	-5925
亷仄亇	-5926
▁些仆从	-5927
▁仱亅俬	-5928
▁予亭些亡	-5929
▁伇亾仅予	-5930
▁予仉亦予亐	-5931
▁仁劄	-5932
伎仅亖	-5933
▁亴亏傠	-5934
俥亿亐	-5935
▁云仇亇	-5936
▁佖仙人会	-5937
▁价亭亨亼于	-5938
▁仮些亗仌亰产	-5939
价亟	-5940
▁亓亭仉	-5941
▁二亍些介	-5942
▁云仯亃亿亐	-5943
Al	-5944
仓亟亖	-5945
▁亻仆侕	-5946
▁二亍亣亖	-5947
▁亞亟伸亊	-5948
▁仝仞亹亥产于	-5949
▁39	-5950
▁亓俨	-5951
▁仸作	-5952
云亟仮	-5953
伨亿亐	-5954
ment	-5955
▁些亳亃仱側	-5956
▁井仺伮仇亭亇	-5957
▁亂伖	-5958
▁仁五	-5959
▁伱仱亟	-5960
亝伺	-5961
▁价伵	-5962
▁俸仞五	-5963
▁亻享仅于	-5964
▁仈仓亅亳	-5965
▁仵亊亾五	-5966
▁伇亗亹亜	-5967
▁亓亜亹享仅予	-5968
▁仁交	-5969
▁云佇亳	-5970
▁亃仯仅予	-5971
▁些亊住优	-5972
▁亴亡伧亖	-5973
▁价亟伫亟	-5974
▁侄伧	-5975
▁亪仆亇	-5976
▁仍人些値	-5977
▁仧仱佇亟	-5978
▁云亭会些伺	-5979
ont	-5980
▁).	-5981
▁予亖	-5982
▁仈仌	-5983
▁予仄亙	-5984
▁价些亿伽仡	-5985
▁佧亃	-5986
▁云亃亇	-5987
▁付仓亟亖	-5988
▁佂什亽亥	-5989
ond	-5990
▁仦促	-5991
▁仍享亂亡伧亖	-5992
亘亟	-5993
▁井些	-5994
▁井亱	-5995
▁任仿	-5996
亭仮仇	-5997
作亰亇	-5998
▁予亭仟	-5999
▁亷亥亇	-6000
▁亓伉亭伟	-6001
些亭亻仏于	-6002
仡亃亖	-6003
▁交偞亟	-6004
俧亖	-6005
▁CH	-6006
▁1952	-6007
▁亅伧亾亊	-6008
▁价仱使亟仌五	-6009
ff	-6010
亾亙	-6011
余仺	-6012
ord	-6013
▁今亣	-6014
仯予亐	-6015
▁于亭些	-6016
▁亘先仁	-6017
▁1964	-6018
亝仆亇	-6019
▁侩伡仉五	-6020
▁侼人	-6021
些亿什	-6022
▁付仼亟五	-6023
ice	-6024
▁侲匭	-6025
价佇仅	-6026
▁亻仞価	-6027
▁伕亳作亴	-6028
▁价仇侦亭了	-6029
%,	-6030
亹亣伂	-6031
▁亣亭便	-6032
▁仦亻亟些仔仠	-6033
▁伲仇	-6034
亹争亭亨仏于	-6035
▁二佲	-6036
争亟于	-6037
▁仧仏伟	-6038
▁伇于亳亏	-6039
▁予亵亊	-6040
▁仧亾凸	-6041
了余亜亟	-6042
▁1968	-6043
亪亜	-6044
▁予云	-6045
些仇亇	-6046
▁仵亪亣仡	-6047
▁亅亟仴争亖	-6048
▁亓亰些仄予	-6049
▁仐仺仉伡伺	-6050
▁付伎	-6051
▁价些侘	-6052
予亶亰亇	-6053
▁价亃佱仇	-6054
▁侺亳仌亖	-6055
▁亷仄仮伡伺	-6056
▁仵亊侕仅仇	-6057
▁佳亾亟仉佴	-6058
使五	-6059
▁亃俰	-6060
予亳五	-6061
佋亶予	-6062
亨佚亿亐	-6063
▁亅亊伮亜	-6064
▁佡伥予亐	-6065
僤人	-6066
ari	-6067
▁亓偓	-6068
亘予亐	-6069
▁1966	-6070
了亹亊仉佴	-6071
▁亓倭	-6072
▁佖侈	-6073
▁兼亣	-6074
仅云亖	-6075
▁for	-6076
▁	-6077
亇	-6078
予	-6079
.	-6080
亖	-6081
些	-6082
价	-6083
亟	-6084
于	-6085
亓	-6086
亭	-6087
五	-6088
亃	-6089
伺	-6090
,	-6091
亳	-6092
仇	-6093
云	-6094
亅	-6095
亣	-6096
仉	-6097
仦	-6098
亹	-6099
人	-6100
亊	-6101
亐	-6102
亪	-6103
二	-6104
伧	-6105
仄	-6106
亾	-6107
了	-6108
井	-6109
亻	-6110
仌	-6111
仮	-6112
亗	-6113
什	-6114
仡	-6115
亂	-6116
仅	-6117
1	-6118
亜	-6119
仱	-6120
伇	-6121
佛	-6122
亴	-6123
仏	-6124
亷	-6125
产	-6126
亏	-6127
今	-6128
仧	-6129
0	-6130
事	-6131
令	-6132
仠	-6133
"	-6134
仈	-6135
亼	-6136
仐	-6137
亚	-6138
仆	-6139
交	-6140
仺	-6141
亝	-6142
伟	-6143
仍	-6144
伂	-6145
会	-6146
亘	-6147
亮	-6148
亢	-6149
亩	-6150
仓	-6151
2	-6152
亞	-6153
亿	-6154
亥	-6155
互	-6156
付	-6157
享	-6158
a	-6159
仵	-6160
争	-6161
仾	-6162
)	-6163
(	-6164
伄	-6165
亸	-6166
亨	-6167
介	-6168
亰	-6169
9	-6170
仯	-6171
任	-6172
亱	-6173
亡	-6174
伲	-6175
佃	-6176
侫	-6177
仕	-6178
亙	-6179
亍	-6180
伕	-6181
亽	-6182
伽	-6183
仞	-6184
伡	-6185
伮	-6186
e	-6187
伎	-6188
仂	-6189
侍	-6190
佂	-6191
佇	-6192
份	-6193
俔	-6194
i	-6195
仛	-6196
优	-6197
侈	-6198
仢	-6199
伨	-6200
众	-6201
仁	-6202
仿	-6203
5	-6204
r	-6205
n	-6206
倧	-6207
仒	-6208
7	-6209
8	-6210
t	-6211
o	-6212
仜	-6213
伫	-6214
3	-6215
-	-6216
伿	-6217
伵	-6218
京	-6219
4	-6220
伈	-6221
佖	-6222
6	-6223
侀	-6224
亶	-6225
佉	-6226
侐	-6227
仃	-6228
仼	-6229
伉	-6230
亦	-6231
佘	-6232
l	-6233
伐	-6234
仫	-6235
s	-6236
仸	-6237
仹	-6238
伅	-6239
佰	-6240
亵	-6241
俌	-6242
伥	-6243
倖	-6244
佋	-6245
仙	-6246
佢	-6247
住	-6248
伃	-6249
h	-6250
m	-6251
作	-6252
:	-6253
伆	-6254
c	-6255
u	-6256
佳	-6257
侲	-6258
佬	-6259
仳	-6260
佝	-6261
仨	-6262
位	-6263
佤	-6264
d	-6265
傱	-6266
以	-6267
佭	-6268
佡	-6269
佴	-6270
佦	-6271
仭	-6272
侼	-6273
侻	-6274
们	-6275
伱	-6276
僴	-6277
仩	-6278
倐	-6279
佚	-6280
伖	-6281
侘	-6282
佥	-6283
伔	-6284
倿	-6285
佱	-6286
仝	-6287
侏	-6288
佶	-6289
佽	-6290
p	-6291
y	-6292
側	-6293
伴	-6294
佁	-6295
修	-6296
侬	-6297
伊	-6298
似	-6299
侃	-6300
伏	-6301
俖	-6302
偁	-6303
使	-6304
伦	-6305
俥	-6306
俟	-6307
俸	-6308
伤	-6309
倾	-6310
侩	-6311
g	-6312
偞	-6313
俄	-6314
伋	-6315
們	-6316
佧	-6317
C	-6318
伓	-6319
侰	-6320
S	-6321
P	-6322
佞	-6323
伀	-6324
侕	-6325
俤	-6326
亯	-6327
伪	-6328
A	-6329
'	-6330
便	-6331
做	-6332
値	-6333
余	-6334
f	-6335
I	-6336
偢	-6337
佮	-6338
侚	-6339
俞	-6340
仔	-6341
;	-6342
侂	-6343
债	-6344
仪	-6345
侑	-6346
仟	-6347
侺	-6348
侵	-6349
伝	-6350
俽	-6351
]	-6352
侪	-6353
b	-6354
M	-6355
[	-6356
侦	-6357
估	-6358
k	-6359
G	-6360
佔	-6361
倀	-6362
偓	-6363
偠	-6364
傒	-6365
俕	-6366
T	-6367
偼	-6368
佼	-6369
伸	-6370
%	-6371
v	-6372
偮	-6373
他	-6374
倌	-6375
侇	-6376
俧	-6377
B	-6378
個	-6379
佐	-6380
N	-6381
保	-6382
偃	-6383
/	-6384
传	-6385
侖	-6386
促	-6387
D	-6388
伩	-6389
侢	-6390
僧	-6391
依	-6392
俍	-6393
H	-6394
R	-6395
侶	-6396
僂	-6397
侳	-6398
侄	-6399
倇	-6400
倈	-6401
E	-6402
倫	-6403
伛	-6404
仰	-6405
佺	-6406
侸	-6407
倘	-6408
w	-6409
佻	-6410
偋	-6411
仴	-6412
O	-6413
俙	-6414
倚	-6415
僜	-6416
侜	-6417
伾	-6418
信	-6419
僤	-6420
儝	-6421
倰	-6422
佄	-6423
偷	-6424
仚	-6425
L	-6426
亲	-6427
F	-6428
伍	-6429
佅	-6430
代	-6431
冃	-6432
伬	-6433
偫	-6434
僭	-6435
侾	-6436
倹	-6437
傠	-6438
倨	-6439
伭	-6440
倱	-6441
億	-6442
副	-6443
倗	-6444
偿	-6445
佷	-6446
僃	-6447
倬	-6448
傊	-6449
佲	-6450
伞	-6451
僑	-6452
刻	-6453
儣	-6454
侠	-6455
冫	-6456
侽	-6457
你	-6458
倕	-6459
K	-6460
俬	-6461
侣	-6462
佩	-6463
佌	-6464
俰	-6465
僣	-6466
俻	-6467
从	-6468
伳	-6469
価	-6470
俜	-6471
刷	-6472
卢	-6473
健	-6474
侔	-6475
偛	-6476
V	-6477
冚	-6478
但	-6479
債	-6480
円	-6481
仑	-6482
儋	-6483
僸	-6484
俆	-6485
俹	-6486
俀	-6487
倔	-6488
侎	-6489
x	-6490
兹	-6491
係	-6492
俱	-6493
侅	-6494
佑	-6495
佀	-6496
傍	-6497
僙	-6498
倛	-6499
來	-6500
俈	-6501
=	-6502
值	-6503
儘	-6504
免	-6505
傴	-6506
伌	-6507
偸	-6508
俶	-6509
佊	-6510
佪	-6511
W	-6512
傈	-6513
倻	-6514
儼	-6515
儀	-6516
俒	-6517
僵	-6518
倍	-6519
剏	-6520
佈	-6521
俲	-6522
僫	-6523
件	-6524
侌	-6525
冊	-6526
俎	-6527
俩	-6528
刞	-6529
伣	-6530
僋	-6531
俢	-6532
侭	-6533
僰	-6534
U	-6535
卡	-6536
俵	-6537
倉	-6538
_	-6539
偄	-6540
僉	-6541
偽	-6542
J	-6543
劃	-6544
侯	-6545
偳	-6546
傞	-6547
傣	-6548
伙	-6549
俯	-6550
僛	-6551
|	-6552
偭	-6553
內	-6554
仗	-6555
僕	-6556
傘	-6557
傷	-6558
侨	-6559
侞	-6560
偪	-6561
亄	-6562
亠	-6563
停	-6564
俨	-6565
倅	-6566
凖	-6567
兕	-6568
偈	-6569
刡	-6570
刄	-6571
z	-6572
前	-6573
侉	-6574
典	-6575
倜	-6576
儅	-6577
元	-6578
傩	-6579
偘	-6580
倠	-6581
傃	-6582
傋	-6583
儓	-6584
僾	-6585
儯	-6586
傅	-6587
僺	-6588
倞	-6589
兒	-6590
侤	-6591
+	-6592
侓	-6593
傫	-6594
儤	-6595
佹	-6596
儒	-6597
体	-6598
僇	-6599
偔	-6600
伢	-6601
冝	-6602
偂	-6603
俠	-6604
j	-6605
伶	-6606
俼	-6607
侴	-6608
偍	-6609
傌	-6610
券	-6611
倽	-6612
偗	-6613
凹	-6614
儇	-6615
剗	-6616
倆	-6617
倵	-6618
伷	-6619
僓	-6620
吵	-6621
傦	-6622
创	-6623
伒	-6624
兼	-6625
偙	-6626
偌	-6627
凇	-6628
吮	-6629
供	-6630
僐	-6631
偆	-6632
凟	-6633
X	-6634
兺	-6635
喣	-6636
佟	-6637
俓	-6638
倥	-6639
?	-6640
兽	-6641
倲	-6642
俦	-6643
俾	-6644
償	-6645
倂	-6646
剅	-6647
倁	-6648
兎	-6649
僿	-6650
凷	-6651
!	-6652
傧	-6653
僻	-6654
冹	-6655
冩	-6656
偕	-6657
俑	-6658
兙	-6659
儐	-6660
卯	-6661
倪	-6662
剛	-6663
傻	-6664
佾	-6665
冉	-6666
偧	-6667
倸	-6668
傟	-6669
儃	-6670
儾	-6671
僟	-6672
傥	-6673
傾	-6674
僳	-6675
伜	-6676
傏	-6677
僽	-6678
侹	-6679
兄	-6680
僡	-6681
冺	-6682
冓	-6683
吞	-6684
借	-6685
倃	-6686
俐	-6687
兑	-6688
傁	-6689
傹	-6690
僀	-6691
俁	-6692
儂	-6693
倄	-6694
呒	-6695
僆	-6696
俋	-6697
儚	-6698
嘃	-6699
先	-6700
兠	-6701
偀	-6702
傸	-6703
凬	-6704
凸	-6705
傝	-6706
倎	-6707
卫	-6708
佫	-6709
兇	-6710
傤	-6711
凩	-6712
侷	-6713
冦	-6714
偵	-6715
僞	-6716
唅	-6717
侧	-6718
侮	-6719
倡	-6720
偎	-6721
凄	-6722
儽	-6723
佨	-6724
倮	-6725
$	-6726
关	-6727
吹	-6728
休	-6729
冐	-6730
剌	-6731
咈	-6732
儁	-6733
公	-6734
兛	-6735
児	-6736
倒	-6737
儜	-6738
嬮	-6739
q	-6740
假	-6741
劧	-6742
偐	-6743
冱	-6744
僖	-6745
偾	-6746
Y	-6747
印	-6748
冎	-6749
偑	-6750
僲	-6751
&	-6752
傔	-6753
冈	-6754
养	-6755
呇	-6756
倭	-6757
劬	-6758
俘	-6759
冄	-6760
儍	-6761
僮	-6762
兔	-6763
偒	-6764
凯	-6765
冸	-6766
僊	-6767
刣	-6768
傳	-6769
冔	-6770
佣	-6771
創	-6772
儉	-6773
倝	-6774
刁	-6775
何	-6776
凪	-6777
兓	-6778
冴	-6779
卐	-6780
傲	-6781
僌	-6782
偶	-6783
伯	-6784
兝	-6785
卑	-6786
咔	-6787
兴	-6788
凾	-6789
刊	-6790
企	-6791
Q	-6792
伹	-6793
咓	-6794
刴	-6795
兮	-6796
儔	-6797
刕	-6798
判	-6799
冤	-6800
儕	-6801
儗	-6802
傉	-6803
凛	-6804
凅	-6805
併	-6806
卖	-6807
傰	-6808
偺	-6809
党	-6810
俗	-6811
助	-6812
劘	-6813
卉	-6814
倢	-6815
剈	-6816
厅	-6817
唌	-6818
倳	-6819
剪	-6820
低	-6821
偦	-6822
倯	-6823
名	-6824
八	-6825
厷	-6826
儆	-6827
倣	-6828
刾	-6829
噎	-6830
偲	-6831
唯	-6832
剨	-6833
卜	-6834
Z	-6835
呂	-6836
农	-6837
冮	-6838
剆	-6839
伻	-6840
傆	-6841
哧	-6842
偏	-6843
僪	-6844
侙	-6845
卨	-6846
冲	-6847
倴	-6848
喖	-6849
剰	-6850
冀	-6851
傪	-6852
咃	-6853
劄	-6854
卭	-6855
佒	-6856
卪	-6857
初	-6858
劇	-6859
侥	-6860
卺	-6861
叙	-6862
冕	-6863
响	-6864
刱	-6865
侊	-6866
侗	-6867
偤	-6868
劀	-6869
偊	-6870
僥	-6871
叽	-6872
匈	-6873
兂	-6874
僼	-6875
凼	-6876
刌	-6877
剳	-6878
呉	-6879
像	-6880
偉	-6881
僷	-6882
凵	-6883
咳	-6884
厃	-6885
出	-6886
侱	-6887
俏	-6888
儎	-6889
冑	-6890
卛	-6891
刉	-6892
其	-6893
侁	-6894
唷	-6895
割	-6896
俪	-6897
喩	-6898
嚻	-6899
僗	-6900
兆	-6901
僁	-6902
俉	-6903
偣	-6904
嗇	-6905
偻	-6906
叄	-6907
偡	-6908
灴	-6909
嗀	-6910
剚	-6911
囇	-6912
凝	-6913
儢	-6914
匭	-6915
僚	-6916
冿	-6917
吜	-6918
儻	-6919
倊	-6920
傓	-6921
呄	-6922
唻	-6923
卩	-6924
儑	-6925
冷	-6926
刪	-6927
吾	-6928
偹	-6929
傢	-6930
儿	-6931
兯	-6932
具	-6933
冋	-6934
刈	-6935
凎	-6936
倦	-6937
吭	-6938
劫	-6939
僱	-6940
冪	-6941
剜	-6942
例	-6943
凥	-6944
到	-6945
儛	-6946
儫	-6947
凳	-6948
傿	-6949
倓	-6950
咴	-6951
吰	-6952
傗	-6953
劵	-6954
儌	-6955
剔	-6956
*	-6957
咵	-6958
剱	-6959
回	-6960
儈	-6961
及	-6962
咣	-6963
吘	-6964
喋	-6965
僘	-6966
咕	-6967
刍	-6968
僄	-6969
兪	-6970
冶	-6971
哖	-6972
冁	-6973
圡	-6974
刚	-6975
咩	-6976
剷	-6977
傄	-6978
兩	-6979
侟	-6980
匮	-6981
卮	-6982
嗒	-6983
允	-6984
南	-6985
咮	-6986
咖	-6987
兿	-6988
參	-6989
垒	-6990
则	-6991
僬	-6992
冨	-6993
冻	-6994
吏	-6995
嗥	-6996
#	-6997
厒	-6998
吡	-6999
劚	-7000
凮	-7001
傀	-7002
儖	-7003
凡	-7004
哛	-7005
嗩	-7006
嗬	-7007
击	-7008
僠	-7009
品	-7010
冠	-7011
偱	-7012
啕	-7013
俅	-7014
噩	-7015
僦	-7016
傇	-7017
冗	-7018
務	-7019
叢	-7020
厳	-7021
刺	-7022
哥	-7023
嘩	-7024
卻	-7025
喀	-7026
场	-7027
嗍	-7028
刀	-7029
喸	-7030
匋	-7031
啳	-7032
^	-7033
備	-7034
啒	-7035
嘢	-7036
告	-7037
匒	-7038
侒	-7039
厣	-7040
嘅	-7041
傖	-7042
喉	-7043
吸	-7044
嚁	-7045
坪	-7046
哂	-7047
呴	-7048
呫	-7049
哢	-7050
喑	-7051
剩	-7052
册	-7053
厗	-7054
堈	-7055
垛	-7056
另	-7057
匍	-7058
又	-7059
吷	-7060
半	-7061
卽	-7062
嗱	-7063
划	-7064
呾	-7065
哘	-7066
嗻	-7067
哐	-7068
兡	-7069
劢	-7070
凁	-7071
単	-7072
叩	-7073
咁	-7074
埫	-7075
俣	-7076
噄	-7077
}	-7078
啰	-7079
制	-7080
劶	-7081
叻	-7082
喝	-7083
卿	-7084
双	-7085
嘏	-7086
冟	-7087
厕	-7088
叭	-7089
别	-7090
叇	-7091
儭	-7092
垏	-7093
兀	-7094
凔	-7095
呬	-7096
听	-7097
>	-7098
勚	-7099
凶	-7100
啁	-7101
嚿	-7102
吴	-7103
囚	-7104
俴	-7105
処	-7106
叚	-7107
儬	-7108
嘜	-7109
剉	-7110
剋	-7111
啴	-7112
倶	-7113
哊	-7114
匽	-7115
倷	-7116
吠	-7117
嘭	-7118
匉	-7119
功	-7120
剬	-7121
厀	-7122
削	-7123
嘮	-7124
偨	-7125
力	-7126
偖	-7127
兾	-7128
僅	-7129
劉	-7130
唇	-7131
堳	-7132
净	-7133
咛	-7134
圵	-7135
凱	-7136
嗉	-7137
呶	-7138
兢	-7139
劑	-7140
卞	-7141
吻	-7142
嘉	-7143
卍	-7144
噏	-7145
合	-7146
儡	-7147
坵	-7148
呸	-7149
劅	-7150
哦	-7151
圇	-7152
俊	-7153
墿	-7154
偰	-7155
哽	-7156
卵	-7157
叮	-7158
嗊	-7159
刋	-7160
坑	-7161
冂	-7162
偝	-7163
吪	-7164
咗	-7165
嘔	-7166
剙	-7167
厓	-7168
傕	-7169
嚉	-7170
囩	-7171
坻	-7172
囍	-7173
刖	-7174
卷	-7175
喕	-7176
叵	-7177
凋	-7178
傡	-7179
匧	-7180
吁	-7181
嘽	-7182
啸	-7183
偩	-7184
僎	-7185
函	-7186
坂	-7187
俺	-7188
垴	-7189
刜	-7190
吖	-7191
嚂	-7192
啹	-7193
包	-7194
儨	-7195
剖	-7196
危	-7197
嫧	-7198
呅	-7199
呈	-7200
勡	-7201
囔	-7202
冭	-7203
向	-7204
{	-7205
厤	-7206
围	-7207
偟	-7208
凍	-7209
劷	-7210
唠	-7211
俭	-7212
厨	-7213
墼	-7214
卙	-7215
啪	-7216
吔	-7217
咝	-7218
堩	-7219
埄	-7220
傎	-7221
咚	-7222
壞	-7223
俫	-7224
喥	-7225
噷	-7226
命	-7227
匆	-7228
嗆	-7229
堃	-7230
媚	-7231
凌	-7232
員	-7233
喙	-7234
倏	-7235
决	-7236
凚	-7237
儠	-7238
后	-7239
咂	-7240
嚑	-7241
咄	-7242
喿	-7243
塑	-7244
嗘	-7245
僝	-7246
劖	-7247
可	-7248
启	-7249
厏	-7250
嗌	-7251
哼	-7252
噍	-7253
咬	-7254
嗎	-7255
唂	-7256
啐	-7257
圆	-7258
圔	-7259
唉	-7260
嘦	-7261
嚒	-7262
塌	-7263
啑	-7264
嗴	-7265
啽	-7266
啮	-7267
嘈	-7268
噻	-7269
壍	-7270
傶	-7271
凗	-7272
匝	-7273
嚀	-7274
偬	-7275
入	-7276
再	-7277
切	-7278
問	-7279
喓	-7280
冧	-7281
午	-7282
厫	-7283
古	-7284
奫	-7285
審	-7286
呲	-7287
喊	-7288
兟	-7289
喺	-7290
哌	-7291
`	-7292
冣	-7293
分	-7294
唴	-7295
卹	-7296
厝	-7297
俚	-7298
厙	-7299
凴	-7300
夓	-7301
凰	-7302
卓	-7303
只	-7304
叉	-7305
僯	-7306
圓	-7307
坶	-7308
嫊	-7309
吊	-7310
克	-7311
嚖	-7312
哕	-7313
塣	-7314
嘬	-7315
坠	-7316
傮	-7317
劆	-7318
匑	-7319
妅	-7320
候	-7321
僈	-7322
坩	-7323
冇	-7324
唱	-7325
凂	-7326
兜	-7327
厢	-7328
唛	-7329
嚎	-7330
嬯	-7331
僒	-7332
儩	-7333
况	-7334
劝	-7335
劭	-7336
嘟	-7337
哄	-7338
嘄	-7339
埗	-7340
咥	-7341
坆	-7342
剕	-7343
吙	-7344
儦	-7345
厄	-7346
圎	-7347
埪	-7348
咷	-7349
哜	-7350
哨	-7351
儏	-7352
兤	-7353
务	-7354
凃	-7355
厛	-7356
囬	-7357
哷	-7358
坸	-7359
娚	-7360
咀	-7361
咟	-7362
募	-7363
堛	-7364
妓	-7365
咢	-7366
垾	-7367
堋	-7368
堠	-7369
单	-7370
厚	-7371
吇	-7372
咶	-7373
哠	-7374
垓	-7375
剄	-7376
劙	-7377
卲	-7378
噔	-7379
専	-7380
別	-7381
姄	-7382
勝	-7383
即	-7384
唀	-7385
姜	-7386
凢	-7387
卣	-7388
呁	-7389
块	-7390
实	-7391
\	-7392
劺	-7393
协	-7394
君	-7395
壖	-7396
剁	-7397
剻	-7398
劜	-7399
囫	-7400
儸	-7401
僔	-7402
剓	-7403
匇	-7404
咨	-7405
姩	-7406
剐	-7407
呮	-7408
嗟	-7409
埶	-7410
塓	-7411
夎	-7412
叼	-7413
呻	-7414
佸	-7415
劊	-7416
嗽	-7417
壽	-7418
叔	-7419
呓	-7420
地	-7421
发	-7422
唁	-7423
嗋	-7424
坥	-7425
堌	-7426
哤	-7427
婉	-7428
厧	-7429
呏	-7430
嗺	-7431
兗	-7432
凊	-7433
凒	-7434
吳	-7435
<	-7436
嘪	-7437
啄	-7438
冘	-7439
圭	-7440
口	-7441
喗	-7442
垫	-7443
埀	-7444
劯	-7445
圂	-7446
嘱	-7447
墻	-7448
凙	-7449
刐	-7450
吉	-7451
儧	-7452
垬	-7453
垐	-7454
厁	-7455
呑	-7456
在	-7457
塜	-7458
冽	-7459
凫	-7460
刮	-7461
叺	-7462
咠	-7463
叨	-7464
囎	-7465
嘖	-7466
嗢	-7467
哱	-7468
卼	-7469
噸	-7470
傽	-7471
嘝	-7472
圩	-7473
囪	-7474
嫑	-7475
凧	-7476
嚨	-7477
坃	-7478
僢	-7479
凿	-7480
唞	-7481
喾	-7482
坚	-7483
剼	-7484
嘕	-7485
劸	-7486
唫	-7487
喧	-7488
坨	-7489
员	-7490
哣	-7491
嚴	-7492
吢	-7493
凓	-7494
塤	-7495
奒	-7496
尤	-7497
俳	-7498
嗲	-7499
味	-7500
商	-7501
嗁	-7502
嗚	-7503
埰	-7504
変	-7505
匞	-7506
囓	-7507
嗔	-7508
儱	-7509
呿	-7510
囐	-7511
埐	-7512
层	-7513
叅	-7514
堲	-7515
嫈	-7516
嫸	-7517
啇	-7518
啧	-7519
埞	-7520
媩	-7521
吨	-7522
壳	-7523
嘷	-7524
坙	-7525
劂	-7526
哯	-7527
囧	-7528
幓	-7529
厽	-7530
嗖	-7531
势	-7532
呰	-7533
唜	-7534
劌	-7535
吆	-7536
嗯	-7537
奬	-7538
嶗	-7539
刦	-7540
哗	-7541
岴	-7542
則	-7543
僨	-7544
凉	-7545
坔	-7546
嘹	-7547
堊	-7548
傂	-7549
召	-7550
嗅	-7551
奷	-7552
卟	-7553
呍	-7554
因	-7555
垣	-7556
冯	-7557
営	-7558
吱	-7559
妧	-7560
媵	-7561
咋	-7562
嘓	-7563
埵	-7564
嬇	-7565
冖	-7566
厮	-7567
墫	-7568
咞	-7569
国	-7570
塛	-7571
妆	-7572
嗕	-7573
嫵	-7574
刬	-7575
咒	-7576
咦	-7577
囏	-7578
壤	-7579
娦	-7580
嵳	-7581
吣	-7582
哇	-7583
塡	-7584
孜	-7585
恧	-7586
~	-7587
叏	-7588
夐	-7589
妋	-7590
恡	-7591
嚃	-7592
恨	-7593
咙	-7594
唡	-7595
嗄	-7596
埨	-7597
執	-7598
媲	-7599
剺	-7600
号	-7601
呃	-7602
墅	-7603
刂	-7604
呭	-7605
囖	-7606
兘	-7607
唾	-7608
堇	-7609
奣	-7610
姥	-7611
唏	-7612
佗	-7613
夷	-7614
卾	-7615
垌	-7616
嗵	-7617
嘎	-7618
嚾	-7619
妭	-7620
垀	-7621
妁	-7622
姃	-7623
凲	-7624
剭	-7625
園	-7626
傜	-7627
凤	-7628
周	-7629
囂	-7630
埊	-7631
劁	-7632
呌	-7633
埯	-7634
喭	-7635
墲	-7636
嚳	-7637
孹	-7638
崰	-7639
憊	-7640
哸	-7641
嘑	-7642
囨	-7643
妲	-7644
媆	-7645
冏	-7646
刘	-7647
剽	-7648
唎	-7649
嚠	-7650
壚	-7651
壻	-7652
多	-7653
剂	-7654
刃	-7655
塆	-7656
剹	-7657
嗠	-7658
噐	-7659
唃	-7660
准	-7661
厸	-7662
噦	-7663
壟	-7664
射	-7665
圑	-7666
壙	-7667
崘	-7668
几	-7669
叱	-7670
叾	-7671
咰	-7672
喒	-7673
夭	-7674
嶞	-7675
怌	-7676
敲	-7677
曏	-7678
啬	-7679
悄	-7680
啋	-7681
噌	-7682
圮	-7683
塉	-7684
兖	-7685
各	-7686
唗	-7687
嘌	-7688
場	-7689
優	-7690
厠	-7691
变	-7692
嘫	-7693
士	-7694
帽	-7695
吥	-7696
唊	-7697
塯	-7698
好	-7699
博	-7700
呐	-7701
啩	-7702
嬠	-7703
山	-7704
冾	-7705
和	-7706
嚏	-7707
圞	-7708
圹	-7709
媡	-7710
嬧	-7711
呎	-7712
咭	-7713
哳	-7714
噑	-7715
夋	-7716
峦	-7717
刏	-7718
喁	-7719
埭	-7720
奙	-7721
寧	-7722
兌	-7723
剿	-7724
嘆	-7725
坄	-7726
塟	-7727
倩	-7728
嗰	-7729
槐	-7730
剮	-7731
匎	-7732
呵	-7733
哋	-7734
啦	-7735
埓	-7736
吧	-7737
咹	-7738
婚	-7739
察	-7740
寶	-7741
叶	-7742
吽	-7743
咽	-7744
唤	-7745
塋	-7746
全	-7747
冬	-7748
刳	-7749
圣	-7750
垻	-7751
墒	-7752
嫤	-7753
廕	-7754
圿	-7755
堡	-7756
呯	-7757
啱	-7758
垑	-7759
堤	-7760
唺	-7761
堁	-7762
媊	-7763
孙	-7764
嶆	-7765
燀	-7766
咊	-7767
喜	-7768
开	-7769
砭	-7770
劾	-7771
嘒	-7772
噜	-7773
垡	-7774
慨	-7775
利	-7776
吕	-7777
吼	-7778
呕	-7779
哫	-7780
將	-7781
惣	-7782
努	-7783
坦	-7784
壼	-7785
撏	-7786
傼	-7787
呗	-7788
嚶	-7789
図	-7790
圴	-7791
垗	-7792
愿	-7793
咎	-7794
嫾	-7795
幆	-7796
受	-7797
哾	-7798
坭	-7799
堦	-7800
叞	-7801
哟	-7802
囒	-7803
圈	-7804
哉	-7805
喤	-7806
垵	-7807
妈	-7808
儺	-7809
匏	-7810
嘥	-7811
團	-7812
坾	-7813
呔	-7814
喟	-7815
嚔	-7816
圕	-7817
埘	-7818
墄	-7819
墱	-7820
姟	-7821
媀	-7822
嫜	-7823
导	-7824
岛	-7825
仲	-7826
匿	-7827
喘	-7828
噒	-7829
堪	-7830
媷	-7831
劗	-7832
否	-7833
哺	-7834
喈	-7835
喦	-7836
嚓	-7837
妠	-7838
妵	-7839
効	-7840
哞	-7841
噕	-7842
堵	-7843
崶	-7844
帓	-7845
剸	-7846
叕	-7847
吂	-7848
呪	-7849
墁	-7850
婬	-7851
婋	-7852
卦	-7853
咸	-7854
唧	-7855
啫	-7856
巓	-7857
匯	-7858
咑	-7859
圃	-7860
妌	-7861
刿	-7862
啎	-7863
圫	-7864
墩	-7865
屃	-7866
傑	-7867
儮	-7868
升	-7869
吺	-7870
嗛	-7871
嘀	-7872
埩	-7873
圼	-7874
婺	-7875
慺	-7876
叹	-7877
哬	-7878
圖	-7879
壏	-7880
寏	-7881
帥	-7882
俷	-7883
兲	-7884
吿	-7885
嗞	-7886
垠	-7887
夌	-7888
媟	-7889
媢	-7890
嫔	-7891
孖	-7892
峐	-7893
峨	-7894
僩	-7895
内	-7896
劒	-7897
匐	-7898
厪	-7899
喯	-7900
坊	-7901
厥	-7902
囑	-7903
妽	-7904
姛	-7905
孌	-7906
尛	-7907
堬	-7908
@	-7909
價	-7910
啂	-7911
嘠	-7912
噀	-7913
噰	-7914
嚗	-7915
嚤	-7916
埬	-7917
堾	-7918
嬚	-7919
尲	-7920
兊	-7921
剾	-7922
匔	-7923
嚍	-7924
型	-7925
墌	-7926
墾	-7927
夦	-7928
悥	-7929
囶	-7930
岊	-7931
峠	-7932
嶻	-7933
働	-7934
厲	-7935
唋	-7936
唝	-7937
噧	-7938
列	-7939
剝	-7940
台	-7941
嗈	-7942
噃	-7943
媧	-7944
対	-7945
岣	-7946
廃	-7947
原	-7948
夔	-7949
媌	-7950
幊	-7951
偅	-7952
哶	-7953
囘	-7954
塎	-7955
墳	-7956
墺	-7957
搊	-7958
勎	-7959
咫	-7960
哀	-7961
唳	-7962
娥	-7963
媤	-7964
峭	-7965
咯	-7966
嗜	-7967
均	-7968
孔	-7969
匤	-7970
唵	-7971
啔	-7972
噁	-7973
堀	-7974
堨	-7975
夂	-7976
夛	-7977
奟	-7978
嫀	-7979
尪	-7980
就	-7981
帜	-7982
抛	-7983
劻	-7984
咺	-7985
唙	-7986
域	-7987
孊	-7988
强	-7989
揠	-7990
吋	-7991
唖	-7992
喚	-7993
嘾	-7994
坌	-7995
夏	-7996
尰	-7997
弎	-7998
悈	-7999
司	-8000
姣	-8001
崇	-8002
卬	-8003
喎	-8004
嚩	-8005
埙	-8006
塮	-8007
姶	-8008
婿	-8009
嫌	-8010
弋	-8011
叡	-8012
啼	-8013
喹	-8014
坬	-8015
塀	-8016
婈	-8017
孒	-8018
刭	-8019
勍	-8020
吚	-8021
嗤	-8022
嘡	-8023
噊	-8024
囅	-8025
埈	-8026
夨	-8027
嫮	-8028
峬	-8029
嵈	-8030
巺	-8031
帢	-8032
府	-8033
刎	-8034
劰	-8035
嗾	-8036
噺	-8037
垃	-8038
垄	-8039
姎	-8040
峉	-8041
怬	-8042
兞	-8043
句	-8044
噣	-8045
埥	-8046
堿	-8047
塳	-8048
妊	-8049
妛	-8050
婯	-8051
孧	-8052
庩	-8053
廡	-8054
兏	-8055
厔	-8056
呆	-8057
唸	-8058
喆	-8059
喏	-8060
堅	-8061
塇	-8062
嬙	-8063
帛	-8064
愬	-8065
劓	-8066
吃	-8067
哑	-8068
嗐	-8069
囟	-8070
堂	-8071
墨	-8072
徘	-8073
嘙	-8074
嚚	-8075
囙	-8076
声	-8077
巠	-8078
怛	-8079
刼	-8080
卶	-8081
厞	-8082
厦	-8083
嗶	-8084
堼	-8085
妉	-8086
姏	-8087
姐	-8088
姲	-8089
嵥	-8090
彞	-8091
匦	-8092
吅	-8093
嗝	-8094
嘿	-8095
嚇	-8096
墈	-8097
墑	-8098
壣	-8099
媱	-8100
嫽	-8101
崂	-8102
毻	-8103
匜	-8104
噹	-8105
嚷	-8106
垮	-8107
埴	-8108
堯	-8109
墹	-8110
壛	-8111
夊	-8112
娓	-8113
娕	-8114
後	-8115
渵	-8116
励	-8117
勌	-8118
唚	-8119
娅	-8120
娵	-8121
廳	-8122
恜	-8123
愥	-8124
剀	-8125
哈	-8126
哴	-8127
唐	-8128
嚮	-8129
坧	-8130
堷	-8131
塥	-8132
塨	-8133
夠	-8134
央	-8135
媠	-8136
岡	-8137
慐	-8138
攓	-8139
勊	-8140
厖	-8141
囷	-8142
圪	-8143
坷	-8144
姊	-8145
娸	-8146
婞	-8147
屖	-8148
屯	-8149
懍	-8150
摚	-8151
暩	-8152
柍	-8153
剎	-8154
噢	-8155
囈	-8156
坒	-8157
堆	-8158
塩	-8159
妷	-8160
媪	-8161
孷	-8162
岀	-8163
崝	-8164
厱	-8165
叿	-8166
喰	-8167
委	-8168
尡	-8169
屆	-8170
廲	-8171
恲	-8172
抎	-8173
充	-8174
卋	-8175
厴	-8176
塔	-8177
夳	-8178
嬒	-8179
寅	-8180
寽	-8181
尯	-8182
惺	-8183
儞	-8184
兵	-8185
冒	-8186
匚	-8187
匠	-8188
嘨	-8189
噠	-8190
嚫	-8191
圚	-8192
塙	-8193
夶	-8194
婥	-8195
嫷	-8196
嬘	-8197
嬳	-8198
峳	-8199
彟	-8200
彸	-8201
凕	-8202
剃	-8203
卒	-8204
唶	-8205
嘚	-8206
囡	-8207
堓	-8208
墮	-8209
媶	-8210
嬬	-8211
定	-8212
寞	-8213
屔	-8214
巘	-8215
弨	-8216
氫	-8217
瀁	-8218
六	-8219
勄	-8220
噇	-8221
垈	-8222
壠	-8223
壥	-8224
备	-8225
奕	-8226
妮	-8227
岿	-8228
峲	-8229
徇	-8230
剒	-8231
华	-8232
呖	-8233
嚝	-8234
囆	-8235
坫	-8236
埇	-8237
岖	-8238
峒	-8239
庉	-8240
惒	-8241
敎	-8242
剘	-8243
匘	-8244
匫	-8245
協	-8246
喢	-8247
垨	-8248
埖	-8249
墍	-8250
夵	-8251
媓	-8252
嫘	-8253
嫶	-8254
嫻	-8255
屛	-8256
岽	-8257
怾	-8258
悢	-8259
慏	-8260
懨	-8261
兣	-8262
厘	-8263
唍	-8264
啘	-8265
嘵	-8266
堔	-8267
夙	-8268
姀	-8269
姌	-8270
姯	-8271
嫚	-8272
廓	-8273
弻	-8274
從	-8275
怲	-8276
拍	-8277
掫	-8278
匕	-8279
厡	-8280
呀	-8281
唼	-8282
嗪	-8283
圉	-8284
孟	-8285
巌	-8286
廂	-8287
斴	-8288
傺	-8289
剴	-8290
哆	-8291
圲	-8292
堝	-8293
奨	-8294
姸	-8295
娘	-8296
婡	-8297
嫼	-8298
嬷	-8299
庼	-8300
徏	-8301
怐	-8302
態	-8303
傛	-8304
咆	-8305
噽	-8306
嚌	-8307
团	-8308
垟	-8309
垼	-8310
埅	-8311
娄	-8312
娊	-8313
廬	-8314
延	-8315
掎	-8316
儊	-8317
凣	-8318
勃	-8319
嘁	-8320
壑	-8321
嬔	-8322
孴	-8323
崸	-8324
巐	-8325
幑	-8326
惴	-8327
擿	-8328
傐	-8329
冼	-8330
叐	-8331
啺	-8332
喔	-8333
噯	-8334
埂	-8335
埝	-8336
墪	-8337
夝	-8338
妡	-8339
妦	-8340
嫂	-8341
嫺	-8342
嫿	-8343
嬛	-8344
孝	-8345
幔	-8346
狼	-8347
冰	-8348
却	-8349
嘐	-8350
嚐	-8351
坋	-8352
埣	-8353
堹	-8354
媎	-8355
嫄	-8356
孮	-8357
官	-8358
帑	-8359
怗	-8360
憈	-8361
刔	-8362
嘴	-8363
囸	-8364
圳	-8365
圶	-8366
堍	-8367
屵	-8368
峀	-8369
弸	-8370
悚	-8371
慾	-8372
揵	-8373
撋	-8374
曗	-8375
十	-8376
卄	-8377
吒	-8378
哿	-8379
嘞	-8380
囌	-8381
园	-8382
坮	-8383
堧	-8384
塗	-8385
墤	-8386
壶	-8387
夺	-8388
屦	-8389
岠	-8390
忈	-8391
搞	-8392
摙	-8393
擺	-8394
兦	-8395
劔	-8396
匙	-8397
吶	-8398
嚯	-8399
囤	-8400
圯	-8401
埉	-8402
塊	-8403
墆	-8404
妤	-8405
岕	-8406
峊	-8407
嶢	-8408
帐	-8409
廘	-8410
彲	-8411
忮	-8412
悰	-8413
慕	-8414
朵	-8415
咏	-8416
咘	-8417
咪	-8418
單	-8419
喻	-8420
坏	-8421
垭	-8422
堢	-8423
将	-8424
尢	-8425
摶	-8426
擉	-8427
攂	-8428
椷	-8429
刹	-8430
勅	-8431
呧	-8432
呹	-8433
啍	-8434
啖	-8435
嚹	-8436
垸	-8437
堘	-8438
婩	-8439
嬨	-8440
宑	-8441
尨	-8442
屮	-8443
峴	-8444
嶖	-8445
嶺	-8446
吟	-8447
哩	-8448
啓	-8449
喼	-8450
囝	-8451
圍	-8452
塍	-8453
墧	-8454
壵	-8455
头	-8456
岫	-8457
峡	-8458
崭	-8459
征	-8460
慔	-8461
戞	-8462
挲	-8463
皠	-8464
删	-8465
剡	-8466
區	-8467
去	-8468
叓	-8469
嚺	-8470
圐	-8471
基	-8472
堥	-8473
妨	-8474
寲	-8475
尹	-8476
峧	-8477
怶	-8478
惮	-8479
檵	-8480
匬	-8481
嗃	-8482
噫	-8483
囥	-8484
圬	-8485
埍	-8486
堟	-8487
墏	-8488
壸	-8489
外	-8490
奤	-8491
娝	-8492
嫱	-8493
寪	-8494
屓	-8495
巷	-8496
愛	-8497
愶	-8498
凘	-8499
凨	-8500
咿	-8501
唟	-8502
喨	-8503
嗷	-8504
噴	-8505
囕	-8506
圻	-8507
垱	-8508
塐	-8509
姿	-8510
娎	-8511
寳	-8512
少	-8513
峚	-8514
愑	-8515
凈	-8516
劤	-8517
吝	-8518
咼	-8519
哔	-8520
嘗	-8521
圝	-8522
堐	-8523
堮	-8524
壈	-8525
尥	-8526
巙	-8527
巻	-8528
忣	-8529
惜	-8530
愓	-8531
掬	-8532
摠	-8533
摵	-8534
勉	-8535
历	-8536
呺	-8537
啨	-8538
噘	-8539
器	-8540
囮	-8541
圧	-8542
坅	-8543
垉	-8544
塃	-8545
塚	-8546
墉	-8547
复	-8548
妇	-8549
娨	-8550
娰	-8551
娹	-8552
嫝	-8553
嬈	-8554
嬹	-8555
對	-8556
尒	-8557
尵	-8558
屇	-8559
嶘	-8560
当	-8561
徨	-8562
憻	-8563
掐	-8564
曾	-8565
加	-8566
哹	-8567
垙	-8568
堚	-8569
壬	-8570
壷	-8571
姼	-8572
娍	-8573
婑	-8574
嬄	-8575
尘	-8576
庡	-8577
廁	-8578
廖	-8579
恇	-8580
愍	-8581
拵	-8582
捰	-8583
杞	-8584
椸	-8585
漒	-8586
牓	-8587
劏	-8588
劣	-8589
哒	-8590
唢	-8591
啵	-8592
啻	-8593
嗦	-8594
坁	-8595
塁	-8596
姬	-8597
姻	-8598
娱	-8599
婴	-8600
崢	-8601
嵘	-8602
廔	-8603
归	-8604
戇	-8605
摼	-8606
冢	-8607
匡	-8608
匨	-8609
呋	-8610
咍	-8611
喠	-8612
噬	-8613
嚪	-8614
坼	-8615
垅	-8616
埒	-8617
報	-8618
墽	-8619
夑	-8620
夬	-8621
娫	-8622
娷	-8623
婠	-8624
嫭	-8625
寷	-8626
尦	-8627
岐	-8628
峓	-8629
崣	-8630
嶭	-8631
巋	-8632
巏	-8633
巗	-8634
彼	-8635
怷	-8636
悇	-8637
拶	-8638
搝	-8639
擐	-8640
攣	-8641
傭	-8642
勛	-8643
唰	-8644
善	-8645
嘊	-8646
墯	-8647
夤	-8648
妣	-8649
娋	-8650
婛	-8651
嫕	-8652
寇	-8653
屩	-8654
峯	-8655
嵙	-8656
嶼	-8657
巁	-8658
巡	-8659
巨	-8660
帾	-8661
幢	-8662
庠	-8663
彴	-8664
彵	-8665
悙	-8666
僶	-8667
剦	-8668
劽	-8669
勐	-8670
吀	-8671
吤	-8672
咾	-8673
哵	-8674
啛	-8675
啢	-8676
噉	-8677
噚	-8678
嚡	-8679
垞	-8680
妒	-8681
姗	-8682
婗	-8683
婝	-8684
婭	-8685
嫡	-8686
嫴	-8687
嬅	-8688
嬴	-8689
季	-8690
寔	-8691
崙	-8692
嶇	-8693
巑	-8694
御	-8695
恦	-8696
悫	-8697
戆	-8698
抌	-8699
旄	-8700
枊	-8701
劈	-8702
劼	-8703
勋	-8704
卥	-8705
卸	-8706
咜	-8707
啊	-8708
啙	-8709
圏	-8710
圛	-8711
坐	-8712
埮	-8713
墶	-8714
売	-8715
夒	-8716
奓	-8717
奩	-8718
妸	-8719
姨	-8720
姳	-8721
婘	-8722
婳	-8723
宄	-8724
宓	-8725
宖	-8726
屨	-8727
崫	-8728
帨	-8729
庛	-8730
彐	-8731
徟	-8732
忊	-8733
忍	-8734
念	-8735
恃	-8736
愡	-8737
愾	-8738
扆	-8739
找	-8740
搉	-8741
攑	-8742
敵	-8743
栖	-8744
刓	-8745
劋	-8746
勏	-8747
匪	-8748
卧	-8749
叫	-8750
啉	-8751
嘘	-8752
圁	-8753
圽	-8754
垳	-8755
垶	-8756
塕	-8757
塵	-8758
壃	-8759
夀	-8760
奎	-8761
奢	-8762
娜	-8763
娶	-8764
媰	-8765
嬕	-8766
寫	-8767
封	-8768
屳	-8769
峽	-8770
嶱	-8771
庳	-8772
彈	-8773
忎	-8774
忘	-8775
怡	-8776
恎	-8777
捾	-8778
摧	-8779
旕	-8780
杓	-8781
儰	-8782
凜	-8783
勁	-8784
叒	-8785
唲	-8786
啡	-8787
喪	-8788
嗫	-8789
嘍	-8790
噖	-8791
噞	-8792
嚬	-8793
囲	-8794
圸	-8795
堉	-8796
墐	-8797
壺	-8798
契	-8799
妟	-8800
娂	-8801
婙	-8802
尫	-8803
峋	-8804
嵞	-8805
嶹	-8806
庌	-8807
弧	-8808
怺	-8809
愇	-8810
撾	-8811
旃	-8812
昩	-8813
樒	-8814
呞	-8815
噵	-8816
圗	-8817
垽	-8818
壿	-8819
奐	-8820
娔	-8821
娪	-8822
嫫	-8823
嬆	-8824
屟	-8825
屿	-8826
弉	-8827
彠	-8828
彣	-8829
徕	-8830
忯	-8831
怚	-8832
总	-8833
惀	-8834
慖	-8835
慦	-8836
戂	-8837
戝	-8838
挅	-8839
斎	-8840
旛	-8841
昷	-8842
曯	-8843
溌	-8844
溤	-8845
灁	-8846
劦	-8847
匌	-8848
卌	-8849
唨	-8850
嘣	-8851
噓	-8852
埃	-8853
塽	-8854
媒	-8855
嫢	-8856
嫯	-8857
嬺	-8858
孕	-8859
寭	-8860
尴	-8861
岷	-8862
峹	-8863
崷	-8864
巜	-8865
幈	-8866
庆	-8867
庑	-8868
廱	-8869
怋	-8870
悉	-8871
惚	-8872
憤	-8873
抢	-8874
暅	-8875
曇	-8876
朓	-8877
框	-8878
母	-8879
滞	-8880
刵	-8881
劍	-8882
勑	-8883
匢	-8884
哪	-8885
嚘	-8886
埜	-8887
埸	-8888
塘	-8889
夕	-8890
失	-8891
威	-8892
婵	-8893
媗	-8894
媹	-8895
嬥	-8896
嬭	-8897
宎	-8898
尟	-8899
屍	-8900
崈	-8901
巊	-8902
幡	-8903
庤	-8904
弣	-8905
弹	-8906
忛	-8907
怤	-8908
悅	-8909
悛	-8910
扱	-8911
抵	-8912
抺	-8913
拉	-8914
揂	-8915
攚	-8916
敹	-8917
斳	-8918
旀	-8919
曩	-8920
曫	-8921
朩	-8922
杻	-8923
枌	-8924
猊	-8925
的	-8926
傚	-8927
傯	-8928
勂	-8929
勖	-8930
呷	-8931
哏	-8932
喐	-8933
噥	-8934
囄	-8935
圄	-8936
壝	-8937
夈	-8938
天	-8939
姇	-8940
姍	-8941
婮	-8942
婹	-8943
媑	-8944
媯	-8945
嫍	-8946
學	-8947
尀	-8948
尕	-8949
尻	-8950
岝	-8951
岼	-8952
峮	-8953
嶪	-8954
帤	-8955
幁	-8956
幉	-8957
徜	-8958
戺	-8959
扭	-8960
拒	-8961
捚	-8962
敖	-8963
昺	-8964
朇	-8965
潼	-8966
熣	-8967
军	-8968
勆	-8969
勘	-8970
啞	-8971
嚵	-8972
埾	-8973
堺	-8974
墎	-8975
墵	-8976
壁	-8977
壐	-8978
壔	-8979
奡	-8980
奾	-8981
妬	-8982
婍	-8983
嬎	-8984
宣	-8985
寰	-8986
寿	-8987
尊	-8988
屻	-8989
嵌	-8990
嵒	-8991
嶝	-8992
巪	-8993
庘	-8994
庢	-8995
弢	-8996
