<unk>	0
<s>	0
</s>	0
.	-2.94787
,	-3.64016
ம்	-4.48259
க்	-4.81882
ப்	-4.85805
கள்	-4.89598
்	-5.09587
▁	-5.16649
த்	-5.31639
▁மற்றும்	-5.36663
▁ஒரு	-5.36888
▁(	-5.37284
ு	-5.45257
)	-5.45763
ன்	-5.54031
ல்	-5.63123
ும்	-5.66426
▁"	-5.67069
து	-5.68714
ர்	-5.70883
"	-5.7363
▁இந்த	-5.7879
ய	-5.81656
ஸ்	-5.8772
ச்	-5.88954
யில்	-5.8954
த்தில்	-5.95114
ின்	-5.95925
-	-6.01941
ன	-6.04763
ட்	-6.04983
க	-6.05814
க்கு	-6.08969
களை	-6.09866
களில்	-6.13335
ில்	-6.14454
ங்கள்	-6.1487
▁அ	-6.15063
▁இது	-6.15242
யின்	-6.1812
▁என்ற	-6.20568
ி	-6.21371
வ	-6.21379
ம	-6.24189
▁உள்ள	-6.25867
▁ஊராட்சி	-6.26571
ை	-6.27503
:	-6.28251
▁ஆகும்	-6.28978
▁க	-6.31472
▁ஆம்	-6.35135
யை	-6.37342
த்தின்	-6.38237
▁ஆண்டு	-6.38774
ப	-6.42884
த்த	-6.42927
களின்	-6.4335
ர	-6.46257
ரி	-6.47125
▁பல	-6.47473
த	-6.48146
த்தை	-6.48414
▁என்பது	-6.49804
க்க	-6.50147
▁இவர்	-6.50864
சு	-6.51168
வை	-6.52113
டி	-6.52403
ா	-6.53601
▁அல்லது	-6.54169
சி	-6.54349
ார்	-6.55219
▁இ	-6.56494
ந்த	-6.57824
வர்	-6.58136
▁உள்ளது	-6.58418
தி	-6.58938
வு	-6.6081
னி	-6.61156
மாக	-6.6328
▁மக்கள்	-6.63391
▁என்று	-6.66079
யும்	-6.6871
▁இருந்து	-6.68794
ரா	-6.69545
▁இந்திய	-6.69822
▁முதல்	-6.70253
லி	-6.70515
டு	-6.70958
ிய	-6.72015
ஆம்	-6.74232
கா	-6.75142
களும்	-6.75331
த்து	-6.75875
▁("	-6.76099
ச	-6.76832
மா	-6.76849
▁என	-6.7685
மான	-6.77439
▁ச	-6.77911
ல	-6.78361
▁பி	-6.79067
வி	-6.79668
ப்பு	-6.79689
லா	-6.79979
ப்படுகிறது	-6.80965
▁ப	-6.80991
ப்ப	-6.83234
ட	-6.83669
▁வி	-6.86472
▁த	-6.88896
மை	-6.8894
யாக	-6.89106
▁கோயில்	-6.90228
▁என்னும்	-6.90909
▁7	-6.9205
▁போன்ற	-6.92881
▁சி	-6.93202
▁சில	-6.93656
வா	-6.93999
வே	-6.94259
வும்	-6.94736
ப்பட்ட	-6.95473
யா	-6.97396
▁அவர்	-6.98502
மி	-6.98762
னா	-6.99751
▁கொண்ட	-6.9981
ாக	-6.99995
▁ம	-7.00145
ுள்ளது	-7.00996
▁கா	-7.02011
▁அமைந்துள்ள	-7.02304
▁தொகை	-7.0251
னர்	-7.03047
▁மேலும்	-7.03097
கு	-7.03163
லை	-7.03911
களுக்கு	-7.06185
▁இல்	-7.07129
ரை	-7.07403
கி	-7.07648
ங்களில்	-7.07837
▁மு	-7.09323
▁-	-7.09692
பி	-7.09888
பா	-7.09892
னை	-7.11418
▁18	-7.12343
ங்	-7.12583
s	-7.12652
தா	-7.12721
வின்	-7.1278
▁பா	-7.12782
▁எ	-7.14291
▁கி	-7.14887
e	-7.15643
▁வரை	-7.15726
▁மா	-7.17613
▁சா	-7.17698
ே	-7.18587
சா	-7.18658
▁உ	-7.19084
▁பயன்படுத்த	-7.19257
ட்டு	-7.2041
▁கு	-7.20945
க்கும்	-7.22635
▁ஆண்டில்	-7.2278
ட்டி	-7.23445
▁இதன்	-7.23788
▁ஆ	-7.24068
யான	-7.24163
;	-7.24325
த்திற்கு	-7.25156
ங்களை	-7.26192
▁ஏ	-7.2649
▁அமைந்துள்ளது	-7.26602
ப்படும்	-7.27065
ால்	-7.27461
ான	-7.27668
ங்க	-7.2808
ப்பட்டது	-7.28233
ந்து	-7.28502
▁உள்ளன	-7.28571
த்தி	-7.28584
▁இக்கோயில்	-7.29017
),	-7.29208
▁இரு	-7.3023
தாக	-7.30954
▁பின்னர்	-7.3137
றி	-7.31637
ள	-7.31809
▁இருக்கும்	-7.32879
மும்	-7.33296
ரு	-7.33862
டை	-7.34902
▁சு	-7.36017
ுக்கு	-7.36141
ற்ற	-7.37204
▁கொண்டு	-7.37777
ட்ட	-7.3805
▁மூலம்	-7.38187
▁அதன்	-7.38622
▁தமிழ்	-7.39416
வில்	-7.40012
▁இரண்டு	-7.40195
ரோ	-7.41001
▁மாவட்டம்	-7.41482
▁ந	-7.41987
▁தொகுதிக்கும்	-7.42087
ளி	-7.4213
▁ஆனால்	-7.42518
▁பேரும்	-7.42551
று	-7.42595
")	-7.43471
கோ	-7.43979
களையும்	-7.44257
▁வ	-7.44716
▁அந்த	-7.44718
▁தனது	-7.44723
▁செ	-7.45046
▁டி	-7.45306
▁மொழி	-7.45434
அ	-7.45528
▁மாவட்டத்தில்	-7.46762
▁ஆகிய	-7.47043
மே	-7.47695
▁இருந்த	-7.47896
▁முக்கிய	-7.47946
▁மே	-7.47981
▁தா	-7.48024
▁2011	-7.48539
யே	-7.48577
▁வளர்ச்சி	-7.48744
ணி	-7.49243
▁கால	-7.49564
▁தி	-7.50808
▁பெயர்	-7.50927
▁ஆவார்	-7.52955
யோ	-7.53078
▁கோ	-7.5334
ோ	-7.53422
▁போது	-7.53633
லாம்	-7.54473
தை	-7.54712
ழ	-7.54733
கை	-7.55118
▁2	-7.55149
▁முறை	-7.55791
களைக்	-7.5607
▁ஐ	-7.56359
a	-7.56566
▁3	-7.56998
ற	-7.57541
▁கொண்டுள்ளது	-7.58035
▁நிலை	-7.5844
▁பெரிய	-7.58809
ண	-7.58929
S	-7.59025
ரின்	-7.59049
▁திரு	-7.5939
'	-7.59684
▁தமிழ்நாடு	-7.59895
மு	-7.60599
டா	-7.60985
பு	-7.61067
▁இவை	-7.61344
ினார்	-7.61436
▁பு	-7.6163
ச்சி	-7.62168
▁இக்கோயிலில்	-7.6222
▁5	-7.62642
▁நா	-7.62789
▁மொத்த	-7.63015
▁அது	-7.63192
).	-7.63675
▁துடுப்பாட்டப்	-7.64086
▁கே	-7.64188
▁மீ	-7.64283
ய்	-7.64994
▁பெற்ற	-7.65192
▁1	-7.6527
ப்படுகின்றன	-7.65834
▁வகை	-7.66017
▁பெண்கள்	-7.66363
▁இந்து	-7.6656
▁தேசிய	-7.67205
▁அவரது	-7.68279
y	-7.68385
னின்	-7.68552
▁வா	-7.68552
▁என்றும்	-7.68567
யர்	-7.68837
களால்	-7.68911
க்கி	-7.69229
▁தர	-7.69407
▁ஒன்று	-7.69688
▁வந்த	-7.70085
▁தகவல்	-7.70313
களாக	-7.70763
▁தேர்ந்தெடுக்க	-7.70877
சன்	-7.71765
▁சட்டமன்றத்	-7.7208
ங்களின்	-7.72184
▁பகுதி	-7.72516
▁6	-7.72767
ண்ட	-7.72835
▁கொ	-7.7339
▁வேண்டும்	-7.73489
▁செய்ய	-7.73622
▁மிகவும்	-7.73982
C	-7.74067
டன்	-7.74222
%	-7.74318
▁பிற	-7.74516
▁உள்ளனர்	-7.75022
வ்	-7.75141
▁இங்கு	-7.75156
▁மூன்று	-7.75293
(	-7.75317
i	-7.75946
▁அரசு	-7.76358
▁கீழ்	-7.76359
▁நில	-7.76553
▁4	-7.76883
▁நகர	-7.77312
ப்பட	-7.77652
வர	-7.77911
இல்	-7.7842
▁பூ	-7.78719
▁பூசை	-7.78991
போது	-7.79121
▁போ	-7.79966
A	-7.80263
▁கல்வி	-7.80316
▁10	-7.80641
o	-7.80867
▁பட்டியல்	-7.81175
நிலை	-7.82241
ப்பட்டு	-7.82407
இ	-7.82427
ச்ச	-7.82562
▁அடி	-7.82819
n	-7.82895
al	-7.83027
ுதல்	-7.8337
ிலும்	-7.83579
▁விட	-7.83728
▁இட	-7.83794
ரே	-7.84023
யி	-7.84241
▁தமிழ்நாட்டில்	-7.84359
▁அணி	-7.84379
▁அமெரிக்க	-7.84571
▁மன்ற	-7.84675
▁ஆர்	-7.84694
ந	-7.84709
▁தன்	-7.8494
▁மக்களவைத்	-7.85067
P	-7.85754
▁அவை	-7.85894
p	-7.85967
▁வர	-7.8626
▁மெ	-7.86306
க்கா	-7.86313
▁எனும்	-7.86437
▁,	-7.86503
▁கை	-7.86635
ுகின்றன	-7.87286
▁ஊரில்	-7.87413
▁2015	-7.8752
▁அதிக	-7.87621
▁தீ	-7.87652
லோ	-7.87752
ண்	-7.87782
▁ஆண்கள்	-7.87871
▁இருந்தது	-7.88338
▁ஓ	-7.88464
▁து	-7.88849
ள்	-7.89046
▁பட	-7.89098
▁பின்	-7.89116
தால்	-7.89137
ிற்கு	-7.89889
ின்றனர்	-7.89911
M	-7.9028
கம்	-7.90282
வது	-7.90818
▁தமிழ்நாட்டின்	-7.90947
2	-7.91126
▁19	-7.91181
/	-7.91243
▁17	-7.91593
▁இதில்	-7.91788
▁நி	-7.9196
▁இவற்றில்	-7.9199
சை	-7.92
வோ	-7.92164
▁'	-7.92335
▁8	-7.92744
▁உலக	-7.92753
▁இசை	-7.92892
▁15	-7.92942
▁மாதம்	-7.93221
▁புதிய	-7.93223
▁போர்	-7.93355
ர்கள்	-7.93483
▁12	-7.93518
▁பல்வேறு	-7.94059
யாகும்	-7.94318
களைப்	-7.94485
▁மொத்தம்	-7.94513
▁ஒ	-7.94566
3	-7.94686
க்கள்	-7.94951
▁ஆறு	-7.95428
ுள்ள	-7.9561
ான்	-7.95691
ையும்	-7.95694
er	-7.95718
▁பொதுவாக	-7.95836
ரிய	-7.96
▁கலந்து	-7.96157
▁பணி	-7.96183
▁நிர்வகிக்க	-7.96215
ுகிறது	-7.96224
▁சேர்ந்த	-7.9625
▁மிக	-7.96285
▁ஸ்	-7.96421
▁உருவாக்க	-7.96424
▁மலை	-7.96454
▁செய்து	-7.96619
r	-7.96714
ங்கு	-7.96769
t	-7.97091
மாகும்	-7.97321
ம்ப	-7.97348
▁இயக்க	-7.97376
ணக்கெடுப்பின்படி	-7.97387
▁கட்டுப்பாட்டில்	-7.97769
▁திரைப்பட	-7.97936
போ	-7.9794
",	-7.98083
ணை	-7.98133
ar	-7.98262
ண்டு	-7.9887
ஞ்ச	-7.99507
▁16	-7.99544
▁சேர்ந்தது	-7.9957
▁ர	-8.00131
ங்களும்	-8.00469
▁கோயிலாகும்	-8.00735
ுடன்	-8.01108
▁அமைப்பு	-8.01112
▁என்	-8.01158
ிலிருந்து	-8.01206
"),	-8.01207
விட	-8.01265
▁இவர்களில்	-8.0163
▁ஓர்	-8.01837
▁நூற்றாண்டைச்	-8.02049
▁பெற	-8.02078
ியது	-8.0213
ஷ்	-8.0217
an	-8.02574
லே	-8.02593
▁காரணமாக	-8.02701
▁வெளி	-8.02901
ற்று	-8.03092
முறை	-8.03218
யு	-8.03241
காலப்	-8.03278
படி	-8.03361
▁படி	-8.03479
▁பெ	-8.03582
ாகும்	-8.03875
▁மி	-8.03929
டோ	-8.03948
▁வகைப்பாட்டில்	-8.04056
வர்கள்	-8.04143
னோ	-8.04165
▁துறையின்	-8.04186
▁9	-8.04283
▁வெற்றி	-8.04659
ைக்	-8.04735
▁தொகுதி	-8.04893
▁அன்று	-8.05386
ானது	-8.0555
ற்	-8.05563
▁இவரது	-8.05921
▁அறநிலையத்துறைய	-8.06182
▁பிர	-8.06188
▁சார்ந்த	-8.06356
u	-8.06518
▁பொருள்	-8.0664
▁அரச	-8.06725
▁அளவு	-8.06852
▁பிறகு	-8.0687
களுடன்	-8.06907
வன்	-8.07024
ாத	-8.07104
▁நீர்	-8.07309
றை	-8.07537
▁திருக்கோயில்	-8.07788
ியல்	-8.07901
▁மாற்ற	-8.07907
▁பள்ளி	-8.08059
▁S	-8.08549
ப்பட்டுள்ளது	-8.08794
ப்பி	-8.08804
யிலும்	-8.08874
▁தொகுக்கப்பட்ட	-8.09207
ாமல்	-8.09529
▁அவர்கள்	-8.0956
க்கான	-8.09619
▁பகுதியில்	-8.09686
▁ஆய்வு	-8.09941
▁இன்	-8.10139
ிருந்த	-8.10337
ண்டி	-8.10405
▁ஈ	-8.10442
▁கீழ்க்கண்ட	-8.10526
▁கரு	-8.10632
க்கூடிய	-8.10645
▁தொடர்ந்து	-8.10796
ாலும்	-8.10916
▁ஊரக	-8.10917
▁சிறு	-8.11111
▁சமூக	-8.11813
▁தான்	-8.11896
ட்டா	-8.11927
ஜி	-8.12144
▁முதன்மைத்	-8.12315
▁மற்ற	-8.12418
▁தொகுதிகளைக்	-8.12541
ோர்	-8.12679
▁தலை	-8.12856
▁எஸ்	-8.13026
▁பட்ட	-8.13028
களிலும்	-8.13246
D	-8.13294
▁சிற்றூர்கள	-8.13301
▁மன்றத்	-8.13315
வில்லை	-8.13425
▁முன்	-8.13472
ழி	-8.13659
▁இந்தியாவின்	-8.13714
▁பொது	-8.13749
▁Gram	-8.13892
க்கோ	-8.13944
▁ஊராட்சியில்	-8.14022
▁ஆட்சி	-8.14156
▁Panchayat	-8.14172
▁காலத்தில்	-8.14193
▁மாநில	-8.14202
▁உயர்	-8.14207
▁தரவின்படி	-8.14443
▁கலை	-8.14558
▁வட	-8.14696
▁உறுப்பினர்களைத	-8.1481
▁உட்பட்டதாக	-8.14896
த்துக்கு	-8.14937
யைக்	-8.15009
E	-8.15015
சோ	-8.1523
▁சட்ட	-8.15257
லின்	-8.15346
யூ	-8.15444
▁ஒவ்வொரு	-8.15688
l	-8.15724
▁இந்தியா	-8.15969
▁ஆண்டுத்	-8.16032
▁குறிப்பிட	-8.16072
▁வே	-8.16395
த்தா	-8.1649
▁ஹ	-8.16513
▁வட்டாரத்தில்	-8.16592
▁ரா	-8.16607
▁சிறந்த	-8.16733
b	-8.16813
னார்	-8.17041
▁துடுப்பாட்ட	-8.17054
▁வெ	-8.17076
c	-8.17136
▁தென்	-8.17328
▁பே	-8.17364
▁வடிவ	-8.17494
யானது	-8.17508
▁ஊராட்சித்	-8.17656
யுடன்	-8.17817
ள்ள	-8.17886
ஜ	-8.17958
d	-8.17979
▁நான்கு	-8.18015
ூர்	-8.18048
4	-8.18147
ுவது	-8.182
▁அனைத்து	-8.18411
கர்	-8.18519
ங்கா	-8.18579
யால்	-8.18689
▁நோய்	-8.18723
▁பரம்பரை	-8.19159
▁எண்	-8.19421
யிலிருந்து	-8.1946
▁நடக்கின்றது	-8.19506
m	-8.19548
▁நாள்	-8.19556
ைப்	-8.19558
▁சோ	-8.19619
மோ	-8.19827
▁11	-8.19923
T	-8.20022
▁குறிப்பிட்ட	-8.20078
▁செய்த	-8.20159
h	-8.20261
▁மீது	-8.20555
▁துணை	-8.20701
▁மன	-8.20728
▁ஜ	-8.2077
▁வெளிவந்த	-8.21026
யம்	-8.21081
கே	-8.21092
▁ஒளி	-8.21172
▁அல்லாத	-8.21258
▁சென்னை	-8.21332
ூ	-8.21395
ந்தி	-8.21415
த்திலும்	-8.21431
ப்பா	-8.21535
▁பெண்	-8.21572
▁மட்டுமே	-8.2161
▁மனித	-8.21847
▁தனி	-8.21876
தே	-8.21967
▁உற்பத்தி	-8.21977
▁சீ	-8.22146
எ	-8.22192
தன்	-8.22254
▁14	-8.22327
▁இலங்கை	-8.22645
ங்களுக்கு	-8.22679
▁சே	-8.22952
▁20	-8.22992
யன்	-8.23041
▁பற்றி	-8.233
▁பத்தொன்பதாம்	-8.23346
▁வழி	-8.23456
ராக	-8.24
ட்டை	-8.24279
▁இன	-8.24308
ழு	-8.24423
▁வழங்க	-8.24463
▁வினை	-8.245
▁பாட	-8.25198
கிறது	-8.25325
▁ஊ	-8.25843
ிருக்கும்	-8.25863
தான்	-8.25868
R	-8.2603
▁மேல்	-8.26158
ண்ட்	-8.26632
ுள்ளார்	-8.26678
▁13	-8.26744
▁கண்ட	-8.26821
ின	-8.26838
சிய	-8.26987
B	-8.27109
N	-8.2718
▁இதனால்	-8.27341
ஆ	-8.27987
1	-8.28045
▁கொள்ள	-8.28329
▁C	-8.2844
▁கூட	-8.28456
▁பெரு	-8.28565
▁அறங்காவலர்	-8.28635
in	-8.28684
▁சிறிய	-8.28709
▁வரும்	-8.28751
▁நிற	-8.28783
▁சொல்ல	-8.28872
ுவதற்கு	-8.29235
▁பல்கலைக்கழக	-8.29303
▁படை	-8.29308
▁கிராம	-8.29381
▁சேவை	-8.29474
ரும்	-8.29916
▁பற்றிய	-8.30249
▁வேலை	-8.30337
யைப்	-8.30374
▁மர	-8.30521
▁பெற்றார்	-8.30579
▁காண	-8.30646
▁மீண்டும்	-8.30791
00	-8.30893
▁எம்	-8.31197
மன்	-8.31241
▁கட்ட	-8.31373
▁A	-8.31457
]]	-8.31508
க்கப்பட்ட	-8.31766
செ	-8.31965
▁தேவை	-8.31992
▁இருப்பினும்	-8.32131
▁கதை	-8.32173
மானது	-8.32184
▁நூல்	-8.326
டர்	-8.32619
லு	-8.32637
▁பெரும்	-8.32957
த்திர	-8.33112
▁மேற்கு	-8.33271
வரை	-8.33284
▁இதை	-8.33291
▁கட்சி	-8.33338
▁ஐக்கிய	-8.3363
ிக்க	-8.33904
வாக	-8.33934
▁டெ	-8.34385
▁ஒரே	-8.34465
ிறது	-8.34596
▁என்பவர்	-8.34644
ுள்ளன	-8.34882
▁P	-8.34964
▁வணிக	-8.34971
O	-8.35034
னே	-8.35171
▁அமைப்பால்	-8.35282
தர	-8.35328
▁குழந்தை	-8.35512
▁நாடு	-8.35679
▁கார்	-8.35977
▁M	-8.35984
ஸ	-8.3641
▁மாவட்ட	-8.36516
சே	-8.36536
▁நேர	-8.36649
ங்கி	-8.36797
▁மின்	-8.37253
▁செல்ல	-8.37267
▁போட்டிகளில்	-8.37295
▁சிவ	-8.37397
▁கூடிய	-8.37403
I	-8.37444
ur	-8.375
▁தோ	-8.37518
▁கூட்ட	-8.37533
▁பதி	-8.37587
▁ஆக	-8.37614
▁கிழக்கு	-8.37792
ருக்கு	-8.38012
g	-8.38145
▁கூற	-8.38194
ெ	-8.38222
▁[[	-8.38746
▁B	-8.388
நா	-8.3882
பர்	-8.39031
▁விருது	-8.39388
ீ	-8.39686
▁போல	-8.39787
ஹ	-8.39808
க்காக	-8.39817
யையும்	-8.39827
டைய	-8.3993
▁நடைபெறுகிறது	-8.39974
▁பிறப்பு	-8.40124
▁இரண்டாம்	-8.40151
en	-8.40262
▁இல்லை	-8.40359
▁மத்திய	-8.40393
▁கெ	-8.40485
▁குறை	-8.40491
த்துடன்	-8.40759
▁மறு	-8.40796
கர	-8.40957
▁தந்தை	-8.41164
▁சிறப்பு	-8.41236
ரியா	-8.41257
த்திலிருந்து	-8.41297
வியல்	-8.41365
▁பொ	-8.41698
▁சம	-8.41834
ப்போ	-8.41873
▁வெப்ப	-8.41877
ப்படுத்த	-8.42037
▁மைய	-8.42161
▁தே	-8.42241
▁மத	-8.42273
5	-8.4257
▁இதனை	-8.42812
▁ஆண்ட	-8.42863
ளை	-8.42929
F	-8.43379
▁துறை	-8.43545
H	-8.43585
▁பிரி	-8.43653
▁மோ	-8.43665
▁குழு	-8.43784
▁புற	-8.43827
am	-8.43897
▁தொடர்	-8.44146
லில்	-8.44227
▁மருத்துவ	-8.44295
உ	-8.44479
▁அறிவியல்	-8.44553
▁தற்போது	-8.4485
”	-8.44911
▁விளக்க	-8.45039
▁உணவு	-8.45124
தாகவும்	-8.453
தாகும்	-8.45342
0	-8.45448
டே	-8.45531
▁ஆகியவை	-8.45898
▁அதே	-8.45974
or	-8.46
▁கல்லூரி	-8.4613
▁அழைக்க	-8.46318
▁பாடல்	-8.4639
பே	-8.46447
▁காணப்படும்	-8.46611
▁கூ	-8.46752
L	-8.4689
னிய	-8.47122
▁இலக்கிய	-8.47332
த்தையும்	-8.47428
ரீ	-8.47472
▁கருத்து	-8.47533
▁பக்க	-8.47818
▁உதவி	-8.47853
ஷ	-8.48242
வரும்	-8.48405
▁முடியும்	-8.48426
களுக்கும்	-8.48484
ிட	-8.48519
▁வேறு	-8.48539
k	-8.486
▁பால	-8.48637
▁of	-8.48937
▁மூல	-8.49127
6	-8.49252
▁கடல்	-8.49424
▁இவ்வ	-8.49743
மீ	-8.49755
▁அளவில்	-8.49765
▁காட்சி	-8.49928
▁போட்டி	-8.50038
▁மூ	-8.50076
ச்சு	-8.50325
▁இடம்	-8.50336
▁இருக்க	-8.50388
விற்கு	-8.50397
▁கல	-8.5043
த்தால்	-8.50499
▁அதை	-8.50611
முக	-8.50659
▁)	-8.50763
’	-8.50888
ாளர்	-8.50924
▁பங்கு	-8.5106
▁அங்கு	-8.51355
▁சமய	-8.51454
▁எதிர்	-8.51495
▁அக்டோபர்	-8.51496
ப்பை	-8.51543
▁விளையாட்டு	-8.51718
▁பெற்று	-8.51878
▁நிலையில்	-8.51936
▁முக	-8.51953
▁தேர்வுத்	-8.52044
▁ஊர்	-8.5214
f	-8.52328
▁நோ	-8.52356
▁மீட்டர்	-8.52435
▁என்பதை	-8.52512
ம்பு	-8.52813
த்தைக்	-8.52829
த்திய	-8.52843
▁நோக்க	-8.52997
▁அக	-8.53132
▁ஜி	-8.53181
ாய்	-8.53326
வன	-8.53394
▁எந்த	-8.53443
▁பெரும்பாலும்	-8.53548
▁அம்மன்	-8.53552
▁ஐந்து	-8.5368
▁குரு	-8.53693
▁கொண்டது	-8.54134
▁சுமார்	-8.54198
▁நிறுவனம்	-8.5433
▁இருக்கிறது	-8.5459
▁சென்ற	-8.54667
▁அடிப்படையில்	-8.5467
புரம்	-8.54756
▁அரசியல்	-8.54889
▁ஒன்றாகும்	-8.55086
20	-8.55105
வகை	-8.55152
▁எழுதிய	-8.55223
▁இணைந்து	-8.55229
க்காரர்	-8.55243
▁நாட்டின்	-8.55249
at	-8.55328
பெ	-8.55523
னால்	-8.55597
▁லா	-8.5561
சர்	-8.55622
▁முதலில்	-8.55655
▁முதல்தர	-8.55723
▁காட்ட	-8.55762
கன்	-8.55803
ரம்	-8.55955
▁மணி	-8.56116
▁இதற்கு	-8.56184
▁நாட்டு	-8.56543
▁நெ	-8.56813
▁சங்க	-8.56878
▁வீர	-8.56927
▁அமைந்த	-8.57154
▁உண்டு	-8.57194
வெ	-8.57259
▁எனவே	-8.57301
▁நீ	-8.57331
▁டா	-8.57577
ொ	-8.57665
▁நவம்பர்	-8.57819
▁குடும்ப	-8.57821
▁உயிர்	-8.57998
▁முயற்சி	-8.58041
▁–	-8.58091
ரெ	-8.58117
▁ஒலி	-8.58261
▁பிரதேச	-8.58348
தில்	-8.58872
le	-8.58902
on	-8.59038
▁குறைந்த	-8.59083
▁மகா	-8.59247
▁எனப்படும்	-8.59441
▁சூ	-8.59466
▁சென்று	-8.59466
▁பிரிவு	-8.59472
▁செய்யப்பட்ட	-8.59475
▁நிர்வாக	-8.59505
சீ	-8.5954
ினை	-8.59602
▁இந்தியாவில்	-8.59647
▁சதுர	-8.59744
ப்படுகின்றது	-8.59937
ப்பட்டார்	-8.60013
▁பதவி	-8.60209
ஜ்	-8.60226
▁வீ	-8.60383
தர்	-8.60497
டெ	-8.6053
க்ஸ்	-8.60744
ic	-8.608
வுக்கு	-8.60814
களான	-8.60842
▁இருந்தார்	-8.60886
▁பிறந்த	-8.6112
▁பெயர	-8.61124
▁“	-8.61132
▁தலைவர்	-8.61149
ினால்	-8.61169
▁விமான	-8.61359
▁அதற்கு	-8.61419
▁ஏற்பட்ட	-8.61482
▁ஆங்கில	-8.61784
▁தாக்க	-8.61884
▁எழுத்து	-8.61901
▁30	-8.62175
▁பேர்	-8.62202
▁நிகழ்ச்சி	-8.62256
தல்	-8.62277
▁நிலைய	-8.62573
ளா	-8.62585
▁தொழில்	-8.62601
ிக்	-8.62632
▁எல்லை	-8.62633
K	-8.6266
ங்களையும்	-8.6267
சாமி	-8.62724
▁அணியின்	-8.6283
பூ	-8.62937
ைத்	-8.6295
ினர்	-8.62962
▁ஆண்டுகளில்	-8.6304
னும்	-8.63043
▁பேர	-8.63066
கால	-8.63101
▁தொடர்பு	-8.63172
▁ட	-8.63245
த்தல்	-8.63387
▁நாடக	-8.63547
ஸ்ட்	-8.63579
▁நடைபெற்ற	-8.63772
▁யா	-8.63772
க்கை	-8.63783
▁கொள்கை	-8.63879
▁அறிய	-8.64011
▁நடு	-8.64317
▁சொல்	-8.64363
ங்களாக	-8.64419
▁எனினும்	-8.64569
▁முழு	-8.64602
▁கிலோ	-8.64821
▁பிரித்தானிய	-8.64868
▁காலம்	-8.64877
ப்பட்டுள்ளன	-8.65151
ing	-8.65258
▁தங்க	-8.65342
▁எண்ண	-8.65357
▁மதுரை	-8.65367
▁H	-8.65452
▁அதில்	-8.65529
▁முறையில்	-8.65549
▁இணை	-8.65608
▁உருவாக்கப்பட்ட	-8.65663
▁வருகிறது	-8.65687
ப்பட்டன	-8.65863
▁25	-8.65906
வழி	-8.6607
▁எல்லா	-8.66127
ப்பகுதி	-8.66211
த்தைப்	-8.66252
is	-8.6629
▁இயற்கை	-8.66403
)"	-8.66548
▁பயன்படுத்தி	-8.66616
ுகின்றனர்	-8.66739
x	-8.6675
▁ஜெ	-8.66765
▁நிறுவன	-8.66774
▁நடந்த	-8.66832
▁பெற்றது	-8.66874
▁இறுதி	-8.66979
ும்போது	-8.66985
ழை	-8.66995
▁புனித	-8.67001
த்துறை	-8.67027
களைத்	-8.67119
ற்ப	-8.6725
▁வைத்து	-8.67481
ாவின்	-8.67924
▁கோவில்	-8.67977
லம்	-8.68083
ுள்ளனர்	-8.68217
ன்ன	-8.6822
▁தொழில்நுட்ப	-8.68321
▁தொ	-8.68403
▁பெரும்பாலான	-8.68454
▁வழியாக	-8.68497
ed	-8.68504
▁D	-8.68597
▁நடத்த	-8.68615
▁தன்மை	-8.69078
ாகவும்	-8.69178
▁நல்ல	-8.69183
பூர்	-8.69266
▁புள்ளி	-8.69322
▁சிகிச்சை	-8.6933
7	-8.69365
▁தள	-8.6937
▁யூ	-8.69381
▁விதி	-8.69441
களுக்கான	-8.69459
▁இந்தப்	-8.69462
▁போட்டியில்	-8.69546
▁மாத	-8.69549
▁2008	-8.69595
ுகிறார்	-8.69765
▁பாதுகாப்பு	-8.69779
▁குறிப்பாக	-8.69843
ஞ்சி	-8.6988
▁எழுத	-8.69934
▁எனவும்	-8.69954
▁எண்ணிக்கை	-8.69961
G	-8.70006
பட்ட	-8.70136
▁உரு	-8.70218
▁செல்லும்	-8.70558
பின்	-8.70574
▁பீ	-8.70731
▁N	-8.70985
▁ஆட்ட	-8.71054
▁குறிப்பிடத்தக்க	-8.7111
▁மண	-8.7111
▁நோக்கி	-8.71153
▁சூரிய	-8.71194
▁செய்யும்	-8.71304
▁நகர்	-8.71309
▁பழ	-8.71335
▁ல	-8.71354
▁திருவிழாவாக	-8.71568
க்குப்	-8.71575
▁இரண்டாவது	-8.7166
தோ	-8.71676
▁ஸ்ரீ	-8.72242
ாட்சி	-8.72314
▁அதிகமாக	-8.72414
▁ஏற்படும்	-8.72414
▁லி	-8.72471
▁செப்டம்பர்	-8.72562
▁அடிப்படை	-8.72674
▁ரி	-8.72733
▁நிலையம்	-8.72797
▁தூ	-8.72825
▁வட்ட	-8.72847
▁"(	-8.7289
▁வகையில்	-8.73006
▁செய்தி	-8.73112
▁நிதி	-8.73256
மெ	-8.73284
ுகின்றது	-8.73312
னில்	-8.73354
▁பை	-8.73364
▁உடல்	-8.73392
வான	-8.73426
யைத்	-8.73458
▁மூலமாக	-8.73482
▁இங்கிலாந்து	-8.73694
டிய	-8.73832
▁பகுதிகளில்	-8.73833
▁பொருளாதார	-8.74133
▁அவ	-8.74146
▁ரோ	-8.74333
ப்படி	-8.74454
பதி	-8.74468
▁முக்கியமான	-8.74523
▁மட்டும்	-8.74569
யின	-8.74738
▁ஆகியோர்	-8.74934
▁தலைமை	-8.75012
▁ஆண்	-8.75044
மொழி	-8.75069
▁(19	-8.75422
ங்களிலும்	-8.75428
8	-8.75431
▁கொண்டுள்ளார்	-8.75502
▁மில்லியன்	-8.75657
▁நாடுகளில்	-8.75663
த்தார்	-8.75751
னு	-8.75794
el	-8.758
தற்கு	-8.75955
▁செலுத்த	-8.76026
▁தமிழ	-8.76062
_	-8.76082
கள	-8.76247
▁பயிற்சி	-8.76266
▁உரிமை	-8.76284
▁R	-8.76291
▁வடக்கு	-8.76332
▁நேர்	-8.76337
▁இடத்தில்	-8.76384
ங்களைக்	-8.76516
▁சட்டமன்ற	-8.76605
னுக்கு	-8.76856
▁0	-8.76922
▁தாவர	-8.77028
னம்	-8.77112
▁தொலைக்காட்சி	-8.77397
ோடு	-8.77493
▁ஹா	-8.77504
▁போன்றவை	-8.77563
▁மறை	-8.77666
க்கம்	-8.77867
▁பார்	-8.77897
ந்தா	-8.77945
▁கருவி	-8.77987
▁ஆகியவற்றை	-8.78187
▁காணப்படுகிறது	-8.78228
ிடம்	-8.78382
▁கண	-8.78469
▁நகரம்	-8.78604
▁ஏற்ற	-8.78753
V	-8.78806
▁தயாரிக்க	-8.78984
யார்	-8.79017
▁தமிழ்த்	-8.7905
ன்ஸ்	-8.79161
▁பிறந்தார்	-8.79244
▁உட்	-8.79252
▁L	-8.79274
▁கண்ண	-8.79494
வான்	-8.79575
▁ஏப்ரல்	-8.79768
ஃப்	-8.79814
▁முன்ன	-8.79848
▁எனக்	-8.79991
▁ஆண்டின்	-8.80033
re	-8.80097
▁இணைய	-8.8015
லும்	-8.80271
சின்	-8.80323
▁G	-8.80397
பட	-8.80429
தம்	-8.8047
ிருந்தார்	-8.80486
யல்	-8.80584
as	-8.80586
ண்ண	-8.80692
ாள	-8.80772
▁வரலாற்று	-8.80913
▁மக	-8.80943
it	-8.80978
▁ஜா	-8.81028
▁தேவ	-8.81093
▁ஆசிரியர்	-8.81136
வீ	-8.81248
ch	-8.81273
▁தெ	-8.81356
▁அடுத்த	-8.8136
▁டை	-8.81425
▁பால்	-8.81454
மான்	-8.81465
▁புத்தக	-8.81563
▁பழைய	-8.81599
▁வந்து	-8.81711
▁நூற்றாண்டு	-8.81714
10	-8.81996
கல்	-8.82016
மலை	-8.82141
es	-8.82157
▁திட்ட	-8.82174
il	-8.8227
யாகவும்	-8.82355
▁வாழ்க்கை	-8.82478
▁21	-8.82597
ol	-8.82825
▁கோட்டை	-8.83197
▁24	-8.83344
த்தைச்	-8.83553
ுக்கும்	-8.83775
▁செல்வ	-8.83804
▁வை	-8.83832
▁நூற்றாண்டில்	-8.8395
▁சின்ன	-8.8403
▁ஒருவர்	-8.84038
▁2009	-8.84063
▁திகதி	-8.84142
▁ஆராய்ச்சி	-8.84187
▁வந்தது	-8.84262
▁அல்	-8.84317
▁விட்டு	-8.84635
th	-8.84669
▁உறுப்பினர்	-8.84691
ண்டா	-8.84872
▁=	-8.84916
▁கட	-8.85231
▁வாழ்ந்த	-8.85293
▁T	-8.85347
▁தங்கள்	-8.85362
▁பேச	-8.85407
us	-8.85484
மாகவும்	-8.85494
▁சக்தி	-8.85554
▁சபை	-8.85594
▁காணப்படுகின்றன	-8.85789
ட்ஸ்	-8.85792
▁அருகில்	-8.85853
▁திரைப்படம்	-8.85911
கொ	-8.86027
▁முடிவு	-8.86159
▁F	-8.86181
▁22	-8.86201
▁அணு	-8.86312
▁வள	-8.86411
▁p	-8.86523
▁2010	-8.86543
▁சீன	-8.86564
சூ	-8.8663
▁அடை	-8.86708
▁புது	-8.8672
▁மேல	-8.8673
▁தமிழக	-8.86733
▁இக்	-8.86892
]	-8.86993
▁நீண்ட	-8.87058
▁‘	-8.87146
▁இடம்பெற்ற	-8.87193
▁குடி	-8.87199
ிருந்தது	-8.87259
▁போட்டிகளிலும்	-8.87405
▁அவருடைய	-8.8744
▁உறுதி	-8.87445
▁மாற	-8.87448
▁தீவு	-8.8753
களுள்	-8.87551
|	-8.87598
▁மார்	-8.88002
பை	-8.88033
ரான	-8.88077
ஐ	-8.88116
▁பதிவு	-8.88181
த்தூர்	-8.88225
வராக	-8.88297
▁செய்தார்	-8.88429
ௌ	-8.8849
ரண	-8.88615
▁உள்ளிட்ட	-8.88621
▁பெர்	-8.88643
▁2007	-8.88684
தீ	-8.88798
ல்லா	-8.88804
▁தமது	-8.88843
ro	-8.8887
க்கல்	-8.8917
▁கணினி	-8.89187
▁பெயரில்	-8.89233
▁வழக்கு	-8.89434
▁அமில	-8.89528
சார்	-8.89613
▁முறைப்படி	-8.89723
னியா	-8.89788
க்குள்	-8.89795
▁ஒன்றாக	-8.89851
ைச்	-8.89907
வந்த	-8.89963
▁உருவ	-8.89971
நி	-8.89975
▁கருத	-8.9012
▁E	-8.90344
▁தேதி	-8.9059
▁அவருக்கு	-8.90593
ul	-8.90658
ஹா	-8.90858
▁பெருமாள்	-8.90883
▁சாலை	-8.90944
▁தடை	-8.90973
▁செல்	-8.91003
மர	-8.91274
▁புல	-8.91372
▁உடன்	-8.91462
கொண்ட	-8.91474
▁முனை	-8.91522
▁அமெரிக்கா	-8.916
▁முதன்மை	-8.91656
▁இல	-8.91778
▁வேண்டிய	-8.91803
ஜா	-8.91896
▁ஜோ	-8.91903
▁எந்தவொரு	-8.9191
லர்	-8.91988
ல்லி	-8.92053
▁தவிர	-8.92106
▁தேர்தல்	-8.9213
▁கன	-8.92172
▁நீர	-8.9218
▁குறிக்கும்	-8.92193
▁குறித்த	-8.92239
▁பர	-8.92248
லெ	-8.92279
பார்	-8.92333
▁பார்க்க	-8.92393
▁வருட	-8.92411
▁வரிசை	-8.92563
▁ஏரி	-8.92777
▁எரி	-8.92861
யாளர்	-8.92893
ாள்	-8.92965
ad	-8.93151
▁தாய்	-8.93436
▁தம்	-8.93506
ித்த	-8.93582
▁மாநிலத்தில்	-8.93641
வாய்	-8.9367
▁நகரில்	-8.93744
▁தெற்கு	-8.93792
▁2006	-8.93869
விய	-8.94026
▁தொலைவில்	-8.94094
ளவு	-8.94095
▁இவருக்கு	-8.94104
ைய	-8.94242
▁23	-8.94406
▁அவரை	-8.94452
▁அதாவது	-8.94615
▁நியூ	-8.94675
ri	-8.94679
▁கருதப்படுகிறது	-8.94747
படுத்த	-8.94839
ஏ	-8.94926
ரால்	-8.94961
▁மன்னர்	-8.94969
▁கணித	-8.94975
▁அலை	-8.95031
▁மனைவி	-8.95082
த்துவ	-8.95109
வுடன்	-8.95126
▁வரி	-8.95134
▁கால்	-8.95136
▁முழுவதும்	-8.95185
▁யு	-8.95204
▁சோதனை	-8.95274
▁உடைய	-8.95302
▁அமைப்ப	-8.95529
▁மேற்பட்ட	-8.9555
▁நடித்த	-8.95555
மணி	-8.95586
▁மொ	-8.95654
▁பருவ	-8.95757
ிலுள்ள	-8.95792
▁இடை	-8.95875
▁சேர்ந்து	-8.9594
▁இடங்களில்	-8.96187
▁மகன்	-8.96207
▁இவ்வாறு	-8.96308
▁சராசரி	-8.9637
சம்	-8.96377
▁வார	-8.96421
ல்ல	-8.96449
▁செயல்	-8.96613
▁formula	-8.96718
▁மக்களின்	-8.96845
க்கொண்ட	-8.96962
▁போட்டியிலும்	-8.96966
▁இராணுவ	-8.9697
பீ	-8.97151
▁சொ	-8.9717
▁விழா	-8.97294
▁பல்	-8.97333
▁கட்டிட	-8.97362
▁வரலாறு	-8.97429
▁கரை	-8.97542
▁வைக்க	-8.97613
▁மாகாண	-8.9777
▁தோற்ற	-8.97856
▁உறுப்பினராக	-8.9789
▁ஐரோப்பிய	-8.98033
▁கடைசியாக	-8.98065
▁கண்	-8.98068
ாவில்	-8.98073
▁சந்தை	-8.98157
ட்சி	-8.9818
▁குறித்து	-8.98211
ட்டின்	-8.98314
லிய	-8.98315
▁நீக்க	-8.98509
ட்டோ	-8.98546
▁பின்ன	-8.98587
▁கள	-8.98589
▁மதிப்பு	-8.98593
வால்	-8.98602
▁வாழ்	-8.98614
▁சுற்றி	-8.9862
▁உலகின்	-8.98637
ழ்	-8.9867
ra	-8.98688
பொ	-8.99204
ணா	-8.99233
▁வங்கி	-8.99323
▁யாழ்ப்பாண	-8.99338
யைச்	-8.99525
▁ஆற்றல்	-8.99639
ோட்ட	-8.99681
சன	-8.99714
▁மார்ச்	-8.99854
▁I	-8.99882
▁உரை	-8.99887
▁இடையே	-9.00062
கார்	-9.00243
▁ஏற்பட	-9.00541
மர்	-9.00727
ஸி	-9.00738
000	-9.00751
▁அப்போது	-9.00815
▁எதிராக	-9.00839
▁கீ	-9.01032
யியல்	-9.01067
▁ஜான்	-9.01129
த்தன்மை	-9.01189
ங்கள	-9.01193
▁சை	-9.0139
▁இரா	-9.01437
▁இவர்கள்	-9.01462
▁நடவடிக்கை	-9.01464
▁அதனை	-9.01469
ுடைய	-9.01939
▁அவற்றின்	-9.02045
▁இந்தக்	-9.0214
▁வயது	-9.02147
நில	-9.02265
▁போராட்ட	-9.02273
ation	-9.02389
▁மாதிரி	-9.02425
சியா	-9.02549
▁சரி	-9.02566
▁மற்றொரு	-9.02635
▁the	-9.02743
▁நம்பிக்கை	-9.02786
▁பிரா	-9.0287
▁மாநிலத்தின்	-9.0291
▁இத்திரைப்படத்த	-9.02984
▁குறி	-9.03004
▁சேர்த்து	-9.03098
▁ஹெ	-9.0314
டின்	-9.03145
▁ஆண்டுகள்	-9.03293
et	-9.03304
ுமாறு	-9.03317
ir	-9.03479
▁பங்குகொண்டார்	-9.03498
ம்பி	-9.03508
▁முதலிய	-9.03569
▁வசதி	-9.0374
னாக	-9.03765
ட்டில்	-9.03811
▁நான்	-9.03859
▁ஆரம்ப	-9.03997
▁இல்லாத	-9.04018
▁நாட்ட	-9.04253
லீ	-9.04504
▁குறிக்க	-9.04512
க்கிய	-9.04522
யில	-9.04529
▁ராஜ	-9.04817
▁ஆல்	-9.04839
▁இரத்த	-9.04886
▁திருமணம்	-9.04938
▁K	-9.04944
கார	-9.05192
▁வேக	-9.05223
▁கிளை	-9.05245
னெ	-9.05249
▁இராம	-9.05304
▁பார்க்கப்பட்ட	-9.05319
▁போல்	-9.05349
ஷி	-9.05362
ுக்	-9.05409
▁எழுத்தாளர்	-9.05457
▁அழி	-9.05481
ிருக்க	-9.05499
▁நடைமுறை	-9.05563
▁மண்டல	-9.05744
கின்றன	-9.05818
ின்றன	-9.0584
டல்	-9.05857
வாத	-9.05865
யிட	-9.05883
ப்படை	-9.05936
▁சர்	-9.05971
▁பட்டம்	-9.05973
▁அரசின்	-9.06054
▁தொகுப்பு	-9.06071
▁இலங்கையின்	-9.06123
வல்	-9.06127
▁[	-9.06201
▁1,	-9.06303
ிருக்கிறது	-9.06357
▁நாடாளுமன்ற	-9.06382
களே	-9.06422
▁முன்னாள்	-9.06428
–	-9.06449
▁1.	-9.06465
சல்	-9.06569
▁நாக	-9.06604
▁மேற்	-9.06738
▁அங்க	-9.0674
▁2001	-9.06786
9	-9.06855
▁உள்ளார்	-9.0688
ித்து	-9.06918
▁நாடுகள்	-9.06962
வினை	-9.07051
களைச்	-9.07059
▁இறப்பு	-9.0709
0,000	-9.0721
▁தொடக்க	-9.07283
ரில்	-9.07319
▁வல்ல	-9.0737
ிலேயே	-9.07424
ட்ச	-9.07449
▁அர	-9.07479
கிரி	-9.07522
தான	-9.07542
▁நெல்	-9.07608
▁ஒத்த	-9.0771
▁புகழ்	-9.07931
50	-9.07951
கெ	-9.08079
▁விலை	-9.084
▁வைத்த	-9.08539
யெ	-9.08612
தற்காக	-9.08648
பகுதி	-9.08759
யுள்ள	-9.0877
ட்டர்	-9.08777
▁ஆவண	-9.08871
▁எல்	-9.08929
ுவதை	-9.08933
▁கீழ	-9.08951
▁இர	-9.08974
▁26	-9.09042
ிகள்	-9.09362
▁மாறி	-9.09382
▁திரைப்படமாகும்	-9.09396
▁2014	-9.09489
▁திருவிழா	-9.09533
▁திட்டத்தின்	-9.09574
த்தினை	-9.09659
▁இரண்ட	-9.09714
▁ஆடி	-9.09773
▁விற்பனை	-9.09777
▁அவ்வ	-9.09852
▁விளையாட்டுவீரர்	-9.09869
▁அதனால்	-9.09887
ாது	-9.09895
▁விரும்ப	-9.09909
ர்களின்	-9.1014
▁மருந்து	-9.10146
▁மொழியில்	-9.10192
ந்திர	-9.10198
▁விபரக்குறிப்பு	-9.10237
▁ஏற்படுத்த	-9.10237
w	-9.10248
▁27	-9.10311
ுக்கான	-9.10421
▁சிவன்	-9.10428
▁ஆண்டுகளுக்கு	-9.10479
▁சுதந்திர	-9.10483
um	-9.10484
▁விடுதலை	-9.10528
▁கொண்டார்	-9.10535
▁மை	-9.10697
ரன்	-9.10873
மின்	-9.10965
வள	-9.10992
க்கப்பட்டது	-9.11246
ள்ளி	-9.11404
லுக்கு	-9.11417
மார்	-9.11421
ாளி	-9.11554
▁வெள்ளை	-9.11743
ணம்	-9.1183
ற்றி	-9.11834
ன்று	-9.11851
▁இள	-9.11855
றிய	-9.11862
▁இப்	-9.11878
▁உலோக	-9.11928
▁பொருள	-9.11996
பட்டி	-9.12005
▁தொடர்பான	-9.12034
▁வகையான	-9.12071
மாகக்	-9.12133
த்தைத்	-9.12228
▁கொள்ளவில்லை	-9.12321
ப்பின்	-9.12322
▁தேர்	-9.12346
▁உள்	-9.12346
▁கான்	-9.12412
▁வந்தார்	-9.12472
ப்பர்	-9.12505
பாடு	-9.12568
▁அக்	-9.12577
▁c	-9.12636
▁அவர்களின்	-9.1271
▁:	-9.12805
▁இருப்பதால்	-9.12831
ரங்க	-9.12966
▁கொடுக்க	-9.12978
▁பிள்ளை	-9.12991
னூர்	-9.13075
▁நாள	-9.13091
▁நீள	-9.13096
▁லெ	-9.13301
▁வாழும்	-9.13415
▁28	-9.13474
▁தேர்வு	-9.13482
▁அதிகமான	-9.13539
பாளையம்	-9.13668
▁சுவாமி	-9.13791
புர	-9.13819
களாகும்	-9.13898
யினை	-9.13913
▁ஏழு	-9.14017
திய	-9.14115
▁இன்று	-9.14178
▁புவி	-9.14234
▁தல	-9.14526
19	-9.14874
▁நவீன	-9.14922
ப்பட்டி	-9.14938
▁செய்வ	-9.15082
ணு	-9.15122
▁ஓட்ட	-9.15134
த்துக்	-9.15179
▁காட்டு	-9.15193
▁வீரர்	-9.15237
▁பாரம்பரிய	-9.15275
▁தேர்தலில்	-9.15307
▁மீன்	-9.15347
கூ	-9.15428
களிலிருந்து	-9.15472
ங்கோ	-9.15757
?	-9.15761
17	-9.15781
ங்களைப்	-9.15927
மாற்ற	-9.16085
டம்	-9.16122
▁டோ	-9.16147
▁கர	-9.16206
▁டிசம்பர்	-9.16281
▁கட்டுரை	-9.16289
▁பன்னாட்டு	-9.16391
ச்சா	-9.16414
▁பாத்திர	-9.16436
▁எனப்	-9.1644
ுவதாக	-9.16545
▁மிகப்பெரிய	-9.16575
தாகக்	-9.16616
▁அமைக்கப்பட்ட	-9.16698
வேண்டும்	-9.16705
▁தஞ்சாவூர்	-9.16717
▁சனவரி	-9.16837
▁ஒன்றை	-9.16879
▁குல	-9.17011
▁கிறித்தவ	-9.17068
ார்கள்	-9.17076
▁2012	-9.17091
ங்கை	-9.17109
▁ஓவிய	-9.17122
▁நம்ப	-9.17145
▁வீடு	-9.17155
▁முன்பு	-9.17434
ியம்	-9.1745
▁ராம	-9.17464
▁டே	-9.17606
▁கிரேக்க	-9.17615
▁பதிப்ப	-9.17688
▁W	-9.17736
▁கொண்டாட	-9.17935
ரூ	-9.18017
ந்தர்	-9.18039
▁வெப்பநிலை	-9.18234
▁நேரத்தில்	-9.18245
▁வானூர்தி	-9.18291
பால	-9.18315
ஃ	-9.18322
திர்	-9.18428
▁அதிகாரி	-9.18451
ீர்	-9.18482
▁இயக்கத்தில்	-9.18492
▁தொடர	-9.18553
வார்	-9.18562
▁சர்வதேச	-9.18691
▁மூன்றாம்	-9.18692
▁அடுத்து	-9.18715
▁திறன்	-9.18737
▁2005	-9.18756
▁இருந்தன	-9.18933
▁அறிமுகப்படுத்த	-9.18937
மற்ற	-9.19002
▁பொதுவான	-9.19083
om	-9.19113
▁அளித்த	-9.19258
▁இதழ்	-9.19259
▁நெடுஞ்சாலை	-9.19328
▁வெளியிட்ட	-9.19434
▁100	-9.19579
▁அதி	-9.19725
▁கூறு	-9.19927
▁நிறுத்த	-9.20017
த்திற்கான	-9.2004
களுக்காக	-9.20053
▁பரவலாக	-9.20231
▁b	-9.20233
▁s	-9.20302
ரல்	-9.20352
▁இயேசு	-9.20397
▁இருக்கலாம்	-9.20418
▁கடற்கரை	-9.20446
▁இருக்கின்றன	-9.20541
▁முன்னர்	-9.20578
ந்தை	-9.20609
மங்கலம்	-9.20622
▁நூற்றாண்டின்	-9.20695
வல	-9.20756
▁வாய்ந்த	-9.20946
▁புத்த	-9.21159
U	-9.21171
▁பஞ்ச	-9.21171
தும்	-9.21194
ப்படவில்லை	-9.21201
▁விலங்கு	-9.21234
▁நிகழ்வு	-9.21256
▁ஆக்க	-9.21283
▁பர்	-9.21447
ுவதற்காக	-9.21518
▁எழுதப்பட்ட	-9.21526
▁வேதியியல்	-9.21555
▁கம்ப	-9.21583
▁மிகுந்த	-9.21697
!	-9.21711
களிடம்	-9.21779
▁உண்மை	-9.21817
un	-9.21821
▁விட்ட	-9.21875
▁சுற்று	-9.21893
▁தனிம	-9.21894
றா	-9.21903
▁குள	-9.22004
▁பகுதிகள்	-9.22028
▁கூட்டு	-9.22061
விட்ட	-9.22073
▁உயர்ந்த	-9.22212
▁குறைவான	-9.22256
▁வெளியிட	-9.22375
▁உறுப்பு	-9.22387
▁அளிக்க	-9.22432
▁தமிழர்	-9.22433
15	-9.22627
and	-9.22717
▁முடி	-9.22799
▁அனுப்ப	-9.22824
▁எழுதி	-9.22825
விட்டு	-9.22829
▁அரி	-9.22855
▁ஆதார	-9.23092
க்கால	-9.23144
▁சட்டம்	-9.23151
ப்பள்ளி	-9.23181
▁ஃபி	-9.23184
▁ல்	-9.23298
▁தலைவராக	-9.23356
லூர்	-9.23461
▁அணை	-9.23504
▁இவரின்	-9.23609
▁அச்ச	-9.23709
▁எதிரான	-9.23766
▁அரு	-9.23884
▁விசை	-9.23904
▁இறந்த	-9.23914
▁2004	-9.23977
▁கட்டுப்படுத்த	-9.24048
▁புலி	-9.24105
▁மாவட்டத்தின்	-9.2417
▁கொண்டிருக்கும்	-9.24198
▁என்பன	-9.24235
க்கே	-9.24255
▁பனி	-9.24353
▁மரபு	-9.24442
▁எடுத்து	-9.24459
ுபவர்	-9.24459
▁நல	-9.24473
▁நடிகர்	-9.24572
▁2013	-9.24846
▁மிகப்	-9.24906
நாத	-9.24984
▁தன்னுடைய	-9.24996
▁கிமீ	-9.25097
▁சந்திர	-9.25221
த்தோ	-9.25226
▁மட	-9.25481
கல	-9.25518
ற்க	-9.25551
▁அதிகார	-9.25615
▁சொந்த	-9.25651
ையில்	-9.25745
▁கல்	-9.25931
▁2000	-9.25948
▁ஜே	-9.26029
மம்	-9.26112
▁கொண்டிருந்த	-9.26173
▁சோழ	-9.26184
16	-9.2621
▁ரெ	-9.26225
▁தத்துவ	-9.26226
▁ஹி	-9.26249
▁பயன்பாடு	-9.26372
திரு	-9.26435
z	-9.26458
▁29	-9.26458
தார	-9.26469
▁50	-9.26484
▁அவற்றை	-9.26598
▁இக்க	-9.2663
▁பார்வை	-9.26634
▁உயர	-9.26647
▁தரவு	-9.26753
▁மழை	-9.26778
விலும்	-9.26797
▁நாட்டில்	-9.26799
▁பாடல்கள்	-9.26814
▁திருப்ப	-9.26821
▁இயந்திர	-9.2687
முள்ள	-9.27042
▁பாக	-9.27244
▁இத்தகைய	-9.2727
▁வான்	-9.2728
▁செய்	-9.27285
▁இறுதியில்	-9.27337
வெளி	-9.27372
▁வர்த்தக	-9.27385
சுவாமி	-9.27392
▁அமைக்க	-9.27459
▁சண்டை	-9.27464
நாட்ட	-9.27555
▁திசை	-9.27624
▁பறவை	-9.27696
▁கட்டி	-9.27701
வற்றை	-9.2773
ay	-9.27794
▁கிலோமீட்டர்	-9.27822
ட்ரோ	-9.27825
▁பயண	-9.27935
▁அறிக்கை	-9.28037
▁தமிழில்	-9.28139
த்தான்	-9.28166
▁உட்பட	-9.28287
த்தது	-9.28371
▁சிற்ற	-9.28391
▁பூங்கா	-9.28454
▁சாதாரண	-9.28478
▁கரிம	-9.28517
ொரு	-9.28543
க்களை	-9.28546
▁அத்துடன்	-9.28576
12	-9.28689
▁சுந்தர	-9.28835
▁தொடர்புடைய	-9.28935
வதற்கு	-9.28943
▁அமெரிக்காவில்	-9.28953
▁குண	-9.28955
30	-9.2896
▁பகுதியாக	-9.28969
▁உடை	-9.28973
▁வாகன	-9.29074
▁பொருட்கள்	-9.29163
முனை	-9.29168
▁சிங்	-9.29255
▁திருத்தந்தை	-9.293
▁முதலாம்	-9.29406
த்தே	-9.29407
ப்பில்	-9.29423
▁விளையாட	-9.29827
▁பணியாற்றினார்	-9.29958
ரசு	-9.29959
பால்	-9.29972
W	-9.30027
ிருக்கிறார்	-9.30055
▁பக	-9.30067
11	-9.30128
ot	-9.30178
ரான்	-9.30215
▁காந்தி	-9.30234
▁2016	-9.30253
வற்ற	-9.30333
▁தேவையான	-9.30464
-19	-9.30613
ா்	-9.3063
▁பொருத்த	-9.3069
ப்படுவது	-9.30698
▁அல்ல	-9.30728
ாண்டு	-9.30782
▁அழைக்கப்படும்	-9.30839
▁வாய்ப்பு	-9.30847
▁இணைந்த	-9.30901
▁முன்னேற்ற	-9.30905
▁ஆக்கைவ	-9.30942
▁வழக்க	-9.30967
பிறப்பு	-9.31068
கில்	-9.3111
▁இச்ச	-9.31176
▁வெளிப்படுத்த	-9.31227
▁குறு	-9.31239
▁எட்டு	-9.31322
▁ஷா	-9.31379
ப்பதற்கு	-9.3156
▁அழுத்த	-9.31562
பர	-9.31563
▁பாய்	-9.31593
நீ	-9.31594
▁தன்னை	-9.31603
ரச	-9.31739
▁பெண்ண	-9.31754
▁இரட்டை	-9.31773
▁புகழ்பெற்ற	-9.3186
எஸ்	-9.31877
▁கதிர்	-9.31947
▁எடுக்க	-9.31949
▁ஆல	-9.31956
▁ஈர	-9.32054
கொள்ள	-9.32139
ூட்ட	-9.32201
▁பண	-9.32252
▁அனு	-9.32267
▁இலை	-9.32289
▁அரை	-9.3229
▁ய	-9.32302
▁கண்டுபிடிக்க	-9.32311
▁அறை	-9.3241
ுவதால்	-9.32439
▁மாற்றி	-9.32459
▁இதுவே	-9.3246
▁m	-9.32587
▁கோல்	-9.32675
▁தொழில	-9.32738
▁அரசாங்க	-9.3279
வாகும்	-9.32813
ுகின்ற	-9.32819
▁ஆதி	-9.32834
தெ	-9.32836
▁உதவ	-9.32905
▁கீழே	-9.3294
ற்கு	-9.32964
▁மக்கள்தொகை	-9.33002
▁இடையில்	-9.33024
40	-9.3306
ுள்	-9.3314
▁கப்பல்	-9.33178
▁கட்டப்பட்ட	-9.33231
ப்பது	-9.33249
▁போக்குவரத்து	-9.33255
▁வருகிறார்	-9.33268
▁சொற்	-9.33313
▁தெய்வ	-9.33314
▁மட்ட	-9.33533
▁வெவ்வேறு	-9.33543
id	-9.33545
ிருப்ப	-9.33548
▁மாணவர்	-9.33625
▁இந்தத்	-9.33744
▁அதிகம்	-9.33753
னல்	-9.33783
▁என்ன	-9.33998
ின்றது	-9.33998
▁பத்து	-9.34012
▁சூலை	-9.34033
▁தொகுதியில்	-9.34115
ேன்	-9.34165
அழைக்கப்படுகிறது	-9.34175
▁இருப்ப	-9.34229
▁காரணம்	-9.34263
▁கோட்ட	-9.3431
▁பிப்ரவரி	-9.34321
▁சேர	-9.34362
வதி	-9.3439
▁ஹோ	-9.34395
▁கவிதை	-9.34398
▁கல்லூரியில்	-9.34401
ent	-9.34476
▁கிள	-9.34629
▁ஆஃப்	-9.34641
குடி	-9.34749
▁காற்ற	-9.34766
▁செயல்பாடு	-9.34849
வரின்	-9.3492
ஒ	-9.35015
▁இசு	-9.35052
▁40	-9.35077
ப்பெற்ற	-9.35119
▁கிரி	-9.35199
▁செய்யப்பட்டது	-9.35238
▁லே	-9.35303
▁பரவ	-9.35357
▁திரும்ப	-9.35389
ம்பட்டி	-9.35435
▁மாரியம்மன்	-9.35448
கின்றது	-9.35517
புரி	-9.35536
மதி	-9.3566
டீ	-9.35678
க்கொள்ள	-9.35731
▁தட	-9.35734
▁மண்	-9.35924
▁தொடருந்து	-9.35976
▁பௌத்த	-9.36077
▁தோட்ட	-9.36166
▁ஆய	-9.36218
▁அளவ	-9.36232
▁நடிகை	-9.36255
யற்ற	-9.36277
▁தொகுப்ப	-9.36294
நீர்	-9.36294
▁சேர்ம	-9.36371
▁ஆவது	-9.36391
ai	-9.36396
ag	-9.36535
▁வங்காள	-9.36542
▁எடை	-9.36553
▁அவன்	-9.36573
ாக்க	-9.36594
▁ஞான	-9.36731
▁வேதி	-9.3688
st	-9.36936
▁அலகு	-9.36938
▁and	-9.36945
▁V	-9.37034
ஷா	-9.37039
▁பயன்படுகிறது	-9.37067
▁காம	-9.37094
▁கிரா	-9.37122
▁நை	-9.37134
▁காரணி	-9.37248
பேட்டை	-9.37288
▁O	-9.37329
ha	-9.3748
யிலுள்ள	-9.37563
▁பங்க	-9.37639
▁சூன்	-9.37673
▁பாதை	-9.37691
▁காரண	-9.37816
▁கேரள	-9.37869
▁நிறுவனத்தின்	-9.37882
மிக்க	-9.37902
▁பொருட்	-9.37935
▁பிளா	-9.37982
த்திற்கும்	-9.38017
▁நடித்தார்	-9.38067
▁பண்டைய	-9.38111
▁கூறினார்	-9.38136
ராய	-9.38184
▁செயல	-9.38312
ங்களுடன்	-9.38323
▁விளை	-9.38351
▁திருமண	-9.3836
▁அரங்க	-9.38446
▁விகித	-9.38531
கண்ட	-9.38544
ப்பே	-9.38586
▁ஊடக	-9.38594
▁வெடி	-9.38622
ுவதற்கான	-9.38728
ிறார்	-9.38808
க்கொண்டு	-9.38851
▁விவசாய	-9.38889
ia	-9.38962
▁இதே	-9.39002
▁நிகழ்	-9.39122
▁பண்பு	-9.39133
▁தை	-9.3919
▁எதிர்ப்பு	-9.39229
▁கிடைக்க	-9.39232
ப்பிர	-9.39232
▁பரிசு	-9.39331
▁பூச்சி	-9.39397
▁சுர	-9.39401
மைய	-9.39479
▁கனிம	-9.39529
▁முன்னணி	-9.3955
18	-9.3955
▁காற்று	-9.39568
▁முறையாக	-9.39655
ன்ற	-9.39762
ஜெ	-9.39796
▁வருகின்றன	-9.39861
கொள்	-9.39927
ளம்	-9.39971
▁வலி	-9.39996
களாகவும்	-9.40003
▁1990	-9.40058
▁இன்னும்	-9.4006
▁நேரம்	-9.40068
▁பத்திரிகை	-9.40071
▁மரண	-9.40156
▁தெரிய	-9.40318
▁செயல்முறை	-9.40369
▁உயிர	-9.40392
▁கண்டு	-9.40434
▁ஆனது	-9.40439
▁மூன்றாவது	-9.40443
▁தந்த	-9.40494
ளு	-9.40551
▁நூல்கள்	-9.40572
▁ஃப	-9.40614
கிறார்	-9.40616
▁புராண	-9.40617
▁நடன	-9.40632
▁வால்	-9.40643
▁விநாயகர்	-9.40645
▁ரே	-9.40796
▁கோட்பாடு	-9.4086
▁முந்தைய	-9.4086
▁அடர்த்தி	-9.40944
li	-9.40986
▁போன்று	-9.4099
▁31	-9.41086
▁கடந்த	-9.41097
▁நிகழ்ந்த	-9.41111
▁அறியப்பட்ட	-9.41156
▁வாங்க	-9.41324
▁தொலை	-9.4142
ுகிறார்கள்	-9.41454
=	-9.41461
ராஜ	-9.41473
ீடு	-9.41476
▁ஆல்ப	-9.41608
▁உட்பட்ட	-9.41623
▁சாதனை	-9.41668
▁தற்போதைய	-9.41697
▁வெளியான	-9.41698
▁கார	-9.41745
▁ரூ	-9.41788
▁வயதில்	-9.41838
▁திருவண்ணாமலை	-9.41866
▁ஜனவரி	-9.41908
▁வாய்	-9.41914
வட்ட	-9.42006
▁இப்ப	-9.42039
▁பின்பு	-9.42079
▁கிடைத்த	-9.42126
v	-9.42227
▁விருப்ப	-9.42241
▁தகுதி	-9.42248
▁கிராமம்	-9.42259
▁யோ	-9.42372
டிக்	-9.42374
▁உலகப்	-9.42484
ராய்	-9.42555
▁மெய்	-9.42638
▁அனுமதி	-9.42647
▁சிறப்பாக	-9.42647
▁ரயில்	-9.42678
▁சுற்றுலா	-9.42682
என்	-9.42742
▁குறியீடு	-9.42844
▁புரட்சி	-9.42847
▁இந்தியத்	-9.43014
▁ஆவர்	-9.4305
▁in	-9.4313
▁சிற்ப	-9.43182
▁குற்ற	-9.43241
மூல	-9.43261
பிர	-9.43316
▁பாதுகாப்ப	-9.4335
▁ஒற்றை	-9.43376
▁இயங்க	-9.43393
த்திற்காக	-9.43465
க்கிறது	-9.43499
ச்செ	-9.43535
▁அடங்கும்	-9.43582
ீட்டு	-9.43595
▁வெள்ள	-9.43596
ter	-9.43597
▁தின	-9.43673
▁பல்கலைக்கழகம்	-9.43692
▁நிறுவனங்கள்	-9.43737
ுக்காக	-9.43782
வாதி	-9.4379
▁பயணி	-9.43796
em	-9.43802
▁பெயரை	-9.43809
13	-9.43824
▁நேபாள	-9.43868
▁படைப்பு	-9.4398
▁விளைவு	-9.44078
ப்பொருள்	-9.44127
▁பொழுது	-9.44141
ப்பான	-9.44229
ப்படாத	-9.44246
▁இதய	-9.44366
ம்பா	-9.4437
மிய	-9.44487
முடி	-9.44524
க்குச்	-9.4458
▁லோ	-9.44695
▁சன்னதி	-9.44732
▁விளம்பர	-9.44903
ப்பகுதியில்	-9.45001
▁பொறி	-9.45062
▁ஆகியவற்ற	-9.45097
▁துவக்க	-9.45123
டுகள்	-9.45237
▁தொடங்கி	-9.45251
▁பல்ல	-9.45278
▁நாடுகளின்	-9.45343
▁குட	-9.45376
ஞ்சு	-9.45435
▁அன்	-9.45445
டியா	-9.45548
▁இம்ம	-9.45617
▁வருவாய்	-9.45671
▁பொறுப்ப	-9.45682
▁முதன்	-9.45714
os	-9.45762
த்தன	-9.45784
▁தாக்குதல்	-9.45805
▁ஆகவும்	-9.45852
▁விகிதம்	-9.45886
▁விவரிக்க	-9.45899
▁கடை	-9.45977
▁கத்தோலிக்க	-9.45994
▁ஆசியா	-9.45998
▁புலவர்	-9.46095
▁ஓர	-9.46106
ஸ்ட	-9.4614
▁நீல	-9.463
▁பென்	-9.46385
▁ஆப்	-9.46398
▁ஒப்பந்த	-9.46405
ையா	-9.46438
▁இவரை	-9.46489
▁மேற்கொண்ட	-9.46509
▁ஆன்	-9.46573
▁ஆகியவற்றின்	-9.46649
னீ	-9.46655
▁வேறுபாடு	-9.4666
▁சார்	-9.46679
▁கட்சியின்	-9.46683
▁விண்மீன்	-9.46701
▁தில்லி	-9.46705
ும	-9.46744
▁கொள்	-9.46749
▁மைல்	-9.46767
யூர்	-9.46772
▁குறிப்ப	-9.46854
லாக	-9.46865
ிற்கான	-9.46877
▁மிக்க	-9.46906
ாலய	-9.46939
▁வேத	-9.46943
▁மாற்றம்	-9.46954
▁பாதுகாக்க	-9.46966
▁ஒன்றிய	-9.46973
▁கொடுத்த	-9.4698
▁ஆயுத	-9.47046
▁வான	-9.47057
▁கிடைக்கும்	-9.4706
▁இப்போது	-9.47079
▁முதலாவது	-9.47098
க்குத்	-9.47148
▁தூண்ட	-9.47158
▁கடைசி	-9.47201
▁அடையாள	-9.47223
▁கல்வெட்டு	-9.47236
01	-9.47258
▁மூலக்கூறு	-9.47343
▁திரைப்படத்தில்	-9.47361
▁கூறிய	-9.47368
ுவர்	-9.47377
ுதல	-9.47396
▁மும்பை	-9.47415
ak	-9.47448
ிற்கும்	-9.47478
ட்டம்	-9.47493
▁மேம்படுத்த	-9.47511
▁அருகே	-9.47527
ணர்	-9.47646
புற	-9.47749
▁கழக	-9.47816
ஹ்	-9.47833
▁1980	-9.47844
காண	-9.47879
la	-9.48044
▁கொல்ல	-9.48116
த்தலை	-9.48119
▁திரை	-9.48128
த்திலேயே	-9.48178
▁ஒருநாள்	-9.48195
▁வண்ண	-9.4827
▁பரப்ப	-9.48289
▁உடல	-9.48323
▁ஆக்	-9.48336
▁சுய	-9.48369
தலை	-9.48372
▁ஏற்ப	-9.48375
▁விதை	-9.48396
▁வில்	-9.48399
க்கார	-9.48411
▁நிறுவ	-9.48453
▁தூர	-9.48628
யினால்	-9.48676
தில்லை	-9.48684
▁இலங்கையில்	-9.48736
▁சிறை	-9.48798
பிரி	-9.48886
▁திருநெல்வேலி	-9.4889
▁என்றால்	-9.48895
▁கல்வியறிவு	-9.48935
▁துறைமுக	-9.4895
▁பாறை	-9.48992
ியா	-9.49019
▁நுட்ப	-9.49157
ஸின்	-9.49194
ேஷ்	-9.49328
▁ஆணைய	-9.49394
ந்தது	-9.49445
▁இருந்தாலும்	-9.49519
▁எழு	-9.49534
▁தொடங்கியது	-9.49547
▁இல்லாமல்	-9.49738
▁கொடி	-9.49747
▁காஞ்சிபுரம்	-9.49759
▁உச்ச	-9.49767
ராச	-9.49771
▁முதல	-9.49829
க்குரிய	-9.49845
யிலேயே	-9.49845
▁பிரெஞ்சு	-9.49847
யிலான	-9.49849
▁பகுதிகளை	-9.49925
▁வென்ற	-9.49934
▁போரில்	-9.50011
லன்	-9.50077
▁கலைஞர்	-9.50116
▁சீர	-9.50145
▁அமெரிக்காவின்	-9.50169
ப்பூ	-9.50239
ல்லாத	-9.50444
°	-9.50465
▁லூ	-9.50484
▁விளைவாக	-9.50582
▁உறவு	-9.50648
▁நாணய	-9.5067
▁சிலை	-9.50709
▁மாற்று	-9.50722
▁பிரிக்க	-9.50768
ஹி	-9.50772
ந்	-9.50838
▁திட்டம்	-9.5084
▁முடிவ	-9.50917
றும்	-9.50938
▁அனுபவ	-9.50951
வித	-9.51005
▁2003	-9.51034
▁இவருடைய	-9.51037
▁காடு	-9.51107
▁இளம்	-9.51167
60	-9.51229
▁ஆகியன	-9.5124
▁J	-9.51305
க்கப்பட்டு	-9.51353
▁அயனி	-9.51389
▁இல்ல	-9.51391
ப்பாடு	-9.51419
99	-9.5142
▁பதிப்பு	-9.51493
▁என்பதால்	-9.51605
▁உள்ளூர்	-9.51622
▁தொடங்கினார்	-9.51633
▁தயாரிப்பு	-9.51634
த்திலுள்ள	-9.51668
▁ஜூன்	-9.51668
▁முத்து	-9.51675
▁ஏனெனில்	-9.51686
▁ஏறத்தாழ	-9.51825
▁இவ்வகை	-9.51831
▁கிருஷ்ண	-9.51851
▁பின்பற்ற	-9.51919
▁வெள்ளி	-9.51949
▁சைவ	-9.52124
ut	-9.52191
▁விரி	-9.52233
▁வழங்கி	-9.52262
லக	-9.52277
நேர	-9.52294
ஸ்டர்	-9.52335
செல்	-9.52348
▁வம்ச	-9.52352
ளவில்	-9.52449
▁இழந்த	-9.5249
▁ஆகத்து	-9.52493
▁தரை	-9.52551
▁உள்ளடக்கிய	-9.52652
op	-9.52667
▁வழங்கப்பட்டது	-9.52795
j	-9.52804
▁குதிரை	-9.5283
▁ஆட	-9.52835
▁தடுக்க	-9.52837
▁நதி	-9.5287
▁மேற்கொள்ள	-9.52919
▁பின்வருமாறு	-9.52948
▁அறிவு	-9.52958
▁ஆழ	-9.52968
▁அளவை	-9.52983
▁உப்பு	-9.53037
▁படம்	-9.53038
▁நே	-9.53048
▁வெளியிடப்பட்டது	-9.53092
im	-9.53098
▁ஆன	-9.53127
ார	-9.5321
மைப்பு	-9.53287
▁மரப	-9.5335
▁படைகள்	-9.53357
▁சென்	-9.53375
▁நன்கு	-9.53376
▁அவர்களது	-9.53421
ப்பாக	-9.53452
▁பூமி	-9.5354
▁ஆசிய	-9.53549
▁இருவரும்	-9.53572
▁கூறி	-9.53611
▁இம்	-9.53665
▁கட்டு	-9.53776
ஃப	-9.5385
▁அமையும்	-9.53917
▁செலவ	-9.53935
▁பார்த்த	-9.53956
▁அறிவ	-9.53986
▁நினைவு	-9.54008
குளம்	-9.54014
ரக	-9.54026
▁அமைதி	-9.54032
▁பதிலாக	-9.54067
▁லீ	-9.54123
▁வகுப்பு	-9.54148
▁சுழற்சி	-9.54206
▁அரசர்	-9.54231
▁பிரபலமான	-9.54267
எடுத்துக்காட்டாக	-9.5431
ேற்ற	-9.54357
▁பகுதியை	-9.54407
▁இசுலாமிய	-9.54418
ate	-9.54434
பொருள்	-9.54436
▁இணைக்கப்பட்ட	-9.54466
ாய	-9.54467
கான்	-9.54512
▁ஆள	-9.54562
ண்டை	-9.54615
▁f	-9.54691
▁மேலாண்மை	-9.5471
▁என்கிற	-9.54768
14	-9.54789
▁சமுதாய	-9.54801
▁நாட்கள்	-9.54844
▁துவங்க	-9.54953
▁தோன்றிய	-9.54957
▁ஹார்	-9.54985
ஃபி	-9.55058
▁இவற்றின்	-9.55148
▁மல	-9.55202
எம்	-9.55253
▁பலர்	-9.55264
ருக்க	-9.55296
ிருக்கலாம்	-9.55304
▁ஏனைய	-9.55343
கூட	-9.55357
▁பேரரசு	-9.55368
▁மாலை	-9.55376
ேட்டு	-9.55378
பெற்ற	-9.5538
▁திராவிட	-9.55385
ூரில்	-9.55463
யிர்	-9.55538
▁தொழிலாளர்	-9.55641
வையாக	-9.55656
▁பேருந்து	-9.55669
▁நூலக	-9.55769
▁யானை	-9.55796
▁சேர்க்க	-9.55808
▁சாத்திய	-9.55966
▁இலக்கு	-9.56011
▁ஜூலை	-9.5603
யினர்	-9.56065
▁திரி	-9.56273
▁2002	-9.56305
▁பரி	-9.56315
கிழ	-9.56322
▁அம்ம	-9.56323
▁வார்த்தை	-9.56375
ப்பணி	-9.56494
ap	-9.5659
மையான	-9.5663
▁கற்	-9.56655
▁சக்கர	-9.56752
ஓ	-9.56848
▁அமைத்த	-9.56889
▁அடைந்த	-9.56939
▁தனிப்பட்ட	-9.57028
▁படுத்த	-9.57067
▁எடுத்துக்	-9.57159
▁நீளம்	-9.57168
தோடு	-9.57194
▁பலரும்	-9.5722
▁வில்லியம்	-9.5722
ang	-9.57233
▁குழந்தைகள்	-9.57244
ாகப்	-9.57253
ிருக்கின்றன	-9.57298
▁வானொலி	-9.57332
▁பிரதி	-9.57338
▁புரோ	-9.57346
▁நேரடியாக	-9.57419
க்கோட்டை	-9.57453
▁பாதிக்கப்பட்ட	-9.57465
மூ	-9.57474
பன்	-9.57485
▁பிரபல	-9.57504
ந்தார்	-9.57529
-1	-9.57633
05	-9.5771
▁கிராமக்	-9.57734
▁மனிதர்	-9.5776
09	-9.57764
▁ஆதரவ	-9.57806
▁நோயாளி	-9.5782
நோ	-9.57942
வாக்க	-9.57978
▁ஆய்வ	-9.57979
▁பிரதான	-9.58062
▁திரவ	-9.58087
▁பயிர்	-9.58091
▁நடைபெறும்	-9.58112
சில்	-9.58158
▁60	-9.58194
▁ஆலய	-9.58279
யிர	-9.58292
▁இவற்றை	-9.58417
▁காய	-9.58555
▁பயன்	-9.58555
▁ஜெய	-9.58568
கிராம	-9.58574
▁மது	-9.58668
▁+	-9.58696
▁புரத	-9.58754
▁உலகில்	-9.58835
▁வன	-9.58898
▁வார்	-9.58904
od	-9.58904
▁கோண	-9.58907
ுவதன்	-9.58941
ெழு	-9.59009
▁கழகம்	-9.59068
த்தக்க	-9.59087
▁வளர்ந்த	-9.59109
80	-9.59113
▁நு	-9.59134
▁திறமை	-9.59235
▁பொறியியல்	-9.59252
வருக்கு	-9.59258
▁வட்டம்	-9.5932
▁குறைவாக	-9.59332
ுவதில்	-9.59337
▁பெருக்க	-9.59341
▁படைத்த	-9.59385
ிட்ட	-9.5943
யாக்க	-9.59458
25	-9.5955
கட	-9.59562
▁வீட்டு	-9.59587
▁குறைக்க	-9.59605
▁அடைய	-9.59719
all	-9.59748
▁செய்தது	-9.59819
▁பொருட்களை	-9.59836
06	-9.59854
ig	-9.59874
விலிருந்து	-9.59884
▁பன்னாட்டுத்	-9.59898
▁தீவிர	-9.59909
களோடு	-9.59945
செய்	-9.5996
▁கொலை	-9.59973
▁பயன	-9.5998
▁வேறுபட்ட	-9.60035
யாகக்	-9.60047
விடும்	-9.60062
யம்மன்	-9.60169
னிக்	-9.6018
▁தோன்ற	-9.60195
▁பாராட்ட	-9.60212
▁பத	-9.60242
▁கொண்டுள்ளன	-9.60266
▁கனடா	-9.60286
▁ஆர்வ	-9.60296
▁தேச	-9.60322
▁காணலாம்	-9.60369
▁இறை	-9.60386
▁அம்ச	-9.6039
பெரு	-9.60441
ங்க்	-9.60467
▁திசம்பர்	-9.60473
ுவத	-9.60524
▁தெலுங்கு	-9.60545
த்தினால்	-9.60565
▁மலையாள	-9.60633
வர்களுக்கு	-9.60644
க்குடி	-9.60698
ab	-9.60703
லால்	-9.60707
▁பச்சை	-9.60713
▁இதழ	-9.60715
ாகக்	-9.60811
ath	-9.60882
தொ	-9.60912
▁அண்ட	-9.60919
X	-9.6092
▁நீதிமன்ற	-9.60943
வாறு	-9.60997
போர்	-9.61003
▁இரவு	-9.61076
▁போக	-9.61171
க்களின்	-9.61227
▁ஏற்பட்டது	-9.61262
▁பயன்படும்	-9.6127
07	-9.6129
பிய	-9.6129
ிசை	-9.61299
வம்	-9.613
பெர்	-9.61311
▁மண்ண	-9.61315
வரி	-9.61328
நாட்டு	-9.61338
▁வழிமுறை	-9.61367
மண	-9.6137
ேந்திர	-9.6138
▁எடுத்த	-9.61408
முடைய	-9.61486
▁நெடு	-9.61489
▁வெளியே	-9.61521
ாளர்கள்	-9.61543
hi	-9.61576
▁வளை	-9.6158
▁கோவில	-9.61582
▁ஈழ	-9.61586
▁அடக்க	-9.61604
ine	-9.61683
▁இணைப்பு	-9.61712
▁இராஜ	-9.61739
▁விளங்க	-9.61785
▁பின்வரும்	-9.61821
▁மக்களுக்கு	-9.61846
தற்கான	-9.61858
▁துணி	-9.61869
▁யூத	-9.6191
95	-9.61932
நல்லூர்	-9.61964
களாலும்	-9.61978
▁செயற்கை	-9.6198
பாய்	-9.62
▁நாம்	-9.62003
se	-9.62016
தன	-9.62027
▁கடவுள்	-9.62033
▁இருந்தால்	-9.62085
▁ஜெர்மனி	-9.62111
ாா்	-9.62137
ta	-9.62142
ப்பூர்	-9.62196
▁நடத்தி	-9.62219
▁கருத்த	-9.6222
பகுப்பு	-9.62263
ிடமிருந்து	-9.62266
▁ஊர	-9.62267
▁1970	-9.62302
நாடு	-9.62312
▁இருப்பது	-9.62324
மடைந்த	-9.62359
வையும்	-9.62393
லூ	-9.62486
▁படத்தில்	-9.62491
▁தேவி	-9.62506
▁சிக்கல்	-9.62534
▁அமைந்துள்ளன	-9.6256
லியா	-9.62583
▁சிங்க	-9.62583
▁நடை	-9.62757
▁இடைவெளி	-9.62854
▁வைக்கப்பட்ட	-9.62875
▁இளைய	-9.6288
லிங்க	-9.62914
▁வடிவம்	-9.62936
▁இங்குள்ள	-9.62947
▁மக்	-9.62965
நூல்	-9.63014
ரிக்	-9.63043
▁திருச்சபை	-9.63044
▁விஜய	-9.63072
வரு	-9.63088
▁கைப்பற்ற	-9.63136
▁பிரச்சினை	-9.63148
்க	-9.63175
98	-9.63224
▁ஈடுபட்ட	-9.63335
▁பாடல	-9.63343
▁/	-9.63367
▁வலை	-9.63394
▁அங்கே	-9.63438
▁மின்சார	-9.63503
▁ஒப்பு	-9.63519
▁அடிப்படையாகக்	-9.63592
▁அமைந்தது	-9.63603
▁பன்	-9.6361
▁வழங்கும்	-9.63614
▁நார்	-9.63621
ப்பட்டுள்ள	-9.63628
▁பெருமை	-9.63633
ow	-9.63645
▁பிடித்த	-9.63678
ிற்காக	-9.63695
▁நிறைவேற்ற	-9.63727
▁பாதி	-9.63779
▁நிகழ்த்த	-9.63918
▁கணக்க	-9.6394
சார	-9.63978
▁பய	-9.64013
▁கடல	-9.6402
▁எண்ணெய்	-9.64062
▁இழை	-9.64106
ப்புற	-9.64189
▁உருவாக்கிய	-9.64221
▁போன்றவற்றை	-9.64253
ேஸ்வரர்	-9.6428
ராஜ்	-9.64285
▁சிலர்	-9.643
▁கலாச்சார	-9.64301
▁துறையில்	-9.6433
▁அசை	-9.64396
▁காந்த	-9.64429
na	-9.64433
▁ஷ	-9.64457
▁அப்ப	-9.64499
▁செயல்பட	-9.64506
▁சார்பு	-9.64533
▁முடியாது	-9.64534
▁தக	-9.64574
▁அழக	-9.64645
▁சிவகங்கை	-9.64671
▁கட்டமைப்பு	-9.64732
J	-9.64734
▁வாயு	-9.64745
▁இலக்கண	-9.64768
▁இராச	-9.64815
▁நடித்துள்ளார்	-9.64828
▁உறை	-9.64843
▁என்றாலும்	-9.64904
▁வல	-9.64918
▁புதின	-9.6496
லாந்து	-9.65065
70	-9.65089
▁உள்ளடக்க	-9.65091
▁முறைமை	-9.65158
▁கர்	-9.65189
▁அச்சு	-9.65196
வடிவ	-9.65251
▁விண்வெளி	-9.65255
▁தெரிவித்த	-9.65283
▁அரசியல்வாதி	-9.6531
▁பாவ	-9.65328
▁முட்டை	-9.65344
க்கிர	-9.65364
▁பாடிய	-9.65428
▁குளிர்	-9.65429
ண்டர்	-9.6545
▁பிரம்ம	-9.65459
▁பேரரச	-9.65462
▁a	-9.65523
▁நிறைந்த	-9.65537
▁ஆகியவற்றில்	-9.6554
▁1960	-9.65564
85	-9.65567
▁()	-9.65584
▁மின்ன	-9.65584
▁அவர்களுக்கு	-9.65645
▁மதிப்ப	-9.65688
குறி	-9.6571
▁கேள்வி	-9.65789
▁சீனா	-9.65835
▁ஆற்ற	-9.65867
க்கலை	-9.6598
90	-9.6602
▁பெற்றவர்	-9.66032
▁உண்ண	-9.6607
+	-9.66075
▁போலவே	-9.66131
▁கூறப்படுகிறது	-9.66171
▁மையமாக	-9.66222
▁வகைப்படுத்த	-9.66244
▁வளைய	-9.66247
தல	-9.66281
▁குருதி	-9.66282
ிருந்து	-9.66299
▁நேச	-9.66411
யுடைய	-9.66502
நகர	-9.66526
ேரி	-9.6657
▁பாணி	-9.6669
▁மஞ்சள்	-9.66829
▁சமயம்	-9.66893
யோடு	-9.66898
ெய்	-9.66901
▁கடவுள	-9.67047
களி	-9.67069
­	-9.67081
-20	-9.67148
▁நீதி	-9.67149
▁கண்டறிந்த	-9.6716
பாட	-9.67163
ஸா	-9.67179
▁வெளியிடப்பட்ட	-9.67207
▁சேர்	-9.67239
▁வாக்கு	-9.67315
க்கரை	-9.67331
▁சென்றார்	-9.67448
▁சூழ்நிலை	-9.67463
▁டொ	-9.67497
▁இடத்தை	-9.67499
▁காதல்	-9.6752
▁ஏற்க	-9.67527
▁நிறை	-9.67531
96	-9.67566
▁அர்	-9.67614
▁ஒருங்கிணை	-9.67622
▁சர	-9.67629
▁கலவை	-9.6766
▁நட்சத்திர	-9.6768
▁செங்க	-9.67709
▁உள	-9.67756
91	-9.67763
▁ஜீ	-9.67763
▁எழுதியுள்ளார்	-9.67775
▁வெளியேற்ற	-9.67793
04	-9.67856
▁வேட	-9.67878
▁அனுமதிக்க	-9.67888
▁சேர்ந்தவர்	-9.67892
▁அறிந்த	-9.67996
67	-9.68063
▁நிலையை	-9.68093
▁ஆகஸ்ட்	-9.68136
க்கூட	-9.68148
92	-9.68189
ியுள்ளார்	-9.68248
▁டீ	-9.68272
▁நூல	-9.68273
▁இவ்வி	-9.68281
▁கோப்பை	-9.68298
▁சாதி	-9.68407
▁புதுக்கோட்டை	-9.68407
ினாலும்	-9.68434
▁சேலம்	-9.68467
வில	-9.68487
▁தவ	-9.68519
88	-9.68549
▁முக்கியத்துவம்	-9.68557
சங்க	-9.68562
▁ஒலிம்பிக்	-9.68691
▁என்பத	-9.68692
▁விவர	-9.68714
▁ஆற்றின்	-9.68817
▁அடுக்கு	-9.68954
ட்ரா	-9.68975
▁உருவாக்கி	-9.69021
▁வைர	-9.69091
▁அமிலம்	-9.69103
▁இருப்பதாக	-9.69137
வதை	-9.69162
▁நகைச்சுவை	-9.69218
▁இராக	-9.69268
▁அறிகுறி	-9.69274
▁திருத்த	-9.69298
▁இருந்தனர்	-9.69307
▁எலும்பு	-9.69322
▁திறந்த	-9.69448
னியம்	-9.69462
▁என்பவரால்	-9.69506
▁உள்நாட்டு	-9.69508
▁குறிப்பு	-9.69536
▁இலக்க	-9.69618
நே	-9.69638
▁எழுதினார்	-9.69677
ப்படலாம்	-9.69712
ின்படி	-9.69771
க்கல	-9.69888
▁எடுத்துக்காட்டு	-9.69942
▁தனியார்	-9.69958
▁கதாபாத்திர	-9.70109
▁கிட்டத்தட்ட	-9.70164
ac	-9.70206
க்கில்	-9.70261
▁மூலக்கூற்று	-9.70276
▁வாழ்வ	-9.70292
▁மலர்	-9.7034
▁பயணம்	-9.7045
▁கிரு	-9.70603
களுக்குப்	-9.7071
தூ	-9.70792
▁இந்நகர	-9.70812
சென்	-9.70837
ீஸ்வரர்	-9.70897
02	-9.70918
▁செயல்படுத்த	-9.71014
▁உர	-9.7106
▁திரைப்படங்களில்	-9.71087
கீ	-9.71092
▁அரண்மனை	-9.7112
▁சிறப்ப	-9.71125
ist	-9.71222
▁கார்பன்	-9.71258
▁கோடி	-9.71262
▁கணக்கிட	-9.71312
▁பரப்பு	-9.71328
க்குறி	-9.71333
up	-9.71368
▁வாழ	-9.71419
▁பாடசாலை	-9.71419
▁போற்ற	-9.71476
▁நகராட்சி	-9.71516
▁கிரிக்கட்	-9.71531
▁சாதன	-9.71549
▁பரிமாற்ற	-9.71646
வீர	-9.71704
▁முடியாத	-9.71725
▁சோவியத்	-9.71728
▁தொடர்ந்த	-9.71799
ட்டிய	-9.71832
▁மூத்த	-9.71837
▁பெறும்	-9.71847
▁முனைவர்	-9.71879
வைக்	-9.71905
▁இயக்கம்	-9.7212
▁கற்று	-9.72163
▁அனைத்தும்	-9.72195
▁மாதத்தில்	-9.72197
ion	-9.72198
▁இப்பகுதி	-9.72229
▁குறிக்கிறது	-9.72262
▁அமைப்பை	-9.72311
துறை	-9.72311
▁சரியான	-9.72314
▁வெளியேற	-9.72318
க்குழு	-9.7233
ாளராக	-9.72336
ப்பெரு	-9.72377
▁நடத்திய	-9.72443
ப்பட்டனர்	-9.72465
யீ	-9.72527
▁தற்கால	-9.7254
▁வடிவில்	-9.72567
▁சிங்கள	-9.72645
தேவி	-9.72697
ங்களால்	-9.72764
கின்	-9.7278
ருக்கும்	-9.72808
56	-9.72849
▁வாழ்ந்து	-9.72871
58	-9.72885
▁பரப்பளவு	-9.72885
ப்படுத்தப்பட்ட	-9.72999
▁பசு	-9.73004
▁n	-9.73022
▁தூத்துக்குடி	-9.73058
கின்ற	-9.73147
▁2017	-9.73219
▁ஈடுபட	-9.73237
▁முடிய	-9.7326
▁கொள்ளும்	-9.73267
▁2,	-9.73319
▁அந்	-9.73336
கலை	-9.73338
ில	-9.73349
▁தயாரிப்ப	-9.73442
08	-9.73472
க்கூடும்	-9.73489
▁ஐய	-9.73516
வைச்	-9.73552
▁சார்ப	-9.73562
▁தொடங்கிய	-9.73674
வடி	-9.73703
ட்சு	-9.73763
▁அழைக்கப்பட்ட	-9.73803
▁முருகன்	-9.73811
▁தொழிற்சாலை	-9.73812
▁கவன	-9.73949
▁விளங்குகிறது	-9.73963
▁புரிந்து	-9.73995
ினுள்	-9.74086
▁அடையாளம்	-9.74107
▁மென்பொருள்	-9.74119
▁கடன்	-9.74156
▁கண்டறிய	-9.74165
▁பக்த	-9.74197
▁அல	-9.74328
ஞ்	-9.74343
▁கணக்கெடுப்பின்	-9.74353
▁கொண்டுள்ள	-9.74375
▁அறிந்து	-9.74435
▁வடிவமைப்பு	-9.74441
ிலிருந்த	-9.74492
▁இரும்பு	-9.74514
▁கடத்த	-9.74516
க்கின்	-9.74521
▁உருவான	-9.74572
ப்படுகிறார்	-9.74656
▁w	-9.74663
▁ஒளிபரப்ப	-9.74686
▁உரிய	-9.74697
▁1999	-9.74728
ென	-9.7479
▁சகோதரர்	-9.74887
னுடைய	-9.74893
▁நம்	-9.74895
▁வளாக	-9.74915
▁காவல்	-9.75028
ma	-9.75061
ne	-9.75154
▁பெரிதும்	-9.7516
▁என்பவர	-9.75168
▁வேளாண்மை	-9.75204
ிருந்தனர்	-9.75286
மீன்	-9.75311
▁ஜூ	-9.75442
செய்த	-9.75445
கிறான்	-9.75538
▁நியமிக்கப்பட்ட	-9.75566
▁உதாரணமாக	-9.75571
லிருந்து	-9.7558
▁பணியாற்றிய	-9.75636
▁பள்ளியில்	-9.75679
▁ஜெர்மானிய	-9.75681
ப்படுத்தி	-9.75683
▁வரலாற்றில்	-9.75714
89	-9.75747
க்கொ	-9.75811
▁நட	-9.75863
ப்பான்	-9.75866
னுடன்	-9.75908
▁சம்பந்த	-9.75983
▁உலகம்	-9.76086
போல	-9.76115
82	-9.7612
▁பொருந்த	-9.76177
ங்கே	-9.76179
▁தரும்	-9.76184
சில	-9.76318
ந்திய	-9.76319
▁நகரின்	-9.76325
▁திருவ	-9.76328
▁சேத	-9.76351
▁கிராமத்தில்	-9.764
ந்தோ	-9.76473
▁நேரங்களில்	-9.76496
▁நடைபெற்றது	-9.76535
▁இத்தாலிய	-9.76559
▁கேட்ட	-9.76586
▁சிறுகதை	-9.76632
▁போன	-9.76663
ச்சேரி	-9.76671
▁அட்டவணை	-9.76691
▁அமைச்ச	-9.76765
▁கொண்டதாக	-9.76786
▁சிறிது	-9.76815
ாண்ட	-9.76846
03	-9.76879
▁வரலாற்ற	-9.76896
நெ	-9.76898
கின்றனர்	-9.76947
21	-9.77103
▁சூழல்	-9.77166
▁பெப்ரவரி	-9.7717
▁உறுப்பினர்கள்	-9.77194
75	-9.77235
▁எவ்வாறு	-9.77302
68	-9.7734
▁குவி	-9.77374
▁சுற்ற	-9.77375
▁(1	-9.7739
te	-9.77414
த்தினர்	-9.77471
▁வரையறை	-9.77471
ஸில்	-9.77478
▁இந்தி	-9.77487
▁எச்	-9.7749
▁ராஜ்	-9.77501
▁நுண்	-9.77528
▁விழுப்புரம்	-9.7753
▁தீர்த்த	-9.77603
▁U	-9.77628
▁நிறைவு	-9.77647
86	-9.7766
ஷன்	-9.77663
ஆங்கிலம்	-9.77702
66	-9.77735
▁எண்ணி	-9.77769
▁32	-9.77899
விட்டார்	-9.779
▁நேரடி	-9.7791
▁அறிஞர்	-9.77991
ாதி	-9.78056
▁தென்னாப்பிரிக்க	-9.78073
▁ஐரோப்பா	-9.78093
▁மாணவர்கள்	-9.78128
57	-9.7813
▁(200	-9.78161
கையில்	-9.78247
▁பிறந்தவர்	-9.78256
ஸ்டி	-9.78261
▁முஸ்லிம்	-9.78316
▁அடிக்கடி	-9.78317
▁தேட	-9.78375
▁ஒட்ட	-9.78382
பட்டு	-9.78387
▁நாளில்	-9.78483
▁சிவப்பு	-9.78507
▁பாடல்களை	-9.78514
▁வண்டி	-9.78634
▁பிரே	-9.78735
▁வெளியானது	-9.78784
▁கட்டட	-9.78786
▁நாட்	-9.78848
க்கப்படும்	-9.78906
▁நாராயண	-9.79048
ியின்	-9.7907
ச்சல்	-9.79162
ரிடம்	-9.7921
co	-9.79217
▁ஆர	-9.79228
க்கூ	-9.79262
▁1996	-9.7927
▁அணுக்	-9.79277
ஸ்தான	-9.79307
▁தெரிவிக்க	-9.79319
▁நபர்	-9.79327
மாக்க	-9.79352
ிலான	-9.79404
▁மரியா	-9.79421
▁ஆரம்பித்த	-9.79432
▁ஆடு	-9.79438
ுகிறான்	-9.79455
▁கூறுகிறது	-9.79478
ஞ	-9.79485
நாதர்	-9.79499
87	-9.7959
▁போன்றவற்ற	-9.79593
▁கட்டுரைகள்	-9.79595
னான்	-9.7962
▁நைட்	-9.79742
▁பந்து	-9.79749
▁நிறுவப்பட்டது	-9.79772
துடன்	-9.79815
டாக	-9.79917
▁வழக்கமாக	-9.79966
▁இயல்பு	-9.80011
▁தயாரித்த	-9.80066
▁கையாள	-9.80091
ாய்வு	-9.80107
▁தப்பி	-9.80128
▁அவற்றில்	-9.8021
ell	-9.80215
▁முக்கோண	-9.80232
▁செலவு	-9.8031
விட்டது	-9.80312
▁தனக்கு	-9.80313
▁முழுமையாக	-9.80344
▁அலுவலக	-9.80393
▁வேண்ட	-9.80461
▁சித்த	-9.80493
sh	-9.80505
▁மாநிலம்	-9.80573
▁புகை	-9.80607
▁d	-9.80627
97	-9.80697
▁$	-9.80707
ங்கிய	-9.80726
இன்	-9.80752
▁வெளியிட்டார்	-9.80845
▁உயிரின	-9.80892
▁இயற்பியல்	-9.80909
▁வலது	-9.80936
▁ஆனார்	-9.80975
▁வேர்	-9.80997
லோக	-9.81034
▁பிரிக்கப்பட்ட	-9.81044
▁விமர்சன	-9.81083
▁இடது	-9.81144
▁காட்டிலும்	-9.81172
சர	-9.81206
ுகின்றார்	-9.81215
84	-9.81252
▁தொழிற்	-9.81264
▁ஒன்ற	-9.81361
▁வருகின்றனர்	-9.81372
யாளராக	-9.814
வார	-9.81457
▁80	-9.81567
▁வயத	-9.81578
த்தனர்	-9.81609
யிடம்	-9.81616
▁கட்டுமான	-9.81624
▁தோல்வி	-9.81632
▁கண்ணாடி	-9.81648
▁வளர்	-9.81649
▁கூடுதலாக	-9.8171
▁முறையை	-9.81735
▁1998	-9.81753
ொன்ற	-9.81775
▁ஆய்வுகள்	-9.81793
ஸ்டா	-9.81828
ியம்மன்	-9.81837
ிடையே	-9.81846
▁35	-9.81876
▁காலை	-9.81879
▁மேலே	-9.81898
▁இந்நூல	-9.81911
சம	-9.81964
▁இத்த	-9.81976
▁மாறாக	-9.81987
▁மக்களை	-9.81992
▁ஓய்வு	-9.82017
சல	-9.8203
▁ஆனாலும்	-9.82064
▁”	-9.82073
76	-9.82091
▁பொறுத்து	-9.82095
ெல்லாம்	-9.82106
▁பரிச	-9.82112
▁சான்று	-9.82126
▁உயரத்தில்	-9.82162
▁குழாய்	-9.82164
▁வகைகள்	-9.82181
▁பழக்க	-9.82183
▁அறிவிக்கப்பட்ட	-9.82218
▁பகு	-9.82266
▁நூலில்	-9.82271
▁அளவிலான	-9.82289
▁மையம்	-9.82315
▁உணவ	-9.82376
▁கோப	-9.82395
ப்படுகின்ற	-9.82533
▁கோட்பாட்ட	-9.82542
▁பரிந்துரை	-9.82546
▁தொடரில்	-9.8256
▁சற்று	-9.82578
ங்கல்	-9.82621
ுரு	-9.82624
▁சுத்த	-9.82662
▁அறு	-9.82673
▁தொல்	-9.82687
▁போரின்	-9.82701
▁காய்	-9.82721
▁இந்	-9.82791
▁மரபணு	-9.82793
ec	-9.82861
94	-9.82888
▁தொடு	-9.82931
யான்	-9.82937
▁கூட்டணி	-9.82956
▁கல்ல	-9.83042
▁அட்டை	-9.8307
▁முதன்மையான	-9.83099
72	-9.83181
81	-9.83224
▁அவரின்	-9.83243
▁முருக	-9.83281
ஷ்ட	-9.83365
▁அரிய	-9.83366
செய்ய	-9.83403
▁எடுக்கப்பட்ட	-9.83407
▁பேச்சு	-9.83417
▁நவ	-9.83445
வளை	-9.83446
▁ஒன்பது	-9.83482
▁செய்யப்பட்டு	-9.83482
▁குடியரசு	-9.83488
▁உருவாகும்	-9.83602
ித்தார்	-9.83603
▁செய்யப்படும்	-9.83611
▁குடியேற்ற	-9.8365
▁பாலி	-9.83667
வூ	-9.83677
பல	-9.8368
▁அழைத்து	-9.8369
▁நிகழ்வ	-9.83705
▁வருகை	-9.8372
▁விளையாட்ட	-9.83723
▁அகல	-9.83762
▁அடங்கிய	-9.83776
ெடுத்த	-9.83823
ருவி	-9.83862
தையும்	-9.83896
லிங்	-9.83968
▁ராஜா	-9.83971
▁கூறுகிறார்	-9.83983
av	-9.84003
▁கலி	-9.84013
▁நடித்துள்ளனர்	-9.84036
▁வேலூர்	-9.84071
▁மலேசிய	-9.84077
த்திட்ட	-9.84091
83	-9.84116
▁எதிரி	-9.84261
▁சக	-9.84273
▁சங்கம்	-9.84275
க்கர்	-9.84304
▁நாட்டை	-9.84323
த்திரை	-9.84335
▁நண்பர்	-9.84406
ென்று	-9.84407
▁பாராளுமன்ற	-9.84444
▁நிலுவையில	-9.84448
77	-9.8449
டைந்த	-9.84549
▁மூளை	-9.84592
▁சென்னையில்	-9.8463
▁பாண்டிய	-9.84685
▁உப	-9.84799
▁அமைப்பின்	-9.84873
▁பாஸ்	-9.84873
▁பெற்றோர்	-9.84885
திரைப்படம்	-9.84932
மையை	-9.84949
கரு	-9.85018
பியா	-9.85023
▁செயல்பாட்ட	-9.85084
ிறார்கள்	-9.85132
▁யோக	-9.85147
ப்பெயர்	-9.85165
ant	-9.85191
க்கட்ட	-9.85236
▁கருப்பு	-9.85259
▁அமைய	-9.85275
வேளை	-9.85327
▁குண்டு	-9.85372
▁இவன்	-9.85377
▁வழங்கிய	-9.85397
▁கவு	-9.85573
▁அழைப்ப	-9.85579
▁கழி	-9.8558
▁அலி	-9.85648
▁கைது	-9.8565
69	-9.85715
த்தோடு	-9.85732
ுவார்	-9.85737
கிருஷ்ண	-9.85759
▁வடி	-9.85805
▁கூடுதல்	-9.85807
க்கட	-9.8584
ுடனும்	-9.8586
▁கோள	-9.85928
▁அவசிய	-9.85949
வர்களின்	-9.85962
▁காலங்களில்	-9.85979
▁நகரத்தில்	-9.85982
▁பின்னணி	-9.86003
▁யார்	-9.86031
▁ஹை	-9.8605
வரான	-9.8611
▁கேட்க	-9.86125
▁பொன்ன	-9.86148
▁உண்மையான	-9.86172
▁1989	-9.86176
▁இணைத்து	-9.86181
▁செய்கிறது	-9.86183
போல்	-9.86282
ண்டோ	-9.86377
▁சோடியம்	-9.86419
▁இங்கே	-9.86421
▁அறிமுக	-9.86452
விலுள்ள	-9.8646
த்திரி	-9.86469
▁எழுந்த	-9.86475
▁ஆவி	-9.86501
▁பயன்படுத்தும்	-9.8651
▁உயிரி	-9.8653
▁கடுமையான	-9.8653
▁அனைவரும்	-9.86538
▁அன்ன	-9.86599
நாயக்க	-9.86618
ரொ	-9.86666
▁கட்டிடக்கலை	-9.86678
▁அமைப்புகள்	-9.86716
▁திற	-9.86728
▁1950	-9.86742
▁மாணவ	-9.86771
ுவதில்லை	-9.86841
▁பரந்த	-9.86849
▁வானியல்	-9.86861
▁பேரரசின்	-9.86915
▁நியம	-9.86985
▁பிரதேசம்	-9.86989
▁கலந்த	-9.86998
▁உருவாக்கும்	-9.87026
▁நிமிட	-9.87029
ண்ணி	-9.87105
ரெட்	-9.87106
▁தக்க	-9.87158
▁ஏற்றுக்கொள்ள	-9.87169
▁இம்மா	-9.87175
▁சௌ	-9.87185
▁ரு	-9.87328
ருடன்	-9.8733
▁வழியில்	-9.87374
62	-9.8742
▁அடிமை	-9.87459
▁அவர்களை	-9.8746
வெல்	-9.87462
79	-9.87495
▁மித	-9.87513
▁தலைமையில்	-9.87645
▁ஆனந்த	-9.87654
ப்பொருட்கள	-9.877
▁இறைவன	-9.87725
▁வரையறுக்க	-9.87739
▁பிணை	-9.87753
93	-9.87755
வியல	-9.87787
ெடுக்க	-9.87788
▁முன்னோடி	-9.8779
▁காணப்பட்ட	-9.87884
ஞ்சா	-9.87889
63	-9.87909
▁கன்னி	-9.8791
▁பயன்பாட்ட	-9.87943
35	-9.87964
▁ஆரம்பத்தில்	-9.87994
க்கள	-9.88046
ப்பெற	-9.88084
ருக	-9.88091
▁பார	-9.88134
▁1991	-9.88168
▁மீதான	-9.88202
▁சுருக்க	-9.88208
▁படிக	-9.88209
▁அறியப்படுகிறது	-9.88238
▁மிகச்	-9.88241
▁சிந்தனை	-9.8826
▁இவன	-9.88271
மூர்த்தி	-9.88316
யாகப்	-9.88371
▁இந்தச்	-9.88446
▁விவாத	-9.88448
▁நாகப்பட்டினம்	-9.88458
An	-9.88559
▁உணர்வு	-9.8856
மாய்	-9.8858
man	-9.88582
▁கண்டுபிடித்த	-9.88602
மேன்	-9.88604
▁வாய்ப்பாடு	-9.88605
▁ஆசிரியராக	-9.88649
ிக்கும்	-9.88683
▁தன்ன	-9.88699
▁எப்படி	-9.88743
▁உத்தி	-9.88813
▁வருமான	-9.88837
காலத்தில்	-9.88846
▁உயரம்	-9.88866
61	-9.88895
▁ஏர்	-9.88912
46	-9.89001
ிதழ	-9.89021
▁வழங்கப்பட்ட	-9.89031
Al	-9.89052
▁இன்றும்	-9.89059
▁கிருஷ்ணகிரி	-9.89081
53	-9.89107
▁இத்தல	-9.89122
▁வணங்க	-9.8917
▁இவற்ற	-9.89174
▁அப்பா	-9.89194
▁அய்யனார்	-9.8922
எல்	-9.89276
யாளர	-9.89277
▁இராச்சிய	-9.89331
▁பங்கேற்ற	-9.89419
▁அந்தப்	-9.89431
ோன்	-9.89533
களினால்	-9.89548
▁சன்	-9.89569
▁கால்பந்து	-9.8961
மென்	-9.89635
▁டிரா	-9.89648
வானது	-9.89671
ிருந்தன	-9.89673
▁தசை	-9.89676
ங்களுக்கும்	-9.89715
▁காசி	-9.8973
த்தாக்க	-9.89777
▁நீரில்	-9.89785
▁எழுப்ப	-9.89787
த்தீ	-9.89801
▁உதவும்	-9.89884
▁சீர்	-9.89909
ினான்	-9.89918
ப்பன்	-9.89926
ங்குடி	-9.89962
கால்	-9.90015
▁காங்கிரஸ்	-9.90024
▁கரி	-9.90049
களா	-9.9005
▁இழு	-9.90088
▁அகற்ற	-9.90097
ிற	-9.90121
▁உத்தர	-9.90141
▁குழும	-9.90193
களு	-9.90197
▁வாச	-9.90284
ழா	-9.90339
களிடையே	-9.90339
▁இச்	-9.90351
54	-9.90397
▁தோல்	-9.90467
▁ஒன்றான	-9.90583
▁கன்னட	-9.90617
பரி	-9.90631
▁வளர்க்க	-9.90645
▁கண்டி	-9.90654
▁ஒடுக்க	-9.90733
▁இவ்	-9.9074
▁நிருவாகியா	-9.90762
▁திரும	-9.90794
▁நுண்ண	-9.90796
க்கீ	-9.90819
ப்பொ	-9.90833
வர்களாக	-9.9086
▁அவள்	-9.90896
▁எசு	-9.90932
மய	-9.90934
▁மாகாணத்தில்	-9.90946
திலும்	-9.91001
▁நிலையான	-9.91014
▁கொண்டிருந்தது	-9.91031
ும்படி	-9.91057
▁தொலைவிலும்	-9.91058
▁செய்யப்படுகிறது	-9.91075
▁வந்தனர்	-9.91114
கட்ட	-9.91153
க்கின்றன	-9.91174
▁மகள்	-9.91211
▁1994	-9.9122
▁வழிபாடு	-9.91253
▁ரூபாய்	-9.91261
ஃபா	-9.9127
▁எதிர	-9.9129
ராஜா	-9.91291
தைக்	-9.9132
▁நடிக்க	-9.91406
▁தொடர்ப	-9.91523
▁பிடிக்க	-9.91529
லியன்	-9.91574
▁இறக்க	-9.91576
▁பரவிய	-9.91691
ீர	-9.91696
▁தொடங்க	-9.9175
த்தல	-9.91804
யேற்ற	-9.91811
74	-9.91812
னிடம்	-9.91841
ிப்பு	-9.91859
vi	-9.91896
குல	-9.91914
▁கடந்து	-9.91944
▁அண்ணா	-9.91952
▁தாம்	-9.91977
▁ஆஸ்திரேலியா	-9.92049
▁அறுவை	-9.92138
▁தண்டனை	-9.92162
▁சூழ	-9.92245
ஸ்த	-9.92258
39	-9.92262
▁அளவுக்கு	-9.92281
▁முறைகள்	-9.92343
▁தண்ட	-9.92357
▁பார்த்து	-9.92386
▁நூலை	-9.924
▁நன்ன	-9.92462
த்ரா	-9.92473
▁மூன்ற	-9.92496
▁அறிவித்த	-9.92512
▁என்பதாகும்	-9.92541
▁திண்டுக்கல்	-9.9257
▁45	-9.92612
▁எளிய	-9.9265
▁போதும்	-9.92657
▁இரை	-9.9268
ச்சை	-9.92723
▁பெண்களின்	-9.92764
▁அவற்ற	-9.92779
▁ஹே	-9.92791
▁75	-9.92815
ெடுப்ப	-9.92816
▁கடின	-9.92855
ஜீ	-9.92898
த்தான	-9.9292
ஸ்கோ	-9.92937
நகர்	-9.93005
▁குறுகிய	-9.93063
▁ஆதரவு	-9.93123
▁உணர	-9.93146
பக்க	-9.93156
ஒரு	-9.93171
▁நூல்களை	-9.93199
▁விளக்கு	-9.93222
▁கட்டப்பட்டது	-9.93227
▁நடித்திருந்தனர்	-9.93287
▁இத்	-9.93316
▁மேடை	-9.93359
▁வரைபட	-9.9336
ங்களைத்	-9.93399
▁பெருங்கடல	-9.93403
▁200	-9.9341
▁பற்றியும்	-9.93456
ட்ரி	-9.93459
▁ஆப்பிரிக்கா	-9.93484
▁காப்ப	-9.93519
▁உண்மையில்	-9.93581
ip	-9.93663
▁மொழிகளில்	-9.93666
▁செய்தனர்	-9.93714
▁கர்நாடக	-9.93807
▁விலகி	-9.93813
ளே	-9.93858
The	-9.93889
▁அவள	-9.93943
▁ஆங்கிலம்	-9.93952
▁கோர	-9.93961
▁இடம்பெற	-9.93978
▁நரம்பு	-9.93988
▁கட்டுப்பாடு	-9.94037
▁பாக்	-9.94044
ud	-9.94053
▁பயனர்	-9.94063
ப்படு	-9.94083
▁கட்டாய	-9.94101
▁செடி	-9.94119
▁பாதிக்க	-9.94135
ட்டான்	-9.94163
▁அணிக்கு	-9.94205
▁தொகையில்	-9.94323
ொலி	-9.94412
▁என்றழைக்க	-9.94491
▁சிறப்பான	-9.94519
▁பண்பாட்டு	-9.94524
▁ஆஸ்	-9.94532
▁குழுக்கள	-9.94534
▁நாமக்கல்	-9.94548
▁வாய்ப்ப	-9.94567
▁அதிகரித்த	-9.94569
▁அமைச்சர்	-9.94573
▁ஒன்றி	-9.94595
71	-9.94602
▁செயலாளர்	-9.94604
பிள்	-9.94673
ங்களுள்	-9.94682
▁முழுமையான	-9.94699
▁அண்ட்	-9.94795
க்காடு	-9.94825
▁இன்றைய	-9.94835
ேஸ்வர	-9.94952
▁தளபதி	-9.94963
நாள்	-9.95008
ுரிமை	-9.95055
ly	-9.95083
▁ஆய்வாளர்	-9.95107
▁தாக்குதல	-9.95189
▁ரீதியாக	-9.95231
▁ரீ	-9.95332
▁சிவாகம	-9.95338
▁மருத்துவர்	-9.95345
ho	-9.95368
▁சேர்க்கப்பட்ட	-9.95376
▁நபர்கள்	-9.9543
▁வின்	-9.95447
▁கேட்டு	-9.95455
ti	-9.9546
▁மன்னன்	-9.95472
24	-9.9548
22	-9.95481
▁விஷ	-9.95506
▁வலிமை	-9.95507
வாரி	-9.95514
▁நிறுவப்பட்ட	-9.95556
▁இதுவரை	-9.95582
▁அற	-9.95593
ோம்	-9.95614
▁தெரு	-9.9564
▁கோவை	-9.95656
▁அன்னை	-9.95678
▁தர்மபுரி	-9.95705
ராம	-9.95708
▁மாவட்டங்களில்	-9.9575
▁ரொ	-9.95753
▁அமைத்து	-9.95766
▁நியூயார்க்	-9.9578
▁உச்சி	-9.95872
▁பெரும்பான்மை	-9.95874
▁பாதிப்பு	-9.95906
ாளரும்	-9.95939
▁ஈரோடு	-9.95943
ட்டன்	-9.95972
▁கடற்படை	-9.95986
பொருள	-9.96008
வூர்	-9.96008
▁மன்னர	-9.96009
ியாக	-9.96013
யாளர்கள்	-9.9604
▁இப்படி	-9.96062
த்தினர	-9.96065
▁மருந்த	-9.96068
▁ப்ர	-9.96072
▁கிடைத்தது	-9.96105
கொண்டு	-9.96111
▁கொடுத்து	-9.96127
▁போர	-9.96148
▁ஆடை	-9.96151
▁ஜார்ஜ்	-9.96203
ரியோ	-9.9626
73	-9.96274
▁சுப்பிரமணிய	-9.96275
▁நந்தி	-9.96283
ிருச்சிராப்பள்ளி	-9.96286
▁குளோ	-9.96298
▁ஒன்றில்	-9.96306
▁கன்னியாகுமரி	-9.96348
ற்றை	-9.96351
ce	-9.96415
▁பாட்ட	-9.96466
மறை	-9.96525
▁1992	-9.96541
▁எதுவும்	-9.96572
▁உருவாகிறது	-9.96585
▁சார	-9.96604
▁1997	-9.96609
ect	-9.96652
▁ஆயினும்	-9.96713
▁குவா	-9.96814
▁l	-9.96824
▁நெறி	-9.96841
28	-9.96867
▁ஆகியோர	-9.9693
▁சமயத்தில்	-9.96952
வாழ்	-9.96992
▁ஒப்ப	-9.97078
▁சித்திரை	-9.97088
க்கட்டு	-9.97118
▁மக்களவை	-9.97146
▁மலேசியா	-9.97171
தனை	-9.97202
▁தீர்ப்ப	-9.97233
me	-9.97237
▁மாசி	-9.97248
படுத்தி	-9.97268
▁உணர்ந்த	-9.97302
சூர்	-9.97311
▁உண்டாக்க	-9.97343
▁தெளிவாக	-9.97464
▁கிமு	-9.97499
▁தர்ம	-9.9756
▁அழிக்க	-9.97602
ங்களான	-9.97623
▁மரம்	-9.97664
▁குடும்பம்	-9.97715
ide	-9.97772
▁லை	-9.97778
▁1995	-9.97788
▁ஆங்கிலேய	-9.97819
▁நிலப்பரப்ப	-9.97831
▁வது	-9.97848
ம்மன்	-9.97891
de	-9.97896
▁ஆலை	-9.97931
ப்பிடி	-9.97957
▁மான்	-9.97959
பத	-9.98013
▁இனப்பெருக்க	-9.98033
ொன்று	-9.98075
▁இறந்து	-9.98106
▁படிக்க	-9.98113
▁வலியுறுத்த	-9.98181
▁மார்க்	-9.98185
▁h	-9.98193
டில்	-9.98211
▁செய்வது	-9.98227
▁அருள்	-9.9823
▁மென்	-9.98232
▁தொடக்கத்தில்	-9.98235
பில்	-9.98249
▁அழகிய	-9.98323
▁அவர	-9.98395
▁இருக்கிறார்	-9.98445
த்தூ	-9.98449
▁எளிதாக	-9.9845
▁மங்கோலிய	-9.98478
▁பட்டியலில்	-9.98511
ers	-9.98513
▁குரல்	-9.9852
▁போட்டியிட்டு	-9.98527
▁வீதி	-9.98654
▁நடத்தை	-9.98702
45	-9.98774
65	-9.98793
▁முறையே	-9.98826
▁மார்ச்சு	-9.98836
▁முடிந்த	-9.98874
lo	-9.989
▁குமார	-9.98905
ளிக்க	-9.98978
▁உருவானது	-9.9899
▁இந்ந	-9.99008
▁பேராசிரியர்	-9.99036
▁அழுத்தம்	-9.99113
78	-9.99206
▁t	-9.99211
▁சேர்ந்தார்	-9.9932
ால	-9.9938
▁கோர்	-9.99393
▁ஒன்றியம்	-9.9944
▁இன்னொரு	-9.99447
▁மத்தியில்	-9.99449
த்தொகை	-9.99451
▁கோயம்புத்தூர்	-9.99451
▁அலக	-9.99456
▁மற	-9.99498
▁கட்டமைப்ப	-9.99499
ard	-9.99508
▁அமை	-9.99508
▁கரைசல	-9.9952
▁தாழ்	-9.99525
▁பொறுப்பு	-9.99542
▁மிகக்	-9.99571
▁டாலர்	-9.99586
▁அதிகரிக்க	-9.99599
ொளி	-9.99655
சான்	-9.99669
▁இஸ்லாமிய	-9.99672
▁தோன்றும்	-9.99705
நாதன்	-9.9973
▁திருவள்ளூர்	-9.99747
கோள்	-9.99763
▁தண்ணீர்	-9.99769
▁உருவாக்கினார்	-9.99785
▁அமைச்சராக	-9.99792
டையும்	-9.99812
பொருட்	-9.99852
போன்ற	-9.99853
▁வித	-9.99864
▁கட்டளை	-9.99865
▁டேவிட்	-9.99878
மட்ட	-9.99891
▁அஞ்சல்	-9.99972
ரியம்	-10.0004
ment	-10.0009
▁நாட்களில்	-10.001
▁பணம்	-10.0011
▁நடத்தப்பட்ட	-10.0017
▁1984	-10.0017
▁நீர்ம	-10.0018
Cl	-10.0019
ஆர்	-10.0023
▁ஒட்டி	-10.0023
ாசிரியர்	-10.0024
32	-10.0026
▁விருதை	-10.0033
தேச	-10.0035
▁புற்றுநோய்	-10.0047
ற்கா	-10.0052
▁குன்ற	-10.0056
▁வருடம்	-10.006
▁°	-10.0061
▁வட்டார	-10.0061
▁மருத்துவமனை	-10.0062
விளை	-10.0067
▁பஞ்சாப்	-10.0069
▁வழிபட	-10.0071
▁பொருளாக	-10.0077
31	-10.008
▁பழங்குடி	-10.0084
-2	-10.009
▁1947	-10.0092
▁இயங்கும்	-10.0095
னையும்	-10.0103
▁கோள்	-10.0112
▁தீர்வு	-10.0112
▁பிணைப்பு	-10.0116
23	-10.0119
தின்	-10.0123
ப்பதற்காக	-10.0124
▁இனி	-10.0125
▁பழமையான	-10.0128
▁பரம	-10.0129
▁வச	-10.0129
▁ஏற்றுக்	-10.0129
▁அள	-10.013
▁நகரத்தின்	-10.0139
per	-10.0139
▁நடிப்ப	-10.014
▁இத்திரைப்படம்	-10.0142
▁வங்காளதேச	-10.0142
த்தர	-10.0146
▁வடிவமைக்கப்பட்ட	-10.015
கிரா	-10.0152
▁விடுதலைப்	-10.0156
▁குரோ	-10.0158
▁வகுப்ப	-10.016
26	-10.0161
▁திரும்பி	-10.0162
▁பேரா	-10.0163
▁கடற்	-10.0171
ாகவே	-10.0176
▁கொழும்பு	-10.0178
▁சகோதரி	-10.0181
▁90	-10.0183
▁ஃபெ	-10.019
அல்லது	-10.0192
குமார்	-10.0195
▁கிறிஸ்	-10.02
▁எதிர்த்து	-10.0201
▁குகை	-10.0201
29	-10.0205
ராகவும்	-10.0207
களாகப்	-10.0208
வாசல்	-10.021
qu	-10.0211
▁உள்ளே	-10.0212
▁சுவர்	-10.0215
▁சதவீத	-10.0215
▁தலைநகர	-10.0217
வதாக	-10.0221
▁உயிரினங்கள	-10.0221
ப்பாட்ட	-10.0222
ியுள்ளது	-10.0225
%)	-10.0225
▁வீழ்ச்சி	-10.0226
▁செர்	-10.0231
▁வரையிலான	-10.0231
க்கரு	-10.0233
▁தோற்றம்	-10.0237
▁குடும்பத்தில்	-10.0243
▁முதலான	-10.0244
▁பாசு	-10.0247
▁செயல்படுகிறது	-10.0247
▁33	-10.0249
▁காணப்பட	-10.0249
▁சுரங்க	-10.025
di	-10.0251
▁விரிவாக்க	-10.0253
▁மறைந்த	-10.0253
▁புர	-10.0254
▁வளரும்	-10.0259
▁விழ	-10.026
யர்கள்	-10.0261
▁ஆக்சைடு	-10.0266
▁ஆங்கிலத்தில்	-10.027
▁பிழை	-10.027
▁கிரீ	-10.0272
▁ஐதரசன்	-10.0272
48	-10.0278
▁(18	-10.0279
▁ஏற்பாடு	-10.0288
▁நீதிபதி	-10.029
▁அனுப்பி	-10.0293
sp	-10.0296
லாந்த	-10.0297
தற்	-10.0298
▁நின்று	-10.0298
iv	-10.0301
▁நான்காவது	-10.0303
தாலும்	-10.0303
▁எக்ஸ்	-10.032
▁ஓட	-10.0324
▁மீட்ட	-10.0325
க்கண	-10.0326
▁அணுக	-10.0331
▁இதர	-10.0331
▁தேடி	-10.034
▁இம்முறை	-10.0341
▁பிரிட்டிஷ்	-10.0342
▁துளை	-10.0346
ஈ	-10.0347
▁2018	-10.0347
கோண	-10.0354
he	-10.0356
▁கவிஞர்	-10.0357
▁மீற்றர்	-10.0358
▁சித்திர	-10.0362
சிங்க	-10.0365
▁திருச்சி	-10.0367
▁குழி	-10.0376
▁வளர	-10.0376
கண	-10.038
ுகிற	-10.0393
▁இயக்குனர்	-10.0396
ுநர்	-10.0396
▁தொடர்ச்சியாக	-10.0396
▁திருவா	-10.04
▁பிராந்திய	-10.0406
▁தவிர்க்க	-10.0407
▁சந்திக்க	-10.0409
▁1993	-10.0409
சொ	-10.0415
37	-10.0422
▁ஆதிக்க	-10.0429
▁1987	-10.0441
III	-10.0442
பெற	-10.0443
▁மன்னன	-10.0444
▁வண்ணம்	-10.0445
▁டாக்டர்	-10.046
tic	-10.0467
▁சூட்ட	-10.0468
▁தோன்றி	-10.047
▁விற்க	-10.0479
▁பிள	-10.0484
▁ஆற்று	-10.0485
ub	-10.0489
மிட	-10.0493
oc	-10.0494
▁அம்பா	-10.0498
▁உட்பட்டது	-10.0501
▁சராசரியாக	-10.0502
▁செயலி	-10.0509
▁லட்ச	-10.0512
▁இக்கால	-10.0517
▁நிகழும்	-10.0517
▁தாயார்	-10.0518
▁வழக்கம்	-10.0518
64	-10.052
▁சூழல	-10.0521
55	-10.0522
ாம	-10.0529
▁புனை	-10.053
36	-10.0533
▁ஒழுங்க	-10.0538
யளிக்க	-10.054
▁தலைப்பு	-10.0544
▁தன	-10.0545
ah	-10.0546
▁வெளியீடு	-10.0549
ியலில்	-10.0551
▁மாசு	-10.0551
▁அண்மை	-10.0553
▁ஆர்வம்	-10.0554
▁துப்பாக்கி	-10.0555
ச்சர்	-10.0556
ill	-10.0563
ity	-10.0563
▁உருசிய	-10.0568
47	-10.0573
▁நடைபெற	-10.058
▁வழங்கப்படும்	-10.0582
▁அந்தக்	-10.0585
att	-10.0588
▁படிப்பு	-10.0596
▁36	-10.0603
▁இருபது	-10.0604
▁பொருளை	-10.0607
▁சேர்மமாகும்	-10.061
▁கிளா	-10.061
▁வெண்	-10.0611
▁சான்	-10.0617
▁கந்த	-10.0618
▁பொன்	-10.0632
▁இயக்கிய	-10.0633
ive	-10.0635
▁இனங்கள்	-10.0641
மொ	-10.0645
27	-10.0649
▁வரிசையில்	-10.0649
▁சந்தித்த	-10.065
▁வேல	-10.0652
▁காரணங்கள	-10.066
▁இயங்கி	-10.0661
▁கிழ	-10.0666
ர்ஜி	-10.0666
▁தேவர்	-10.0678
▁சோழர்	-10.0679
ry	-10.0683
மையால்	-10.0694
▁தாங்க	-10.0696
▁ஆந்திர	-10.0698
▁பண்பாடு	-10.0699
▁வட்டத்தில்	-10.0703
▁முயன்ற	-10.0704
▁ஆயிரம்	-10.0707
தார்	-10.0707
ுவதும்	-10.0716
▁உபயோக	-10.0722
▁பிரிவில்	-10.0728
▁தலைமுறை	-10.073
▁பரிசோதனை	-10.0732
38	-10.0733
▁ஜேம்ஸ்	-10.0741
▁விளங்கியது	-10.0741
▁சமண	-10.0743
▁நிலைக்கு	-10.0743
▁சிறுவர்	-10.0745
▁நீரை	-10.0747
பார	-10.075
▁காவிரி	-10.0757
▁நடந்து	-10.0763
▁குறைபாடு	-10.0763
▁இளைஞர்	-10.0764
▁சீர்திருத்த	-10.0764
▁வாழ்கின்றனர்	-10.0772
▁உலகளாவிய	-10.0772
ep	-10.0772
▁1977	-10.0777
▁வடிவமைப்ப	-10.0781
▁ஏற்படுகிறது	-10.0782
▁சன்னதிகள்	-10.0783
▁பிரான்சு	-10.0784
▁உயர்த்த	-10.0784
▁தனித்தனி	-10.0789
▁தலைமையக	-10.0791
▁இயக்குநர்	-10.0794
▁இணைக்க	-10.0796
▁உயிரியல்	-10.0797
▁சுகாதார	-10.0797
ாமை	-10.0797
ஸை	-10.0798
▁காலப்	-10.0798
▁டு	-10.0803
▁வளர்ந்து	-10.0804
▁புதிதாக	-10.0806
▁g	-10.0813
▁நிறைய	-10.0813
ாறு	-10.0821
▁பல்கலைக்	-10.0838
▁மக்கள	-10.0842
▁1988	-10.0843
யொ	-10.0845
▁பயன்படுத்திய	-10.0846
ாகிய	-10.0846
வரிசை	-10.0847
▁de	-10.0847
▁உரோமை	-10.085
▁கவி	-10.0855
▁காப்பாற்ற	-10.0855
க்கிறார்	-10.0865
ிலி	-10.0867
நாயகி	-10.0869
▁பற்	-10.0871
▁வேறுபட	-10.0872
காளியம்மன்	-10.0874
▁அரசன்	-10.0874
யூட்ட	-10.0876
▁காட்டி	-10.0878
லிங்கம்	-10.0882
▁கவனம்	-10.0883
▁திறன	-10.0884
மிழ்	-10.0885
▁இச்சேர்மம்	-10.0887
நாயக	-10.0888
டார்	-10.0889
ov	-10.0893
▁மாநகர	-10.09
மில்	-10.0902
▁இருப்பதை	-10.0905
▁வீரர்கள்	-10.0906
▁வாரிய	-10.0909
▁இந்நூல்	-10.0911
▁பெயரிடப்பட்ட	-10.0917
▁கொழுப்பு	-10.0917
▁நுகர்வ	-10.0921
▁வெளியீட்ட	-10.0922
▁எளிதில்	-10.0928
▁நினைவாக	-10.0929
ik	-10.093
ஞான	-10.0937
▁செய்கின்றன	-10.0938
▁தமிழ்ப்	-10.094
▁ஆட்	-10.095
ட்ரிக்	-10.0952
ப்பொருள	-10.0955
▁பண்ப	-10.0955
ேஷன்	-10.0959
▁உதாரண	-10.096
▁கைப்பற்றி	-10.0963
▁கோல	-10.0968
▁பணியாற்றி	-10.0968
▁அரபு	-10.097
▁அமைப்பில்	-10.0974
▁பெட்டி	-10.0975
▁மக்களால்	-10.0977
ியக்க	-10.0981
▁போராட	-10.0988
ni	-10.0989
▁சான்ற	-10.099
புல	-10.0992
▁பில்லியன்	-10.0995
▁மாகாணத்தின்	-10.0997
▁பரு	-10.0998
யாவின்	-10.0998
▁சுவை	-10.1003
▁லீக்	-10.1003
▁விதமாக	-10.1004
▁வித்தியாச	-10.1007
சக்தி	-10.1009
▁குடியரசுத்	-10.1011
han	-10.1016
ெழுத்து	-10.1017
▁தள்ள	-10.1021
▁இயற்றிய	-10.1022
ரிக்க	-10.1024
▁1986	-10.1025
▁மண்டப	-10.1029
▁படத்தின்	-10.1032
▁வேண்டி	-10.1036
▁செயற்பாடு	-10.1037
த்தீவு	-10.1038
▁மேலாக	-10.1047
▁கூறும்	-10.105
▁இந்துக்	-10.1053
▁நுழை	-10.1055
தவி	-10.1055
▁70	-10.1055
ண்டே	-10.1058
குரு	-10.106
▁X	-10.1063
▁வருவ	-10.1065
த்துறையில்	-10.1067
▁கிரக	-10.1069
▁பாலின	-10.1072
▁1971	-10.1074
▁கொண்டவர்	-10.1075
▁குற்றம்	-10.1076
ுவார்கள்	-10.1076
42	-10.1079
▁இறுதியாக	-10.1084
தள	-10.1088
ங்களாகும்	-10.109
வியா	-10.1094
த்தியா	-10.1094
லட்சுமி	-10.1099
▁பீட	-10.11
▁வெளியிட்டது	-10.1105
▁தெரிவு	-10.1106
த்திரு	-10.1108
களுக்கிடையே	-10.111
▁கற்ற	-10.1111
▁அமைந்திருந்த	-10.1113
வாசி	-10.1117
▁மொழிகள்	-10.1118
▁St	-10.1119
▁கண்டறியப்பட்ட	-10.112
▁கற்ப	-10.1121
ாபாத்	-10.1122
▁இடைப்பட்ட	-10.1125
▁அவ்வாறு	-10.113
▁கம்பி	-10.1131
▁வாத	-10.1134
▁மண்டலம்	-10.1139
▁இயலும்	-10.1144
▁உதவுகிறது	-10.1144
▁தொல்காப்பிய	-10.1145
▁கொள்வத	-10.1146
▁கௌரவ	-10.115
▁தீவுகள்	-10.1152
ப்பாதை	-10.1152
நிற	-10.1153
▁நாவல	-10.1157
▁சிக்கலான	-10.1158
▁பாத	-10.1168
▁அலுவலர்	-10.1168
ழுத்த	-10.1171
▁காங்கிரசு	-10.1174
▁கட்டுப்பாட்டு	-10.118
▁துகள்	-10.1184
மல்ல	-10.1188
▁தூய	-10.1191
▁புகழ	-10.1197
கோவில்	-10.121
▁வருகின்றது	-10.1211
▁வரையில்	-10.1211
▁500	-10.1213
▁தென்னிந்திய	-10.1217
49	-10.1221
▁சாலையில்	-10.1222
▁தங்களது	-10.1222
▁வன்	-10.1225
▁உடலில்	-10.1228
▁பரிந்துரைக்க	-10.1228
▁கோடு	-10.123
▁மகளிர்	-10.123
▁உயரமான	-10.1231
▁பறவைகள்	-10.1234
▁இருவர	-10.1235
ின்ற	-10.125
▁தமிழகத்தில்	-10.1254
▁பதக்க	-10.1258
▁சார்பில்	-10.1266
▁அணுக்கரு	-10.1269
34	-10.1284
▁தயாரிக்கப்பட்ட	-10.1288
▁கோபுரம்	-10.1291
▁சொல்லி	-10.1292
▁பேசும்	-10.1293
றிஞர	-10.1301
ரையும்	-10.1301
லியம்	-10.1302
▁Ch	-10.1306
▁வேகமாக	-10.1312
▁மந்திர	-10.1314
▁பகுதியாகும்	-10.1318
▁விபர	-10.1318
▁to	-10.1319
க்கூறு	-10.1324
▁குழப்ப	-10.1326
ப்பிரி	-10.1329
▁ஒன்றியத்தில்	-10.1332
▁கொண்டவை	-10.1336
▁வழங்கப்படுகிறது	-10.1337
▁பிரதிநிதி	-10.1341
▁நொ	-10.1341
▁தொடங்கப்பட்டது	-10.1341
▁கோபுர	-10.1344
▁க்கும்	-10.1344
▁பயிரிட	-10.1348
▁ஸ்டீ	-10.135
▁சங்கிலி	-10.1362
▁அவனது	-10.1368
▁நன்மை	-10.137
▁உண்டாக	-10.137
▁ஆண்டி	-10.1371
த்துக்கும்	-10.1373
▁பணியாளர்	-10.1376
▁விவிலிய	-10.1376
▁இலட்ச	-10.1379
▁திட்டமிட்ட	-10.1381
சிங்	-10.1384
ப்படுவதில்லை	-10.1385
▁உடன	-10.1387
▁அபி	-10.1388
Th	-10.139
ப்பெருமாள்	-10.1397
▁வளிமண்டல	-10.1402
▁கிபி	-10.1408
ex	-10.1409
art	-10.1414
▁டன்	-10.1418
▁வீச	-10.142
▁முக்கியமாக	-10.1423
▁ஆராய	-10.1427
▁உணர்	-10.1427
களிடமிருந்து	-10.143
▁எனப்படுகிறது	-10.143
▁பத்ம	-10.1434
▁விசாரணை	-10.1437
ical	-10.1437
விழா	-10.1442
▁நெய்	-10.1445
▁கழிவு	-10.1448
▁பாதிப்ப	-10.145
▁ஏற	-10.1452
59	-10.1454
▁பிரான்ச	-10.1454
▁சிங்கப்பூர்	-10.1457
தேவ	-10.1471
▁செயல்பட்ட	-10.1475
▁ஒப்பந்தம்	-10.1476
▁தொன்ம	-10.1476
க்கோள	-10.1477
தமிழ்	-10.1477
▁வைப்ப	-10.148
ran	-10.148
▁வாங்கி	-10.1481
முடியும்	-10.1485
நீர	-10.1485
▁தொற்று	-10.1496
பெயர்	-10.1501
சனம்	-10.1502
▁முன்னதாக	-10.1506
▁ஓடு	-10.151
▁வடக்கில்	-10.1512
குப்பம்	-10.1512
ாலேயே	-10.1512
▁பட்டு	-10.1517
▁சர்க்கரை	-10.1518
▁கொடுக்கப்பட்ட	-10.1518
▁விரைவாக	-10.1518
ச்சந்திர	-10.1519
▁1978	-10.152
▁வில்ல	-10.1525
▁இவ்வூர்	-10.1526
▁என்பர்	-10.1527
▁புரிந்த	-10.1527
▁குறிப்புகள்	-10.153
▁வெளிப்புற	-10.153
மியா	-10.1532
▁ரை	-10.1536
Ch	-10.1537
ச்சொல்	-10.1539
க்கொண்டார்	-10.155
▁பாரசீக	-10.1551
▁கொள்ளலாம்	-10.1551
ge	-10.1552
uc	-10.1554
ew	-10.1557
▁அறிவியல	-10.156
▁சிவபெருமான	-10.1568
▁ஆப்பிரிக்க	-10.1568
▁புதை	-10.1575
▁வீட்டில்	-10.1583
▁என்பதற்கு	-10.1587
கிறாள்	-10.1597
மல	-10.16
▁எதிர்கால	-10.1605
▁ஸ்டா	-10.1606
▁தேவாலய	-10.1607
▁குடியிருப்பு	-10.1607
▁தொல்லியல்	-10.1612
▁பெற்றுள்ளது	-10.1618
▁ஆற்றலை	-10.1621
▁என்பவை	-10.1622
ச்சல	-10.1626
52	-10.163
டங்க	-10.1635
▁நடக்கும்	-10.1636
▁59	-10.1637
ஸ்தான்	-10.164
▁புவியியல்	-10.1643
▁கிங்	-10.1643
▁திருவாரூர்	-10.1648
▁விஷ்ணு	-10.1648
▁நினைத்த	-10.165
▁அருக	-10.1651
▁முடிவில்	-10.1652
▁மிகை	-10.1654
யிட்ட	-10.1664
▁வியாபார	-10.1666
▁1985	-10.1672
▁வழிபட்ட	-10.1672
▁ஒப்பிட	-10.1674
0%	-10.1677
▁கணிப்ப	-10.1681
▁காலகட்டத்தில்	-10.1681
ம்பை	-10.1682
▁1940	-10.1683
▁கலிபோர்னியா	-10.1684
▁ஏற்கனவே	-10.1684
▁கற்பனை	-10.1688
▁லு	-10.1696
▁தம்பி	-10.1696
▁வன்முறை	-10.1696
▁கருதி	-10.1701
▁இதுவும்	-10.1705
ப்பெயர	-10.1706
சாலை	-10.1707
▁செயல்படும்	-10.1707
▁பேரரசர்	-10.1711
▁இணைக்கும்	-10.1715
▁ஜப்பான	-10.1721
மிழ	-10.1731
▁குறுக்க	-10.1735
▁இறந்தார்	-10.1736
▁கடித	-10.1739
▁சுட	-10.1745
▁நடிகர	-10.1747
▁47	-10.1751
▁அழகு	-10.1754
▁மருத்துவம்	-10.1757
▁1983	-10.176
▁தாங்கி	-10.1761
பொழுது	-10.1761
▁1930	-10.1764
44	-10.1769
▁அளிப்ப	-10.1777
▁உரோம	-10.1783
வையாகும்	-10.1784
ுடனான	-10.1785
ug	-10.1787
▁காண்ப	-10.1792
ப்பிள்ளை	-10.1794
▁திருப்பூர்	-10.1798
▁com	-10.1799
ம்பர	-10.1805
▁கற்க	-10.1809
▁அருள	-10.1815
ப்படுத்தும்	-10.1816
ஜர்	-10.1817
த்துக்கான	-10.1818
▁சார்பாக	-10.182
▁விளங்கிய	-10.182
லங்கா	-10.1832
▁இலங்கைத்	-10.1834
▁சாய்	-10.1837
▁சபா	-10.1838
▁வெகு	-10.1839
▁ஆணை	-10.1843
▁அம்மா	-10.1843
▁புரி	-10.1846
▁மாற்றங்கள்	-10.185
▁பூச	-10.1854
▁எட்	-10.1858
▁கிடைக்கிறது	-10.186
மேல்	-10.186
▁இப்பகுதியில்	-10.1864
ங்களுக்கான	-10.1865
கூர்	-10.1871
▁(2	-10.1871
33	-10.1872
▁சடங்கு	-10.1875
▁கருவிகள்	-10.1878
▁ரோம	-10.1878
▁சரியாக	-10.1883
▁44	-10.1885
ென்ற	-10.1886
▁வாழ்க்கையை	-10.1889
ம்பர்	-10.1889
▁பிரபு	-10.189
தாய்	-10.1896
ium	-10.1901
▁பாடி	-10.1902
▁மாறுபட்ட	-10.1902
கோவில	-10.1909
▁லிங்க	-10.1916
▁மீள	-10.1916
▁கரூர்	-10.1917
▁இறைவன்	-10.1917
▁தொலைபேசி	-10.1919
▁எழுத்த	-10.1919
▁போதுமான	-10.1926
▁செய்யப்பட்டார்	-10.193
▁அமர்ந்த	-10.1932
ப்படுகின்றனர்	-10.1933
ின்றார்	-10.1947
du	-10.195
▁1967	-10.1951
▁மக்களும்	-10.1952
▁பயின்றார்	-10.1955
மாலை	-10.1961
முற்ற	-10.1961
டைகிறது	-10.1965
▁34	-10.1966
யாற்ற	-10.1966
▁5%	-10.1968
▁குளோரைடு	-10.1968
▁தெளி	-10.197
▁நிறுவனத்தில்	-10.1974
▁செல்கிறது	-10.1982
▁கங்கை	-10.1983
est	-10.1983
▁குறைந்து	-10.1984
வராகவும்	-10.1984
▁நொதி	-10.1985
த்தேர்	-10.1987
ம்பூர்	-10.1994
▁மருத	-10.1995
▁உறவ	-10.1999
▁உழ	-10.2011
▁நெறிமுறை	-10.2014
ங்களிலிருந்து	-10.2017
ஆக	-10.2017
ீஸ்	-10.2022
மீது	-10.203
▁எரிமலை	-10.2034
▁செயல்பட்டு	-10.2034
▁இனம்	-10.2036
கோட்டை	-10.2037
ஜன்	-10.2041
வராவார்	-10.2041
டுப்பாட்டக்காரர்	-10.2049
▁அழைத்த	-10.206
▁தொகுதிகளில்	-10.2067
▁தடுப்ப	-10.2071
▁re	-10.2072
▁நிறுவிய	-10.2073
▁குறிப்பிடுகிறது	-10.2074
▁இம்மாவட்டத்தின்	-10.2074
▁எழுத்தறிவு	-10.2075
தீன்	-10.2075
▁கிழக்கில்	-10.2076
▁மணிக்கு	-10.2081
▁வீதம்	-10.2082
ver	-10.2085
▁கட்டண	-10.2088
▁ஒழுங்கு	-10.2092
▁அளவிற்கு	-10.2093
▁தானிய	-10.2098
ாவார்	-10.2098
க்கூட்ட	-10.2101
ary	-10.2102
▁செல்வாக்கு	-10.2113
▁மதிப்பீடு	-10.2113
▁போட	-10.2116
பாட்ட	-10.212
▁கடலூர்	-10.212
▁கோரிக்கை	-10.2121
▁எலி	-10.2123
▁எப்போதும்	-10.2123
வள்	-10.2129
▁அஞ்ச	-10.2132
▁பண்ட	-10.2132
▁விலக்க	-10.2135
▁விலங்க	-10.2138
▁நாயக	-10.214
ve	-10.2141
▁பிரதேசத்தின்	-10.2142
▁தூய்மை	-10.2142
மேற்	-10.2142
▁சதவீதம்	-10.2145
▁கருவறை	-10.2149
▁முடிந்தது	-10.215
ரியன்	-10.2159
▁குழுவின்	-10.216
▁திண்ம	-10.2164
▁சமவெளி	-10.2164
▁தெரிகிறது	-10.2168
51	-10.2172
▁1972	-10.2173
▁பகுதியின்	-10.2175
▁ஆலோசனை	-10.2177
▁முதற்	-10.2183
▁மாநிலமான	-10.2186
▁பண்ணை	-10.2187
ுகிறாள்	-10.2194
▁நிலப்பகுதி	-10.2198
43	-10.2198
▁உருவாக	-10.22
பென்	-10.22
▁மாறுபட	-10.2209
▁தாவரங்கள்	-10.2212
▁இருந்தவர்	-10.2219
▁காணப்படுகின்றது	-10.222
▁இணைப்ப	-10.2222
▁37	-10.2226
▁காலநிலை	-10.223
▁வெளிவந்தது	-10.223
ind	-10.223
▁சன்னதியும்	-10.2233
▁நற்செய்தி	-10.2233
பிரா	-10.2234
▁இயேசுவின்	-10.2237
▁நிலைமை	-10.2242
வாடி	-10.2243
▁பருத்தி	-10.2245
▁பக்தி	-10.2247
▁ஆந்திரப்	-10.2248
▁தாள	-10.2248
▁தெற்கில்	-10.2255
▁1982	-10.2258
ara	-10.2259
▁கடமை	-10.226
▁திரட்ட	-10.2261
▁அறிவித்தது	-10.2261
▁இலக்கியம்	-10.2262
▁ஆலயம்	-10.2266
▁ஊக்க	-10.2274
தொகு	-10.2274
▁இராகம்	-10.2277
▁வழங்குகிறது	-10.2278
▁பிரச்சனை	-10.2281
▁செம்ப	-10.2281
▁1000	-10.2283
▁போட்டிகள்	-10.2284
▁விளக்கம்	-10.2287
ாயிற்று	-10.2288
பாட்டு	-10.2292
▁ஆண்டுகளாக	-10.2296
▁நீடித்த	-10.23
▁பஞ்சாபி	-10.2301
▁ஒருவராக	-10.2301
▁ஆகியோரின்	-10.2305
▁கோழி	-10.2306
▁இடமாக	-10.2311
க்கால்	-10.2312
▁தேனி	-10.2319
▁வெளிநாட்டு	-10.2325
▁பகுப்பாய்வு	-10.2325
▁பட்டை	-10.2326
▁துறைகளில்	-10.2326
பள்ளி	-10.2327
▁நிறுவனங்கள	-10.2329
ess	-10.2333
▁1969	-10.2333
த்திறன்	-10.2333
▁எதிர்ப்ப	-10.2337
://	-10.2338
▁அசிட்ட	-10.2339
▁தீர்மானிக்க	-10.234
II	-10.2345
▁சுற்றுச்சூழல்	-10.2347
ev	-10.2348
ian	-10.2349
ண்ணா	-10.2349
ction	-10.2363
▁அதிகரிப்ப	-10.2363
களிலேயே	-10.2364
▁சொற்கள்	-10.2369
▁சிதம்பர	-10.2385
வதற்கான	-10.2388
▁1962	-10.239
▁முன்னேற	-10.2391
▁மேற்கொள்ளப்பட்ட	-10.2394
▁என்றே	-10.2395
▁நிறத்தில்	-10.2396
▁கருநாடக	-10.2396
▁கிரே	-10.2401
▁மின்னணு	-10.2406
▁செவ்வ	-10.2407
▁பணியாற்ற	-10.2413
▁எர்	-10.2416
▁காளி	-10.2419
▁கொண்டனர்	-10.2426
▁கருப்ப	-10.2428
▁மூட	-10.2429
▁நினைவ	-10.243
▁தொடக்கம்	-10.2431
▁பார்வையாளர்	-10.2434
குமார	-10.2434
▁சங்கர	-10.2435
▁பீட்டர்	-10.2439
▁உடு	-10.244
▁ஏராளமான	-10.2443
வெண்	-10.2443
ாலான	-10.245
▁அளவிட	-10.2453
டிங்	-10.2455
▁ஏற்று	-10.2455
▁தலைவி	-10.2457
▁1948	-10.2457
▁அய்ய	-10.2462
ாக்சைடு	-10.2462
க்கதை	-10.2464
▁இலவச	-10.2472
▁பணிபுரி	-10.2474
▁இதன	-10.2474
▁சத்திய	-10.2478
ேற்றம்	-10.248
▁அரசாங்கம்	-10.2481
▁அர்த்த	-10.2482
▁கொண்டிருப்ப	-10.2488
▁சாரா	-10.2491
வியலில்	-10.2491
▁நம்பி	-10.2492
▁சவு	-10.2494
▁மலைத்தொடர	-10.2495
▁தலைமையிட	-10.2496
▁தொண்ட	-10.2497
▁நச்சு	-10.2502
த்தொகுதி	-10.2511
▁சகோதர	-10.2515
யடைந்த	-10.2525
▁ஜனதா	-10.253
▁பிரித்து	-10.2532
ஹெ	-10.2535
▁கதிர	-10.2535
▁300	-10.2535
▁வரலாற்றை	-10.2547
41	-10.2547
▁இசையமைத்த	-10.2549
▁தூண்	-10.2551
▁காலி	-10.2554
▁வகித்த	-10.2555
▁மாறியது	-10.2559
ber	-10.2559
னியர்	-10.2563
▁விழி	-10.2564
▁வென்றார்	-10.2565
▁அவனை	-10.2566
▁வடக்கே	-10.2567
▁சத	-10.257
▁மேரி	-10.2579
▁ஓரி	-10.2579
▁அரிசி	-10.2581
மயமாக்க	-10.2585
ஹோ	-10.2589
▁மேற்கில்	-10.2592
பிற	-10.2594
பிரதேச	-10.2596
▁உலர்	-10.2598
▁பாரதிய	-10.26
▁சிந்து	-10.2602
வேண்டிய	-10.2602
டியம்	-10.2604
▁கொல்லப்பட்ட	-10.2608
ாயிரம்	-10.2613
▁தவற	-10.2617
▁பழங்கால	-10.2618
▁ஆங்கிலேயர்	-10.2619
திறன்	-10.262
▁நூறு	-10.2623
ிருந்தாலும்	-10.2623
ுகையில்	-10.2626
▁முதலமைச்சர	-10.2627
Y	-10.2629
▁கொண்டிருக்கிறது	-10.2631
▁முற்றிலும்	-10.2637
▁பொருட்டு	-10.2637
▁தீர்க்க	-10.2639
▁நர	-10.264
▁கல்வியை	-10.2644
▁சொத்து	-10.2647
▁இசையமைப்ப	-10.2647
ுதலை	-10.265
மண்டல	-10.2651
▁தனியாக	-10.2656
▁துறவி	-10.2657
ஸ்டன்	-10.266
▁எட்ட	-10.2661
▁1979	-10.2662
மானி	-10.2663
▁பிடித்து	-10.267
▁உயிரணுக்கள	-10.267
▁ஓட்டங்கள்	-10.2673
▁கூர்	-10.2674
▁k	-10.2675
▁அணுகுமுறை	-10.2676
வட	-10.2677
சபை	-10.268
▁ஆற்றல	-10.2683
▁தண்ணீர	-10.2683
▁கருதப்படும்	-10.2684
▁காவல	-10.2685
▁48	-10.2687
▁வெட்ட	-10.2692
▁செய்வதற்கு	-10.2693
▁நெருங்கிய	-10.2697
நோய்	-10.2702
ஃபோ	-10.2703
▁வசூல	-10.2704
வீச்ச	-10.2704
▁நாடுகளுக்கு	-10.2715
▁பணியில்	-10.2716
▁பெல்	-10.2719
▁பேராசிரியராக	-10.2722
▁நாற்	-10.2725
நாத்	-10.2728
த்திற்	-10.2731
▁மனோ	-10.2733
கரை	-10.2733
னூ	-10.2735
▁உடனடியாக	-10.2736
பெண்	-10.2738
▁வேதியியல	-10.2738
to	-10.2738
ப்பார்	-10.2743
▁குடிமக்கள	-10.2748
▁ஒதுக்க	-10.2751
▁விண்ண	-10.2758
▁நடித்து	-10.2766
▁1952	-10.277
▁செய்தல்	-10.277
▁முதன்முதலில்	-10.2775
சனின்	-10.2777
▁தகவல்களை	-10.2779
▁உளவியல்	-10.2779
▁நாகரிக	-10.278
▁1975	-10.2781
▁காஷ்மீர	-10.2785
▁எழுத்தாளர	-10.2802
▁அனைத்துலக	-10.281
▁கௌ	-10.2811
▁1976	-10.2811
▁அருங்காட்சியக	-10.2812
▁உட்படுத்த	-10.2813
▁தொடர்வண்டி	-10.2815
பிறகு	-10.2817
▁தீர்மான	-10.282
▁செம்ம	-10.2832
▁வென்று	-10.2836
▁பெறப்பட்ட	-10.2836
▁உயிரணு	-10.2844
▁v	-10.2848
▁ஏற்படுத்தி	-10.2852
▁என்பதைக்	-10.2852
▁சுட்ட	-10.2857
▁நாய்	-10.2861
▁பழனி	-10.2863
க்குறிச்சி	-10.2865
▁விழுந்த	-10.2866
▁பட்டத்தை	-10.2868
▁சங்ககால	-10.2869
▁படிப்ப	-10.2872
களுக்க	-10.2878
பியன்	-10.2879
▁காத்த	-10.2882
▁வழங்கியது	-10.2886
▁வசித்து	-10.289
▁தலைநகர்	-10.289
▁காதலி	-10.2895
ff	-10.29
▁எடுத்துச்	-10.2905
▁வரவேற்ப	-10.2906
த்தொ	-10.2907
▁என்பதே	-10.2909
▁1974	-10.2911
க்கோடு	-10.2911
▁முனிவர்	-10.2912
▁ஆய்வக	-10.2915
▁தொட	-10.292
▁அக்காலத்தில்	-10.2921
▁நிரல்	-10.2922
▁அப்துல்	-10.2926
▁பட்டியல	-10.2927
▁எனலாம்	-10.2928
▁உதய	-10.2928
▁முதலாக	-10.294
▁கூட்டமைப்பு	-10.2943
▁விலங்குகள்	-10.2943
▁குறைந்தது	-10.2944
▁கடலில்	-10.2947
▁டூ	-10.295
▁வெளிவர	-10.2955
தனால்	-10.2955
▁கணக்கு	-10.2958
▁குமார்	-10.2961
த்தள	-10.2965
▁மாற்றப்பட்டது	-10.297
▁1956	-10.2972
▁உறுதிப்படுத்த	-10.2973
▁பகுதிகளிலும்	-10.2974
▁திகழ்ந்த	-10.2978
▁பிரதம	-10.2981
▁காதல	-10.2986
▁51	-10.299
வதில்லை	-10.2991
▁’	-10.2994
▁காலத்திற்கு	-10.2994
▁கொடை	-10.2999
ib	-10.3007
▁நிரந்தர	-10.3007
க்கெட்	-10.3008
▁1964	-10.3011
▁பெற்றுள்ளார்	-10.3013
▁வெட்டி	-10.3013
▁அழைக்கப்பட்டது	-10.3024
▁ஒவ்வொன்ற	-10.3027
டென்	-10.3027
▁மாகாணம்	-10.303
patti	-10.3031
▁பேண	-10.3031
நிலையில்	-10.3031
▁திட	-10.3031
▁அமைக்கப்பட்டது	-10.3033
▁நிகழ்வுகள்	-10.3035
▁முப்ப	-10.3037
▁உடன்படிக்கை	-10.3037
▁இவ்விரு	-10.3039
eg	-10.304
ராஜன்	-10.304
▁நிரப்ப	-10.3043
▁குடியரச	-10.3046
▁பேச்ச	-10.3049
பெருமாள்	-10.305
▁வழக்கில்	-10.3054
▁முத்த	-10.3056
சார்ந்த	-10.3056
▁தமிழகத்தின்	-10.3058
if	-10.3064
▁The	-10.3068
▁நோபல்	-10.3068
ட்டே	-10.3069
▁கதைகள்	-10.3069
▁கைப்பற்றிய	-10.3069
▁கொண்டே	-10.3073
▁செய்திகள்	-10.3078
பேர்	-10.3079
▁புகைப்பட	-10.3083
▁கணக்கில்	-10.3087
▁இடைநிலை	-10.3087
▁இந்நிலை	-10.3088
▁தெரிவித்தார்	-10.3089
வண	-10.3089
▁நாடா	-10.3096
▁இசைக்குழு	-10.3098
▁செய்யப்பட	-10.3098
பீட	-10.3099
னுக்கும்	-10.3107
வினால்	-10.3108
▁பாரதி	-10.3109
▁முற்றுகை	-10.3109
▁மறுத்த	-10.3114
▁வழக்கமான	-10.3116
▁வீடியோ	-10.3119
▁ராபர்ட்	-10.3131
▁இடையிலான	-10.3133
▁Co	-10.3133
▁ஆட்சியின்	-10.3136
▁பெயரால்	-10.3137
▁அழற்சி	-10.3137
▁விநியோக	-10.314
ka	-10.3147
படும்	-10.3154
▁ஆரம்பிக்கப்பட்ட	-10.3155
▁எதிர்மின்	-10.3158
▁வளர்த்த	-10.3158
▁தேவைப்படும்	-10.3161
con	-10.3162
▁தன்னாட்சி	-10.3163
▁விலக	-10.3167
▁மகிழ்ச்சி	-10.3171
▁என்றழைக்கப்படும	-10.3177
▁சல்ப	-10.3178
▁கோப்பு	-10.3193
▁முன்பாக	-10.3194
CO	-10.3194
▁or	-10.3197
மாற	-10.3198
▁சூரியன்	-10.3199
பந்தாட்ட	-10.3201
▁காமிகாகம	-10.3202
▁நடந்தது	-10.3206
▁அறிவித்தார்	-10.3218
▁கொண்டிருக்க	-10.322
▁விஜய்	-10.3222
▁பெரி	-10.3222
▁இந்நிறுவன	-10.3223
▁நாடாக	-10.3225
▁செயலாக்க	-10.3226
▁பிளே	-10.3235
▁வெங்கட	-10.3235
▁திறனை	-10.3237
▁நம்பப்படுகிறது	-10.3237
ிலிருந்தே	-10.3237
▁அடைந்து	-10.3244
ரத்தின	-10.325
▁வளிம	-10.3251
▁முளை	-10.326
பெல்	-10.326
▁படங்களில்	-10.3267
▁கலப்பு	-10.3267
▁|	-10.3268
▁ஒழி	-10.327
▁பிறப்ப	-10.3271
▁மடங்கு	-10.3276
▁மாநகராட்சி	-10.3277
ப்புள்ளி	-10.3278
▁ஏக்கர்	-10.3279
ுருவ	-10.3279
▁பதில்	-10.3283
▁ஆண்டுதோறும்	-10.3285
▁பிரதமர்	-10.3286
▁விடுதி	-10.3287
▁இப்பள்ளி	-10.3289
▁பணிபுரிந்த	-10.329
ப்பற்றி	-10.329
ast	-10.3291
yl	-10.3292
▁அறிவிக்க	-10.3292
முதல்	-10.3292
யியல	-10.3299
▁காணப்பட்டது	-10.3303
▁சோம	-10.3304
▁பிரித்த	-10.331
மின்றி	-10.3311
▁1965	-10.3312
▁போதிலும்	-10.3313
▁ஒத்து	-10.3315
500	-10.3316
▁நாவல்	-10.3318
ாளராகவும்	-10.332
▁முடியவில்லை	-10.3322
▁கியூ	-10.3323
▁இசையில்	-10.3327
▁கிழக்க	-10.3328
▁நிறுத்தி	-10.3329
▁ஆற	-10.3333
▁மேற்பரப்ப	-10.3342
▁1957	-10.3344
பாட்டை	-10.3346
▁இயற்ற	-10.3348
▁38	-10.3348
▁தகவல	-10.3348
▁படிப்பை	-10.3354
▁பரப்பளவில்	-10.3357
▁ஐரோப்பாவில்	-10.3359
▁அருகிலுள்ள	-10.3361
▁பங்களிப்பு	-10.3361
▁தடுப்பு	-10.3363
▁மாட	-10.3366
▁நன்றாக	-10.337
▁நிருவாக	-10.337
▁உறிஞ்ச	-10.3373
▁அருங்காட்சியகம்	-10.3373
ாளரான	-10.3375
▁விவசாயி	-10.3377
ிருப்பது	-10.3379
▁ஆகவே	-10.3382
▁இருப்பு	-10.3386
▁சமநிலை	-10.339
▁காவல்துறை	-10.3395
age	-10.3396
▁அறியப்படும்	-10.3397
செயல்	-10.3398
▁சியா	-10.3398
மாண	-10.3401
▁அடங்க	-10.3402
▁ஏற்றுமதி	-10.3402
▁கல்யாண	-10.3403
▁மற்றவர்	-10.3405
▁பந்த	-10.3406
ana	-10.3409
▁தன்மையை	-10.3414
▁ஃபோ	-10.3414
ந்தே	-10.3415
▁அரசியல்வாதியும்	-10.3416
▁பொதுச்	-10.342
▁பயன்பாட்டு	-10.3423
ெண்	-10.3428
ினைக்	-10.3428
▁முடிவுக்கு	-10.343
▁கழகத்தின்	-10.3431
▁கொல்கத்தா	-10.3433
▁பெருமளவில்	-10.3433
▁விரைவில்	-10.3433
▁தஞ்சை	-10.3434
▁In	-10.3435
▁பொய்	-10.3439
▁வந்தன	-10.344
▁கிளி	-10.3441
▁சமன்பாடு	-10.3444
ob	-10.3444
▁நகருக்கு	-10.3447
▁அலுமினிய	-10.3454
▁கால்நடை	-10.3454
மனை	-10.3455
▁கட்டுப்பாட்ட	-10.3456
▁விடய	-10.346
▁உடற்	-10.3462
▁தெற்கே	-10.3462
mm	-10.3462
ப்பாடல்	-10.3462
▁டார்	-10.3463
▁நூலின்	-10.3463
▁http	-10.3465
▁ஆக்சிசனேற்ற	-10.3469
▁49	-10.347
▁இலிருந்து	-10.347
▁அன்ப	-10.347
▁நூல்களில்	-10.348
▁இயல்	-10.3484
▁பொட்டாசியம்	-10.3486
ம்பாடி	-10.3487
▁டிரை	-10.3487
ெடுத்து	-10.3489
▁வெப்பநிலையில்	-10.3492
▁ஜெய்	-10.3492
ப்பாட	-10.3493
▁முடிவுகள்	-10.3496
▁அறிமுகமானார்	-10.3497
▁பொறுப்பேற்ற	-10.3499
▁நூலாக	-10.35
▁திரைப்படங்கள்	-10.35
▁படைப்ப	-10.3501
▁அடுக்க	-10.3501
ச்சாலை	-10.3502
▁ராணி	-10.3504
tion	-10.3504
▁பெற்றிருந்த	-10.3505
சேர்	-10.3514
▁உபசன்னதி	-10.3516
ொழி	-10.3521
▁42	-10.3526
▁நின்ற	-10.3536
▁கட்டிய	-10.3539
▁மேற்கத்திய	-10.354
▁எசுப்பானிய	-10.3547
ம்பாளையம்	-10.3552
▁பட்டி	-10.3552
▁புதுச்சேரி	-10.3553
▁இழப்பு	-10.3554
▁இறப்ப	-10.3554
▁அமைந்திருக்கும்	-10.3555
▁இராச்சியம்	-10.3557
▁அகில	-10.3563
▁தலைவராகவும்	-10.3563
▁வழியே	-10.3566
க்கழக	-10.3568
▁கந்தக	-10.3576
▁1981	-10.3578
▁நடவடிக்கைகள்	-10.3578
▁முடிகிறது	-10.358
▁போய்	-10.3581
▁ஏற்படுத்தும்	-10.3583
▁கும்ப	-10.3586
▁ஒருமுறை	-10.3594
▁கண்டுபிடிப்பு	-10.3594
▁சீக்கிய	-10.3598
வல்ல	-10.3601
▁பொருளின்	-10.3602
▁தலைநகரான	-10.3603
▁திறக்க	-10.3608
க்காட்ட	-10.3616
▁சூழலில்	-10.3616
▁பிரெ	-10.3619
▁சதுரங்க	-10.362
ிழை	-10.3624
▁எச்ச	-10.3625
▁துவங்கி	-10.3626
▁நடுவில்	-10.3629
ுமிட	-10.3633
▁ராணுவ	-10.3637
▁தொண்டை	-10.3641
மில்லை	-10.3642
▁துன்ப	-10.3644
▁ஃபா	-10.3644
விட்டால்	-10.3645
▁64	-10.3645
▁மடி	-10.3645
▁ஷி	-10.3646
_1	-10.3646
கிற	-10.3646
▁நான்காம்	-10.3648
யாய்	-10.3649
▁துருவ	-10.3651
▁ஹரி	-10.3652
Br	-10.3652
▁அணியில்	-10.3654
▁இடங்கள்	-10.3654
▁திருமால	-10.3658
▁தற்காலிக	-10.3659
க்குறை	-10.367
நாள	-10.3676
▁குஜராத்	-10.3682
▁கோவா	-10.3688
▁நபர	-10.3694
▁இத்தாலி	-10.3694
▁கட்டத்தில்	-10.3695
▁மொழியாக	-10.3696
▁1927	-10.3696
செயல	-10.3697
▁சூப்பர்	-10.3698
▁தலைநகராக	-10.3698
▁ஹீ	-10.37
▁திட்டமிட	-10.3701
ேசுவரர்	-10.3701
▁அறக்கட்டளை	-10.3702
▁கடும்	-10.3708
▁கழித்து	-10.3708
▁குழுவில்	-10.3713
▁சித்தரிக்க	-10.3718
▁மொழியை	-10.372
▁சுல்தான்	-10.3723
திற	-10.3727
▁தொகுதியின்	-10.3728
▁குழுவினர	-10.3729
▁1973	-10.373
▁தலைப்பில்	-10.3733
▁வகுத்த	-10.3737
▁முகாம	-10.3741
▁ஓடி	-10.3742
▁1968	-10.3753
▁மீனாட்சி	-10.3757
▁திரைக்கதை	-10.3758
▁கொடுப்ப	-10.3764
ில்லாமல்	-10.3765
▁படகு	-10.3766
▁அலுவலகம்	-10.3769
▁எஞ்சிய	-10.377
மாதிரி	-10.3773
ith	-10.3774
நோக்கி	-10.3775
▁வடிவமைத்த	-10.3779
▁வியட்நாம	-10.3779
▁ஷெ	-10.3779
முடியாத	-10.3779
▁சொன்ன	-10.3781
▁நகரங்களில்	-10.3782
▁பாக்கித்தான்	-10.3783
▁அண்மையில்	-10.3784
▁தலைநகரம்	-10.3785
ம்மாள்	-10.3787
▁கதாப்பாத்திர	-10.379
▁எதிர்பார்க்க	-10.379
▁பிராமண	-10.3798
வென்	-10.3801
▁பேசி	-10.3806
▁உடல்நல	-10.3812
▁பயன்படுகின்றன	-10.3815
▁இத்திட்ட	-10.3816
ுபவை	-10.3817
▁கருதுகின்றனர்	-10.382
▁குடியேற	-10.3821
ப்பர	-10.3826
▁கொன்ற	-10.3828
வருகிறது	-10.3829
▁தழுவி	-10.3833
▁ஊழியர்	-10.3834
டோன்	-10.3835
பட்டினம்	-10.3839
▁போக்க	-10.384
ப்படுத்திய	-10.3844
her	-10.3845
தென்	-10.3848
ுறுப்பு	-10.3854
▁கம்பெனி	-10.3856
▁நுழைந்த	-10.3863
▁அதிகாரம்	-10.3869
▁பெருந்த	-10.3869
uth	-10.3872
ப்படுவதால்	-10.3875
▁பயணிகள்	-10.3885
▁செரு	-10.3885
▁லட்சுமி	-10.3887
▁திரைப்படத்தின்	-10.3888
▁தொடர்பாக	-10.3902
▁அடிப்படையாக	-10.3902
▁சர்ச்சை	-10.3903
▁டிவி	-10.3914
வெப்ப	-10.3922
▁கிழக்கிந்திய	-10.3923
▁ஜு	-10.3923
▁கொண்டிருந்தார்	-10.3925
▁என்பவரின்	-10.3927
சேகர	-10.3936
▁முதுகலை	-10.3945
▁சிவாஜி	-10.3945
▁தானே	-10.3947
▁தயாரிப்பாளர்	-10.3948
ci	-10.3957
▁நூற்றாண்ட	-10.3963
▁இயல	-10.3963
▁சட்டத்தின்	-10.3964
▁கேரளா	-10.3965
▁கண்காணிப்ப	-10.3968
▁தலைமையிலான	-10.3971
▁இம்மொழி	-10.3973
▁அரசி	-10.3978
▁அதிகபட்ச	-10.3979
▁நகரை	-10.3983
▁பயன்பட்ட	-10.3984
-18	-10.3985
ப்பிட	-10.3989
▁கணிக்க	-10.3989
ass	-10.3991
▁என்பதுடன்	-10.3994
▁வைத்திருந்த	-10.3995
▁இலாப	-10.3996
களுடனும்	-10.3996
CH	-10.4016
▁வழங்கினார்	-10.4017
▁இருந்தபோது	-10.4022
▁சம்பவ	-10.4025
வற்றில்	-10.4028
▁ஆட்சியில்	-10.4028
▁மெல்ல	-10.403
▁பெய்	-10.4031
▁தற்	-10.4034
▁பொருளியல்	-10.4035
va	-10.4036
▁குளம்	-10.4046
▁படுகொலை	-10.4046
▁ஒருங்கிணைந்த	-10.4047
▁வலைத்தள	-10.4047
ய்யா	-10.4052
▁1963	-10.4052
▁பகுதியான	-10.4053
▁அனைவர	-10.4053
▁வரையறுக்கப்பட்ட	-10.4055
▁சிலி	-10.4056
யிட்டு	-10.4057
▁கூடும்	-10.4057
▁1920	-10.4058
சுந்தர	-10.4059
ப்பாறை	-10.4061
▁அக்கால	-10.4064
▁விரும்பி	-10.4066
▁என்பதில்	-10.4068
▁வங்க	-10.4069
▁வடகிழக்கு	-10.4069
▁அதிகாரப்பூர்வ	-10.407
▁சுரு	-10.407
▁கிரிக்க	-10.4073
▁வர்க்க	-10.4073
▁முன்பே	-10.4079
▁இவற்றுள்	-10.4085
▁முழுமை	-10.4086
தொரு	-10.4086
▁உணர்ச்சி	-10.4087
▁சமயங்களில்	-10.4091
▁ஆப	-10.4092
▁பாகை	-10.4102
▁மரங்கள்	-10.4103
▁மனிதன்	-10.4104
▁படிம	-10.4105
▁மாடு	-10.4116
டூ	-10.4118
▁ஊடாக	-10.412
▁அருவி	-10.412
▁சிவபெருமான்	-10.4126
▁உரையாட	-10.4129
▁வள்ளி	-10.4132
▁தேற்ற	-10.4133
▁தொட்டி	-10.4134
▁மதிப்பிட	-10.4135
▁அறிமுகம்	-10.4135
▁இந்நகரம்	-10.4148
கொள்கிறார்	-10.4149
▁சூத்திர	-10.4152
▁அவர்களால்	-10.4154
▁கழகத்தில்	-10.4158
இர	-10.416
▁தெரிந்த	-10.4162
▁என்பவன	-10.4166
ach	-10.4169
▁அங்கீகரிக்க	-10.4171
▁உரிமைகள்	-10.4172
▁பாலைவன	-10.4173
▁தமிழர்கள்	-10.4175
▁வலு	-10.4177
▁தனித்த	-10.4181
▁தொடங்கப்பட்ட	-10.4194
▁மூழ்க	-10.4196
▁நடுநிலை	-10.4202
▁முதன்முதலாக	-10.4206
▁முறையான	-10.4206
ric	-10.4209
▁தாக்கி	-10.421
▁கடினமான	-10.4211
றிந்த	-10.4217
▁இவ்வாறான	-10.4217
▁உதவியுடன்	-10.4237
▁டச்சு	-10.4241
▁மஞ்ச	-10.4244
▁காட்டுகிறது	-10.4249
▁பராமரிப்ப	-10.4252
▁திறந்து	-10.4257
ern	-10.4258
▁விளைவிக்க	-10.4259
hy	-10.4261
▁செருமனி	-10.4263
▁கரையில்	-10.4272
▁பெருமளவு	-10.4275
▁நிலவிய	-10.4275
▁39	-10.4282
▁பங்கேற்க	-10.4286
▁சாமி	-10.4289
▁மண்டபம்	-10.429
ala	-10.4291
▁பிற்காலத்தில்	-10.4293
▁படிப்படியாக	-10.4298
▁எதிர்மறை	-10.4301
▁தரும	-10.4304
▁தோற்றுவிக்க	-10.4309
▁மரபுவழி	-10.4315
க்கருவி	-10.4319
க்காகவும்	-10.4321
▁பெரம்பலூர்	-10.4321
▁ஹெர்	-10.4331
பேசி	-10.4332
▁சதவிகித	-10.4333
▁பாகிஸ்தான்	-10.4337
▁1945	-10.4338
▁150	-10.434
lu	-10.4344
▁கோயிலின்	-10.4344
▁இலத்தீன்	-10.4344
▁தட்டு	-10.435
▁விழுக்காடு	-10.4356
▁எலக்ட்ரான்	-10.4358
▁மாநாடு	-10.4362
▁பசுமை	-10.4366
▁வரையான	-10.437
▁அறிஞர்கள்	-10.4372
கீழ்	-10.4373
▁ஏழை	-10.4375
▁மகனாக	-10.4375
ட்டீ	-10.438
▁ஆசிரிய	-10.4381
▁பகுதிக்கு	-10.4391
▁இந்திரா	-10.4393
▁மீள்	-10.4401
▁தவிர்த்து	-10.441
▁கப்பல	-10.4411
▁பிரதிநிதித்துவ	-10.4416
ேசுவர	-10.4416
▁குழுக்கள்	-10.4418
முத்து	-10.4422
▁வருகின்ற	-10.4424
▁இந்திர	-10.4426
ுள்ளதாக	-10.4426
▁உறுப்பினரும்	-10.4427
▁வீழ்த்த	-10.4427
▁முத்திரை	-10.4431
பிள்ளை	-10.4432
போர்டு	-10.4432
▁தங்கி	-10.4435
▁வேட்டையாட	-10.4439
ப்பட்டிருந்தது	-10.4439
▁பாலியல்	-10.444
▁போலி	-10.4449
▁52	-10.4457
▁தாண்டி	-10.446
▁முதலீடு	-10.4463
▁உடையது	-10.4464
our	-10.447
▁முடித்த	-10.4473
▁மாவட்டத்திலுள்ள	-10.4479
▁கிறிஸ்தவ	-10.4481
▁பணியை	-10.4483
▁வாய்ப்பாட்ட	-10.4485
ஞர்	-10.4486
ord	-10.4491
▁அமைவ	-10.4494
▁பெற்றுள்ளன	-10.4495
ish	-10.4505
▁வசதிகள்	-10.4509
▁செலுத்தி	-10.4509
▁இவ்வா	-10.4514
▁புவியின்	-10.4515
ியற்	-10.4516
▁வைணவ	-10.4516
▁என்பதன்	-10.452
▁மைக்கேல்	-10.452
▁அலெக்	-10.4523
▁1954	-10.4526
▁மென்பொருள	-10.453
▁ஈட்ட	-10.453
▁வேட்பாளராக	-10.4535
▁நிறுவினார்	-10.4536
போர்ட்	-10.4536
▁for	-10.4545
▁65	-10.4551
▁400	-10.4553
ுணர்வு	-10.4557
▁விரிவான	-10.4561
ரூப	-10.4561
▁இயற்பியல	-10.4562
▁கால்வாய்	-10.4562
▁அமர்	-10.4566
▁55	-10.4572
▁அலங்கார	-10.458
▁வானியல	-10.4586
▁தொடரின்	-10.4588
▁கண்டுபிடிப்ப	-10.4591
▁சூழப்பட்டுள்ளது	-10.4597
▁நடுவண்	-10.4598
▁நீதிமன்றம்	-10.4601
குறியீட்ட	-10.4603
▁இருக்கின்றது	-10.4603
▁தனிநபர்	-10.4604
▁கருப்பை	-10.4606
▁தொடர்ச்சியான	-10.4609
மூர்	-10.4609
▁கிளர்ச்சி	-10.4616
▁என்பவரை	-10.4616
▁அன்பு	-10.4618
da	-10.4618
▁சோழன்	-10.4624
▁கடுமையாக	-10.4627
sc	-10.4635
aw	-10.4637
ானார்	-10.4638
▁கிடையாது	-10.4639
▁43	-10.4641
▁பிரிந்து	-10.4643
▁கல்லறை	-10.4646
▁போட்டியிட்ட	-10.4649
▁தேவார	-10.4649
▁உணர்த்த	-10.465
▁கதிரியக்க	-10.4652
▁மாளிகை	-10.4652
▁வாழை	-10.4653
▁செயற்	-10.4656
▁சட்டப்படி	-10.4656
▁சிறையில்	-10.4665
▁கோவிந்த	-10.4665
▁சேர்க்கை	-10.4665
▁லூயி	-10.4667
▁வடமொழி	-10.4668
▁நீட்டி	-10.4679
▁சனி	-10.4681
சமய	-10.4688
son	-10.4688
▁துண்டு	-10.4688
mo	-10.4696
▁சுவாச	-10.4717
▁இராச்சியத்தின்	-10.4718
▁நிறுவனத்தை	-10.4722
▁அங்கிருந்து	-10.4726
▁படித்த	-10.4727
▁சிங்கப்பூர	-10.4735
▁பேரவை	-10.4736
▁காலமானார்	-10.4736
▁உரிம	-10.474
▁பத்திர	-10.4744
▁சீனாவின்	-10.4751
▁அரேபிய	-10.4752
▁வளர்ப்பு	-10.4755
NA	-10.4757
▁கவிதைகள்	-10.4762
▁மனிதர்கள்	-10.4762
ட்டெ	-10.4767
▁CH	-10.4769
▁தொடர்ச்சி	-10.477
ங்களே	-10.4772
▁எஃப்	-10.4778
▁காண்க	-10.4784
▁உட்புற	-10.4788
▁பாடகர்	-10.4789
▁சேமிக்க	-10.4789
▁1966	-10.4791
ial	-10.4792
▁பாண்டியன்	-10.4796
▁புரட்டாசி	-10.4796
▁46	-10.4799
▁கொன்று	-10.4804
ராமன்	-10.4806
▁கிழக்கே	-10.4807
▁சுட்டு	-10.4808
▁மாறிய	-10.481
▁அணிக்காக	-10.4813
ron	-10.4814
▁நடைமுறையில்	-10.4814
▁Re	-10.4828
▁தீவிரவாத	-10.4833
▁வாடிக்கையாளர்	-10.4836
▁தலைவன்	-10.4837
▁தொகுதிக்கு	-10.4841
▁தண்டு	-10.4843
▁திரிபு	-10.4862
▁பத்திரிக்கை	-10.487
▁இவரே	-10.487
▁தெரியவில்லை	-10.4878
ாபுரம்	-10.4881
▁ஒலிபரப்ப	-10.4882
▁ஒட்டுமொத்த	-10.4882
▁வசன	-10.4885
▁இதற்கான	-10.489
▁உணவாக	-10.4891
▁சிக்கி	-10.4891
▁தவறான	-10.4891
▁பயன்பாட்டில்	-10.4896
▁நீளமான	-10.4897
ram	-10.4899
▁படையினர	-10.4902
▁இளங்கலை	-10.4907
▁வெற்றிகரமாக	-10.4907
க்கல்வி	-10.4913
▁தூரத்தில்	-10.4916
இரு	-10.492
ari	-10.4925
▁முடிக்க	-10.4931
▁நாட்டுப்புற	-10.4936
ப்பாட்டு	-10.4937
ழற்சி	-10.4941
▁நெதர்லாந்த	-10.4944
ஸ்திர	-10.4944
▁குறிக்கோள	-10.4948
▁சன்னதிகளும்	-10.4952
▁அவற்றுள்	-10.4953
ிருப்பதாக	-10.4958
▁காரணத்தால்	-10.4962
▁பிற்பகுதியில்	-10.4967
ஆவது	-10.497
▁பல்லவ	-10.4972
ப்பாடி	-10.4976
குடும்ப	-10.4977
ens	-10.4978
▁அப்படி	-10.4979
▁பாம்பு	-10.4979
▁சேர்த்த	-10.4979
▁கோடை	-10.498
▁கடவுளின்	-10.4991
▁தற்கொலை	-10.4993
ரம்ப	-10.4993
▁அறிவிப்ப	-10.4995
▁முகலாய	-10.4996
▁இரயில்	-10.5001
▁குறைவு	-10.5004
▁என்பதையும்	-10.5007
லொ	-10.5009
▁என்பவற்ற	-10.5009
▁அபாய	-10.501
ப்பாக்கம்	-10.5011
▁நிகழ	-10.5015
▁ஆரணி	-10.5017
▁மேற்கோள்	-10.502
▁பனை	-10.5032
▁ஏற்றுக்கொண்ட	-10.5032
▁அச்சிட	-10.5033
செய்யப்பட்ட	-10.5034
▁அமைகிறது	-10.5035
▁ஆள்	-10.504
▁மயிலாடுதுறை	-10.5043
▁வகையைச்	-10.5053
▁மோசமான	-10.5056
▁முகவரி	-10.5059
▁மராத்தி	-10.506
▁1958	-10.5063
▁சுற்றியுள்ள	-10.5063
▁வசந்த	-10.5063
ிறான்	-10.5067
▁கடிகார	-10.5068
▁சேர்மங்கள்	-10.5072
▁இச்சி	-10.5079
நாக	-10.5084
▁ஈடு	-10.5085
▁1961	-10.5087
▁ஆயிர	-10.5088
▁ராவ்	-10.5089
மீட்டர்	-10.5093
▁திருக்குறள	-10.5093
ங்குளம்	-10.5093
▁சிதற	-10.5093
ae	-10.5094
▁நமது	-10.5094
வியலாளர்	-10.5098
▁உத்தரப்	-10.5098
▁நடப்ப	-10.5099
ich	-10.51
▁ஏறக்குறைய	-10.5105
▁உள்ளடக்கியது	-10.512
▁ஆண்களின்	-10.5124
▁படித்து	-10.5126
▁பொருட்களின்	-10.5131
▁வகிக்க	-10.5134
ஊ	-10.5136
▁ஈர்ப்பு	-10.5144
மங்கல	-10.5146
▁இறங்க	-10.5147
▁தோற்கடித்த	-10.5156
▁சுழல்	-10.5156
▁நாயக்கர்	-10.5157
லாய்	-10.5162
▁ராய்	-10.5168
வர்மன்	-10.5172
▁அடிப்படையிலான	-10.5173
டொ	-10.5174
த்தொடர்	-10.5174
▁திட்டத்தை	-10.5178
▁ஒன்றியத்தின்	-10.5179
றே	-10.5182
பூண்டி	-10.5186
▁வென்றது	-10.5188
▁மோதி	-10.5189
▁மாறும்	-10.5189
▁போக்கு	-10.5206
▁நுரையீரல்	-10.5213
▁மெதுவாக	-10.5215
யீடு	-10.5215
▁போருக்கு	-10.5216
▁தேர்ந்தெடுத்த	-10.5219
▁கருத்தை	-10.5219
இந்திய	-10.5222
▁மூலவர்	-10.5223
▁ஃப்ர	-10.5223
▁தனித்து	-10.5227
▁மண்டலத்தில்	-10.523
▁ஆரோக்கிய	-10.5232
▁அதிகரிக்கும்	-10.5234
▁ஈடுபட்டு	-10.5234
▁தோன்றியது	-10.524
▁உடலின்	-10.5242
▁சுருக்கமாக	-10.5245
▁சுரப்பி	-10.5248
int	-10.5253
▁குடும்பத்தைச்	-10.5255
▁வாழ்க்கையில்	-10.5256
▁கற்பித்த	-10.5256
▁உபசன்னதிகள	-10.526
▁தரநிலை	-10.526
▁பகிர்ந்து	-10.5261
▁1959	-10.5263
▁தவறு	-10.5267
ானந்த	-10.5267
▁கார்பன	-10.5269
▁மேம்பாட்டு	-10.527
கூற	-10.527
▁சம்பா	-10.5275
▁அடித்தள	-10.5276
▁எடுப்ப	-10.5278
லீன்	-10.5282
▁ஆஸ்திரேலிய	-10.5289
▁நிற்க	-10.5289
▁இப்படம்	-10.5289
▁ஈர்க்க	-10.529
▁குளிர்கால	-10.5292
▁தியாக	-10.5294
▁வீத	-10.5297
▁இயக்குனர	-10.5298
▁பொருள்படும்	-10.53
▁நாட்களுக்கு	-10.53
ங்களுக்காக	-10.5307
▁அமைச்சரவை	-10.5309
▁வைத்தார்	-10.5311
▁நடக்கின்றன	-10.5314
▁பெண்களுக்கு	-10.5315
5,000	-10.5316
▁புற்று	-10.5319
▁1946	-10.5328
▁நிலையத்தில்	-10.5328
▁உறுப்பினராகவும்	-10.5331
▁மட்டக்களப்பு	-10.5334
▁மகாபாரத	-10.5338
▁பீகார	-10.5342
▁ஊடுருவ	-10.5348
▁ஆசிரியர	-10.5348
▁வெல்ல	-10.5351
▁நிகழ்ச்சியில்	-10.5353
▁தயாரிப்பில்	-10.5356
▁கூடாது	-10.5359
▁மக்கட்தொகை	-10.536
ீசுவரர்	-10.536
▁ஒற்றுமை	-10.536
▁இதழில்	-10.5362
ப்புல	-10.5367
▁தருகிறது	-10.5369
ியலாளர்	-10.5369
▁சமையல	-10.5372
▁பவுல்	-10.5374
குள	-10.5374
▁ரீதியான	-10.5379
▁நரசிம்ம	-10.5386
▁ட்ர	-10.5386
▁உருவாகி	-10.5388
po	-10.5389
▁கருத்தில்	-10.5398
amb	-10.5399
▁சுல்தான	-10.54
▁வடிவத்தில்	-10.54
ுவதாகும்	-10.5407
end	-10.5411
▁அசோக	-10.5411
▁நெருக்கடி	-10.5411
▁சாம்பல்	-10.5412
▁பட்ச	-10.5414
▁அவசர	-10.5415
▁அரசால்	-10.5416
▁அப்போதைய	-10.5424
▁தென்கிழக்கு	-10.5424
க்காட்சி	-10.5425
▁கோபால	-10.5425
▁வாயிலாக	-10.5426
res	-10.5428
ence	-10.543
▁1949	-10.543
ru	-10.5431
▁ரவி	-10.5433
▁சந்தேக	-10.5439
▁லியோ	-10.5441
பாடாக	-10.5447
லத்தீன	-10.5449
▁முகம்மது	-10.545
▁அவளை	-10.5451
▁இயலாத	-10.5453
▁வள்ள	-10.5459
iya	-10.5459
▁ஐந்தாம்	-10.5464
▁காஞ்சி	-10.5465
▁பணிபுரிந்தார்	-10.547
▁தீவில்	-10.5476
▁பழுப்பு	-10.5477
▁இவ்வினை	-10.5478
▁தொழு	-10.5481
▁பிரம்மா	-10.5486
▁மொழிபெயர்ப்பு	-10.5489
▁துவக்கத்தில்	-10.5489
▁பார்ப்ப	-10.5489
▁பாக்டீரியா	-10.5489
▁ஈடுபாடு	-10.5491
ண்டெ	-10.5494
ட்டிற்கு	-10.5496
▁மாதங்கள்	-10.5498
▁பிலிப்	-10.5499
▁பயன்படுத்தலாம்	-10.5501
▁பராமரிக்க	-10.5502
▁திரும்பிய	-10.5503
ப்பதற்கான	-10.5504
▁எழுத்துக்கள்	-10.5504
▁1951	-10.5508
▁பருவத்தில்	-10.5513
▁செயற்பாட்ட	-10.5524
மூன்ற	-10.5525
▁நூ	-10.5529
AT	-10.5533
விசை	-10.5535
▁கொடுத்தார்	-10.5535
ஷன	-10.5539
▁கொண்டுவந்த	-10.5548
பெயர	-10.5548
▁விளிம்ப	-10.5548
▁உத்திர	-10.5549
▁கிட்ட	-10.5552
▁நீராவி	-10.5555
▁பொலி	-10.5561
▁அழிந்து	-10.5563
▁பள்ளத்தாக்கு	-10.5566
▁இம்மாவட்டம்	-10.5568
▁கார்த்திகை	-10.5568
▁இருபத்த	-10.5573
▁இரக	-10.5575
▁வெண்பா	-10.5582
▁விசய	-10.5588
▁அவர்களுடைய	-10.5591
▁மார்கழி	-10.5594
ராஷ்டிர	-10.5595
▁ஆதரிக்க	-10.5595
ெண்ண	-10.5596
▁உள்ளடங்க	-10.56
▁அரசியலமைப்பு	-10.56
▁1955	-10.56
▁பெயரிட்ட	-10.561
▁மெல்லிய	-10.5611
▁ஓரளவு	-10.5612
வண்ண	-10.5615
▁சிறீ	-10.5616
வாகவும்	-10.5616
▁செவி	-10.5619
▁கூறுகின்றனர்	-10.5625
▁பாடலை	-10.5626
▁முன்னரே	-10.563
▁பயன்பட	-10.5632
▁வேளையில்	-10.5634
har	-10.5636
▁சீடர்	-10.5637
adi	-10.5641
▁தூக்கி	-10.5644
▁பங்குனி	-10.5647
▁குறிப்பிடுகிறார	-10.5648
▁ஹோட்டல	-10.5649
களுடைய	-10.5651
▁புரூ	-10.5652
▁தொகுதியாகும்	-10.5652
▁கலைஞர	-10.5652
▁பெரும்பான்மையான	-10.5654
▁கரும்பு	-10.5659
▁இயக்கினார்	-10.5659
▁மின்கல	-10.566
▁அன்றைய	-10.5661
▁வழித்தட	-10.5661
▁தோழி	-10.5661
பரப்ப	-10.5662
▁இருந்ததால்	-10.5663
▁நட்பு	-10.5663
நெறி	-10.5664
▁எண்ணிக்கையில்	-10.5666
▁திசையில்	-10.5668
▁தற்பொழுது	-10.5674
▁1944	-10.5679
▁1939	-10.5681
▁அதிர்வெண்	-10.5687
▁ஆரம்பமான	-10.5691
ton	-10.5692
▁விழாவில்	-10.5694
▁கற்றார்	-10.5699
▁ஆளுமை	-10.5701
tor	-10.5703
ுவோர்	-10.5707
க்கூடியதாக	-10.5714
▁திட்டங்கள்	-10.5717
▁அதன	-10.5718
▁ஆண	-10.5721
▁தொழில்முறை	-10.5723
▁இழப்ப	-10.5724
▁பின்னாளில்	-10.5727
▁இடத்திற்கு	-10.5729
▁வெட்டு	-10.5731
▁பெறுகிறது	-10.5732
▁பசிபிக்	-10.5741
▁கருத்துக்களை	-10.5741
▁ஜப்பானிய	-10.5746
க்குட்பட்ட	-10.5747
▁Y	-10.5752
▁மின்னழுத்த	-10.5755
▁பொறுத்த	-10.5756
▁ஆரிய	-10.5758
ace	-10.5763
▁போர்த்துக்கேய	-10.5767
▁41	-10.5769
▁திருப்பு	-10.5772
▁மூச்சு	-10.5774
▁இந்நோய	-10.5778
▁இந்தோனேசியா	-10.5778
▁இயற்றப்பட்ட	-10.5784
▁நிறுவி	-10.5788
அள்ளி	-10.5791
▁ரசிகர்	-10.5794
ுறவு	-10.5801
விடுகிறது	-10.5802
▁தலங்களில்	-10.5803
▁வேளாண்	-10.5809
▁நிலையங்கள்	-10.581
ory	-10.581
இந்தியா	-10.5818
ite	-10.5823
▁அருந்த	-10.5825
வல்லி	-10.5828
பொழி	-10.5831
▁அடையும்	-10.5832
▁தாக்கத்தை	-10.5832
ளூர்	-10.5836
ிடமும்	-10.5839
▁விபத்து	-10.584
▁சத்ய	-10.584
▁வழிபாட்டு	-10.5844
▁உந்து	-10.5845
▁பிளவு	-10.5845
ight	-10.5848
▁விரைவு	-10.5849
▁கூட்டமைப்ப	-10.585
▁பகை	-10.5852
▁ஒளிப்பட	-10.5852
▁தேர	-10.5855
▁ஐந்தாவது	-10.5862
▁குடும்பத்தினர	-10.5862
▁காகித	-10.5863
▁கவலை	-10.5863
▁ஆளுநர	-10.5868
▁உருவாக்குகிறது	-10.5869
▁இயலாது	-10.587
▁பாளைய	-10.5873
படுகிறது	-10.5874
▁ஆன்மீக	-10.5875
▁அறியப்படுகிறார்	-10.5879
▁மூர்த்தி	-10.5883
▁மேற்கொண்டார்	-10.5885
▁ஆட்சியாளர்	-10.5886
▁பிடாரி	-10.589
▁கிருஷ்ணன்	-10.5893
▁ஸ்டார்	-10.5894
▁மிகுதியாக	-10.5894
▁ஆபத்து	-10.5898
▁விளைவுகளை	-10.5899
▁சந்திப்பு	-10.5905
ஜோ	-10.5909
uk	-10.5909
▁குறியீட்டு	-10.5909
aj	-10.591
நூற	-10.5914
றிதல்	-10.5924
▁கீழ்க்காணும்	-10.5929
▁மாநிலங்களில்	-10.5932
▁பகிர	-10.5937
பரப்பு	-10.5939
நத்தம்	-10.5941
[	-10.5941
▁இங்கிலாந்தில்	-10.5943
▁பார்வதி	-10.5949
▁விளையாடி	-10.5951
மனித	-10.5951
▁நடிப்பு	-10.5956
og	-10.5959
ுவதே	-10.5964
▁ஊட்ட	-10.5965
▁அழைப்பர்	-10.597
▁தென்மேற்கு	-10.597
▁சில்ல	-10.5973
ாற்றல்	-10.5982
▁பற்று	-10.5984
▁செல்கின்றன	-10.5984
▁முகமது	-10.5985
▁கருதப்பட்ட	-10.599
▁தரவரிசை	-10.5992
க்கொள்ளும்	-10.5999
ப்பாளர்	-10.6007
▁எகிப்த	-10.6015
▁சிலுவை	-10.6017
▁78	-10.6021
▁பெரும்பகுதி	-10.6023
போதே	-10.603
▁பந்தய	-10.6031
▁அதிகரித்து	-10.6032
▁விளையாடினார்	-10.6033
▁சிறிதளவ	-10.6039
▁ஹென்றி	-10.6039
In	-10.6046
▁தோல	-10.6049
▁மில்லியன	-10.6051
சொற்	-10.6053
▁விளங்கினார்	-10.6055
ark	-10.606
▁அளிக்கும்	-10.6062
▁தளத்தில்	-10.6064
▁இடங்களை	-10.6066
▁விமர்சகர்	-10.6067
▁கூடுதலான	-10.6067
▁வெளியேறி	-10.607
▁கற்பிக்க	-10.6073
▁ரெட்டி	-10.608
களுக்குள்	-10.6082
▁பெண்களும்	-10.6084
act	-10.6089
▁விட்டது	-10.6094
▁பதினெட்டாம்	-10.6094
▁நீரின்	-10.6095
▁வலிமையான	-10.6095
▁குண்ட	-10.61
▁பகுதிகளுக்கு	-10.6103
▁பின்பற்றி	-10.6109
▁வட்டத்தின்	-10.6111
இல	-10.6111
▁இதற்காக	-10.6116
▁நீங்கள்	-10.6118
▁மைசூர்	-10.6125
▁இறைய	-10.6129
▁ஒழுக்க	-10.6141
ாழ்வார	-10.6148
அமெரிக்க	-10.6149
▁அளிக்கப்பட்ட	-10.616
▁பொதுமக்கள	-10.6162
▁கோயிலில்	-10.6164
▁இருப்பிட	-10.6169
▁ஏதேனும்	-10.6178
ond	-10.6183
▁ஒன்றின்	-10.6185
▁லாஸ்	-10.6185
amp	-10.6187
▁ஆக்சிசன்	-10.6189
▁நீங்க	-10.6189
▁முடித்து	-10.6191
▁ஹொங்கொங்	-10.6192
▁காப்புரிமை	-10.6193
▁என்கிறார்	-10.6202
▁வழிவகுத்த	-10.6206
▁கொரியா	-10.6213
▁படைகளை	-10.6215
▁மஹா	-10.6217
▁உமிழ்	-10.6219
▁1953	-10.6227
▁பாக்கித்தான	-10.6228
▁செய்துகொண்ட	-10.6229
▁ஹூ	-10.6233
▁செய்யலாம்	-10.6233
▁உடலை	-10.6234
▁வர்ண	-10.6235
▁எடுத்தார்	-10.6237
ையூர்	-10.6242
▁பாரத	-10.6243
str	-10.6246
ப்படுவதாக	-10.6248
▁செயற்கைக்கோள்	-10.6248
ox	-10.6252
▁மாற்றாக	-10.6252
▁உருவாகிய	-10.6261
iz	-10.6272
▁அடைந்தது	-10.6276
▁ராமநாதபுரம்	-10.6276
▁அறுவடை	-10.6276
▁பூஜை	-10.6277
▁அளவீடு	-10.6279
▁தற்காலத்தில்	-10.6285
▁உணவை	-10.6286
▁நிழல	-10.6294
▁படித்தார்	-10.6296
▁இரசாயன	-10.6305
▁பிரிட்டன	-10.6305
▁விதமான	-10.6309
▁பாகிஸ்தான	-10.6313
களோ	-10.6314
▁விளையாடிய	-10.6317
▁பண்புகளை	-10.6319
ப்படுவதை	-10.6322
▁பான	-10.6325
▁பொதுமக்கள்	-10.6325
குப்த	-10.6326
▁தொலைவு	-10.6326
▁காலத்தை	-10.6327
▁முதன்மையாக	-10.6327
▁அவதார	-10.6327
▁வளர்ப்ப	-10.6328
▁டெல்லி	-10.6332
▁சூழ்ந்த	-10.6339
▁தொடங்கும்	-10.6343
▁வரையிலும்	-10.6348
▁இனத்தவர	-10.6352
▁பூமியின்	-10.6353
▁1936	-10.6354
ம்பாக்கம்	-10.6354
▁விண்டோஸ்	-10.6361
ச்சூழல	-10.6361
மளிக்க	-10.6363
▁நாளிதழ	-10.6364
▁வலுவான	-10.6366
▁உருவாகின்றன	-10.6367
▁தோல்வியடைந்த	-10.6376
ுமாவார்	-10.6377
▁அனைத்தையும்	-10.6378
▁பொருத்தமான	-10.6378
ral	-10.6382
▁கூறலாம்	-10.6383
▁பண்பாட்ட	-10.6383
▁பள்ள	-10.6386
▁சுவர	-10.6386
சிறந்த	-10.6387
▁தொகுதியிலும்	-10.6388
▁வடமேற்கு	-10.639
நாராயண	-10.639
▁ஆறாம்	-10.639
▁மூலமும்	-10.6391
▁மேம்பட்ட	-10.6394
▁சொந்தமான	-10.6395
▁தயாரித்து	-10.6396
▁முதலீட்ட	-10.6397
▁பூத	-10.6398
▁தொகுத்து	-10.64
▁எளிமை	-10.6405
▁எடுத்துக்கொள்ள	-10.6405
▁ஆளுநர்	-10.6413
▁பொம்மை	-10.6422
க்கூடாது	-10.6422
▁சரக்கு	-10.6426
▁சூர	-10.6429
▁துரு	-10.6431
ொன்றை	-10.6434
▁ஆய்வில்	-10.6438
▁அளவி	-10.6438
▁எந்திர	-10.6443
▁ஆக்சி	-10.6445
ong	-10.6445
▁வசிக்கின்றனர்	-10.6447
▁ஜனநாயக	-10.6447
▁அயர்லாந்த	-10.6451
▁காலப்பகுதியில்	-10.6451
▁அகர	-10.6456
▁இழக்க	-10.6462
வழக்க	-10.6465
▁ஆசை	-10.6473
▁ஓட்டங்களை	-10.6475
▁திருச்சபையின்	-10.6476
▁நாடுகளிலும்	-10.6476
▁கொடுக்கும்	-10.6482
▁தாயக	-10.6488
▁வறுமை	-10.6492
▁கற்றல்	-10.6496
▁எல்லைகளாக	-10.6497
கூறு	-10.6502
▁நிறுவனமாக	-10.6503
▁நூற்	-10.6504
▁அகாதமி	-10.6505
▁ஜெர்மன்	-10.6505
▁உகந்த	-10.6505
ுவதாகவும்	-10.6518
ாண்மை	-10.6518
▁கரையோர	-10.6519
▁இருக்கை	-10.6519
udi	-10.6521
▁குரூ	-10.6526
▁ஆரம்பிக்க	-10.6527
னேட்டு	-10.6531
ிருந்தால்	-10.6533
லுடன்	-10.6536
▁போன்றவற்றில்	-10.6539
▁சங்கத்தின்	-10.6542
க்கென	-10.6549
▁கொட்ட	-10.6554
ப்படுவத	-10.6555
Ar	-10.6562
▁வெற்றியை	-10.6562
▁பொதி	-10.6564
▁படுகிறது	-10.6565
▁உழைப்ப	-10.6572
ட்ரீ	-10.6573
▁தெரிந்து	-10.6575
▁கும்பகோணம்	-10.6577
▁ஐதரோ	-10.6577
கோள	-10.6579
▁இன்றி	-10.6583
▁கணவன	-10.6583
▁நரம்ப	-10.6584
▁விளைவ	-10.6594
▁தவறாக	-10.6594
▁அமர	-10.6596
▁விஞ்ஞான	-10.6597
▁போட்டியிட	-10.6602
▁இவ்விட	-10.6603
▁இளமை	-10.6604
▁வயிற்று	-10.6606
▁தகுந்த	-10.6612
▁1942	-10.6613
▁ஓவியங்கள்	-10.6614
ank	-10.6617
▁அச்சுறுத்த	-10.6622
▁சேகரிப்ப	-10.6623
▁மின்னோட்ட	-10.6624
▁அதிபர்	-10.6629
▁இடைக்கால	-10.6631
▁அளித்தார்	-10.6633
▁மேற்பார்வை	-10.6636
▁நடவடிக்கைகளை	-10.6636
▁செயற்பட	-10.664
▁உருசியா	-10.664
▁சேமிப்பு	-10.6641
▁புனே	-10.6642
▁நாளை	-10.6645
▁ஆராய்ந்த	-10.6648
▁ஏஞ்சல	-10.6654
▁தியான	-10.6656
▁உடனே	-10.6663
பயண	-10.6664
▁இமயமலை	-10.6665
▁அமர்த்த	-10.6665
ஃபெ	-10.6667
▁பயனுள்ள	-10.6667
▁1937	-10.6672
▁நடக்க	-10.6677
▁செயலக	-10.6678
▁விரிவுரை	-10.668
நிறுவன	-10.668
▁மக்களிடையே	-10.6682
ெடுக்கப்பட்ட	-10.6689
▁கிடைக்கின்றன	-10.6692
www	-10.6694
▁இவரும்	-10.6701
▁பழமை	-10.6707
▁தொழில்துறை	-10.6714
▁எரிபொருள்	-10.6722
▁ஒல்லாந்த	-10.6725
▁செய்கிறார்	-10.6727
▁காங்கிரச	-10.6734
▁மாற்றங்களை	-10.6736
▁இடையேயான	-10.6738
▁கர்தினால்	-10.6738
▁நடத்தினார்	-10.6739
▁அமைகின்றன	-10.6746
▁ஆகியோருக்கு	-10.6747
▁எழுச்சி	-10.6755
▁வாசிப்ப	-10.6757
▁செயல்திறன்	-10.676
▁பிரபலமாக	-10.6765
ிருப்பதால்	-10.6768
▁வகையாகும்	-10.6768
▁இசைத்தொகுப்ப	-10.6776
ோருக்கு	-10.6777
▁மோட்டார்	-10.6783
▁நிலக்கரி	-10.6783
▁சமமாக	-10.6787
த்திறன	-10.6788
▁வைத்திருக்க	-10.6788
▁பாரிச	-10.6792
▁யாழ்	-10.6793
▁தேயிலை	-10.6798
ந்துறை	-10.6799
▁கோவிலில்	-10.68
▁காலகட்ட	-10.68
▁கொழும்ப	-10.6802
▁இப்பெயர்	-10.6802
▁கொங்கு	-10.6804
▁தழுவ	-10.6806
▁கட்டிடங்கள்	-10.6811
▁இருப்பத	-10.6811
▁மூலதன	-10.682
▁மலாயா	-10.683
நிதி	-10.6832
ism	-10.6834
▁உறுப்ப	-10.6837
புதூர்	-10.684
▁காண்பிக்க	-10.6841
ies	-10.6841
▁தாமத	-10.6844
▁இதனுடைய	-10.6844
திகார	-10.6846
▁நிக்கோ	-10.686
▁வசிக்கும்	-10.6874
▁தொடங்கினர்	-10.688
▁தடவை	-10.6884
▁தொடங்கின	-10.6886
▁காட்டிய	-10.6888
▁பாதையில்	-10.6888
▁பாதுகாத்த	-10.6888
▁தொடர்பில்	-10.6888
▁மைதான	-10.6888
▁வேட்டை	-10.6892
▁ஆட்சியை	-10.6894
▁விடுத்த	-10.6899
▁முடித்தார்	-10.69
▁வருவது	-10.6914
▁பிரசுர	-10.692
▁விருத்தி	-10.6921
▁ஜோசப்	-10.6921
ore	-10.6922
▁புத்தர்	-10.6924
▁போதிய	-10.6927
▁மேற்கே	-10.6931
▁சாகுபடி	-10.6933
▁தரவுத்தள	-10.6934
▁நிறுவனமான	-10.694
▁போரிட்ட	-10.6941
▁தம்மை	-10.6945
வராய	-10.6952
▁அரிதாக	-10.6954
▁சமிக்ஞை	-10.6963
கிருத	-10.6975
▁உருவாக்கியது	-10.6976
one	-10.6977
மன்ற	-10.6977
▁சண்முக	-10.6978
▁லண்டன்	-10.6978
▁மதிப்பை	-10.6979
▁குழந்தைகளுக்கு	-10.6986
▁கவனிக்க	-10.6987
▁II	-10.6988
சட்டமன்றத்	-10.6989
▁இராமநாதபுரம்	-10.6993
▁பிந்தைய	-10.6993
▁நிபுணர்	-10.6996
கதிர்	-10.6996
▁சீனாவில்	-10.7003
▁di	-10.7012
▁கொரிய	-10.7013
தமிழ்நாடு	-10.7013
▁பிரகாச	-10.7022
▁ஊசி	-10.7022
▁பாலூட்டி	-10.7023
▁மலேசியாவில்	-10.7024
▁இப்படத்தை	-10.7024
▁ஜோடி	-10.7025
▁பங்காற்ற	-10.7026
▁மோதல்	-10.7026
குளோரோ	-10.7029
▁பாலை	-10.7029
▁சண்டிக	-10.7032
▁மரியாதை	-10.7033
▁சமமான	-10.7035
▁சூறாவளி	-10.7039
▁இக்கோயில	-10.7041
▁தங்கிய	-10.7042
▁இக்கோயிலின்	-10.7049
▁அங்கீகார	-10.7054
▁சமஸ்கிருத	-10.7054
▁தோற்றுவித்த	-10.7054
▁இவ்வூரின்	-10.7054
▁மாதங்களில்	-10.7057
▁நடுத்தர	-10.7058
▁பேரூராட்சி	-10.7062
▁பெருங்க	-10.7063
▁அளக்க	-10.7069
▁அமைவிடம்	-10.7071
▁ராதா	-10.7072
▁சிதைவு	-10.7072
யப்பன்	-10.7077
▁இயற்கையாக	-10.7077
▁பெறப்படும்	-10.708
▁பங்களிப்ப	-10.7082
▁வானிலை	-10.7085
▁ஆகஸ்டு	-10.7085
▁படல	-10.7085
▁பிள்ளையார்	-10.7092
▁இயல்பான	-10.7097
▁ஏதும்	-10.7101
▁கொள்ளை	-10.7101
▁கையெழுத்த	-10.7102
▁திகழ	-10.7106
▁மேற்பரப்பு	-10.7113
▁பயிற்று	-10.7115
▁கணேசன்	-10.7116
▁சப்த	-10.712
▁அதற்கான	-10.7121
IS	-10.7123
▁விதிமுறை	-10.7124
▁நியூசிலாந்து	-10.713
▁அங்குள்ள	-10.7137
▁உட்கொள்ள	-10.7137
புத்திர	-10.7138
▁மெய்யியல்	-10.7142
▁புரிய	-10.7153
tra	-10.7154
▁பறக்கும்	-10.7163
▁கமல	-10.7165
▁வலய	-10.7171
▁வரம்பு	-10.7171
▁ஐதராபாத்	-10.7177
▁முற்பட்ட	-10.7177
▁மீட்ப	-10.7181
ப்படுகிற	-10.7187
▁செட்டி	-10.7188
களாவர்	-10.719
▁காவிய	-10.7194
ous	-10.7206
ome	-10.7216
ச்சேர்ம	-10.7221
▁அமினோ	-10.7223
▁பைரவர்	-10.7223
▁தாமரை	-10.7224
க்காய்	-10.723
▁பெறுகின்றன	-10.7231
▁பாண்டியர்	-10.7234
▁கண்டுபிடித்தார்	-10.7236
லுக்கான	-10.7238
▁புரு	-10.7248
▁முன்னிலையில்	-10.7254
▁உற்சவ	-10.7254
▁பணத்தை	-10.7254
▁வருடங்களுக்கு	-10.7257
ிறோம்	-10.7257
▁Ar	-10.7268
▁மகிழ	-10.7268
▁தோராயமாக	-10.727
▁வலுவ	-10.7276
▁பகுதிகளாக	-10.7278
▁விஞ்ஞானி	-10.7279
▁பின்புற	-10.7287
▁சிக்கல	-10.7291
▁தடுத்து	-10.7306
▁பயின்று	-10.7308
ேஸ்வரி	-10.7318
▁தெளிவான	-10.733
▁தனித்துவமான	-10.7332
▁நீண்டகால	-10.7333
▁வாழ்நாள்	-10.7335
▁நிபந்தனை	-10.7348
▁வளைகுடா	-10.7348
▁கால்சியம்	-10.7348
பருவ	-10.7354
▁1941	-10.7354
▁இடங்களுக்கு	-10.7357
▁முதுகு	-10.7362
▁செயலாளராக	-10.7363
▁தமிழீழ	-10.7364
▁சுட்டிக்காட்ட	-10.7364
▁இங்கிலாந்தின்	-10.7367
▁வோல்	-10.7368
▁எகிப்திய	-10.7374
▁மருத்துவமனையில்	-10.7374
▁படையெடுப்பு	-10.7377
ச்சொல்ல	-10.7378
▁ஆகையால்	-10.738
▁படுக்கை	-10.738
▁முன்னால்	-10.7391
▁பாடியுள்ளார்	-10.7395
▁ஷே	-10.7396
கார்பன	-10.7397
IV	-10.7398
▁கருதப்படுகிறார்	-10.7399
மெய்	-10.7401
▁இறைச்சி	-10.7411
▁பெருநகர	-10.7411
கவுண்ட	-10.7427
▁இரவில்	-10.7429
▁விளங்கி	-10.7431
▁அரசியலில்	-10.7433
விலேயே	-10.7442
▁செறிவு	-10.7442
ture	-10.7443
▁எவ்வளவு	-10.7443
▁விண்கல	-10.7443
▁இப்படத்தில்	-10.7443
▁நகரமாகும்	-10.7447
▁துல்லியமாக	-10.7449
▁1934	-10.7449
▁இயல்ப	-10.7451
யுடனும்	-10.7451
▁இடங்களிலும்	-10.7456
▁கூறியுள்ளார்	-10.7458
▁ஏற்படுத்தியது	-10.7458
▁கடலோர	-10.7459
க்கேற்ப	-10.7459
▁சினிமா	-10.7459
▁சீனிவாச	-10.7461
▁சிந்தி	-10.7461
யிலே	-10.7473
▁எளிமையான	-10.7474
▁இம்மாவட்டத்தில்	-10.7474
▁படையெடுத்த	-10.7476
▁மூடப்பட்ட	-10.7479
தொலை	-10.7479
▁எகிப்து	-10.7488
▁ஆயிரக்கணக்கான	-10.749
und	-10.7497
▁மந்திரி	-10.7498
▁உணர்வ	-10.7499
மெண்ட்	-10.7505
▁படிப்பறிவு	-10.7506
▁சந்தித்து	-10.751
▁வன்னி	-10.7513
நெல்	-10.7515
வேண்டுமென்ற	-10.7517
▁சரணாலய	-10.7523
▁சட்டசபை	-10.7527
ந்ந	-10.753
▁இத்திரு	-10.7536
▁ஃபே	-10.7537
▁ஆஞ்சநேயர்	-10.7538
▁தெரியாத	-10.7538
▁கூட்டுறவு	-10.7541
▁படிநிலை	-10.7544
வாள்	-10.7544
▁சிதைவ	-10.7547
▁பட்டமும்	-10.755
▁சேர்மங்கள	-10.7552
சிற்றிதழ்	-10.7556
▁ஆத்திரேலியா	-10.7563
ருமேனிய	-10.7568
▁போதை	-10.7569
▁இறக்கை	-10.7569
▁பத்தாண்டு	-10.757
▁முல்லை	-10.7572
யளித்த	-10.7576
▁1938	-10.7578
▁வலையமைப்பு	-10.7578
ாததால்	-10.7578
▁கூற்று	-10.7581
▁கூறுகின்றன	-10.7583
▁ஏற்படலாம்	-10.7586
▁சிரம	-10.7589
▁விரிவாக	-10.7594
▁ஏனென்றால்	-10.7603
▁வாழ்வில்	-10.7609
SO	-10.7616
றீ	-10.7617
▁படப்பிடிப்பு	-10.7619
▁நிலநடுக்க	-10.7619
▁விருத	-10.7622
ூடாக	-10.7622
ஜூ	-10.7629
▁விதத்தில்	-10.763
வாழ்வு	-10.7631
நைட்ர	-10.7632
ack	-10.7633
▁மாணவர்களுக்கு	-10.7634
no	-10.7634
▁இப்பறவை	-10.7635
ஜ்ஜ	-10.7638
வார்ட்	-10.7641
▁மாணிக்க	-10.7652
சவ்வ	-10.7656
வாய்ந்த	-10.7662
▁கூறுவர்	-10.7664
க்கொடி	-10.7667
குழல்	-10.7671
▁அதிபர	-10.7673
▁எருசலேம	-10.7683
▁கிரிக்கெட்	-10.7687
▁ராயல்	-10.7688
▁யுத்த	-10.7695
gen	-10.7698
▁தொங்க	-10.7698
▁நிறுவனங்களின்	-10.7701
▁மில்லி	-10.7702
▁உறவினர்	-10.7703
▁பிரிந்த	-10.7704
tri	-10.7708
▁இடத்தையும்	-10.7712
▁மைக்ரோ	-10.7716
▁விடுமுறை	-10.7716
▁எனப்படுவது	-10.7717
▁1943	-10.7722
▁நியமித்த	-10.7727
▁வழு	-10.7731
▁தாமிர	-10.7731
▁செய்துள்ளார்	-10.7733
▁பேரின	-10.7735
▁ஆரம்பித்தார்	-10.7737
▁ஈடுபட்டார்	-10.7741
▁குளிர	-10.7745
▁குறுக்கு	-10.7746
▁ஏவுகணை	-10.7749
▁அத்தகைய	-10.7749
▁காய்கறி	-10.7749
▁நிறுவனத்தால்	-10.7749
ஹீ	-10.7757
▁பௌ	-10.7761
ரீதியாக	-10.7763
ீஸ்வர	-10.7769
ரீதியான	-10.7773
▁தலைநகரமாக	-10.7776
▁விஸ்வநாத	-10.7781
▁Mo	-10.7789
▁சூடான	-10.7791
விளக்க	-10.7795
OH	-10.7798
▁இரகசிய	-10.7801
▁நாட்காட்டி	-10.7803
▁யோவான்	-10.7804
▁மூடிய	-10.7805
▁நிச்சய	-10.7815
▁வெண்கல	-10.7818
ett	-10.7819
▁திருப்பி	-10.7819
▁ஃபார்	-10.7822
ப்பதிவு	-10.7822
▁1935	-10.7823
னீசிய	-10.7824
▁தேர்ச்சி	-10.7824
▁வெறும்	-10.7825
▁பயின்ற	-10.7829
▁தீபகற்ப	-10.7831
▁துருக்கிய	-10.7832
▁ஆதரவாக	-10.7835
ிரண்டு	-10.7836
▁பிரிவினை	-10.7843
புளோர	-10.7855
▁மேலான	-10.786
▁இப்பிரிவு	-10.7861
▁கொல்லப்பட்டனர்	-10.7864
▁மோகன்	-10.7869
▁1929	-10.7872
▁ஆரம்பகால	-10.7875
▁பிற்கால	-10.7878
ப்படுவதற்கு	-10.788
▁இயங்குதள	-10.788
▁எவ்வித	-10.788
▁பிரச்சார	-10.7881
▁ரஷ்ய	-10.7881
▁கடத்தி	-10.7882
நிகழ்	-10.7889
▁ஆற்றில்	-10.7895
▁பரவலான	-10.7897
சதுர	-10.7898
ிறக்க	-10.7898
ிறேன்	-10.7909
▁வடிவமைக்க	-10.791
▁தொலைநோக்கி	-10.7915
▁org	-10.7917
▁புறநகர்	-10.7919
▁அறிவியலாளர்	-10.7919
ாயுத	-10.7924
▁துவார	-10.7931
▁புரிந்தார்	-10.7933
▁இக்கல்லூரி	-10.7943
மூட்ட	-10.7944
களில	-10.7944
▁எடுத்துக்கொண்ட	-10.7951
▁ஏற்படுத்திய	-10.7954
▁மாநாட்டில்	-10.7964
▁ஏற்பாட்ட	-10.7969
▁மலாய்	-10.7983
▁இயக்குநராக	-10.7991
▁நிகர	-10.7993
▁ஸ்காட்	-10.7996
▁பிரான்சின்	-10.7996
▁அதிகப்படியான	-10.7997
▁காப்பக	-10.8
ick	-10.8001
▁பேசப்படுகிறது	-10.8006
az	-10.8009
▁கணிசமான	-10.8014
▁குறைந்தபட்ச	-10.8014
▁அசுர	-10.8014
▁சாப்பிட	-10.8016
▁கவர்ந்த	-10.8017
▁தீவிரமாக	-10.8018
▁நியாய	-10.8027
▁உருளை	-10.8032
▁சித்தர்	-10.8041
▁ஆண்களுக்கு	-10.8045
▁திட்டமிடப்பட்ட	-10.8047
▁இயற்பெயர்	-10.8048
▁பலவீன	-10.8048
▁சிறுநீரக	-10.8048
▁புலமை	-10.8052
▁பரவி	-10.8053
▁எடுத்துக்காட்ட	-10.8055
▁வெளியாகி	-10.806
▁மறுமலர்ச்சி	-10.8064
▁ஆதரித்த	-10.8066
▁சேகரித்த	-10.8066
▁முடிவடைந்த	-10.8067
▁பெற்றோர	-10.8068
▁தெரிவ	-10.8072
▁பாரிய	-10.8072
▁கண்காட்சி	-10.8081
▁ஆகியோருடன்	-10.8089
▁நினைவக	-10.8102
▁தெற்க	-10.8104
▁வாழ்வு	-10.8104
100	-10.8104
யாவார்	-10.8106
▁கிறிஸ்துவ	-10.8109
▁வேட்பாளர	-10.8111
▁உரிமையாளர்	-10.8112
▁கொண்டுவரப்பட்ட	-10.8112
▁தாண்டவ	-10.8115
▁விடுவிக்க	-10.8115
▁கருதப்பட்டது	-10.8116
▁நிற்கும்	-10.8117
▁வாசிக்க	-10.8119
▁கொடுமை	-10.8119
▁மீன்பிடி	-10.8126
▁இரயில்வே	-10.8128
▁50%	-10.8133
▁சமன்பாட்ட	-10.8134
▁நீலகிரி	-10.8137
▁நிறுவனங்களில்	-10.8139
▁வளைவு	-10.8145
ருள்	-10.8148
▁ஏதாவது	-10.8149
▁கதிர்வீச்சு	-10.8151
விட்டனர்	-10.8153
▁தோன்றினார்	-10.8155
ாண்டில்	-10.8156
நாய்	-10.8156
அதாவது	-10.816
▁ஷோ	-10.8161
▁கூரை	-10.8163
▁மகனான	-10.817
▁கலவர	-10.8175
▁முரண்	-10.8181
▁கொலம்பியா	-10.8183
▁உறுப்பினர	-10.8192
▁இங்கிருந்து	-10.82
வெட்டி	-10.8201
ிலிருக்கும்	-10.8207
▁அற்புத	-10.8217
▁அலுவல்	-10.8217
▁அவ்வப்போது	-10.8218
▁மதிப்பீட்டின்	-10.8218
▁செறிவ	-10.8218
▁அடைந்தார்	-10.8222
மடைய	-10.8223
ப்பிரிவு	-10.8224
▁கருதப்படுகின்றன	-10.8225
▁வெளிச்ச	-10.8231
ுயிரி	-10.8235
வசிக்கின்றார்கள்	-10.8252
▁விருதினை	-10.8254
▁எல்லோர	-10.8256
▁குடியேறிய	-10.8268
▁பெல்ஜிய	-10.8269
▁இறைவி	-10.8271
▁அதிலிருந்து	-10.8272
தொடர்பு	-10.8273
▁250	-10.8275
▁நமக்கு	-10.8276
▁போராளி	-10.8289
▁பெயரிட	-10.829
IC	-10.8295
▁எதிர்த்த	-10.8295
▁போதனை	-10.8297
▁முக்கோணத்தின்	-10.8299
வாசக	-10.8303
▁வழிநடத்த	-10.8303
▁அப்பொழுது	-10.8304
தொழில	-10.8306
ாக்சி	-10.8308
▁புற்றுநோய	-10.8311
▁பின்னால்	-10.8316
▁சாளுக்கிய	-10.8321
▁விக்டோரியா	-10.8321
▁வைகுண்ட	-10.8321
▁மார்க்க	-10.8324
▁சரண	-10.8327
▁சந்திப்ப	-10.8331
▁ஆறாவது	-10.8338
▁1931	-10.8346
▁வாங்கிய	-10.8348
▁கொம்பு	-10.8353
▁வைகாசி	-10.8356
▁சமச்சீர	-10.8356
▁விண்ணப்ப	-10.8357
▁பிரான்ஸ்	-10.8365
▁உலகளவில்	-10.8369
▁ஒளிப்பதி	-10.8369
குழந்தை	-10.837
ிருப்பதை	-10.8371
▁பிரேசில்	-10.8375
▁அரியலூர்	-10.8376
▁அறிவுரை	-10.8381
▁குற்றவாளி	-10.839
▁அகராதி	-10.8391
▁வயதான	-10.8392
▁தெளிவு	-10.8399
மண்டப	-10.8405
▁நிரல	-10.8406
▁ஆட்டோ	-10.8408
▁இயங்குகிறது	-10.8422
▁தலைவன	-10.8424
▁ஆண்டிலிருந்து	-10.8428
▁வேறுபாட்ட	-10.8431
▁யுரேன	-10.8435
▁கோயிலுக்கு	-10.8443
▁டைம்ஸ்	-10.8445
▁என்பதோடு	-10.8448
▁ஆழ்ந்த	-10.8449
▁நாட்காட்டியில்	-10.8472
▁வெளிப்பாடு	-10.8473
▁ரஷ்யா	-10.8478
▁அறிவுறுத்த	-10.8479
▁அழைக்கப்படுகிறா	-10.848
தமிழ	-10.8488
▁வரையப்பட்ட	-10.8493
▁மேளகர்த்தா	-10.8495
▁ரிச்சர்ட்	-10.8495
▁முடியாமல்	-10.8505
▁நெருப்ப	-10.8506
▁வகித்தார்	-10.8506
▁இணைக்கிறது	-10.8508
▁அழகான	-10.8512
▁அபிவிருத்தி	-10.8513
▁கிறித்துவ	-10.8513
▁கறுப்பு	-10.8514
▁வெண்மை	-10.8523
▁பொறியியல	-10.8527
புளோரைட	-10.8528
▁சுற்றுப்பயண	-10.8531
▁ஆழமான	-10.8533
▁கவனத்தை	-10.8534
▁இவா்	-10.8535
log	-10.8539
ஃபே	-10.8546
▁காற்பந்து	-10.8548
▁மின்காந்த	-10.8549
▁அநேக	-10.8549
▁மொழிபெயர்க்க	-10.8549
▁கர்ப்ப	-10.8553
mon	-10.8556
▁விவரித்த	-10.8569
▁இவ்வமைப்ப	-10.8571
▁விரும்பிய	-10.8579
▁பிரான்சிசு	-10.8584
▁வாயில	-10.8591
▁கணபதி	-10.8597
ாச்சாரி	-10.8598
▁மெய்யியல	-10.8598
▁வழக்கறிஞர்	-10.8602
▁தெற்காசிய	-10.8602
▁தலைவரான	-10.861
மொன்ற	-10.8616
▁ஊதிய	-10.862
▁நடக்கிறது	-10.8625
▁திருமலை	-10.863
▁திரும்பினார்	-10.8631
ரெய்	-10.8631
▁மயில	-10.8633
▁கிராமப்புற	-10.8646
▁சிறுநீர்	-10.8651
▁பொழுதுபோக்கு	-10.8656
▁ஆராய்ச்சியாளர்	-10.8657
▁பட்டியலிட	-10.866
▁பிரிவுகளாக	-10.8662
குளோர	-10.8666
▁சனிக்கிழமை	-10.8673
▁நூற்ற	-10.8676
app	-10.8676
▁நடராஜ	-10.8677
கொள்கின்றனர்	-10.868
உலக	-10.8684
நூல	-10.8685
▁குஞ்சு	-10.8686
oll	-10.8687
▁அகவையில்	-10.8692
▁பிணைப்ப	-10.8699
▁சமாதி	-10.8701
▁சேகரிக்க	-10.8709
▁அழைக்கின்றனர்	-10.8715
▁அறநிலைய	-10.8726
▁திகழ்கிறது	-10.8727
▁மேம்பாடு	-10.8728
▁பிரான்சிஸ்	-10.8728
▁ஏமாற்ற	-10.8738
▁வெற்றிபெற்ற	-10.8739
▁அல்லாமல்	-10.8742
▁பொற்	-10.8743
▁சொற்பொழிவ	-10.8746
▁மிகுதி	-10.8746
▁ஜம்மு	-10.8746
▁வேற	-10.8747
▁ஈரப்பத	-10.8753
▁ஆத்திரேலிய	-10.8753
▁எச்சரிக்கை	-10.8763
க்கொள்வத	-10.877
▁கிடைப்பத	-10.8773
▁கவச	-10.8777
▁சான்றிதழ்	-10.8781
▁இராமாயண	-10.8781
பாண்டிய	-10.8791
▁அளிக்கிறது	-10.8794
▁இடைமுக	-10.8796
▁அனுப்பப்பட்ட	-10.8797
▁மாதங்களுக்கு	-10.8802
▁அலைவரிசை	-10.8802
க்கல்லூரி	-10.8804
▁அவனுக்கு	-10.8804
▁மிதமான	-10.8804
▁புனைவு	-10.8805
▁இக்குழு	-10.8807
▁முந்திய	-10.8817
▁ஐதராக்சைடு	-10.8818
▁செல்சியசு	-10.8818
▁பொறுத்தவரை	-10.8821
▁ஈராக்	-10.8821
கணித	-10.8825
oph	-10.8831
நீதி	-10.8833
▁தாமஸ்	-10.8838
▁மயக்க	-10.8838
குறிச்சி	-10.8841
▁புல்ல	-10.8843
▁வளர்ச்சியடைந்த	-10.8847
▁அவருடன்	-10.8848
▁பெண்மணி	-10.8855
▁நினைக்க	-10.8868
▁பன்றி	-10.8872
▁சுவிட்சர்லாந்த	-10.8872
▁மூலிகை	-10.8873
▁இவ்வூரில்	-10.8877
▁நண்பர	-10.8884
ance	-10.8885
▁மறைமாவட்ட	-10.8891
▁சுருங்க	-10.8894
▁முன்வைத்த	-10.8897
▁அடுத்தடுத்த	-10.8906
ிருக்கின்றது	-10.8906
ft	-10.8909
▁தங்களுடைய	-10.8909
▁துர்க்கை	-10.8909
▁அழிவு	-10.891
▁இசைக்கருவி	-10.8915
▁கழித்த	-10.892
▁தினமும்	-10.892
▁விரிவுபடுத்த	-10.8928
▁தாய்லாந்து	-10.8929
▁கொண்டாட்ட	-10.893
▁பூர்த்தி	-10.8931
▁1932	-10.8936
▁துரித	-10.8942
▁பற்றாக்குறை	-10.8946
▁தொடங்குகிறது	-10.8955
▁கிருஷ்ணா	-10.8958
▁வினையூக்கி	-10.8964
▁பரிமாற	-10.8967
▁நுண்ணுயிரி	-10.897
▁ஊற்ற	-10.8971
புராண	-10.8996
ினதும்	-10.9002
▁மொழிபெயர்ப்ப	-10.9003
▁சேர்ப்ப	-10.901
▁ஜனாதிபதி	-10.902
▁ஏழாம்	-10.902
▁பரப்பளவைக்	-10.9022
▁வழிபாட்ட	-10.9029
van	-10.903
ப்பொருளாக	-10.903
▁பாய்ம	-10.9034
▁இயக்கியுள்ளார்	-10.9037
q	-10.9038
▁எபிரேய	-10.9038
▁உலகக்கோப்பை	-10.9038
▁நெஞ்ச	-10.9041
க்ளோ	-10.9042
▁காப்பிய	-10.9052
▁நெட்வொர்க்	-10.9057
▁அன்றாட	-10.9057
ஸெ	-10.9059
▁பாண்டவர்	-10.9062
▁இசுரேல	-10.9062
▁கைப்பற்றினார்	-10.9063
▁ஹொ	-10.9069
▁கதாநாயகன	-10.9076
▁நிரலாக்க	-10.9077
▁கோதுமை	-10.9078
▁கொள்கின்றன	-10.908
Per	-10.9087
▁பரிணாம	-10.9095
▁வேற்றுமை	-10.9095
▁மலேசியாவின்	-10.9102
▁செயல்திறன	-10.9108
▁தங்கியிருந்த	-10.9113
▁ஆக்கிரமிப்ப	-10.9113
▁சமீபத்திய	-10.9113
▁திரையரங்க	-10.9114
▁ஒதுக்கப்பட்ட	-10.9114
▁செய்கின்ற	-10.9115
▁குரல	-10.9116
▁விளங்குகின்றது	-10.9119
▁கிழமை	-10.9128
▁பழங்குடியினர	-10.9128
▁விவகார	-10.9132
ook	-10.9134
தெய்வ	-10.914
▁அதிகாரபூர்வ	-10.9143
▁நிகழ்கிறது	-10.9162
▁இறுக்க	-10.9164
ust	-10.9165
▁மைக்ரோசாப்ட்	-10.917
▁பள்ளத்தாக்க	-10.9174
▁விசாக	-10.9185
▁குறைவாகவே	-10.9187
▁தமக்கு	-10.9189
▁உயிரிழந்த	-10.9189
▁நிர்ணய	-10.9198
▁இரத்தின	-10.9199
▁பொறியாளர்	-10.92
▁வானியலாளர்	-10.9205
▁மகாராட்டிர	-10.9209
▁துருக்கி	-10.9214
▁சொத்துக்கள	-10.9217
▁கம்யூனிஸ்ட்	-10.9226
▁ஸ்டுடியோ	-10.9226
▁நுழைவாயில	-10.9231
▁ரோஜா	-10.9239
▁பிரீமியர்	-10.9245
▁சிவராத்திரி	-10.9245
▁வைட்டமின்	-10.9245
▁விரிகுடா	-10.9245
▁இயற்கணித	-10.9246
▁1900	-10.9247
▁ஸ்டெ	-10.926
▁பொதுநலவாய	-10.9264
▁நொடி	-10.9275
▁தாவரவியல்	-10.9284
▁திட்டங்களை	-10.9286
ja	-10.9293
▁வகுக்க	-10.9297
▁வாழ்கின்றன	-10.9297
▁தெரிவிக்கின்றன	-10.93
▁நெகிழி	-10.9303
▁கௌதம	-10.9307
▁முனிவர	-10.9309
▁வேண்டுமென	-10.9314
ளவிலான	-10.9314
▁வழிகாட்டி	-10.9319
John	-10.9322
▁பண்டார	-10.9325
ாவத	-10.9326
▁செய்முறை	-10.9339
▁ஆற்காடு	-10.9341
▁வடமேற்க	-10.9343
▁வாரிசு	-10.9345
▁ஞாயிற	-10.9348
▁குழாய	-10.9354
▁பிரிவினர	-10.9354
க்கொண்டிருந்த	-10.9356
▁அரக்கோணம்	-10.936
▁முதுகெலும்ப	-10.936
▁கோலாலம்பூர	-10.936
▁சித்தாந்த	-10.9361
▁புதுப்பிக்க	-10.9363
ung	-10.9364
எஃப்	-10.9365
800	-10.9372
▁ஆகியவற்றுக்கு	-10.9374
▁புயல	-10.9375
▁ஊட்டச்சத்து	-10.9379
▁அனந்த	-10.939
▁பிரித்தெடுக்க	-10.9398
▁தோன்றுகிறது	-10.9412
▁ஆலோசகர	-10.9418
▁விநாயக	-10.9425
ஆக்சைட	-10.9431
ுதலுக்கு	-10.9433
▁அடங்குவர்	-10.9439
▁சங்கீத	-10.944
▁யாரும்	-10.9445
▁கிடைக்கவில்லை	-10.9451
▁இன்றியமையாத	-10.9456
▁வெற்றிகரமான	-10.9456
▁தினசரி	-10.9456
▁மகேந்திர	-10.9462
ood	-10.9462
▁திருத்தல	-10.9471
▁குழல	-10.9472
▁மெக்சிக்கோ	-10.9476
▁யூனியன்	-10.9476
த்தோற்ற	-10.9481
▁1928	-10.9486
▁ஃப்ள	-10.949
▁வாக்காளர்	-10.9497
▁விருதுநகர்	-10.9502
▁வீச்சு	-10.9506
▁ஆகியோரால்	-10.9514
▁எலிசபெத்	-10.9515
▁ஊக்குவிக்க	-10.9515
▁ஆபிரிக்க	-10.9527
▁என்னுமிடத்தில்	-10.9534
▁இலண்டன்	-10.9534
▁வான்படை	-10.9535
▁US	-10.9536
▁மட்டுமன்றி	-10.9554
▁மெய்யெண்	-10.9555
களிலுள்ள	-10.9559
பூர்வமாக	-10.957
▁அட்லாண்டிக்	-10.9573
▁நுண்ணுயிர்	-10.9573
▁நிரூபிக்க	-10.9573
▁பீரங்கி	-10.9574
▁வேண்டுகோள	-10.9574
▁இறகு	-10.9574
▁வயதிலேயே	-10.9577
▁கர்நாடகா	-10.9582
▁என்பவற்றை	-10.9589
▁முழுதும்	-10.9608
▁பூஞ்சை	-10.9613
▁படைத்துறை	-10.9617
▁கனடிய	-10.962
▁1924	-10.9623
▁சிலப்பதிகார	-10.9633
▁1919	-10.9635
கொள்வதற்கு	-10.9636
▁பின்வாங்க	-10.9641
நம்பிக்கை	-10.9655
▁முதலாளி	-10.9657
▁ஆகியவற்றுடன்	-10.9667
பூரில்	-10.9674
ava	-10.9676
▁நுழைவு	-10.9678
▁1933	-10.968
▁பாதிக்கப்பட	-10.9681
▁மாறுபாடு	-10.9692
▁அரண்	-10.9707
▁பெங்களூர்	-10.9712
▁கொண்டவையாக	-10.9716
▁வித்யா	-10.9719
▁Pro	-10.9731
▁அருகாமையில்	-10.9732
▁வினைபுரிந்து	-10.9732
▁கணக்கெடுப்பு	-10.9732
▁எசுப்பானியா	-10.9739
▁நிர்ணயிக்க	-10.9742
▁தொகுத்த	-10.9744
▁மாபெரும்	-10.9752
▁ஜொ	-10.9755
▁நன்கொடை	-10.9772
▁முழுவதிலும்	-10.9772
▁சற்றே	-10.9772
▁இறங்கி	-10.9773
▁செய்வதற்காக	-10.9778
ock	-10.9784
▁விஷயங்கள	-10.9788
▁கழுத்து	-10.9788
▁பிரகடன	-10.9792
▁அதிர்ச்சி	-10.9792
த்தொடங்க	-10.9793
நியூ	-10.9801
▁சுருள்	-10.9811
▁விருத்த	-10.9811
▁மட்டுமல்லாமல்	-10.9812
▁வான்காணக	-10.9812
▁அதனுடைய	-10.9814
▁அம்சங்களை	-10.9823
▁1925	-10.9826
▁புகையிலை	-10.9832
▁வெளிப்படையாக	-10.9832
▁அக்கறை	-10.9833
▁அண்ணாமலை	-10.9836
▁வாசித்த	-10.9849
▁மூவர	-10.9852
சுப்ரமணிய	-10.9852
▁இந்நிகழ்வ	-10.9852
▁நடைமுறைப்படுத்த	-10.9853
▁கவர்ச்சி	-10.9853
▁பரிமாண	-10.9854
▁அதற்க	-10.9855
▁வணக்க	-10.9855
▁மக்களாட்சி	-10.9856
▁நேர்மின்	-10.9864
▁பத்தாம்	-10.9874
▁அந்நாட்ட	-10.9876
▁செயற்பட்ட	-10.9888
war	-10.9889
▁கண்காணிக்க	-10.9893
▁இளவரசி	-10.9893
ராட்டிர	-10.9893
யதுக்குட்பட்டோர்	-10.9893
▁தந்தையார்	-10.9894
Man	-10.9906
▁கலந்துகொண்ட	-10.9906
▁இப்படத்தின்	-10.9914
▁பெங்களூரு	-10.9914
ுமானால்	-10.9917
▁விளைபொருள	-10.9918
▁எக்சு	-10.9919
சமுத்திரம்	-10.9927
▁இருக்காது	-10.9928
ாயினும்	-10.9932
▁காலப்போக்கில்	-10.9933
▁நிறமாலை	-10.9939
▁போன்றோர	-10.9943
களாவன	-10.9947
▁பேதுரு	-10.9954
▁பொங்கல்	-10.9961
அரச	-10.9961
akka	-10.9961
NO	-10.9966
ங	-10.9973
▁மேற்கிந்திய	-10.9974
▁வேறொரு	-10.9975
▁மற்றொன்று	-10.9987
பூர்வமான	-10.9991
▁ஒடிசா	-10.9995
▁செல்வாக்க	-11.0002
▁நடைபெறுகின்றன	-11.0004
▁இயல்பாக	-11.0006
▁வசிப்ப	-11.0006
ost	-11.0012
▁இருபதாம	-11.0016
▁மீட்க	-11.0017
▁1926	-11.0025
ology	-11.0036
▁ஆப்பிள்	-11.0038
▁இப்பாடல	-11.0046
▁மிருக	-11.0052
கீழ	-11.0056
▁மட்டுமின்றி	-11.0056
▁மகாத்மா	-11.0057
▁புளோரைடு	-11.0059
▁கருதுகோள	-11.006
▁ஒன்றே	-11.006
▁அதேவேளை	-11.0062
▁திசையன்	-11.0072
▁சிப்பாய்	-11.0077
▁இப்பொழுது	-11.008
▁தயாராக	-11.0082
▁1921	-11.0089
▁கேட்ப	-11.0095
▁இணக்க	-11.0106
▁திருகோணமலை	-11.0118
▁பயங்கர	-11.0118
National	-11.0118
▁திபெத்திய	-11.0119
▁அனைத்த	-11.0124
தூதர்	-11.0126
▁ஆத்ம	-11.0129
▁வெளிநாடு	-11.0131
ப்படுபவர்	-11.0134
▁கட்சியைச்	-11.0137
▁செருமானிய	-11.0139
▁அலெக்சாண்டர	-11.0139
▁ஒப்பிடுகையில்	-11.014
▁மென்மையான	-11.0141
▁கல்வெட்ட	-11.0144
மட்டத்திலிருந்து	-11.0149
▁துல்லியமான	-11.0152
Am	-11.016
▁ஸ்பெயின	-11.0168
▁கபில	-11.0171
▁அரசியலமைப்ப	-11.0173
▁நெருக்கமாக	-11.018
▁அதிரடி	-11.018
▁மூலக்கூற	-11.0186
▁உருமாற்ற	-11.0191
▁சமாதான	-11.0201
▁இன்னமும்	-11.0202
▁பயன்படுகின்றது	-11.0204
▁வகிக்கிறது	-11.0205
▁திடீரென	-11.0208
▁உருவாவத	-11.0223
▁அவசியமாக	-11.0228
ுணர்ச்சி	-11.0234
▁இறக்குமதி	-11.0243
▁படைப்பிரிவு	-11.0246
▁திசுக்கள	-11.0258
▁ஆழ்வார்	-11.0264
இதழ்	-11.027
▁1912	-11.0285
▁கல்கத்தா	-11.0285
▁குரங்கு	-11.0286
▁செவ்வாய்	-11.029
▁ஒழுங்குபடுத்த	-11.029
▁டெட்ரா	-11.0294
▁கைவிடப்பட்ட	-11.0295
▁ஈடுபடுத்த	-11.0301
▁கருணாநிதி	-11.0306
▁இனக்குழு	-11.0323
▁சுண்ணாம்பு	-11.0327
▁தேங்காய்	-11.0327
▁பிரபஞ்ச	-11.0327
▁முழுவதுமாக	-11.0328
▁குணப்படுத்த	-11.0333
▁வெறுப்ப	-11.0341
▁சாம்பியன்	-11.0348
▁மகரந்த	-11.0349
▁ரோமானிய	-11.035
நுட்ப	-11.0356
▁1922	-11.0359
▁பட்டியலிடப்பட்ட	-11.0361
▁புகார	-11.0367
ாமலும்	-11.0369
▁தணிக்கை	-11.037
▁துடுப்ப	-11.0376
▁பொள்ளாச்சி	-11.0391
▁முஸ்லீம்	-11.0391
▁சப்பானிய	-11.0391
▁வீட்டிற்கு	-11.0394
▁வாசகர்	-11.0402
▁பெரிதாக	-11.0408
▁திபெத்	-11.0409
▁சிவலிங்க	-11.0412
▁Jump	-11.0412
▁அனைவருக்கும்	-11.0415
▁எங்கும்	-11.0415
▁அரசியல	-11.0426
ிற்கே	-11.043
▁எப்போது	-11.043
▁முன்வைக்க	-11.0431
▁நிலத்தடி	-11.0434
▁சமகால	-11.0437
▁ஆதரவாளர்	-11.044
ினூடாக	-11.0453
▁மொழிபெயர்த்த	-11.0457
▁நகர்ப்புற	-11.0462
▁அப்படியே	-11.0465
த்தொழில்	-11.0467
▁அகன்ற	-11.047
▁நிறமற்ற	-11.0473
▁துத்தநாக	-11.0477
▁இக்கோவில்	-11.0481
▁முடுக்க	-11.0503
▁கோளாறு	-11.0521
▁ரகசிய	-11.0541
▁தொழிற்துறை	-11.0543
▁மேற்படி	-11.0543
▁நச்சுத்தன்மை	-11.0544
▁பண்டித	-11.0551
▁செங்கிஸ்	-11.0563
▁எட்டாம்	-11.0565
▁படையெடுப்ப	-11.0566
▁புரிந்துகொள்ள	-11.0566
▁அம்பல	-11.0571
▁அவ்விட	-11.0579
▁வரதராஜப்பெருமாள	-11.058
▁புல்வெளி	-11.0585
▁இருக்கிற	-11.0585
▁மிகச்சிறந்த	-11.0585
▁வடிகட்ட	-11.0598
▁ரீதியில்	-11.0606
▁சாம்பியன்ஷிப்	-11.0607
▁இணையதள	-11.0611
பயிற்சி	-11.0614
▁விஜயநகர	-11.0616
இலங்கை	-11.0616
▁1923	-11.0617
▁செயலாற்ற	-11.0625
▁அதேபோல	-11.0627
▁கோடைக்கால	-11.063
▁ராஜஸ்தான்	-11.0631
▁மேலதிக	-11.0632
கொள்கின்ற	-11.0633
▁மதிப்பெண்	-11.0635
▁கல்லீரல்	-11.065
▁பங்கேற்ப	-11.0672
▁சனத்தொகை	-11.0672
▁அதிகரிக்கிறது	-11.0679
▁இங்கிலாந்த	-11.068
▁வாதிட	-11.0683
▁டபிள்யூ	-11.0694
▁குடியுரிமை	-11.0694
▁வளர்சிதை	-11.0694
▁இவர்களது	-11.0694
ப்படுவார்	-11.0696
▁சதுப்பு	-11.0697
▁ஆளுனர	-11.0708
கொழு	-11.0714
▁எக்ஸ்பிரஸ்	-11.0716
▁வறண்ட	-11.0718
▁மாற்றியமைக்க	-11.0721
▁துறந்த	-11.0725
▁நூலாசிரியர	-11.0735
▁கல்வியறிவான	-11.0738
▁கவிஞர	-11.0742
▁மணிநேர	-11.0747
▁அவரிடம்	-11.0748
▁செயல்படுகின்றன	-11.0751
▁கூழ்	-11.0755
▁குற்றச்சாட்டு	-11.076
▁மசூதி	-11.076
▁அடர்ந்த	-11.0764
கடவுள	-11.0765
▁உவமை	-11.0765
▁நீடிக்க	-11.0767
▁1914	-11.0777
▁தொகுக்க	-11.0778
▁கையொப்ப	-11.0782
▁கூற்றுப்படி	-11.0784
பெங்களூர	-11.0792
மருந்து	-11.0798
▁கலாசார	-11.0804
▁நாயுடு	-11.0804
▁விளையாட்டரங்க	-11.0815
ுவதோடு	-11.082
▁துல்லிய	-11.0827
▁விரட்ட	-11.0842
▁1911	-11.0848
▁சஞ்சிகை	-11.0849
▁அரியானா	-11.0852
ிருக்கவில்லை	-11.0859
▁முசுலிம்	-11.0871
▁மீதமுள்ள	-11.0871
▁உண்ப	-11.0874
▁பாரிஸ்	-11.0889
▁அண்ணன்	-11.0894
▁பாதுகாவல	-11.0916
▁அமிர்த	-11.0918
▁வெடித்த	-11.0923
▁சமசுகிருத	-11.0938
▁பஞ்சாயத்து	-11.0938
apuram	-11.0938
▁வாயுக்கள	-11.094
▁நிலைநிறுத்த	-11.0942
▁பழுத	-11.0946
▁கோடைகால	-11.0949
▁இதழாகும்	-11.0953
ஜன்னிய	-11.0954
▁களிமண்	-11.0956
▁மலேரியா	-11.0961
▁வாடகை	-11.0961
▁இருப்பதில்லை	-11.0965
பிடிக்க	-11.097
பேரூராட்சி	-11.0971
▁வலையமைப்ப	-11.0973
▁பாபிலோன	-11.0984
▁நெருங்க	-11.0986
▁அடையாளப்படுத்த	-11.0993
▁ராமசாமி	-11.0996
▁தென்னிந்தியாவில	-11.1002
▁விழிப்புணர்வு	-11.1006
▁தானியங்கி	-11.1019
ிருத்தல்	-11.1022
கருதப்படுகின்றது	-11.1027
▁வல்லுனர்	-11.1029
▁சோதிட	-11.1032
செலுத்த	-11.1045
▁பறக்க	-11.105
▁சார்லஸ்	-11.1052
▁பிரசாத்	-11.1058
▁சவால	-11.1063
▁இயற்	-11.1075
▁மலாக்கா	-11.1097
▁வேதாந்த	-11.11
▁அகழ்வ	-11.1101
▁புகுந்த	-11.1105
–19	-11.1114
▁பொதுவுடமை	-11.112
▁திரௌபதியம்மன்	-11.112
▁சுவீடன	-11.1123
▁ஸ்ரீதேவி	-11.1126
▁மர்ம	-11.1128
▁ஏகாதசி	-11.1143
▁ராஜேந்திர	-11.1148
▁வெகுவாக	-11.115
port	-11.1155
▁நியூட்டன	-11.1163
▁இருந்தபோதிலும்	-11.1166
▁நறுமண	-11.1166
▁தெலுங்க	-11.1179
▁அலுவலரால	-11.1186
▁இலித்தியம்	-11.1189
▁மிகப்பெரும்	-11.1189
▁வரதராஜ	-11.1194
சக்கர	-11.1198
▁இணங்க	-11.1203
▁உத்தம	-11.1207
▁ஆதலால்	-11.1212
▁கிணறு	-11.1212
▁சுற்றுப்பாதை	-11.1215
▁பிரதமராக	-11.1219
▁ஓய்வூதிய	-11.1235
▁மகாராஷ்டிரா	-11.1235
▁தாயார	-11.125
▁தட்சிணாமூர்த்தி	-11.1258
ச்சேர்க்கை	-11.1258
ாசிரியராக	-11.1259
▁கணிதவியலாளர்	-11.1261
▁பன்முக	-11.1268
▁திரையிட	-11.1285
▁தானுந்து	-11.1305
▁பனிக்கட்டி	-11.1305
▁சேமித்து	-11.1306
பொழுத	-11.1313
▁எய்த	-11.1323
▁தென்காசி	-11.1329
▁கார்பனேட்டு	-11.133
▁பதப்படுத்த	-11.1333
▁கழுவ	-11.1333
புளோரோ	-11.1336
பாட்டில்	-11.1345
▁விக்கிரம	-11.1348
▁அகாடமி	-11.1352
▁பூர்வீக	-11.1352
▁ஏதுவாக	-11.1373
▁பிரதிபலிக்க	-11.1375
▁மொபைல்	-11.1375
க்குள்ளாக	-11.1379
வெற்றி	-11.1392
▁வழிகாட்ட	-11.1395
▁குவாண்டம்	-11.1399
▁இக்கட்சி	-11.1407
கேசரி	-11.1413
▁மகாதேவ	-11.1414
▁விசுவநாத	-11.1422
▁பகதூர்	-11.1422
▁எத்தனை	-11.1423
▁களஞ்சிய	-11.1446
▁சிட்னி	-11.1448
▁போக்குவரத்த	-11.1449
▁காரணத்தினால்	-11.145
ஃபீ	-11.1453
▁இத்தொடர	-11.148
▁துடிப்ப	-11.1488
▁தளர்ச்சி	-11.1494
சயன	-11.1498
பிறழ்	-11.152
க்கணிப்ப	-11.1522
▁இயலவில்லை	-11.1523
▁நன்றி	-11.1524
▁எரிபொருள	-11.1531
▁மார்பக	-11.1543
▁காரணங்களுக்காக	-11.1545
▁அதனுடன்	-11.1547
2,000	-11.155
▁முதலீட்டாளர்	-11.1554
▁பணியாற்றியுள்ளா	-11.1554
▁நிதியுதவி	-11.1565
▁குடிபெயர்ந்த	-11.1565
▁வியாழன	-11.1565
▁செயின்ட்	-11.1567
▁உலகெங்கும்	-11.1568
▁கருத்தியல	-11.1573
▁ஒப்பிட்டு	-11.1577
▁இருக்கின்ற	-11.1578
▁ரேடியோ	-11.1589
▁செங்குத்து	-11.159
விடுகிறார்	-11.1594
ிறாள்	-11.1594
ஃபோர்ட்	-11.1611
▁ஏழாவது	-11.1613
▁திரையுலக	-11.1613
▁பாலிவுட்	-11.1636
▁உபகரணங்கள	-11.1637
▁சந்திரசேகர	-11.1639
▁சுற்றுப்புற	-11.1642
▁உபயோகிக்க	-11.1645
▁ஆப்கானிஸ்தான	-11.1661
▁வெப்பமண்டல	-11.1667
▁கவனிப்ப	-11.1673
▁விக்கிப்பீடியா	-11.1685
▁மெக்சிகோ	-11.1685
▁வருந்த	-11.1686
▁பாகவத	-11.1695
▁ஓய்வ	-11.1696
▁க்ள	-11.1707
▁பேச்சுவார்த்தை	-11.171
▁டென்மார்க்	-11.171
▁புளூ	-11.1721
ound	-11.1726
▁நூற்றுக்கணக்கான	-11.1734
▁ஆசிரம	-11.1734
▁நீர்த்தேக்க	-11.1734
▁அமுத	-11.174
ஃபீல்ட	-11.1741
▁ஸ்மித்	-11.1772
form	-11.1782
▁முதலாவதாக	-11.1783
▁அருள்மிகு	-11.1783
▁வழிவகுக்க	-11.1783
▁இலத்திரன்	-11.1783
▁தன்னார்வ	-11.1786
▁புளிய	-11.1796
ுகிறேன்	-11.18
▁பண்டிகை	-11.1808
▁காவேரி	-11.181
▁செட்டியார்	-11.181
▁ஜெயலலிதா	-11.1832
▁பாதரச	-11.1836
▁கிடக்க	-11.1851
▁வாழிட	-11.1852
ிருக்கிற	-11.1855
▁காந்தாரம்	-11.1857
▁திவ்ய	-11.1857
ெலும்பு	-11.186
▁அருணாசல	-11.1881
▁உலகக்கிண்ண	-11.1881
▁ஒன்றுக்கொன்று	-11.1881
▁ஜேர்சி	-11.1882
▁கவுன்சில	-11.1882
▁மல்யுத்த	-11.1906
▁சரஸ்வதி	-11.1906
▁ஜெனரல்	-11.1906
க்குள்ளான	-11.1913
▁தூண்டுதல	-11.1929
▁ப்ளூ	-11.1931
▁சிற்றிலக்கிய	-11.1956
▁ஆற்றங்கரை	-11.1956
▁முரண்பாடு	-11.1959
▁கர்ணன	-11.1968
▁கடைப்பிடிக்க	-11.1981
தையடுத்து	-11.1984
▁தமனி	-11.1988
வொர்	-11.1991
▁குசராத்	-11.1994
▁குடியிருப்ப	-11.1997
▁நெகிழ்	-11.2006
வியலாளர	-11.2006
▁வினாடி	-11.2007
▁அதிர்வு	-11.2008
ிழந்த	-11.2026
▁தோற்கடிக்க	-11.2031
▁தோல்வியுற்ற	-11.2031
▁ஓசோன்	-11.2031
▁வீழ்ந்த	-11.2032
▁கையெழுத்திட்ட	-11.2032
▁விசுவாச	-11.2034
▁பேராசிரிய	-11.2034
▁அவ்வாறே	-11.2056
▁திருவனந்தபுரம்	-11.2056
▁தொலைத்தொடர்பு	-11.2056
▁மறுபடியும்	-11.2056
▁இராவணன	-11.2057
ெங்கும்	-11.2058
▁கணித்த	-11.2072
▁டிஜிட்டல்	-11.2081
▁நீதிக்கட்சி	-11.2081
▁மூங்கில்	-11.2081
▁மணந்தார்	-11.2089
டெய்	-11.2105
▁அருச்சுனன	-11.2106
▁வறட்சி	-11.2106
▁இராகமாகிய	-11.2106
▁அவையாவன	-11.2106
▁கழுகு	-11.2107
▁நுணுக்க	-11.2107
▁இறால்	-11.2107
▁இணையத்தள	-11.2111
களினதும்	-11.2114
▁கண்டெடுக்க	-11.2116
▁முடிவெடுத்த	-11.213
▁நண்பன	-11.2133
▁ஆக்சிசன	-11.2143
ப்பலகை	-11.2143
கொலம்ப	-11.2156
▁பொதுவுடைமை	-11.2157
▁வனவிலங்கு	-11.2157
▁திணைக்கள	-11.2157
▁நிவாரண	-11.2157
▁காயமடைந்த	-11.2161
▁சம்மத	-11.2163
▁இவ்வூர	-11.2179
▁பின்தங்கிய	-11.2182
▁முதன்முறையாக	-11.2182
▁மூதாதை	-11.2182
ுணர்வ	-11.2183
▁ஆரஞ்சு	-11.2186
▁உறங்க	-11.2189
▁இப்போர	-11.219
International	-11.2208
▁புள்ளிவிவர	-11.2208
▁பாக்கிஸ்தான	-11.2209
கொல்ல	-11.2214
▁சந்தர்ப்ப	-11.2223
ாம்பிகை	-11.2226
▁பிலிப்பைன்	-11.2234
▁உடற்பயிற்சி	-11.2234
▁சொற்றொடர	-11.2259
▁பன்னிரண்டு	-11.2259
▁தாழ்த்தப்பட்ட	-11.2259
▁எருமை	-11.226
முயற்சி	-11.2279
பிரகாச	-11.228
▁முற்பகுதியில்	-11.2285
▁வற்புறுத்த	-11.2285
▁செயிண்ட்	-11.2285
▁திடீர்	-11.2288
▁பவானி	-11.229
▁சதுக்க	-11.229
கொண்டிருக்கின்றன	-11.2309
▁அனுராதபுர	-11.2311
▁வானியற்பியல	-11.2311
▁ஐந்தாண்டு	-11.2311
▁மானிட	-11.2336
▁தானாகவே	-11.2337
▁தலித்	-11.2349
▁பட்டப்படிப்பு	-11.2362
▁அகமது	-11.2363
▁விரத	-11.2373
▁அதிசய	-11.2389
▁அந்தோனி	-11.2393
graph	-11.2414
▁எதிர்பார்ப்ப	-11.2418
▁மேளமாகிய	-11.244
▁தைவதம்	-11.2441
▁மீற்றருக்கு	-11.2441
▁நீரிணை	-11.2441
▁துணைக்கண்ட	-11.2441
▁சூடுபடுத்த	-11.2441
▁பட்டுக்கோட்டை	-11.2443
▁தவிர்த்த	-11.2448
▁வருவாய	-11.2448
ென்பது	-11.2454
▁தியாகராஜ	-11.2465
▁செய்வதில்	-11.2465
▁சாஸ்திரி	-11.2467
▁அமுக்க	-11.2478
▁தவிர்ப்ப	-11.2481
▁பிறப்பிடமாகக்	-11.2493
▁வரையறுத்த	-11.2493
▁ஒப்படைக்க	-11.2499
▁பணக்கார	-11.2499
▁எடுத்துரைக்க	-11.2507
▁திரள	-11.2519
▁வினவ	-11.2519
▁குலோத்துங்க	-11.2519
▁காய்ச்சல்	-11.2522
▁தியேட்டர	-11.2522
ெண்ணெய	-11.2532
▁தருண	-11.2542
ப்புத்தக	-11.2545
▁மறுசீரமைப்ப	-11.2546
▁மத்திமம்	-11.2546
▁திறனாய்வு	-11.2548
▁முறியடித்த	-11.2572
▁ஒதுக்கீடு	-11.2574
▁சிகாகோ	-11.258
களுடனான	-11.2589
2008	-11.2598
▁எட்டாவது	-11.2599
▁இவ்விழா	-11.2604
நாடக	-11.2612
▁அயோத்தி	-11.2615
ஹைட்ர	-11.2619
▁கண்டிப்பாக	-11.2628
▁தஞ்சாவூர	-11.2643
▁மட்டுமல்லாது	-11.2652
▁லண்டனில்	-11.2652
▁நிரம்பிய	-11.2652
▁[1]	-11.2652
▁உலாவி	-11.266
▁கையாண்ட	-11.2665
▁மகிழ்வ	-11.2678
▁நிறைவேற	-11.2678
▁உயர்நிலைப்பள்ளி	-11.2679
▁புரோமைடு	-11.2679
▁பேட்மேன	-11.2681
▁உபதேச	-11.2681
▁சனநாயக	-11.2682
▁சந்நிதி	-11.2705
▁இரண்டாவதாக	-11.2705
க்கொடுத்த	-11.272
▁தர்க்க	-11.2722
▁என்பதற்கான	-11.2732
சிகிச்சை	-11.2733
▁இளவரசன	-11.2761
▁தற்காப்பு	-11.2786
▁பிரகாஷ்	-11.2786
திரைப்பட	-11.2787
▁யாதவ	-11.2796
▁பருமன	-11.283
▁முப்பரிமாண	-11.2841
▁எஃகு	-11.2841
▁அமாவாசை	-11.2868
▁முற்போக்கு	-11.2868
▁அத்தியாயங்கள	-11.2868
▁சோசலிச	-11.2895
▁தீர்மானித்த	-11.2909
▁சீக்கியர்கள	-11.2913
▁சுழற்	-11.2917
▁நீர்வீழ்ச்சி	-11.2922
▁பின்வருவன	-11.2923
▁ஒத்துழைப்ப	-11.2923
▁ஆபத்தான	-11.2924
▁உள்வாங்க	-11.2926
▁காரைக்குடி	-11.295
▁எதிர்பார்த்த	-11.2954
▁சிறுபான்மை	-11.2956
பைரவ	-11.2964
வளர்ச்சி	-11.2976
▁ஷட்ஜம்	-11.2978
▁துரத்த	-11.2978
▁பறப்ப	-11.3003
▁மின்னஞ்சல்	-11.3005
▁குடைவரை	-11.3005
▁ஆளுகை	-11.3027
▁ஒன்பதாம்	-11.3033
▁யுனைடெட்	-11.3033
▁எட்வர்ட்	-11.3033
மருத்துவ	-11.3034
▁கிருட்டிணகிரி	-11.3061
▁தரையிறங்க	-11.3061
▁அலைநீள	-11.3061
▁மோசமாக	-11.3067
▁முழங்க	-11.307
▁பதினாறாம்	-11.3088
▁யுனெஸ்கோ	-11.3088
▁கலைக்களஞ்சிய	-11.3088
▁மேல்நிலைப்பள்ளி	-11.3088
▁காசுமீர	-11.3089
▁சல்பேட்டு	-11.309
▁இயக்குநர	-11.3093
▁India	-11.3095
விளையாடியுள்ளார்	-11.3105
▁நால்வர	-11.3105
▁மக்னீசியம்	-11.3116
▁மாநிலங்களவை	-11.3116
▁இஸ்ரேல	-11.3117
▁கடைபிடிக்க	-11.3117
ப்பண்பு	-11.3119
1,000	-11.314
▁நீர்மூழ்கி	-11.3144
▁நோர்வே	-11.3145
▁பெருங்குடல	-11.3146
▁அம்மையார	-11.315
கொள்வதற்காக	-11.3159
▁இசைக்குழுவின	-11.3165
palayam	-11.3173
▁ஆதாய	-11.3177
▁பதின்ம	-11.3199
▁மராட்டிய	-11.3201
▁இடம்பெயர்ந்த	-11.3201
▁கும்பகோணத்த	-11.3202
▁மென்பொருட்கள	-11.3203
▁வழிகாட்டுதல	-11.3213
▁சாமுவேல்	-11.3229
▁நவராத்திரி	-11.3229
▁பூர்வ	-11.3243
▁University	-11.3257
▁டேனியல்	-11.3257
▁பிரசித்தி	-11.3258
3,000	-11.3275
▁தனிப்பாடல	-11.3278
▁சேமிப்ப	-11.3279
பல்கலைக்கழக	-11.3285
▁படைவீரர்	-11.3286
▁பிரபந்த	-11.3286
▁முதிர்ந்த	-11.3287
▁விகடன்	-11.3287
▁சரவண	-11.3288
▁வேதிப்பொருள	-11.3307
▁பதினான்கு	-11.3314
▁சீரமைப்ப	-11.3341
▁துன்புறுத்த	-11.3343
ாவிட்டாலும்	-11.3344
▁மரபணுக்கள	-11.3344
▁அரவிந்த	-11.3344
ள்ளேயே	-11.3354
த்தொடர	-11.3361
▁அயோடைடு	-11.3371
▁பிலிப்பீன்ச	-11.3371
▁ஒட்டுண்ணி	-11.3371
▁நெப்போலியன	-11.3372
▁பட்டதாரி	-11.3372
▁இயற்பியலாளர	-11.338
▁மகிழ்ந்த	-11.3383
▁எண்ணெய	-11.3397
▁திருத்தூதர்	-11.34
▁ஈர்த்த	-11.3401
$	-11.3546
“	-11.7535
‘	-11.8743
