<unk>	0
<s>	0
</s>	0
.	-2.92882
,	-3.62217
ம்	-4.54484
க்	-4.81665
ப்	-4.84891
கள்	-4.94494
்	-5.07974
▁	-5.20063
த்	-5.30394
▁மற்றும்	-5.34767
▁(	-5.35258
▁ஒரு	-5.3544
)	-5.43752
ு	-5.54126
ன்	-5.5987
▁"	-5.65155
ல்	-5.65549
ும்	-5.67046
"	-5.71683
து	-5.74701
▁இந்த	-5.76923
ர்	-5.80901
ச்	-5.88844
ய	-5.89172
ஸ்	-5.90796
யில்	-5.94264
ின்	-5.95047
-	-6.01569
த்தில்	-6.02689
க்கு	-6.07171
ட்	-6.11503
களை	-6.12109
▁இது	-6.13335
க	-6.14334
களில்	-6.14449
ன	-6.16332
யின்	-6.18228
ங்கள்	-6.19775
▁என்ற	-6.20378
▁அ	-6.21921
ில்	-6.22572
▁உள்ள	-6.24023
▁ஊராட்சி	-6.24681
:	-6.26369
▁ஆகும்	-6.27079
ை	-6.31946
▁க	-6.32376
ி	-6.32449
▁ஆம்	-6.33169
ம	-6.3362
▁ஆண்டு	-6.36866
யை	-6.38267
வ	-6.3872
களின்	-6.40477
த்தின்	-6.42537
▁பல	-6.47099
▁என்பது	-6.47905
▁இவர்	-6.48969
ரி	-6.49219
சு	-6.50391
த்தை	-6.51274
ர	-6.51704
▁அல்லது	-6.5227
த்த	-6.53349
வை	-6.54511
ப	-6.55016
டி	-6.55536
த	-6.55626
▁உள்ளது	-6.56493
க்க	-6.58185
ார்	-6.59832
▁இ	-6.60756
▁மக்கள்	-6.61481
வர்	-6.62344
ா	-6.63095
யும்	-6.63857
▁என்று	-6.64182
சி	-6.64882
வு	-6.64986
தி	-6.6505
மாக	-6.66632
▁இருந்து	-6.66842
▁முதல்	-6.68355
ந்த	-6.68766
▁இந்திய	-6.71713
ஆம்	-6.72337
▁("	-6.74226
களும்	-6.75313
னி	-6.75463
▁என	-6.77724
ரா	-6.78289
த்து	-6.7878
ப்படுகிறது	-6.79137
மா	-6.79491
லி	-6.7965
வி	-6.79812
ிய	-6.80894
▁பி	-6.80914
கா	-6.81536
மான	-6.82441
ச	-6.83598
டு	-6.84488
ல	-6.84531
லா	-6.85286
▁ச	-6.8577
ட	-6.86083
ப்பு	-6.87896
▁கோயில்	-6.88325
▁என்னும்	-6.89011
ப்ப	-6.8963
வும்	-6.89736
▁ப	-6.90242
▁போன்ற	-6.91062
▁7	-6.91455
▁சில	-6.92337
மை	-6.92789
யாக	-6.9284
▁வி	-6.9391
▁சி	-6.94365
ப்பட்ட	-6.96182
▁அவர்	-6.96585
▁கொண்ட	-6.97763
வா	-6.9824
▁த	-6.98883
யா	-6.99282
▁அமைந்துள்ள	-7.00447
▁தொகை	-7.00622
ுள்ளது	-7.00625
▁மேலும்	-7.01196
களுக்கு	-7.04165
ாக	-7.04168
னர்	-7.0424
னா	-7.05056
▁இல்	-7.05653
ங்களில்	-7.07016
▁கா	-7.07025
ரை	-7.07479
▁-	-7.07702
வே	-7.08204
கு	-7.09531
▁18	-7.10542
வின்	-7.10717
ங்	-7.11151
பா	-7.121
▁ம	-7.12364
▁எ	-7.12831
▁வரை	-7.14401
மி	-7.15028
s	-7.15501
லை	-7.16786
▁மா	-7.16888
கி	-7.17034
பி	-7.17972
னை	-7.18568
▁மு	-7.19122
தா	-7.19364
▁பயன்படுத்த	-7.19842
▁கி	-7.19953
▁உ	-7.20155
▁ஆண்டில்	-7.20869
க்கும்	-7.21936
▁பா	-7.22347
▁இதன்	-7.23984
▁அமைந்துள்ளது	-7.24676
▁கு	-7.24836
சா	-7.25234
▁ஏ	-7.26083
த்திற்கு	-7.26269
▁உள்ளன	-7.2665
▁சா	-7.27014
▁இக்கோயில்	-7.2712
),	-7.276
;	-7.27637
▁ஆ	-7.27813
ப்பட்டது	-7.28123
▁இரு	-7.29276
▁பின்னர்	-7.29459
ப்படும்	-7.29927
யான	-7.30003
ால்	-7.3065
ே	-7.30914
▁இருக்கும்	-7.30961
ங்களை	-7.31621
ான	-7.31917
த்தி	-7.31948
தாக	-7.33333
மும்	-7.33679
றி	-7.34017
ட்டு	-7.35806
▁மூலம்	-7.36267
ள	-7.36609
ட்டி	-7.37038
ரு	-7.37045
ந்து	-7.3726
ற்ற	-7.39096
▁மாவட்டம்	-7.3956
▁கொண்டு	-7.39613
▁தொகுதிக்கும்	-7.40186
▁ஆனால்	-7.40619
▁பேரும்	-7.40653
ங்க	-7.40907
ுக்கு	-7.414
")	-7.41575
▁அந்த	-7.42608
வில்	-7.42758
▁தனது	-7.42824
▁சு	-7.42843
▁அதன்	-7.42951
ரோ	-7.43031
▁தமிழ்	-7.43164
டை	-7.43267
களையும்	-7.43948
அ	-7.44639
▁ஆகிய	-7.44771
▁இரண்டு	-7.4478
ட்ட	-7.448
▁மாவட்டத்தில்	-7.44857
▁ந	-7.45002
▁மொழி	-7.45185
▁வ	-7.45483
▁டி	-7.45789
e	-7.45973
▁முக்கிய	-7.4603
று	-7.46335
▁2011	-7.46654
▁வளர்ச்சி	-7.46845
யே	-7.46943
▁தா	-7.47945
கோ	-7.49103
மே	-7.49132
ளி	-7.50313
▁போது	-7.5169
▁செ	-7.52397
▁2	-7.52545
▁கால	-7.54246
▁முறை	-7.55643
▁பெயர்	-7.55759
▁நிலை	-7.55848
லாம்	-7.55969
▁தி	-7.55998
▁கொண்டுள்ளது	-7.56135
கை	-7.565
களைக்	-7.56825
▁பெரிய	-7.56928
▁3	-7.57617
▁இருந்த	-7.57776
▁ஆவார்	-7.57777
'	-7.57804
▁தமிழ்நாடு	-7.57996
ோ	-7.58318
ண	-7.58325
யோ	-7.58482
ரின்	-7.59091
▁இவை	-7.59404
▁கோ	-7.59707
▁மே	-7.59915
▁இக்கோயிலில்	-7.60321
▁திரு	-7.60559
ச்சி	-7.60812
தை	-7.60879
▁அது	-7.61103
▁மொத்த	-7.61174
ழ	-7.6145
ணி	-7.61464
▁கே	-7.62239
▁துடுப்பாட்டப்	-7.62268
).	-7.6241
ற	-7.62831
மு	-7.63318
a	-7.63572
ப்படுகின்றன	-7.63894
▁பெண்கள்	-7.64439
▁இந்து	-7.64456
பு	-7.64578
▁1	-7.646
ினார்	-7.65185
▁தேசிய	-7.65321
டா	-7.65817
y	-7.66225
▁ஐ	-7.66251
▁அவரது	-7.66369
▁பு	-7.66421
▁என்றும்	-7.66458
▁5	-7.66512
களால்	-7.6722
▁ஒன்று	-7.67808
S	-7.68509
▁பெற்ற	-7.68768
களாக	-7.68957
▁தேர்ந்தெடுக்க	-7.68979
▁வகை	-7.69762
▁மீ	-7.69794
▁சட்டமன்றத்	-7.70227
▁பகுதி	-7.70657
▁நா	-7.71153
ய்	-7.71219
டன்	-7.71534
▁வேண்டும்	-7.71578
▁மிகவும்	-7.72087
னின்	-7.7215
%	-7.72462
▁உள்ளனர்	-7.73071
▁இங்கு	-7.73244
▁மூன்று	-7.73348
(	-7.73427
C	-7.73765
▁அரசு	-7.744
▁கீழ்	-7.74461
சன்	-7.74839
ண்ட	-7.74968
▁தர	-7.75173
▁பிற	-7.75233
ங்களின்	-7.75553
▁4	-7.75641
▁கொ	-7.75886
▁தகவல்	-7.75903
க்கி	-7.76313
இல்	-7.76458
▁பூசை	-7.77087
▁கல்வி	-7.78437
▁10	-7.78466
▁செய்ய	-7.78517
வ்	-7.78581
n	-7.78904
யர்	-7.79167
▁பட்டியல்	-7.79274
ப்பட்டு	-7.79493
▁வந்த	-7.79882
▁விட	-7.81136
▁தமிழ்நாட்டில்	-7.82472
al	-7.82554
o	-7.82645
▁அமெரிக்க	-7.82683
▁6	-7.82741
▁மன்ற	-7.82763
▁தன்	-7.82971
▁மக்களவைத்	-7.8317
ுதல்	-7.83427
▁,	-7.83723
▁அவை	-7.83876
ப்பட	-7.84029
▁வா	-7.84282
P	-7.84331
▁எனும்	-7.84485
▁ஆர்	-7.84739
▁ஊரில்	-7.85512
▁2015	-7.85622
வர	-7.85749
▁நகர	-7.85838
போது	-7.85896
▁ஆண்கள்	-7.85922
க்கா	-7.8612
▁பின்	-7.86332
▁இருந்தது	-7.86344
▁ஓ	-7.86374
A	-7.87012
▁பூ	-7.87403
ின்றனர்	-7.87649
▁இட	-7.88058
ிலும்	-7.88105
ந	-7.888
▁தமிழ்நாட்டின்	-7.89063
ச்ச	-7.89239
/	-7.89362
▁17	-7.89679
ரே	-7.89698
▁அதிக	-7.89812
▁இதில்	-7.89881
வோ	-7.89977
▁இவற்றில்	-7.90089
▁'	-7.90413
M	-7.90979
▁இசை	-7.90982
▁15	-7.91052
▁மாதம்	-7.91292
▁புதிய	-7.91324
▁வர	-7.91631
▁கை	-7.91706
நிலை	-7.92004
▁பல்வேறு	-7.92161
▁மொத்தம்	-7.92529
லோ	-7.92824
▁போ	-7.93165
▁8	-7.93325
▁தீ	-7.93365
▁அடி	-7.9347
▁ஆறு	-7.93506
▁து	-7.93689
▁அணி	-7.9376
▁போர்	-7.9381
ண்	-7.93934
▁பொதுவாக	-7.93935
▁உருவாக்க	-7.94202
▁கலந்து	-7.94244
▁நிர்வகிக்க	-7.94318
▁சேர்ந்த	-7.94401
▁செய்து	-7.94734
▁12	-7.94772
தால்	-7.95048
கம்	-7.95058
ான்	-7.95094
சை	-7.95098
யாகும்	-7.9515
ணக்கெடுப்பின்படி	-7.952
▁மிக	-7.95447
▁உலக	-7.95472
▁கட்டுப்பாட்டில்	-7.9587
களைப்	-7.9619
",	-7.96549
மாகும்	-7.97153
r	-7.97563
▁சேர்ந்தது	-7.97652
▁16	-7.97816
யி	-7.98183
ிற்கு	-7.98188
ையும்	-7.98579
ுள்ள	-7.98614
ங்களும்	-7.98636
ுடன்	-7.9879
▁கோயிலாகும்	-7.98839
▁நில	-7.98977
க்கள்	-7.99026
▁என்	-7.99035
▁அமைப்பு	-7.99082
ள்	-7.99332
"),	-7.99406
▁இவர்களில்	-7.99721
▁படி	-7.99885
▁ஓர்	-7.99888
விட	-8.00003
லே	-8.00117
▁நூற்றாண்டைச்	-8.00151
இ	-8.00243
▁காரணமாக	-8.00749
2	-8.00927
ண்டு	-8.01178
காலப்	-8.01475
ற்று	-8.01657
ுகிறது	-8.01938
▁9	-8.01949
▁வகைப்பாட்டில்	-8.02158
▁துறையின்	-8.02289
னோ	-8.02444
▁ஸ்	-8.02525
i	-8.02559
வது	-8.02573
யு	-8.02584
▁வெற்றி	-8.0278
ar	-8.02978
ுகின்றன	-8.02994
▁தொகுதி	-8.03004
▁திரைப்பட	-8.03364
ர்கள்	-8.03411
▁அன்று	-8.03468
▁பட	-8.03639
▁ஒ	-8.03932
▁இவரது	-8.04024
▁அறநிலையத்துறைய	-8.04284
▁சார்ந்த	-8.04397
ாத	-8.04433
போ	-8.04598
▁மெ	-8.04621
▁பொருள்	-8.04687
▁அரச	-8.04752
▁அளவு	-8.04771
▁பிறகு	-8.0496
களுடன்	-8.05023
றை	-8.05054
▁பெ	-8.05153
▁நீர்	-8.05293
3	-8.05516
ஞ்ச	-8.05619
▁திருக்கோயில்	-8.05891
டோ	-8.06122
▁பள்ளி	-8.06163
ங்கு	-8.06395
வன்	-8.06457
ஷ்	-8.06626
er	-8.0703
▁மி	-8.07208
▁தொகுக்கப்பட்ட	-8.07237
▁நி	-8.0733
▁S	-8.07367
▁அவர்கள்	-8.07526
க்கான	-8.07624
▁பகுதியில்	-8.0777
யிலும்	-8.07936
▁ஆய்வு	-8.081
வர்கள்	-8.0811
ற்	-8.08257
t	-8.08471
▁கீழ்க்கண்ட	-8.08629
▁தொடர்ந்து	-8.08845
▁ஊரக	-8.09015
முறை	-8.09595
ைக்	-8.09642
ாகும்	-8.09656
ரிய	-8.09689
▁மாற்ற	-8.09855
▁சமூக	-8.09914
▁தான்	-8.0992
▁பெற	-8.10341
▁சிறு	-8.10419
▁முதன்மைத்	-8.1042
▁மற்ற	-8.10484
▁பிர	-8.10547
an	-8.1056
▁தொகுதிகளைக்	-8.10642
ழி	-8.10908
▁ஈ	-8.10975
▁கரு	-8.11096
▁எஸ்	-8.111
ானது	-8.11334
களிலும்	-8.11371
▁சிற்றூர்கள	-8.11402
▁மன்றத்	-8.11427
ிலிருந்து	-8.11481
ண்டி	-8.11503
▁இந்தியாவின்	-8.11805
▁பொது	-8.11833
▁மலை	-8.11899
ம்ப	-8.11953
▁Gram	-8.11994
▁ஊராட்சியில்	-8.12041
p	-8.12091
ஜி	-8.12217
▁காலத்தில்	-8.12222
▁Panchayat	-8.12274
▁ஆட்சி	-8.12277
▁பணி	-8.12312
▁தரவின்படி	-8.12545
ட்டா	-8.12819
சோ	-8.12848
▁உறுப்பினர்களைத	-8.12874
▁உட்பட்டதாக	-8.13042
E	-8.13119
▁வெளி	-8.13552
▁ஒவ்வொரு	-8.1379
▁கலை	-8.14023
▁ஆண்டுத்	-8.14147
▁குறிப்பிட	-8.14166
ப்பட்டுள்ளது	-8.14439
▁பே	-8.14653
▁வட்டாரத்தில்	-8.14691
▁சிறந்த	-8.14808
▁துடுப்பாட்ட	-8.15078
▁வெ	-8.15222
▁தலை	-8.15227
▁சட்ட	-8.15312
ப்பி	-8.15438
▁வடிவ	-8.15694
படி	-8.157
▁ஊராட்சித்	-8.15791
யுடன்	-8.15859
▁முன்	-8.15897
▁நான்கு	-8.16115
யானது	-8.16168
யைக்	-8.16354
யால்	-8.16367
▁அனைத்து	-8.16572
ாமல்	-8.16787
▁நோய்	-8.16809
ூர்	-8.16868
ியல்	-8.16906
▁இன்	-8.16993
வில்லை	-8.17138
▁ர	-8.17162
▁மாநில	-8.17199
▁பரம்பரை	-8.17261
ியது	-8.17291
யிலிருந்து	-8.17456
▁இயக்க	-8.17506
▁சோ	-8.17544
▁நாள்	-8.17579
▁நடக்கின்றது	-8.17608
▁எண்	-8.1763
▁தென்	-8.17661
4	-8.17724
▁11	-8.17745
யூ	-8.18109
க்கோ	-8.1811
ிருந்த	-8.18179
▁குறிப்பிட்ட	-8.18179
▁செய்த	-8.18508
கே	-8.18558
▁மீது	-8.18578
▁துணை	-8.18789
▁வெளிவந்த	-8.19145
T	-8.19203
▁ஒளி	-8.1921
▁அல்லாத	-8.19332
b	-8.19368
▁சென்னை	-8.19443
த்திலும்	-8.19488
த்துக்கு	-8.19676
▁மட்டுமே	-8.19712
u	-8.19762
D	-8.19847
▁உற்பத்தி	-8.20107
▁பட்ட	-8.20423
▁இலங்கை	-8.20754
▁20	-8.20937
▁14	-8.20939
கர்	-8.21022
▁பெண்	-8.21249
▁வழி	-8.21346
▁பற்றி	-8.21393
▁பத்தொன்பதாம்	-8.21448
c	-8.21543
▁ஹ	-8.21773
▁உயர்	-8.22524
ாலும்	-8.2263
▁வட	-8.22718
ந்தி	-8.22798
1	-8.23126
த்தா	-8.23134
▁ஜ	-8.23192
▁சே	-8.23351
தே	-8.23697
ிருக்கும்	-8.23717
தான்	-8.238
▁மேல்	-8.24146
ள்ள	-8.242
▁தனி	-8.24212
h	-8.24324
▁வினை	-8.24341
ோர்	-8.24479
▁13	-8.24818
ணை	-8.2486
B	-8.24905
▁ரா	-8.25206
▁இதனால்	-8.25442
R	-8.2545
ப்பா	-8.25953
க்கூடிய	-8.2597
m	-8.2605
▁C	-8.26155
ஆ	-8.26235
▁படை	-8.26265
▁கொள்ள	-8.2635
மோ	-8.26405
யம்	-8.26553
▁சொல்ல	-8.26645
ங்கா	-8.26714
▁அறங்காவலர்	-8.26737
▁வரும்	-8.26744
▁மனித	-8.26798
லின்	-8.26807
▁சிறிய	-8.26809
ுவது	-8.2681
யன்	-8.26906
▁இந்தியா	-8.26975
ழு	-8.27178
எ	-8.27236
▁காண	-8.27284
ூ	-8.27403
▁பல்கலைக்கழக	-8.27467
▁வே	-8.27805
ங்களுக்கு	-8.28238
▁பற்றிய	-8.28355
ரும்	-8.28571
▁பெற்றார்	-8.28653
▁மீண்டும்	-8.28893
னார்	-8.28937
▁இன	-8.28989
▁வழங்க	-8.29095
▁எம்	-8.2913
N	-8.29274
]]	-8.2961
▁தேவை	-8.30013
▁கண்ட	-8.30149
ராக	-8.30154
▁இருப்பினும்	-8.30233
ண்ட்	-8.3042
▁சீ	-8.30436
▁பெரும்	-8.30478
▁நூல்	-8.30789
▁இதை	-8.31328
செ	-8.31333
▁மேற்கு	-8.31357
மானது	-8.31362
ைப்	-8.31375
▁கட்சி	-8.31417
ட்டை	-8.31498
▁வேலை	-8.31551
மன்	-8.31681
▁ஐக்கிய	-8.31728
d	-8.31758
வரை	-8.31799
லு	-8.31869
▁19	-8.32089
ுள்ளார்	-8.32205
ின	-8.32376
▁டெ	-8.32539
▁ஒரே	-8.32558
தன்	-8.32578
யைப்	-8.3262
▁என்பவர்	-8.32709
சிய	-8.32721
▁அமைப்பால்	-8.33378
ுள்ளன	-8.33619
▁குழந்தை	-8.33633
ுவதற்கு	-8.34166
▁M	-8.34254
▁ஊ	-8.34431
▁மாவட்ட	-8.34703
l	-8.34795
▁கூட்ட	-8.34857
▁P	-8.34959
▁செல்ல	-8.34984
▁கிராம	-8.35096
▁கார்	-8.35215
▁ஆக	-8.35319
▁கூடிய	-8.35355
▁மின்	-8.35375
▁போட்டிகளில்	-8.35381
I	-8.35549
in	-8.35804
▁கிழக்கு	-8.35859
▁B	-8.36376
▁A	-8.36394
டர்	-8.365
▁மர	-8.36753
▁[[	-8.36847
ங்கி	-8.37435
னே	-8.37588
ஜ	-8.37604
▁நடைபெறுகிறது	-8.38076
▁பாட	-8.38143
▁பிறப்பு	-8.3821
▁இரண்டாம்	-8.38253
▁இல்லை	-8.38429
▁கட்ட	-8.3847
▁மத்திய	-8.38487
▁மறு	-8.38551
▁கெ	-8.38654
த்துடன்	-8.38851
▁பொ	-8.39208
▁சிறப்பு	-8.39332
▁கதை	-8.39351
யையும்	-8.39351
வியல்	-8.39488
g	-8.39565
5	-8.39586
த்திலிருந்து	-8.39859
ிக்க	-8.40151
O	-8.4027
ருக்கு	-8.40286
▁போல	-8.40496
▁இதனை	-8.409
F	-8.41494
▁துறை	-8.41669
▁கூட	-8.41687
ிறது	-8.41758
00	-8.41812
▁புற	-8.4183
▁சிவ	-8.41904
▁நிற	-8.41921
▁வணிக	-8.41981
ரியா	-8.42056
ீ	-8.42172
▁நாடு	-8.42371
▁மருத்துவ	-8.42547
▁அறிவியல்	-8.42654
▁தற்போது	-8.42954
”	-8.4303
▁உணவு	-8.43244
தாகும்	-8.43469
டைய	-8.43786
கிறது	-8.43838
▁ஆகியவை	-8.43977
▁அதே	-8.44075
▁கல்லூரி	-8.44245
க்காக	-8.44423
▁பாடல்	-8.44527
▁தொடர்	-8.44608
▁காணப்படும்	-8.44707
லில்	-8.44896
தாகவும்	-8.44897
L	-8.4501
▁மத	-8.45245
k	-8.45446
▁இலக்கிய	-8.45489
▁உதவி	-8.45558
களுக்கும்	-8.45938
▁பால	-8.46128
ஹ	-8.46153
பர்	-8.46219
▁முடியும்	-8.46502
▁பதி	-8.46706
ur	-8.46963
▁of	-8.47039
த்தையும்	-8.47069
▁மூல	-8.47074
ஷ	-8.47217
ெ	-8.47492
▁கடல்	-8.47512
▁அளவில்	-8.47825
▁இடம்	-8.4818
or	-8.48191
▁)	-8.48246
▁மூ	-8.48304
உ	-8.48401
▁கல	-8.48502
▁அதை	-8.48568
த்தால்	-8.48754
▁பெரு	-8.48856
’	-8.49007
▁முக	-8.49075
▁பங்கு	-8.49154
▁தோ	-8.49156
கர	-8.49234
▁சமய	-8.49351
en	-8.4938
am	-8.49523
▁அக்டோபர்	-8.49613
▁மோ	-8.49693
▁பெற்று	-8.49816
▁விளையாட்டு	-8.49822
னிய	-8.49824
▁குறை	-8.49852
▁பிரி	-8.49867
▁தேர்வுத்	-8.50132
▁நோ	-8.50165
வாக	-8.50399
▁நிலையில்	-8.50422
▁விளக்க	-8.50428
சே	-8.50481
▁மீட்டர்	-8.50515
▁என்பதை	-8.50594
6	-8.50686
▁சம	-8.50721
▁தந்தை	-8.5078
ம்பு	-8.51047
▁சேவை	-8.51072
▁ஜி	-8.51172
▁மன	-8.51275
▁எந்த	-8.51488
வரும்	-8.51622
▁அம்மன்	-8.51623
▁பெரும்பாலும்	-8.5165
▁குரு	-8.51679
▁ஐந்து	-8.51748
f	-8.51762
▁குழு	-8.51792
▁கொண்டது	-8.52148
0	-8.52169
▁சுமார்	-8.52298
நா	-8.5233
▁நிறுவனம்	-8.52376
▁அழைக்க	-8.52528
▁மைய	-8.52571
▁இருக்கிறது	-8.52685
▁அடிப்படையில்	-8.5277
H	-8.52833
▁அரசியல்	-8.52987
ப்பை	-8.53072
▁லா	-8.53102
▁ஒன்றாகும்	-8.53185
▁இணைந்து	-8.53193
னால்	-8.53215
▁எழுதிய	-8.53309
புரம்	-8.53329
▁நாட்டின்	-8.53368
ச்சு	-8.53547
த்தைக்	-8.5356
▁முதலில்	-8.53751
▁முதல்தர	-8.53799
▁இவ்வ	-8.53917
▁மணி	-8.54056
le	-8.54073
▁நாட்டு	-8.54244
த்திர	-8.54277
▁இதற்கு	-8.54284
▁கருத்து	-8.54497
▁வேறு	-8.54588
ரம்	-8.54702
ாய்	-8.54819
▁சங்க	-8.55074
ினை	-8.55107
▁இருக்க	-8.55206
வெ	-8.55248
▁உண்டு	-8.55288
▁எனவே	-8.55314
▁வெப்ப	-8.55454
at	-8.55709
▁போட்டி	-8.55734
▁ஆண்ட	-8.55896
▁காட்சி	-8.55939
▁நவம்பர்	-8.55941
▁குடும்ப	-8.55975
ளை	-8.55977
▁உயிர்	-8.56086
▁அங்கு	-8.56139
▁முயற்சி	-8.56142
▁ஒலி	-8.56179
▁–	-8.56182
க்கப்பட்ட	-8.56494
கன்	-8.56518
தர	-8.5655
ப்படுத்த	-8.56672
சீ	-8.57137
▁செய்யப்பட்ட	-8.57159
▁குறைந்த	-8.57169
on	-8.57296
▁மகா	-8.57299
▁சென்று	-8.57386
▁ஊர்	-8.57435
▁நேர	-8.57465
▁எனப்படும்	-8.57521
▁பிரிவு	-8.57542
▁நிர்வாக	-8.57611
ரீ	-8.57628
ஸ	-8.577
▁இந்தியாவில்	-8.5773
ப்படுகின்றது	-8.57931
பே	-8.5795
ப்போ	-8.58806
▁இருந்தார்	-8.58896
களான	-8.58963
டே	-8.59039
▁தலைவர்	-8.59164
ினால்	-8.59169
▁பெயர	-8.59229
▁“	-8.59234
▁அக	-8.59352
▁விமான	-8.59374
வுக்கு	-8.59424
▁அதற்கு	-8.59507
▁ஏற்பட்ட	-8.59539
ிட	-8.59564
த்திய	-8.59621
வன	-8.59902
▁ஆங்கில	-8.59965
▁30	-8.60026
▁பேர்	-8.60261
▁நிகழ்ச்சி	-8.60371
தல்	-8.60536
▁தொழில்	-8.60557
▁எல்லை	-8.60727
▁அணியின்	-8.60883
டெ	-8.60905
▁தொடர்பு	-8.61013
ங்களையும்	-8.61107
வகை	-8.61108
▁ஆண்டுகளில்	-8.61118
சர்	-8.61177
▁பேர	-8.61206
சாமி	-8.61347
▁நாடக	-8.61646
▁நிலைய	-8.61861
▁நடைபெற்ற	-8.61893
▁கொள்கை	-8.61972
▁ட	-8.62006
க்காரர்	-8.6205
K	-8.62133
▁நடு	-8.62175
க்ஸ்	-8.62308
ங்களாக	-8.62325
ஸ்ட்	-8.62367
க்கை	-8.62419
▁கூ	-8.62448
▁நெ	-8.62546
▁காலம்	-8.6267
▁எனினும்	-8.62671
▁முழு	-8.62673
தர்	-8.62699
▁சதுர	-8.62808
▁கூற	-8.62871
ப்பட்டார்	-8.62911
▁தே	-8.63109
ஜ்	-8.63254
▁வீர	-8.63293
▁விருது	-8.63388
▁மதுரை	-8.63469
▁அதில்	-8.63562
▁முறையில்	-8.637
ப்பட்டன	-8.63709
▁வருகிறது	-8.63776
ற்ப	-8.63898
பூ	-8.63965
▁25	-8.63974
▁தங்க	-8.64118
வழி	-8.64244
▁உருவாக்கப்பட்ட	-8.64351
▁நிறுவன	-8.64649
▁ஜெ	-8.64823
)"	-8.64846
▁பெற்றது	-8.64855
▁நடந்த	-8.6497
ாளர்	-8.64978
▁H	-8.6503
▁இறுதி	-8.651
▁புனித	-8.65101
னும்	-8.65101
த்துறை	-8.65169
▁பயன்படுத்தி	-8.65189
பெ	-8.65352
ப்பட்டுள்ளன	-8.65552
▁வைத்து	-8.6558
▁எதிர்	-8.65641
முக	-8.65736
ும்போது	-8.65795
ing	-8.6583
ுள்ளனர்	-8.65885
தில்	-8.65892
▁கோவில்	-8.65922
த்தல்	-8.66276
▁தொழில்நுட்ப	-8.66422
ினர்	-8.66447
▁வழியாக	-8.6654
▁பெரும்பாலான	-8.66557
▁D	-8.66592
ிக்	-8.66633
த்தைப்	-8.66674
ுகின்றனர்	-8.66913
▁காட்ட	-8.66915
▁தள	-8.67027
▁நல்ல	-8.67078
▁தன்மை	-8.67191
ஞ்சி	-8.67393
▁சிகிச்சை	-8.67431
▁மாத	-8.67589
▁கிலோ	-8.67611
ுகிறார்	-8.67638
▁போட்டியில்	-8.67646
▁இந்தப்	-8.67664
களுக்கான	-8.67681
▁2008	-8.67694
▁எழுத	-8.67825
▁குறிப்பாக	-8.67944
▁உரு	-8.68041
▁எனவும்	-8.68064
G	-8.68126
ாவின்	-8.68524
▁யா	-8.68589
▁நீ	-8.6873
▁செல்லும்	-8.68754
களைத்	-8.68801
▁பழ	-8.69137
7	-8.69199
▁குறிப்பிடத்தக்க	-8.69212
▁செய்யும்	-8.69249
▁சூரிய	-8.69257
▁லி	-8.69309
▁சொல்	-8.69472
▁திருவிழாவாக	-8.69666
▁பிறந்த	-8.6972
▁இரண்டாவது	-8.69764
ed	-8.70042
தோ	-8.70044
20	-8.70115
ாகவும்	-8.70158
▁ஏற்படும்	-8.70433
ரெ	-8.70488
▁அதிகமாக	-8.70523
▁பிரதேச	-8.70629
▁செப்டம்பர்	-8.70663
விற்கு	-8.70795
▁நிலையம்	-8.70818
▁அமைந்த	-8.70821
▁வட்ட	-8.70842
வான	-8.70886
மெ	-8.70936
▁"(	-8.71009
▁மண	-8.71018
▁தூ	-8.7102
▁வகையில்	-8.71047
▁பை	-8.71116
பூர்	-8.71124
தற்கு	-8.71171
▁நிதி	-8.71219
8	-8.71303
ப்பகுதி	-8.71385
▁உடல்	-8.71496
▁பதவி	-8.71635
▁மூலமாக	-8.71662
▁யூ	-8.71756
▁இங்கிலாந்து	-8.71793
▁பகுதிகளில்	-8.71928
ப்படி	-8.72061
▁ரோ	-8.72084
▁பொருளாதார	-8.72235
ைத்	-8.72285
பட்ட	-8.72436
யைத்	-8.72567
▁எண்ண	-8.72601
▁மட்டும்	-8.72612
▁முக்கியமான	-8.72687
▁அறிய	-8.72805
ுகின்றது	-8.72915
▁ஆகியோர்	-8.72967
ோடு	-8.72996
▁ஸ்ரீ	-8.73055
▁தலைமை	-8.73104
மொழி	-8.73364
ங்களிலும்	-8.73475
▁டா	-8.73507
▁(19	-8.73531
▁கொண்டுள்ளார்	-8.73594
▁நாடுகளில்	-8.73735
▁மில்லியன்	-8.7376
யின	-8.74104
ழை	-8.74119
கள	-8.74318
▁பயிற்சி	-8.74366
▁இடத்தில்	-8.74404
▁உரிமை	-8.74416
▁வடக்கு	-8.7442
▁சட்டமன்ற	-8.74579
▁0	-8.74694
▁பீ	-8.74896
▁பக்க	-8.75087
▁தாவர	-8.75188
ங்களைக்	-8.7521
ொ	-8.75281
▁பார்	-8.75449
▁தொலைக்காட்சி	-8.75499
▁ஹா	-8.75589
▁போன்றவை	-8.75607
▁புள்ளி	-8.7563
▁நோக்க	-8.75898
▁விதி	-8.75985
▁இயற்கை	-8.75985
▁கருவி	-8.76111
▁கண	-8.76139
▁நகரம்	-8.76268
▁தமிழ்த்	-8.76283
▁காணப்படுகிறது	-8.76334
▁பிரித்தானிய	-8.76656
க்குப்	-8.76715
▁நோக்கி	-8.76825
▁தயாரிக்க	-8.76833
னுக்கு	-8.76865
V	-8.769
▁இணை	-8.77015
வான்	-8.77258
▁உட்	-8.77285
▁பிறந்தார்	-8.77319
▁சென்ற	-8.77333
▁L	-8.77352
சின்	-8.77529
▁மக	-8.77626
▁தேவ	-8.77805
ளா	-8.77833
▁ஏப்ரல்	-8.7787
▁எனக்	-8.77956
▁நடத்த	-8.7796
ன்ன	-8.78034
பதி	-8.78044
▁ஆண்டின்	-8.78063
ch	-8.7816
▁G	-8.7848
ic	-8.78592
மீ	-8.78674
is	-8.78863
▁வரலாற்று	-8.78991
▁ஜா	-8.79015
னில்	-8.79146
கல்	-8.79221
ிடம்	-8.79414
▁அடுத்த	-8.79429
▁தெ	-8.7944
▁தமிழ	-8.79452
▁வந்து	-8.79514
▁பழைய	-8.7975
▁நூற்றாண்டு	-8.79891
ஃப்	-8.80231
த்தார்	-8.80239
▁R	-8.80349
▁மறை	-8.80499
▁21	-8.80549
▁வாழ்க்கை	-8.80617
▁வீ	-8.81009
▁கோட்டை	-8.81234
▁அடிப்படை	-8.81319
▁செல்வ	-8.81326
x	-8.81401
னு	-8.81681
▁அல்	-8.81863
▁ஒருவர்	-8.81942
▁செலுத்த	-8.81943
▁நூற்றாண்டில்	-8.82049
▁சின்ன	-8.82108
▁2009	-8.82165
▁வந்தது	-8.82168
▁திகதி	-8.82244
பின்	-8.82282
▁ஆராய்ச்சி	-8.82299
▁N	-8.82311
பட	-8.82348
el	-8.82362
▁24	-8.82426
▁விட்டு	-8.82545
▁அவ	-8.82681
▁நகர்	-8.82716
▁பாதுகாப்பு	-8.8273
▁உறுப்பினர்	-8.82908
▁ஆட்ட	-8.8294
▁=	-8.83008
தம்	-8.83148
▁டை	-8.83149
▁தங்கள்	-8.83244
▁எல்லா	-8.83298
▁வாழ்ந்த	-8.83356
▁பேச	-8.83373
▁மேல	-8.83634
▁சக்தி	-8.8365
▁திரைப்படம்	-8.83688
▁காணப்படுகின்றன	-8.83907
▁அருகில்	-8.83951
யாகவும்	-8.84247
▁F	-8.84256
▁சீன	-8.84265
▁முடிவு	-8.84295
ட்ஸ்	-8.84383
▁அணு	-8.84526
ாட்சி	-8.84541
▁22	-8.84579
டிய	-8.8458
▁2010	-8.84643
▁தமிழக	-8.84809
▁நீண்ட	-8.85045
வந்த	-8.85047
மான்	-8.85052
]	-8.85095
▁‘	-8.85248
▁இடம்பெற்ற	-8.85264
▁வை	-8.85318
il	-8.85359
▁போட்டிகளிலும்	-8.85505
▁வள	-8.85506
க்கம்	-8.85523
▁அவருடைய	-8.85541
▁தீவு	-8.85588
களுள்	-8.85637
மாகவும்	-8.85686
|	-8.85717
வீ	-8.85739
▁நேர்	-8.85925
▁ரி	-8.86008
ாள	-8.86141
re	-8.86153
மலை	-8.86172
ஐ	-8.86236
▁பதிவு	-8.8625
▁கண்ண	-8.86304
▁T	-8.86494
▁செய்தார்	-8.8651
us	-8.86544
▁உள்ளிட்ட	-8.86713
▁ஆண்	-8.86748
▁2007	-8.86829
▁பெர்	-8.86831
சார்	-8.86873
▁தமது	-8.86944
▁தாக்க	-8.871
▁கணினி	-8.87286
▁பெயரில்	-8.87485
▁வழக்கு	-8.87526
▁அமில	-8.87688
▁கருத	-8.87727
ிருந்தது	-8.87753
நி	-8.87819
▁முறைப்படி	-8.87826
▁கட	-8.87937
▁ஒன்றாக	-8.87998
லம்	-8.88022
▁உருவ	-8.88042
▁ஏற்ற	-8.88091
as	-8.88102
மர	-8.88212
க்குள்	-8.88311
▁சபை	-8.88398
▁E	-8.8841
▁தேதி	-8.88625
es	-8.88654
▁அவருக்கு	-8.88683
▁எழுத்து	-8.88771
_	-8.88811
▁தடை	-8.8891
▁சாலை	-8.88955
▁பெருமாள்	-8.89038
பை	-8.89071
▁பால்	-8.8934
▁இணைய	-8.89509
▁முனை	-8.89513
ஜா	-8.89516
கொண்ட	-8.8962
ண்டா	-8.89622
▁அமெரிக்கா	-8.89671
▁முதன்மை	-8.89786
▁வேண்டிய	-8.89816
விய	-8.89826
லெ	-8.89873
▁ஜோ	-8.899
▁எண்ணிக்கை	-8.89981
▁தம்	-8.90012
▁எந்தவொரு	-8.90012
ன்ஸ்	-8.90043
▁தவிர	-8.90208
▁குறிக்கும்	-8.90265
▁குறித்த	-8.90306
சூ	-8.90441
▁பார்க்க	-8.9046
▁வருட	-8.90568
▁வரிசை	-8.9067
ிருந்தார்	-8.90772
கால	-8.90874
▁எரி	-8.90895
it	-8.91197
▁ஏரி	-8.91437
▁தாய்	-8.91512
▁மாநிலத்தில்	-8.91677
▁நகரில்	-8.91738
▁தொ	-8.91829
10	-8.91848
▁தெற்கு	-8.9189
யார்	-8.91956
▁2006	-8.91971
ல்லா	-8.92096
▁தொலைவில்	-8.92195
ுக்கும்	-8.92197
▁இவருக்கு	-8.92201
▁அவரை	-8.92308
ளவு	-8.92356
▁இக்	-8.9245
பார்	-8.92482
▁முன்ன	-8.92497
▁23	-8.92611
▁அதாவது	-8.92714
▁நியூ	-8.92768
▁செய்தி	-8.9278
ra	-8.92831
▁கருதப்படுகிறது	-8.92851
▁அலை	-8.92872
▁வரி	-8.92981
ஹா	-8.93039
ஏ	-8.93047
▁மனைவி	-8.93184
▁யு	-8.93245
த்துவ	-8.93275
▁முழுவதும்	-8.93287
▁உடைய	-8.93355
▁சோதனை	-8.93376
வுடன்	-8.93429
மணி	-8.93469
த்தைச்	-8.93488
▁மன்னர்	-8.9353
▁மேற்பட்ட	-8.9365
▁பருவ	-8.93871
ிலுள்ள	-8.93931
▁சேர்ந்து	-8.93978
▁மகன்	-8.94266
ைச்	-8.94272
▁இடங்களில்	-8.94276
▁உடன்	-8.94307
▁இவ்வாறு	-8.9441
▁சராசரி	-8.94477
▁செயல்	-8.946
ைய	-8.94737
▁formula	-8.94819
▁மக்களின்	-8.9492
▁போட்டியிலும்	-8.95065
▁இராணுவ	-8.95072
▁ஆகியவற்றை	-8.95193
▁விழா	-8.95392
▁குடி	-8.95402
▁நீக்க	-8.9541
▁கட்டிட	-8.95446
▁வரலாறு	-8.95531
▁அடை	-8.95587
த்தூர்	-8.95616
ண்ண	-8.95785
▁தோற்ற	-8.95953
▁மாகாண	-8.95957
▁உறுப்பினராக	-8.95989
னியா	-8.95991
▁கள	-8.96007
▁ஐரோப்பிய	-8.96134
▁கடைசியாக	-8.96146
கார்	-8.96382
▁குறித்து	-8.96406
ரான	-8.96505
வால்	-8.96585
▁உலகின்	-8.96711
ol	-8.96826
▁மதிப்பு	-8.96872
படுத்த	-8.96935
▁மார்	-8.97065
பீ	-8.97162
யல்	-8.97201
▁திட்ட	-8.97344
▁வங்கி	-8.97385
▁ஆற்றல்	-8.97699
வாய்	-8.97828
▁ஆசிரியர்	-8.97885
▁மார்ச்	-8.97893
▁I	-8.97902
▁உரை	-8.97954
▁சூ	-8.98022
ந்தா	-8.98057
▁இடையே	-8.98174
▁புத்தக	-8.98186
னம்	-8.98219
ாள்	-8.98291
தீ	-8.9844
யைச்	-8.98749
ஸி	-8.98831
▁எதிராக	-8.9888
▁அப்போது	-8.98917
▁சை	-8.9895
▁செல்	-8.9903
▁இவர்கள்	-8.99134
▁ஜான்	-8.99197
ுடைய	-8.99412
▁வைக்க	-8.99415
▁அதனை	-8.99542
▁வயது	-8.99568
▁நடவடிக்கை	-8.99635
▁புது	-8.9968
ழ்	-8.99786
கொ	-8.99818
▁புல	-8.99846
▁மொ	-8.99912
லும்	-8.99994
▁கால்	-9.00054
யாளர்	-9.00065
▁வார	-9.00082
▁அவற்றின்	-9.00145
▁இந்தக்	-9.00256
டின்	-9.00286
▁போராட்ட	-9.00375
நில	-9.00454
க்கல்	-9.00514
▁மாதிரி	-9.00522
ாவில்	-9.00533
ின்றன	-9.00621
ரண	-9.00655
▁வாழ்	-9.00716
▁மற்றொரு	-9.00738
▁நம்பிக்கை	-9.00855
ித்த	-9.00886
▁the	-9.00911
▁ஆண்டுகள்	-9.00936
▁கண்	-9.00959
▁பிரா	-9.00972
▁மாநிலத்தின்	-9.00976
யிட	-9.01071
▁இத்திரைப்படத்த	-9.01086
சியா	-9.01159
▁சேர்த்து	-9.01196
▁ஹெ	-9.01224
ad	-9.01317
9	-9.01353
ரால்	-9.01371
▁குறி	-9.01489
வராக	-9.01535
ட்டோ	-9.01593
▁பங்குகொண்டார்	-9.01601
ம்பி	-9.01656
▁கரை	-9.01778
▁சுற்றி	-9.01785
▁நான்	-9.01855
▁வசதி	-9.01862
▁ஆரம்ப	-9.01965
▁இல்லாத	-9.02127
ul	-9.02317
▁குறிக்க	-9.02368
▁ஆல்	-9.02625
ுக்	-9.02646
பொ	-9.02822
ிருக்க	-9.02864
▁ராஜ	-9.02898
▁இரத்த	-9.02983
▁திருமணம்	-9.02995
▁நீர	-9.02997
ation	-9.03064
ல்லி	-9.03189
▁போல்	-9.03199
சம்	-9.03237
வல்	-9.03269
▁கிளை	-9.03286
▁பார்க்கப்பட்ட	-9.03426
▁சர்	-9.03478
▁எழுத்தாளர்	-9.03562
th	-9.03657
▁நடைமுறை	-9.03676
▁பட்டம்	-9.03683
கார	-9.03759
▁நாக	-9.03907
▁மண்டல	-9.03919
▁தொகுப்பு	-9.03922
▁அரசின்	-9.04151
சல்	-9.04182
ப்படை	-9.04209
▁இலங்கையின்	-9.04225
▁[	-9.043
களே	-9.04368
▁முன்னாள்	-9.04527
▁இராம	-9.04543
–	-9.04568
ணா	-9.0457
▁1,	-9.04584
கின்றன	-9.04602
தான	-9.04616
ிருக்கிறது	-9.04649
▁1.	-9.04654
▁உள்ளார்	-9.04838
▁நாடுகள்	-9.04865
▁2001	-9.04884
▁நடித்த	-9.05095
கிரி	-9.05218
னெ	-9.0525
▁இப்	-9.05337
0,000	-9.05349
▁இறப்பு	-9.05434
▁தொடக்க	-9.05457
▁ஒத்த	-9.05519
ri	-9.0553
▁p	-9.05534
தற்காக	-9.06014
▁புகழ்	-9.06033
ித்து	-9.06072
ாது	-9.06187
et	-9.06207
▁நெல்	-9.0633
▁விலை	-9.06355
ுவதை	-9.06428
▁வைத்த	-9.06435
▁கன	-9.06496
ுக்கான	-9.06504
யுள்ள	-9.0655
பகுதி	-9.06776
▁பல்	-9.06796
▁தேர்தல்	-9.06921
▁கீழ	-9.06963
▁ஆவண	-9.06964
▁அக்	-9.06989
டல்	-9.07051
ரன்	-9.07243
▁திரைப்படமாகும்	-9.07491
த்தினை	-9.07527
▁2014	-9.07592
▁எல்	-9.07611
▁திட்டத்தின்	-9.07634
▁திருவிழா	-9.0764
▁K	-9.07686
▁26	-9.07723
கெ	-9.07757
▁ஆடி	-9.07793
▁அவ்வ	-9.07838
▁சொ	-9.07875
▁விற்பனை	-9.0788
▁விரும்ப	-9.07937
▁விளையாட்டுவீரர்	-9.07971
▁அதனால்	-9.07985
மின்	-9.08063
▁ஏற்படுத்த	-9.08074
▁மொழியில்	-9.08207
▁இர	-9.08216
ir	-9.08318
▁விபரக்குறிப்பு	-9.08339
▁சிவன்	-9.08436
▁27	-9.08472
க்கிய	-9.0854
ந்திர	-9.08561
▁கொண்டார்	-9.08564
▁சுதந்திர	-9.08585
▁இடை	-9.08615
மார்	-9.08712
▁விடுதலை	-9.08716
▁ஆண்டுகளுக்கு	-9.08768
ட்ச	-9.08877
க்கொண்ட	-9.08975
▁கீ	-9.0905
um	-9.09112
ாளி	-9.0929
▁கணித	-9.09567
பட்டி	-9.09798
▁வெள்ளை	-9.09823
▁இரண்ட	-9.09826
ட்டில்	-9.09835
▁அமைப்ப	-9.09844
▁உலோக	-9.10024
▁தொடர்பான	-9.1011
▁கான்	-9.10119
▁வகையான	-9.10145
ப்பர்	-9.10174
▁தேர்	-9.10283
ௌ	-9.10335
▁உள்	-9.10394
▁கொள்ளவில்லை	-9.10421
▁வந்தார்	-9.10435
யியல்	-9.10486
ங்கள	-9.1061
▁:	-9.10634
லீ	-9.10687
னாக	-9.10688
▁அவர்களின்	-9.10832
▁இருப்பதால்	-9.10927
▁பிள்ளை	-9.1109
▁லெ	-9.11258
பாளையம்	-9.11279
▁ல	-9.11472
▁வாழும்	-9.11501
▁ஏற்பட	-9.11518
▁தேர்வு	-9.11608
யினை	-9.11614
▁அதிகமான	-9.11619
றிய	-9.11651
லர்	-9.11654
லுக்கு	-9.11735
▁தல	-9.11795
▁சுவாமி	-9.11815
▁இள	-9.11885
▁c	-9.11955
களாகும்	-9.12018
ிகள்	-9.12103
▁ஏழு	-9.12113
▁புவி	-9.12173
▁இன்று	-9.12295
▁28	-9.12357
▁பின்ன	-9.12532
ணு	-9.12547
திய	-9.12737
19	-9.12861
▁சரி	-9.12862
ப்பட்டி	-9.12895
▁ஓட்ட	-9.13042
ணம்	-9.13048
▁நவீன	-9.13065
▁வீரர்	-9.13146
▁மீன்	-9.13192
பாடு	-9.13231
களைச்	-9.13323
▁பாரம்பரிய	-9.13377
▁தேர்தலில்	-9.13409
களிலிருந்து	-9.13655
▁மாற	-9.13701
▁கர	-9.13739
?	-9.13863
▁பர	-9.14103
ro	-9.14241
ுவதாக	-9.14277
மாகக்	-9.14302
ற்றி	-9.1434
▁எனப்	-9.14354
▁டிசம்பர்	-9.14383
சன	-9.1441
ரில்	-9.14419
கூ	-9.14422
▁கட்டுரை	-9.14425
▁பன்னாட்டு	-9.14486
லிய	-9.14556
ங்களைப்	-9.1463
▁மிகப்பெரிய	-9.14679
▁உறுதி	-9.14706
▁அமைக்கப்பட்ட	-9.1472
▁தஞ்சாவூர்	-9.1482
வேண்டும்	-9.14823
▁சனவரி	-9.1494
ங்கை	-9.14957
▁ஒன்றை	-9.14991
▁மை	-9.15018
▁கிறித்தவ	-9.1517
▁2012	-9.15194
▁முன்பு	-9.15238
▁ஓவிய	-9.15245
▁பதிப்ப	-9.15301
புர	-9.15334
▁டே	-9.15499
ந்தர்	-9.1571
ுமாறு	-9.15784
வார்	-9.15829
த்தைத்	-9.15838
▁கிரேக்க	-9.15882
▁கொண்டாட	-9.16088
னூர்	-9.16195
▁நேரத்தில்	-9.16198
▁வெப்பநிலை	-9.1633
▁இயக்கத்தில்	-9.16376
▁வானூர்தி	-9.16393
▁மேற்	-9.16412
▁தொடர	-9.16593
பால	-9.16686
▁சர்வதேச	-9.16793
▁மூன்றாம்	-9.16794
▁இருந்தன	-9.16803
▁திறன்	-9.16816
▁2005	-9.16854
▁அடுத்து	-9.16867
ச்சா	-9.16894
▁அறிமுகப்படுத்த	-9.1703
த்துக்	-9.17087
▁பொதுவான	-9.17196
▁இதழ்	-9.17363
▁நெடுஞ்சாலை	-9.1743
▁100	-9.17473
ப்பின்	-9.17474
ஷி	-9.17654
▁எடுத்து	-9.17655
ள்ளி	-9.17659
▁வெளியிட்ட	-9.17731
களுக்காக	-9.17779
ந்தை	-9.17792
▁நிறுத்த	-9.17829
த்திற்கான	-9.18129
▁W	-9.18261
▁பரவலாக	-9.18284
▁ஆக்க	-9.18287
ர்களின்	-9.18417
▁டோ	-9.18491
▁இயேசு	-9.18498
▁இருக்கலாம்	-9.18511
▁கடற்கரை	-9.18548
▁முன்னர்	-9.18566
மங்கலம்	-9.18664
▁இருக்கின்றன	-9.18755
▁நூற்றாண்டின்	-9.18798
தும்	-9.18838
வினை	-9.1896
▁வாய்ந்த	-9.19023
டம்	-9.19063
ப்படவில்லை	-9.19072
50	-9.19078
▁இரா	-9.19253
U	-9.1929
▁விலங்கு	-9.19358
▁குள	-9.19437
▁முதலிய	-9.19438
▁நிகழ்வு	-9.19475
ுவதற்காக	-9.19618
▁வேதியியல்	-9.19654
தாகக்	-9.19701
▁மிகுந்த	-9.19798
!	-9.19813
▁உயர்ந்த	-9.19846
▁b	-9.19854
▁மிகப்	-9.19854
▁எழுதப்பட்ட	-9.19859
▁உண்மை	-9.19894
▁ல்	-9.19926
▁பகுதிகள்	-9.19976
▁அளிக்க	-9.20277
un	-9.20299
▁குறைவான	-9.20348
▁தமிழர்	-9.20362
▁வெளியிட	-9.20375
▁உறுப்பு	-9.20451
விட்டு	-9.2047
15	-9.20508
▁ராம	-9.20625
▁எழுதி	-9.20968
▁சட்டம்	-9.20999
▁முடி	-9.21134
ங்கோ	-9.21181
ப்பள்ளி	-9.21208
▁அணை	-9.21399
▁தலைவராக	-9.21447
▁s	-9.21672
▁இவரின்	-9.21702
▁நல	-9.21801
▁எதிரான	-9.21841
▁பனி	-9.21868
▁விசை	-9.21957
▁இறந்த	-9.22008
▁அரு	-9.22024
▁மரபு	-9.22033
▁2004	-9.22079
▁கட்டுப்படுத்த	-9.22136
▁மாவட்டத்தின்	-9.22255
▁கொண்டிருக்கும்	-9.22318
▁என்பன	-9.22337
ரூ	-9.2256
ாக்க	-9.22658
▁நடிகர்	-9.22677
▁மட	-9.22755
▁2013	-9.22945
▁கூறு	-9.22954
மர்	-9.22995
z	-9.23008
றா	-9.2304
▁யாழ்ப்பாண	-9.2304
▁தன்னுடைய	-9.23099
▁கிமீ	-9.23183
▁இல	-9.23189
கல	-9.23266
▁அச்ச	-9.23292
▁சந்திர	-9.23312
லூர்	-9.23363
ட்டின்	-9.23508
▁செய்	-9.23658
▁சொந்த	-9.23666
▁நம்ப	-9.23666
ட்டர்	-9.23775
▁2000	-9.23987
▁ரெ	-9.24082
▁50	-9.24102
▁கல்	-9.24107
▁பாக	-9.24185
▁ஜே	-9.24194
▁தத்துவ	-9.24291
▁சோழ	-9.24455
▁அரி	-9.2446
ற்கு	-9.24473
▁பயன்பாடு	-9.24474
த்தோ	-9.24503
ல்ல	-9.24545
▁அவற்றை	-9.24624
▁அதிகார	-9.24639
▁29	-9.24681
▁பார்வை	-9.24731
▁தரவு	-9.24774
▁உயர	-9.24794
▁பாடல்கள்	-9.24836
▁கொண்டிருந்த	-9.24838
▁நாட்டில்	-9.24944
க்கே	-9.2497
▁இயந்திர	-9.24972
▁வான்	-9.24996
▁கூட்டு	-9.25037
▁இத்தகைய	-9.25372
ட்சி	-9.25378
▁மாறி	-9.25406
▁இறுதியில்	-9.25415
▁வர்த்தக	-9.25486
ரங்க	-9.25493
▁சண்டை	-9.25559
▁அமைக்க	-9.25596
வற்றை	-9.2562
▁கட்டி	-9.25638
விலும்	-9.25653
▁இக்க	-9.25656
ா்	-9.25789
▁பறவை	-9.25833
▁கிலோமீட்டர்	-9.25924
▁அறிக்கை	-9.2614
▁தமிழில்	-9.26199
ிலேயே	-9.26322
▁உட்பட	-9.26404
▁குல	-9.26439
▁சாதாரண	-9.26581
▁கரிம	-9.26608
▁பூங்கா	-9.26634
▁அத்துடன்	-9.26646
000	-9.26757
ொரு	-9.26769
ரான்	-9.26792
▁கொடுக்க	-9.26794
▁சுந்தர	-9.26832
▁பகுதியாக	-9.26944
12	-9.26952
▁குண	-9.26973
▁சிங்	-9.26988
▁தொடர்புடைய	-9.27034
▁அமெரிக்காவில்	-9.27052
▁பயண	-9.27152
▁வாகன	-9.27156
முனை	-9.27216
▁பொருட்கள்	-9.27232
▁நாட்ட	-9.27253
▁நாடாளுமன்ற	-9.27335
▁திருத்தந்தை	-9.27402
த்தான்	-9.27403
▁முதலாம்	-9.27508
▁நீள	-9.2779
களிடம்	-9.27871
முள்ள	-9.27928
ிருக்கிறார்	-9.28021
யில	-9.28041
▁விளையாட	-9.28049
▁பணியாற்றினார்	-9.28058
வற்ற	-9.28143
▁காந்தி	-9.28262
ார்கள்	-9.28323
ப்படுவது	-9.28331
▁2016	-9.28352
30	-9.28458
▁அல்ல	-9.28463
த்தன்மை	-9.28524
▁தேவையான	-9.28572
▁ய	-9.28599
▁ஃபி	-9.28636
▁பொருத்த	-9.28765
▁அழைக்கப்படும்	-9.28926
▁முன்னேற்ற	-9.28997
▁வாய்ப்பு	-9.29008
-19	-9.29021
▁ஆக்கைவ	-9.29044
▁வழக்க	-9.29085
▁வெளிப்படுத்த	-9.2909
▁குறு	-9.29103
பிறப்பு	-9.29176
▁வல்ல	-9.29189
om	-9.29201
▁உடை	-9.29271
ன்று	-9.29392
▁எட்டு	-9.29404
▁ஆல	-9.29443
▁ஷா	-9.29561
▁செய்வ	-9.29568
▁தன்னை	-9.29628
▁அழுத்த	-9.29719
▁பண	-9.29732
W	-9.2974
17	-9.29767
▁எடுக்க	-9.29837
▁இரட்டை	-9.29872
எஸ்	-9.29895
▁இலை	-9.29942
▁புகழ்பெற்ற	-9.29963
▁அரை	-9.30046
திரு	-9.30189
▁அனு	-9.30227
▁இதுவே	-9.30271
▁சந்தை	-9.30285
▁அழி	-9.30354
▁கண்டுபிடிக்க	-9.30413
▁அறை	-9.30452
▁மழை	-9.3059
ின்றது	-9.30611
40	-9.30627
ிருப்ப	-9.30662
▁கட்டப்பட்ட	-9.30669
▁ஆதி	-9.30817
ai	-9.30932
வாத	-9.30954
▁அரசாங்க	-9.30966
▁கீழே	-9.31033
பால்	-9.3108
▁மக்கள்தொகை	-9.31104
▁இடையில்	-9.31108
▁சுற்று	-9.31155
▁கப்பல்	-9.31282
▁வருகிறார்	-9.31364
▁போக்குவரத்து	-9.3138
▁சொற்	-9.31402
▁தெய்வ	-9.31413
▁அதிகம்	-9.31416
அழைக்கப்படுகிறது	-9.31452
ற்க	-9.31454
▁வெவ்வேறு	-9.31645
▁மாணவர்	-9.31675
த்தது	-9.31836
▁பத்து	-9.31848
▁கோட்ட	-9.31981
▁இந்தத்	-9.31991
▁காரணம்	-9.32082
பர	-9.3209
▁சூலை	-9.32139
▁தொகுதியில்	-9.3217
▁செயல	-9.32199
▁ஹோ	-9.3224
ையில்	-9.32326
▁சேர	-9.32363
▁பிப்ரவரி	-9.32423
▁காற்ற	-9.32459
ent	-9.32467
▁கல்லூரியில்	-9.32472
▁கவிதை	-9.32532
▁என்ன	-9.32547
▁ஆஃப்	-9.32736
▁செயல்பாடு	-9.32951
யெ	-9.32993
▁புத்த	-9.33005
▁பரவ	-9.33034
▁40	-9.33038
▁கிரி	-9.331
ஒ	-9.33137
▁லே	-9.33212
தார	-9.33267
▁செய்யப்பட்டது	-9.33273
ம்பட்டி	-9.33422
ப்பெற்ற	-9.33437
▁மாரியம்மன்	-9.33548
▁திரும்ப	-9.33558
ரச	-9.33577
▁இச்ச	-9.33583
வதற்கு	-9.33645
டீ	-9.33647
▁அதி	-9.33702
ப்பதற்கு	-9.33726
கின்றது	-9.33736
▁மண்	-9.33755
▁ஈர	-9.33785
ay	-9.33799
க்கப்பட்டது	-9.33862
▁அனுப்ப	-9.34003
▁அர	-9.34005
▁ஹி	-9.34073
▁தொடருந்து	-9.34078
யற்ற	-9.34102
ப்பில்	-9.34155
▁நடிகை	-9.34357
▁தோட்ட	-9.34405
▁ஆவது	-9.34439
ிறார்	-9.34461
▁வேதி	-9.34495
▁அவன்	-9.34508
▁எடை	-9.3461
ுவதால்	-9.34646
▁வங்காள	-9.3465
▁காட்டு	-9.34669
▁மருந்து	-9.34682
▁ஞான	-9.34825
▁பங்க	-9.34892
▁and	-9.349
▁தட	-9.35037
▁அலகு	-9.35052
▁காரணி	-9.35072
▁V	-9.35105
▁பயன்படுகிறது	-9.35168
▁m	-9.35178
மிக்க	-9.35263
▁O	-9.35291
ஷா	-9.35326
த்திற்கும்	-9.35375
கண்ட	-9.3538
ுகின்ற	-9.35446
▁விட்ட	-9.3545
▁சூன்	-9.35533
ag	-9.35594
மம்	-9.356
▁பாதை	-9.35664
▁நிறுவனத்தின்	-9.3597
▁அரங்க	-9.3598
த்தே	-9.36001
வரின்	-9.3603
▁நடித்தார்	-9.36132
▁பொருட்	-9.36158
▁கூறினார்	-9.36204
வள	-9.36207
▁பண்டைய	-9.36213
ரசு	-9.36233
▁பாத்திர	-9.36302
கில்	-9.36448
▁திருமண	-9.36537
▁தந்த	-9.36543
▁சுர	-9.36547
க்கொண்டு	-9.36569
ங்களுடன்	-9.36602
யிலுள்ள	-9.36642
▁விகித	-9.36672
▁ஊடக	-9.36696
ுவதற்கான	-9.36882
▁எதிர்ப்பு	-9.37248
▁பர்	-9.37277
▁கிடைக்க	-9.37336
▁கோல்	-9.37392
▁நேரம்	-9.37425
▁பரிசு	-9.3747
▁பூச்சி	-9.37472
▁கனிம	-9.3759
▁முன்னணி	-9.3763
▁கிள	-9.37653
ீடு	-9.37658
▁காற்று	-9.3766
v	-9.37684
ஜெ	-9.37717
▁இசு	-9.37822
▁வருகின்றன	-9.37912
ட்ரோ	-9.3792
▁வலி	-9.38075
▁1990	-9.3815
▁மரண	-9.38163
▁பத்திரிகை	-9.38173
▁இன்னும்	-9.38279
▁கண்டு	-9.38295
▁அறியப்பட்ட	-9.38326
▁ரே	-9.38473
▁ஆனது	-9.38523
ter	-9.38543
▁மூன்றாவது	-9.38547
▁நூல்கள்	-9.38571
▁செயல்முறை	-9.38604
க்களை	-9.38626
▁புராண	-9.38715
ப்பிர	-9.38739
▁விநாயகர்	-9.38741
▁போன்று	-9.38757
▁கார	-9.3879
▁வாங்க	-9.38817
▁திசை	-9.38846
புரி	-9.38917
▁31	-9.38941
வாகும்	-9.3896
▁கோட்பாடு	-9.38962
▁முந்தைய	-9.38962
ேன்	-9.38974
▁அடர்த்தி	-9.39046
▁நிகழ்ந்த	-9.39111
▁கடந்த	-9.39159
▁அங்க	-9.3924
▁தொலை	-9.3927
ுகிறார்கள்	-9.39485
சுவாமி	-9.39536
=	-9.3958
▁உட்பட்ட	-9.39607
▁வெளியான	-9.3977
மிய	-9.39779
▁தற்போதைய	-9.39798
▁வயதில்	-9.39899
▁கிராமம்	-9.39911
▁ரூ	-9.39917
▁ஆல்ப	-9.39959
▁வாய்	-9.39961
▁திருவண்ணாமலை	-9.39968
ia	-9.39981
▁உலகப்	-9.39992
▁ஜனவரி	-9.4001
▁கிடைத்த	-9.40247
ஃ	-9.40267
▁பின்பு	-9.40302
▁விருப்ப	-9.40341
▁தகுதி	-9.4035
னல்	-9.40387
▁பௌத்த	-9.4042
மைய	-9.40483
▁இந்தியத்	-9.4049
▁மெய்	-9.40495
மற்ற	-9.40614
ராஜ	-9.40649
▁நிகழ்	-9.4067
▁சிறப்பாக	-9.40724
களாகவும்	-9.40771
▁தின	-9.40826
▁in	-9.40897
▁குறியீடு	-9.40947
▁புரட்சி	-9.40947
▁ஆவர்	-9.41037
▁குற்ற	-9.41362
▁அளித்த	-9.41395
டிக்	-9.4145
▁ஒற்றை	-9.41475
▁பொருள	-9.41498
த்திற்காக	-9.41556
16	-9.41587
▁பல்கலைக்கழகம்	-9.416
▁பெயரை	-9.41608
▁அடங்கும்	-9.41684
▁நிறுவனங்கள்	-9.41819
▁வெள்ள	-9.41903
▁நேபாள	-9.41969
▁படைப்பு	-9.42045
வெளி	-9.4215
▁பொழுது	-9.42236
ப்பொருள்	-9.42257
ப்படாத	-9.4227
முடி	-9.42304
▁சிற்ற	-9.42336
▁குட	-9.4242
▁இதய	-9.42465
w	-9.42537
▁கதிர்	-9.42751
▁இல்ல	-9.42758
பிர	-9.4279
ஞ்சு	-9.42847
ளு	-9.42849
▁சன்னதி	-9.42864
▁நை	-9.4295
▁விளம்பர	-9.43005
க்குச்	-9.43115
▁தனிம	-9.43115
▁வீடு	-9.43202
▁துவக்க	-9.43228
▁நாள	-9.43265
ராய்	-9.43331
▁தொடங்கி	-9.43408
▁நாடுகளின்	-9.43418
ப்பான	-9.43508
▁நீல	-9.43531
id	-9.43728
▁சுற்றுலா	-9.43737
வாதி	-9.43754
▁முதன்	-9.43764
▁வருவாய்	-9.43774
▁தாக்குதல்	-9.43774
ியா	-9.43795
▁பக	-9.43866
▁வான	-9.43872
▁விகிதம்	-9.4392
▁ஆகவும்	-9.43966
▁விவரிக்க	-9.43993
▁ஆப்	-9.44015
▁விளை	-9.4404
▁கத்தோலிக்க	-9.44096
டியா	-9.44138
▁புலவர்	-9.44178
ுவர்	-9.44195
ூட்ட	-9.44228
▁ஆன்	-9.44262
▁பென்	-9.44289
ராய	-9.44297
▁தை	-9.44393
▁ஒப்பந்த	-9.4456
▁இவரை	-9.44568
▁உயிர	-9.44605
▁குறிப்ப	-9.44609
▁ஆகியவற்றின்	-9.44682
▁பரப்ப	-9.44716
and	-9.44722
நாத	-9.44752
▁கட்சியின்	-9.44784
▁தில்லி	-9.4479
▁விண்மீன்	-9.44804
▁மைல்	-9.44819
▁மாற்றம்	-9.44843
▁வேத	-9.44858
▁மிக்க	-9.44878
▁மாற்றி	-9.44944
ிற்கான	-9.44974
▁ஒன்றிய	-9.45093
▁கொடுத்த	-9.451
▁ஆயுத	-9.45129
யூர்	-9.45163
▁கிடைக்கும்	-9.45182
▁முதலாவது	-9.45203
▁இப்போது	-9.45237
க்குத்	-9.45279
▁திரைப்படத்தில்	-9.45307
▁கடைசி	-9.4532
▁கல்வெட்டு	-9.45337
ணர்	-9.45393
▁அடையாள	-9.45411
▁மூலக்கூறு	-9.45443
▁தூண்ட	-9.45462
▁மும்பை	-9.4551
▁மேம்படுத்த	-9.45608
▁அருகே	-9.45626
▁கொல்ல	-9.45778
தலை	-9.45823
குடி	-9.45889
▁1980	-9.45935
▁ஆக்	-9.45978
▁கழக	-9.46006
ஸ்ட	-9.46048
▁நிறுவ	-9.46078
ot	-9.46136
ியம்	-9.4617
▁திரை	-9.46184
லன்	-9.46254
▁ஒருநாள்	-9.46301
▁விதை	-9.46348
▁வால்	-9.46361
▁வண்ண	-9.46408
க்கார	-9.46489
ரல்	-9.46498
ந்	-9.46507
▁உடல	-9.46547
ீர்	-9.4655
த்தன	-9.46588
▁ஏற்ப	-9.46633
தில்லை	-9.46658
ம்பா	-9.467
ப்பகுதியில்	-9.46792
▁இலங்கையில்	-9.46792
யினால்	-9.46848
11	-9.46861
▁என்றால்	-9.46918
▁திருநெல்வேலி	-9.46992
▁பாய்	-9.47011
▁கல்வியறிவு	-9.47037
▁துறைமுக	-9.47044
▁பாறை	-9.47067
▁பெண்ண	-9.47077
▁அனுமதி	-9.47232
▁நுட்ப	-9.47255
ஸின்	-9.47282
க்குரிய	-9.47287
வித	-9.47316
யிலேயே	-9.47435
லாக	-9.47486
▁கொடி	-9.47522
ேஷ்	-9.47536
▁இருந்தாலும்	-9.47576
▁தொடங்கியது	-9.47632
கொள்	-9.47635
ையா	-9.47672
▁முடிவ	-9.47705
▁பகுதிகளை	-9.47769
os	-9.47836
▁இல்லாமல்	-9.4784
▁முதல	-9.47859
▁காஞ்சிபுரம்	-9.47861
▁கம்ப	-9.47909
▁உச்ச	-9.47931
▁பிரெஞ்சு	-9.47949
▁எழு	-9.47954
வல	-9.48035
▁வென்ற	-9.48071
▁போரில்	-9.48091
▁ஃப	-9.48156
▁கலைஞர்	-9.48219
னீ	-9.48243
li	-9.48248
▁அமெரிக்காவின்	-9.48274
▁பிரிக்க	-9.48329
▁சுய	-9.48373
▁இணைந்த	-9.48431
ும	-9.48451
▁திட்டம்	-9.48493
▁சிலை	-9.48494
▁மாற்று	-9.48523
▁லூ	-9.48578
▁விளைவாக	-9.48656
em	-9.48733
கொள்ள	-9.48737
▁உறவு	-9.48766
▁நாணய	-9.48772
பிரி	-9.488
▁இளம்	-9.49043
▁அனுபவ	-9.49053
▁2003	-9.49134
▁இவருடைய	-9.49139
▁முத்து	-9.49166
▁இம்	-9.49356
▁J	-9.49392
▁ஆகியன	-9.49443
▁பதிப்பு	-9.49513
▁நடன	-9.49524
ப்பாடு	-9.49641
99	-9.49693
▁என்பதால்	-9.49706
▁தொடங்கினார்	-9.49727
▁உள்ளூர்	-9.49729
▁ஜூன்	-9.49767
▁தயாரிப்பு	-9.49777
▁ஏனெனில்	-9.49788
நீ	-9.49799
▁வெள்ளி	-9.49853
▁படம்	-9.49857
▁இவ்வகை	-9.4989
▁கூறி	-9.4992
▁ஏறத்தாழ	-9.49927
▁கிருஷ்ண	-9.49929
▁பஞ்ச	-9.49939
▁அயனி	-9.49945
▁வழங்கி	-9.49984
▁தரை	-9.49995
▁ஆட	-9.50032
▁ஆன	-9.50139
60	-9.50155
▁வேக	-9.50182
▁சைவ	-9.5028
ஃப	-9.50329
ஸ்டர்	-9.50381
▁ஆள	-9.50386
▁வம்ச	-9.50422
▁புலி	-9.50441
நீர்	-9.50447
▁அறிவு	-9.50513
▁அளவை	-9.50541
▁வில்	-9.50576
▁ஆகத்து	-9.50582
▁மேற்கொள்ள	-9.50671
▁உள்ளடக்கிய	-9.5074
ுக்காக	-9.50776
▁தடுக்க	-9.5082
▁நதி	-9.50848
▁வழங்கப்பட்டது	-9.50866
▁குதிரை	-9.50927
▁உப்பு	-9.5102
▁பின்வருமாறு	-9.51051
▁வெளியிடப்பட்டது	-9.51176
மைப்பு	-9.51227
▁படைகள்	-9.51354
▁கட்டு	-9.51355
காண	-9.5136
▁நன்கு	-9.51478
▁பூமி	-9.51498
▁அவர்களது	-9.51523
▁இருவரும்	-9.51612
க்கிறது	-9.51686
கான்	-9.51764
▁இதே	-9.51855
▁அரசர்	-9.51908
திர்	-9.51997
▁அமையும்	-9.52036
ப்பணி	-9.52042
▁நினைவு	-9.52095
▁லீ	-9.52126
▁அமைதி	-9.52127
▁வகுப்பு	-9.5215
ன்ற	-9.52158
▁பதிலாக	-9.52162
▁இணைக்கப்பட்ட	-9.52262
▁சுழற்சி	-9.52302
எடுத்துக்காட்டாக	-9.52325
▁பகுதியை	-9.52363
▁பிரபலமான	-9.52415
பொருள்	-9.52521
▁இசுலாமிய	-9.52521
ேற்ற	-9.52556
▁பலர்	-9.52637
▁பார்த்த	-9.52646
▁என்கிற	-9.52687
▁மல	-9.52788
▁மேலாண்மை	-9.52812
▁இப்ப	-9.52895
▁நாட்கள்	-9.52897
j	-9.52901
▁சமுதாய	-9.52903
▁தோன்றிய	-9.53083
பெற்ற	-9.53126
14	-9.53193
▁இவற்றின்	-9.53247
ஃபி	-9.53255
ate	-9.53283
கட	-9.53298
கூட	-9.5331
ிருக்கலாம்	-9.5332
▁மாலை	-9.53353
வையாக	-9.53392
▁ஏனைய	-9.53444
▁பேரரசு	-9.53455
கிழ	-9.53478
▁திராவிட	-9.53486
ப்பாக	-9.53494
க்கால	-9.53523
▁பரி	-9.53617
▁கடை	-9.53628
▁தொழிலாளர்	-9.5363
ண்டை	-9.53694
என்	-9.53734
▁பேருந்து	-9.53771
ha	-9.53792
▁சேர்க்க	-9.53823
▁யானை	-9.53855
▁படுத்த	-9.53906
▁சாத்திய	-9.54022
▁திரி	-9.54084
▁ஜூலை	-9.54125
ஹ்	-9.54159
▁காம	-9.54293
▁2002	-9.54405
▁வார்த்தை	-9.54415
க்கொள்ள	-9.54448
ut	-9.54566
மதி	-9.54589
-1	-9.54667
ஹி	-9.54794
▁ஆசிய	-9.54873
▁நீளம்	-9.54924
▁அடைந்த	-9.54961
ஓ	-9.54968
▁அமைத்த	-9.54984
▁யோ	-9.55076
▁தனிப்பட்ட	-9.55117
▁இருப்ப	-9.55194
▁குழந்தைகள்	-9.55228
க்கோட்டை	-9.55273
▁பலரும்	-9.55315
கிறார்	-9.5532
▁வில்லியம்	-9.55342
▁மனிதர்	-9.55368
ிருக்கின்றன	-9.5541
▁வானொலி	-9.55434
▁குறைக்க	-9.55441
▁பெருக்க	-9.555
▁நேரடியாக	-9.55501
தோடு	-9.55525
▁காய	-9.5554
▁கிராமக்	-9.55605
▁பாதிக்கப்பட்ட	-9.55641
▁பிரபல	-9.55671
பன்	-9.55846
▁நோயாளி	-9.55922
▁மது	-9.55939
▁முறையாக	-9.55999
சில்	-9.56011
im	-9.56103
ெழு	-9.56133
▁ஆய்வ	-9.56141
▁பிரதான	-9.56153
▁திரவ	-9.56188
▁நடைபெறும்	-9.56206
▁பாடல	-9.56253
ிற்கும்	-9.56317
▁பயிர்	-9.56322
▁ஆலய	-9.56418
▁இவற்றை	-9.5642
▁பயன்	-9.56461
▁வன	-9.56467
வாக்க	-9.56505
ிசை	-9.56641
▁ஜெய	-9.56695
ுவதன்	-9.56736
▁+	-9.56782
▁கோண	-9.56797
▁நு	-9.568
▁உலகில்	-9.56815
▁புரத	-9.56824
▁அளவ	-9.56841
தெ	-9.56911
த்தக்க	-9.56979
▁கழகம்	-9.57099
80	-9.57117
▁வளர்ந்த	-9.57126
▁குறைவாக	-9.57164
▁வட்டம்	-9.57253
▁திறமை	-9.57263
▁பொறியியல்	-9.5729
ுவதில்	-9.57328
09	-9.57442
▁அடைய	-9.57488
ப்பூ	-9.57517
▁தேச	-9.57556
தற்கான	-9.57583
யாக்க	-9.57586
▁வீட்டு	-9.57616
போர்	-9.57679
விலிருந்து	-9.57685
▁எடுத்துக்	-9.57712
▁ஊர	-9.57716
▁பல்ல	-9.57736
▁பொருட்களை	-9.5779
▁செய்தது	-9.57828
▁பின்பற்ற	-9.57877
▁தீவிர	-9.57889
▁f	-9.57904
யினர்	-9.5793
களோடு	-9.5798
ுபவர்	-9.5799
▁கொலை	-9.57993
ாய	-9.57993
ேட்டு	-9.57997
▁பன்னாட்டுத்	-9.58012
▁தோன்ற	-9.58115
▁வேறுபட்ட	-9.58129
விடும்	-9.58196
மூ	-9.58202
பெரு	-9.58205
ூரில்	-9.58214
▁சார்	-9.583
க்குடி	-9.58423
18	-9.58441
▁காணலாம்	-9.58469
▁அண்ட	-9.58513
▁திசம்பர்	-9.58576
▁தெலுங்கு	-9.58641
லக	-9.58642
▁மலையாள	-9.58748
06	-9.58766
▁இராஜ	-9.5877
▁புரோ	-9.58774
▁தொகுப்ப	-9.58789
▁பச்சை	-9.58807
ீட்டு	-9.58812
▁இதழ	-9.5882
வாறு	-9.5883
▁கொண்டுள்ளன	-9.58865
la	-9.58947
▁மண்ண	-9.58973
▁நாம்	-9.58991
25	-9.58991
X	-9.59039
பெர்	-9.59088
ig	-9.59105
▁நீதிமன்ற	-9.59107
யிர்	-9.59161
▁இரவு	-9.592
od	-9.59263
▁ஏற்பட்டது	-9.59311
மண	-9.59338
வருக்கு	-9.5936
▁பயன்படும்	-9.59375
களாலும்	-9.59464
ாகப்	-9.59477
முடைய	-9.5952
▁காரண	-9.59543
▁எடுத்த	-9.59545
த்தினால்	-9.59554
▁வழிமுறை	-9.59602
▁நடத்தி	-9.5961
▁ஈழ	-9.59614
▁வெளியே	-9.59644
வம்	-9.59654
▁அடக்க	-9.59685
95	-9.59762
▁இணைப்பு	-9.59766
ளம்	-9.59843
▁துணி	-9.59916
▁பின்வரும்	-9.59919
▁மக்களுக்கு	-9.59921
se	-9.59965
▁யூத	-9.59986
▁செயற்கை	-9.60082
▁இராச	-9.60096
▁கேரள	-9.60097
▁இருந்தால்	-9.60109
▁கடவுள்	-9.60146
ந்தது	-9.60153
ப்பூர்	-9.60153
▁60	-9.60154
▁இருப்பது	-9.602
▁ஜெர்மனி	-9.60213
பகுப்பு	-9.60246
எம்	-9.60281
▁படத்தில்	-9.60296
▁அமைந்துள்ளன	-9.60351
▁1970	-9.60392
▁தேவி	-9.60414
▁சென்	-9.60428
தன	-9.60466
ிடமிருந்து	-9.60478
ாா்	-9.60478
ேந்திர	-9.60567
▁நடை	-9.60575
மையான	-9.60595
▁சிக்கல்	-9.60612
ab	-9.60671
வரி	-9.60679
▁வடிவம்	-9.60779
▁படைத்த	-9.60876
ிருந்து	-9.60888
▁இடைவெளி	-9.60952
▁வெடி	-9.61
▁பயன	-9.61007
▁இங்குள்ள	-9.61035
▁கடல	-9.61069
op	-9.61071
நூல்	-9.61136
▁திருச்சபை	-9.61136
▁ஒப்பு	-9.61148
▁விஜய	-9.61157
▁பிரச்சினை	-9.6125
▁பய	-9.6126
ta	-9.61281
▁அங்கே	-9.61312
▁பாவ	-9.61364
▁/	-9.61374
▁கைப்பற்ற	-9.61403
▁அமைந்தது	-9.61487
ோட்ட	-9.61513
▁வலை	-9.61561
விட்ட	-9.61598
▁மின்சார	-9.61602
▁வழங்கும்	-9.61614
▁சிங்க	-9.61636
▁சீர	-9.6165
்க	-9.61652
98	-9.61668
13	-9.6171
கிராம	-9.61721
ிற்காக	-9.61757
▁பிடித்த	-9.61791
▁பாதி	-9.61812
▁நிறைவேற்ற	-9.61829
▁அடிப்படையாகக்	-9.61856
▁சிறை	-9.61871
▁சிலர்	-9.61927
ட்டம்	-9.62
▁கட்டமைப்பு	-9.6206
▁காந்த	-9.62109
ாளர்கள்	-9.62112
ang	-9.62127
மூல	-9.62153
▁எண்ணெய்	-9.62165
▁போன்றவற்றை	-9.62235
▁பெருமை	-9.62248
▁ஷ	-9.62262
ப்பட்டுள்ள	-9.62273
▁உருவாக்கிய	-9.62284
வதி	-9.62287
70	-9.62311
▁அசை	-9.62359
▁சாதனை	-9.6236
ேஸ்வரர்	-9.62361
▁வல	-9.62374
ராஜ்	-9.62385
▁துறையில்	-9.62389
▁கலாச்சார	-9.62403
பிய	-9.62416
த்தலை	-9.62418
▁கர்	-9.6245
ரக	-9.62548
▁அம்ம	-9.62551
▁செயல்பட	-9.62559
▁முடியாது	-9.62606
ார	-9.62613
▁பொறி	-9.62651
▁சார்பு	-9.62672
நாடு	-9.62688
▁அழக	-9.62725
▁பயணி	-9.62736
வட்ட	-9.62758
▁சிவகங்கை	-9.62773
ங்க்	-9.62798
லிங்க	-9.62852
J	-9.62854
▁வாயு	-9.62875
▁இலக்கண	-9.62877
▁என்றாலும்	-9.62896
▁நடித்துள்ளார்	-9.62923
▁உறை	-9.6294
லூ	-9.62958
வையும்	-9.62988
▁ரயில்	-9.62992
▁ஓர	-9.63135
▁அச்சு	-9.6315
▁முறைமை	-9.63195
▁பாடிய	-9.63224
▁உள்ளடக்க	-9.63228
குறி	-9.63328
▁லோ	-9.6334
▁விண்வெளி	-9.63357
ரிக்	-9.63361
▁கொள்	-9.63361
▁தெரிவித்த	-9.63373
▁பிரம்ம	-9.63379
▁முட்டை	-9.63385
▁அரசியல்வாதி	-9.63408
90	-9.63411
வடிவ	-9.63446
▁ஏற்க	-9.63469
▁நிறைந்த	-9.63481
▁குளிர்	-9.63493
ண்டர்	-9.63494
க்கலை	-9.63495
ப்புற	-9.63515
st	-9.63544
▁ஆகியவற்றில்	-9.63567
▁பேரரச	-9.63637
▁1960	-9.63652
▁மையமாக	-9.63653
▁பெற்றவர்	-9.6378
▁அவர்களுக்கு	-9.63833
▁வளைய	-9.63835
▁மதிப்ப	-9.63848
▁சீனா	-9.63858
▁கேள்வி	-9.63891
யாகக்	-9.63984
▁அப்ப	-9.64034
ath	-9.64095
பாட	-9.64145
▁()	-9.6415
▁நே	-9.64165
▁அர்	-9.64176
▁போலவே	-9.64181
▁வகைப்படுத்த	-9.64192
+	-9.64194
▁கூறப்படுகிறது	-9.64196
▁பாதுகாப்ப	-9.6421
புற	-9.64229
▁நேச	-9.6424
னிக்	-9.64265
▁உண்ண	-9.6435
▁குருதி	-9.64448
▁ஆசியா	-9.64481
▁தவ	-9.64508
கின்	-9.64589
நகர	-9.6459
யுடைய	-9.64616
all	-9.64709
நல்லூர்	-9.64732
மடைந்த	-9.64734
▁சமயம்	-9.64789
வர்களுக்கு	-9.64792
▁புதின	-9.64799
▁a	-9.6482
▁பாணி	-9.64871
▁மஞ்சள்	-9.64929
யம்மன்	-9.65018
யோடு	-9.65038
▁இடத்தை	-9.65057
க்கரை	-9.6511
▁கடவுள	-9.65136
▁நீதி	-9.65153
­	-9.65183
▁சேர்	-9.65239
வரு	-9.65274
ெய்	-9.6532
▁இறை	-9.65336
▁சென்றார்	-9.6539
92	-9.65395
96	-9.65473
▁வெளியிடப்பட்ட	-9.65486
▁தெரிய	-9.65542
▁சூழ்நிலை	-9.65565
▁டொ	-9.65586
▁பிரதி	-9.65597
லால்	-9.65601
▁காதல்	-9.6561
▁நட்சத்திர	-9.65782
▁கலவை	-9.65822
▁ஜீ	-9.65838
▁இலக்க	-9.65848
▁எழுதியுள்ளார்	-9.65873
▁உள	-9.65881
°	-9.65888
▁வெளியேற்ற	-9.6592
▁இம்ம	-9.65924
▁நிலையை	-9.65953
▁சேர்ந்தவர்	-9.65963
91	-9.66041
வில	-9.66076
▁அதிகாரி	-9.66077
▁அறிந்த	-9.661
ak	-9.66106
▁சாதி	-9.66177
▁ஆகஸ்ட்	-9.66233
ாகக்	-9.66246
67	-9.66285
மாற்ற	-9.66301
▁டீ	-9.66343
▁கோப்பை	-9.66383
க்கப்பட்டு	-9.66411
ினாலும்	-9.66418
na	-9.66457
ion	-9.66492
▁புதுக்கோட்டை	-9.66507
லாந்து	-9.66531
▁சேலம்	-9.66556
ஸா	-9.66571
▁இருப்பதாக	-9.66592
▁விவர	-9.66636
▁முக்கியத்துவம்	-9.6666
▁ஒலிம்பிக்	-9.66794
▁ஆற்றின்	-9.66861
▁என்பத	-9.66869
ட்ரா	-9.66928
▁வாக்கு	-9.67016
▁அடுக்கு	-9.6702
▁அமிலம்	-9.67068
88	-9.67102
▁திருத்த	-9.67162
க்களின்	-9.67216
ாண்டு	-9.67219
நேர	-9.6722
▁இருந்தனர்	-9.67261
▁ஆதார	-9.67262
▁நகைச்சுவை	-9.67321
க்கூட	-9.6734
லியா	-9.67364
▁உருவாக்கி	-9.67388
▁நூல	-9.67413
▁எலும்பு	-9.67426
ow	-9.67451
ப்படலாம்	-9.67534
▁திறந்த	-9.67535
▁என்பவரால்	-9.67589
▁உள்நாட்டு	-9.67607
ராச	-9.67623
க்கல	-9.6768
▁குறிப்பு	-9.67692
▁மக்	-9.6773
▁எழுதினார்	-9.67769
▁வைர	-9.6781
▁இராக	-9.67854
▁பிளா	-9.67881
01	-9.67897
04	-9.67899
▁எடுத்துக்காட்டு	-9.6801
▁தனியார்	-9.68049
ச்செ	-9.68112
ist	-9.68159
▁கதாபாத்திர	-9.68211
▁கிட்டத்தட்ட	-9.68267
▁வாழ்வ	-9.68375
▁மூலக்கூற்று	-9.68379
▁பயணம்	-9.68426
▁மலர்	-9.68431
சென்	-9.68498
▁கூறிய	-9.68532
ma	-9.68641
▁மட்ட	-9.68727
▁இயக்கம்	-9.6878
களுக்குப்	-9.68908
▁இந்நகர	-9.68959
ீஸ்வரர்	-9.68989
▁போற்ற	-9.69043
▁செயல்படுத்த	-9.69044
▁உர	-9.69088
▁பத	-9.69147
▁கோடி	-9.69152
▁திரைப்படங்களில்	-9.6916
▁அரண்மனை	-9.69223
▁சிறப்ப	-9.69295
▁கார்பன்	-9.69362
▁அமைப்பை	-9.69487
▁பாடசாலை	-9.6952
க்குறி	-9.69525
▁வாழ	-9.69539
▁நகராட்சி	-9.69595
▁சாதன	-9.69601
த்திலேயே	-9.6961
▁கிரிக்கட்	-9.69625
ap	-9.69635
▁பெறும்	-9.69737
▁ஆய	-9.69803
▁முடியாத	-9.69817
▁பரிமாற்ற	-9.69825
▁சோவியத்	-9.69835
▁நடத்திய	-9.69837
ியுள்ளார்	-9.69842
02	-9.69857
த்திலுள்ள	-9.69915
▁இவ்வி	-9.69919
▁பரப்பு	-9.69943
▁முனைவர்	-9.69967
யிலான	-9.69991
▁அனைத்தும்	-9.70015
க்கில்	-9.70045
▁n	-9.70147
▁வெளியேற	-9.70185
துறை	-9.70201
▁கற்று	-9.70242
▁மாதத்தில்	-9.70246
கலை	-9.70252
ாண்ட	-9.70297
▁இப்பகுதி	-9.70304
ஞ்	-9.70306
▁திருப்ப	-9.70357
▁குறிக்கிறது	-9.70359
▁பாதுகாக்க	-9.70362
▁சரியான	-9.70365
▁மூத்த	-9.70406
க்குழு	-9.70409
▁பொறுப்ப	-9.70468
▁செங்க	-9.70514
ப்பெரு	-9.7055
▁சிற்ப	-9.70599
தேவி	-9.7066
டுகள்	-9.70664
▁தற்கால	-9.70665
தூ	-9.70695
▁ஆகியவற்ற	-9.70703
▁சிங்கள	-9.70708
▁வடிவில்	-9.70763
▁அந்	-9.70812
▁பசு	-9.7083
ிட்ட	-9.70847
▁சார்ப	-9.70847
▁வாழ்ந்து	-9.70885
வதை	-9.70911
வடி	-9.70941
hi	-9.70978
▁பரப்பளவு	-9.71022
▁திருவ	-9.71058
▁வேட	-9.71113
▁விரி	-9.71135
▁தூத்துக்குடி	-9.7116
▁பண்பு	-9.71295
▁2017	-9.71316
▁ஈடுபட	-9.71354
▁கொள்ளும்	-9.71415
▁இத்	-9.71427
▁அழைக்கப்பட்ட	-9.7146
▁தயாரிப்ப	-9.71503
▁சர	-9.71568
ட்சு	-9.71624
58	-9.71668
க்கிர	-9.71689
▁ஒன்ற	-9.71768
▁தொடங்கிய	-9.71774
ஷன்	-9.71789
▁முருகன்	-9.71895
▁தொழிற்சாலை	-9.71914
▁விவசாய	-9.71957
▁அன்	-9.71957
▁2,	-9.71969
▁அல	-9.71973
▁கிரா	-9.72045
▁விளங்குகிறது	-9.72052
▁கவன	-9.72062
▁புரிந்து	-9.72064
▁அடையாளம்	-9.72127
▁கடன்	-9.72174
▁மென்பொருள்	-9.72225
▁கொண்டுள்ள	-9.72453
▁கடத்த	-9.72469
ப்படுகிறார்	-9.72476
நோ	-9.72504
▁சேர்ம	-9.72508
▁அறிந்து	-9.72526
▁வடிவமைப்பு	-9.72537
▁இரும்பு	-9.72613
▁கணக்க	-9.72618
▁உரிய	-9.72668
▁உருவான	-9.72691
▁உதவ	-9.72705
னியம்	-9.72719
▁1999	-9.72815
▁ஒளிபரப்ப	-9.72844
▁சகோதரர்	-9.72915
மீன்	-9.73045
82	-9.7312
▁காவல்	-9.73121
ுதல	-9.73127
▁பெரிதும்	-9.73262
▁வேளாண்மை	-9.73304
ந்தார்	-9.73309
னுடைய	-9.73349
வைக்	-9.73473
செய்	-9.73519
▁உலகம்	-9.73524
▁ஜூ	-9.73551
▁நியமிக்கப்பட்ட	-9.73667
▁உதாரணமாக	-9.73676
▁பள்ளியில்	-9.73712
▁சக	-9.73732
▁ஜெர்மானிய	-9.73784
▁வரலாற்றில்	-9.73801
▁தரும்	-9.7405
89	-9.74061
▁கணக்கெடுப்பின்	-9.74167
▁கேட்ட	-9.74205
கிறான்	-9.74246
ந்திய	-9.74252
▁நகரின்	-9.74258
▁பொருந்த	-9.74279
▁கிராமத்தில்	-9.74337
▁கற்	-9.74394
▁நேரங்களில்	-9.74533
ாதி	-9.74533
▁நடைபெற்றது	-9.74578
▁இந்தி	-9.74584
▁கருத்த	-9.74669
▁(1	-9.74704
▁சிறுகதை	-9.74734
▁அட்டவணை	-9.74793
▁இத்தாலிய	-9.74834
ச்சேரி	-9.74856
up	-9.74859
▁கொண்டதாக	-9.74892
▁நம்	-9.74895
▁சிறிது	-9.74916
75	-9.74997
▁அமைச்ச	-9.7502
நெ	-9.75023
ங்களால்	-9.75059
னுடன்	-9.75181
▁உறுப்பினர்கள்	-9.75208
▁வரலாற்ற	-9.75227
▁சூழல்	-9.75266
▁பெப்ரவரி	-9.75272
▁நைட்	-9.75277
▁நிலவ	-9.75328
▁தேட	-9.75359
பாய்	-9.75366
▁எவ்வாறு	-9.75399
ருக்கும்	-9.75464
ஸில்	-9.75521
▁குவி	-9.75533
▁ராஜ்	-9.75544
▁வரையறை	-9.75573
▁எச்	-9.75588
▁விழுப்புரம்	-9.75632
சர	-9.75657
த்தினர்	-9.75666
▁தீர்த்த	-9.75696
▁U	-9.75704
▁நிறைவு	-9.7573
86	-9.75806
ஆங்கிலம்	-9.75809
மாக்க	-9.7582
▁நேரடி	-9.75835
▁நுண்	-9.75883
பட்டு	-9.75904
57	-9.75997
03	-9.76115
▁அறிஞர்	-9.76128
▁மாணவர்கள்	-9.76172
▁தென்னாப்பிரிக்க	-9.76175
▁ஐரோப்பா	-9.76176
▁பிறந்தவர்	-9.76177
ப்படுத்தி	-9.76256
▁பன்	-9.76257
ப்பட்டனர்	-9.76297
▁மேற்கொண்ட	-9.76327
ப்பது	-9.76355
68	-9.76369
▁பாடல்களை	-9.7638
▁முஸ்லிம்	-9.76418
▁அடிக்கடி	-9.76419
▁நாளில்	-9.76456
ிருந்தனர்	-9.76475
ியின்	-9.76542
▁சிவப்பு	-9.76548
சில	-9.76637
▁வண்டி	-9.76722
▁கட்டட	-9.76805
▁வெளியானது	-9.7684
▁32	-9.76855
ங்கிய	-9.76908
21	-9.76975
ச்சல்	-9.77063
▁அணுக்	-9.77069
ுரு	-9.77089
கின்றனர்	-9.77142
▁நாராயண	-9.77143
▁நிறை	-9.77216
ne	-9.77251
▁தெரிவிக்க	-9.77262
te	-9.7728
▁1996	-9.77359
▁சித்த	-9.77426
87	-9.77434
▁நபர்	-9.77438
▁மரியா	-9.77475
▁கூறுகிறது	-9.77533
வீர	-9.77551
▁பந்து	-9.77612
▁கட்டுரைகள்	-9.77631
▁ஆரம்பித்த	-9.77669
ர்ஸ்	-9.77681
களி	-9.77775
▁ஆடு	-9.77782
இன்	-9.77798
▁போன்றவற்ற	-9.77855
▁நிறுவப்பட்டது	-9.77857
ப்படுத்தப்பட்ட	-9.77857
▁சேத	-9.77917
▁செலவு	-9.77918
க்கூ	-9.77933
▁தொழில	-9.77982
▁தப்பி	-9.78036
ine	-9.78036
▁வழக்கமாக	-9.78075
ுகிறான்	-9.78094
▁மாநிலம்	-9.78115
ாளராக	-9.78132
▁கணக்கிட	-9.78148
▁தயாரித்த	-9.78171
▁இயல்பு	-9.78191
▁கையாள	-9.78209
▁அவற்றில்	-9.78288
▁நாட்	-9.78336
▁முக்கோண	-9.78341
▁கண்டறிய	-9.78397
▁முழுமையாக	-9.78439
▁தனக்கு	-9.78506
ell	-9.7851
தொ	-9.78556
▁அலுவலக	-9.78557
97	-9.78611
▁கல்ல	-9.78619
யாளராக	-9.78635
▁புகை	-9.78643
ப்பான்	-9.78685
▁பிரிக்கப்பட்ட	-9.78701
க்கின்	-9.78769
▁$	-9.78806
▁வெளியிட்டார்	-9.78932
விட்டது	-9.78996
▁ஆனார்	-9.79008
▁வலது	-9.79013
▁இயற்பியல்	-9.79015
யிடம்	-9.79079
▁உயிரின	-9.79109
நே	-9.79121
ாய்வு	-9.79122
▁காலை	-9.7915
▁மக்களை	-9.79178
▁விமர்சன	-9.79186
ரிடம்	-9.7921
லிருந்து	-9.79235
▁இந்	-9.79245
▁காட்டிலும்	-9.7925
co	-9.79377
▁அறிவ	-9.79382
▁வருகின்றனர்	-9.79403
▁முறையை	-9.7943
▁கோப	-9.79531
▁80	-9.79617
▁வகைகள்	-9.79679
▁மையம்	-9.79702
▁ஆய்வுகள்	-9.79703
84	-9.79729
▁கட்டுமான	-9.79735
▁கண்ணாடி	-9.7975
▁தோல்வி	-9.79758
பேட்டை	-9.79792
▁கூடுதலாக	-9.79812
76	-9.7983
▁1998	-9.7984
துடன்	-9.79872
▁வளர்	-9.79893
▁மேலே	-9.79933
▁மாறாக	-9.79964
▁தொல்	-9.79978
▁நிகழ்வ	-9.80048
யான்	-9.80051
▁”	-9.80108
▁பகு	-9.80155
▁ஆனாலும்	-9.80162
▁பொறுத்து	-9.80212
ெல்லாம்	-9.80222
▁உயரத்தில்	-9.80231
▁சுத்த	-9.80234
▁ஓய்வு	-9.80242
▁குழாய்	-9.80269
▁ஆர்வ	-9.80281
▁நூலில்	-9.80354
ொன்ற	-9.80381
▁அளவிலான	-9.80387
▁இச்	-9.8043
▁அகல	-9.80456
▁இயங்க	-9.80484
▁அறு	-9.80494
▁d	-9.80526
செய்ய	-9.80537
▁அறிவிக்கப்பட்ட	-9.80564
குளம்	-9.80576
▁உணவ	-9.80577
▁பரிச	-9.80622
▁சற்று	-9.80625
▁தொடரில்	-9.80633
▁கோட்பாட்ட	-9.80647
▁நவ	-9.80658
ஸ்டி	-9.80681
▁போரின்	-9.80701
▁காய்	-9.80712
வார	-9.80734
க்கட்ட	-9.80801
▁கலி	-9.80812
▁வேறுபாடு	-9.80817
▁குடியரசு	-9.80825
வளை	-9.809
தல	-9.80902
ுவத	-9.80958
சார	-9.8096
▁மரபணு	-9.8101
▁கூட்டணி	-9.81033
83	-9.81039
94	-9.81056
▁நாட்டை	-9.81078
▁அட்டை	-9.81083
▁தொடு	-9.81174
▁ஈடுபட்ட	-9.81177
▁காடு	-9.81193
▁அவரின்	-9.81226
▁முருக	-9.81267
▁முதன்மையான	-9.81269
ிலான	-9.81337
81	-9.81366
▁ஆர	-9.81379
செல்	-9.8147
▁பரிந்துரை	-9.81476
▁பேச்சு	-9.81496
▁இளைய	-9.81499
▁செய்யப்பட்டு	-9.81503
▁ஒன்பது	-9.81584
▁செய்யப்படும்	-9.81649
▁உருவாகும்	-9.8172
▁குடியேற்ற	-9.81752
▁அழைத்து	-9.81777
▁விளையாட்ட	-9.81818
▁வருகை	-9.81818
ெடுத்த	-9.81824
▁அடங்கிய	-9.81849
▁எடுக்கப்பட்ட	-9.8185
கரு	-9.81856
▁பாலி	-9.81872
▁கூறுகிறார்	-9.81973
▁எதிரி	-9.81989
ருக்க	-9.82048
▁மின்ன	-9.82099
▁பாஸ்	-9.82103
▁நடித்துள்ளனர்	-9.82134
▁சங்கம்	-9.82145
ட்டிய	-9.82154
▁வேலூர்	-9.82163
ஞ	-9.82184
▁மலேசிய	-9.82191
▁செலவ	-9.8225
▁ராஜா	-9.82264
ின்படி	-9.82302
▁விளைவு	-9.82341
sh	-9.82365
▁ஆழ	-9.82453
77	-9.82503
▁நண்பர்	-9.8251
▁பாராளுமன்ற	-9.82547
▁நிலுவையில	-9.82549
ில	-9.82643
யீ	-9.82649
▁சென்னையில்	-9.82666
▁மூளை	-9.82685
ப்பே	-9.82701
ுள்	-9.82729
கின்ற	-9.82765
க்கட	-9.82839
▁அமைப்பின்	-9.82845
க்கர்	-9.82878
▁பாண்டிய	-9.82906
▁அலி	-9.82922
▁யோக	-9.8293
▁பெற்றோர்	-9.82955
திரைப்படம்	-9.83031
லிங்	-9.83042
▁வடி	-9.83089
▁கோள	-9.83198
▁வழங்கிய	-9.832
▁கவு	-9.83206
▁அமைய	-9.83206
▁கனடா	-9.83248
▁வார்	-9.83285
▁கருப்பு	-9.83286
▁செயல்பாட்ட	-9.83356
▁குண்டு	-9.8342
▁இவன்	-9.83436
▁கைது	-9.83454
ுவார்	-9.83492
▁பரந்த	-9.8354
▁ஹார்	-9.83554
▁கழி	-9.83609
ங்கல்	-9.83627
▁கலந்த	-9.83658
▁யார்	-9.83702
ியம்மன்	-9.83716
சல	-9.83723
▁நகரத்தில்	-9.83756
த்தோடு	-9.83777
கிருஷ்ண	-9.83879
கட்ட	-9.83885
▁கூடுதல்	-9.83891
▁ஹை	-9.83955
ஷ்ட	-9.83964
▁சக்கர	-9.83974
▁பொன்ன	-9.83982
05	-9.83998
▁காலங்களில்	-9.84035
▁இணைத்து	-9.84053
▁பின்னணி	-9.84075
69	-9.84076
▁ரு	-9.84128
பத	-9.84142
பல	-9.84152
▁கேட்க	-9.84172
ுடனும்	-9.84226
▁1989	-9.84264
▁செய்கிறது	-9.84278
▁உண்மையான	-9.84283
▁ஆவி	-9.84361
▁பார	-9.84379
▁பிரதேசம்	-9.84392
மையை	-9.84409
யிர	-9.84431
க்கப்படும்	-9.84443
▁பயன்படுத்தும்	-9.8445
▁எழுந்த	-9.84488
விலுள்ள	-9.84493
▁இங்கே	-9.84497
ண்டோ	-9.84509
▁சோடியம்	-9.84521
▁தக்க	-9.84533
▁அமைப்புகள்	-9.84598
▁அறிமுக	-9.84634
▁கடுமையான	-9.84636
▁அனைவரும்	-9.84638
93	-9.84665
ti	-9.847
▁பாராட்ட	-9.84736
சம	-9.84752
-20	-9.84798
▁1950	-9.84811
▁வானியல்	-9.84963
▁வளை	-9.84979
▁மித	-9.84998
▁மாணவ	-9.85007
▁பேரரசின்	-9.85019
▁இழந்த	-9.85038
▁உருவாக்கும்	-9.85158
கீ	-9.85177
ெடுக்க	-9.85201
வியல	-9.85204
▁சௌ	-9.85205
▁அவர்களை	-9.85253
▁ஏற்றுக்கொள்ள	-9.85268
தையும்	-9.85308
▁அடிமை	-9.85337
▁35	-9.85428
த்திரி	-9.85562
▁நிகழ்த்த	-9.85585
ுவதில்லை	-9.85592
▁வழியில்	-9.85683
ப்பொருட்கள	-9.85684
நாதர்	-9.857
▁தலைமையில்	-9.85707
▁ஆனந்த	-9.85784
▁வரையறுக்க	-9.85835
▁வேர்	-9.85837
ென்று	-9.85851
▁இலக்கு	-9.85874
▁கன்னி	-9.85986
▁தன்ன	-9.85993
79	-9.86032
▁ஆரம்பத்தில்	-9.86053
▁இவன	-9.86138
▁சன்	-9.86153
▁சுருக்க	-9.86155
ப்பெற	-9.86252
▁1991	-9.86255
▁பயன்பாட்ட	-9.86283
▁மீதான	-9.8629
▁அறியப்படுகிறது	-9.8631
▁இத்த	-9.8632
மாய்	-9.86331
▁ஆதரவ	-9.86343
▁சிந்தனை	-9.86362
ac	-9.86382
▁மிகச்	-9.86426
மூர்த்தி	-9.86431
▁படிக	-9.86443
மய	-9.86454
கால்	-9.86462
போல	-9.86482
An	-9.86488
▁இந்தச்	-9.8651
ிற	-9.86557
▁நாகப்பட்டினம்	-9.8656
▁காணப்பட்ட	-9.86589
▁ஆசிரியராக	-9.86655
▁உணர்வு	-9.86676
▁வாய்ப்பாடு	-9.8671
▁ஏர்	-9.86712
▁கண்டுபிடித்த	-9.86713
▁மரப	-9.86796
ரெட்	-9.86805
ிதழ	-9.86823
▁எப்படி	-9.86848
▁உயரம்	-9.86849
▁வழங்கப்பட்ட	-9.86852
▁(200	-9.86916
ப்பன்	-9.86966
▁வருமான	-9.86968
▁இத்தல	-9.86994
▁இன்றும்	-9.8701
46	-9.8702
▁அப்பா	-9.87021
▁கிருஷ்ணகிரி	-9.87184
கையில்	-9.87212
பரி	-9.87227
61	-9.87255
▁அய்யனார்	-9.8732
களினால்	-9.87402
35	-9.87445
▁வைக்கப்பட்ட	-9.8747
▁மகள்	-9.87486
▁இராச்சிய	-9.87503
▁பங்கேற்ற	-9.87521
ஸ்டா	-9.87529
நாட்டு	-9.87557
▁அந்தப்	-9.8756
▁கரி	-9.87572
ங்களுக்கும்	-9.8762
மென்	-9.87635
வானது	-9.87648
ிருந்தன	-9.87667
▁தசை	-9.87683
man	-9.87701
▁கால்பந்து	-9.87709
▁உதவும்	-9.87745
ருக	-9.87817
ருடன்	-9.87884
ங்குடி	-9.87886
க்கீ	-9.87908
வெல்	-9.87924
▁எழுப்ப	-9.87939
▁குழும	-9.87993
குல	-9.88045
▁இவ்	-9.88046
▁நீரில்	-9.88062
▁அகற்ற	-9.88084
▁காங்கிரஸ்	-9.88127
▁இழு	-9.88144
வைச்	-9.88207
ாலய	-9.88267
▁தோல்	-9.88312
ஸ்த	-9.88321
▁வளர்க்க	-9.88328
▁அம்ச	-9.88376
▁கண்டி	-9.88418
▁உத்தர	-9.88439
vi	-9.88471
▁ஐய	-9.88503
ோன்	-9.88546
னான்	-9.88552
ிடையே	-9.88563
களிடையே	-9.8869
▁ஒன்றான	-9.88706
▁கன்னட	-9.8872
▁ஒடுக்க	-9.88814
▁நிருவாகியா	-9.88861
▁அவள்	-9.88971
▁மாகாணத்தில்	-9.89001
ப்பொ	-9.89008
▁தாம்	-9.89024
▁எசு	-9.89039
▁கொண்டிருந்தது	-9.8909
பக்க	-9.89091
▁வந்தனர்	-9.89096
▁செய்யப்படுகிறது	-9.8913
▁தொலைவிலும்	-9.8916
▁நிலையான	-9.89182
த்ரா	-9.89213
ண்ணி	-9.8924
▁1994	-9.89309
த்தான	-9.89318
▁வழிபாடு	-9.89356
▁ரூபாய்	-9.89361
த்தாக்க	-9.89376
▁பரவிய	-9.89377
▁ஆதரவு	-9.89388
▁தண்ட	-9.89406
▁நடிக்க	-9.89412
யேற்ற	-9.89492
ப்பெயர்	-9.89523
ஃபா	-9.89555
ங்கே	-9.89556
▁தொடங்க	-9.89575
▁பிடிக்க	-9.89595
▁இறக்க	-9.89696
▁இவற்ற	-9.89734
▁முறைகள்	-9.8996
▁கடந்து	-9.90006
▁சூழ	-9.90025
▁அண்ணா	-9.90043
ளே	-9.90056
▁பழக்க	-9.90114
▁திரும	-9.90143
▁பாக்	-9.90143
▁ஆஸ்திரேலியா	-9.9015
▁நார்	-9.90155
ும்படி	-9.90191
னிடம்	-9.90192
▁அறுவை	-9.90198
களா	-9.90244
▁தண்டனை	-9.90253
74	-9.90309
▁தூர	-9.90311
▁நூலை	-9.90323
▁45	-9.90332
வர்களாக	-9.90345
▁பார்த்து	-9.90432
ச்சை	-9.90456
▁அளவுக்கு	-9.90478
▁திற	-9.90482
▁அறிவித்த	-9.90507
▁ஒருங்கிணை	-9.90514
▁போதும்	-9.90536
▁75	-9.90576
▁இரை	-9.9064
▁என்பதாகும்	-9.90641
ெடுப்ப	-9.90666
▁திண்டுக்கல்	-9.90672
த்தனர்	-9.90745
▁எளிய	-9.90751
▁கோர	-9.90837
காலத்தில்	-9.90854
▁பெண்களின்	-9.90877
▁ஹே	-9.90879
ஜீ	-9.9098
ிக்கும்	-9.91007
▁நூல்களை	-9.91019
▁பிரே	-9.91033
ித்தார்	-9.91037
ly	-9.91159
▁குறுகிய	-9.91165
▁மேடை	-9.91187
ஸ்கோ	-9.91192
நகர்	-9.91218
▁உணர	-9.91219
▁கட்டப்பட்டது	-9.91263
ஒரு	-9.91287
ழா	-9.91303
▁h	-9.91321
▁நடித்திருந்தனர்	-9.91388
▁பாதிக்க	-9.91416
▁வரைபட	-9.91451
▁பற்றியும்	-9.91567
ட்டான்	-9.91568
▁ஆப்பிரிக்கா	-9.91599
ினான்	-9.91684
▁மொழிகளில்	-9.917
▁உண்மையில்	-9.91726
ec	-9.91728
▁செய்தனர்	-9.91804
▁ஆங்கிலம்	-9.91807
The	-9.91876
பிள்	-9.91906
▁கர்நாடக	-9.91916
▁பயனர்	-9.91934
▁செடி	-9.92002
▁200	-9.92005
ொலி	-9.92018
▁அணிக்கு	-9.92027
▁வின்	-9.92029
▁நரம்பு	-9.92076
▁அவள	-9.92076
me	-9.92088
▁கட்டுப்பாடு	-9.921
▁சுற்ற	-9.9217
▁தொகையில்	-9.92191
▁கட்டாய	-9.92197
▁குழுக்கள	-9.92217
சங்க	-9.92303
ங்களுள்	-9.92313
▁ஆஸ்	-9.92347
ீர	-9.92375
▁வாய்ப்ப	-9.92395
வாரி	-9.92461
▁சார	-9.92479
▁ப்ர	-9.92519
▁விலகி	-9.9256
செய்த	-9.92568
வர்களின்	-9.92587
▁அமைச்சர்	-9.92598
▁சிறப்பான	-9.92617
▁பண்பாட்டு	-9.92637
▁நாமக்கல்	-9.9265
71	-9.9266
▁அதிகரித்த	-9.92671
73	-9.92697
▁செயலாளர்	-9.92705
▁அண்ட்	-9.9278
நாள்	-9.9278
▁முழுமையான	-9.92802
▁அவற்ற	-9.92833
▁இன்றைய	-9.92937
மேன்	-9.92979
ேஸ்வர	-9.92982
▁ரீ	-9.93049
▁விஷ	-9.93058
▁தளபதி	-9.93063
▁மருத்துவர்	-9.93091
ப்படு	-9.93133
▁உயிரி	-9.9315
க்காடு	-9.93306
▁ரீதியாக	-9.93325
▁அற	-9.93368
நாயக்க	-9.93384
▁கேட்டு	-9.93435
▁சிவாகம	-9.93439
▁சேர்க்கப்பட்ட	-9.93459
▁நபர்கள்	-9.9349
de	-9.93493
▁லை	-9.93521
சூர்	-9.93522
▁கோவை	-9.93565
▁வலிமை	-9.93593
போல்	-9.93596
▁அன்னை	-9.93625
பியா	-9.93631
யாகப்	-9.93651
39	-9.93662
▁ரொ	-9.93682
▁இதுவரை	-9.93693
▁ஆணைய	-9.93699
▁தெரு	-9.93763
▁நிறுவப்பட்ட	-9.93796
▁தர்மபுரி	-9.93807
▁ஆற்ற	-9.93828
▁மன்னன்	-9.9383
▁உச்சி	-9.93835
▁மாவட்டங்களில்	-9.93855
▁அமைத்து	-9.93866
▁நியூயார்க்	-9.93881
▁பெரும்பான்மை	-9.93978
த்தினர	-9.94019
வூர்	-9.94028
▁ஆடை	-9.94028
▁பாதிப்பு	-9.94039
▁ஈரோடு	-9.94045
▁இப்படி	-9.9407
▁கடற்படை	-9.9409
▁கிடைத்தது	-9.94176
▁முடிய	-9.94232
▁கொடுத்து	-9.94233
▁ஜார்ஜ்	-9.94305
ஞ்சா	-9.94316
▁ஒன்றில்	-9.94317
▁நந்தி	-9.94353
▁குளோ	-9.94377
▁சுப்பிரமணிய	-9.94377
டில்	-9.94383
ிருச்சிராப்பள்ளி	-9.94388
▁கன்னியாகுமரி	-9.9445
di	-9.94513
▁1992	-9.94627
▁எதுவும்	-9.94674
▁உருவாகிறது	-9.94686
ரியோ	-9.94687
▁படிக்க	-9.9469
▁1997	-9.94697
ங்களைத்	-9.94708
தைக்	-9.94716
ட்டன்	-9.94726
ட்ரி	-9.94732
▁நூலக	-9.94765
கொண்டு	-9.94804
ற்றை	-9.9481
▁ஆயினும்	-9.94815
▁நெறி	-9.94831
ect	-9.94853
▁மருந்த	-9.94888
▁மரம்	-9.94925
▁சமயத்தில்	-9.94976
▁வது	-9.94978
டாக	-9.9503
வாழ்	-9.95074
▁காசி	-9.95094
▁சித்திரை	-9.95133
▁தக	-9.9514
▁மாசி	-9.95169
▁மக்களவை	-9.95213
▁ஒப்ப	-9.95234
க்கூடும்	-9.95257
▁மலேசியா	-9.95261
22	-9.95403
▁உண்டாக்க	-9.95432
▁மென்	-9.95445
▁மான்	-9.95457
▁கிமு	-9.95514
▁குடும்பம்	-9.95569
ங்களான	-9.95572
▁தெளிவாக	-9.95582
ொன்று	-9.95591
▁தர்ம	-9.95611
பில்	-9.95695
▁மார்க்	-9.9572
85	-9.95733
▁ஆலை	-9.95795
▁1995	-9.95874
▁ஆங்கிலேய	-9.96044
ho	-9.96048
▁செய்வது	-9.96058
▁இனப்பெருக்க	-9.96136
▁கண்டறிந்த	-9.96148
▁போக	-9.96179
மட்ட	-9.96244
▁வலியுறுத்த	-9.96283
▁தொடக்கத்தில்	-9.96291
த்தர	-9.96302
▁அருள்	-9.9631
▁பொருளாக	-9.96321
▁அழகிய	-9.96335
07	-9.96336
தின்	-9.9634
▁இருக்கிறார்	-9.96368
க்கட்டு	-9.96438
▁நடத்தை	-9.96457
24	-9.96476
▁வீதி	-9.96545
▁எளிதாக	-9.96546
லோக	-9.96562
▁மங்கோலிய	-9.9658
▁குரல்	-9.96583
▁பட்டியலில்	-9.96591
▁போட்டியிட்டு	-9.96611
▁ஒட்டி	-9.96617
ரியம்	-9.96629
சான்	-9.96657
மன	-9.96691
▁விளக்கு	-9.96713
வூ	-9.96804
28	-9.96807
▁மற	-9.96852
▁முடிந்த	-9.96895
▁முறையே	-9.96923
கோள்	-9.96923
▁மார்ச்சு	-9.96931
45	-9.96961
▁உருவானது	-9.97062
▁உப	-9.97068
▁அழுத்தம்	-9.97092
▁பேராசிரியர்	-9.97125
▁விளங்க	-9.97169
▁மன்ன	-9.97202
▁கோர்	-9.97206
க்கின்றன	-9.97209
65	-9.97318
78	-9.9734
▁அலக	-9.97341
▁சேர்ந்தார்	-9.97365
▁ஒன்றியம்	-9.97426
▁மத்தியில்	-9.97477
போன்ற	-9.97481
▁பொறுப்பு	-9.97498
▁கரைசல	-9.97504
▁நடத்தப்பட்ட	-9.9752
த்தொகை	-9.97546
▁கோயம்புத்தூர்	-9.97555
▁இன்னொரு	-9.97555
▁தாழ்	-9.97565
▁மிகக்	-9.97587
ராம	-9.97618
▁அதிகரிக்க	-9.97678
▁குன்ற	-9.97706
எல்	-9.97772
▁இஸ்லாமிய	-9.97774
▁டாலர்	-9.97785
▁அமைச்சராக	-9.97788
ment	-9.97794
▁தோன்றும்	-9.9784
▁திருவள்ளூர்	-9.97849
▁உருவாக்கினார்	-9.97867
▁தண்ணீர்	-9.97877
Cl	-9.97902
lo	-9.97923
▁கட்டளை	-9.97945
▁டேவிட்	-9.97975
▁பணம்	-9.98002
▁பரம	-9.98045
▁அஞ்சல்	-9.98066
▁இந்தியப்	-9.98098
▁நாட்களில்	-9.98193
நாதன்	-9.9821
ஆர்	-9.98224
▁1984	-9.98255
ுக்குப்	-9.98268
▁விருதை	-9.98292
▁அமை	-9.9841
▁நீர்ம	-9.98434
விளை	-9.9844
▁தொடர்ந்த	-9.98498
▁வருடம்	-9.9852
▁°	-9.98537
ருவி	-9.98556
▁புற்றுநோய்	-9.9858
▁கட்டிடக்கலை	-9.98586
ியாக	-9.98716
▁மருத்துவமனை	-9.98737
▁வட்டார	-9.98772
▁வழிபட	-9.98833
▁பழங்குடி	-9.98962
ud	-9.98968
தனை	-9.98996
▁1947	-9.99006
▁t	-9.99032
▁கோள்	-9.99137
▁தீர்வு	-9.99222
▁பிணைப்பு	-9.99251
வாசல்	-9.99264
▁நகரத்தின்	-9.99283
▁மெக்	-9.99338
▁இயங்கும்	-9.99375
▁பழமையான	-9.9941
▁விடுதலைப்	-9.99453
▁நடிப்ப	-9.99472
கத்தின்	-9.99474
ளவில்	-9.99477
▁வங்காளதேச	-9.99522
▁இத்திரைப்படம்	-9.99524
▁சுவர்	-9.99551
▁குரோ	-9.99606
▁வடிவமைக்கப்பட்ட	-9.99648
▁செர்	-9.99706
▁திரும்பி	-9.9974
31	-9.99763
▁இடது	-9.99787
டையும்	-9.99803
▁உள்ளே	-9.99829
குமார்	-9.99831
▁கொழும்பு	-9.99862
▁சூட்ட	-9.99878
▁சகோதரி	-9.99909
▁விழ	-9.99924
32	-9.99947
க்கரு	-9.99949
▁இந்ந	-9.99966
▁உயிரினங்கள	-9.99982
▁எதிர்த்து	-10
▁கடற்	-10.0002
▁குகை	-10.0002
அல்லது	-10.0004
மினி	-10.0004
கண	-10.0005
க்கண	-10.0012
qu	-10.0021
யாளர	-10.0029
▁தோற்றம்	-10.003
▁நெடு	-10.0031
▁சதவீத	-10.0031
களாகப்	-10.0034
▁33	-10.0035
▁வீழ்ச்சி	-10.0036
▁தலைநகர	-10.0039
▁வரையிலான	-10.0039
▁குடும்பத்தில்	-10.0046
▁வளரும்	-10.0049
%)	-10.0051
▁முதலான	-10.0053
▁கிரு	-10.0055
▁ஃபெ	-10.0057
▁செயல்படுகிறது	-10.0057
-2	-10.0061
▁ஓட	-10.0061
▁விரிவாக்க	-10.0062
▁ஆங்கிலத்தில்	-10.0073
▁சுரங்க	-10.0074
த்தீ	-10.0074
▁பிழை	-10.0076
▁ஆக்சைடு	-10.0076
▁ஐதரசன்	-10.0085
▁துவங்க	-10.0087
கோண	-10.0087
▁(18	-10.0089
▁இழை	-10.0089
ாம	-10.0095
▁ஏற்பாடு	-10.0099
மிட	-10.01
▁நீதிபதி	-10.01
▁நின்று	-10.0105
▁நான்காவது	-10.0113
▁ஆற்று	-10.0119
23	-10.0121
பெற	-10.0121
▁இதர	-10.0123
▁தேடி	-10.0127
சொ	-10.0133
▁அணுக	-10.0142
தற்	-10.0146
29	-10.0149
▁பிரிட்டிஷ்	-10.0152
▁துளை	-10.0153
▁தன	-10.0153
▁பஞ்சாப்	-10.0155
▁2018	-10.0157
ஈ	-10.0159
▁சித்திர	-10.016
▁கவிஞர்	-10.0167
▁மீற்றர்	-10.0168
னையும்	-10.017
▁வித	-10.0175
▁பிள	-10.0176
▁திருச்சி	-10.0176
▁வேண்ட	-10.0182
▁குழி	-10.0183
▁இயங்கி	-10.0184
▁90	-10.0185
▁இயக்குனர்	-10.0186
▁ஏற்றுக்	-10.0193
த்தல	-10.0193
48	-10.0203
▁தொடர்ச்சியாக	-10.0205
▁தொழிற்	-10.0206
சிங்க	-10.0207
னன்	-10.0209
▁பிராந்திய	-10.0217
▁தவிர்க்க	-10.0217
▁சந்திக்க	-10.0218
▁1993	-10.0218
▁இம்முறை	-10.0219
▁அன்ன	-10.0221
26	-10.0229
ினுள்	-10.0233
பொருள	-10.0236
▁ஆதிக்க	-10.0237
ால	-10.0239
▁மீட்ட	-10.0241
▁வண்ணம்	-10.0244
▁பொருளை	-10.0247
ென	-10.0248
▁1987	-10.0249
ிப்பு	-10.0251
III	-10.0258
▁டாக்டர்	-10.027
▁பேரா	-10.0279
றும்	-10.0281
▁சூழல	-10.0289
▁சான்	-10.0298
▁தோன்றி	-10.0299
72	-10.0304
ry	-10.0304
▁உட்பட்டது	-10.0308
வதாக	-10.0309
▁சராசரியாக	-10.0311
per	-10.0314
▁வழக்கம்	-10.0315
நாட்ட	-10.0315
▁குமார	-10.0317
▁ஆர்வம்	-10.0323
யளிக்க	-10.0323
08	-10.0324
▁தாயார்	-10.0326
▁நிகழும்	-10.0331
tic	-10.0342
▁தலைப்பு	-10.0345
▁ஒழுங்க	-10.0349
▁கந்த	-10.0352
ச்சர்	-10.0353
55	-10.0354
▁36	-10.0354
▁எதிர	-10.0358
▁மாசு	-10.0359
▁வெளியீடு	-10.0359
ேரி	-10.0359
▁அண்மை	-10.0364
▁துப்பாக்கி	-10.0365
ாமை	-10.0366
▁தேவர்	-10.0374
37	-10.0377
av	-10.0377
ாறு	-10.0381
▁உருசிய	-10.0381
ity	-10.0381
▁திருவா	-10.0382
▁டு	-10.0386
▁என்பவர	-10.0387
▁வழங்கப்படும்	-10.0388
▁அந்தக்	-10.0388
▁நடைபெற	-10.0392
யாளர்கள்	-10.0394
▁தாங்க	-10.0401
47	-10.041
க்கொ	-10.0414
▁இருபது	-10.0414
▁படிப்பு	-10.0415
ர்ஜி	-10.0417
36	-10.0417
▁சேர்மமாகும்	-10.0418
மில்	-10.0419
வக	-10.0425
ப்பதற்காக	-10.043
▁வெண்	-10.0431
▁இனங்கள்	-10.0436
திலும்	-10.0445
லாந்த	-10.0447
64	-10.0452
ுகின்றார்	-10.0453
மறை	-10.0454
▁வரிசையில்	-10.0455
▁பொன்	-10.046
▁சந்தித்த	-10.0461
▁நீரை	-10.0462
▁சோழர்	-10.0462
ill	-10.0469
56	-10.0489
▁உயர்த்த	-10.049
▁w	-10.0494
ub	-10.0501
▁வட்டத்தில்	-10.0506
▁ஆந்திர	-10.0506
▁பண்பாடு	-10.051
▁நட	-10.0513
▁முயன்ற	-10.0513
▁ஆயிரம்	-10.0513
மொ	-10.0514
பார	-10.0517
▁இணைக்க	-10.0518
ப்பாட்ட	-10.0518
ுமான	-10.0521
▁காலப்	-10.0524
ah	-10.0527
ிலிருந்த	-10.0527
மையால்	-10.0528
▁சிறுவர்	-10.0528
▁பிரிவில்	-10.0535
▁பரிசோதனை	-10.0542
▁சமண	-10.0545
▁விளங்கியது	-10.0547
▁ஜேம்ஸ்	-10.0551
▁நிறைய	-10.0554
▁நடந்து	-10.056
▁தலைமுறை	-10.056
புல	-10.0566
▁காவிரி	-10.0567
▁குறைபாடு	-10.0573
▁நிலைக்கு	-10.0573
▁இளைஞர்	-10.0574
▁சீர்திருத்த	-10.0574
ஸை	-10.0575
யொ	-10.0576
▁காட்டி	-10.058
▁வாழ்கின்றனர்	-10.0581
▁உலகளாவிய	-10.0582
ாசிரியர்	-10.0584
▁1977	-10.0585
27	-10.0586
▁சன்னதிகள்	-10.0586
▁ஏற்படுகிறது	-10.0591
ாகவே	-10.0591
▁g	-10.0591
▁பிரான்சு	-10.0592
ங்கர்	-10.0596
▁தனித்தனி	-10.0597
▁பயன்படுத்திய	-10.0598
sp	-10.0598
ஸ்தான	-10.0599
▁இயக்குநர்	-10.0602
▁திறன	-10.0604
▁கோல	-10.0605
▁சுகாதார	-10.0607
▁வளர்ந்து	-10.0611
▁புதிதாக	-10.0616
▁வடிவமைப்ப	-10.0617
▁பற்	-10.0617
▁உயிரியல்	-10.0619
ராகவும்	-10.0621
க்கள	-10.0626
▁தமிழ்ப்	-10.0646
ide	-10.0648
▁பல்கலைக்	-10.0648
▁உரோமை	-10.0651
நாயகி	-10.0651
▁1988	-10.0651
▁வாரிய	-10.0654
வரிசை	-10.0655
ியக்க	-10.0656
▁பண்ப	-10.0658
▁கவி	-10.0659
லிங்கம்	-10.0664
▁காப்பாற்ற	-10.0665
▁அரசன்	-10.0668
▁அள	-10.0668
▁இயக்கிய	-10.0671
▁கற்ப	-10.0672
▁பாட்ட	-10.0674
ரிக்க	-10.0676
▁காணப்பட	-10.068
காளியம்மன்	-10.0683
▁கவனம்	-10.0684
ாளரும்	-10.0686
▁இருப்பதை	-10.0691
நாயக	-10.0695
▁இந்நூல்	-10.0695
▁இச்சேர்மம்	-10.0697
பல்	-10.0702
▁வீரர்கள்	-10.0704
▁ஆட்	-10.0707
▁மாநகர	-10.071
ோம்	-10.0714
38	-10.0715
ni	-10.0719
ம்மன்	-10.0721
▁கொழுப்பு	-10.0727
▁வெளியீட்ட	-10.0731
தள	-10.0735
▁எளிதில்	-10.0738
▁நினைவாக	-10.0739
ஞான	-10.0739
▁விற்க	-10.0746
▁பரு	-10.0746
▁வேண்டி	-10.0746
▁கூறும்	-10.0748
▁பணியாற்றி	-10.0764
ப்பொருள	-10.0765
▁உதாரண	-10.077
▁சுவை	-10.0772
மிழ்	-10.0774
▁அரபு	-10.0776
▁பெட்டி	-10.0776
ட்ரிக்	-10.0777
he	-10.0777
ளிக்க	-10.0777
▁அனுப்பி	-10.0781
▁வேறுபட	-10.0782
▁மக்களால்	-10.0785
▁கைப்பற்றி	-10.0785
▁அமைப்பில்	-10.0791
▁போராட	-10.0795
▁மாகாணத்தின்	-10.0805
▁பில்லியன்	-10.0805
சக்தி	-10.0805
ரொ	-10.0808
▁விதமாக	-10.0811
தவி	-10.0811
▁லீக்	-10.0812
▁வருவ	-10.0815
▁படத்தின்	-10.0815
▁வித்தியாச	-10.0816
ின்ற	-10.0819
ெழுத்து	-10.0826
▁பீட	-10.083
▁குடியரசுத்	-10.0833
▁சம்பந்த	-10.0833
▁1986	-10.0833
யர்கள்	-10.0835
▁இயற்றிய	-10.0836
குரு	-10.0837
▁இந்துக்	-10.084
த்தீவு	-10.0842
▁70	-10.0843
▁மண்டப	-10.0847
▁செயற்பாடு	-10.0847
▁மேலாக	-10.0853
வியா	-10.0855
▁பாத	-10.0857
▁கிரக	-10.0865
நீர	-10.0865
த்துறையில்	-10.0867
▁கொண்டவர்	-10.0867
ாபாத்	-10.0869
▁மொழிகள்	-10.0869
▁வயத	-10.087
▁X	-10.0871
▁பாலின	-10.0872
▁குற்றம்	-10.0873
டார்	-10.0875
ive	-10.088
ியுள்ளது	-10.0881
▁1971	-10.0883
ுவார்கள்	-10.0888
▁கற்ற	-10.0888
▁இறுதியாக	-10.0892
த்திரு	-10.0892
▁கொள்வத	-10.0899
▁கம்பி	-10.0902
▁புர	-10.0902
ங்களாகும்	-10.0906
42	-10.0909
லட்சுமி	-10.091
▁அரிய	-10.091
▁வெளியிட்டது	-10.091
ண்டே	-10.0912
▁தெரிவு	-10.0915
▁அனுமதிக்க	-10.0917
▁துகள்	-10.0917
ant	-10.0918
களுக்கிடையே	-10.0919
▁இடைப்பட்ட	-10.0927
▁பரிந்துரைக்க	-10.0928
▁de	-10.0929
▁மண்டலம்	-10.0931
ழுத்த	-10.0932
▁அவ்வாறு	-10.094
▁கோடு	-10.0941
ிலி	-10.0949
▁தீவுகள்	-10.095
▁500	-10.0951
▁உதவுகிறது	-10.0952
▁இயலும்	-10.0955
ப்பாதை	-10.0955
▁தொல்காப்பிய	-10.0956
ாங்க	-10.0958
▁கௌரவ	-10.096
த்திரை	-10.0961
▁இரண்டும்	-10.0962
▁வன்	-10.0962
▁சிக்கலான	-10.0968
க்கிறார்	-10.0972
தார்	-10.0978
▁அலுவலர்	-10.0979
ாகிய	-10.0979
▁காங்கிரசு	-10.0981
▁ஒட்ட	-10.0986
▁தூய	-10.0986
▁கட்டுப்பாட்டு	-10.0986
வாசி	-10.0988
▁வரையில்	-10.0994
▁புகழ	-10.1007
▁ஆணை	-10.1007
▁வருகின்றது	-10.101
நிற	-10.1012
▁St	-10.1015
ுவதும்	-10.1021
▁மன்னர	-10.1023
▁சாலையில்	-10.1027
▁தங்களது	-10.1032
▁தென்னிந்திய	-10.1033
யாவின்	-10.1035
▁உடலில்	-10.1035
▁பறவைகள்	-10.1036
▁மகளிர்	-10.1041
▁வேகமாக	-10.1044
▁உயரமான	-10.1045
han	-10.1047
▁பதக்க	-10.1051
▁தமிழகத்தில்	-10.1057
டைந்த	-10.106
த்திட்ட	-10.1062
ep	-10.107
ex	-10.1072
கிரா	-10.1076
பொருட்	-10.1077
▁குவா	-10.1078
▁அணுக்கரு	-10.1079
ட்டுகள்	-10.108
ik	-10.1088
▁கோபுரம்	-10.1093
49	-10.1093
▁சார்பில்	-10.1095
▁பேசும்	-10.11
▁விபர	-10.1105
ப்பிரி	-10.1107
▁க்கும்	-10.1107
▁அபி	-10.1109
▁கொடுக்கப்பட்ட	-10.111
▁Ch	-10.1112
oc	-10.1116
க்கூறு	-10.1117
▁மந்திர	-10.1118
▁நியம	-10.1119
▁சொல்லி	-10.1126
▁பகுதியாகும்	-10.1127
▁செயலி	-10.1134
▁குழப்ப	-10.1135
▁ஒன்றியத்தில்	-10.1139
யிட்ட	-10.1141
ard	-10.1143
▁நொ	-10.1144
▁வழங்கப்படுகிறது	-10.1144
▁கொண்டவை	-10.1147
▁to	-10.1149
▁தொடங்கப்பட்டது	-10.115
▁பிரதிநிதி	-10.1151
சிங்	-10.1154
▁பணியாளர்	-10.1155
▁ஸ்டீ	-10.1159
▁கோபுர	-10.1162
▁விவாத	-10.1171
▁சங்கிலி	-10.1172
▁அவனது	-10.1178
▁நன்மை	-10.118
▁இலட்ச	-10.1182
ப்படுவதில்லை	-10.1182
▁விவிலிய	-10.1187
▁திட்டமிட்ட	-10.1192
▁வைப்ப	-10.1192
ge	-10.1192
தமிழ்	-10.1194
▁கிபி	-10.1195
▁தயாரிக்கப்பட்ட	-10.1195
▁டன்	-10.1199
க்கோள	-10.1203
ப்படுகின்ற	-10.1206
ப்பெருமாள்	-10.1208
ce	-10.121
▁ஏற	-10.121
▁வளிமண்டல	-10.1212
▁l	-10.1213
▁பணியாற்றிய	-10.1213
களிடமிருந்து	-10.1222
▁உடன	-10.1224
▁முக்கியமாக	-10.1229
▁பட்டு	-10.1229
ip	-10.1237
▁எனப்படுகிறது	-10.1238
ிறார்கள்	-10.1239
▁பாதிப்ப	-10.124
▁விசாரணை	-10.1247
விழா	-10.1249
▁நெய்	-10.1251
▁கழிவு	-10.1255
குப்பம்	-10.1256
▁ரை	-10.1258
ொளி	-10.1262
▁வாத	-10.1264
ச்சல	-10.1265
▁பிரான்ச	-10.1267
▁சிங்கப்பூர்	-10.1267
Ch	-10.1272
▁தொன்ம	-10.1273
▁ஒப்பந்தம்	-10.1274
விட்டார்	-10.1278
ரையும்	-10.1285
▁செயல்பட்ட	-10.1288
▁மரு	-10.129
66	-10.1295
▁தொற்று	-10.1295
பெயர்	-10.1297
முடியும்	-10.1298
▁முன்னதாக	-10.1305
▁ஆண்டி	-10.1314
லியன்	-10.1314
ேஷன்	-10.1318
ாலேயே	-10.1323
கொடு	-10.1323
59	-10.1325
▁விரைவாக	-10.1328
▁சர்க்கரை	-10.1328
ச்சந்திர	-10.1328
▁1978	-10.1329
மியா	-10.133
▁வடக்கில்	-10.1332
▁ஓடு	-10.1332
▁அறிவியல	-10.1333
▁குறிப்புகள்	-10.1334
▁இவ்வூர்	-10.1335
▁என்பர்	-10.1336
க்கொண்டார்	-10.1337
▁புரிந்த	-10.1339
▁வெளிப்புற	-10.1339
▁காப்ப	-10.1343
▁எக்ஸ்	-10.1353
▁கொள்ளலாம்	-10.136
▁பாரசீக	-10.1361
34	-10.1365
▁வாங்கி	-10.1366
▁புதை	-10.1376
▁ஆப்பிரிக்க	-10.1377
▁சிவபெருமான	-10.1377
கிறாள்	-10.1383
▁எதிர்கால	-10.1393
▁என்பதற்கு	-10.1398
▁பயிரிட	-10.1402
0%	-10.1406
த்துக்கும்	-10.1406
▁வீட்டில்	-10.1406
ற்கா	-10.1408
▁எழுத்த	-10.1409
▁ஆற்றலை	-10.1411
▁கிங்	-10.1412
▁வகுப்ப	-10.1414
▁தேவாலய	-10.1416
▁குடியிருப்பு	-10.1416
திலிருந்து	-10.1417
▁அருக	-10.142
▁தொல்லியல்	-10.1423
▁பெற்றுள்ளது	-10.1423
▁சுட	-10.1424
▁என்பவை	-10.1432
▁வளாக	-10.1433
ஸ்தான்	-10.1433
52	-10.1434
▁59	-10.1434
தேவ	-10.1437
▁நடக்கும்	-10.1442
சாலை	-10.145
▁புவியியல்	-10.1452
▁மிகை	-10.1455
▁நினைத்த	-10.1457
▁திருவாரூர்	-10.1458
▁விஷ்ணு	-10.1458
▁இம்மா	-10.1461
▁டிரா	-10.1471
▁ஒப்பிட	-10.1474
லங்கா	-10.1474
▁வியாபார	-10.1476
art	-10.1478
▁1985	-10.1479
ரஸ்	-10.148
▁கணிப்ப	-10.1488
▁காலகட்டத்தில்	-10.149
▁1940	-10.149
▁கலிபோர்னியா	-10.1494
▁ஏற்கனவே	-10.1494
ம்பர	-10.1497
▁கற்பனை	-10.1497
▁தம்பி	-10.1501
▁வழிபட்ட	-10.1504
▁பேரரசர்	-10.1511
▁வன்முறை	-10.1511
▁இணைக்கும்	-10.152
▁செயல்படும்	-10.1521
வேளை	-10.1533
▁மருத்துவம்	-10.1534
▁இதுவும்	-10.1537
▁இறந்தார்	-10.1544
▁சீர்	-10.1544
▁கருதி	-10.1545
▁கடித	-10.1555
▁நடிகர	-10.1557
▁பாசு	-10.156
▁47	-10.1564
▁போன	-10.1568
▁1983	-10.1569
62	-10.1569
▁1930	-10.1571
▁அழகு	-10.1571
த்தூ	-10.1572
பொழுது	-10.1575
ew	-10.1586
▁அளிப்ப	-10.1592
▁அருள	-10.1599
▁காண்ப	-10.16
▁உரோம	-10.1601
ப்பிள்ளை	-10.1605
▁திருப்பூர்	-10.1606
▁சாய்	-10.1608
த்துக்கான	-10.1608
▁com	-10.161
▁விளங்கிய	-10.1611
டைகிறது	-10.1612
▁குறுக்க	-10.1614
▁புரி	-10.1615
தாய்	-10.1616
வேக	-10.1616
முற்ற	-10.1617
▁சபா	-10.1618
▁தொடர்ப	-10.1623
▁எட்	-10.1624
▁சார்பாக	-10.1625
▁எண்ணி	-10.1628
வையாகும்	-10.1629
ுடனான	-10.163
▁கிறிஸ்	-10.1638
▁முடிவில்	-10.1638
மேல்	-10.1639
▁அம்மா	-10.1645
▁மாற்றங்கள்	-10.1645
▁வெகு	-10.1646
லான்	-10.1647
▁இலங்கைத்	-10.1648
▁(2	-10.1654
ாவார்	-10.1655
uc	-10.1655
ங்களுக்கான	-10.1657
ம்பை	-10.1666
▁அறிகுறி	-10.1666
▁கிடைக்கிறது	-10.167
▁இப்பகுதியில்	-10.167
▁சரியாக	-10.1672
▁கருவிகள்	-10.1674
▁தாங்கி	-10.1675
▁ரோம	-10.1676
▁சடங்கு	-10.1685
ீஸ்	-10.1688
▁வாழ்க்கையை	-10.1689
ப்படுகின்றனர்	-10.1694
▁பிரபு	-10.1696
▁மீள	-10.1697
ers	-10.1699
▁இறைவன்	-10.17
44	-10.171
யாற்ற	-10.1722
▁மாறுபட்ட	-10.1725
தாலும்	-10.1727
▁கரூர்	-10.1727
மாலை	-10.1727
▁தொலைபேசி	-10.1729
▁லிங்க	-10.173
▁அமர்ந்த	-10.1734
▁செய்யப்பட்டார்	-10.1735
▁பூச	-10.1735
▁இனம்	-10.1746
▁போதுமான	-10.1746
▁மக்களும்	-10.1753
போதும்	-10.1754
▁1967	-10.176
▁பயின்றார்	-10.1764
▁தெளி	-10.177
ஜர்	-10.1773
▁5%	-10.1774
▁நிறுவனத்தில்	-10.1775
▁குறைந்து	-10.1779
வள்	-10.178
த்தேர்	-10.1781
▁குளோரைடு	-10.1781
மீது	-10.1786
▁செல்கிறது	-10.1791
▁44	-10.1791
▁கங்கை	-10.1791
▁நொதி	-10.1798
▁உறவ	-10.1803
33	-10.1807
ஆக	-10.1808
▁உழ	-10.1812
டுப்பாட்டக்காரர்	-10.1815
ங்களிலிருந்து	-10.1824
est	-10.1824
▁நெறிமுறை	-10.1829
▁தாள	-10.1838
▁செயல்பட்டு	-10.1841
▁எரிமலை	-10.1844
▁34	-10.1854
▁நிறுவிய	-10.1857
▁தடுப்ப	-10.1861
க்கூட்ட	-10.1867
▁அழைத்த	-10.1872
▁தொகுதிகளில்	-10.1875
▁வேல	-10.1877
▁உத்தி	-10.1881
▁பண்ட	-10.1882
▁குறிப்பிடுகிறது	-10.1882
▁கிழக்கில்	-10.1885
▁எழுத்தறிவு	-10.1885
▁வீதம்	-10.1885
▁கட்டண	-10.1886
ராஜா	-10.1888
▁இம்மாவட்டத்தின்	-10.189
▁மணிக்கு	-10.1898
▁அளவிற்கு	-10.1901
வளி	-10.1901
▁தானிய	-10.1904
▁ஒழுங்கு	-10.1907
▁கிளா	-10.1908
▁எலி	-10.1908
▁ஏற்று	-10.1914
வராவார்	-10.1917
▁அஞ்ச	-10.1919
▁மதிப்பீடு	-10.1923
▁சத்திய	-10.1928
▁போட	-10.1931
▁கடலூர்	-10.1931
▁செல்வாக்கு	-10.1931
பிரா	-10.1931
▁எப்போதும்	-10.1931
▁கோரிக்கை	-10.1931
வாடி	-10.1933
▁விலக்க	-10.1936
▁பிரதேசத்தின்	-10.1938
▁அழிக்க	-10.1943
▁இணைப்ப	-10.1944
53	-10.1946
▁விலங்க	-10.1947
▁சதவீதம்	-10.1948
▁எதிர்ப்ப	-10.1948
▁நிலப்பகுதி	-10.1952
▁தூய்மை	-10.1953
▁நாயக	-10.1958
▁முடிந்தது	-10.1958
தொகு	-10.1958
▁கருவறை	-10.1959
▁கற்க	-10.1959
▁இருந்தவர்	-10.196
ary	-10.1965
களிலேயே	-10.1966
▁குழுவின்	-10.1966
பென்	-10.1971
▁திண்ம	-10.1973
▁சமவெளி	-10.1973
ாரா	-10.1977
▁தெரிகிறது	-10.1978
▁ஒன்றி	-10.198
▁1972	-10.1981
51	-10.1983
▁ஆலோசனை	-10.1987
▁மாநிலமான	-10.1989
▁பகுதியின்	-10.1989
▁முதற்	-10.1992
▁உருவாக	-10.1997
▁பக்தி	-10.1998
ium	-10.2005
▁ஊக்க	-10.2009
▁பண்ணை	-10.201
▁தாவரங்கள்	-10.2018
▁re	-10.202
▁விளக்கம்	-10.202
▁உணர்	-10.2022
ரியன்	-10.2026
▁வெளிவந்தது	-10.2027
▁பாடி	-10.203
▁காலநிலை	-10.203
▁காணப்படுகின்றது	-10.203
▁போர	-10.2032
▁37	-10.2034
▁இலக்கியம்	-10.2037
சனம்	-10.2041
▁நற்செய்தி	-10.2044
க்கால்	-10.2044
▁சன்னதியும்	-10.2044
▁நிலைமை	-10.2045
ம்பூர்	-10.2045
43	-10.2047
▁போட்டிகள்	-10.2047
▁இயேசுவின்	-10.2048
▁ஒருவராக	-10.2051
▁;	-10.2053
ுகிறாள்	-10.2054
▁பருத்தி	-10.2054
▁காலி	-10.2054
▁மன்னன	-10.2055
த்தவர்	-10.2055
ண்ணா	-10.2056
▁சத	-10.2058
▁ஆந்திரப்	-10.2058
▁இடமாக	-10.2062
கூர்	-10.2063
▁ஆலயம்	-10.2063
ஜன்	-10.2064
▁தெற்கில்	-10.2064
▁இந்நூல	-10.2065
▁கடமை	-10.2066
▁1982	-10.2066
▁அறிவித்தது	-10.2068
▁திரட்ட	-10.2069
▁தொண்ட	-10.2069
▁பட்டை	-10.2071
▁இராகம்	-10.2073
▁1000	-10.2081
▁வழங்குகிறது	-10.2085
▁பிரச்சனை	-10.2091
▁தேனி	-10.2091
▁இறந்து	-10.2097
ாயிற்று	-10.2102
▁பத்ம	-10.2104
▁செம்ப	-10.2104
▁ஆகியோரின்	-10.2104
▁நீடித்த	-10.2109
லியம்	-10.2112
▁ஆண்டுகளாக	-10.2113
▁கோழி	-10.2114
▁வெளிநாட்டு	-10.2133
▁துறைகளில்	-10.2135
▁பகுப்பாய்வு	-10.2135
▁அசிட்ட	-10.2139
▁1969	-10.2142
பள்ளி	-10.2142
த்திறன்	-10.2146
://	-10.2148
▁தீர்மானிக்க	-10.2149
II	-10.2156
▁என்றே	-10.2158
▁நிறத்தில்	-10.217
▁சொற்கள்	-10.217
▁அதிகரிப்ப	-10.2172
ction	-10.2174
▁சுற்றுச்சூழல்	-10.2177
▁பெயர்கள்	-10.2188
▁பஞ்சாபி	-10.2192
▁பணியாற்ற	-10.2193
ுகிற	-10.2194
▁சிதம்பர	-10.2196
▁1962	-10.2198
ara	-10.2199
▁கிரே	-10.2201
▁எர்	-10.2204
▁மூட	-10.2204
▁கருநாடக	-10.2206
▁காளி	-10.2208
சாரி	-10.2209
ber	-10.221
க்கதை	-10.221
▁செவ்வ	-10.2216
▁மின்னணு	-10.2216
▁தொடக்கம்	-10.2221
வியலில்	-10.2229
▁கொண்டனர்	-10.2232
▁நினைவ	-10.2233
▁முன்னோடி	-10.2233
▁தரம்	-10.2234
▁லு	-10.2234
▁சங்கர	-10.2238
▁கருப்ப	-10.2242
▁பார்வையாளர்	-10.2242
▁சவு	-10.2247
▁பீட்டர்	-10.2248
வெண்	-10.2248
▁ஓரி	-10.2249
▁பாரதிய	-10.2249
▁மாறுபட	-10.225
▁நாவல	-10.2251
▁ஏராளமான	-10.2253
▁அளவிட	-10.2257
▁தலைவி	-10.2263
▁1948	-10.2266
ாக்சைடு	-10.2267
63	-10.2268
▁மேற்கொள்ளப்பட்ட	-10.2275
▁அரசாங்கம்	-10.2276
▁சாரா	-10.2277
▁அய்ய	-10.2277
▁இதன	-10.2282
▁இலவச	-10.2283
▁பணிபுரி	-10.2286
வட	-10.2288
▁அர்த்த	-10.2289
▁நிறுவனங்கள	-10.2298
வாச	-10.2307
▁நர	-10.2308
▁தலைமையிட	-10.2312
to	-10.2316
▁நச்சு	-10.2318
▁மேரி	-10.2318
▁300	-10.2325
▁பிரித்து	-10.2329
▁ஆற்றல	-10.233
▁வரலாற்றை	-10.2332
ஹெ	-10.2336
▁சகோதர	-10.2337
▁ஜனதா	-10.234
▁தூண்	-10.2349
ுரிமை	-10.2351
டியம்	-10.2352
▁சுட்ட	-10.2354
▁சாகி	-10.2362
▁மாறியது	-10.2363
▁வகித்த	-10.2366
▁அவனை	-10.2366
▁இசையமைத்த	-10.2366
ஹோ	-10.237
att	-10.2373
▁வென்றார்	-10.2373
▁விழி	-10.2374
▁வடக்கே	-10.2381
▁சிந்து	-10.2382
iv	-10.2383
▁அரிசி	-10.2384
பிரதேச	-10.2392
▁கொண்டிருப்ப	-10.2392
மயமாக்க	-10.2393
▁நிமிட	-10.2393
41	-10.2394
டங்க	-10.2394
▁சொத்து	-10.2395
▁மேற்கில்	-10.2401
▁உலர்	-10.2403
▁எட்ட	-10.2404
ிருந்தாலும்	-10.2407
▁ஆங்கிலேயர்	-10.2413
வேண்டிய	-10.2414
ாயிரம்	-10.2417
ev	-10.2419
▁வெட்ட	-10.2428
▁பழங்கால	-10.2428
ப்படுத்தும்	-10.2429
▁நூறு	-10.2433
▁கல்வியை	-10.2434
திறன்	-10.2437
▁முதலமைச்சர	-10.2438
▁கூர்	-10.2438
▁தனியாக	-10.244
Y	-10.2441
▁கொண்டிருக்கிறது	-10.2441
த்திற்	-10.2442
▁ஆவார்கள்	-10.2443
ci	-10.2444
ுகையில்	-10.2444
▁பொருட்டு	-10.2444
▁கொல்லப்பட்ட	-10.2445
▁k	-10.2446
நாத்	-10.2446
▁தீர்க்க	-10.2447
▁முற்றிலும்	-10.2447
சபை	-10.2447
மண்டல	-10.2449
▁முப்ப	-10.2458
▁தகவல்களை	-10.2459
54	-10.2467
▁துறவி	-10.2467
▁உயிரணுக்கள	-10.2468
▁1979	-10.2471
▁பணியில்	-10.2471
▁தொட	-10.2474
ஃபோ	-10.2477
▁பிடித்து	-10.2477
▁பெல்	-10.2477
▁ஓட்டங்கள்	-10.2481
வதற்கான	-10.2483
கரை	-10.2485
▁அணுகுமுறை	-10.2487
▁நிலம்	-10.2488
ந்தோ	-10.2488
▁மனோ	-10.2489
▁தண்ணீர	-10.2493
▁கருதப்படும்	-10.2494
பெண்	-10.2497
▁நிறம்	-10.2498
த்தள	-10.2502
▁செய்வதற்கு	-10.2503
▁அட்	-10.2503
ian	-10.2505
▁நெருங்கிய	-10.2506
மானி	-10.2508
▁வசூல	-10.2513
▁நாடுகளுக்கு	-10.2518
▁நுண்ண	-10.2521
▁நடித்து	-10.2527
▁பேராசிரியராக	-10.2529
ாசி	-10.2534
▁உடனடியாக	-10.2546
▁வச	-10.2547
▁செம்ம	-10.2548
▁காவல	-10.2551
▁பெரும	-10.2552
▁ஒதுக்க	-10.2553
▁48	-10.2557
வண	-10.2558
ஸ்டன்	-10.256
▁விண்ண	-10.256
னூ	-10.256
▁என்றழைக்கப்படும	-10.2562
▁பட்டத்தை	-10.2568
▁பெறப்பட்ட	-10.257
▁செய்தல்	-10.2572
▁வணங்க	-10.2574
▁1952	-10.2578
▁முதன்முதலில்	-10.2586
▁உட்படுத்த	-10.2587
▁1975	-10.259
▁உளவியல்	-10.259
▁நாகரிக	-10.259
ாலான	-10.2602
▁காத்த	-10.2605
▁எழுத்தாளர	-10.2607
▁கௌ	-10.2608
ேற்றம்	-10.2609
▁1976	-10.2619
▁அனைத்துலக	-10.2619
னியர்	-10.2623
▁தொடர்வண்டி	-10.2625
பிறகு	-10.2626
▁வேதியியல	-10.2627
பியன்	-10.2627
▁அருங்காட்சியக	-10.2628
▁தீர்மான	-10.2629
கோவில்	-10.2634
▁வென்று	-10.2642
▁இறைவன	-10.2648
▁நாய்	-10.2658
▁என்பதைக்	-10.2662
க்கோடு	-10.2663
▁பழனி	-10.2666
▁உயிரணு	-10.2667
▁விழுந்த	-10.2675
சனின்	-10.2678
டிங்	-10.268
▁வழங்கியது	-10.2689
▁சங்ககால	-10.2689
▁தலைநகர்	-10.2701
▁என்பதே	-10.2718
Th	-10.2718
▁1974	-10.2719
▁முனிவர்	-10.2721
▁காதலி	-10.2723
▁படிப்ப	-10.2726
▁or	-10.2729
த்தொ	-10.2729
▁அக்காலத்தில்	-10.2729
▁நிரல்	-10.2729
▁எனலாம்	-10.273
▁உறுதிப்படுத்த	-10.2734
▁அப்துல்	-10.2736
▁உதய	-10.2737
▁51	-10.2741
▁குறைந்தது	-10.2743
▁விலங்குகள்	-10.2743
▁முதலாக	-10.2749
▁கூட்டமைப்பு	-10.2751
▁கோவில	-10.2752
▁கடலில்	-10.2754
▁கணக்கு	-10.2756
▁பட்டியல	-10.2757
▁ஏற்படுத்தி	-10.2759
▁குமார்	-10.2763
▁ஆய்வக	-10.2768
▁டூ	-10.2771
▁கொடை	-10.2773
▁மாற்றப்பட்டது	-10.2777
▁1956	-10.2779
▁பகுதிகளிலும்	-10.2785
டென்	-10.2787
▁திகழ்ந்த	-10.2788
சார்ந்த	-10.279
▁’	-10.2794
▁பேண	-10.2795
▁பிரதம	-10.2797
▁காதல	-10.2799
படும்	-10.2804
▁திட	-10.2805
▁வசித்து	-10.2805
▁செய்திகள்	-10.2808
▁கதைகள்	-10.2812
▁நிரந்தர	-10.2817
▁மாகாணம்	-10.2817
▁பெற்றுள்ளார்	-10.2819
▁1964	-10.282
▁அழைக்கப்பட்டது	-10.2828
ff	-10.2828
ுதலை	-10.2832
▁கைப்பற்றிய	-10.2833
▁நிகழ்வுகள்	-10.2834
தனால்	-10.2836
▁அமைக்கப்பட்டது	-10.2837
patti	-10.2838
ராஜன்	-10.2838
மாற	-10.2839
க்கெட்	-10.2842
▁உடன்படிக்கை	-10.2848
▁இவ்விரு	-10.2849
▁நிரப்ப	-10.285
▁ராம்	-10.2852
▁வெட்டி	-10.2853
ov	-10.2858
▁வழக்கில்	-10.286
பெருமாள்	-10.2861
▁கொண்டே	-10.2862
▁தமிழகத்தின்	-10.2867
களு	-10.287
▁v	-10.2872
▁கிழக்க	-10.2873
▁The	-10.2875
பீட	-10.2878
▁பேச்ச	-10.2879
▁நோபல்	-10.2881
▁நாடா	-10.2882
con	-10.2884
▁விலக	-10.2888
வதில்லை	-10.2891
▁புகைப்பட	-10.2893
▁இடைநிலை	-10.2894
▁தெரிவித்தார்	-10.2897
▁இசைக்குழு	-10.2906
▁கணக்கில்	-10.2915
▁முற்றுகை	-10.2919
னுக்கும்	-10.2921
பேர்	-10.2925
▁வழக்கமான	-10.2926
▁வீடியோ	-10.293
▁பணிகள்	-10.2931
▁ராபர்ட்	-10.2941
▁இடையிலான	-10.2942
▁பெயரால்	-10.2946
▁அழற்சி	-10.2946
▁ஆட்சியின்	-10.2946
▁விநியோக	-10.295
▁பலி	-10.2952
▁தேவைப்படும்	-10.297
▁தன்னாட்சி	-10.2973
▁கோப்பு	-10.2977
பாட்டை	-10.2978
▁இனி	-10.2978
▁சல்ப	-10.2979
▁மகிழ்ச்சி	-10.2981
CO	-10.2989
ாவது	-10.2996
▁சூரியன்	-10.2999
▁முன்பாக	-10.3004
▁ஆரம்பிக்கப்பட்ட	-10.3004
▁நடந்தது	-10.3006
வினால்	-10.3006
▁வாச	-10.3007
▁வளர்த்த	-10.3007
ran	-10.3008
பந்தாட்ட	-10.3009
▁பிணை	-10.301
▁பந்த	-10.3012
▁காமிகாகம	-10.3012
மாண	-10.3015
500	-10.3017
▁பிறப்ப	-10.3021
▁என்றழைக்க	-10.3021
▁திறனை	-10.3023
போர்டு	-10.3023
▁அறிவித்தார்	-10.3027
▁பெரி	-10.3027
▁நாடாக	-10.3028
ib	-10.3028
▁வெங்கட	-10.3033
▁இந்நிறுவன	-10.3033
▁விஜய்	-10.3034
▁சோம	-10.3036
▁செயலாக்க	-10.3036
▁பிளே	-10.3044
▁நம்பப்படுகிறது	-10.3045
▁பதில்	-10.3047
கோட்	-10.3048
_1	-10.3052
▁அறிவிக்க	-10.3052
ரத்தின	-10.3056
▁என்றார்	-10.3057
▁தாக்குதல	-10.3057
▁முளை	-10.3058
வச	-10.3059
▁அடைந்து	-10.3062
▁படங்களில்	-10.3064
▁வளிம	-10.3065
▁அன்ப	-10.3066
▁பிரித்த	-10.307
▁|	-10.3071
▁கலப்பு	-10.3073
▁ஒழி	-10.3077
ப்புள்ளி	-10.3081
ுருவ	-10.3084
▁கொண்டிருக்க	-10.3085
▁மடங்கு	-10.3085
றிஞர	-10.3085
▁கடின	-10.3087
▁மாநகராட்சி	-10.3087
▁ஏக்கர்	-10.3088
▁புனை	-10.3089
▁பிரதமர்	-10.3093
▁ஆண்டுதோறும்	-10.3096
ப்பற்றி	-10.3096
நிலையில்	-10.3096
▁பணிபுரிந்த	-10.3096
▁விடுதி	-10.3097
▁இப்பள்ளி	-10.3097
▁வீச	-10.3107
▁காணப்பட்டது	-10.311
ka	-10.3112
முதல்	-10.3114
▁தவற	-10.3115
▁காலத்திற்கு	-10.3115
▁விவசாயி	-10.3116
▁நாவல்	-10.3118
▁மறுத்த	-10.312
▁1965	-10.312
மின்றி	-10.3121
▁போதிலும்	-10.3122
செயல்	-10.3122
▁இசையில்	-10.3124
▁அழைப்ப	-10.3127
▁ஆற	-10.3128
▁இருப்பு	-10.3129
▁முடியவில்லை	-10.3131
▁மக்கள	-10.3132
வாதம்	-10.3132
▁நோக்கம்	-10.3135
▁இயற்ற	-10.3138
காந்த	-10.3138
▁கியூ	-10.3142
தீன்	-10.3145
if	-10.3147
ிருப்பது	-10.3147
Al	-10.315
▁ஆராய	-10.315
▁1957	-10.3152
▁படிப்பை	-10.3154
ங்களைச்	-10.3163
மிழ	-10.3164
▁பரப்பளவில்	-10.3166
▁ஐரோப்பாவில்	-10.3169
▁தடுப்பு	-10.3171
▁அருகிலுள்ள	-10.3171
▁பங்களிப்பு	-10.3171
eg	-10.3173
▁சியா	-10.3174
▁அருங்காட்சியகம்	-10.3177
▁மாட	-10.3178
▁நன்றாக	-10.318
▁நிருவாக	-10.3181
வுட்	-10.3182
▁சமநிலை	-10.3183
மல	-10.3183
▁உறிஞ்ச	-10.3183
▁ஆகவே	-10.3184
▁Co	-10.3185
▁வந்தன	-10.319
▁மற்றவர்	-10.3191
ச்சே	-10.3197
ெண்	-10.3197
▁அறியப்படும்	-10.3203
ப்பாட	-10.3203
▁தன்மையை	-10.3205
மனை	-10.3206
▁கிளி	-10.3207
▁காவல்துறை	-10.3207
va	-10.3208
ிலிருந்தே	-10.321
▁ஏற்றுமதி	-10.3212
▁அடங்க	-10.3212
▁கல்யாண	-10.3213
▁பயன்பாட்டு	-10.3217
ாகி	-10.3221
ினைக்	-10.3223
▁அரசியல்வாதியும்	-10.3228
▁நிறுத்தி	-10.3228
▁பொதுச்	-10.3234
ல்லாத	-10.3236
▁எனில்	-10.3239
▁கழகத்தின்	-10.3239
▁38	-10.324
ical	-10.3241
▁பட்டி	-10.3242
ிழை	-10.3243
▁கொல்கத்தா	-10.3243
▁விரைவில்	-10.3243
▁பெருமளவில்	-10.3244
▁தஞ்சை	-10.3244
▁பெற்றிருந்த	-10.3245
▁முடிவுக்கு	-10.3245
▁விடய	-10.3245
▁தகவல்கள்	-10.3246
கிற	-10.325
▁நகருக்கு	-10.3251
▁In	-10.3252
▁பொய்	-10.3252
▁சமன்பாடு	-10.3254
du	-10.3258
ம்பாளையம்	-10.3264
▁கால்நடை	-10.3265
ம்பாடி	-10.3271
▁தெற்கே	-10.3272
▁உடற்	-10.3272
▁நூலின்	-10.3272
▁கட்டுப்பாட்ட	-10.3273
▁இறப்ப	-10.3274
▁http	-10.3275
▁இலிருந்து	-10.3278
▁ஆக்சிசனேற்ற	-10.328
▁நூலாக	-10.3283
▁திரைப்படங்கள்	-10.3285
▁நூல்களில்	-10.3288
▁முடிவுகள்	-10.3291
ெடுத்து	-10.3292
▁டிரை	-10.3293
▁கட்டிய	-10.3294
▁பொட்டாசியம்	-10.3296
▁நின்ற	-10.3297
▁49	-10.3297
▁வெப்பநிலையில்	-10.3298
▁இயல்	-10.3298
▁ஜெய்	-10.3302
▁மூன்ற	-10.3303
▁அடுக்க	-10.3303
▁ராணி	-10.3304
ப்பார்	-10.3304
▁உபசன்னதி	-10.3304
▁அறிமுகமானார்	-10.3307
▁பொறுப்பேற்ற	-10.3309
யடைந்த	-10.3311
ென்ற	-10.3318
ப்பாடல்	-10.3319
ொழி	-10.3329
னான	-10.3342
நாள	-10.3343
▁அகில	-10.335
▁மேற்கத்திய	-10.335
யாய்	-10.3352
▁படைப்ப	-10.3353
▁இராச்சியம்	-10.3357
▁எசுப்பானிய	-10.3359
▁புதுச்சேரி	-10.3363
▁அமைந்திருக்கும்	-10.3364
▁மடி	-10.3364
▁இழப்பு	-10.3367
▁கண்டுபிடிப்பு	-10.3367
▁சூட	-10.3367
செயல	-10.3367
▁தலைவராகவும்	-10.3374
▁நடவடிக்கைகள்	-10.3375
▁வழியே	-10.3377
▁போய்	-10.3379
▁கும்ப	-10.338
▁1981	-10.3386
▁பொருளின்	-10.3387
▁ஒருமுறை	-10.3387
▁முடிகிறது	-10.3389
க்கழக	-10.339
▁கந்தக	-10.3392
வல்ல	-10.3393
▁ஏற்படுத்தும்	-10.3396
▁போக்க	-10.3396
பாட்டு	-10.3399
த்தியா	-10.3399
▁தலைநகரான	-10.3413
▁முது	-10.3415
▁அணியில்	-10.3415
▁திருமால	-10.3417
▁சான்று	-10.3417
▁ஷி	-10.3418
▁பிரெ	-10.342
▁நுழைந்த	-10.3423
▁சூழலில்	-10.3424
▁சதுரங்க	-10.3424
வராகவும்	-10.3429
▁எச்ச	-10.3432
▁ஹரி	-10.3433
▁42	-10.3435
▁இடங்கள்	-10.3438
▁நடுவில்	-10.3438
கோட்டை	-10.3438
▁64	-10.3442
▁சீக்கிய	-10.3442
▁வெப்பம்	-10.3443
▁மொழியாக	-10.3447
▁ராணுவ	-10.3447
▁தொண்டை	-10.3447
▁துன்ப	-10.3449
மில்லை	-10.345
▁ஸ்டா	-10.345
திற	-10.3457
▁நான்காம்	-10.3458
ாடு	-10.346
மட	-10.3465
▁தற்காலிக	-10.3469
▁ஃபா	-10.3469
▁மொழியை	-10.347
▁கோவா	-10.3472
▁இத்தாலி	-10.3473
ம்பர்	-10.3473
ூன்	-10.3474
▁கட்டத்தில்	-10.3477
ப்பர	-10.3481
ast	-10.349
▁நபர	-10.349
▁குஜராத்	-10.3491
▁கேரளா	-10.3492
க்குறை	-10.3493
▁திட்டமிட	-10.35
▁ஹீ	-10.3501
▁செய்யப்பட	-10.3504
▁தலைநகராக	-10.3505
▁சூப்பர்	-10.3506
▁பெருந்த	-10.3508
ேசுவரர்	-10.3509
▁முகாம	-10.351
▁துருவ	-10.3512
▁அறக்கட்டளை	-10.3512
▁கழித்து	-10.3517
▁மறைந்த	-10.3517
▁குழுவில்	-10.3518
ுமிட	-10.3524
▁சித்தரிக்க	-10.3528
வென்	-10.3533
▁சுல்தான்	-10.3534
▁தொகுதியின்	-10.3538
▁குழுவினர	-10.3538
▁1973	-10.3538
▁தலைப்பில்	-10.3543
▁வகுத்த	-10.3545
ind	-10.3548
▁படகு	-10.3555
நோக்கி	-10.3557
போத	-10.3558
▁1968	-10.356
▁மீனாட்சி	-10.3567
ம்மாள்	-10.3568
வருகிறது	-10.3568
-3	-10.3568
▁திரைக்கதை	-10.3568
▁அலுவலகம்	-10.3568
ில்லாமல்	-10.3568
மாதிரி	-10.3573
பட்டினம்	-10.3577
▁கொடுப்ப	-10.3579
▁ஓடி	-10.358
▁எஞ்சிய	-10.358
ந்தே	-10.3581
▁நகரங்களில்	-10.3583
▁நகரை	-10.3583
▁சொன்ன	-10.3586
▁தலைநகரம்	-10.3586
ாளராகவும்	-10.3587
▁வடிவமைத்த	-10.3589
▁வியட்நாம	-10.3589
▁ஷெ	-10.3591
▁அண்மையில்	-10.3592
முடியாத	-10.3594
▁பாக்கித்தான்	-10.3594
▁கதாப்பாத்திர	-10.36
▁எதிர்பார்க்க	-10.3601
▁பிராமண	-10.3609
▁நன்ன	-10.3609
▁இத்திட்ட	-10.362
▁உடல்நல	-10.3622
▁எல்லாம்	-10.3623
▁பயன்படுகின்றன	-10.3625
▁கருதுகின்றனர்	-10.363
மாகவே	-10.3632
▁எடுத்துச்	-10.3633
▁ஆகியோர	-10.3633
▁குடியேற	-10.3636
ப்படுவதால்	-10.364
▁அடிப்படையாக	-10.3641
▁கொன்ற	-10.3643
▁ஊழியர்	-10.3644
▁தழுவி	-10.3649
க்காட்ட	-10.3649
▁பயணிகள்	-10.3652
▁கடும்	-10.3652
ப்பெயர	-10.3653
▁பேசி	-10.3654
▁அதிகாரம்	-10.3656
ப்போட்டி	-10.3656
ுறுப்பு	-10.3656
▁செரு	-10.3659
ana	-10.366
இர	-10.3664
▁கம்பெனி	-10.3666
ட்டே	-10.3669
ப்பிட	-10.3673
▁தொடர்பாக	-10.3674
▁திரைப்படத்தின்	-10.3678
▁சிலி	-10.3682
ess	-10.3691
▁லட்சுமி	-10.3695
பெல்	-10.37
▁டிவி	-10.3709
▁சர்ச்சை	-10.3713
▁என்பவரின்	-10.3725
▁கொண்டிருந்தார்	-10.3727
வெப்ப	-10.3727
▁கிழக்கிந்திய	-10.3733
▁ஜு	-10.3735
▁நூற்றாண்ட	-10.3738
▁இயல	-10.3748
▁தற்	-10.3749
▁தானே	-10.3755
▁சிவாஜி	-10.3755
▁முதுகலை	-10.3756
▁ஒருங்கிணைந்த	-10.3757
▁தயாரிப்பாளர்	-10.3759
▁e	-10.3759
▁சட்டத்தின்	-10.3764
▁கண்காணிப்ப	-10.3778
▁மருத	-10.378
▁தலைமையிலான	-10.3781
▁இம்மொழி	-10.3783
களுடனும்	-10.3786
▁அதிகபட்ச	-10.3789
▁வைத்திருந்த	-10.3791
வதால்	-10.3791
▁கணிக்க	-10.3792
▁அரசி	-10.3792
▁பரா	-10.3795
▁பயன்பட்ட	-10.3798
-18	-10.3799
▁இலாப	-10.3806
தென்	-10.3807
▁மெல்ல	-10.3809
▁என்பதுடன்	-10.3809
பேசி	-10.3815
▁மாடு	-10.3816
▁குளம்	-10.3818
▁வழங்கினார்	-10.3822
▁ஆட்சியில்	-10.3826
ய்யா	-10.383
▁ஆப	-10.383
▁பெய்	-10.3833
வற்றில்	-10.3835
▁சம்பவ	-10.3835
யிட்டு	-10.3836
சுந்தர	-10.3852
▁சுரு	-10.3854
▁படுகொலை	-10.3856
▁வலைத்தள	-10.3857
▁1920	-10.3858
▁1963	-10.3859
▁பொருளியல்	-10.386
▁அனைவர	-10.3862
▁வங்க	-10.3863
▁வரையறுக்கப்பட்ட	-10.3866
தொரு	-10.387
ப்பாறை	-10.3871
▁வில்ல	-10.3873
▁என்பதில்	-10.3876
யூட்ட	-10.3876
ve	-10.3876
▁கிரிக்க	-10.3877
▁பாகை	-10.3877
▁மனிதன்	-10.3878
▁உடு	-10.3878
▁அக்கால	-10.3879
▁வடகிழக்கு	-10.3879
▁வர்க்க	-10.388
▁அதிகாரப்பூர்வ	-10.3884
▁மரங்கள்	-10.389
சேர்	-10.3891
▁முன்பே	-10.3893
▁இவற்றுள்	-10.3895
▁உணர்ச்சி	-10.3897
றிந்த	-10.3897
▁சமயங்களில்	-10.3902
▁பகுதியான	-10.3902
▁முழுமை	-10.3904
டோன்	-10.3909
▁தேற்ற	-10.391
கொள்கிறார்	-10.391
mo	-10.3911
▁கூடும்	-10.3917
▁இன்ன	-10.3918
பாட்ட	-10.392
▁வள்ளி	-10.3921
▁விரும்பி	-10.3924
▁அருவி	-10.3924
▁ஊடாக	-10.3929
வரான	-10.3935
▁அறிமுகம்	-10.3935
▁சிவபெருமான்	-10.3937
▁உரையாட	-10.3939
▁இந்நகரம்	-10.3945
▁கில்	-10.3946
▁மதிப்பிட	-10.3947
▁பக்கம்	-10.3951
▁அவர	-10.3954
▁சூத்திர	-10.3956
▁கழகத்தில்	-10.3963
▁உரிமைகள்	-10.3964
▁அவர்களால்	-10.3966
▁தமிழர்கள்	-10.3971
▁தெரிந்த	-10.3973
▁கடினமான	-10.3976
▁அங்கீகரிக்க	-10.3981
▁பாலைவன	-10.3983
ாளரான	-10.3986
காலம்	-10.4005
▁நடுநிலை	-10.401
▁முதன்முதலாக	-10.4016
▁தாக்கம்	-10.4016
da	-10.4016
▁சேவைகள்	-10.4016
▁கிராம்	-10.4017
▁சாமி	-10.4017
▁இவ்வாறான	-10.4027
ach	-10.4034
▁இருந்தபோது	-10.4035
▁தொடங்கப்பட்ட	-10.4038
▁ஃ	-10.4041
▁முறையான	-10.4043
▁உதவியுடன்	-10.4048
▁டச்சு	-10.4048
▁உணர்ந்த	-10.4051
▁முத்த	-10.4052
▁காட்டுகிறது	-10.4052
▁பணியை	-10.4053
ப்படுத்திய	-10.4055
▁திறந்து	-10.406
ob	-10.4066
▁விளைவிக்க	-10.4068
ட்டீ	-10.4069
▁செருமனி	-10.4074
▁கரையில்	-10.4081
▁பெருமளவு	-10.4086
▁மண்டபம்	-10.4092
▁150	-10.4095
▁பங்கேற்க	-10.4097
க்கருவி	-10.4099
▁39	-10.4099
▁ஈட்ட	-10.4101
▁பிற்காலத்தில்	-10.4102
▁மஞ்ச	-10.4106
uth	-10.4106
▁தரும	-10.4107
▁படிப்படியாக	-10.4108
Br	-10.4111
▁எதிர்மறை	-10.4111
▁வலு	-10.4114
▁எழுத்துக்	-10.4116
▁ஃபோ	-10.4117
▁தோற்றுவிக்க	-10.412
▁மரபுவழி	-10.4126
▁தனித்த	-10.4127
▁பெரம்பலூர்	-10.4131
▁ஹெர்	-10.4143
▁சதவிகித	-10.4143
▁வளர	-10.4145
▁1945	-10.4147
▁பாகிஸ்தான்	-10.4148
▁உபயோக	-10.4153
வலி	-10.4154
▁இலத்தீன்	-10.4155
tion	-10.4163
▁விழுக்காடு	-10.4166
மேற்	-10.4166
▁வரையான	-10.4169
▁எலக்ட்ரான்	-10.4169
▁மாநாடு	-10.4172
▁கோயிலின்	-10.4173
▁அறிஞர்கள்	-10.4175
▁ஸ்டே	-10.4175
ானார்	-10.4178
▁பசுமை	-10.4181
▁ஏழை	-10.4182
கீழ்	-10.4185
▁மகனாக	-10.4185
ரூப	-10.419
▁தீர்ப்ப	-10.4198
▁இந்திரா	-10.4199
▁மீள்	-10.42
விற்கும்	-10.4206
ru	-10.4207
▁65	-10.4211
▁கப்பல	-10.4212
முத்து	-10.4213
▁தவிர்த்து	-10.4219
ேசுவர	-10.422
her	-10.4221
▁குழுக்கள்	-10.4226
▁பிரதிநிதித்துவ	-10.4226
▁முத்திரை	-10.4236
▁உறுப்பினரும்	-10.4237
▁வீழ்த்த	-10.4237
போர்ட்	-10.4241
பிள்ளை	-10.4242
▁இந்திர	-10.4246
ug	-10.4247
▁பாலியல்	-10.4248
▁வேட்டையாட	-10.4249
▁நிர்	-10.4252
▁பகுதிக்கு	-10.4254
▁தாண்டி	-10.4257
▁தங்கி	-10.4257
ala	-10.426
▁தட்டு	-10.4264
▁உடையது	-10.4266
ுள்ளதாக	-10.4267
▁முதலீடு	-10.4274
▁அம்பா	-10.4286
ாபுரம்	-10.4288
▁மாவட்டத்திலுள்ள	-10.4288
▁55	-10.4302
▁வசதிகள்	-10.4304
ியற்	-10.4307
▁52	-10.4311
▁அமர்	-10.4315
▁கிறிஸ்தவ	-10.4316
▁முடித்த	-10.4322
ுணர்வு	-10.4323
▁புவியின்	-10.4325
▁என்பதன்	-10.4326
▁வைணவ	-10.4327
▁400	-10.4327
▁மைக்கேல்	-10.4331
▁1954	-10.4334
▁என்பவரை	-10.4334
▁மென்பொருள	-10.434
▁வேட்பாளராக	-10.4342
▁நிறுவினார்	-10.4345
lu	-10.4348
▁பெற்றுள்ளன	-10.4349
படுத்தி	-10.435
▁ஆசிரிய	-10.4353
▁வானியல	-10.4358
▁for	-10.4359
our	-10.4361
▁விரிவான	-10.4369
CH	-10.4369
▁இவ்வா	-10.4373
▁சனி	-10.4377
ram	-10.4385
▁அமைவ	-10.4388
▁அலங்கார	-10.439
▁கால்வாய்	-10.4392
▁இயற்பியல	-10.4397
▁நீதிமன்றம்	-10.4397
ral	-10.4399
▁தொடரின்	-10.4399
▁அனி	-10.44
▁சூழப்பட்டுள்ளது	-10.4407
▁நடுவண்	-10.4408
▁இருக்கின்றது	-10.4412
▁தனிநபர்	-10.4414
▁கருப்பை	-10.4414
▁வாழை	-10.4417
▁தொடர்ச்சியான	-10.442
ee	-10.442
▁மாறிய	-10.4421
▁செயற்	-10.4422
▁கிளர்ச்சி	-10.4426
▁சோழன்	-10.4427
▁காரணங்கள	-10.4433
▁கடுமையாக	-10.4438
▁மேன்	-10.4439
▁43	-10.444
சமய	-10.4442
ric	-10.4443
▁அன்பு	-10.4443
▁பிரிந்து	-10.4445
படை	-10.445
▁கிடையாது	-10.445
மூர்	-10.4453
▁விருதுகள்	-10.4455
▁கல்லறை	-10.4456
▁தேவார	-10.4458
▁உணர்த்த	-10.4459
▁போட்டியிட்ட	-10.4462
▁கதிரியக்க	-10.4462
▁சிறையில்	-10.4462
▁மாளிகை	-10.4462
▁சேர்க்கை	-10.4463
பிற	-10.4464
▁சட்டப்படி	-10.4466
▁நீட்டி	-10.4471
▁கோவிந்த	-10.4475
▁லூயி	-10.4476
▁வடமொழி	-10.4477
▁Re	-10.4477
son	-10.4482
க்காகவும்	-10.4485
▁நாற்	-10.4486
▁போலி	-10.4487
▁மனம்	-10.4492
▁சுவாச	-10.4495
▁கடு	-10.4498
யாள	-10.4503
▁நிலவிய	-10.4504
age	-10.4509
▁நிறுவனத்தை	-10.451
நோய்	-10.4516
ாி	-10.452
ின்றார்	-10.4523
▁இராச்சியத்தின்	-10.4527
▁மாறு	-10.4528
லொ	-10.4537
ராமன்	-10.4542
▁பேரவை	-10.4543
▁சிங்கப்பூர	-10.4545
▁காலமானார்	-10.4546
▁முடிக்க	-10.4548
▁பத்திர	-10.4552
▁உரிம	-10.4555
▁தொட்டி	-10.4557
▁மனிதர்கள்	-10.4559
ப்பட்டிருந்தது	-10.456
▁கவிதைகள்	-10.4561
▁சீனாவின்	-10.4561
▁வளர்ப்பு	-10.4561
▁அரேபிய	-10.4561
▁நடப்ப	-10.4563
▁அங்கிருந்து	-10.457
▁நிலப்பரப்ப	-10.4573
ங்களே	-10.4575
ரம்ப	-10.4575
▁தொடர்ச்சி	-10.458
▁காண்க	-10.4585
▁எஃப்	-10.4587
▁பாடகர்	-10.4594
▁கூடு	-10.4597
▁அணிக்காக	-10.4597
▁சேமிக்க	-10.4597
▁1966	-10.4598
▁உட்புற	-10.4598
▁தேர	-10.4602
▁பாண்டியன்	-10.4603
▁அவசிய	-10.4603
▁புரட்டாசி	-10.4607
ிடை	-10.4607
▁கொன்று	-10.4609
▁துண்டு	-10.4612
ட்டெ	-10.4613
டைந்து	-10.4614
▁கிழக்கே	-10.4615
▁நடைமுறையில்	-10.4619
▁சுட்டு	-10.4622
▁யாழ்ப்பாணம்	-10.4628
▁கட்டமைப்ப	-10.4633
▁தண்டு	-10.4636
pe	-10.4637
▁தலைவன்	-10.4645
▁வாடிக்கையாளர்	-10.4647
டூ	-10.465
▁46	-10.4651
ானந்த	-10.4651
▁வசன	-10.4653
மல்ல	-10.4656
▁கிழ	-10.4659
▁ஒத்து	-10.466
▁தொகுதிக்கு	-10.4666
▁இருவர	-10.4667
▁தீவிரவாத	-10.4667
ப்பிடி	-10.4669
▁நீளமான	-10.4671
இரு	-10.4672
ிறான்	-10.4674
க்கூடியது	-10.4678
▁திரிபு	-10.4678
▁சிக்கி	-10.4678
▁பத்திரிக்கை	-10.468
▁இவரே	-10.468
ஸ்திர	-10.4685
▁தெரியவில்லை	-10.4686
▁உணவாக	-10.4689
ப்பாட்டு	-10.469
▁ஒட்டுமொத்த	-10.4692
▁தவறான	-10.4697
▁தூரத்தில்	-10.4699
▁இதற்கான	-10.47
▁படையினர	-10.4702
▁பயன்பாட்டில்	-10.4703
res	-10.4704
ுறவு	-10.4705
ari	-10.4707
நாக	-10.4709
▁ஒலிபரப்ப	-10.471
▁இளங்கலை	-10.4717
▁வெற்றிகரமாக	-10.4717
க்கல்வி	-10.4731
ிருப்பதாக	-10.4731
கினி	-10.4733
wa	-10.4735
யியல	-10.4735
களுக்க	-10.4744
▁நாட்டுப்புற	-10.4746
ழற்சி	-10.4753
▁குறிக்கோள	-10.4758
▁மல்ல	-10.476
▁சன்னதிகளும்	-10.4762
▁அவற்றுள்	-10.4763
▁கோடை	-10.4765
▁காரணத்தால்	-10.4771
பிடிப்ப	-10.4772
▁அறிவிப்ப	-10.4773
▁அப்படி	-10.4775
றே	-10.4776
▁பிற்பகுதியில்	-10.4776
ஆவது	-10.4778
▁பனை	-10.479
▁கடவுளின்	-10.4802
▁தற்கொலை	-10.4803
▁இரயில்	-10.4805
▁முகலாய	-10.4806
▁குறைவு	-10.4809
▁அச்சிட	-10.4812
ens	-10.4819
▁நிகழ	-10.4819
▁அபாய	-10.482
▁என்பதையும்	-10.4821
ப்பாக்கம்	-10.4823
▁ஒர்	-10.4825
இந்த	-10.4825
▁ஆரணி	-10.4826
▁மேற்கோள்	-10.483
▁வசந்த	-10.4833
ae	-10.4834
po	-10.4839
▁சேர்த்த	-10.4839
▁ஆள்	-10.484
ப்பாடி	-10.4843
▁அமைகிறது	-10.4844
▁மயிலாடுதுறை	-10.4853
ron	-10.4855
▁ஏற்றுக்கொண்ட	-10.4857
▁வகையைச்	-10.4862
▁சேர்மங்கள்	-10.4862
▁இச்சி	-10.4865
▁மோசமான	-10.4866
மாற்றம்	-10.4866
▁முகவரி	-10.4869
▁1958	-10.4871
டொ	-10.4873
▁சுற்றியுள்ள	-10.4873
▁கடிகார	-10.4878
செய்யப்பட்ட	-10.4881
▁ஈடு	-10.4884
தேச	-10.4889
ங்குளம்	-10.489
▁ராவ்	-10.4893
▁காட்டும்	-10.4894
▁1961	-10.4895
▁பாம்பு	-10.4897
▁என்பவற்ற	-10.4898
▁ஆயிர	-10.4898
▁சிதற	-10.4901
▁திருக்குறள	-10.4903
▁நமது	-10.4904
▁திட்டத்தை	-10.4908
▁உத்தரப்	-10.4911
▁ஏறக்குறைய	-10.4916
ord	-10.4916
மீட்டர்	-10.4924
▁உள்ளடக்கியது	-10.4924
யென	-10.4925
▁ஆண்களின்	-10.4925
▁படித்து	-10.4927
மங்கல	-10.4928
லாய்	-10.4933
▁இறங்க	-10.4935
வியலாளர்	-10.4936
குள	-10.4937
▁வகிக்க	-10.4938
▁ஆகியவற்றைக்	-10.494
▁பொருட்களின்	-10.4942
ஊ	-10.4949
▁ராய்	-10.4956
▁கருத்தை	-10.496
▁போக்கு	-10.4963
▁தோற்கடித்த	-10.4966
▁சுழல்	-10.4966
▁நாயக்கர்	-10.4967
▁மோதி	-10.4969
▁ஈடுபட்டு	-10.4972
வர்மன்	-10.4974
▁பெருங்கடல	-10.498
▁அடிப்படையிலான	-10.4982
▁ஒன்றியத்தின்	-10.4987
▁வென்றது	-10.4992
ass	-10.4994
ப்புல	-10.4995
▁படித்த	-10.5008
▁ட்ர	-10.5019
▁மெதுவாக	-10.5023
▁நுரையீரல்	-10.5024
▁மாறும்	-10.5028
▁மூலவர்	-10.5028
▁தேர்ந்தெடுத்த	-10.5029
▁மண்டலத்தில்	-10.5032
▁ஆரோக்கிய	-10.5042
▁தோன்றியது	-10.5044
▁நிற்க	-10.5044
▁அதிகரிக்கும்	-10.5046
இந்திய	-10.5047
▁ஃப்ர	-10.5049
▁போருக்கு	-10.5049
▁உடலின்	-10.5052
▁சுருக்கமாக	-10.5057
▁சுரப்பி	-10.5057
▁தரநிலை	-10.5058
▁ஈர்ப்பு	-10.5059
▁வாழ்க்கையில்	-10.5059
▁குடும்பத்தைச்	-10.5064
▁கற்பித்த	-10.5068
▁1959	-10.5071
▁கார்பன	-10.5072
▁சம்பா	-10.5078
▁எடுப்ப	-10.5079
▁மேம்பாட்டு	-10.508
வலை	-10.5081
▁தியாக	-10.5083
5,000	-10.5084
▁ஆசிரியர	-10.5086
▁ஈர்க்க	-10.5087
▁வீத	-10.509
லீன்	-10.5092
▁உபசன்னதிகள	-10.5096
▁தனித்து	-10.5098
தலின்	-10.5098
▁இப்படம்	-10.5098
▁ஆஸ்திரேலிய	-10.5099
aw	-10.5104
▁அடித்தள	-10.5106
கூற	-10.5106
ங்களுக்காக	-10.5109
▁பொருள்படும்	-10.511
▁தூரம்	-10.511
▁குளிர்கால	-10.5112
▁நாட்களுக்கு	-10.5116
▁வைத்தார்	-10.5116
▁அமைச்சரவை	-10.5119
▁பீகார	-10.5122
▁நடக்கின்றன	-10.5124
▁புற்று	-10.5125
▁நிலையத்தில்	-10.5125
▁1946	-10.5136
▁பெண்களுக்கு	-10.5137
▁வெல்ல	-10.5139
▁உறுப்பினராகவும்	-10.5143
▁மகாபாரத	-10.5148
▁நிகழ்ச்சியில்	-10.5154
▁தாக்கி	-10.5155
நூற	-10.5156
▁ஊடுருவ	-10.5158
▁தயாரிப்பில்	-10.5163
ச்சொல்	-10.5164
▁ஸ	-10.5166
▁கூடாது	-10.5167
▁இதழில்	-10.5169
▁மட்டக்களப்பு	-10.5169
▁மக்கட்தொகை	-10.517
ீசுவரர்	-10.517
▁ஒற்றுமை	-10.517
▁தருகிறது	-10.5172
▁கருத்தில்	-10.5172
▁கோபால	-10.5173
▁லக்	-10.5175
au	-10.5177
▁சமையல	-10.5178
▁வேகம்	-10.5178
▁படிம	-10.5182
▁பவுல்	-10.5184
▁பட்ச	-10.5186
▁ரீதியான	-10.5188
yl	-10.5189
▁வடிவத்தில்	-10.5191
க்காட்சி	-10.5193
ெண்ண	-10.5194
ish	-10.5195
▁நரசிம்ம	-10.5196
▁சுல்தான	-10.5209
▁வாயில்	-10.5211
▁அசோக	-10.5211
பாடாக	-10.5214
int	-10.5218
▁வாயிலாக	-10.5218
▁ரவி	-10.5219
▁உருவாகி	-10.5221
▁நெருக்கடி	-10.5222
முறையில்	-10.5223
▁அரசால்	-10.5224
▁அவசர	-10.5225
ுவதாகும்	-10.5228
ஷன	-10.5231
▁அப்போதைய	-10.5235
▁தென்கிழக்கு	-10.5235
▁அவளை	-10.5237
▁1949	-10.5238
▁சாம்பல்	-10.5249
▁சந்தேக	-10.5249
▁கிட்ட	-10.5257
▁முகம்மது	-10.5261
▁பார்ப்ப	-10.5261
▁63	-10.5262
▁மொழிபெயர்ப்பு	-10.5262
▁இயலாத	-10.5269
▁திரும்பிய	-10.5272
▁காஞ்சி	-10.5273
▁ஐந்தாம்	-10.5274
பெயர	-10.5275
▁தீவில்	-10.5276
▁பிலிப்	-10.5277
▁பணிபுரிந்தார்	-10.5279
▁உத்திர	-10.528
▁வள்ள	-10.5281
▁இவ்வினை	-10.5286
▁பழுப்பு	-10.5287
ண்டெ	-10.5293
▁துவக்கத்தில்	-10.5294
▁பாக்டீரியா	-10.53
▁ஈடுபாடு	-10.5301
▁மாதங்கள்	-10.5302
க்காலம்	-10.5303
▁லியோ	-10.5303
▁டார்	-10.5303
யீடு	-10.5304
▁கிரீ	-10.5304
▁பயன்படுத்தலாம்	-10.5305
▁மேக	-10.5313
▁பராமரிக்க	-10.5313
▁பருவத்தில்	-10.5314
▁1951	-10.5316
AT	-10.5317
காட்டி	-10.5329
▁பிரம்மா	-10.533
▁செயற்பாட்ட	-10.5338
விசை	-10.534
ence	-10.5341
ial	-10.5342
▁கொடுத்தார்	-10.5343
▁செய்கின்றன	-10.5349
▁இரக	-10.535
har	-10.535
▁கொண்டுவந்த	-10.5353
▁விளிம்ப	-10.5358
▁திருப்பு	-10.5359
▁பொலி	-10.536
▁அழிந்து	-10.5362
▁நீராவி	-10.5365
▁பள்ளத்தாக்கு	-10.5376
வண்ண	-10.5377
▁கார்த்திகை	-10.5378
இது	-10.5378
▁எழுத்துக்கள்	-10.5388
▁வெண்பா	-10.5392
▁விசய	-10.5393
▁பாடலை	-10.5397
▁அவர்களுடைய	-10.5401
▁மார்கழி	-10.5405
ராஷ்டிர	-10.5405
▁ஆதரிக்க	-10.5405
▁நேரு	-10.5406
▁1955	-10.5409
▁உள்ளடங்க	-10.5409
▁செவி	-10.541
▁அரசியலமைப்பு	-10.5412
mm	-10.5414
▁இருபத்த	-10.5417
த்தொடர்	-10.5418
▁பெயரிட்ட	-10.5419
▁மெல்லிய	-10.5419
ரியல்	-10.542
களுடைய	-10.5421
▁ஓரளவு	-10.5421
▁சிறீ	-10.5426
பரப்ப	-10.5427
▁இம்மாவட்டம்	-10.5429
▁கூறுகின்றனர்	-10.5429
▁எண்ணிக்கையில்	-10.5435
▁முன்னரே	-10.5436
▁வீடுகள்	-10.544
▁பயன்பட	-10.5442
▁சீடர்	-10.5443
▁பங்குனி	-10.5444
▁வேளையில்	-10.5444
படுகிறது	-10.5446
▁தூக்கி	-10.5452
adi	-10.5454
▁ஹோட்டல	-10.5456
▁இயக்கினார்	-10.5457
▁புரூ	-10.5459
▁இருந்ததால்	-10.5461
அள்ளி	-10.5461
▁கலைஞர	-10.5462
▁தொகுதியாகும்	-10.5462
▁திசையில்	-10.5462
▁விளைவுகளை	-10.5463
▁பெரும்பான்மையான	-10.5464
▁வேல்	-10.5467
▁கரும்பு	-10.5469
▁தோழி	-10.5469
▁குறிப்பிடுகிறார	-10.5469
▁ஆண	-10.547
▁மின்கல	-10.547
▁மருந்துகள்	-10.547
▁அன்றைய	-10.5471
▁வழித்தட	-10.5471
நெறி	-10.5473
▁தற்பொழுது	-10.5484
னொ	-10.5487
▁1944	-10.5488
வல்லி	-10.5488
▁1939	-10.5488
▁அதிர்வெண்	-10.5497
ுவோர்	-10.5501
இல	-10.5502
▁தீய	-10.5503
▁விழாவில்	-10.5503
▁திட்டங்கள்	-10.5503
▁கற்றார்	-10.5508
▁ஆளுமை	-10.5511
▁அதன	-10.5522
▁தாக்கத்தை	-10.5523
amb	-10.5523
▁சான்ற	-10.5524
▁இழப்ப	-10.5529
ory	-10.5531
▁பெறுகிறது	-10.5535
end	-10.5536
▁பின்னாளில்	-10.5537
▁ஆரம்பமான	-10.554
iya	-10.5542
▁41	-10.5545
▁கருத்துக்களை	-10.5545
▁ஜப்பானிய	-10.5546
▁பாரதி	-10.5546
▁ஆரிய	-10.5551
▁பசிபிக்	-10.5551
▁ஆசிரியர்கள்	-10.5552
▁அடித்த	-10.5554
▁தொழில்முறை	-10.5556
▁Y	-10.556
▁x	-10.556
▁பொறுத்த	-10.5563
விடுகிறது	-10.5565
▁மின்னழுத்த	-10.5565
▁புத்தகம்	-10.5567
ப்பேட்டை	-10.5569
▁வெட்டு	-10.557
▁தோல	-10.5573
▁இந்நோய	-10.5576
▁மூச்சு	-10.5584
▁இந்தோனேசியா	-10.5587
க்குட்பட்ட	-10.559
▁விளைவுகள்	-10.5593
▁அமைந்திருந்த	-10.5595
▁இடத்திற்கு	-10.5597
மிகு	-10.5602
லியோ	-10.5603
▁பகிர்ந்து	-10.5604
▁ரசிகர்	-10.5604
act	-10.5606
▁சத்ய	-10.5607
▁ஐதர	-10.5608
▁CH	-10.5608
▁அதிகாரிகள்	-10.561
ace	-10.561
▁பகை	-10.561
▁நிலையங்கள்	-10.5612
▁உந்து	-10.5614
▁தலங்களில்	-10.5614
▁மலையில்	-10.5615
▁வகைகளில்	-10.5617
▁வேளாண்	-10.562
ுபவர்கள்	-10.5621
▁கொண்டுவர	-10.5623
இந்தியா	-10.5629
▁இயற்றப்பட்ட	-10.563
▁ஆணையம்	-10.5633
▁ஊட்ட	-10.5634
▁அருந்த	-10.5635
▁இடைய	-10.5635
போதே	-10.5637
நான்	-10.5638
▁அடையும்	-10.5646
னிலை	-10.5648
▁விபத்து	-10.5649
▁வழிபாட்டு	-10.5649
▁பிளவு	-10.5654
ight	-10.5658
பரப்பு	-10.5659
▁விரைவு	-10.566
ாலோ	-10.566
▁ஒளிப்பட	-10.566
▁கூட்டமைப்ப	-10.5662
ிடமும்	-10.5666
மூன்ற	-10.5667
ஜோ	-10.5669
▁ஐந்தாவது	-10.5672
▁காகித	-10.5673
▁குடும்பத்தினர	-10.5673
tor	-10.5675
▁உருவாக்குகிறது	-10.5676
ton	-10.5677
▁இயலாது	-10.5677
▁சில்ல	-10.5679
▁மேற்கொண்டார்	-10.568
மனித	-10.5681
▁அமைந்து	-10.5682
நத்தம்	-10.5684
ோட்டம்	-10.5685
NA	-10.5685
▁ஆன்மீக	-10.5685
▁அறியப்படுகிறார்	-10.5689
▁மூர்த்தி	-10.569
▁ஆட்சியாளர்	-10.569
▁கவலை	-10.5692
ite	-10.5695
▁கிருஷ்ணன்	-10.5697
▁பிடாரி	-10.57
▁மிகுதியாக	-10.5702
ஜு	-10.5703
▁ஸ்டார்	-10.5703
▁ஆபத்து	-10.5706
▁நுழை	-10.5708
▁வெளியில்	-10.5715
▁சந்திப்பு	-10.5715
▁குறியீட்டு	-10.5716
▁நிறுவி	-10.5722
▁இக்கால	-10.5732
றிதல்	-10.5733
▁மாநிலங்களில்	-10.5738
▁இட்டு	-10.5739
▁பிறந்து	-10.5739
▁கண்டறியப்பட்ட	-10.5739
▁கீழ்க்காணும்	-10.574
ுவதே	-10.5745
▁அழைப்பர்	-10.5751
▁இங்கிலாந்தில்	-10.5752
[	-10.5753
▁பான	-10.5754
▁விளையாடி	-10.5755
மிட்ட	-10.5756
▁பார்வதி	-10.5758
ப்பேர	-10.576
▁நடிப்பு	-10.5771
▁தென்மேற்கு	-10.5781
ப்பதற்கான	-10.5781
▁அலெக்	-10.5784
▁சூர	-10.5785
▁கையில்	-10.5791
▁செல்கின்றன	-10.5792
▁முகமது	-10.5795
tu	-10.5798
▁தரவரிசை	-10.5802
sc	-10.5806
ாற்றல்	-10.5811
▁பண்புகளை	-10.5816
▁சிலுவை	-10.5826
▁நம்பி	-10.5829
▁எகிப்த	-10.5829
▁பெரும்பகுதி	-10.5833
▁பின்பற்றி	-10.5834
▁இடங்களை	-10.5835
▁பந்தய	-10.5837
▁விளையாடினார்	-10.5842
▁அதிகரித்து	-10.5842
▁தொட்ட	-10.5844
▁ஆய்வாளர்	-10.5846
▁ஹென்றி	-10.585
▁விளங்கினார்	-10.586
▁மில்லியன	-10.586
▁தளத்தில்	-10.5862
In	-10.5862
▁இயங்கு	-10.5864
▁விட்டது	-10.587
ark	-10.5872
▁அளிக்கும்	-10.5875
▁விமர்சகர்	-10.5877
▁கூடுதலான	-10.5877
▁பற்று	-10.5879
▁செலுத்தி	-10.5881
▁கற்பிக்க	-10.5883
▁நகரங்கள்	-10.5883
▁ரெட்டி	-10.5885
▁நீரின்	-10.5885
▁மையத்தில்	-10.5888
க்கூடியதாக	-10.5889
▁78	-10.589
▁பெண்களும்	-10.5892
▁கருதப்பட்ட	-10.5896
▁நீங்கள்	-10.5904
▁பதினெட்டாம்	-10.5905
▁பட்டது	-10.5907
▁வலிமையான	-10.5908
▁குண்ட	-10.5908
னவாக	-10.5909
▁மனு	-10.5913
▁காலத்தை	-10.5916
▁வட்டத்தின்	-10.5916
▁வெளியேறி	-10.5916
▁இதற்காக	-10.5924
▁மெர்	-10.5931
▁நூ	-10.5933
▁நீங்க	-10.5935
ie	-10.5947
aj	-10.5949
▁ஒழுக்க	-10.5951
▁மைசூர்	-10.5954
uk	-10.5956
அமெரிக்க	-10.5961
▁இருப்பிட	-10.5961
ாழ்வார	-10.5966
▁பகுதிகளுக்கு	-10.5967
▁பொதுமக்கள	-10.5971
▁ஒன்றின்	-10.5983
▁ஏதேனும்	-10.5988
▁கோயிலில்	-10.5991
▁பெயரிடப்பட்ட	-10.5995
▁முடித்து	-10.5996
ப்படுவதாக	-10.5998
▁ஆக்சிசன்	-10.5998
▁தள்ள	-10.6002
▁ஹொங்கொங்	-10.6002
▁காப்புரிமை	-10.6003
▁என்கிறார்	-10.6005
▁விவசாயம்	-10.6006
▁விளைவ	-10.6007
▁படைகளை	-10.6007
▁உடலை	-10.6008
ப்பாளர்	-10.6013
▁இயக்கி	-10.6014
▁வர்ண	-10.6015
▁லாஸ்	-10.6018
▁பாரத	-10.6019
▁மஹா	-10.602
▁கொரியா	-10.6021
ox	-10.6022
▁உமிழ்	-10.6029
der	-10.6033
▁1953	-10.6034
▁செய்யலாம்	-10.6036
▁பாக்கித்தான	-10.6038
▁மாற்றாக	-10.6045
▁எடுத்தார்	-10.6045
க்குளம்	-10.605
▁உருவாகிய	-10.6051
▁பிரதேசத்தில்	-10.6051
▁சேர்மம்	-10.6053
▁அளிக்கப்பட்ட	-10.6056
▁செய்துகொண்ட	-10.6058
▁செயற்கைக்கோள்	-10.6058
▁படங்கள்	-10.6059
ியலில்	-10.6061
▁சுவர	-10.6066
▁ஹூ	-10.6068
▁புலிகள்	-10.607
ையூர்	-10.6074
களோ	-10.6074
▁உணவை	-10.6075
க்குறிச்சி	-10.6076
▁அடைந்தது	-10.608
வுள்ள	-10.6085
▁பிரிட்டன	-10.6086
▁ராமநாதபுரம்	-10.6086
▁அறுவடை	-10.6087
▁பூஜை	-10.6087
▁நூலகம்	-10.609
▁தற்காலத்தில்	-10.609
▁விளையாடிய	-10.6093
▁நிழல	-10.6096
ப்படுவதை	-10.6101
▁படித்தார்	-10.6102
ுநர்	-10.6103
ஞர்	-10.6109
▁பூத	-10.6113
▁இரசாயன	-10.6115
▁விதமான	-10.6117
குப்த	-10.6118
▁வளர்ப்ப	-10.6118
ியலாளர்	-10.6121
▁பாகிஸ்தான	-10.6123
▁முதன்மையாக	-10.613
ern	-10.6133
▁துரு	-10.6134
▁அவதார	-10.6134
▁பொதுமக்கள்	-10.6136
▁அளவீடு	-10.6137
▁டெல்லி	-10.614
▁தந்தையின்	-10.6144
▁பக்கத்தில்	-10.6145
▁சூழ்ந்த	-10.6149
மளிக்க	-10.6149
பூண்டி	-10.6153
▁அகர	-10.6158
▁வரையிலும்	-10.6158
ம்பாக்கம்	-10.6159
▁1936	-10.6162
▁பூமியின்	-10.6163
ளூர்	-10.6164
▁தொடங்கும்	-10.6164
▁இருப்பத	-10.6165
▁விக்கி	-10.6165
பாணி	-10.6171
▁விண்டோஸ்	-10.6172
யின்படி	-10.6172
களுக்குள்	-10.6173
▁நாளிதழ	-10.6173
▁வலுவான	-10.6177
▁சேர்மங்கள	-10.6177
▁உருவாகின்றன	-10.6178
▁இறைய	-10.618
▁பள்ள	-10.6181
▁கூறலாம்	-10.6181
▁முதலீட்ட	-10.6184
▁அறிகுறிகள்	-10.6184
▁ஆளுநர்	-10.6186
ுமாவார்	-10.6186
▁தோல்வியடைந்த	-10.6187
▁கொட்ட	-10.6188
▁அனைத்தையும்	-10.6188
▁பண்பாட்ட	-10.6192
▁வடமேற்கு	-10.6197
▁தொகுதியிலும்	-10.6198
▁பொருத்தமான	-10.6199
▁ஆறாம்	-10.6201
▁மூலமும்	-10.6201
▁ரங்க	-10.6201
நாராயண	-10.6202
▁மேம்பட்ட	-10.6203
▁தொலைவு	-10.6204
▁தயாரித்து	-10.6205
▁தொகுத்து	-10.6212
▁எடுத்துக்கொள்ள	-10.6215
▁பெற்றனர்	-10.6224
▁சொந்தமான	-10.6224
▁சரக்கு	-10.6226
லானது	-10.623
ொன்றை	-10.6231
▁பொம்மை	-10.6232
க்கூடாது	-10.6232
▁ஆய்வில்	-10.6243
ond	-10.6246
▁எந்திர	-10.6254
▁டான்	-10.6256
▁கொடுக்கும்	-10.6256
▁அழித்த	-10.6257
கதிர்	-10.6257
▁வசிக்கின்றனர்	-10.6257
▁ஜனநாயக	-10.6258
▁காலப்பகுதியில்	-10.626
▁அயர்லாந்த	-10.6261
ong	-10.6263
▁இருக்கை	-10.6267
▁இழக்க	-10.6268
▁வந்துள்ளது	-10.6269
▁ஆசை	-10.6274
கோள	-10.6275
▁தேன்	-10.6278
▁ஆரம்பிக்க	-10.6278
▁ஓட்டங்களை	-10.6284
▁நாடுகளிலும்	-10.6285
▁தாயக	-10.6287
▁நாளை	-10.6289
▁திருச்சபையின்	-10.6289
▁நூற்	-10.6295
▁வறுமை	-10.6302
மோர்	-10.6305
▁கற்றல்	-10.6305
▁எல்லைகளாக	-10.6308
▁அகாதமி	-10.6315
▁ஜெர்மன்	-10.6315
▁உகந்த	-10.6315
கூறு	-10.632
▁மீற	-10.6329
ாண்மை	-10.6329
▁கரையோர	-10.6329
க்கென	-10.6331
▁குரூ	-10.6333
Ar	-10.6336
▁நிறுவனமாக	-10.6337
▁நாடாளுமன்றத்	-10.6338
▁போதி	-10.6345
▁வெற்றியை	-10.6345
▁போன்றவற்றில்	-10.6345
▁சங்கத்தின்	-10.6346
▁பாசி	-10.6346
ிருந்தால்	-10.6347
▁தலைமையகம்	-10.6354
ுவதாகவும்	-10.6362
udi	-10.6362
▁படுகிறது	-10.6364
▁இன்றி	-10.6372
▁நரம்ப	-10.6374
கோவில	-10.6377
▁பொதி	-10.6377
க்கொள்ளும்	-10.638
▁அமர	-10.6381
▁உழைப்ப	-10.6382
▁தெரிந்து	-10.6385
ட்ரீ	-10.6386
▁கும்பகோணம்	-10.6387
▁ஐதரோ	-10.6393
▁தவறாக	-10.6399
▁இவ்விட	-10.6405
▁விஞ்ஞான	-10.6407
▁இளமை	-10.6409
▁போட்டியிட	-10.6411
▁வயிற்று	-10.6417
▁அவசியம்	-10.6418
▁ஓவியங்கள்	-10.6419
▁தகுந்த	-10.642
▁1942	-10.6421
▁அளித்தார்	-10.6422
▁திரைப்படத்தை	-10.6424
▁மாற்றிய	-10.6428
▁நடவடிக்கைகளை	-10.6428
▁தியான	-10.6431
▁கணவன	-10.6431
▁அச்சுறுத்த	-10.6432
▁சேகரிப்ப	-10.6433
▁வேறுபாடுகள்	-10.6435
▁அதிபர்	-10.6438
▁இடைக்கால	-10.6442
▁உருசியா	-10.6445
▁மேற்பார்வை	-10.6446
ப்படுவத	-10.6446
ஃபெ	-10.6447
▁புனே	-10.6447
▁சேமிப்பு	-10.6451
▁நடக்க	-10.6454
▁ஆராய்ந்த	-10.6457
▁மின்னோட்ட	-10.6457
▁ஏஞ்சல	-10.646
str	-10.6467
▁உடனே	-10.6472
▁இமயமலை	-10.6475
▁பயனுள்ள	-10.6476
▁1937	-10.648
▁செயற்பட	-10.6484
▁இனத்தவர	-10.6486
விட்டன	-10.6489
▁விரிவுரை	-10.649
▁மக்களிடையே	-10.6492
நிறுவன	-10.6492
▁காட்டிய	-10.6498
▁இவரும்	-10.65
பணி	-10.6502
▁கிடைக்கின்றன	-10.6503
www	-10.6504
ிருப்பதால்	-10.6507
▁பழமை	-10.6512
iz	-10.6515
▁பாதுகாப்புச்	-10.6522
▁பணிகளை	-10.6523
▁தொழில்துறை	-10.6524
▁எரிபொருள்	-10.6533
▁ஒல்லாந்த	-10.6535
▁செய்கிறார்	-10.6537
▁பெருங்க	-10.6538
▁நடத்தினார்	-10.6543
og	-10.6543
▁இடையேயான	-10.6546
▁வாசிப்ப	-10.6548
▁காங்கிரச	-10.6548
▁கர்தினால்	-10.6549
▁ரத்த	-10.6552
▁ஆய்வாளர்கள்	-10.6554
▁ஆகியோருக்கு	-10.6556
▁அமைகின்றன	-10.6557
▁72	-10.6558
▁66	-10.6563
▁எழுச்சி	-10.6565
▁செயலக	-10.6567
னேட்டு	-10.6568
▁துவங்கி	-10.6569
▁செயல்திறன்	-10.6571
▁வகையாகும்	-10.6573
பேர	-10.6576
▁கோவிலில்	-10.6578
ank	-10.6578
one	-10.6589
▁பிரபலமாக	-10.6591
▁மோட்டார்	-10.6593
▁நிலக்கரி	-10.6593
த்திறன	-10.6594
▁சமமாக	-10.6597
லுடன்	-10.6598
▁யாழ்	-10.6603
▁இசைத்தொகுப்ப	-10.6604
▁கொங்கு	-10.6606
ந்துறை	-10.6606
▁தழுவ	-10.6608
▁தேயிலை	-10.6608
▁உயர்நிலைப்	-10.6608
▁இப்பெயர்	-10.6609
▁காலகட்ட	-10.6612
வனாக	-10.6615
▁கொழும்ப	-10.6615
▁மாற்றங்களை	-10.6616
▁கட்டிடங்கள்	-10.6616
▁லோக	-10.6616
▁பாரிச	-10.6623
திகார	-10.6624
▁மூலதன	-10.663
▁ஹில்	-10.6631
▁தவறு	-10.6631
▁நாசி	-10.6632
▁உலை	-10.6632
நிதி	-10.6633
▁மலாயா	-10.664
ism	-10.664
▁தாமத	-10.6641
▁56	-10.6643
▁பதவியில்	-10.6643
▁வைத்திருக்க	-10.6648
புதூர்	-10.6649
▁காடுகள்	-10.665
▁காண்பிக்க	-10.665
▁இதனுடைய	-10.6655
▁நிக்கோ	-10.6661
வீச்ச	-10.6662
▁உறுப்ப	-10.6663
▁மோர்	-10.6676
▁85	-10.6678
பயண	-10.668
▁வசிக்கும்	-10.6684
▁விருதுகளை	-10.6685
▁ஆட்சியை	-10.6685
▁இருந்ததாக	-10.6685
▁புத்தர்	-10.6686
▁தொடங்கினர்	-10.6686
▁பாதையில்	-10.6693
▁விடுத்த	-10.6693
▁வேட்டை	-10.6695
▁தொடங்கின	-10.6695
▁மைதான	-10.6697
▁தடவை	-10.6698
▁பாதுகாத்த	-10.6698
▁மேற்பரப்பு	-10.6699
▁படல	-10.6699
hy	-10.6701
▁முடித்தார்	-10.6709
▁வருவது	-10.671
▁பண்புகள்	-10.6719
கிருத	-10.672
▁54	-10.6722
▁ஜோசப்	-10.6731
▁மேற்கே	-10.674
▁அலுமினியம்	-10.6742
▁சாகுபடி	-10.6743
▁தரவுத்தள	-10.6744
▁போரிட்ட	-10.6749
ஸ்ரீ	-10.6751
▁தம்மை	-10.6751
▁சென்றது	-10.6752
▁பிளாக்	-10.6752
▁மதிப்பை	-10.6753
▁அரிதாக	-10.6753
▁விருத்தி	-10.6754
▁53	-10.676
▁கண்டுபிடிப்ப	-10.6763
▁சான்றுகள்	-10.6768
▁பாலை	-10.6771
▁சமிக்ஞை	-10.6773
▁Al	-10.6774
▁உருவாக்கியது	-10.6774
▁அளக்க	-10.6775
▁முறையாகும்	-10.678
▁ஆழ்	-10.6782
▁நிறுவனமான	-10.6783
▁சண்முக	-10.6788
▁லண்டன்	-10.6788
ராயர்	-10.6789
▁தங்களை	-10.6789
▁ஊசி	-10.6792
ிப்பது	-10.6792
▁கவனிக்க	-10.6796
புத்திர	-10.6799
சட்டமன்றத்	-10.6801
▁இராமநாதபுரம்	-10.6803
▁பிந்தைய	-10.6803
▁II	-10.6805
▁நிபுணர்	-10.6807
ட்டிற்கு	-10.681
▁குழந்தைகளுக்கு	-10.6812
▁குட்டி	-10.6813
▁சீனாவில்	-10.6813
▁கொரிய	-10.6815
▁சமமான	-10.6818
▁தங்கிய	-10.6821
குமார	-10.6822
தமிழ்நாடு	-10.6825
200	-10.6827
ore	-10.6828
▁பிரகாச	-10.683
▁ஜோடி	-10.6833
▁di	-10.6833
▁பாலூட்டி	-10.6834
▁மலேசியாவில்	-10.6834
▁இப்படத்தை	-10.6834
▁மோதல்	-10.6835
▁பங்காற்ற	-10.6836
வாகவும்	-10.6837
▁மரியாதை	-10.6841
▁சண்டிக	-10.6842
▁ராதா	-10.6845
குளோரோ	-10.6846
▁நட்பு	-10.6848
▁சூறாவளி	-10.6849
▁இக்கோயில	-10.6851
▁இயற்கையாக	-10.6857
▁இக்கோயிலின்	-10.686
▁அங்கீகார	-10.6864
▁சமஸ்கிருத	-10.6864
▁தோற்றுவித்த	-10.6864
▁இவ்வூரின்	-10.6865
▁மாதங்களில்	-10.6868
▁நடுத்தர	-10.6868
▁பேரூராட்சி	-10.6871
யப்பன்	-10.6875
tra	-10.6878
▁பெறப்படும்	-10.6878
▁அமைவிடம்	-10.6881
▁சிதைவு	-10.6882
▁அளவி	-10.6885
IS	-10.6887
▁போதிய	-10.6888
மன்ற	-10.689
▁பங்களிப்ப	-10.6893
▁ஆகஸ்டு	-10.6895
▁வானிலை	-10.6899
▁வலுவ	-10.69
▁பிள்ளையார்	-10.6902
▁இயல்பான	-10.6907
▁ஏதும்	-10.6908
▁கையெழுத்த	-10.6912
▁கமல	-10.6913
▁திகழ	-10.6916
▁நோக்கில்	-10.692
▁கொள்ளை	-10.6923
▁கணேசன்	-10.6925
▁சப்த	-10.6928
▁அதற்கான	-10.6928
ome	-10.6932
▁மெய்யியல்	-10.6933
▁அங்குள்ள	-10.6933
▁நியூசிலாந்து	-10.6938
▁விதிமுறை	-10.6939
▁செட்டி	-10.6944
பிளா	-10.6945
▁உட்கொள்ள	-10.6946
▁தங்களின்	-10.6948
▁புரிய	-10.6956
▁சேவைகளை	-10.6961
ப்பதை	-10.6963
▁வலய	-10.6973
▁வரம்பு	-10.6978
▁பறக்கும்	-10.698
▁முற்பட்ட	-10.6987
▁ஐதராபாத்	-10.6987
▁மீட்ப	-10.6988
டியன்	-10.699
ப்படுகிற	-10.699
▁பிரித்தானியர்	-10.6995
▁படத்தை	-10.6995
▁காவிய	-10.7001
க்காய்	-10.7004
▁உணர்வ	-10.7012
▁சந்தையில்	-10.7016
▁பாண்டியர்	-10.7019
▁பெறுகின்றன	-10.7022
pp	-10.7025
▁அளித்து	-10.7028
ous	-10.7031
ச்சேர்ம	-10.7031
▁புரு	-10.7033
▁அமினோ	-10.7033
▁பைரவர்	-10.7034
▁தாமரை	-10.7034
▁விளங்கி	-10.704
புரோ	-10.7044
▁கண்டுபிடித்தார்	-10.7045
▁பணத்தை	-10.7047
▁62	-10.706
▁உற்சவ	-10.7064
▁Ar	-10.7065
▁வருடங்களுக்கு	-10.7067
▁மகிழ	-10.7073
▁முன்னிலையில்	-10.708
▁தோராயமாக	-10.708
களாவர்	-10.7083
▁விஞ்ஞானி	-10.7091
▁நபி	-10.7091
▁குறைப்ப	-10.7092
▁பின்புற	-10.7094
▁சிக்கல	-10.7097
▁பகுதிகளாக	-10.7098
வாள்	-10.7107
▁பயின்று	-10.7116
▁தடுத்து	-10.7116
பருவ	-10.7118
வராய	-10.7125
ேஸ்வரி	-10.713
சவ்வ	-10.7132
no	-10.7137
▁தெளிவான	-10.7141
▁தனித்துவமான	-10.7143
விலேயே	-10.7144
▁வாழ்நாள்	-10.7145
▁இயக்கத்தை	-10.7145
▁வரவேற்ப	-10.7155
மற்றும்	-10.7156
▁அடித்து	-10.7157
▁நிபந்தனை	-10.7158
▁வளைகுடா	-10.7158
▁கால்சியம்	-10.7158
▁1941	-10.7162
▁இடங்களுக்கு	-10.7164
▁செயலாளராக	-10.7168
▁தமிழீழ	-10.7174
▁சுட்டிக்காட்ட	-10.7174
▁நேரத்தை	-10.7174
▁இங்கிலாந்தின்	-10.7177
▁வோல்	-10.7178
▁எகிப்திய	-10.718
▁மருத்துவமனையில்	-10.7181
▁நீண்டகால	-10.7183
▁ஜப்பான்	-10.7186
கார்பன	-10.7187
தொலை	-10.7187
▁ஆகையால்	-10.719
▁படுக்கை	-10.719
▁முன்னால்	-10.7193
த்திற்குள்	-10.7195
▁பெருநகர	-10.7198
மெய்	-10.7199
▁லட்ச	-10.7203
▁ஷே	-10.7203
▁பாடியுள்ளார்	-10.7203
▁கருதப்படுகிறார்	-10.7209
▁இயல்ப	-10.7217
▁இறைச்சி	-10.722
amp	-10.7222
▁படையெடுப்பு	-10.7224
IV	-10.7226
tri	-10.7235
▁இரவில்	-10.7238
▁பெருங்கடல்	-10.7238
▁அரசியலில்	-10.724
ani	-10.7248
▁நகரமாகும்	-10.7251
▁எளிமையான	-10.7251
யுடனும்	-10.7251
▁எவ்வளவு	-10.7253
▁விண்கல	-10.7253
▁இப்படத்தில்	-10.7254
▁1934	-10.7257
▁துல்லியமாக	-10.7258
▁ஏற்படுத்தியது	-10.7264
▁செறிவு	-10.7265
▁கூறியுள்ளார்	-10.7265
▁சிந்தி	-10.7265
▁இடங்களிலும்	-10.7265
▁திட்டத்தில்	-10.7266
▁கடலோர	-10.7269
▁சீனிவாச	-10.7269
▁சினிமா	-10.7269
▁இயக்கத்தின்	-10.7271
களில	-10.7284
▁தெரியாத	-10.7285
▁படையெடுத்த	-10.7286
ies	-10.7288
ture	-10.7289
▁எகிப்து	-10.7296
கவுண்ட	-10.7298
▁இம்மாவட்டத்தில்	-10.7299
▁ஆயிரக்கணக்கான	-10.7301
▁காஷ்மீர்	-10.7306
மெண்ட்	-10.7313
▁மந்திரி	-10.7314
▁சந்தித்து	-10.7315
▁படிப்பறிவு	-10.7317
▁அணிந்த	-10.7317
▁தொங்க	-10.7317
ந்ந	-10.7325
▁வெளிவர	-10.7327
▁மூடப்பட்ட	-10.7329
▁ஃபே	-10.7329
▁சரணாலய	-10.7333
▁சட்டசபை	-10.7337
▁வன்னி	-10.7341
▁இத்திரு	-10.7345
▁விருத	-10.7351
▁கூட்டுறவு	-10.7352
▁மேற்கொண்டு	-10.7352
ச்சாலை	-10.7352
▁பட்டமும்	-10.7352
▁st	-10.7353
SO	-10.7353
▁ஆஞ்சநேயர்	-10.7355
▁சிதைவ	-10.7357
▁படிநிலை	-10.7357
▁போதை	-10.7359
▁லட்சம்	-10.7359
ver	-10.7365
சிற்றிதழ்	-10.7366
so	-10.737
▁இறக்கை	-10.737
யளித்த	-10.7373
▁ஆத்திரேலியா	-10.7373
▁பக்தர்கள்	-10.738
▁பத்தாண்டு	-10.7381
▁முல்லை	-10.7382
▁இழந்து	-10.7383
▁கூறுகின்றன	-10.7383
▁1938	-10.7385
▁கூற்று	-10.7385
▁வலையமைப்பு	-10.7389
▁சிரம	-10.739
வார்ட்	-10.739
▁ஏற்படலாம்	-10.7391
▁விரிவாக	-10.7392
நெல்	-10.7396
▁வாய்ப்பாட்ட	-10.74
▁முதுகு	-10.7409
▁ஏனென்றால்	-10.7413
▁வாழ்வில்	-10.7413
றீ	-10.7426
▁தொடர்பில்	-10.7428
▁நிலநடுக்க	-10.7429
▁பிரிந்த	-10.7431
▁விதத்தில்	-10.7434
▁நியமித்த	-10.7444
ear	-10.7444
வாழ்வு	-10.7444
▁இப்பறவை	-10.7445
ack	-10.7447
க்கொடி	-10.7448
யிலே	-10.745
▁மாணவர்களுக்கு	-10.7452
கோட்ட	-10.7453
வாய்ந்த	-10.7455
▁பூனை	-10.7459
▁வடக்க	-10.746
▁மாணிக்க	-10.7462
▁கூறுவர்	-10.7465
▁அதிபர	-10.7478
▁Mo	-10.7486
த்தாலும்	-10.7488
▁திருப்பி	-10.7489
▁ராயல்	-10.7494
▁எருசலேம	-10.7494
▁வந்தவர்	-10.7495
▁கிரிக்கெட்	-10.7497
▁படப்பிடிப்பு	-10.7497
▁யுத்த	-10.75
▁மில்லி	-10.7508
▁நிறுவனங்களின்	-10.7511
▁இடம்பெற	-10.7512
▁உறவினர்	-10.7513
▁இடத்தையும்	-10.7522
▁மைக்ரோ	-10.7527
▁எனப்படுவது	-10.7527
▁விடுமுறை	-10.7527
குழல்	-10.753
ஜ்ஜ	-10.753
▁1943	-10.753
▁வழு	-10.7536
▁ஈடுபட்டார்	-10.7539
▁தாமிர	-10.7541
▁செய்துள்ளார்	-10.7542
▁பேரின	-10.7544
▁ஆரம்பித்தார்	-10.7545
▁குறுக்கு	-10.7549
▁குளிர	-10.7551
▁கதையை	-10.7553
mi	-10.7554
▁பௌ	-10.7554
▁ஆதரவாக	-10.7555
▁ஏவுகணை	-10.7559
▁அத்தகைய	-10.7559
▁காய்கறி	-10.7559
ீஸ்வர	-10.7559
▁நிறுவனத்தால்	-10.756
ஹீ	-10.756
▁விட்டார்	-10.7568
ரீதியாக	-10.7574
▁தலைநகரமாக	-10.7578
யாலும்	-10.7581
▁இழைய	-10.7582
த்துக்காக	-10.7583
ரீதியான	-10.7585
ப்பதிவு	-10.7591
▁விஸ்வநாத	-10.7592
விளக்க	-10.7598
▁குடிமக்கள்	-10.76
நாட்டில்	-10.7604
▁மூடிய	-10.7609
▁இரகசிய	-10.7611
▁யோவான்	-10.7614
▁நாட்காட்டி	-10.7615
▁ஃபார்	-10.7623
மூட்ட	-10.7625
▁நிச்சய	-10.7625
▁வெண்கல	-10.7628
▁1935	-10.763
▁வெறும்	-10.7632
ஜூ	-10.7632
ிரண்டு	-10.7633
▁தேர்ச்சி	-10.7635
▁கூடி	-10.7636
ிறக்க	-10.7637
பத்திர	-10.764
▁தீபகற்ப	-10.7641
▁பயின்ற	-10.7645
னீசிய	-10.7646
▁பிரிவினை	-10.7651
▁சாப்பிட	-10.7655
ாததால்	-10.766
▁துருக்கிய	-10.7661
▁நகர்த்த	-10.7662
ப்படுவதற்கு	-10.7665
lan	-10.7669
▁பெற்றோர	-10.767
▁இப்பிரிவு	-10.767
▁கொல்லப்பட்டனர்	-10.7674
▁மோகன்	-10.7677
▁1929	-10.7679
▁கடத்தி	-10.7681
▁வைக்கப்பட்டது	-10.7683
▁நிகர	-10.7686
▁உண்டாக	-10.7687
▁ஆற்றில்	-10.7687
▁போட்டு	-10.7688
▁ஆரம்பகால	-10.7688
சதுர	-10.769
▁பிற்கால	-10.769
▁எவ்வித	-10.7691
▁இயங்குதள	-10.7691
▁பிரச்சார	-10.7691
▁ரஷ்ய	-10.7692
ிறேன்	-10.7698
நிகழ்	-10.7701
▁வடிவமைக்க	-10.7705
OH	-10.7712
▁சிகர	-10.7713
ாயுத	-10.7715
▁மேலான	-10.7718
ோருக்கு	-10.7724
லுக்கான	-10.7725
▁தொலைநோக்கி	-10.7725
▁org	-10.7728
ich	-10.7728
▁பரவலான	-10.7729
▁புறநகர்	-10.7729
▁அறிவியலாளர்	-10.7731
100	-10.7732
▁துவார	-10.7736
▁புரிந்தார்	-10.7741
eri	-10.7743
▁முன்னேற	-10.7749
▁ஏற்படுத்திய	-10.7752
▁இக்கல்லூரி	-10.7753
▁பாத்திரத்தில்	-10.7756
▁தேர்தல்களில்	-10.7759
▁ஏற்பாட்ட	-10.7779
▁வெளியாகி	-10.7781
▁மாநாட்டில்	-10.7782
▁காப்பக	-10.7784
▁மலாய்	-10.7791
▁இயக்குநராக	-10.7793
ருள்	-10.7794
▁திறக்க	-10.7796
சொற்	-10.7798
▁சூடான	-10.7804
ப்படாமல்	-10.7807
▁பிரான்சின்	-10.7807
▁அதிகப்படியான	-10.7807
▁ஒருவரான	-10.7813
▁பேசப்படுகிறது	-10.7818
▁கவர்ந்த	-10.7821
▁அசுர	-10.7822
▁சித்தர்	-10.7822
▁கணிசமான	-10.7824
▁குறைந்தபட்ச	-10.7824
mon	-10.7824
▁எடுத்துக்கொண்ட	-10.783
▁ஐயர்	-10.7832
▁பரவி	-10.7835
▁நியாய	-10.7835
▁தீவிரமாக	-10.7835
▁உருளை	-10.784
▁புலமை	-10.7841
▁ஆண்களுக்கு	-10.7843
▁பாரிய	-10.7846
▁சிற்பங்கள்	-10.7851
குறியீட்ட	-10.7851
ick	-10.7858
▁இயற்பெயர்	-10.7858
▁பலவீன	-10.7858
▁சிறுநீரக	-10.7858
▁திட்டமிடப்பட்ட	-10.7874
▁மறுமலர்ச்சி	-10.7874
▁ஆதரித்த	-10.7875
▁சேகரித்த	-10.7876
▁தெரிவ	-10.788
தென	-10.7881
▁சாம்ப	-10.7885
ett	-10.7887
▁கண்காட்சி	-10.7891
▁ஆகியோருடன்	-10.7896
▁முடிவடைந்த	-10.79
▁வாசிக்க	-10.7901
▁ஆயர்	-10.7902
▁இருந்தே	-10.7905
▁நிற்கும்	-10.7906
நாட்டின்	-10.791
யாவார்	-10.7913
▁கிறிஸ்துவ	-10.7915
▁தெற்க	-10.7918
▁உரிமையாளர்	-10.7918
நைட்ர	-10.7921
▁கருதப்பட்டது	-10.7923
▁விடுவிக்க	-10.7925
▁வேட்பாளர	-10.7926
▁நினைவக	-10.7926
▁எடுத்துக்காட்ட	-10.7926
▁தாண்டவ	-10.7927
▁வளைவு	-10.7929
▁வாழ்வு	-10.7931
▁கொடுமை	-10.7931
▁இரயில்வே	-10.7937
▁வணிகர்	-10.794
▁விளங்கும்	-10.7941
▁பல்லவ	-10.7941
▁50%	-10.7943
ாண்டில்	-10.7945
▁சமன்பாட்ட	-10.7945
▁நிறுவனங்களில்	-10.7947
▁நீலகிரி	-10.7947
▁அணிந்து	-10.7948
நாய்	-10.7949
und	-10.7952
▁கூரை	-10.7956
▁மீன்பிடி	-10.7958
▁ஏதாவது	-10.7959
▁எதிர்த்த	-10.7962
▁தோன்றினார்	-10.7964
▁மறைந்து	-10.7966
▁ஒட்டு	-10.797
ாக்சி	-10.797
▁ஷோ	-10.797
வெட்டி	-10.7971
அதாவது	-10.7972
ூடாக	-10.7973
ிலிருக்கும்	-10.7977
▁கலவர	-10.7982
▁மகனான	-10.7982
▁முரண்	-10.7991
▁கொலம்பியா	-10.7993
▁குழுவை	-10.7997
▁உறுப்பினர	-10.8001
_2	-10.8001
பொழி	-10.8005
▁இங்கிருந்து	-10.801
▁செறிவ	-10.8011
ுயிரி	-10.8012
▁கட்டமைக்க	-10.8021
▁அற்புத	-10.8028
▁அலுவல்	-10.8028
▁அவ்வப்போது	-10.8028
▁அடைந்தார்	-10.8028
▁மதிப்பீட்டின்	-10.8028
செய்து	-10.803
▁வெளிச்ச	-10.8032
▁தொழு	-10.8034
ப்பிரிவு	-10.8036
▁மேய்	-10.8038
தமிழ	-10.8041
ja	-10.8042
az	-10.8044
▁கருதப்படுகின்றன	-10.8048
AS	-10.8059
▁பரத	-10.8062
வசிக்கின்றார்கள்	-10.8062
▁250	-10.8063
▁விருதினை	-10.8064
தொழில	-10.8065
▁எல்லோர	-10.8066
தொடர்பு	-10.8066
▁செய்யுள்	-10.807
▁குடியேறிய	-10.8071
▁கூறியது	-10.8076
▁போகும்	-10.8076
▁இறைவி	-10.8079
மடைய	-10.8079
▁பெல்ஜிய	-10.8079
▁நமக்கு	-10.8086
▁போராளி	-10.8099
▁இணையாக	-10.8104
▁வாங்கிய	-10.8105
▁மார்க்க	-10.8105
▁போதனை	-10.8105
▁முக்கோணத்தின்	-10.8107
▁அழைப்பு	-10.8112
▁வழிநடத்த	-10.8114
▁அப்பொழுது	-10.8114
▁120	-10.8116
IC	-10.8118
▁அதிலிருந்து	-10.8119
▁பின்னால்	-10.812
▁புற்றுநோய	-10.812
▁சரண	-10.8128
▁சாளுக்கிய	-10.8131
▁விக்டோரியா	-10.8131
▁வைகுண்ட	-10.8131
▁சந்திப்ப	-10.8139
▁தங்களுக்கு	-10.8141
▁இருந்துள்ளார்	-10.8142
▁வளாகத்தில்	-10.8144
▁ஆறாவது	-10.8149
▁செய்திகளை	-10.815
▁1931	-10.8154
▁கதிர்வீச்சு	-10.8156
▁pro	-10.8157
ிருப்பதை	-10.8158
▁விண்ணப்ப	-10.8161
▁கொம்பு	-10.8161
▁கணிதத்தில்	-10.8162
▁வைகாசி	-10.8166
▁சமச்சீர	-10.8166
▁கோயில	-10.8171
▁பிணைப்ப	-10.8173
▁உலகளவில்	-10.8174
▁பிரான்ஸ்	-10.8175
குழந்தை	-10.8182
▁பிரேசில்	-10.8185
▁அரியலூர்	-10.8185
▁கதிர	-10.8189
▁அறிவுரை	-10.819
▁புதுமை	-10.8192
▁வயதான	-10.8193
min	-10.8199
▁குற்றவாளி	-10.82
▁அகராதி	-10.8201
▁ஆக்சி	-10.8203
▁ஆட்டோ	-10.8206
▁இசையமைப்பாளர்	-10.8206
▁நிரல	-10.8206
மண்டப	-10.8206
▁ஒளிப்பதி	-10.8213
▁ஆண்களும்	-10.8214
▁தெளிவு	-10.8217
விட்டனர்	-10.8228
▁இயங்குகிறது	-10.823
▁ஆண்டிலிருந்து	-10.823
▁மலைத்தொடர்	-10.824
ஜே	-10.8249
▁டைம்ஸ்	-10.8255
▁என்பதோடு	-10.8258
▁மட்டத்தில்	-10.8261
▁வேறுபாட்ட	-10.8268
▁கோயிலுக்கு	-10.8273
▁நாட்காட்டியில்	-10.8281
▁வெளிப்பாடு	-10.8282
▁ரஷ்யா	-10.8287
▁ஸ்காட்	-10.8287
▁அறிவுறுத்த	-10.8289
கின்றார்	-10.829
▁வரையப்பட்ட	-10.8291
▁தெரியும்	-10.8296
▁சூல	-10.8303
bi	-10.8303
▁எண்ணிக்கையை	-10.8304
▁மேளகர்த்தா	-10.8306
▁ரிச்சர்ட்	-10.8306
யிலிருந்த	-10.8306
▁முடியாமல்	-10.8313
▁மயில	-10.8314
▁நெருப்ப	-10.8315
▁வகித்தார்	-10.8315
▁இணைக்கிறது	-10.8316
▁ஆழமான	-10.8319
▁அழகான	-10.8321
▁அபிவிருத்தி	-10.8323
▁கிறித்துவ	-10.8323
▁கறுப்பு	-10.8324
▁கவனத்தை	-10.8324
▁வெண்மை	-10.8338
▁அழைக்கப்படுகிறா	-10.8339
▁முதலியன	-10.8341
▁சுற்றுப்பயண	-10.8341
தீர்	-10.8345
▁இவா்	-10.8345
▁ஏற்றி	-10.8352
▁விரும்பிய	-10.8357
▁காற்பந்து	-10.8359
▁மொழிபெயர்க்க	-10.8359
▁அநேக	-10.8361
▁மின்காந்த	-10.8363
▁கர்ப்ப	-10.8366
▁விவரித்த	-10.8379
மொன்ற	-10.8383
▁Na	-10.8389
▁பிரான்சிசு	-10.8394
கொள்கின்றனர்	-10.8396
gen	-10.8402
▁உணர்ந்து	-10.8403
▁இவ்வமைப்ப	-10.8404
▁கணபதி	-10.8406
ாச்சாரி	-10.8408
▁முயல்	-10.841
▁வழக்கறிஞர்	-10.8412
▁தெற்காசிய	-10.8412
ith	-10.8416
▁தலைவரான	-10.8417
▁சீதை	-10.8422
St	-10.8425
▁ஊதிய	-10.8428
▁சென்றனர்	-10.8429
▁திருமலை	-10.8433
▁நடக்கிறது	-10.8434
▁அனுப்பப்பட்ட	-10.8435
▁பாட்டு	-10.8436
▁திரும்பினார்	-10.8439
▁நாடுகளை	-10.8443
▁பஞ்சா	-10.8443
▁மாறிலி	-10.8444
▁இலக்குகளை	-10.8444
▁இந்தியாவை	-10.8449
▁நடராஜ	-10.845
▁கிராமப்புற	-10.8456
▁ஆராய்ச்சியாளர்	-10.8459
▁சிறுநீர்	-10.8459
▁பட்டியலிட	-10.8463
▁பொழுதுபோக்கு	-10.8466
▁பிரிவுகளாக	-10.8473
குளோர	-10.8474
▁வேற	-10.8477
▁சனிக்கிழமை	-10.8483
▁வெளிவரும்	-10.8485
சேகர	-10.8487
ust	-10.8491
உலக	-10.8493
வாசக	-10.8494
நூல	-10.8494
▁குஞ்சு	-10.8495
▁அகவையில்	-10.8502
▁ஆழ்ந்த	-10.8502
▁துவங்கியது	-10.8503
▁சமாதி	-10.851
▁பக்த	-10.8511
▁நூற்ற	-10.8513
▁சேகரிக்க	-10.852
▁அழைக்கின்றனர்	-10.8523
▁புல்ல	-10.8528
▁கண்டறியப்பட்டது	-10.8534
▁அறநிலைய	-10.8536
▁வல்லுநர்	-10.8537
▁திகழ்கிறது	-10.8537
▁அமர்த்த	-10.8538
▁மேம்பாடு	-10.8538
▁பிரான்சிஸ்	-10.8538
த்தொகுதி	-10.8545
land	-10.8545
▁வெற்றிபெற்ற	-10.855
▁அல்லாமல்	-10.8551
▁சொற்பொழிவ	-10.8556
▁ஜம்மு	-10.8556
▁ஈரப்பத	-10.8562
▁ஆத்திரேலிய	-10.8564
▁மிகுதி	-10.8565
▁எச்சரிக்கை	-10.8573
▁உண்டாகும்	-10.8575
▁பயன்படுத்துவது	-10.8579
▁புனைவு	-10.8581
க்கொள்வத	-10.8586
▁கிடைப்பத	-10.8586
▁சான்றிதழ்	-10.8592
▁இராமாயண	-10.8592
van	-10.8596
▁போனது	-10.8597
பாண்டிய	-10.8602
▁இடைமுக	-10.8602
▁அளிக்கிறது	-10.8603
▁மாதங்களுக்கு	-10.8612
▁அவனுக்கு	-10.8613
▁அலைவரிசை	-10.8613
▁கவச	-10.8614
க்கல்லூரி	-10.8615
▁ஏமாற்ற	-10.8615
குடும்ப	-10.8616
▁மிதமான	-10.8616
▁இக்குழு	-10.8617
▁முந்திய	-10.8622
▁பொற்	-10.8623
▁அதன்படி	-10.8625
கணித	-10.8627
▁செல்சியசு	-10.8628
நீதி	-10.8629
▁பொறுத்தவரை	-10.8631
யிற்	-10.8633
▁அழிவு	-10.8635
▁600	-10.8639
▁மயக்க	-10.8639
▁ஈராக்	-10.8642
▁இக்காலத்தில்	-10.8646
▁தாமஸ்	-10.8648
▁அவருடன்	-10.8656
▁வளர்ச்சியடைந்த	-10.8657
▁தலைவன	-10.8662
▁பெண்மணி	-10.8665
குறிச்சி	-10.8667
▁நினைக்க	-10.8673
▁பன்றி	-10.8677
ிறோம்	-10.8678
▁பெயரிட	-10.8678
▁சந்தா	-10.8678
▁சுவிட்சர்லாந்த	-10.8683
▁மூலிகை	-10.8683
▁என்பவன்	-10.8684
▁இவ்வூரில்	-10.8686
▁ஹார்ட்	-10.8689
▁நண்பர	-10.8693
▁அதன்பின்	-10.8694
▁துண்ட	-10.8695
▁மறைமாவட்ட	-10.8701
▁முன்வைத்த	-10.8706
▁அடுத்தடுத்த	-10.8715
▁தங்களுடைய	-10.8719
▁துர்க்கை	-10.8719
ிருக்கின்றது	-10.8723
▁இசைக்கருவி	-10.8726
▁இயற்கையான	-10.8727
▁ஊற்ற	-10.8729
▁தாய்லாந்து	-10.873
▁தினமும்	-10.873
வழக்க	-10.8734
▁விரிவுபடுத்த	-10.8738
▁கொண்டாட்ட	-10.874
▁பூர்த்தி	-10.874
▁1932	-10.8744
▁சுருங்க	-10.8746
▁துரித	-10.8752
தாவர	-10.8752
▁கழித்த	-10.8754
ice	-10.8756
▁பற்றாக்குறை	-10.8756
ில்லாத	-10.876
▁புயல	-10.8761
▁பாய்ம	-10.8762
ft	-10.8764
▁தொடங்குகிறது	-10.8765
சேவை	-10.8772
▁சேர்ப்ப	-10.8774
▁வினையூக்கி	-10.8775
iss	-10.8775
▁கிண்ண	-10.8776
▁ஐதராக்சைடு	-10.8776
▁பரிமாற	-10.8777
▁நுண்ணுயிரி	-10.8778
▁கிருஷ்ணா	-10.878
புராண	-10.8803
▁பொருளில்	-10.8805
▁பாளைய	-10.8817
ப்பொருளாக	-10.8818
ினதும்	-10.8819
புளோரைட	-10.8825
▁ஜனாதிபதி	-10.883
▁ஏழாம்	-10.883
▁பரப்பளவைக்	-10.8832
▁காப்பிய	-10.8838
▁இயக்கியுள்ளார்	-10.8845
q	-10.8848
▁உலகக்கோப்பை	-10.8849
▁எபிரேய	-10.8849
க்ளோ	-10.8852
▁நெஞ்ச	-10.8854
▁நெட்வொர்க்	-10.8867
▁அன்றாட	-10.8867
▁வேகத்தில்	-10.8871
▁பாண்டவர்	-10.8872
▁கைப்பற்றினார்	-10.8872
▁இசுரேல	-10.8872
ree	-10.8874
▁தலைமையக	-10.8875
▁ஹொ	-10.8876
▁பெண்ணை	-10.8882
▁கதாநாயகன	-10.8886
▁நிரலாக்க	-10.8887
▁கோதுமை	-10.8888
pi	-10.8902
▁பரிணாம	-10.8905
▁வேற்றுமை	-10.8905
▁அதிகாரபூர்வ	-10.8908
▁மலேசியாவின்	-10.8912
ிக்கொள்ள	-10.8915
▁கிரெ	-10.8915
▁குரல	-10.8915
ரெய்	-10.8917
▁செயல்திறன	-10.8917
▁தங்கியிருந்த	-10.8919
▁காளை	-10.892
800	-10.892
▁தொகுப்பில்	-10.8921
▁கிழமை	-10.8922
▁ஆக்கிரமிப்ப	-10.8923
▁திரையரங்க	-10.8924
▁சமீபத்திய	-10.8924
▁விளங்குகின்றது	-10.8927
▁ஒதுக்கப்பட்ட	-10.893
▁பழங்குடியினர	-10.8933
▁தனிமங்கள்	-10.8936
▁செலவில்	-10.8938
▁விவகார	-10.8942
ook	-10.8944
▁பொறுப்பை	-10.8946
தெய்வ	-10.8947
▁கூறப்படும்	-10.895
▁காலத்துக்கு	-10.8952
▁ஆதாரமாக	-10.8955
▁நிலப்பரப்பு	-10.8957
ஸெ	-10.8968
▁கொள்கின்றன	-10.8968
▁நிகழ்கிறது	-10.8971
ance	-10.8971
▁ஒவ்வொன்றும்	-10.8972
▁இறுக்க	-10.8972
▁கூறுவது	-10.8973
ருமேனிய	-10.8974
▁மைக்ரோசாப்ட்	-10.898
▁பள்ளத்தாக்க	-10.8984
▁விசாக	-10.8988
▁குறைவாகவே	-10.8993
▁பொறியாளர்	-10.8993
▁தமக்கு	-10.8993
ுபவை	-10.8998
▁உயிரிழந்த	-10.8999
▁துருக்கி	-10.9002
▁கனவு	-10.9003
▁சொத்துக்கள	-10.9007
▁இரத்தின	-10.9007
oll	-10.9009
▁நிர்ணய	-10.901
க்கேற்ப	-10.901
▁வானியலாளர்	-10.9016
▁மகாராட்டிர	-10.9019
▁நுகர்வோர்	-10.9023
ava	-10.9024
▁வழிபாட்ட	-10.9028
▁பெயரிடப்பட்டது	-10.903
▁தயார்	-10.9033
▁1900	-10.9033
▁கம்யூனிஸ்ட்	-10.9036
▁ஸ்டுடியோ	-10.9036
க்கொண்டிருந்த	-10.9038
▁இந்நூலில்	-10.9038
▁நுழைவாயில	-10.9039
▁திட்டங்களை	-10.9048
▁ரோஜா	-10.9049
▁பிரீமியர்	-10.9055
▁சிவராத்திரி	-10.9055
▁விரிகுடா	-10.9055
▁வைட்டமின்	-10.9055
▁பக்தர்	-10.9056
▁இயற்கணித	-10.9056
▁வீசி	-10.9064
▁கிரீன்	-10.9072
▁ஸ்டெ	-10.9073
▁பொதுநலவாய	-10.9074
▁ஊதா	-10.9081
▁நொடி	-10.9084
▁தாவரவியல்	-10.9094
▁வாகை	-10.9098
முதல	-10.9102
▁கூலி	-10.9103
▁வகுக்க	-10.9103
▁ஆதாரங்கள்	-10.9107
▁சிறிதளவு	-10.911
▁வாழ்கின்றன	-10.911
▁கௌதம	-10.911
▁முனிவர	-10.9111
▁ஜப்பான	-10.9112
▁நெகிழி	-10.9113
ளவிலான	-10.9123
த்திணை	-10.9123
▁நெதர்லாந்து	-10.9125
▁அரபி	-10.9127
John	-10.9132
செல்ல	-10.9136
ச்சொல்ல	-10.9137
▁பண்டார	-10.9137
▁வழிகாட்டி	-10.914
▁வருகின்ற	-10.9142
▁செய்கின்றனர்	-10.9148
▁ஞாயிற	-10.9149
▁அமைப்பாகும்	-10.915
▁ஆற்காடு	-10.9151
▁வாரிசு	-10.9154
▁வடமேற்க	-10.9156
▁தெரிவிக்கின்றன	-10.9159
▁குழாய	-10.9162
▁பிரிவினர	-10.9162
ஹே	-10.9167
▁அரக்கோணம்	-10.917
▁கோலாலம்பூர	-10.917
▁முதுகெலும்ப	-10.917
▁சித்தாந்த	-10.9171
▁புதுப்பிக்க	-10.9172
▁உறுதியாக	-10.9174
எஃப்	-10.9175
▁ஆகியவற்றுக்கு	-10.9177
▁செய்முறை	-10.918
▁பிரசுர	-10.9181
▁கோவிலின்	-10.9182
ung	-10.9183
▁ஊட்டச்சத்து	-10.9189
▁கருத்துக்கள்	-10.9193
▁குழல	-10.9197
▁அனந்த	-10.9198
▁பிணைய	-10.9201
▁பிரித்தெடுக்க	-10.9201
ிணைப்பு	-10.9206
▁விரல்	-10.9214
▁அமைந்திருந்தது	-10.9219
▁தோன்றுகிறது	-10.9221
▁ஆலோசகர	-10.9228
ெடுக்கப்பட்ட	-10.9228
ஆக்சைட	-10.9234
▁விநாயக	-10.9237
▁அடங்குவர்	-10.9249
▁சங்கீத	-10.925
▁யாரும்	-10.9253
▁திருத்தல	-10.9254
மலர்	-10.9254
▁கிடைக்கவில்லை	-10.9261
▁இன்றியமையாத	-10.9267
▁வெற்றிகரமான	-10.9267
▁தினசரி	-10.9267
▁மகேந்திர	-10.9273
ஸோ	-10.9278
▁மெக்சிக்கோ	-10.9286
▁யூனியன்	-10.9286
த்தோற்ற	-10.9291
▁1928	-10.9292
▁கொண்டுவரப்பட்ட	-10.9298
▁ஃப்ள	-10.9302
களிலுள்ள	-10.9303
▁பாம்ப	-10.9305
▁வாக்காளர்	-10.9307
▁வீச்சு	-10.9309
▁விருதுநகர்	-10.931
▁சக்கரத்தின்	-10.9315
▁ஆகியோரால்	-10.9317
▁பகிர	-10.9318
▁எலிசபெத்	-10.9325
▁ஊக்குவிக்க	-10.9325
ood	-10.9325
▁ஆபிரிக்க	-10.9328
▁பல்லவர்	-10.9332
Si	-10.9337
▁இடம்பெறும்	-10.9341
▁என்னுமிடத்தில்	-10.9345
▁இலண்டன்	-10.9345
▁US	-10.9345
▁வான்படை	-10.9346
ச்செல்ல	-10.9348
▁வெடிப்பு	-10.9355
▁எதிர்மின்	-10.9355
ுதலுக்கு	-10.9356
▁தீர்ப்பு	-10.9362
பூரில்	-10.9364
▁மட்டுமன்றி	-10.9364
▁மெய்யெண்	-10.9365
Per	-10.9371
▁சாட்சி	-10.9372
▁என்பவற்றை	-10.9373
▁அட்லாண்டிக்	-10.9384
▁நிரூபிக்க	-10.9384
▁நுண்ணுயிர்	-10.9384
▁பீரங்கி	-10.9384
▁வேண்டுகோள	-10.9384
▁இறகு	-10.9384
▁வயதிலேயே	-10.9386
▁கர்நாடகா	-10.9391
▁பணியாற்றியவர்	-10.9406
▁உறுதியான	-10.9407
▁முழுதும்	-10.9418
▁பூஞ்சை	-10.9424
app	-10.9428
▁மனிதனின்	-10.9429
▁1924	-10.943
▁அம்சங்களை	-10.9432
▁படைத்துறை	-10.9437
▁1919	-10.9438
▁மௌ	-10.9442
▁சிலப்பதிகார	-10.9443
கொள்வதற்கு	-10.9447
▁பின்வாங்க	-10.9451
▁ஆண்டிற்கு	-10.9455
▁நுழைவு	-10.9466
▁விளக்குகிறது	-10.9467
▁கனடிய	-10.9467
▁முதலாளி	-10.9467
▁ஆகியவற்றுடன்	-10.9474
▁நேர்ந்த	-10.9476
▁1933	-10.9488
▁எண்ணற்ற	-10.9488
யூட்டி	-10.9488
▁போன்றோர	-10.9497
▁பாதுகாக்கப்பட்ட	-10.9501
▁மாறுபாடு	-10.9504
▁கேரளத்தின்	-10.9505
▁கொண்டவையாக	-10.9513
▁இணைந்தார்	-10.9517
▁அரண்	-10.952
▁பெங்களூர்	-10.9522
▁வேளைகளில்	-10.9522
▁வித்யா	-10.9525
▁அருகாமையில்	-10.9542
▁வினைபுரிந்து	-10.9542
▁கணக்கெடுப்பு	-10.9542
▁Pro	-10.9543
▁எசுப்பானியா	-10.9545
▁வாசித்த	-10.9548
▁வேண்டுமென	-10.9551
▁நிர்ணயிக்க	-10.9551
▁தொகுத்த	-10.9552
▁அறியலாம்	-10.9552
▁மூவர	-10.9561
▁மாபெரும்	-10.9562
▁தாக்கிய	-10.9567
▁ஜொ	-10.9568
மதிப்பு	-10.9574
▁கட்டமைப்பை	-10.9582
▁நன்கொடை	-10.9582
▁முழுவதிலும்	-10.9582
▁சற்றே	-10.9582
▁பராமரிப்பு	-10.9583
▁செய்வதற்காக	-10.9588
▁இந்நிலையில்	-10.9589
▁விருத்த	-10.9589
மட்டத்திலிருந்து	-10.9589
▁விஷயங்கள	-10.9598
▁கழுத்து	-10.9599
ock	-10.9601
▁அம்சங்கள்	-10.9601
▁பிரகடன	-10.9602
▁அதிர்ச்சி	-10.9602
த்தொடங்க	-10.9603
நியூ	-10.961
▁தொடர்ந்தார்	-10.9613
▁இறங்கி	-10.9617
▁சுருள்	-10.9618
▁இறைவனை	-10.962
▁ஆதரவை	-10.9621
▁மட்டுமல்லாமல்	-10.9622
▁வான்காணக	-10.9622
▁தள்ளி	-10.9622
▁பர்மா	-10.9623
▁அதனுடைய	-10.9624
▁1925	-10.9632
▁திமுக	-10.9635
▁எண்ணிம	-10.9638
▁பாதிக்கப்பட	-10.9638
▁புகையிலை	-10.9642
▁வெளிப்படையாக	-10.9642
▁அக்கறை	-10.9643
▁அவசியமாக	-10.9644
▁அண்ணாமலை	-10.9646
லத்தீன	-10.9651
▁வழிவகுத்தது	-10.9659
▁அதற்க	-10.9662
சுப்ரமணிய	-10.9662
▁இந்நிகழ்வ	-10.9663
▁கவர்ச்சி	-10.9663
▁நடைமுறைப்படுத்த	-10.9664
▁பரிமாண	-10.9664
▁வணக்க	-10.9665
▁மக்களாட்சி	-10.9665
lic	-10.967
▁நேர்மின்	-10.9673
▁பத்தாம்	-10.9684
NO	-10.9687
ராட்டிர	-10.9689
த்தன்மையை	-10.9692
▁பாடினார்	-10.9692
▁நுகர்வ	-10.9699
▁தந்தையார்	-10.9699
▁கண்காணிக்க	-10.9703
▁இளவரசி	-10.9703
யதுக்குட்பட்டோர்	-10.9704
▁செயற்பட்ட	-10.9706
▁தமிழ்நாட்டு	-10.9706
▁விளைபொருள	-10.9716
சமுத்திரம்	-10.9723
▁இப்படத்தின்	-10.9724
▁பெங்களூரு	-10.9724
▁எக்சு	-10.9729
▁சந்தன	-10.9735
▁இருக்காது	-10.9738
களாவன	-10.9742
▁காலப்போக்கில்	-10.9743
ுமானால்	-10.9744
ாயினும்	-10.9746
▁நிறமாலை	-10.9748
▁கலந்துகொண்ட	-10.9749
மில்லாத	-10.9756
▁பேதுரு	-10.9764
அரச	-10.9767
▁பொங்கல்	-10.9771
▁தொழிலை	-10.9774
க்கொண்டே	-10.9779
ங	-10.9782
▁மேற்கிந்திய	-10.9784
▁வேறொரு	-10.9785
▁இப்பாடல	-10.9785
▁கண்டறிந்தார்	-10.9789
akka	-10.9793
▁செல்வாக்க	-10.9794
▁மற்றொன்று	-10.9797
▁சம்பந்தப்பட்ட	-10.9799
▁மூன்றில்	-10.9802
▁வாயில	-10.9804
▁ஒடிசா	-10.9805
▁நடைபெறுகின்றன	-10.9813
▁பவள	-10.9816
▁இருப்பார்	-10.9818
▁இம்மலை	-10.982
▁வசிப்ப	-10.982
▁மீட்க	-10.9821
▁இயல்பாக	-10.9821
▁நாட்டிய	-10.9821
▁மேற்பரப்பில்	-10.9823
▁தகடு	-10.9824
▁அந்நாட்ட	-10.9824
▁நடத்தப்படும்	-10.9825
▁இருபதாம	-10.9826
கீழ	-10.9826
▁குடியரசின்	-10.983
பெரிய	-10.9831
▁1926	-10.9831
▁ஆசியாவில்	-10.9833
ology	-10.9846
▁மலைத்தொடர	-10.9847
▁ஆப்பிள்	-10.9848
ost	-10.9857
▁கம்பனி	-10.9859
▁மிருக	-10.9861
▁மட்டுமின்றி	-10.9866
▁மகாத்மா	-10.9867
▁நிமிடங்கள்	-10.9868
▁ஒன்றே	-10.9869
▁புளோரைடு	-10.9869
▁கருதுகோள	-10.987
▁அதேவேளை	-10.9871
▁இந்நிலை	-10.9873
▁திசையன்	-10.9879
▁அனைத்த	-10.9883
▁பாசன	-10.9887
▁சிப்பாய்	-10.9887
▁இப்பொழுது	-10.989
▁தயாராக	-10.9892
▁1921	-10.9895
தூதர்	-10.9896
▁கேட்ப	-10.9899
▁ஆத்ம	-10.9906
▁இணக்க	-10.9916
▁துவங்கிய	-10.9928
▁திருகோணமலை	-10.9928
▁பயங்கர	-10.9928
National	-10.9929
▁திபெத்திய	-10.993
las	-10.9931
▁திருப்பதி	-10.9933
▁அறிவை	-10.994
▁வெளிநாடு	-10.994
▁கட்சியைச்	-10.9947
▁அங்கமாக	-10.9948
▁செருமானிய	-10.9949
▁அலெக்சாண்டர	-10.9949
▁ஒப்பிடுகையில்	-10.995
▁மென்மையான	-10.9951
oph	-10.9955
▁கல்வெட்ட	-10.9956
▁கிருமி	-10.9962
▁கபில	-10.9962
▁துல்லியமான	-10.9963
▁குடியரச	-10.9976
▁மராத்திய	-10.9977
▁ஸ்பெயின	-10.9977
▁சாதனையை	-10.9978
▁அரசியலமைப்ப	-10.9979
▁நெருக்கமாக	-10.9991
▁அதிரடி	-10.9991
பாட்டின்	-10.9996
▁மூலக்கூற	-11
ham	-11.0007
▁சமாதான	-11.0012
▁பயன்படுகின்றது	-11.0014
▁பின்னரே	-11.0015
▁தொழிலில்	-11.0015
▁வகிக்கிறது	-11.0015
▁நார்வே	-11.0017
▁திடீரென	-11.0018
▁இன்னமும்	-11.0024
ுணர்ச்சி	-11.0027
▁இத்தொகுதி	-11.0027
யியலில்	-11.0045
pur	-11.0046
▁நீளமும்	-11.0049
▁புகார	-11.0051
▁இறக்குமதி	-11.0053
▁படைப்பிரிவு	-11.0057
▁1927-	-11.0061
▁திசுக்கள	-11.0067
▁பெறுவதற்கு	-11.0076
▁ஆழ்வார்	-11.0076
இதழ்	-11.0082
▁வேறுபடுத்தி	-11.0083
▁உருமாற்ற	-11.0087
▁1912	-11.0088
▁ஒழுங்குபடுத்த	-11.0089
▁ஈடுபடுத்த	-11.0091
▁கல்கத்தா	-11.0095
▁குரங்கு	-11.0096
ாவத	-11.0096
▁செவ்வாய்	-11.01
▁திபெத்	-11.01
▁கைவிடப்பட்ட	-11.0105
▁டெட்ரா	-11.0107
▁ரயில்வே	-11.0108
▁கருணாநிதி	-11.0116
▁தகவலை	-11.0117
ப்படுபவர்	-11.0119
ெதிர்	-11.0123
▁இச்சொல்	-11.0124
▁தகவல	-11.0124
▁காட்டுகின்றன	-11.0129
▁உருவாவத	-11.0133
Man	-11.0134
▁பட்டியலிடப்பட்ட	-11.0134
▁துடுப்ப	-11.0137
▁சுண்ணாம்பு	-11.0138
▁தேங்காய்	-11.0138
▁பிரபஞ்ச	-11.0138
▁முழுவதுமாக	-11.0138
▁குணப்படுத்த	-11.0139
▁இனக்குழு	-11.0139
▁வணங்கி	-11.0144
▁தேய்	-11.0145
Am	-11.015
▁வெறுப்ப	-11.015
▁சாம்பியன்	-11.0158
▁மகரந்த	-11.0159
▁ரோமானிய	-11.016
ாமலும்	-11.0161
▁1922	-11.0166
நுட்ப	-11.0167
ஃபே	-11.0173
▁தணிக்கை	-11.018
▁அடிப்படையான	-11.018
▁கோயிலை	-11.0185
▁பாதுகாப்பான	-11.0189
▁மூழ்க	-11.0192
த்தினுள்	-11.0195
▁பயிர	-11.02
▁பெரிதாக	-11.0201
▁பொள்ளாச்சி	-11.0201
▁முஸ்லீம்	-11.0201
▁சப்பானிய	-11.0202
▁வீட்டிற்கு	-11.0203
▁350	-11.0204
குமாரி	-11.0209
▁வாசகர்	-11.0209
▁பெறவில்லை	-11.0211
▁சமகால	-11.0215
▁ஆதரவாளர்	-11.0215
▁Jump	-11.0223
▁சிவலிங்க	-11.0224
▁எங்கும்	-11.0225
▁அனைவருக்கும்	-11.0225
▁அகன்ற	-11.0229
▁முன்வைக்க	-11.0231
AD	-11.0232
▁இராணி	-11.0233
▁அரசியல	-11.0237
▁அன்னா	-11.0238
▁ஆட்டக்காரர்	-11.0239
HO	-11.0241
விட்டால்	-11.0244
▁நிலத்தடி	-11.0244
▁எப்போது	-11.0247
▁ஆகியவற்றால்	-11.0248
▁வருகின்றார்	-11.0248
ினூடாக	-11.0263
▁செலுத்திய	-11.0265
▁மொழிபெயர்த்த	-11.0267
▁நகர்ப்புற	-11.0272
▁அப்படியே	-11.0276
▁அன்றி	-11.0276
த்தொழில்	-11.0278
▁துத்தநாக	-11.0287
▁இக்கோவில்	-11.029
▁முடுக்க	-11.0301
▁காரணமான	-11.0304
▁கடினமாக	-11.0309
▁வருமாறு	-11.0311
▁நிறமற்ற	-11.0311
▁செய்கின்ற	-11.0314
▁படையெடுப்ப	-11.0326
▁காலத்திலேயே	-11.0329
▁வாதிட	-11.0329
▁கோளாறு	-11.0331
▁கூறப்பட்டுள்ளது	-11.034
▁பயணிக்க	-11.0345
பிடிக்க	-11.0345
▁மேற்படி	-11.0349
▁ரகசிய	-11.0352
▁தொழிற்துறை	-11.0353
▁போர்த்துக்கேய	-11.0357
▁பண்டித	-11.036
▁சீரான	-11.0368
▁நச்சுத்தன்மை	-11.0369
▁செங்கிஸ்	-11.0374
▁அம்பல	-11.0375
▁எட்டாம்	-11.0375
▁புரிந்துகொள்ள	-11.0376
▁வெடித்த	-11.0378
▁இருக்கிற	-11.0386
▁வரதராஜப்பெருமாள	-11.039
▁அதேபோல	-11.0391
▁1910	-11.0393
▁வீரராக	-11.0395
▁புல்வெளி	-11.0395
▁மிகச்சிறந்த	-11.0395
ிற்கே	-11.0399
▁அவ்விட	-11.0403
▁வடிகட்ட	-11.0407
▁வார்டு	-11.041
▁பாராட்டி	-11.0412
▁ரீதியில்	-11.0417
▁நம்பிய	-11.0417
▁சாம்பியன்ஷிப்	-11.0417
கொழு	-11.042
▁இணையதள	-11.0421
▁1923	-11.0423
▁விஜயநகர	-11.0426
இலங்கை	-11.0428
▁செயலாற்ற	-11.0437
▁மனதில்	-11.0438
பயிற்சி	-11.0439
▁ராஜஸ்தான்	-11.0441
▁கோடைக்கால	-11.0442
▁மதிப்பெண்	-11.0448
▁வில்லி	-11.0452
▁கல்லீரல்	-11.046
▁முன்னோடியாக	-11.0462
war	-11.0463
▁மேலதிக	-11.0466
▁பங்கேற்ப	-11.0482
▁சனத்தொகை	-11.0482
▁எதிர்மின்னி	-11.0484
▁அதிகரிக்கிறது	-11.0489
▁இங்கிலாந்த	-11.0495
▁ஆகியோரை	-11.0498
▁தமிழ்நாட்ட	-11.0499
ப்படுவார்	-11.05
▁டபிள்யூ	-11.0504
▁குடியுரிமை	-11.0504
▁வளர்சிதை	-11.0504
▁இவர்களது	-11.0505
▁சதுப்பு	-11.0506
▁இந்தியாவிற்கு	-11.0515
▁ஆளுனர	-11.0517
▁எக்ஸ்பிரஸ்	-11.0526
▁வறண்ட	-11.0528
▁வாட்டர்	-11.0529
▁காட்சிப்படுத்த	-11.053
▁நூலாசிரியர	-11.0531
▁துறந்த	-11.0534
▁இலகு	-11.0536
தேசிய	-11.054
▁நிகழ்த்திய	-11.054
▁மாற்றியமைக்க	-11.0548
▁கல்வியறிவான	-11.0548
▁கவிஞர	-11.0552
▁மணிநேர	-11.0556
▁அவரிடம்	-11.0556
▁விவேக	-11.0557
▁கூழ்	-11.0562
கடவுள	-11.0564
▁குற்றச்சாட்டு	-11.057
▁மசூதி	-11.057
▁வீட்டை	-11.0573
▁நீடிக்க	-11.0573
▁செயல்படுகின்றன	-11.0573
▁அடர்ந்த	-11.0574
▁உவமை	-11.0575
▁1914	-11.0581
▁கையொப்ப	-11.0592
▁கூற்றுப்படி	-11.0595
மருந்து	-11.0599
▁இணையான	-11.0607
ிருக்கவில்லை	-11.0609
▁கலாசார	-11.0614
▁நாயுடு	-11.0615
▁வழங்குகின்றன	-11.0615
▁விளையாட்டரங்க	-11.0625
▁தாக்குதலை	-11.0628
▁சமீபத்தில்	-11.0628
▁விரட்ட	-11.0632
▁சான்றாக	-11.0635
▁துல்லிய	-11.0638
▁ஒவ்வொன்ற	-11.0646
▁1911	-11.0649
▁அதிகாரியாக	-11.065
▁பூரண	-11.0651
▁சஞ்சிகை	-11.0659
▁அரியானா	-11.0662
ுவதோடு	-11.0668
▁முசுலிம்	-11.0681
▁மீதமுள்ள	-11.0681
▁உண்ப	-11.0684
▁மேற்பரப்ப	-11.0686
▁அகத்திய	-11.0689
▁நுண்ணிய	-11.0689
▁பாரிஸ்	-11.0697
▁உலகிலேயே	-11.0703
▁வாயுக்கள	-11.0704
▁அண்ணன்	-11.0704
▁சவால	-11.0708
ப்படுகின்றார்	-11.0721
▁பாதுகாவல	-11.0726
▁நாளாக	-11.0726
▁அமிர்த	-11.0728
▁தொடர்பை	-11.0728
▁அவரால்	-11.073
▁தொகுக்க	-11.073
▁பழுத	-11.0733
▁முன்னேறி	-11.074
rit	-11.0745
▁சமசுகிருத	-11.0748
▁பஞ்சாயத்து	-11.0749
▁நிலைநிறுத்த	-11.0753
eng	-11.0753
▁பணியாற்றியுள்ளா	-11.0759
ஜன்னிய	-11.076
▁இதழாகும்	-11.0762
▁கதிரவ	-11.0765
▁களிமண்	-11.0766
▁கோடைகால	-11.0768
▁மலேரியா	-11.0771
▁வாடகை	-11.0771
▁இருப்பதில்லை	-11.0774
▁அவரே	-11.0779
▁வலையமைப்ப	-11.0781
apuram	-11.0783
பேரூராட்சி	-11.0783
யில்லாத	-11.0786
▁பாபிலோன	-11.0794
▁அடையாளப்படுத்த	-11.0794
▁தென்னிந்தியாவில	-11.08
▁நெருங்க	-11.08
▁ராமசாமி	-11.0806
▁விழிப்புணர்வு	-11.0816
▁தானியங்கி	-11.0829
ிருத்தல்	-11.0832
▁காரணங்களால்	-11.0832
▁1927	-11.0838
▁வல்லுனர்	-11.0839
▁இயற்	-11.084
▁சோதிட	-11.0842
▁பறக்க	-11.0847
செலுத்த	-11.0853
▁பிரசாத்	-11.0855
பாட்டில்	-11.0861
▁சார்லஸ்	-11.0862
▁மாறுகிறது	-11.0889
▁இனிப்பு	-11.0894
▁அதிகளவில்	-11.0896
▁மலாக்கா	-11.0908
▁வேதாந்த	-11.091
▁அகழ்வ	-11.0911
▁புகுந்த	-11.0911
▁மர்ம	-11.0913
–19	-11.0925
▁பொதுவுடமை	-11.093
▁திரௌபதியம்மன்	-11.093
▁இதன்மூலம்	-11.093
▁சுவீடன	-11.0933
▁என்பவருக்கு	-11.0936
▁ஸ்ரீதேவி	-11.0937
கருதப்படுகின்றது	-11.0948
▁ஏகாதசி	-11.0953
adu	-11.0955
▁ராஜேந்திர	-11.0958
▁வெகுவாக	-11.0959
பூர்வமான	-11.0959
port	-11.0962
சக்கர	-11.0964
▁நியூட்டன	-11.0965
▁அலுவலரால	-11.097
▁கனடாவில்	-11.0975
▁இருந்தபோதிலும்	-11.0976
▁நறுமண	-11.0976
▁நுழைய	-11.0989
▁தெலுங்க	-11.0992
▁உத்தம	-11.0995
▁நகரியம்	-11.0999
▁இலித்தியம்	-11.0999
▁மிகப்பெரும்	-11.0999
▁வரதராஜ	-11.1004
▁வாசனை	-11.1006
▁இணங்க	-11.1013
▁கொடுக்கிறது	-11.1013
▁ஆதலால்	-11.1022
▁கிணறு	-11.1022
▁பிரதமராக	-11.1022
▁சுற்றுப்பாதை	-11.1025
▁உதவுகின்றன	-11.1039
▁ஓய்வூதிய	-11.1045
▁மகாராஷ்டிரா	-11.1046
▁போட்டியாளர்	-11.105
▁தாயார	-11.1056
cul	-11.1068
▁தட்சிணாமூர்த்தி	-11.1069
ச்சேர்க்கை	-11.1069
▁பதப்படுத்த	-11.107
▁கணிதவியலாளர்	-11.1071
▁எழுத்துக்களை	-11.1073
▁நிக்கல்	-11.1073
▁பன்முக	-11.1076
ுவதிலும்	-11.1081
▁பயிற்று	-11.1091
▁திரையிட	-11.1097
▁தானுந்து	-11.1115
▁பனிக்கட்டி	-11.1115
▁சேமித்து	-11.1116
thi	-11.1121
பொழுத	-11.1123
▁லவ்	-11.1125
சயன	-11.1129
▁எய்த	-11.1132
▁தென்காசி	-11.1139
log	-11.1139
▁ஏற்படுகின்றன	-11.1139
▁கருத்தியல	-11.1139
▁கார்பனேட்டு	-11.114
▁கழுவ	-11.1143
▁ஆளுநராக	-11.1159
▁அகாடமி	-11.1162
▁பூர்வீக	-11.1162
▁ஆற்றிய	-11.1164
▁ஏதுவாக	-11.1167
களுமே	-11.1171
நீக்க	-11.118
▁பிரதிபலிக்க	-11.1185
▁மொபைல்	-11.1185
ake	-11.1189
▁வழிகாட்ட	-11.1198
▁வளைந்த	-11.1201
வெற்றி	-11.1202
▁விக்கிரம	-11.1206
▁குவாண்டம்	-11.1209
▁இக்கட்சி	-11.1215
▁தனித்தன்மை	-11.1215
▁இத்தொடர	-11.1216
2,000	-11.1218
▁மரபியல்	-11.1219
கேசரி	-11.1219
▁அனுப்பினார்	-11.1221
▁உதவியது	-11.1223
▁பகதூர்	-11.1232
▁விசுவநாத	-11.1232
▁சுற்றிலும்	-11.1233
▁எத்தனை	-11.1233
▁போக்குவரத்த	-11.1234
ிறாள்	-11.1244
▁இருக்கின்ற	-11.1246
▁சுதேச	-11.1249
pro	-11.125
▁மகாதேவ	-11.1252
old	-11.1254
▁களஞ்சிய	-11.1257
▁சிட்னி	-11.1258
▁காரணத்தினால்	-11.1259
we	-11.127
ாசிரியராக	-11.1272
▁அங்கிருந்த	-11.1273
▁துடிப்ப	-11.1292
▁1917	-11.1295
▁பல்வகை	-11.1296
▁தளர்ச்சி	-11.1304
புளோரோ	-11.1305
க்கணிப்ப	-11.1309
பிறழ்	-11.1313
தொடர்	-11.1317
▁மதிக்க	-11.1319
▁க்ள	-11.1321
க்குள்ளாக	-11.1321
▁இனத்தைச்	-11.1327
▁இயலவில்லை	-11.1333
▁நன்றி	-11.1334
▁எரிபொருள	-11.134
▁மார்பக	-11.1353
vers	-11.1353
▁காரணங்களுக்காக	-11.1354
▁அதனுடன்	-11.1357
▁பால்வெளி	-11.1359
▁மார்ட்டின்	-11.136
▁முதலீட்டாளர்	-11.1366
ஞ்சேரி	-11.1367
▁நிதியுதவி	-11.1375
▁குடிபெயர்ந்த	-11.1375
▁வியாழன	-11.1375
▁செயின்ட்	-11.1377
▁உலகெங்கும்	-11.1378
▁மலைப்பகுதி	-11.1379
ave	-11.1384
▁ஒப்பிட்டு	-11.1387
▁ரேடியோ	-11.1399
▁செங்குத்து	-11.14
▁அம்பாள்	-11.1406
▁1918	-11.1411
▁எதிர்வினை	-11.1412
ஃபீ	-11.1413
▁நாட்டிற்கு	-11.1418
▁ஏழாவது	-11.1423
▁திரையுலக	-11.1423
▁அடைக்கப்பட்ட	-11.1428
▁உபயோகிக்க	-11.1431
▁1905	-11.1432
▁எதிர்கொள்ள	-11.1432
ound	-11.1433
▁சரித்திர	-11.1439
▁ஸ்மித்	-11.1443
▁பாலிவுட்	-11.1444
▁சந்திரசேகர	-11.1449
ஃபோர்ட்	-11.145
▁சுற்றுப்புற	-11.1451
the	-11.1452
▁ஓய்வ	-11.1456
▁கொள்கிறது	-11.1457
▁சந்தைப்படுத்த	-11.1466
விடுகிறார்	-11.1468
▁கோவிலுக்கு	-11.1468
▁ஆப்கானிஸ்தான	-11.1471
▁இயக்குனராக	-11.1476
▁வெப்பமண்டல	-11.1476
▁பாய்கிறது	-11.1483
▁கவனிப்ப	-11.1487
▁வருந்த	-11.1492
▁விக்கிப்பீடியா	-11.1496
▁மெக்சிகோ	-11.1496
▁பாகவத	-11.1503
▁பேச்சுவார்த்தை	-11.152
▁டென்மார்க்	-11.152
ாவிட்டால்	-11.1528
▁புளூ	-11.1531
▁அமுத	-11.154
▁சாவக	-11.1543
▁நூற்றுக்கணக்கான	-11.1544
▁ஆசிரம	-11.1544
▁நீர்த்தேக்க	-11.1544
கொல்ல	-11.1546
ஃபீல்ட	-11.1546
▁தோறும்	-11.1552
▁ஊர்வல	-11.1556
பூர்வமாக	-11.1565
▁கிராண்ட்	-11.158
▁இடமாற்ற	-11.1583
form	-11.1587
▁பொறிக்கப்பட்ட	-11.1587
NH	-11.1588
களுக்கே	-11.1591
▁முதலாவதாக	-11.1593
▁இலத்திரன்	-11.1593
▁வழிவகுக்க	-11.1593
▁அருள்மிகு	-11.1594
▁தன்னார்வ	-11.1595
▁புளிய	-11.1604
▁செய்வதன்	-11.1609
2011	-11.161
ுகிறேன்	-11.1612
▁பண்டிகை	-11.1618
▁காவேரி	-11.1619
▁செட்டியார்	-11.162
▁அனுமதிக்கப்பட்ட	-11.1622
▁இவ்வாலய	-11.1625
▁ரிஷி	-11.1629
▁1916	-11.1632
▁விதிக்கப்பட்ட	-11.1632
▁கிடக்க	-11.1641
▁ஜெயலலிதா	-11.1642
▁பாதரச	-11.1646
▁திவ்ய	-11.1665
▁காந்தாரம்	-11.1667
▁வாழிட	-11.1667
ெலும்பு	-11.167
▁அருணாசல	-11.1691
▁உலகக்கிண்ண	-11.1691
▁ஒன்றுக்கொன்று	-11.1691
▁ஜேர்சி	-11.1692
▁கவுன்சில	-11.1693
கொள்கின்ற	-11.1698
▁கண்டெடுக்க	-11.1709
▁அளவிலும்	-11.1715
▁சரஸ்வதி	-11.1716
▁மல்யுத்த	-11.1716
▁ஜெனரல்	-11.1716
ிருக்கிற	-11.1716
▁தூண்டுதல	-11.1723
ிழந்த	-11.1731
▁ப்ளூ	-11.1741
என்ற	-11.1749
▁நீட்சி	-11.1754
▁மூழ்கி	-11.1756
க்குள்ளான	-11.1762
▁சிற்றிலக்கிய	-11.1766
▁ஆற்றங்கரை	-11.1766
▁முரண்பாடு	-11.177
▁சிற்றின	-11.1774
▁விரிந்த	-11.1777
▁நடித்திருந்தார்	-11.1777
▁கர்ணன	-11.1778
வியலாளர	-11.1779
▁கடைப்பிடிக்க	-11.1791
தையடுத்து	-11.1793
▁தமனி	-11.1797
வொர்	-11.1799
▁குசராத்	-11.18
▁குடியிருப்ப	-11.1809
▁நெருக்கமான	-11.1816
▁நெகிழ்	-11.1816
▁வினாடி	-11.1817
▁அதிர்வு	-11.1818
▁சமஸ்தான	-11.1825
▁குடிமக்கள	-11.183
டெய்	-11.1837
ெங்கும்	-11.184
▁தோற்கடிக்க	-11.1841
▁தோல்வியுற்ற	-11.1841
▁ஓசோன்	-11.1841
▁வீழ்ந்த	-11.1842
▁கையெழுத்திட்ட	-11.1842
▁விசுவாச	-11.1844
▁வளரக்கூடிய	-11.1844
▁இப்போர	-11.1851
▁பேராசிரிய	-11.1857
▁என்றழைக்கப்பட்ட	-11.1859
▁கணித்த	-11.1862
▁அவ்வாறே	-11.1866
▁திருவனந்தபுரம்	-11.1866
▁தொலைத்தொடர்பு	-11.1866
▁மறுபடியும்	-11.1866
▁இராவணன	-11.1867
▁டிஜிட்டல்	-11.1891
▁நீதிக்கட்சி	-11.1891
▁மூங்கில்	-11.1892
▁ஆர்வலர்	-11.1897
▁மணந்தார்	-11.1898
▁எளிமையாக	-11.1913
▁வறட்சி	-11.1916
▁இராகமாகிய	-11.1917
▁அருச்சுனன	-11.1917
▁அவையாவன	-11.1917
▁நுணுக்க	-11.1917
▁கழுகு	-11.1917
▁இறால்	-11.1917
▁இணையத்தள	-11.1921
களினதும்	-11.1923
கொலம்ப	-11.1931
▁நண்பன	-11.1943
▁முடிவெடுத்த	-11.1945
▁ஆக்சிசன	-11.1946
ப்பலகை	-11.1952
▁சம்மத	-11.1959
▁செதுக்க	-11.1967
▁பொதுவுடைமை	-11.1967
▁வனவிலங்கு	-11.1967
▁திணைக்கள	-11.1967
▁நிவாரண	-11.1968
▁காயமடைந்த	-11.1971
anth	-11.1971
▁திறக்கப்பட்டது	-11.1981
▁ஒருங்கிணைக்க	-11.1981
▁இவ்வூர	-11.1989
▁பின்தங்கிய	-11.1993
▁முதன்முறையாக	-11.1993
▁மூதாதை	-11.1993
▁ஆரஞ்சு	-11.1996
ுணர்வ	-11.1998
▁உறங்க	-11.1998
▁1908	-11.2
▁சிவாலய	-11.2001
▁மக்களிடம்	-11.2001
▁மாநிலத்திலுள்ள	-11.2005
International	-11.2018
▁புள்ளிவிவர	-11.2018
▁பாக்கிஸ்தான	-11.2019
ாம்பிகை	-11.2036
▁சந்தர்ப்ப	-11.2036
▁அதிமுக	-11.2038
▁பிலிப்பைன்	-11.2044
▁உடற்பயிற்சி	-11.2044
எதிர்	-11.2054
▁சொற்றொடர	-11.2069
▁பன்னிரண்டு	-11.2069
▁தாழ்த்தப்பட்ட	-11.207
▁எருமை	-11.207
பிரகாச	-11.2077
▁புரொ	-11.2089
▁அங்குலம்	-11.209
முயற்சி	-11.2091
▁முற்பகுதியில்	-11.2095
▁வற்புறுத்த	-11.2095
▁செயிண்ட்	-11.2095
▁திடீர்	-11.2097
▁சதுக்க	-11.2097
▁பவானி	-11.21
▁நாளன்று	-11.2101
▁1913	-11.2107
▁அழிக்கப்பட்ட	-11.2109
▁அனுராதபுர	-11.2121
▁வானியற்பியல	-11.2121
▁ஐந்தாண்டு	-11.2121
▁எண்ணிக்கையிலான	-11.2127
▁மானிட	-11.2128
▁தானாகவே	-11.2147
▁தலித்	-11.2148
ப்படுபவை	-11.2148
ott	-11.2154
▁புள்ளியியல்	-11.216
▁பட்டப்படிப்பு	-11.2173
▁அகமது	-11.2173
▁விரத	-11.218
▁அதிசய	-11.2199
▁அந்தோனி	-11.2202
ச்சூழல	-11.2224
graph	-11.2225
▁தலைசிறந்த	-11.2227
▁எதிர்பார்ப்ப	-11.2228
▁மேளமாகிய	-11.2251
▁தைவதம்	-11.2251
▁மீற்றருக்கு	-11.2251
▁துணைக்கண்ட	-11.2251
▁சூடுபடுத்த	-11.2251
ரத்ன	-11.2253
▁பட்டுக்கோட்டை	-11.2253
▁வருவாய	-11.2256
▁பாடத்திட்ட	-11.2258
▁தவிர்த்த	-11.2261
ென்பது	-11.2264
▁நீரிணை	-11.2269
▁அயன	-11.227
▁தியாகராஜ	-11.2271
▁சாஸ்திரி	-11.2277
▁அமுக்க	-11.2279
2008	-11.2279
▁தவிர்ப்ப	-11.2284
▁அனுமதிக்கிறது	-11.2288
▁செய்வதில்	-11.2291
▁பிறப்பிடமாகக்	-11.2303
▁வரையறுத்த	-11.2303
▁ஒப்படைக்க	-11.2308
▁கிழங்கு	-11.231
▁வினவ	-11.2311
▁நீரோட்ட	-11.2312
▁1901	-11.2315
கொண்டிருக்கின்றன	-11.2318
▁பணக்கார	-11.232
ெண்ணெய	-11.232
▁திரள	-11.2324
▁குலோத்துங்க	-11.2329
▁காய்ச்சல்	-11.2332
▁தியேட்டர	-11.2332
ces	-11.2333
திரைப்பட	-11.2341
வேண்டுமென்ற	-11.2343
▁தருண	-11.2349
ப்புத்தக	-11.2352
▁மறுசீரமைப்ப	-11.2356
▁மத்திமம்	-11.2356
▁திறனாய்வு	-11.2358
களுடனான	-11.2362
▁முறியடித்த	-11.2382
▁ஒதுக்கீடு	-11.2385
▁சிகாகோ	-11.2389
▁காஷ்மீர	-11.2399
▁எட்டாவது	-11.241
▁இவ்விழா	-11.2414
▁ஆண்டளவில்	-11.2416
▁அயோத்தி	-11.242
நாடக	-11.2421
▁விவாதிக்க	-11.2427
▁கண்டிப்பாக	-11.2438
ஹைட்ர	-11.2443
▁குடிநீர்	-11.2443
▁அரியணை	-11.2444
▁தஞ்சாவூர	-11.2453
▁மட்டுமல்லாது	-11.2462
▁லண்டனில்	-11.2462
▁நிரம்பிய	-11.2462
▁[1]	-11.2463
▁உலாவி	-11.2469
▁முதுநிலை	-11.2473
▁கையாண்ட	-11.2474
▁வயதிற்கு	-11.2481
▁நிறைவேற	-11.2488
▁மகிழ்வ	-11.2489
▁உயர்நிலைப்பள்ளி	-11.2489
▁உபயோகப்படுத்த	-11.2489
▁புரோமைடு	-11.2491
▁பேட்மேன	-11.2491
▁சனநாயக	-11.2492
▁1907	-11.2498
▁உபதேச	-11.25
விட்டதாக	-11.2501
▁சந்நிதி	-11.2516
▁இரண்டாவதாக	-11.2516
▁தர்க்க	-11.2526
▁என்பதற்கான	-11.2543
▁சம்பள	-11.2543
சிகிச்சை	-11.2544
▁முன்னிலை	-11.2549
▁பிலிம்	-11.2553
▁இளவரசன	-11.2571
▁கற்கால	-11.2573
▁பதின்ம	-11.2584
க்கொடுத்த	-11.259
line	-11.2593
▁தற்காப்பு	-11.2597
▁பிரகாஷ்	-11.2597
▁யாதவ	-11.2602
▁பருமன	-11.2621
Ad	-11.2623
▁புலவர	-11.2631
▁சீக்கியர்கள	-11.2634
▁பராமரிப்ப	-11.2649
▁முப்பரிமாண	-11.2651
▁எஃகு	-11.2651
த்தலைவராக	-11.2667
▁பொறியியல	-11.267
▁காமிக்	-11.2673
▁அமாவாசை	-11.2678
▁முற்போக்கு	-11.2678
▁அத்தியாயங்கள	-11.2678
▁பிரிவாக	-11.27
▁சோசலிச	-11.2705
▁சுழற்	-11.272
▁இயக்குனர	-11.272
▁தீர்மானித்த	-11.2722
▁நீர்வீழ்ச்சி	-11.2733
▁பின்வருவன	-11.2733
▁ஒத்துழைப்ப	-11.2733
▁ஆபத்தான	-11.2735
▁உள்வாங்க	-11.2736
▁இருக்கக்கூடும்	-11.274
▁கண்ணோட்ட	-11.2755
1,000	-11.2756
▁கண்டறிவத	-11.2758
பைரவ	-11.2758
▁காரைக்குடி	-11.276
▁எதிர்பார்த்த	-11.2764
▁சிறுபான்மை	-11.2768
▁பறப்ப	-11.2779
▁துரத்த	-11.278
▁ஷட்ஜம்	-11.2788
வளர்ச்சி	-11.2788
▁நெடுங்க	-11.2792
▁இம்மாவட்ட	-11.2809
▁மின்னஞ்சல்	-11.2815
▁குடைவரை	-11.2815
▁பூர்வ	-11.2834
▁ஆளுகை	-11.2841
▁ஒன்பதாம்	-11.2843
▁யுனைடெட்	-11.2843
▁எட்வர்ட்	-11.2843
முதன்மை	-11.2844
மருத்துவ	-11.2844
▁வசித்த	-11.286
▁கிருட்டிணகிரி	-11.2871
▁தரையிறங்க	-11.2871
▁அலைநீள	-11.2871
▁மோசமாக	-11.2873
▁முழங்க	-11.2878
▁நால்வர	-11.2884
▁India	-11.2887
▁கலைக்களஞ்சிய	-11.2899
▁பதினாறாம்	-11.2899
▁யுனெஸ்கோ	-11.2899
▁மேல்நிலைப்பள்ளி	-11.2899
▁காசுமீர	-11.2899
▁சல்பேட்டு	-11.2901
விளையாடியுள்ளார்	-11.2909
▁இயக்குநர	-11.2915
▁மக்னீசியம்	-11.2927
▁மாநிலங்களவை	-11.2927
▁இஸ்ரேல	-11.2927
▁கடைபிடிக்க	-11.2928
ப்பண்பு	-11.2934
▁சீர்தர	-11.2936
▁நீர்மூழ்கி	-11.2955
▁நோர்வே	-11.2955
▁பெருங்குடல	-11.2956
நாதசுவாமி	-11.2957
▁அம்மையார	-11.2959
▁பகவதி	-11.2959
▁மேற்புற	-11.296
▁திருப்பத்தூர்	-11.2961
▁அழைக்கிறார்கள்	-11.2961
கொள்வதற்காக	-11.2968
▁இசைக்குழுவின	-11.298
palayam	-11.2983
▁இளையராஜா	-11.2985
▁மெய்யியல	-11.2986
▁ஆதாய	-11.2987
▁வரவேற்பைப்	-11.2988
▁மராட்டிய	-11.3011
▁இடம்பெயர்ந்த	-11.3011
▁கும்பகோணத்த	-11.3012
▁மென்பொருட்கள	-11.3013
▁மொழிபெயர்ப்ப	-11.3017
3,000	-11.302
▁வழிகாட்டுதல	-11.3021
உயிர	-11.3036
▁சாமுவேல்	-11.3039
▁நவராத்திரி	-11.3039
▁திம்ம	-11.3048
▁இலகுவாக	-11.3051
▁தனிப்பாடல	-11.3066
▁University	-11.3067
▁டேனியல்	-11.3068
▁பிரசித்தி	-11.3068
▁செல்கிறார்	-11.3075
▁சேமிப்ப	-11.3085
▁படைவீரர்	-11.3096
▁பிரபந்த	-11.3096
▁முதிர்ந்த	-11.3097
▁விகடன்	-11.3097
பல்கலைக்கழக	-11.3097
▁சரவண	-11.3098
▁மரபணுக்கள	-11.3101
▁பதினான்கு	-11.3124
▁இயற்பியலாளர	-11.313
▁முடியாட்சி	-11.313
▁வேதிப்பொருள	-11.313
▁சீரமைப்ப	-11.3134
▁துன்புறுத்த	-11.3153
ாவிட்டாலும்	-11.3153
▁அரவிந்த	-11.3154
▁பஞ்சமம்	-11.316
த்தொடர	-11.3169
▁அயோடைடு	-11.3182
▁பிலிப்பீன்ச	-11.3182
▁செய்தித்தாள்	-11.3182
▁நெப்போலியன	-11.3182
▁பட்டதாரி	-11.3182
▁ஒட்டுண்ணி	-11.3183
ிழப்ப	-11.3191
▁மகிழ்ந்த	-11.3193
▁எண்ணெய	-11.3202
▁ஈர்த்த	-11.3204
▁திருத்தூதர்	-11.321
த்தொகுப்பு	-11.3217
ச்செல்வ	-11.3219
▁பகுப்பாய்வ	-11.3221
▁Retrieved	-11.3239
▁கைலாசநாதர்	-11.324
ாமலேயே	-11.3248
▁செதுக்கப்பட்ட	-11.3261
குறைந்த	-11.3265
▁வெள்ளிக்கிழமை	-11.3268
▁புத்தாண்டு	-11.3273
▁தெருக்கள	-11.329
▁பீடபூமி	-11.3297
▁முன்னுரிமை	-11.3301
ள்ளேயே	-11.3305
▁மௌரிய	-11.3313
0°	-11.3324
▁உற்பத்தியாளர்கள	-11.3325
▁கையகப்படுத்த	-11.3326
▁கோதாவரி	-11.3326
விகித	-11.3329
▁உபநிடத	-11.333
நிறுத்த	-11.3332
▁வருண	-11.3345
▁உத்தரவிட்ட	-11.3354
▁சிம்பாப்வே	-11.3355
▁வகைக்கெழு	-11.3355
▁தட்பவெப்ப	-11.3356
டபிள்யு	-11.3356
$	-11.3358
▁நவக்கிரக	-11.3385
▁நீர்ப்பாசன	-11.3385
▁ஹாலிவுட்	-11.3385
▁நாகரீக	-11.3385
▁தொன்மையான	-11.3385
ச்சென்ற	-11.339
▁எதிர்பாராத	-11.3414
▁இருவருக்கும்	-11.3418
▁நியமனம்	-11.3419
▁பெருமாள	-11.3421
▁ஒப்படைத்த	-11.3423
▁மதிப்பிடப்பட்ட	-11.3438
▁கூகுள்	-11.3443
▁வேள்வி	-11.3443
▁விரிவடைந்த	-11.3443
▁பிலிம்பேர்	-11.3444
▁அதிகாலை	-11.3444
▁கலப்பின	-11.3444
▁மன்னிப்பு	-11.3445
▁ஓராண்டு	-11.3447
▁டிரான்ஸ்	-11.3448
▁யாத்திரை	-11.345
மாட்டார்	-11.3452
▁அக்கட்சி	-11.3473
▁தொழிலதிபர	-11.3474
▁காப்பீட்டு	-11.3475
▁அடமான	-11.3476
▁நடராச	-11.348
▁சீடர	-11.3491
World	-11.3502
▁அமீரக	-11.3502
▁நாற்பது	-11.3503
களுக்கிடையில்	-11.3504
▁சரணடைந்த	-11.3517
க்கொள்கை	-11.3526
Tamil	-11.3532
▁ஈரானிய	-11.3532
வேதியியல்	-11.3536
▁ஈடுபட்டிருந்த	-11.3546
▁கார்த்திக்	-11.3548
▁பாபநாசம்	-11.3562
▁மிகச்சிறிய	-11.3562
▁உரைநடை	-11.3562
▁திசைவேக	-11.3566
▁இதேபோல	-11.3567
▁எத்தனால	-11.357
Indian	-11.3575
ெல்லை	-11.358
▁கிடந்த	-11.3582
புகழ்	-11.3583
▁from	-11.3592
▁துறவற	-11.3592
▁நிஷாதம்	-11.3592
▁வால்வெள்ளி	-11.3592
▁பன்னிரு	-11.3592
▁புழக்கத்தில	-11.3592
▁புரிதல	-11.3592
▁ஜானகி	-11.3594
ரண்ய	-11.3596
▁போரிட	-11.3604
▁கணக்கிட்ட	-11.3605
▁தடிமன	-11.3612
[[	-11.3621
thumb	-11.3622
▁தாலுகா	-11.3622
கிரிகோரியன்	-11.3622
over	-11.3642
ூடக	-11.3645
▁பெர்லின	-11.3649
▁மத்தேயு	-11.3652
▁நிலைப்புத்தன்மை	-11.3652
▁உக்ரைன	-11.3655
▁அசிரிய	-11.3675
▁முடக்க	-11.3675
▁நீள்வட்ட	-11.3682
▁முன்மொழிந்த	-11.3683
கட்டமைப்ப	-11.3684
▁பல்கலைகழக	-11.3712
▁இன்றளவும்	-11.3712
▁ஊக்குவிப்ப	-11.3712
▁ஒப்பீட்டளவில்	-11.3712
▁சொல்வத	-11.3715
2007	-11.3715
▁அழுக	-11.3721
▁நிர்வகித்த	-11.3742
▁அபிஷேக	-11.3742
▁அர்ப்பணிக்க	-11.3743
ிராத	-11.3754
கணினி	-11.3762
▁என்பவன	-11.3771
▁கம்போடியா	-11.3773
▁ஏவூர்தி	-11.3773
▁சதுஸ்ர	-11.3774
▁மின்னூட்ட	-11.3777
பழைய	-11.3785
▁கதிர்வீச்ச	-11.3791
▁சோதிக்க	-11.38
▁திருமுழுக்கு	-11.3803
▁அந்நிய	-11.3803
▁உபகரணங்கள	-11.382
மதிப்பீட்ட	-11.3821
▁மணிமேகலை	-11.3834
▁பதினாறு	-11.3834
▁செங்கோண	-11.3834
▁உடம்ப	-11.3853
▁சிக்கலெண்	-11.3854
ப்பெட்டி	-11.3867
▁தடுத்த	-11.3892
▁விண்மீன	-11.3893
▁இதிகாச	-11.3895
▁தொழிற்சங்க	-11.3897
▁ஆயுள்	-11.3898
▁படுகை	-11.3906
▁இலையுதிர்	-11.3926
▁கூகிள்	-11.3926
▁சௌந்தர	-11.3944
ப்பழக்க	-11.3944
▁எதிர்க்கட்சி	-11.3957
▁தேர்தலுக்கு	-11.3957
▁சக்கரவர்த்தி	-11.3957
▁யோசனை	-11.3957
▁தெலுங்கானா	-11.3957
▁இல்லாமல	-11.3983
▁அடைவத	-11.3997
▁சாகச	-11.3999
▁மராத்தி	-11.401
▁முயல	-11.4017
▁சனாதிபதி	-11.4019
▁ரிஷபம்	-11.4019
▁ஒரேயொரு	-11.4019
▁நாடோடி	-11.4019
▁இவரால்	-11.402
▁சுற்றுச்சூழல	-11.402
▁குலசேகர	-11.4021
▁நன்னீர்	-11.4021
▁பிரித்தானியாவ	-11.4033
▁லாகூர	-11.4048
▁திராட்சை	-11.405
▁திருவிதாங்கூர	-11.405
▁மேற்கூறிய	-11.405
▁எரிவாயு	-11.4051
▁எழுந்தருளி	-11.4051
▁பிரதிபலிப்ப	-11.4051
▁புழுக்கள	-11.4056
▁வீரபாண்டி	-11.4078
▁வெளியிட்டுள்ளார	-11.4078
▁மும்ம	-11.4079
▁பரிவர்த்தனை	-11.4082
▁அமோனியம்	-11.4082
▁ஒலிவாங்கி	-11.4082
▁இசைக்கலைஞர	-11.4082
ஐதராக்சி	-11.4083
நம்பிக்கை	-11.409
▁குழம்ப	-11.4104
▁நட்ப	-11.4131
▁தெய்வானை	-11.4145
▁கயிறு	-11.4145
ந்தோறும்	-11.4147
▁கணக்கீட்ட	-11.415
▁பிற்பகுதி	-11.415
▁பங்களித்த	-11.4154
குர்ஆன	-11.4156
▁எனுமிடத்தில்	-11.4176
▁வீச்சாளர	-11.4194
▁விவரிப்ப	-11.4199
▁புலனாய்வு	-11.4208
▁சீர்காழி	-11.424
நாயக்கன்பட்டி	-11.424
▁பவுண்டு	-11.424
சிறந்த	-11.4242
▁பரப்பளவ	-11.4242
ாம்பாள்	-11.4264
ுகிறோம்	-11.4265
▁வருடாந்திர	-11.4272
▁வெளியுறவு	-11.4272
▁பதினைந்து	-11.4272
▁சலுகை	-11.4272
▁இந்தோனேசிய	-11.428
▁சாதியினர	-11.4302
▁மரணமடைந்தார்	-11.4304
▁முழுவதையும்	-11.4304
▁இப்பூங்கா	-11.4304
▁ஆபிரகாம	-11.4304
▁வைத்திருப்பத	-11.4312
மீத்தேன	-11.432
▁வெங்கடேச	-11.4324
William	-11.4336
▁விமர்சிக்க	-11.4336
▁நைட்ரேட்டு	-11.4336
▁அடுத்தபடியாக	-11.4336
▁மலையக	-11.4363
▁காலக்கட்டத்தில்	-11.4368
▁தேவையில்லை	-11.4369
▁காளான்	-11.4369
▁சந்தர்ப்பங்களில	-11.4379
சமூக	-11.4391
▁நடாத்த	-11.44
▁அனைத்திந்திய	-11.4401
▁ஆளுநர	-11.4407
ுறுதி	-11.4411
▁பவுல	-11.4429
தற்கென	-11.4433
▁பௌர்ணமி	-11.4433
▁மன்னார்குடி	-11.4433
▁சமுத்திர	-11.4434
▁முன்னுரை	-11.4434
▁இயக்குநீர்	-11.4466
▁சிறைச்சாலை	-11.4467
▁நீரினால	-11.4496
▁வலைப்பின்னல	-11.4499
▁புண்ணிய	-11.4499
ுறிப்பிடத்தகுந்த	-11.4499
▁உருவகப்படுத்த	-11.4501
Comp	-11.4525
▁செங்குத்தாக	-11.4531
ிணைய	-11.455
குறியீட	-11.4563
▁ஒன்பதாவது	-11.4564
▁பெருங்கோவில்	-11.4564
▁ஆர்க்டிக்	-11.4565
▁ஈஸ்வர	-11.458
▁கொழுப்ப	-11.4582
▁செழிப்ப	-11.4594
▁சட்டப்பேரவை	-11.4597
▁நிரூபித்த	-11.4597
▁அமோனியா	-11.4597
▁தரப்பினர	-11.4603
▁வேங்கட	-11.4608
▁என்னவென்றால்	-11.463
▁திருவையாறு	-11.463
▁நீரிழிவு	-11.463
▁பொருண்மை	-11.463
▁இடதுசாரி	-11.4632
▁எளிமை	-11.464
▁புனைப்பெயர	-11.4646
▁மாரடைப்ப	-11.4664
▁ஆதீன	-11.4664
▁யுரேனியம்	-11.4664
▁புதுப்பித்த	-11.4672
▁காவல்துறையினர	-11.468
▁தட்ப	-11.468
▁லிமிடெட்	-11.4697
▁சுழலும்	-11.4697
▁மதுராந்தக	-11.473
▁வாசிங்டன்	-11.473
▁ஊக்குவித்த	-11.473
முக்கியத்துவத்தை	-11.474
“	-11.7347
‘	-11.8555
