<unk>	0
<s>	0
</s>	0
.	-2.9452
,	-3.63488
亇	-4.51679
▁	-4.75384
令	-4.92988
五	-4.95568
仠	-4.97691
亢	-5.06495
亖	-5.23308
伺	-5.27646
)	-5.34504
▁(	-5.37457
▁云互亇	-5.37941
▁仈亭	-5.45125
予亐	-5.46165
亟	-5.55777
▁"	-5.68652
"	-5.73503
▁亓	-5.78056
予	-5.8041
▁价佛	-5.81602
于	-5.85297
伧亖	-5.863
仡	-5.87401
仇	-5.92287
仜	-5.96774
▁价	-5.99144
-	-6.03154
▁仦	-6.03294
仌亖	-6.03445
了	-6.04663
亾	-6.1157
些	-6.11624
▁倧仱俔	-6.13551
▁价于	-6.16372
亏亐	-6.16722
亳	-6.18437
伧五	-6.18894
亃	-6.22586
▁予	-6.22678
▁仦仾	-6.24195
▁二亼	-6.27615
:	-6.28684
▁亅	-6.30151
▁仦亪亇	-6.30424
亣	-6.32155
伈	-6.32737
▁井产	-6.33028
▁亷	-6.3352
仕亇	-6.36044
亝	-6.37
云	-6.3732
仅	-6.3826
▁仦亇	-6.39006
会	-6.40454
仱	-6.41397
▁井	-6.44691
▁付	-6.44888
仌五	-6.45063
仄	-6.45471
亜	-6.46586
▁伇	-6.49305
▁二	-6.50545
佘	-6.50617
▁二亍于	-6.51126
仓	-6.52023
予亚	-6.52172
人	-6.52919
仉	-6.53349
▁亅仄	-6.53975
佃	-6.53994
亙	-6.54287
予什亖	-6.55171
▁亓仹于	-6.55284
今	-6.56523
亷	-6.5683
仮	-6.5745
▁仉	-6.57748
亊	-6.58127
亅	-6.59816
▁井产于	-6.59851
亭	-6.60525
▁价些伺	-6.611
仯	-6.61296
亱	-6.61783
▁仧	-6.63144
▁云了亐	-6.6465
仳	-6.64658
仡亇	-6.64759
▁二仿	-6.66336
▁价亭伟	-6.6636
亴	-6.67209
仮予	-6.67423
亗	-6.67744
侫	-6.68398
伂	-6.68941
▁亃	-6.69969
▁云	-6.7005
▁亴	-6.71169
事	-6.71378
伇	-6.71616
交	-6.72765
介	-6.73457
亹	-6.73837
佛	-6.74585
仦亇	-6.74864
▁亂	-6.7524
▁价佇亟	-6.75797
▁亞	-6.75892
亿亐	-6.76821
▁("	-6.77125
亥	-6.77442
▁亂亃亖	-6.77447
亻	-6.78338
仂	-6.8229
▁二仇	-6.82861
▁仁	-6.83831
争	-6.83871
▁仮	-6.8412
佶	-6.85262
伡	-6.85754
仅予	-6.85777
伧	-6.86205
▁伲	-6.89422
▁今	-6.89558
▁亽	-6.89849
亪	-6.90639
▁二伖亇	-6.91975
仮仇	-6.92633
傱	-6.93139
仌	-6.93373
▁伲亼	-6.93584
予什五	-6.93661
付	-6.94001
些伺	-6.94562
▁价亭	-6.94615
▁7	-6.94789
伂亇	-6.95402
▁侍伧亖	-6.99938
亩	-7.00515
仉五	-7.00703
▁亴仄	-7.00986
亘	-7.01154
▁佖	-7.01586
▁亪	-7.01778
▁亩	-7.01801
亨	-7.01861
份	-7.03386
▁仵伎	-7.03392
▁亓亘伟产	-7.03449
▁仢亰亇	-7.04074
伟	-7.04099
什	-7.04615
▁侍	-7.04651
仉亖	-7.05783
亏什亖	-7.06631
仧	-7.07645
亐	-7.09419
亰亇	-7.11154
▁亻	-7.11221
仇伺	-7.11367
仆	-7.11594
▁-	-7.11717
▁亓些伺	-7.12681
▁价亖	-7.13016
▁18	-7.13479
▁任伿	-7.13599
▁仢	-7.13709
▁些介	-7.14902
s	-7.16229
仁	-7.16589
仏	-7.17601
▁仍	-7.18925
▁亮	-7.19132
▁侫	-7.19783
仅仇	-7.20727
享	-7.21637
仌侀	-7.23804
▁仦仼亖	-7.23925
亾五	-7.24178
;	-7.25034
伡伺	-7.26939
▁亓亘伟产于	-7.27887
亏亚	-7.28349
亸	-7.2864
▁井产仇	-7.29682
▁价俌伧亖	-7.30059
),	-7.30568
予伽亇	-7.30632
亂亇	-7.30783
▁云亼	-7.31167
▁价亃五	-7.31501
▁任仾	-7.31855
▁亣	-7.31936
▁些	-7.32338
▁仧亵伺	-7.32694
仺	-7.32756
亏	-7.33122
仢	-7.34571
伵	-7.35019
e	-7.35412
▁伕	-7.35478
伮	-7.35515
亩予	-7.36228
亹亗	-7.36325
伆	-7.36708
▁价亭仡亇	-7.38402
仯五	-7.39065
▁仃仄亇	-7.39468
众	-7.39507
伨	-7.40776
▁住优	-7.41145
佦	-7.42383
▁仮些亗亇	-7.42667
▁仵亪亣仡亇	-7.42915
▁仦伡亖	-7.43562
伄	-7.43632
▁1	-7.43666
▁佰亭亇	-7.43886
")	-7.44397
亓	-7.44468
些于	-7.44671
▁任	-7.44827
▁伃	-7.44936
▁仦亻亟	-7.45813
▁亃仇于	-7.45825
侍	-7.45998
仒	-7.46011
▁亜	-7.46597
▁价亳仾	-7.47535
伿	-7.47702
▁仮些亗仌亖	-7.48213
▁亂亨亟	-7.48615
▁2011	-7.49382
伎	-7.49469
▁交	-7.4975
▁亓亃五	-7.501
佥	-7.50151
▁仐事	-7.5027
▁些仆侕	-7.50274
▁侲	-7.51681
▁仈	-7.51976
▁亓佛	-7.52029
▁佽	-7.52091
亻仏于	-7.52425
仭	-7.5288
亭亇	-7.53568
优	-7.53881
作	-7.53925
侪	-7.5397
▁亣亭	-7.54181
位	-7.54485
互	-7.54543
▁伲于	-7.54878
▁佢	-7.54998
仕	-7.55562
伉	-7.55965
价	-7.56134
亦	-7.56436
▁2	-7.56469
▁价伟	-7.56659
▁侼	-7.57378
仼	-7.57622
▁亷仄	-7.58064
▁3	-7.58068
伅	-7.581
亂	-7.58152
仾	-7.58298
仞	-7.58599
▁任仾产于	-7.58849
倿	-7.59852
'	-7.60087
侘	-7.61004
▁亃交僴人	-7.61255
▁仦今伺	-7.61899
▁佭	-7.62606
▁价佃	-7.62652
予伽仡	-7.63009
▁价俌伧仓亖	-7.63034
▁亂亡	-7.63568
亹亥	-7.6453
▁亓于	-7.64565
▁住亝	-7.64647
▁于人伨亗令	-7.64747
侐	-7.65181
了亐	-7.65522
%	-7.65522
亊五	-7.65712
S	-7.66236
▁佡	-7.66306
▁5	-7.66358
▁倧	-7.66571
▁亅亪亣	-7.66741
佉	-7.67122
▁于	-7.67163
▁些伎	-7.67195
▁亮侻亐	-7.67393
▁佰	-7.67425
▁亮亾亟	-7.68021
▁二仿亇	-7.68059
▁侈亴亟	-7.68502
▁亃交侃	-7.68595
亹人亇	-7.68628
仱予	-7.69042
产	-7.69059
▁亓些亳于	-7.69241
仓亖	-7.69521
▁仈仿	-7.6992
▁仫	-7.6996
亃亖	-7.70273
亹亗于	-7.71279
亡	-7.71435
亾亟	-7.71482
(	-7.71574
亏什五	-7.72963
▁份	-7.73368
C	-7.73547
▁伇亗云亼亢	-7.74281
使	-7.743
▁亓亳侫	-7.74763
▁份仾亇	-7.74844
▁交予伂亇	-7.75066
似	-7.75122
▁仐	-7.75214
▁亂亃佁	-7.75334
o	-7.75336
y	-7.75495
▁价佉	-7.75823
▁仃仿	-7.76255
▁井产仇伺	-7.76585
亚	-7.76788
▁修	-7.76811
▁6	-7.77455
伥	-7.77926
▁伎	-7.78078
二	-7.78083
▁4	-7.78207
▁仧仏	-7.79314
仛	-7.79672
仟	-7.79697
▁仱	-7.7975
▁佡伥	-7.79802
▁价亭佛	-7.79939
价亖	-7.80061
佇	-7.801
俄	-7.80454
亰	-7.81063
▁予侚	-7.81332
▁亅亜	-7.81358
▁10	-7.81615
▁仧亾	-7.82192
▁亓众	-7.8282
仓五	-7.82982
亽	-7.83228
伡亖	-7.83337
▁亞侶	-7.83359
▁佂什	-7.83399
些亿亐	-7.83539
a	-7.83796
▁亅争亟亖	-7.83859
仮亪亇	-7.8395
n	-7.84111
A	-7.84127
▁予亭	-7.84359
▁佂	-7.84651
亹人亻仏于	-7.84832
▁亃交僴争亖	-7.85309
亱亇	-7.85445
亿什五	-7.85928
▁云了仆佃亢	-7.85961
▁亓侲亾了	-7.86087
▁亓亣予	-7.86468
▁交予	-7.86641
M	-7.86798
▁亓亜	-7.8686
▁亓佃	-7.87095
▁二伐亇	-7.87222
伅伺	-7.87518
▁侈	-7.87962
亭仡	-7.88222
▁倧亾亖	-7.88308
▁亃予些亖	-7.88401
▁2015	-7.88402
▁仦侻亐	-7.88956
▁价伥	-7.89009
▁价亭佛于	-7.89255
al	-7.89267
▁予仄伟	-7.89278
▁亞伤	-7.89588
俌	-7.90065
伕	-7.90481
伦	-7.90833
▁京	-7.91085
仦	-7.91421
/	-7.91678
▁亃交僴争五	-7.91999
仅亪亇	-7.9223
予亚仕亇	-7.9243
▁云仯亃	-7.9243
▁佞	-7.92568
▁价些伫亖	-7.92801
▁价亣亖	-7.92902
P	-7.92985
▁17	-7.93066
▁'	-7.93673
▁15	-7.94257
▁伕亣亟	-7.94401
▁仮亃亇	-7.94416
▁亮仒	-7.94706
ar	-7.94811
▁亅传仺	-7.95177
▁仐仄	-7.95181
▁住亝亇	-7.95379
▁予亸偼人伮亍亜	-7.95399
▁伏	-7.95675
伊	-7.9603
伔	-7.96433
侀	-7.9663
▁仵	-7.96683
▁19	-7.96726
亏伽亇	-7.96755
▁仦仺	-7.9693
▁京于今予	-7.97085
▁仫们	-7.97119
▁云事	-7.97385
▁亮亟伺	-7.97659
▁亃仯	-7.97891
▁12	-7.97959
侸	-7.98233
▁予亥伨争亖	-7.98595
▁8	-7.98599
",	-7.98863
i	-7.99031
予亚仠	-7.99115
▁侩	-7.99342
亩亖	-7.99516
伫	-7.99598
佋亐	-7.99716
仍	-7.99743
▁亅众	-7.99817
仱仇	-8.00037
▁京于	-8.00078
▁仫们于	-8.00355
侜	-8.00408
伵仇	-8.00511
亹亊	-8.00754
▁亓亘亙	-8.0094
▁仸	-8.01196
▁16	-8.01417
▁价些亿什亖	-8.0155
▁侍伧亱亪亇	-8.01566
2	-8.01713
亟伺	-8.01946
▁价亊	-8.01974
"),	-8.02016
▁亅享	-8.0213
▁亮亭	-8.02758
▁仨仩仪仜	-8.02941
▁佂伫	-8.03221
倖	-8.03546
仿	-8.03981
▁予亊	-8.04176
▁亃亳	-8.04265
▁佃	-8.04433
▁些伎伨争亖	-8.04876
伧亰亇	-8.05065
▁于亡伧五	-8.05095
▁仐們亻了亹人亻仏于	-8.05123
▁亃五	-8.05982
亟亇	-8.05995
▁亓仆伂	-8.06131
亻亼仇	-8.06142
▁亣介亹亊	-8.06218
予亇	-8.06298
侈	-8.06445
▁仃	-8.06793
▁价些亳于	-8.06807
▁亳	-8.06828
er	-8.06919
▁亓仿	-8.06994
▁亓仏仐事亟会亡伧	-8.07024
▁侼伺	-8.07254
了亹亗	-8.07324
an	-8.07375
▁仈亭亷仄	-8.0748
亹人亻亼仇	-8.07637
u	-8.07856
t	-8.07945
▁仧仏亪	-8.08002
▁仧亳	-8.08063
亟亖	-8.08226
亞	-8.08621
3	-8.08735
▁井仺伮仇亿亚	-8.08829
▁9	-8.089
▁亅侏	-8.08979
▁亓些亿亐	-8.08984
▁侬侃	-8.09196
▁伋	-8.09202
伵予	-8.09227
▁亣亭俌伧亖	-8.0928
俟	-8.09288
▁侈俕	-8.09674
▁价仄偢	-8.10277
亨仏于	-8.10391
▁佳	-8.10604
亾亖	-8.10672
▁仦倌	-8.10684
佬	-8.10729
伈仠	-8.10801
▁些佛	-8.10882
▁井仄予	-8.10886
c	-8.10912
俽	-8.10926
▁价倖	-8.10992
些亃侀	-8.11058
▁亅亪亣伧亖	-8.11224
亮	-8.1131
▁仵亊侑	-8.11346
▁侬僑伿	-8.11359
r	-8.1156
▁仦俔	-8.11581
▁倧亳予	-8.11711
▁佧	-8.11955
▁伱	-8.12091
亹亥产于	-8.12233
偞	-8.12396
▁些优	-8.12509
▁亅亣	-8.12785
▁S	-8.12848
仅仇于	-8.12894
▁伇仃予	-8.1297
倐	-8.13647
▁亷亳亸仮予	-8.13998
会仡	-8.14054
▁仵亪了亹亥产于	-8.14081
▁仵亪亣予亚	-8.14167
亟于	-8.14311
仕亊五	-8.14595
▁Gram	-8.147
▁侈僧人亨亼仇伺	-8.14737
予亶予	-8.14808
佝	-8.14814
▁仍予亳	-8.14959
▁Panchayat	-8.14982
▁亴副亿什	-8.15006
▁倧仱俔伧亖	-8.15176
▁价佇仅仉五	-8.1518
▁亃亳仉亍亜	-8.15253
E	-8.1536
仅亖	-8.1546
▁仈什	-8.15526
▁仝	-8.15585
▁云仒	-8.15769
▁亷仄仌亖	-8.15882
便	-8.15956
▁仮仐仄	-8.15969
▁予事	-8.162
▁价佇仅	-8.16369
▁仈伭亭	-8.1676
▁俸	-8.17333
▁些作亳仌亖	-8.1747
伓亗亩亪亇	-8.17762
▁亪伄	-8.17861
仐事	-8.18037
▁亩五	-8.18263
▁亪仛	-8.1843
▁亻仱云	-8.18565
仌亰亇	-8.18601
▁井仙仌	-8.18693
▁亴仺	-8.18877
▁亽倈	-8.18988
▁亓仂会	-8.19294
D	-8.1947
▁付亊	-8.19727
仙	-8.19849
亏伽仡	-8.19957
▁亅亳侐介	-8.19969
▁些亊	-8.20037
▁仍亊亨亼于	-8.20319
▁偓	-8.20333
侖	-8.20721
▁C	-8.20921
侲	-8.21416
T	-8.21447
▁伃于	-8.21485
▁仧五	-8.2149
亵	-8.21573
▁于倖	-8.2191
▁11	-8.22089
▁亅伫	-8.22136
▁20	-8.22424
▁些仆	-8.22442
▁云亥仢	-8.22622
▁亞偮	-8.22763
倀	-8.22855
▁亪亡	-8.23046
▁仵亪亣	-8.23309
佂	-8.23327
▁伇亗	-8.23365
佽	-8.23492
伐	-8.23501
4	-8.23591
b	-8.2376
俔	-8.23896
▁亴仏佛	-8.23933
▁亅佼亍亩亇	-8.24169
了亇	-8.24301
伧仓亭伟	-8.24613
▁14	-8.24633
▁亓伔亃	-8.25038
m	-8.25137
▁二仳	-8.25173
▁云亭会些	-8.2529
亾仅	-8.25515
侰	-8.25552
余亜亟	-8.25923
▁亓些	-8.26115
R	-8.26309
伲	-8.26746
以	-8.26929
亝亖	-8.27111
仓亭伟	-8.27178
B	-8.27209
傊	-8.27282
仯亟	-8.27291
N	-8.27403
伈令	-8.27461
亿亚	-8.27617
▁亃事	-8.28069
▁予俔	-8.28152
▁仁们	-8.28353
▁13	-8.28443
▁价亃伡亖	-8.28874
促	-8.29394
▁亽亐	-8.29483
▁亓亘	-8.29541
▁俍	-8.29558
俧	-8.30203
伴	-8.30219
▁亴伄亟	-8.30369
▁侬	-8.30428
k	-8.30467
亂亡	-8.30641
伐亇	-8.30817
仹	-8.30935
亶	-8.30997
]]	-8.314
▁偫	-8.31531
en	-8.31548
00	-8.316
仮仇于	-8.31718
偃	-8.31796
享亟	-8.31839
▁仉亊	-8.31847
▁伃仾亇	-8.31893
▁亮亟	-8.31978
▁侈佃	-8.32115
▁仉仂	-8.32233
▁亓亳伇	-8.325
▁側	-8.32543
▁亮仩伺	-8.32591
▁价亭伮伐亇	-8.33035
俸	-8.33218
▁仵亊	-8.33397
▁俖	-8.334
▁价仇	-8.33468
▁予亦	-8.33649
亹于	-8.33879
▁佂什些佛	-8.33947
p	-8.33965
了亹亗于	-8.33979
▁亅伫亟	-8.34069
▁仢侀	-8.34421
▁份事	-8.34485
些五	-8.34589
d	-8.34701
▁P	-8.34703
▁佭亨亟	-8.3474
▁A	-8.34767
▁价亦	-8.34881
▁亅亊	-8.35072
井	-8.35251
仄亇	-8.35371
佚	-8.3548
▁仈侘	-8.35503
▁儝	-8.35603
亊亇	-8.35633
1	-8.35656
▁价亟了	-8.35721
am	-8.35722
▁亱	-8.35768
▁亓亘伨亖	-8.36059
俬	-8.36083
O	-8.36147
仉佴	-8.36155
▁些众予	-8.36302
▁亓予	-8.3632
側	-8.36501
亰仡	-8.36579
仌亟	-8.36621
亪亇	-8.36646
▁些亭亇	-8.36692
▁亪仞倾	-8.36708
伀	-8.37017
债	-8.37044
▁仐仺些仇	-8.37098
I	-8.37381
▁亓仏似些仄伺	-8.37545
▁井亭今了	-8.3755
▁仮些亗	-8.37663
伈仕亇	-8.37928
偓	-8.38104
▁伲争予什亖	-8.3815
in	-8.38155
▁井亃仉	-8.38174
▁云亳	-8.38252
▁亻仞仡	-8.38769
亳亇	-8.38772
▁[[	-8.3911
今予	-8.39275
▁佤亳	-8.39574
▁伇云	-8.39586
▁亂亜	-8.3971
h	-8.39879
▁信	-8.3993
▁亓侈	-8.39981
们	-8.39986
亩亪亇	-8.40034
▁仧仏亙	-8.40092
g	-8.40211
▁仸亜亟	-8.40377
▁于亡	-8.40436
▁云仺	-8.40463
仌仓亭伟	-8.40595
▁佤	-8.40774
▁仍享亮仺亻仏于	-8.40813
▁二人会	-8.40833
▁仅	-8.40851
▁价佴	-8.40943
会亊五	-8.40986
▁亷亸	-8.40989
▁B	-8.41042
▁亴仏亙	-8.41141
亻亼于	-8.41416
▁仐仏	-8.41477
亍	-8.41625
仯亖	-8.41791
予亚令	-8.41928
伮亖	-8.41943
▁些亜些	-8.4208
▁二亍些伺	-8.42181
値	-8.42767
▁亅亟亍人仌	-8.42848
▁亓伪	-8.43071
亯	-8.43509
▁价亃仂	-8.43658
伅亖	-8.43911
▁佂亹	-8.43967
▁位	-8.43967
H	-8.44056
們	-8.44071
伕亳亇	-8.44151
产于	-8.44284
▁份仺	-8.4433
▁价亳倐亇	-8.44471
估亐	-8.44599
予什亰亇	-8.44692
伐仡	-8.44874
,000	-8.44945
亝于	-8.44985
俜	-8.45089
▁亮互	-8.45195
▁云仌亟	-8.4525
▁侺	-8.45256
卢	-8.45383
▁井亸伂	-8.45818
5	-8.45909
仉亟	-8.4591
▁亃代于	-8.45932
▁伲争	-8.46
▁仈仓	-8.4631
▁予亭会	-8.46521
些介	-8.46559
F	-8.4664
▁亅佉	-8.46869
仉亟亖	-8.46895
▁仦亻亟佃	-8.46972
▁予僂亾	-8.47044
▁亽人	-8.4718
L	-8.47261
▁些亳	-8.47316
▁亷亸亹人亇	-8.47785
亼	-8.47919
▁亴些	-8.47991
些亳	-8.48388
▁价仄亨亟	-8.4839
亴亟	-8.48415
▁亓伄仉亟亖	-8.4857
▁些亭	-8.48603
▁京亭亐	-8.48711
係	-8.48936
▁云亷	-8.49179
傒	-8.49589
▁of	-8.49765
些亭亇	-8.49822
▁伕仏	-8.49882
俞	-8.49898
亩予伂亇	-8.50096
▁亂亜仕亇	-8.50154
or	-8.50249
▁偃	-8.50327
佘仕亇	-8.50329
仫	-8.50459
▁任产	-8.50517
兹	-8.5139
▁亓仆仉亖	-8.51531
ur	-8.51594
▁云众	-8.51691
l	-8.51814
f	-8.51831
▁M	-8.51966
▁亓亦	-8.52066
俎	-8.52084
on	-8.52286
▁云仇	-8.52293
▁价倖伟	-8.52358
▁井亊	-8.52393
▁亓佉	-8.52456
亿伽仡	-8.52458
▁京亭	-8.52555
▁仮仒	-8.52574
▁保	-8.52629
伇五	-8.52665
▁亓健亅伺	-8.52708
▁仉亚仅亥	-8.52798
▁亪亜	-8.52816
▁伇云亟	-8.5292
佘仠	-8.52977
任	-8.53023
予亶亖	-8.5303
▁仃仄	-8.53201
▁予仄	-8.53208
▁亃倾	-8.53217
▁予亗	-8.53288
▁二亍亦	-8.5341
▁侳	-8.53508
了亹亥	-8.53676
▁亪亭	-8.53855
▁仐事伧亖	-8.53967
▁亮亭亇	-8.54
▁伲仄	-8.54205
伃	-8.54334
▁佔	-8.54435
亹争	-8.5457
▁任伿于	-8.5468
▁亮亭亯亰亇	-8.54714
▁佭伟	-8.54769
亟五	-8.54816
▁仫佃	-8.55196
佷	-8.55339
仐	-8.5544
▁亓享	-8.55476
倇	-8.55553
▁侫仮伺	-8.55587
▁价亭亨仏于	-8.5563
▁二亇	-8.55632
0	-8.55659
▁亽亥	-8.5586
仇亇	-8.5596
▁仈佚亪亇	-8.55973
▁亓亜亹享伧亖	-8.56021
▁仐仺些仇亇	-8.56061
▁亪伄伮亗	-8.5615
▁亓俤五	-8.56306
佐	-8.5635
▁亂亃俶亳	-8.56381
▁亘亟	-8.56586
僜	-8.56622
▁亽争五	-8.56723
争亖	-8.56753
▁亞仿	-8.56774
▁亂亃仓亖	-8.56951
6	-8.57258
▁价亃侀	-8.57304
儀	-8.57399
▁亞佩	-8.57967
▁亓亳亴亟亖	-8.57971
仱亖	-8.58033
▁二仇份	-8.5807
▁亞亟	-8.58088
亿伽亇	-8.582
伲于	-8.58201
▁井仾	-8.58478
倨	-8.58516
20	-8.58716
▁亪人侐	-8.5879
倰	-8.589
▁亂亟侇	-8.58956
▁仍些侐伺	-8.59063
亻佬伺	-8.59122
▁仦予	-8.59349
▁伏亨	-8.59367
▁井伧	-8.59584
▁亞伾	-8.59708
▁亂仛	-8.59726
偛	-8.59764
佝伺	-8.59981
亏亶予	-8.60186
▁仄	-8.602
▁傱	-8.60369
▁仨	-8.6048
▁二仇亹人亇	-8.6057
▁佢伺	-8.60734
▁仧亾伂	-8.60936
▁30	-8.61016
▁仵亊伛	-8.61021
些亦	-8.61109
▁价亊亇	-8.61173
伂仡	-8.61388
▁亷俔	-8.61409
▁倬	-8.61431
佰	-8.61462
▁亓亭	-8.61566
▁亅亗	-8.61694
▁价佇仅仉亖	-8.61736
▁)	-8.61756
円	-8.61842
▁佃会	-8.61882
▁卡	-8.61974
亹人	-8.61979
了亚	-8.62124
亏亚仕亇	-8.62192
▁亓亃侀	-8.62224
仓亟	-8.62317
仉亊	-8.62478
▁仦伺	-8.62668
▁亅亳	-8.62761
▁亊	-8.63002
▁仐予僭	-8.63168
▁二佛	-8.6318
K	-8.63545
▁仦仾予什亖	-8.63585
▁亓众伧五	-8.63724
▁二佴	-8.63764
▁云亡	-8.64301
▁仍人	-8.64323
佈	-8.64352
亿什亖	-8.6441
▁仵优	-8.64452
▁亂予	-8.64631
仉侀	-8.64802
▁任僰	-8.64971
亹人亝	-8.65243
▁侰	-8.65348
▁井亾亘	-8.65413
▁二仯伐亇	-8.65456
伽	-8.65565
▁价亭佝伺	-8.65725
▁亻俄	-8.65801
▁云亃	-8.6586
亃亇	-8.65878
予伽亊五	-8.65897
▁25	-8.65929
▁亅亃仉	-8.65938
▁仕	-8.66107
佺	-8.66177
修	-8.66336
▁二亣	-8.6635
▁云于介	-8.66387
ing	-8.664
at	-8.66468
▁亽亊予	-8.66476
仡令	-8.6659
▁仉仮仇	-8.66685
▁仢亖	-8.66704
▁仸亊	-8.66861
▁偠	-8.66866
x	-8.66899
▁些亭亻仏于	-8.66922
▁亂亡伧亖	-8.6694
le	-8.66976
▁些伟	-8.67009
▁亓亣亖	-8.67046
亲	-8.67254
▁亷仄亇	-8.6726
侂	-8.67266
▁予介	-8.67274
▁仓	-8.67374
▁亅债亥	-8.67382
re	-8.67449
▁亮仒于	-8.67466
亜亟	-8.67734
)"	-8.67758
▁仉亭于	-8.67805
▁价仺亣	-8.6782
倫	-8.67976
▁亅亾	-8.6834
▁伕仯亃	-8.684
▁亪亡佛	-8.68455
▁价仱	-8.68604
▁亅了	-8.68666
佘令	-8.68856
▁仨亖	-8.6904
▁仵优伙伓	-8.69347
▁亃佁	-8.69368
▁付于亷亙	-8.69405
▁伃亗伺	-8.69415
▁伇亏	-8.6942
▁伇于亳	-8.69593
G	-8.69682
仅伺	-8.69771
▁二五	-8.6981
亰产	-8.69901
▁D	-8.69917
▁亓亳	-8.70031
▁亂亃	-8.70034
亨亼仇	-8.70186
▁价佛令	-8.70209
▁仐倹予	-8.7026
▁伕侏	-8.70273
▁予伿	-8.70315
▁仉亣	-8.70353
▁2008	-8.70431
is	-8.70469
▁H	-8.70597
伮五	-8.70759
会些	-8.70844
▁伲争伧亖	-8.70851
▁仦伉仄	-8.70921
▁仍予	-8.71095
▁二仇伂亇	-8.71165
▁亪伄伨予	-8.71226
仇于	-8.71251
侻	-8.71521
会亡	-8.71544
伬于	-8.71661
ri	-8.71804
亹亥产仇	-8.7186
伪	-8.71926
亹亪亣	-8.7209
▁亓亜亹享	-8.72112
▁云亸	-8.72115
▁些优仅予	-8.72184
佛于	-8.72215
▁仭	-8.72226
侣	-8.72385
佮	-8.72387
亃五	-8.725
▁井仺亣	-8.72552
▁价亳倐些于	-8.72763
倱	-8.72824
▁仦仱俵	-8.72889
▁亞仹	-8.72918
▁剏	-8.73042
伈亢	-8.73131
▁亣亭仉做今予	-8.73263
仁交	-8.73376
▁亮値	-8.73453
▁亓伄仉	-8.73504
▁仧亳侈伇	-8.73513
▁云予	-8.73566
▁亞儼侐伺	-8.73702
▁仐亣	-8.73704
▁他	-8.73712
▁"(	-8.73813
亹亜	-8.73924
亏什亰亇	-8.73931
▁仝亾亟	-8.73955
as	-8.73957
▁仐事亟亇	-8.74003
亃亳	-8.74065
▁仧亾伅仯亟	-8.74111
亂予	-8.74117
▁些伎伧亖	-8.74172
仅予伂亇	-8.74217
佤	-8.74223
亏亚仠	-8.74256
▁价伉亱伟	-8.74366
▁亮亭亯亱仇	-8.74389
伝	-8.74452
▁亣仏	-8.74519
亄	-8.74537
▁仸仺	-8.74601
▁亅亪亣予什亖	-8.74913
亭仡亇	-8.75163
▁二仛亣亟	-8.75264
▁京亭亶亩亳	-8.75329
▁仃仄仮予	-8.75576
▁亞俀亇	-8.75831
▁亃事亘	-8.75912
▁亴亻偿	-8.75932
▁僵	-8.75946
▁亂亨亟仮仇	-8.76009
侩	-8.76024
什五	-8.7607
亿亶亖	-8.76163
▁佖仙人亇	-8.76243
_	-8.76258
伊伆	-8.76367
偢	-8.76389
伓	-8.76587
▁(19	-8.76601
▁亮仏	-8.76641
▁亽人予什亖	-8.76646
▁亪仺	-8.76686
些伎	-8.76718
佋亚	-8.76718
些亩予	-8.76824
▁亣亗	-8.7685
佋	-8.76952
▁价亭了	-8.76986
▁于人伨亗	-8.77038
ed	-8.77063
▁任仾俥伺	-8.77098
▁亅伧侇	-8.77175
▁亓人亝	-8.77227
▁云亥亇	-8.77242
▁二仛	-8.77316
▁仐侰	-8.77316
倹	-8.7761
▁仉人亃事	-8.7762
▁些亊仡	-8.77655
偁	-8.77795
▁仦亻亟些仔	-8.77845
▁仧仏佛	-8.781
▁价亊仌亖	-8.78106
▁亃仆	-8.7816
▁仵事伵俔	-8.78273
▁二仛会	-8.7834
▁亩些亳	-8.78366
▁付仄	-8.78398
▁伲亼佃	-8.7853
▁仦亻佦伺	-8.78544
▁亞佺亇	-8.7858
▁予亭仉	-8.7866
▁价亟侽	-8.78742
▁仍予亳亇	-8.78856
▁亅亟亍人亝	-8.78897
亹人仌	-8.79085
仌亭	-8.79103
▁些仞亏	-8.79124
V	-8.79207
10	-8.79485
▁亷亸亹人亻仏于	-8.79487
偳	-8.79493
▁予亊亖	-8.79742
伡予	-8.79966
▁仮亃	-8.79985
7	-8.80039
仝	-8.80062
伈仜	-8.80068
仅仆	-8.80135
▁亾	-8.80281
伱	-8.80333
▁L	-8.80694
▁侭	-8.80795
▁亓伄亟	-8.80846
▁些亳亱互	-8.80918
▁佖偷亖	-8.80963
▁仍亊佛	-8.81032
ol	-8.81157
伧仇	-8.81178
▁于人伨亗伵亳伺	-8.81205
▁交偞亟五	-8.81259
亿	-8.81265
es	-8.81336
▁仧仏佝伺	-8.81378
▁仦仼五	-8.81455
8	-8.81514
佴	-8.81582
亃侀	-8.81597
▁0	-8.81655
仪	-8.81663
亨佬伺	-8.81808
▁仮伄	-8.81867
伞	-8.82087
佘仜	-8.82199
仩	-8.82233
佳	-8.82261
ra	-8.82329
▁仨仩仾	-8.82336
▁伇亗云亼	-8.82354
▁G	-8.8246
伸	-8.82465
▁亃交兕	-8.82544
佁	-8.82705
亱予	-8.82884
▁仍享亮仒	-8.82939
亹亃侀	-8.83318
▁R	-8.83401
▁侍佥	-8.8343
做	-8.83435
▁亅仞	-8.83449
▁今儘	-8.83549
▁伲伺	-8.83886
▁伕亝予	-8.83907
▁21	-8.83984
侃	-8.83993
▁二仇仠	-8.84058
了亹人亇	-8.84113
争五	-8.84154
▁仈亭些伺	-8.84368
仕产	-8.844
佭	-8.84443
▁价仄	-8.84514
▁亅以亟	-8.84575
亹人亻亼于	-8.847
▁24	-8.84742
亱仇	-8.84791
▁亣予亣	-8.84859
▁些佛于	-8.84923
▁2009	-8.85039
▁仉亥	-8.85123
偈	-8.85188
▁仸亗	-8.85221
仮予伂亇	-8.85324
予伺	-8.85408
▁仨仩仼亖	-8.85479
▁井亭	-8.85736
ic	-8.85963
▁亞伤亹亗	-8.86043
▁享	-8.86084
倾	-8.86115
▁侈些	-8.86182
▁二伔	-8.86227
▁伇儋	-8.86494
▁伇偠	-8.8656
|	-8.86626
▁亓亣予仮予	-8.86662
佡	-8.8667
人亇	-8.86714
▁付亣	-8.86724
▁亷亸亹人亻亼仇	-8.86815
▁亃亏亐	-8.86964
▁亷亥	-8.87042
▁亣介亹亊亇	-8.87051
▁予亥	-8.87072
▁亞倰	-8.87136
▁亂亜伂	-8.87146
侏	-8.87184
▁T	-8.87201
▁2010	-8.87451
俤	-8.87466
▁22	-8.87538
]	-8.87754
▁井亟伺	-8.87787
▁价五	-8.87789
▁亃亭	-8.8786
伧亟亖	-8.87888
▁N	-8.87922
來	-8.8794
▁亃交仞予	-8.87951
刻	-8.87998
▁典	-8.8802
▁佰伺	-8.88027
▁亓亭亻亖	-8.88073
亻亼仇伺	-8.88121
佇亳	-8.88448
▁仉人	-8.88463
▁亓些亭享亟	-8.88497
▁修伂	-8.88557
▁F	-8.88613
▁伲争予什亰亇	-8.8867
価	-8.89094
▁付于亷	-8.89106
▁亅亣伂	-8.8918
▁亂五	-8.89192
亩五	-8.89205
▁侫伫	-8.89252
儣	-8.89281
▁予争	-8.89386
▁2007	-8.8952
▁=	-8.89571
▁俲	-8.89583
▁亓亣	-8.89719
▁亃云于	-8.89727
仆伂	-8.89742
▁些仞仡	-8.89776
▁二仛亣	-8.89804
佖	-8.89805
▁亓亊	-8.89998
▁二値	-8.90062
▁予众仯	-8.90241
it	-8.90498
了亹人亻仏于	-8.90532
▁亂亡亹亜	-8.90578
ch	-8.90667
▁井亸	-8.90756
▁亮亟亾亖	-8.90841
us	-8.90887
▁仧仱	-8.90955
▁井介	-8.90999
▁亮仺	-8.9101
俥伺	-8.91048
仃	-8.91215
佔	-8.91295
▁亓交仄	-8.9137
▁仦亗	-8.91422
▁任人	-8.91443
倬	-8.91575
今仇	-8.91614
▁侈亣	-8.91654
▁亃享	-8.91667
仯仅	-8.91729
▁亓些亭仡	-8.91729
估	-8.91904
▁仐事亟	-8.91965
▁亓侲亾伵	-8.91977
▁E	-8.92107
亸亇	-8.92127
▁亂仂	-8.92152
亭亊五	-8.92176
▁价仏	-8.9234
▁二個伴	-8.9235
你	-8.92365
▁亪伄伮亊	-8.92389
▁亘	-8.92535
▁仫侑	-8.92683
▁二佛刞亭	-8.92797
▁仁事	-8.92858
傈	-8.92873
▁仍享亂亡	-8.92883
▁亴亵	-8.93278
▁亓优	-8.93361
佢	-8.93388
il	-8.93557
▁亪伄仡亇	-8.93696
▁伥	-8.93761
▁亞偄伺	-8.93774
▁些亾伥	-8.9387
▁亪伄会	-8.9388
▁伏倿	-8.93974
▁亮亭仮亐	-8.94016
▁价些	-8.94123
▁俸仞	-8.94138
仌亳	-8.94216
▁侩仇	-8.94332
亗亇	-8.94407
▁仍予亾亖	-8.94411
予亳	-8.94454
▁些亾	-8.94514
▁价些亿亐	-8.94545
el	-8.94622
▁2006	-8.94654
▁价享	-8.94839
▁佖亾	-8.94867
伨予	-8.94906
▁住	-8.9499
▁佳侀	-8.95004
▁井亊亖	-8.95032
th	-8.95074
▁云亣亙	-8.95133
▁亓些介	-8.9522
▁伕于	-8.95234
▁价些亭仡	-8.95263
▁23	-8.95379
▁仈佚予	-8.95468
ul	-8.95507
▁亓亘佛	-8.95568
俆	-8.95606
▁亓亩些于	-8.95682
▁亓伄	-8.95689
▁仵优亖	-8.95826
▁佖仙亗	-8.95833
亶予	-8.95841
▁予亭亃亹人亻仏于	-8.95889
伽仡	-8.95939
伂亊五	-8.95994
▁仵事仉亖	-8.96102
▁亂仛些于亇	-8.96107
僣	-8.96126
▁云仂仉	-8.96156
▁仮仐仄仌亖	-8.96159
▁俸亃仂	-8.96219
▁仍仹	-8.96404
▁伕仄	-8.9662
▁伇仱伇亾	-8.967
仸	-8.96859
亅亜	-8.96867
ro	-8.96994
▁些亗	-8.97106
▁仉做	-8.97112
▁价佻仺	-8.97163
▁二亾	-8.97168
▁价亊亏什亖	-8.97441
▁付亊亖	-8.97471
俻	-8.97484
▁井侏亗	-8.97517
俍	-8.97618
▁伲争伧亰亇	-8.9778
▁亓以了亹人亻仏于	-8.97845
19	-8.97865
▁亓事	-8.97875
▁云了什五	-8.97918
▁价仱伪些	-8.97995
倻	-8.98071
▁formula	-8.98202
▁予争亊	-8.98263
亹享	-8.9827
▁亅亭些	-8.98371
▁些亳亱仺	-8.98374
z	-8.98486
▁井仄亻五	-8.98945
亝仇伺	-8.99014
▁予享亴仅予	-8.99122
▁仮亷亸	-8.99253
▁亃仉亳	-8.99331
仱亟	-8.99449
▁亅伧	-8.99593
▁亻亾	-8.99625
予什	-8.99718
亷仄	-8.99737
亨亟	-8.99837
▁予众	-8.99947
▁些伉	-9.00175
▁仅儤亸	-9.00203
▁些亟于	-9.00242
云事	-9.00358
▁亻仱	-9.00394
▁佢伿	-9.00403
依	-9.00404
▁价亳	-9.00423
▁佭仭伮亟	-9.00424
▁I	-9.00452
▁价佛仠	-9.00579
余	-9.00602
伽亇	-9.00783
▁予众亃	-9.00854
傠	-9.00995
傘	-9.0113
▁价享伆	-9.01214
仕产于	-9.01403
▁仦仾予亐	-9.01428
云五	-9.01619
▁井仺伮仇仱予	-9.01658
▁些亜些亘	-9.01686
▁侍仉亖	-9.01722
▁亓俽于	-9.01732
▁仫偋	-9.01758
▁仢仙亗	-9.01926
▁亅亟亍人亝亹人亻仏于	-9.02087
▁价亟	-9.02164
侢	-9.0228
▁些亜	-9.02406
▁亓亃仂	-9.02472
▁二亣仱予	-9.02473
▁仦亜	-9.02474
冫亳伺	-9.02589
▁云亵	-9.03129
▁佳五	-9.03224
亹亗仇	-9.03345
▁仍亊些亜伴	-9.03364
▁伲仱亗	-9.03371
▁亃事些伺	-9.03407
信	-9.03472
▁仮亣亾	-9.03556
▁亓些伫五	-9.03567
▁亅亟	-9.03589
▁云傞亭	-9.03736
▁仍俟伴	-9.03764
▁云仄	-9.03827
僫	-9.04031
了亖	-9.04188
▁仮互	-9.04263
▁亅佉任倐伺	-9.04337
▁仮仐仄仌五	-9.04405
仡亐	-9.04474
些亭	-9.04549
▁the	-9.04647
傫	-9.04769
▁亃交	-9.04771
▁亃仅亾	-9.0486
亝佁	-9.04863
▁偽	-9.04943
侑	-9.04972
st	-9.04981
個	-9.05056
▁些伇亣	-9.0508
亟俤五	-9.05396
▁仮偪	-9.05415
▁亃亏	-9.05421
偗	-9.05463
▁仍亊	-9.05579
▁仮伫	-9.05663
▁仵亪亙	-9.05726
ation	-9.0576
佅	-9.05768
▁亪什	-9.05787
仆亇	-9.05825
亣亖	-9.05964
侳	-9.06054
▁亣亭云亸亇	-9.06056
▁亅佋事了仞予	-9.06104
倛	-9.06221
仱云	-9.0623
▁井亭些	-9.06246
作伺	-9.06296
▁些亭亊	-9.06471
▁亻亚	-9.06563
仄予	-9.0668
▁仐亳	-9.06817
伧仂	-9.06913
▁亓云	-9.0693
▁付侂亹亗	-9.07087
▁仉仆了	-9.07101
▁价仄偢伧五	-9.07173
些仱予	-9.07174
▁今債	-9.07181
▁亽位伽云亼	-9.07428
▁[	-9.07462
▁亽人予亐	-9.07493
仌仂	-9.07526
▁仵亊伉	-9.07532
ad	-9.07544
▁亅亗亇	-9.07586
▁价仏亙	-9.07601
▁亪伄亝	-9.07617
▁价倖亟	-9.07946
▁亓亳亴五	-9.07975
云亖	-9.08115
▁井享	-9.08286
亻佬亿亐	-9.08322
▁2001	-9.08604
▁伕仉	-9.08628
些亩亖	-9.08637
僾	-9.0883
仮予仠	-9.08838
▁K	-9.08862
▁价亳亝	-9.08866
今五	-9.08898
▁亓伐云亣	-9.08969
▁亂债亐	-9.0904
云众	-9.09049
▁仦仾予伽仡	-9.09072
伵亳	-9.0909
▁俖亳	-9.09194
侰伺	-9.09226
▁亣亭仉做	-9.09336
予五	-9.09364
▁二仛亃	-9.09382
▁二亍些	-9.09408
50	-9.09465
▁份予	-9.09478
亹伺	-9.09581
▁伇佇	-9.09722
了什五	-9.09775
▁井亟	-9.0978
予伽仡亇	-9.09947
倉	-9.09977
▁亓亾	-9.10238
▁仉亚仅亥佤亳	-9.1032
▁仦亳侐	-9.10496
▁26	-9.10591
▁2014	-9.10605
▁亣介亹亊仮亪亇	-9.10638
ir	-9.10658
▁仉事	-9.10759
▁仉仙仂	-9.10894
▁仸仏	-9.10997
▁仧冃	-9.11027
▁仉亅亳仡伄亙	-9.11047
俥	-9.11049
▁仮仺	-9.11124
凖	-9.11139
刷伺	-9.11176
了什亖	-9.1121
佑	-9.11229
▁住优伧亖	-9.11439
侾	-9.11476
▁仦仒亖	-9.1148
▁仸伄	-9.11486
▁仵亊了	-9.11659
▁云伿仄	-9.11693
▁1,	-9.11725
儝	-9.1173
凇	-9.11817
▁27	-9.11944
▁佂冃	-9.12052
▁亣伥	-9.12132
吮	-9.12252
▁予亸	-9.12363
▁亓些亿什五	-9.12452
▁亓仆	-9.12579
▁佐	-9.12627
▁儣	-9.12744
▁亓亃伡亖	-9.12756
▁亣亗仌五	-9.12759
▁仵亊伍仇	-9.12844
▁亓人会	-9.12898
些优	-9.12929
▁侫亃佇亳	-9.13
▁100	-9.13094
▁任产仉佴	-9.13107
僤	-9.13205
仱予伂亇	-9.13288
伅五	-9.13291
▁些伎仅仇	-9.13484
▁予仇	-9.13498
▁井俄予	-9.13516
亹作伺	-9.13553
亏亚令	-9.13618
仐仄	-9.13791
▁亻侘了	-9.13838
▁价亭亹亩亖	-9.13988
佮仾	-9.14053
▁价亃	-9.14082
了亱亇	-9.14129
▁予仆	-9.14148
▁你	-9.1419
9	-9.14355
▁佷	-9.14416
会仠	-9.1449
今亪亇	-9.14535
▁任倐伺	-9.14549
▁亴些五	-9.14554
▁侫今交	-9.14728
▁些仞伉	-9.1473
些仇	-9.14765
17	-9.14853
▁价仿	-9.14936
▁28	-9.1503
▁佖仛	-9.15185
伖	-9.15244
些亃佱予	-9.15286
▁价佲	-9.15287
▁仸亥	-9.1534
▁亅亟亍人会	-9.1541
仅仆伺	-9.1554
亴仅	-9.1563
▁今仛亇	-9.15645
傅	-9.15695
▁伇亾	-9.15704
▁亂僃	-9.158
▁今亳	-9.15856
▁仈侅	-9.16145
▁伱仒	-9.16188
▁份亣	-9.16234
▁价倕	-9.16247
仑	-9.16531
▁付亳侐亾亟	-9.1657
▁偁仧	-9.16598
?	-9.16603
▁仫俞	-9.16669
份仾亇	-9.16687
um	-9.16752
et	-9.1678
▁侫互	-9.16817
僛	-9.16838
▁仵亊伺	-9.16853
亊亖	-9.16857
亭伟	-9.17017
▁井享亟	-9.1723
▁侈倘仓亖	-9.17241
▁亜伇侐伺	-9.17287
▁佳亾仉	-9.17405
亹亥产	-9.17448
▁交予侦亾亟	-9.17745
▁价伔亃	-9.17836
▁2012	-9.17934
▁伇仇些亾	-9.18042
兽	-9.18074
▁亻伄亝些	-9.18081
亹亊仉佴	-9.18151
▁仍佤仇	-9.18239
▁免	-9.18302
▁份仼亟	-9.18329
▁价侫	-9.18503
▁付仌亳	-9.18558
▁伇倾	-9.18561
U	-9.18637
▁井俥伺	-9.18691
▁些佝伺	-9.18691
偮	-9.18718
▁佖仒	-9.1873
亩予仠	-9.18928
▁云亳伕	-9.18954
今伺	-9.19072
▁佂亹仐事	-9.19109
▁二仇令	-9.19126
▁亃倚冚伺	-9.19268
佘亢	-9.19287
▁侼仉亟	-9.1931
▁价亟了仌亖	-9.19355
云亳	-9.19376
▁今佌僸	-9.19401
▁俖亳仌亖	-9.19435
佋什亖	-9.19541
▁傃	-9.19642
仌佱仇	-9.19653
▁2005	-9.19731
▁佡似	-9.19734
侦	-9.19831
▁云予五	-9.19851
仉亰亇	-9.19893
▁今僇	-9.19919
▁价亭佛仇	-9.19938
仮五	-9.19995
▁价仱云	-9.20032
v	-9.20044
伌	-9.20068
▁亪伄伮亊亝了	-9.2023
▁伇們侈伇	-9.2024
些伫	-9.20252
▁京于今仇	-9.20271
▁:	-9.20364
▁亃事些	-9.20381
予亶仇	-9.20385
些亃佱仇	-9.20466
▁价亭亨亼仇	-9.20478
▁佧人倚事	-9.20542
▁云以	-9.20622
▁亣介	-9.20714
亅亣	-9.20754
亳侫	-9.20764
停	-9.20768
15	-9.20791
亳亸	-9.20907
亹人会	-9.20923
亻亼	-9.21048
▁仱側	-9.21083
▁佃了	-9.21089
▁仃佚亇	-9.21166
伧仇伺	-9.21168
▁价伆侫	-9.21198
▁亞俙	-9.2123
▁亓亣予仮仇	-9.21323
亻亟	-9.2135
▁W	-9.21484
▁价亭了亱亇	-9.21488
▁予亊伝介	-9.21527
佌伺	-9.21558
▁井伩	-9.21605
▁仐仂	-9.2162
▁仉亚	-9.2163
券	-9.21736
仈	-9.21799
▁p	-9.21856
▁亅亪亣予亐	-9.21882
▁亪亸	-9.21883
▁伏了	-9.21938
▁亂亵伺	-9.22003
▁仉仄佉	-9.22061
佉亇	-9.22078
▁仨仩仼五	-9.22083
▁伋亖	-9.22109
▁仐予	-9.22152
▁二亍	-9.22241
▁井仺亙	-9.22248
▁佂什伆	-9.2234
估亚	-9.22406
侯	-9.2252
!	-9.2252
▁些仞佉	-9.22537
位予	-9.22558
un	-9.22609
▁亞亼	-9.22809
▁今倜	-9.22811
亃事	-9.22854
▁份亣伧亟亖	-9.22883
▁伲亖	-9.23302
▁佂亜	-9.23334
些仔	-9.23436
▁亅人	-9.23571
▁亷佇	-9.23744
仚	-9.23813
▁亪亡今仇	-9.23874
仉亥	-9.23911
▁仦些亸	-9.23918
▁亓什	-9.24007
伍	-9.24169
▁仦亴亾亟伺	-9.24196
▁价仆	-9.24417
伶	-9.24503
▁b	-9.24644
▁伇亗亇	-9.2478
▁亃仄	-9.24802
▁价些亾五	-9.24864
▁侈倘亖	-9.24887
▁2004	-9.24929
▁二亣仱仇	-9.24953
16	-9.25042
什亖	-9.25059
▁井亭今亨	-9.25071
▁亓倖	-9.25117
俕	-9.2518
亩仇	-9.25409
亨亼于	-9.25451
▁亅佋事了仞予仌亖	-9.25464
▁c	-9.25469
予亚亢	-9.25476
伧亭	-9.2558
▁亻亭冊	-9.25596
侀亇	-9.25653
▁仦亩亳	-9.25662
侐争	-9.25666
▁2013	-9.25728
云亏仄亇	-9.25865
▁亃伖享亟	-9.25918
▁仮些亗仌五	-9.25945
▁二亍仇	-9.26017
▁仉伥	-9.26105
▁亃事些仱予	-9.26144
▁仝仞	-9.26199
▁付亊佋亐	-9.26374
亃佱予	-9.26449
▁亅仯	-9.265
亷亳	-9.26509
▁2000	-9.26578
▁伋佛	-9.26651
▁佔五	-9.26654
▁亪亜亟亳侫	-9.26705
偼	-9.26725
仵	-9.26787
刡	-9.26806
▁亓些仔	-9.26834
▁亅亳些亱予	-9.27146
今亃	-9.27191
亅亳	-9.27218
▁任仼亭仡亇	-9.27271
▁亃亳伂	-9.27277
争亟	-9.2728
▁亅亟仴人	-9.27318
偆	-9.27462
30	-9.27516
伄亟	-9.27677
亱仆	-9.27754
▁29	-9.27955
▁付俹	-9.27971
▁亅亾伟介	-9.28079
了亹亥产于	-9.28125
▁价亟佇亳	-9.28172
12	-9.28196
▁井亭今了亹亗	-9.28225
▁s	-9.28262
▁仍亜亝	-9.28308
▁亓亘了	-9.28332
▁价仺亣伧亖	-9.28455
▁伇仪	-9.28504
但	-9.28553
倲	-9.28554
▁些俧予	-9.28665
▁亓亣亷亳	-9.28738
億	-9.28742
▁亽争亖	-9.28825
俒	-9.28883
▁50	-9.2891
▁佰亳	-9.29062
▁亓伄伴	-9.29139
▁价亝伎亟	-9.29214
▁亃交优亖	-9.29257
▁亻享	-9.2928
▁云亭	-9.29282
亹人些于	-9.29374
▁亂亃仓亟	-9.29444
人予亐	-9.29444
▁仉仛	-9.29467
▁仁亩亳亸	-9.2951
▁亅仏佃	-9.29624
▁亓享仅仆	-9.29707
▁亓会亊五	-9.29818
俼	-9.29954
侄	-9.29994
▁亓侲亾伵仉亖	-9.30007
▁京亭侵亐	-9.30038
京	-9.30112
▁亴了	-9.30127
▁伱侚	-9.30131
40	-9.30149
▁仵亊伛享亟	-9.30153
▁亣亭亝倾	-9.30192
件	-9.30342
亨亖	-9.30343
予伽伵仇	-9.30345
▁予仾	-9.30432
▁仉亾	-9.30455
▁伇佇亳	-9.30497
▁予亾云	-9.30499
▁仦伿	-9.3059
▁些亪	-9.30598
▁仮亸些	-9.30716
▁亂亃亱亇	-9.30811
▁二人	-9.30825
偠	-9.30867
▁今予仇	-9.31067
▁二亥	-9.31086
▁劃	-9.31114
▁亃偮	-9.31175
今亖	-9.31254
-19	-9.31307
▁亷争	-9.3131
▁佢仆	-9.31312
▁2016	-9.31326
▁伕予	-9.31516
▁价事	-9.31526
伧亰产	-9.31644
▁亅众仅伫伡伺	-9.31711
ter	-9.31758
云仒	-9.3178
▁亃会些	-9.31796
W	-9.31873
j	-9.31929
▁亓伐	-9.32014
▁亓以了亹人亇	-9.32121
▁亷亳亸	-9.32132
▁仦伴	-9.32147
▁侈佃仅仇	-9.32318
倵	-9.32547
▁任仼亭佛	-9.32693
亣亭	-9.32839
▁40	-9.32935
▁仫侂	-9.32999
▁价亳佥	-9.33008
亾亊亇	-9.33058
仔	-9.33076
亘亙	-9.3312
倘	-9.33166
亹侏	-9.3318
▁予亳	-9.33238
▁价于份	-9.33269
▁价亡	-9.334
亂产	-9.33424
▁仧亜	-9.33512
▁伲仿	-9.33527
亏伽亊五	-9.33547
伱人	-9.33592
仌侀亇	-9.33649
仴	-9.33698
▁些亟	-9.33753
▁亓亡	-9.33757
▁仐亡	-9.33808
▁他以	-9.33829
侚	-9.33925
▁侬僿	-9.3393
▁亅亟亸	-9.34014
▁云了倪伎	-9.34043
▁亓亳仁亏	-9.34069
▁伲仡些亳会	-9.34198
▁仍俯	-9.34216
亴五	-9.34323
侄伺	-9.34377
仅仆亿亐	-9.34379
▁价享伧亖	-9.34511
▁亻伃	-9.34575
▁交亪佛	-9.34681
▁佂傦仺	-9.34741
▁交予令	-9.34825
亳亏	-9.34885
亟仒	-9.34988
▁亂侞仒	-9.35029
伡五	-9.35078
▁亓亣予亇	-9.35136
▁予亭亃	-9.35276
伡亰亇	-9.35428
伇仇	-9.35443
▁予僂亾伧亖	-9.35506
▁仧偷些亾	-9.35562
▁予仉亦	-9.35605
佄亐	-9.3563
▁仝事	-9.35651
住优	-9.35701
于亇	-9.35705
▁交五	-9.35718
▁亅亪亣仅予	-9.35725
=	-9.35842
▁亞伤亹亗于	-9.35868
创	-9.35917
亻亾	-9.35918
li	-9.35985
▁亷亳亸亇	-9.3604
▁予亊伂	-9.36071
▁价了	-9.36071
俩	-9.36088
仮仺	-9.3609
▁侍仉	-9.3624
ha	-9.36245
▁佦	-9.36388
▁仵亪亣伧亖	-9.36478
侐亜	-9.36486
▁二享	-9.36541
▁仍仄	-9.36629
▁伕亝	-9.36648
▁仦亣	-9.36663
些亾五	-9.36751
▁亓仄亪	-9.36759
▁亅予	-9.36776
▁伕予侃	-9.37
▁仮亾亟俤五	-9.37037
▁亷亳众	-9.37084
▁云亭伟	-9.37087
▁仍亜伎	-9.3715
▁仵亊亭伟	-9.37174
▁俠亝	-9.37264
俹	-9.37264
▁亃仅亾了	-9.37317
产仇	-9.37356
▁佳俙	-9.37409
亶仇	-9.37484
佟	-9.37507
▁亃人	-9.37514
▁付侂	-9.37564
▁亅会	-9.37564
亭佛	-9.37709
▁伊	-9.37755
▁亩了	-9.37815
▁and	-9.37845
僽	-9.37864
▁亦	-9.37876
刄	-9.38174
▁仍亊亝	-9.38229
▁二亣从	-9.38362
仉仂	-9.3848
▁亽予	-9.38518
▁予亥介	-9.38535
▁仧亶	-9.38535
os	-9.38538
些仄	-9.38577
▁亅亟亍人亻仏于	-9.38603
▁亓伄伂	-9.38655
18	-9.38675
ent	-9.38729
▁仦些于	-9.38828
▁V	-9.38853
▁亅亾侫	-9.38889
▁偁	-9.38892
▁亷互	-9.38936
▁仉仆仡	-9.38941
la	-9.39019
▁价亊倗仒	-9.39076
▁O	-9.39142
▁仦亴仅	-9.39173
▁仐仺些仇仌五	-9.39232
▁亅仪亟	-9.3928
▁付亦	-9.39385
亅亗	-9.3939
偭	-9.3941
▁井亊五	-9.39473
om	-9.39534
伮亳	-9.39584
ai	-9.39638
▁伎亹伫	-9.39675
值	-9.39687
▁俖亳亇	-9.39691
伎伧亖	-9.39694
▁云亊	-9.39698
▁价佛亢	-9.39745
▁仉亭	-9.39826
亏什	-9.39862
▁亮亟介	-9.39902
▁仍亜伅伺	-9.40088
伐亊五	-9.40121
▁仨佋亐	-9.40172
傱亓	-9.40217
侵	-9.40294
▁亂亵众	-9.40409
▁亃仯云	-9.40417
▁佡使	-9.40427
▁云亣	-9.40548
▁仐予俱	-9.40564
▁价侈	-9.40581
▁伕亾伟	-9.40633
伏	-9.40667
▁亅亟众	-9.40672
偁令	-9.40684
伒	-9.40796
伵仄	-9.40809
些亿亚	-9.40908
▁井伦	-9.40927
▁亅仌亾伎	-9.41005
▁亪仄	-9.41016
▁亃介	-9.41095
▁1990	-9.41115
▁些似仆	-9.41166
▁亓些五	-9.41169
▁些亭亻亼仇	-9.41246
仡仜	-9.41257
侠	-9.41258
▁仉些仁亟	-9.41295
▁仧僃	-9.41321
▁价伖亇	-9.41423
▁亞亟亠亡	-9.41426
仧仏亙	-9.41434
▁仃佚些于	-9.41437
仺亇	-9.41656
▁亣亭云亸	-9.41773
▁仍亊仌	-9.41788
▁侍侎人	-9.41795
▁亓亊倫	-9.41824
ta	-9.41953
▁价伥亟亘	-9.42009
▁亂倾亟	-9.42047
▁二個	-9.4207
仡仛	-9.42072
▁予仯云	-9.42108
借	-9.42129
▁仸伄伡伺	-9.42141
仌佱予	-9.42155
▁亓什了	-9.42164
▁价仏佛	-9.42288
亴亾亟	-9.42306
13	-9.42307
些仆	-9.42359
▁伱亗	-9.42406
▁仦偁令	-9.42418
亜仅	-9.42446
▁31	-9.42456
人会	-9.42474
▁仦仇于	-9.42499
▁仁亃仂	-9.42502
▁仍亊仇	-9.42527
儒	-9.42599
▁仉亽亟予伺	-9.42634
▁井伓亊	-9.42676
▁亅佋事了仞予亇	-9.42692
伇伺	-9.42723
些亿伽仡	-9.42739
仕俥伺	-9.42813
伧亊	-9.42823
▁仝五	-9.42825
▁仵事	-9.42841
▁側仇些亾	-9.42929
伉亟	-9.42955
▁伕仱亸	-9.43009
▁仐仂伂	-9.43014
▁侘	-9.43032
冚	-9.43053
▁云亳亸	-9.43133
▁亣亭些侾云事	-9.4314
▁价仌介亹亊仌亖	-9.43165
▁些亟亣亖	-9.43197
云亇	-9.43199
伧伡亖	-9.43227
▁亓傒	-9.43334
偿	-9.43337
佇亟	-9.43341
▁亃代亦亟	-9.43378
▁亃亪亣	-9.43391
▁佂什仅仇	-9.43444
伳	-9.4361
佱	-9.43666
▁亓仛亝	-9.43693
ot	-9.43733
▁亓以	-9.43741
▁伕亳俔	-9.43832
▁井亭今仡	-9.4401
亭些	-9.44023
▁伕予傧仒	-9.44076
▁侫互亱	-9.44083
些亣佴	-9.44092
id	-9.44248
侼	-9.44285
劃	-9.44285
▁in	-9.4429
产仇伺	-9.44293
▁亪伄僤人	-9.44355
▁仱云	-9.44506
▁亓介	-9.44587
▁些仓	-9.44624
▁仐仺些仇亏亐	-9.44647
伨仇	-9.44685
▁仈仔	-9.44693
傱价	-9.44838
se	-9.44908
▁亓亊佉亇	-9.44911
佛伺	-9.4493
▁今亴	-9.44943
刻五	-9.4496
些亖	-9.45094
亝事	-9.45112
亹亩予	-9.45189
伧伊伆	-9.45203
伔亃	-9.45268
▁亩仡亃	-9.45278
▁亂会	-9.45357
▁京仛于	-9.45447
▁今仕	-9.45503
▁份仾	-9.45513
▁仦伉伊亟	-9.45582
▁亅亪亣予亚	-9.45598
仂令	-9.45632
侬	-9.45765
▁亪仒	-9.4584
▁亣仏五	-9.45847
▁伇亵亣	-9.45873
▁仉仆侐亳	-9.45886
▁亅亣亙	-9.459
▁价佇亟亢	-9.4613
亪亣	-9.46148
予什仓亭伟	-9.46233
▁佤人	-9.46374
▁井亝亳	-9.46377
些亣亖	-9.46393
▁亅享亙	-9.464
▁亽人予什五	-9.46413
▁亓亣亷亾	-9.4651
▁伕仭	-9.46564
亳伇	-9.46622
▁俄	-9.46865
▁些事	-9.46887
▁仉些亾	-9.4691
▁仦予伂亇	-9.46919
▁份仼	-9.4696
佮产	-9.47002
▁侄	-9.47013
▁亴事	-9.47047
予亶亪亇	-9.47114
仌亰产	-9.47169
▁价亃亟	-9.47175
▁予仑仓了	-9.472
侕	-9.47213
僡	-9.47244
▁佽亳仆	-9.4729
11	-9.47304
亩亳	-9.47332
60	-9.47382
些仱	-9.47461
▁仉亻亃亇	-9.47509
俁	-9.47509
▁井伧亾仇	-9.47568
偁仧	-9.47679
▁亓仹	-9.47725
▁仮仒亇	-9.47743
佃仅予	-9.47796
▁仈亹佛	-9.47836
▁予享亴	-9.4784
伣	-9.47899
▁仈亙	-9.47985
▁予傷亥	-9.47997
▁亃亇	-9.48026
吵	-9.48041
▁井亟们	-9.48121
▁亂亃亱些于	-9.4813
伇亇	-9.48152
仂仠	-9.48178
▁亴侪	-9.48185
▁价些介	-9.48221
▁二佚亖	-9.48222
▁仦仕亃	-9.48225
▁仃仄余仺	-9.4823
▁价俽于	-9.48237
▁仦仄	-9.48298
倄	-9.48308
▁亣介亹亊仌亖	-9.48321
▁价俤	-9.48367
仮仒	-9.48401
▁亣偞	-9.48404
▁亅亸	-9.48415
ma	-9.48488
▁倱	-9.48545
▁予俔伧五	-9.48639
▁仦亻亟些伫五	-9.4866
ia	-9.48671
▁亂儓	-9.48671
▁伕仓	-9.4869
▁仦仇	-9.48734
▁倧亊予	-9.48759
▁二仛亃亹亗	-9.48804
亻佬五	-9.48807
▁1980	-9.48832
▁予仞予	-9.48881
佛仇伺	-9.48895
伨亊	-9.48896
亍亜	-9.49072
▁予亣	-9.49154
▁伋偞	-9.49178
▁伋仹	-9.49219
▁亓亭佽	-9.49224
偘	-9.49274
▁亻仱云亇	-9.49298
▁仉亦	-9.49321
佀	-9.49366
偋	-9.49375
▁仈亭亽亐	-9.49388
亽亟予	-9.49389
佮伿	-9.4941
▁亪伄伮人	-9.49468
▁予亊佛	-9.49508
▁仦値	-9.49764
仅予仠	-9.49785
▁亃伉	-9.49792
▁二仛伅仆伺	-9.49797
僙	-9.49828
▁亻享仡亇	-9.49864
▁佳亾	-9.49868
▁J	-9.4988
▁井仄	-9.49881
亥亇	-9.49899
儚	-9.49926
▁价仄偢伧亖	-9.49944
亹位亃	-9.49962
▁亣亭佧传仓	-9.49971
▁予侚亟伄伂	-9.49971
仆伺	-9.49978
▁于亡亂予	-9.50021
w	-9.5007
仡亢	-9.50123
▁仈伀亟	-9.50128
些亃五	-9.50145
▁亴亡	-9.50145
今亣	-9.5024
▁井仏伂	-9.50251
仯亟亇	-9.50282
▁仦亴亾亟	-9.50287
▁佂侏	-9.50363
亹亪亣伧亖	-9.50439
▁付亡	-9.50464
▁仉亻亃	-9.50476
▁亞亟侽	-9.50568
▁仵亊伉亟于	-9.50594
些亣	-9.50654
▁任亜	-9.50673
▁仧佐佑	-9.50795
99	-9.50815
▁任俩	-9.50858
亽亃	-9.50892
会俥伺	-9.50899
▁价亭佝亰亇	-9.5092
亃伺	-9.50923
▁价伔云亖	-9.50947
亿亶	-9.50971
偀	-9.50973
▁他伓	-9.51007
亹亃佱予	-9.51029
▁亷僜伕亳亇	-9.5103
佄	-9.51082
▁京伄	-9.51195
▁伥些	-9.51225
▁亓侲亾伵仉五	-9.51231
▁些亭亻佬伺	-9.51255
些亾	-9.51368
▁伲亾亖	-9.51402
▁亴仏伨予	-9.51442
伧亭佛	-9.5148
▁m	-9.51586
and	-9.51601
亿亶予	-9.51661
住	-9.51718
侫今交	-9.51724
▁佖仙	-9.51743
▁2003	-9.51798
▁亃仅亾亙	-9.51906
倚	-9.5194
▁亽亸亟	-9.51947
▁亓仆佃	-9.52015
冩	-9.52032
▁价些亭享亟	-9.52038
▁佖互	-9.52055
▁佰亳亳侫	-9.52091
倸	-9.52121
▁仁亣	-9.52164
▁亮亾	-9.52246
侉	-9.52246
予亚仜	-9.52281
▁亣亗亇	-9.5229
傋	-9.52378
ag	-9.52437
▁侫亭	-9.52495
伢	-9.52514
▁价佲伎	-9.52518
▁亅亳亙	-9.52559
▁佖值仯亖	-9.52588
亂亜	-9.52606
▁亓亏	-9.5261
俙	-9.52672
▁亓亟仯	-9.52699
▁仦亻亟仇	-9.52752
▁二亍亩亖	-9.52775
▁佖仏伅仞	-9.52775
▁亷亟	-9.52815
▁仐仺亝	-9.52869
▁任人了	-9.52934
僸	-9.52961
僀	-9.52961
▁付仼亟	-9.52989
01	-9.53077
▁仦些伺	-9.53088
倈	-9.53159
二仳	-9.53345
倌	-9.53467
亨亼仇伺	-9.53517
▁价佇	-9.53532
从	-9.53585
▁傴五	-9.53669
▁亅享予亐	-9.53681
仓仅	-9.5371
▁予享	-9.53758
▁些仞亏亹亗于	-9.53804
14	-9.53812
09	-9.53875
▁仦予会	-9.53929
▁仧倔亭仮仺	-9.53947
▁付亖	-9.54035
▁京亭侵亚	-9.54097
內	-9.54097
▁亓亳亴	-9.541
▁佂什伧亊亹亗于	-9.54216
▁亓些亿仆于	-9.5423
▁佡交	-9.54264
▁井亟亳	-9.54304
▁价亭些亭亇	-9.54318
▁俖付仆	-9.54373
▁井亭今了亹亗于	-9.5446
▁亪亣介	-9.54472
▁些亪亙	-9.54584
▁仍倈	-9.54733
伔云亖	-9.5478
▁仉亚今予	-9.54798
▁交了	-9.54826
凟	-9.55002
▁侫仞侇	-9.55071
▁仧仱俆	-9.55224
▁仍亣	-9.5527
▁付予	-9.55273
▁倧伺	-9.55288
▁亅亣亱予	-9.55292
000	-9.55311
▁二仛于	-9.5534
亊伐亇	-9.5541
仛会	-9.5546
▁仧亳亅仄	-9.55465
▁仨仄予	-9.55476
ac	-9.5548
▁亻俄伃亗伺	-9.55485
了亹人亻亼仇	-9.55511
▁伕亾	-9.55556
▁亓亘亣	-9.55573
▁仢亱伩	-9.55611
些佛	-9.55621
凩	-9.55659
07	-9.55719
06	-9.55746
▁伇亂亩亟	-9.55755
▁亣仇	-9.55773
▁任仾产仇	-9.5588
▁价侫亱交亟	-9.55899
▁侫仞	-9.55909
▁亽侵亐	-9.5595
冫亳	-9.56017
▁仍亜予伺	-9.56056
▁60	-9.5607
▁亂亃五	-9.56118
仡亾亟	-9.56138
▁二人会伵作予	-9.56236
▁仉亭亹	-9.56242
▁亅亪亣伈	-9.56426
▁价些伫五	-9.56433
▁亅亟亍人亝亹人亇	-9.56434
▁亅亟仇	-9.56437
25	-9.5658
▁f	-9.56655
▁仍享	-9.56691
▁云亵伺	-9.5677
80	-9.56805
▁予伿伄亟	-9.56879
▁仅仂	-9.57003
仌仇	-9.57018
亣仓亭伟	-9.57052
云亣	-9.57081
▁傴事	-9.57113
▁些亚	-9.57115
仉仓亭伟	-9.57132
▁予优	-9.57149
▁2002	-9.57213
▁任仼亭	-9.57251
俌佥	-9.57344
仌伡亖	-9.57376
▁佰亭伟	-9.57424
▁仁仌亟	-9.57431
▁亓亘仕亇	-9.5744
▁仉亭俟	-9.57447
ate	-9.57494
▁亞亟但人	-9.57497
今倿	-9.57498
49	-9.57501
te	-9.57513
予伽	-9.57532
-1	-9.57643
▁今儾	-9.577
▁亽五	-9.5773
侤	-9.57768
▁亪仞倾予亐	-9.57897
▁仮事	-9.57952
伡亿亐	-9.57956
▁亅促	-9.57969
▁亷亗	-9.57972
na	-9.58
▁仧倖	-9.58015
▁亣亾	-9.58079
▁付亜	-9.58096
▁今仡	-9.58187
予亖	-9.58209
▁今供仓	-9.58235
▁亪伄了	-9.58298
em	-9.58378
▁仍亜	-9.58392
▁亃些	-9.58398
▁井俥	-9.58405
▁价些仔	-9.58409
▁仦伸	-9.5845
▁佂什伧亊	-9.58502
ce	-9.58542
予仄	-9.58565
倅	-9.58673
▁亣仱仉亊	-9.58679
▁俖亳亜仅予	-9.58723
▁井仄予令	-9.5874
▁仵亊伉伡伺	-9.58746
佋伽亇	-9.58802
▁亃仯亹亗	-9.58844
▁亅仄亭亇	-9.58848
▁亓伐伮	-9.58883
▁井仄亻亖	-9.58962
▁佢仆亇	-9.59016
▁井伧亳伪	-9.59025
▁伏仅什	-9.59026
伕亳	-9.59065
▁亃交仞	-9.59067
▁价亭亹于	-9.59088
▁价仞	-9.59126
▁井亙	-9.59135
▁仧亵	-9.59225
▁仦仄亟	-9.59282
些互	-9.59397
亝仇	-9.59447
▁亣仏亘	-9.59475
▁予侐	-9.59521
▁井伓亗	-9.5971
凬	-9.59722
伩	-9.59764
ang	-9.59818
佃仕亇	-9.59839
亗伺	-9.59861
95	-9.59869
▁亞伾于	-9.59874
▁些侢	-9.59899
▁仧亳亅仄仮仇	-9.59968
▁二亖	-9.59991
▁侰亃	-9.60067
▁亂亡仅予	-9.60071
▁仍享亮仺亇	-9.60105
仡亜	-9.6014
亹众	-9.6018
伨人	-9.60236
▁亓些亴亟	-9.6026
ak	-9.60313
▁予仾仧亜	-9.60345
仧五	-9.60383
▁佤亥	-9.60404
▁些亗亇	-9.60419
▁予仞予亇	-9.60444
些亜	-9.60472
▁伕亳亃	-9.60493
▁京伄伧亟亖	-9.60536
▁亅仄伺	-9.60542
傣	-9.60577
俱	-9.60614
偽	-9.60673
▁仈亭伉倖	-9.60766
▁依	-9.60808
佼亊	-9.6086
▁修仉亳	-9.60883
J	-9.60929
伐亐	-9.61054
了亹亥产仇	-9.61063
亹亊亱亇	-9.6108
▁仁伛	-9.61133
X	-9.61285
▁亣亳	-9.61301
▁亷亸亱亇	-9.61317
▁予仇位	-9.61322
傁	-9.61385
▁亞亰会	-9.61387
侴	-9.61481
▁侈仉	-9.61508
俯	-9.61538
仱伇	-9.61575
▁佳亰佉	-9.61588
傍	-9.61664
事仠	-9.6168
▁任事	-9.61691
吞	-9.61818
▁仧亳亩仇	-9.61838
了亹亗仇	-9.61884
▁亅偿	-9.61912
▁亣伇侐伺	-9.61945
介仕亇	-9.62032
▁佖仙亗于	-9.62038
▁仧亳亣	-9.62085
ut	-9.62178
▁价亳伂	-9.62193
些亭仡	-9.6222
予伽亐	-9.62237
▁侼亗	-9.62284
佱仇	-9.62299
▁些佊	-9.62312
予伽伵予	-9.62395
98	-9.62423
▁云了伽仡	-9.62461
亊交亭伟	-9.62465
▁亃交仞伺	-9.62472
▁仍亜予	-9.62476
▁价倖亙	-9.62501
▁井傩伺	-9.62509
▁些优亂亡	-9.62517
▁亓佊	-9.62626
▁亩倿	-9.62676
亙予亐	-9.62718
im	-9.62834
70	-9.6291
▁于众	-9.62914
▁1970	-9.62956
▁保俞仯	-9.62972
▁予亗亘亙	-9.63
▁仐予債	-9.63032
▁亅亟亍人亇	-9.63043
亳予	-9.63085
+	-9.63093
▁佖仂亟	-9.63133
佇亭	-9.63153
85	-9.63167
仍僂伺	-9.63185
▁+	-9.63213
▁伲亼些仔	-9.63221
▁仧倔亭亇	-9.63282
▁予亭亣	-9.63382
▁亅亊仌亖	-9.63432
▁佢亣云亼	-9.63436
吹	-9.63438
▁亓些亿伽仡	-9.6344
▁亮亭亘	-9.63529
▁佧亖	-9.63533
仉人亇	-9.63544
些亿什亖	-9.63692
▁佖仙人	-9.63696
▁云亳亅伪	-9.63697
▁僕仇	-9.63702
佦人	-9.63727
兇	-9.63749
▁价享佂什	-9.63762
▁亅亊亇	-9.63774
▁亣亭伦偠	-9.63803
▁亓亘佛于	-9.63805
仉人	-9.6383
▁价亭佝亖	-9.63844
▁亓亘伟产仇	-9.6391
▁些亜些亇	-9.63931
▁伱伀	-9.63943
伇亖	-9.64013
亭了	-9.64083
▁仧亳使仂	-9.64167
伨仆	-9.64228
▁伇了亳	-9.64249
▁些仹	-9.64273
佋伽仡	-9.64277
亝了	-9.64318
▁亓侠	-9.64398
▁亓亃	-9.64409
▁亣亭亝	-9.64411
▁亂亡亘	-9.64444
仱刄	-9.64495
▁仉亳	-9.645
傏	-9.64585
92	-9.64587
▁亂亜仅于	-9.64593
ay	-9.64709
仕享亟	-9.64714
▁侫佛亳	-9.6476
亹亦	-9.64774
▁交傌亳	-9.64796
今仺	-9.64796
90	-9.64833
亹争亭仡亇	-9.64898
▁付亊佋亚	-9.64938
▁仈亝	-9.64981
▁仦亴亟	-9.65065
偵	-9.65111
伛	-9.65137
▁予俈	-9.65253
▁仧仓	-9.65362
▁价俌	-9.65363
▁亓仄	-9.65385
▁佢仄	-9.65389
▁予亱亲亳	-9.65428
67	-9.65496
伧亱仇	-9.65548
了伽亇	-9.65573
会产于	-9.65578
▁亴些予偢	-9.65587
▁佞仱	-9.65611
▁二佚亰亇	-9.6564
冐	-9.65693
▁佖仙人仌	-9.65716
▁价以	-9.65739
▁价仄了亸	-9.65808
od	-9.65823
91	-9.65829
▁于亡伧亖	-9.65841
▁侩伡	-9.65932
▁份仺亅人	-9.6594
▁今伉	-9.65947
96	-9.66017
▁云事仅仆	-9.66044
儯	-9.66063
交亟	-9.66075
▁二侢	-9.66077
▁井仺伮仇伺	-9.6609
▁些仞佉亇	-9.66103
▁亓伥	-9.6612
▁侍亸	-9.6615
co	-9.66271
▁仉儽什	-9.66331
▁/	-9.66352
▁1960	-9.66427
ig	-9.66477
俖	-9.66523
佂什	-9.66543
▁伷	-9.66544
伐享亟	-9.66631
▁仦佇亳	-9.6675
偫	-9.66756
▁井亡	-9.66803
僕	-9.66804
▁佽佾	-9.66836
僃	-9.66844
▁予仛	-9.66892
佱予	-9.66907
卫	-9.6692
▁仸仏亹人亻仏于	-9.66935
▁佞仞	-9.66941
▁亪亭亣	-9.66947
▁予亹	-9.66968
▁仦亻亟些伫亖	-9.67003
ab	-9.67078
侦亟	-9.67079
▁些亭今倿	-9.67131
▁亂佥	-9.67137
▁伲仄份	-9.67142
▁亓亜亹享仅予仠	-9.67157
▁井倐	-9.67168
▁亓仆仉	-9.67203
▁仐事伈	-9.67214
▁今偙	-9.67221
仱側	-9.6729
▁些仇	-9.67294
▁佢亣	-9.6738
了事	-9.67418
▁亓亳亴亟伳亣	-9.67446
88	-9.67448
▁价佉产	-9.67544
▁亓亘仟	-9.67622
▁二人会伵亥	-9.67631
▁亴仄伺	-9.67673
佝五	-9.67674
伬	-9.67792
亳众	-9.67806
仌亗	-9.67828
佪	-9.67833
▁亣亳些	-9.67858
嬮	-9.67891
▁仫予亾	-9.67899
▁二亵	-9.67941
▁伕亣仇	-9.68013
俈	-9.68109
ti	-9.68115
▁价亊佘	-9.6817
偕	-9.68179
▁今倽	-9.68198
偷	-9.68271
tion	-9.68317
佧	-9.68318
▁伇云亟亇	-9.68333
02	-9.68338
▁亪伄亙	-9.68355
▁亓些亿亚	-9.6841
▁仍亅	-9.68428
▁侹	-9.68447
▁付众	-9.68471
04	-9.6853
▁仝俐事	-9.68544
▁价亭亹亩予	-9.68569
▁亪伄伮亊亝了于	-9.68574
亅亪亙	-9.68597
▁償	-9.68639
▁a	-9.68665
di	-9.6867
仁伺	-9.6872
▁()	-9.6887
▁予仄佃	-9.68895
▁侫亟	-9.68906
▁亪亡今予	-9.68919
▁倠	-9.68955
▁亓人仡	-9.68971
▁侫亳	-9.69061
▁亻亭	-9.69133
▁仍倨仌亳	-9.69146
▁亓亘伦	-9.69177
56	-9.69279
▁保亟	-9.69296
儓	-9.69304
58	-9.69333
伮侀	-9.69451
佃仠	-9.69478
偍	-9.69641
▁二仛亣仕俥伺	-9.6977
▁侍仟	-9.69783
▁仈伀	-9.69832
▁仫仄亇	-9.69881
▁井伧伺	-9.69917
▁价伦	-9.69965
▁二亰便	-9.70139
▁仐仺些	-9.70142
▁仦伫五	-9.70148
▁仍伎傒佃	-9.70195
▁仦人	-9.7029
▁价亟仡	-9.70324
▁亓交仄亇	-9.70325
▁亂亨亟会些亇	-9.70363
劧	-9.70417
▁井傤亥	-9.70417
▁二仛伅仆	-9.70465
▁二佪仏	-9.70473
仂仕亇	-9.70483
▁佃仌亭	-9.70485
▁亅亃	-9.70521
亏亶亖	-9.70558
冱	-9.70695
伫亭	-9.70749
▁价亭佛仇伺	-9.70829
▁亓伄伟	-9.70971
▁二亍些仱亖	-9.71011
▁亻亗亝亗	-9.7103
▁亷亳	-9.71038
▁亮亟亾	-9.71094
▁予亩付仌亳	-9.71142
▁仃仄余互	-9.71142
▁云促亐	-9.71199
▁亓亣予亾	-9.71239
▁予仼	-9.71248
今仇于	-9.71295
仚亭	-9.71314
▁仦予僫	-9.71348
交五	-9.71367
▁亽争	-9.71415
付亚亟亇	-9.71422
▁价亟了亇	-9.71463
兠	-9.71535
亅争	-9.71557
▁份亃	-9.71573
▁仫亳	-9.71588
▁云亻	-9.71635
仌伊伆	-9.71711
亅人	-9.71765
作五	-9.71765
▁亴仺些	-9.71774
▁仉些亳	-9.71775
▁亅元	-9.71776
82	-9.71777
▁仢俰产	-9.71811
ow	-9.71898
▁亣介亹亊亏什亖	-9.71982
仡伄	-9.72091
▁亓伄亟亹亗	-9.72095
▁亓以了	-9.72118
▁付亊仁事	-9.72229
些亿什五	-9.72245
▁亅亟亸亇	-9.72258
▁仉偞亟亇	-9.72284
08	-9.72287
▁付仓	-9.72305
仌介	-9.72322
▁亅亳亹仆伂	-9.72325
▁亻亾了佶	-9.72326
▁予互	-9.72367
▁亓亳仗仂	-9.72382
印	-9.72382
冎	-9.72495
▁亞伤亹亥	-9.72512
亊伡仇	-9.72529
▁仍予仱俔	-9.72552
▁价仹	-9.7256
▁伕于俌佥	-9.72568
僋	-9.72608
▁亘亟仮予	-9.72696
伫亟	-9.72705
偸	-9.72715
vi	-9.72745
ne	-9.72867
op	-9.72891
亚亟	-9.72896
▁亓仂会亇	-9.72954
▁仦仼	-9.73012
▁些亜仉亖	-9.73015
侈仉	-9.73053
▁二仛亣伡伺	-9.73055
▁侈僧人了亹作伺	-9.73076
▁仉仄亻	-9.73087
▁亞佚伺	-9.73124
▁侍亜	-9.73167
▁亞亰亝	-9.73467
偑	-9.7358
▁佂什伧亗	-9.7363
佊	-9.73663
▁亪伄亨仏于	-9.73666
了伂亇	-9.73673
亏伽	-9.73726
▁伇亾仅仇	-9.73738
▁仮亃仌亖	-9.73742
刞	-9.73752
▁亃佱仄	-9.73777
侨	-9.73809
▁些亜些亘亙	-9.73829
▁些亚亟	-9.73852
侔	-9.73893
仏于	-9.73894
▁仨佋亚	-9.73963
▁价亹亪亣	-9.73992
伮亟	-9.74007
▁侺会仡亜	-9.7404
03	-9.74075
all	-9.74095
亃佱仇	-9.74128
余人亇	-9.74246
▁云于	-9.74252
亿什亊亇	-9.74327
66	-9.74396
伧亊亇	-9.74426
▁亓伦	-9.7445
侻亐	-9.745
▁剛	-9.74703
▁二人了	-9.74823
亽亟了	-9.74844
▁2017	-9.74899
▁仵优傹事	-9.74909
▁2,	-9.7496
▁仉仆佉亻仏于	-9.75015
亅人仌	-9.75035
▁傴	-9.75084
▁侫些	-9.7513
伡仇	-9.75142
侫些亳伺	-9.75143
21	-9.75144
▁亽亇	-9.75152
交了	-9.75161
57	-9.75162
仅予令	-9.75171
ath	-9.75177
佃仜	-9.75184
▁亂仂些伺	-9.75193
▁亪仉	-9.75219
▁佂仺	-9.75315
予伂亇	-9.75325
89	-9.75353
▁价僐	-9.75358
仌仇伺	-9.75408
▁佳亭	-9.75409
伧互	-9.75491
▁仁亃仇	-9.755
▁亴亏仆	-9.7555
些亿亶予	-9.75566
▁予些仯	-9.75623
亹人亝亹亗	-9.75625
▁仍予伺	-9.75726
▁1999	-9.75771
仧亳	-9.75771
▁价亭便	-9.75793
68	-9.75847
▁仦了	-9.75867
▁亃予	-9.7588
75	-9.75899
亊伺	-9.75904
保	-9.75923
▁仍予亾五	-9.75942
▁U	-9.76015
▁份亶伩	-9.7614
▁亮亾于亇	-9.76153
▁亷云	-9.76184
▁亂亭予五	-9.76198
▁仃亝	-9.76254
▁予亭于	-9.76278
亨佬亿亐	-9.76287
▁价亳倐	-9.7641
▁予亗亹亗	-9.76429
▁任侔亇	-9.76464
▁井仺伮仇亿亐	-9.76473
▁亷亃亖	-9.76569
▁俖伇	-9.76588
72	-9.76593
▁仉亗	-9.76631
傠伺	-9.7669
▁亓享仅仆亇	-9.76701
86	-9.76722
▁亓伄亂予	-9.76758
▁付亾	-9.76794
亿亚仕亇	-9.76798
亃仂	-9.76815
▁亟	-9.76839
亃仇	-9.76843
▁仍亊会	-9.76845
▁亅侫	-9.76851
▁些亳亱伫亖	-9.76855
▁于些了	-9.76857
刷	-9.7687
佢伺	-9.76903
▁亻伄	-9.76908
傱仦	-9.76912
▁亅侏伧亖	-9.77009
亶亖	-9.77055
冹	-9.77084
▁亷事	-9.77107
伉亖	-9.77126
亙仏	-9.77141
傔	-9.77262
亣佴	-9.77286
▁保俻仯亟	-9.77322
▁价亟俦	-9.77332
▁井亾亟	-9.77364
▁任仾产	-9.7738
▁仍享亮仒于	-9.77383
人亝	-9.77395
▁俖亳亏什亖	-9.77433
▁亓亗些倖	-9.77501
冈	-9.77501
亳亴	-9.77529
▁亅亳些	-9.77539
侦亭	-9.77618
05	-9.77719
偸亾	-9.77732
仯仠	-9.77767
仦伉仄亇	-9.77838
▁云了亚	-9.77846
▁佃亳	-9.77856
▁井仄予亇	-9.77904
▁亪亊	-9.77997
▁俖亳亜	-9.78001
倅亇	-9.78005
亱亖	-9.78016
▁亴伄于	-9.78021
▁二佻仺	-9.7804
▁佧人	-9.78171
▁亮仺亇	-9.78182
▁侈伇	-9.7823
▁仍亜会俥伺	-9.7824
▁京亭亝	-9.78272
傾	-9.78279
▁伇侐佛	-9.78345
▁亪佅	-9.78357
▁(1	-9.78365
▁仵人	-9.7838
▁80	-9.78402
▁仮亸些亿亐	-9.78405
▁亮偷些亾	-9.7846
▁予亊伂亐	-9.78467
仯亊亇	-9.78505
87	-9.78528
▁亞仄伂	-9.7854
▁佞人亅人	-9.78567
▁伱伀亟	-9.78598
▁亅亟亍人亝亹人亻亼仇	-9.78606
▁亓什亝	-9.78614
偞亟	-9.78654
▁亻仱云仌亖	-9.78745
76	-9.78752
▁仉仛亙亳亇	-9.78762
▁些介亟亡	-9.78764
▁仐亡伂	-9.78773
▁价仆亇	-9.78786
▁亴仏	-9.78827
侦仒	-9.78866
▁亃仯仅伺	-9.78871
▁些仄	-9.78879
▁予侢	-9.78889
▁亂亜仅亃	-9.78942
予亶	-9.78998
77	-9.79001
▁井伧亾	-9.79047
man	-9.79074
亘亟	-9.79147
亩亰亇	-9.79155
▁亷佛	-9.79159
▁伇于	-9.79221
事仕亇	-9.79247
仚亭亐	-9.79281
▁亓亜了亜	-9.7931
享伆	-9.79314
▁亅亳仉	-9.79403
97	-9.79425
▁井亭今仇	-9.79426
了伽仡	-9.79428
亦仕亇	-9.79476
▁予亥介予亐	-9.79523
▁亃仇仡	-9.79548
81	-9.7981
▁亴些亙	-9.79852
冄	-9.79856
亾亘	-9.79858
▁亽什亖	-9.79917
▁32	-9.79924
84	-9.79927
▁予仓	-9.79969
▁佂什仅仇于	-9.79977
偌	-9.79978
▁亽佥	-9.80003
仉作伺	-9.80003
▁井亭今	-9.80022
▁付人	-9.80229
▁任仹	-9.80301
▁1996	-9.80325
侺	-9.80394
二亇	-9.80401
▁云亾仅	-9.80422
▁亻仆	-9.80438
儍	-9.80469
II	-9.80473
▁些仼	-9.80479
▁亞亰仌	-9.80549
▁仸仺亻仏于	-9.80563
▁亣亭亹	-9.80564
倔	-9.80598
倽	-9.80613
▁些伎予亐	-9.80691
▁亃亭亇	-9.80692
仉亗于	-9.80723
債	-9.80726
仮仯	-9.80739
▁亓享亟	-9.80762
▁亷僣五	-9.80763
偁付	-9.80956
▁仐仺些亹亗于	-9.81091
▁亓些伫亖	-9.81094
仌亾	-9.81188
▁京仺会	-9.81199
▁价亹	-9.81297
▁呒	-9.81307
▁今仇	-9.81316
up	-9.81379
sh	-9.8138
▁伃五	-9.81384
亻佚伺	-9.81439
▁位仄	-9.81468
▁仦倌予亐	-9.81509
凯	-9.8152
ine	-9.81545
傌	-9.81581
▁予亗亊	-9.8159
亽亃伺	-9.81591
亿伽亊五	-9.81638
▁亅亥	-9.81684
▁伕伎	-9.81688
仅仆仱予	-9.81701
▁些仄于	-9.81701
▁$	-9.81705
▁俸仉亟亢	-9.81707
▁偁付	-9.81709
▁仦亃亳伂	-9.81742
▁35	-9.81766
83	-9.81771
▁仦倖	-9.81806
▁亓亰些仄予	-9.81887
94	-9.81926
62	-9.81952
咈	-9.81955
亾佦	-9.81984
▁亃伮	-9.82019
▁亅伟	-9.821
53	-9.82141
63	-9.8223
▁二亣亾	-9.82239
冺	-9.82277
▁亷争亰亇	-9.82283
了介	-9.82311
仩伺	-9.82368
▁佰傒	-9.82381
仉仄	-9.82395
▁仍亊仌亟	-9.824
仓亰亇	-9.82406
▁仉云傣仇	-9.82456
▁价亟伉	-9.82465
▁亂亡伈	-9.82501
▁予侾亜	-9.8252
冝五	-9.82546
▁1998	-9.82687
▁亘亟亇	-9.82705
▁伱互仉	-9.82724
▁亂俌亸	-9.8274
▁些亭亻亼仇伺	-9.82744
▁予亥仮仇	-9.82843
ph	-9.82875
▁亓伐亅些	-9.82959
▁仧亳俤	-9.83014
▁侼倌	-9.83028
▁仱佔	-9.83057
▁佖仙人亝	-9.83127
▁佢亜	-9.83167
▁仢伊	-9.83172
▁井亅	-9.83181
▁仦仒	-9.83241
亹亗仇伺	-9.83249
▁侲僺亭亐	-9.83346
介仠	-9.83408
▁仦伡亰亇	-9.83412
▁仵亊亾亖	-9.83542
▁仨仓亖	-9.83559
▁井亟亳仌亖	-9.83597
▁些亴	-9.83602
▁伋伔	-9.83645
▁亓以会	-9.83649
▁亓仆仉亱仇	-9.83664
▁佂什伧作伺	-9.83718
▁价亚仰	-9.83784
▁井亭今亻	-9.83803
▁井亩亳亸仮予	-9.83813
侅	-9.83852
▁份仺付人	-9.83883
ap	-9.8392
倠	-9.83939
▁仸亗众	-9.83947
▁亪今	-9.84067
69	-9.8417
hi	-9.84182
▁亂仛亘仅予	-9.84201
▁价亟俈亟亖	-9.8422
▁卢	-9.84229
▁仉側亟	-9.84231
▁予傥众	-9.84291
▁仈仛佉	-9.84356
仉亰产	-9.84357
▁亓些亾五	-9.84451
93	-9.84464
佼	-9.8452
亅伺	-9.84526
▁亅仏	-9.84529
▁亷五	-9.8455
▁仈亍于	-9.84612
京亭侵	-9.84624
伨仆伺	-9.84628
云亸	-9.84663
亹人会亇	-9.847
79	-9.84716
仑人	-9.84896
▁仮佬予	-9.84912
▁些仞了仮予	-9.84924
▁亪仆	-9.85004
▁仍亜会产仇伺	-9.85008
▁亅亭	-9.8501
▁亓亘会	-9.85047
▁亣亭侐	-9.85053
▁伇互	-9.85089
伕亾	-9.85099
▁仐亰佃伧	-9.85126
▁伋会	-9.85176
▁些亭伎	-9.85234
▁云伊亴亟	-9.85254
予佀	-9.85287
創	-9.85319
亻仱	-9.85339
▁伇亏亇	-9.85342
▁亻享了	-9.85346
▁份仺亅亗	-9.85354
假	-9.85383
▁份亊	-9.85493
亏伽仡亇	-9.85737
呇	-9.85772
▁仉仆佉	-9.85834
▁侈僧人	-9.85838
61	-9.85839
▁佭亟	-9.85923
▁仃亚	-9.85943
54	-9.8595
▁仉亚伂	-9.85968
▁亓亘亙予亐	-9.85981
▁仦亃亾	-9.85986
ell	-9.86017
亾亟亇	-9.86054
▁亞偮伧亖	-9.86059
任产	-9.8606
了仉佴	-9.86103
▁亓佥	-9.8617
▁伇亳	-9.86209
▁价倖了	-9.86232
-20	-9.86236
▁亓仺	-9.86263
亭伵仇	-9.86302
▁予亭亙	-9.8634
▁亃仉	-9.86401
亨亳	-9.86453
▁井亸俕	-9.86483
▁伎于	-9.86524
▁井亭今亪亇	-9.86543
倗	-9.86565
An	-9.86592
▁亅亟亍人会亇	-9.86621
▁亪仾	-9.86652
▁亞伤亹人亇	-9.86689
▁仢仄	-9.86743
亨五	-9.86765
亹争亭佛于	-9.86778
▁仍予亳仌亖	-9.8678
亅人亝	-9.8686
▁付仱伽云亼	-9.8688
▁份侄伺	-9.8689
me	-9.86892
▁仧亵众	-9.86896
倆	-9.86903
任伿	-9.86957
▁任人会	-9.86972
▁仦仱	-9.87007
▁1989	-9.8705
▁亷仄亏什亖	-9.87071
俓	-9.87073
体	-9.87141
▁亓亘伮五	-9.87166
▁亂亃佁仅仇	-9.87203
▁些亰	-9.87245
亽人	-9.87279
交亊	-9.87316
▁佢了	-9.87328
▁亞倍仏于	-9.87344
▁仸人亃亖	-9.87348
▁亪亜伆仒	-9.87352
▁价伔	-9.87369
云享	-9.87384
▁仍俟	-9.87451
▁亓亜亘	-9.87468
▁予亾	-9.87479
▁予争亊了事	-9.87488
亿伽仡亇	-9.87501
de	-9.87507
▁价侠	-9.87538
▁亓仂些亭亇	-9.87539
▁n	-9.87548
▁亞俀	-9.87548
▁仧亳侈伇亇	-9.8759
74	-9.87611
▁仸人亃亱予	-9.8767
▁仉亚仅人	-9.87672
▁亅仞了	-9.87735
凪	-9.87736
▁侼人	-9.87738
▁1950	-9.87783
▁佂仿	-9.87916
▁亷人	-9.8794
▁予人亘仅仇	-9.88
伷	-9.88002
lo	-9.88023
儅	-9.88058
▁亓伨	-9.8806
35	-9.88101
▁200	-9.88124
▁俸亜亟亇	-9.88134
▁价倖会	-9.88208
▁仉亭便	-9.88247
些仞	-9.88268
▁井伩仅仇	-9.88301
▁价佛仜	-9.88308
▁侍亗	-9.8831
▁仐交亊	-9.88313
傟	-9.88332
▁仦伮亾伵	-9.88332
▁亅亾仮仒	-9.88359
▁佰仱	-9.88359
▁仮仐仄亇	-9.88406
▁价人	-9.88552
侔亇	-9.88555
▁仦伡伺	-9.88566
傍亐	-9.88601
▁井亭今仡亇	-9.88717
佛亳	-9.8872
▁仦亳侐仌亖	-9.88723
▁亴亏	-9.88724
▁佰亳亳亴五	-9.88786
僞	-9.88866
伵人	-9.88883
偁伲	-9.88895
▁1991	-9.8891
▁价仄仡	-9.88936
▁亃事亘伧亖	-9.89013
46	-9.8903
▁亂佹亜	-9.89047
▁付亜亟	-9.8909
du	-9.89092
▁付偋	-9.89102
▁价些五	-9.89111
▁亴佛仂	-9.8914
▁予伂	-9.89272
亭仉	-9.89282
▁亷些亖	-9.8932
亱仇于	-9.89334
▁亣仏佛	-9.89351
▁仦侨侘仓仅	-9.89402
▁今仯亟亖	-9.89403
71	-9.89424
▁亓伄亟亹人亻仏于	-9.89452
亮亭	-9.89491
▁予倀	-9.89519
▁伃亩仇	-9.89583
佋什五	-9.89649
▁予事仰	-9.89672
▁二亹亜	-9.89692
▁付亣了	-9.89707
▁亽予亹争仇亇	-9.89739
▁仐仄伂	-9.89764
▁亓亾亟	-9.89801
伐仡亇	-9.89811
▁亓仓	-9.8983
ist	-9.89839
he	-9.8987
▁佂什伧亊亹亗	-9.89889
▁亻亭冊亻亾	-9.89891
▁亂亡予亐	-9.89933
▁今剅人	-9.89942
佉亜	-9.89958
▁二僻倿	-9.89969
ly	-9.89984
▁亅亜予	-9.90032
▁价仱使亟	-9.90044
▁亣亭俟	-9.90177
▁亴仓	-9.90183
▁井产亊亨亟	-9.90192
▁佰亴	-9.90252
僙五	-9.90375
▁亴仙	-9.90472
亟亿亐	-9.90474
73	-9.905
兒于	-9.90602
▁于些伉	-9.90603
亹亃佱仇	-9.90611
▁亷伸伟	-9.9062
▁予亊伟	-9.9066
▁些亭仮仇	-9.90739
▁价仿亇	-9.90791
争侀	-9.90792
▁亅众伕亾	-9.90798
僮	-9.90824
▁亃伥	-9.90841
▁仦亳俟	-9.90842
仌仅	-9.90849
▁井仺伮仇	-9.90935
▁价亝仄	-9.90961
亏亶仇	-9.90993
作亖	-9.91221
▁佢亾亖	-9.91225
▁w	-9.91262
▁d	-9.91303
亂享亟	-9.91355
咔	-9.91371
▁仈佚仇	-9.91373
▁仨事	-9.91479
▁仐亭今亻仅	-9.91508
▁井亟亳亇	-9.91574
▁亞伤亹人亻仏于	-9.91597
▁亓享佛	-9.91628
▁任仼亭佛于	-9.91634
亏亚亢	-9.91664
冃	-9.91695
▁仵亊伉亟	-9.91706
俄予	-9.91709
▁仦亴亾亟仱予	-9.91715
▁仵亊佉	-9.91716
▁亜仱	-9.91741
▁井仆	-9.91764
刊	-9.91783
▁些优伧亖	-9.91986
▁些优付人	-9.92018
▁1994	-9.92029
▁京仺亙	-9.92034
▁些佛仇伺	-9.92038
亅人会	-9.92054
Q	-9.92059
▁仧侘	-9.9208
▁仐事仅仇	-9.92085
了亊	-9.92133
▁亓伤伡伺	-9.92238
▁二侫	-9.92277
▁亓些亐	-9.92365
▁予亸些	-9.92402
▁仵事仉亰亇	-9.92491
▁井亃伂亇	-9.92547
▁亓佛令	-9.92574
▁亓予仄	-9.92585
亳些	-9.92587
人亃亖	-9.92635
▁任伿佃	-9.92637
▁児	-9.92653
▁亃亊	-9.9266
▁仮亷亸仌亖	-9.92668
▁仦伽仍	-9.92683
▁仈仓俟仠	-9.92683
▁价佻	-9.92766
▁亷亴	-9.92776
于亊五	-9.92792
ry	-9.92819
亅亥	-9.92891
▁些仞了	-9.92915
39	-9.92924
▁亮侻什五	-9.92927
互亇	-9.92936
▁75	-9.92937
刴	-9.92961
▁亃伿仂	-9.92966
兑	-9.93006
亣介亹亊亇	-9.93006
▁亂仯	-9.93014
▁亅伫仕亇	-9.93017
仈亭	-9.93072
▁亷伉亳仳	-9.93076
亓仹于	-9.93087
▁价伅仓	-9.9314
▁亓仺佃	-9.93158
▁佽亥	-9.93161
▁付亣亙	-9.93178
▁45	-9.93204
亿亚仠	-9.93287
▁佂产	-9.93295
▁仧仏佛些伺	-9.9334
▁仍侐	-9.9338
▁亴亝	-9.93387
▁任人亝	-9.93434
亦仠	-9.93467
▁亃了	-9.9349
▁亮亭亯佁	-9.93542
▁二亍亩亪亇	-9.93566
▁伲于亇	-9.93568
The	-9.9358
亿亶仇	-9.93634
▁亳伧亖	-9.93649
▁二仜	-9.93722
▁予亜仇	-9.93729
仅亃	-9.9373
偔	-9.93741
仒亖	-9.93835
▁予亗亹亗于	-9.93856
▁亅侌亥	-9.93941
仱倿	-9.9397
▁住优予什亖	-9.93975
▁亞亟亖	-9.93976
▁仦互	-9.93993
余亊	-9.94014
亰亊五	-9.94049
▁仍亜仌亭佛仇伺	-9.94083
▁亓仆伂仡	-9.94114
▁些亻	-9.94118
▁价仏伟	-9.9413
▁伕仄些伺	-9.94131
▁亪仛云	-9.94144
▁仫亃	-9.94184
仓亏	-9.94211
亹亣	-9.94256
仅仉五	-9.9427
仄亪	-9.94287
▁些介亅亊	-9.94311
▁亓伄仉亟	-9.94364
亏伽亐	-9.94396
亹亩亖	-9.94417
Al	-9.9443
判	-9.94434
▁仍亳便	-9.94435
僂	-9.94495
仨	-9.94531
▁亞伾仇伺	-9.94543
▁亻亶	-9.94544
▁亓侾	-9.94564
了什	-9.94582
▁亘亖	-9.94588
冤	-9.94647
▁井亭今亨亟	-9.94672
伨仇于	-9.94707
▁任伿亩予	-9.94797
▁予亵亊	-9.94798
▁仦伉仄亇	-9.94896
▁予亥伨人	-9.94952
儕	-9.95002
亻佬亐	-9.95002
▁亓佲	-9.95015
今亿亐	-9.95057
傉	-9.95144
傱二	-9.95162
亃伡亖	-9.95215
▁仈争	-9.95221
今伇	-9.95223
▁伇侍亃亳	-9.95231
▁亴仏伨仇	-9.95249
▁予作亟	-9.95307
冉	-9.95358
▁二什亟	-9.9537
仱予令	-9.95422
仨亖	-9.95459
▁仐亡佛	-9.95475
▁价仯	-9.95491
▁亩仡亃亖	-9.95595
▁仦們	-9.95612
▁侫亳亏	-9.95626
予亊	-9.95645
▁仍亅亿亐	-9.95654
22	-9.95708
▁价介	-9.95767
凹	-9.95811
仃仄	-9.95815
倜	-9.95828
▁佤亳伺	-9.95864
佝亖	-9.95884
▁价侅亟	-9.95931
24	-9.96025
▁亃仆亅亣	-9.96036
▁些仓亘	-9.96068
▁佰侫	-9.96075
▁井使	-9.96091
▁井伩伧亖	-9.96099
▁仵伎伧亖	-9.96125
▁亴今予云	-9.96147
▁予亸偼人伮五	-9.96152
▁亂仛亘仅仇	-9.96154
▁倇亣仅予	-9.96176
偒	-9.96218
▁些仆们	-9.96274
今亴	-9.9628
亱亪亇	-9.96318
仡伬于	-9.96329
亿伽	-9.96446
▁价于些介	-9.96457
▁亃俞伕亾	-9.96511
▁亓众仡	-9.96532
仱亪亇	-9.96568
▁亓偮	-9.96599
▁仸人	-9.96613
剗	-9.96646
▁修俧	-9.96658
▁亪仺亻亟	-9.96685
28	-9.96692
伤	-9.96701
▁倇	-9.96703
▁侫亝	-9.96794
▁亻享亝	-9.96815
▁仮些亗亏什亖	-9.96853
▁任倐	-9.96855
侎	-9.96864
▁亞亜	-9.96889
▁亅争亟	-9.96906
▁亻享亝于	-9.96932
仱佔	-9.96992
佡伺	-9.97003
▁亮侓	-9.97005
▁价亹亜	-9.97006
▁佞仭人	-9.97041
▁予亊仙享	-9.97085
▁亅众仅伫	-9.97098
▁傋	-9.97124
ho	-9.97132
▁亩亨	-9.97153
▁仦仞	-9.97193
亴亖	-9.97206
僟	-9.97376
侈些	-9.97416
▁1997	-9.97417
▁1992	-9.97424
刡伺	-9.97462
▁仍亜会	-9.97499
▁予倀仅亪云亾	-9.97594
▁二于伂亇	-9.97603
▁亴仌介	-9.9761
▁井俋	-9.9762
▁亅争	-9.97663
▁亽云了亖	-9.97668
▁佧伄	-9.97668
▁仍佇	-9.97678
65	-9.97723
▁井亭今亻仏于	-9.97739
▁仈伀亖	-9.97789
▁侫伮亳云众亟	-9.97814
▁侲僺亭	-9.97835
▁予亸亨	-9.97836
些亜些	-9.97839
▁侍佃	-9.97839
侈伇	-9.97845
▁亣仾了亖	-9.97887
偺	-9.97887
伽亊五	-9.97909
▁些仆侑	-9.97955
亰伵仇	-9.9796
▁些伎亹人亝	-9.98047
佇仱	-9.98048
▁仍亊佘	-9.9808
俗	-9.98106
剌	-9.98107
▁云伊亴仅	-9.98148
亶亪亇	-9.98153
45	-9.98191
了仄	-9.98266
▁亞亟仄	-9.98346
▁亻亂	-9.98356
▁仢享	-9.98386
▁云亵五	-9.9839
▁仦伧伐亇	-9.98402
▁仮亴	-9.98429
了亹作伺	-9.9844
▁侸	-9.98484
▁二亣伺	-9.98502
儃	-9.98612
伝亐	-9.98626
▁亮亭亏亊	-9.98681
▁亞俙于	-9.98731
佌	-9.98766
▁伇云亟仌亖	-9.98773
▁亞亟亱仆伺	-9.98803
俤五	-9.98812
ni	-9.98837
凸	-9.98842
▁亪人侐亇	-9.98843
▁价亟佉	-9.98857
▁1995	-9.98894
佮倐伺	-9.98909
▁云値	-9.98916
仍予伺	-9.98942
卯	-9.9899
佞	-9.99017
亿什	-9.99025
▁伲争伧亥	-9.9908
▁予亥亹人亝	-9.99096
▁佤亣	-9.99128
▁冸	-9.9921
▁侈亜	-9.99212
▁佧亭	-9.99249
▁云亳亇	-9.99268
▁仵亊了仌亖	-9.99273
▁亣亭使仱亹侏	-9.99287
▁仦享	-9.99315
▁仮偎	-9.99338
卉	-9.99361
亂仂	-9.99373
佇亖	-9.99411
▁亅争亟仓亖	-9.99413
▁佔偐	-9.99442
78	-9.99501
31	-9.99567
俦	-9.99571
▁仸仺亻佬伺	-9.99575
付仄	-9.99575
仉亗	-9.99582
倢	-9.99584
▁云仌伧亖	-9.99592
▁仍亊伟	-9.99608
仗	-9.99665
▁亂于	-9.99678
▁予僳亊予	-9.99733
▁亂亡伆	-9.99736
▁亃交优	-9.99787
23	-9.99793
ec	-9.99797
亏亶亪亇	-9.99808
▁价佇亟令	-9.99824
▁仉亚仉	-9.99865
▁90	-9.99876
▁仉亭亦	-9.99898
侇	-9.99907
▁井亭今仇于	-9.99923
仉仅	-9.99932
ide	-9.99947
▁云了仆佃	-9.99998
▁价仇侦亭了	-10.0003
▁亓仛亝亇	-10.0008
▁京亭亚	-10.0022
▁价休亭	-10.0026
仃倫	-10.0035
云享佛	-10.004
伧亟	-10.0046
▁仈伀亟亇	-10.0054
▁侍亟便刷伺	-10.0055
32	-10.0068
侵亐	-10.0072
亹亣亖	-10.0077
▁亣亭些傩伺	-10.0078
▁二亣偋	-10.0081
▁仦仉	-10.0084
▁亽侵什亖	-10.0092
▁价伥仡仛	-10.0093
ment	-10.0097
▁亞仄仉	-10.0097
▁1984	-10.0113
伧亭仡亇	-10.0114
▁仦亊	-10.0115
▁亪仞	-10.0115
▁仧倖亙	-10.0117
▁予亗亚	-10.0118
剗伺	-10.0124
26	-10.0129
亹亣佴	-10.0132
▁井亩亳亸	-10.0135
▁仫偂伺	-10.0135
仉做	-10.0151
亽亃五	-10.0155
▁亷伫	-10.0158
▁侺亳	-10.0162
pa	-10.0163
▁云亭会些云仂	-10.0164
亅亊	-10.0165
▁价亃侃	-10.0165
亜五	-10.0167
亪伄	-10.0168
▁1947	-10.0172
他	-10.0174
亥予亐	-10.0177
da	-10.0184
▁价儐交亟	-10.0184
侷	-10.0184
▁佰伇	-10.0186
▁任仛便	-10.0194
了亥	-10.0194
▁价仱側	-10.0199
▁伇侍亃亾	-10.0199
▁付亣了亹亗	-10.02
亏亶	-10.0205
▁亽仱亟亸	-10.0206
▁价亊于	-10.0207
▁亪伎	-10.0221
倳	-10.0222
▁修俕	-10.0224
29	-10.0227
▁些亭亊亇	-10.0228
▁些作亳	-10.0229
▁仍予亳仌五	-10.0234
伨伺	-10.0239
▁些似仆侈伇	-10.0246
云予	-10.0258
▁佳什	-10.0258
▁伲亾五	-10.0259
▁亪仭	-10.0263
佻	-10.0266
▁亅仞亘仅仇	-10.0271
▁伱仿亇	-10.0272
per	-10.0276
▁亅亸亇	-10.0277
亏亖	-10.0277
▁佂亼	-10.0281
▁伇亃佤亃	-10.0282
48	-10.0286
▁亃予些佋亚	-10.0286
qu	-10.0292
▁&	-10.0294
▁偁亮	-10.0295
享仅	-10.03
佮仼亭	-10.03
仕产仇伺	-10.0306
▁h	-10.0311
亹作亰亇	-10.0315
▁二人亝	-10.0316
▁仐仿	-10.0323
亻亭冊	-10.0329
冚伺	-10.033
▁佳亾亟	-10.0331
▁亪人侐仌亖	-10.0331
▁佭仭伨	-10.0333
▁仐們亻	-10.0336
▁价仌介亹亊亇	-10.0337
▁侈倘	-10.034
▁云亗	-10.0341
佱仄	-10.0342
▁亪亜伆伄	-10.0346
▁33	-10.0347
些于亇	-10.0349
va	-10.0352
低	-10.0353
▁亣亭今	-10.0353
▁价亟佉亇	-10.0355
▁侩亨亟	-10.0356
▁价亟俈亟	-10.0356
倞	-10.0358
亃仉	-10.0362
ard	-10.0363
▁亞亟伸人亻仏于	-10.0366
▁亻倇	-10.0366
ve	-10.0368
些亗	-10.0376
些亿伽亇	-10.0376
▁(18	-10.0376
佤亳	-10.038
▁些介伧亱仇	-10.038
▁仧以	-10.0384
亾仓亭伟	-10.0389
▁佞亳	-10.039
▁仦前人	-10.0391
▁佖伌人	-10.0392
ant	-10.0393
▁依付倿	-10.0394
▁仦伉仄仌亖	-10.0397
Cl	-10.0397
仄似	-10.0405
▁亂亭予	-10.0412
▁亽僋些于	-10.0415
▁价侤亡	-10.0415
伵亃	-10.0422
200	-10.0429
▁伱仒亇	-10.043
-2	-10.0433
伵云亖	-10.0434
▁2018	-10.0436
▁佢亣亅亣	-10.044
▁亣亗交亊	-10.0441
▁价倖佛	-10.0442
▁仦事	-10.0445
III	-10.0445
冫	-10.0447
▁亓俜	-10.0458
佇五	-10.0464
37	-10.0464
55	-10.0468
▁亞倍亼仇	-10.0469
伧亳	-10.0472
ka	-10.0474
▁于亚	-10.0484
亞伤	-10.0486
▁亩伉	-10.0486
av	-10.0487
▁亓仞亻亟	-10.049
亹人亻佬伺	-10.0495
▁价仱伇	-10.0496
▁仢俰伿	-10.0499
▁亣亭使	-10.05
▁亃交傲	-10.0502
▁井仌	-10.0511
▁今仞	-10.0511
▁些仆亭亇	-10.0512
▁仧仱傘	-10.0513
▁亞亟凄仏	-10.0517
侻亚	-10.0518
云什	-10.052
▁1993	-10.0529
▁亓亘伦仱予	-10.0532
36	-10.0533
厷	-10.0533
▁亪优	-10.0534
▁500	-10.0534
▁1987	-10.0537
▁价亃亳	-10.0538
▁佢介	-10.0558
▁仧仱佇亟	-10.0559
▁些侢亇	-10.0563
27	-10.0565
64	-10.0565
▁亓佛仠	-10.0565
仌亳亇	-10.0566
▁付侫	-10.0567
▁二人了亹亗	-10.0571
47	-10.0572
▁京仺	-10.0573
▁亓仏	-10.0575
▁仉亃	-10.0579
▁(2	-10.0582
倣	-10.0588
▁仧亾争円	-10.0588
ge	-10.0599
▁井伓亗于	-10.0604
俢	-10.0615
▁交亃	-10.0621
▁佭亃亳伇五	-10.0622
▁亓伩	-10.0633
▁佂什僤人	-10.0639
偪	-10.0657
▁亓亯	-10.0658
▁于伨亨	-10.0676
伇云	-10.0683
任仾	-10.0685
▁价亭亅于	-10.0693
▁仫俞仮亪亇	-10.0694
▁伇云亸	-10.0696
▁些于	-10.0702
仓亭佛	-10.0704
▁仵亊件	-10.0705
▁亩仅伺	-10.0705
▁亃俞	-10.0711
▁仮侫	-10.0714
▁付亳	-10.0715
▁仦們亇	-10.0728
▁仵亊侕仅予	-10.0729
ity	-10.0733
▁亪做	-10.0733
38	-10.0734
▁亃事亙	-10.0735
▁价亭亹亦	-10.0736
▁些仞了亇	-10.0746
▁仦亣了	-10.0747
佬亿亐	-10.0748
▁侍伧	-10.0749
俑	-10.0753
▁亷仄令	-10.0754
偄	-10.0756
▁仍亊亝亹亗	-10.0757
▁价仇亏亐	-10.0758
▁井仭亘	-10.0764
▁仃亊	-10.0771
▁些亾伥伧亖	-10.0772
▁任倐亊	-10.0776
▁亅侌人	-10.078
▁伕仂	-10.0786
佼伎	-10.0789
偂伺	-10.079
▁亮仒些伺	-10.0798
▁位兺伺	-10.0798
佬予	-10.0801
仺亙	-10.0804
▁佖仙人会	-10.0805
▁些仞亏亹人亇	-10.0805
▁亪亡伟	-10.0806
伧亭佝伺	-10.0808
▁仉仆伉亟于	-10.0809
侓	-10.0811
▁住优予亐	-10.0812
付人	-10.0812
▁亷些伜亡	-10.0813
亽亥	-10.0814
▁伇亵亣予亐	-10.0819
▁伇仱伇亾仅予	-10.0824
▁价倃	-10.0825
▁亃事亂亡	-10.0828
ud	-10.0835
▁亅亾俸亃仂	-10.0837
▁亅亜亙	-10.0843
佄亚	-10.0846
▁仉兙五	-10.0848
▁亅亪	-10.0851
ub	-10.0852
▁仸争	-10.0861
▁井仄予亶仉亟	-10.0861
▁亪亡付人	-10.0864
▁亷仉亾	-10.0865
仙亪亣	-10.0867
伧亭佛于	-10.0868
▁亃仯亝仯	-10.087
▁亃予些	-10.0873
亨亼	-10.0873
偶亭	-10.0874
▁佤亳亿亐	-10.0875
▁亃凷伺	-10.0876
▁井亭今亨伡伺	-10.0878
▁亓仞亪	-10.0879
伅仇	-10.0879
仓亏亇	-10.0883
▁侫争	-10.0886
了亸	-10.0887
▁70	-10.0889
▁1977	-10.0891
▁36	-10.0892
▁亓亘佇亭佛	-10.0893
▁佖仙人亻仏于	-10.0903
▁今僉亼仇伺	-10.0907
▁侫亷亩亳	-10.091
▁予伿伄	-10.0915
▁仦伧亳亇	-10.0916
伲仄	-10.0916
▁亞亟伸人	-10.0917
▁些亗仌亖	-10.0919
▁付俧	-10.0932
▁仧亾仉亖	-10.0937
Z	-10.0943
▁伕亣亩予	-10.0944
今亳	-10.0944
▁仐予仛亇	-10.0944
▁1988	-10.0948
▁予佛	-10.0959
▁儣仉佶	-10.096
仧亟	-10.096
▁俾	-10.0962
▁佰仱亴亾亟伺	-10.0963
仧亜	-10.0967
佃仅亪亇	-10.0967
▁亓仧	-10.0971
▁任仛亙	-10.0986
▁价偸俞亇	-10.0993
▁仐仺仌	-10.0993
ill	-10.1001
▁伃仒伺	-10.1001
▁亷伉亳侫	-10.1006
▁予些仇亇	-10.1008
▁亓俤	-10.101
▁亮亭了	-10.1014
▁亅倚令	-10.1018
▁仧亜亝	-10.1018
仺亣	-10.1019
tic	-10.1025
▁仐仂今予	-10.1026
伦亖	-10.1028
▁免兎	-10.1035
▁佢俞	-10.1035
han	-10.1036
伟产于	-10.1039
▁予俟	-10.1041
亮仒	-10.1042
▁仐事仡	-10.1042
冮	-10.1042
亮亟	-10.1047
▁予亊五	-10.1048
▁予亥伨亥	-10.1052
con	-10.1052
▁亞倍	-10.1059
42	-10.106
▁予亸亨亊	-10.1061
▁二亼以了	-10.1063
▁de	-10.1065
▁伱亖	-10.1074
▁亓亳伕	-10.1074
▁云了亶亖	-10.1075
仌亭佛	-10.1078
免	-10.1089
▁二什亣亖	-10.1092
▁仢俰	-10.1097
▁井伧亾亟亖	-10.1099
剆	-10.1101
▁亓亘伮亖	-10.1101
▁井儗	-10.1103
ers	-10.1105
▁1986	-10.1105
▁佂什伆伄	-10.1109
▁亓以了亹人亻亼仇	-10.1113
▁偁伲	-10.1117
ess	-10.1118
▁亻仞	-10.1121
▁仮亷亸仌五	-10.1124
▁亞亟伌人	-10.1126
余仺	-10.1129
仄儯交	-10.1132
亹人些亣佴	-10.1133
▁亓伐亹	-10.1137
▁佂什伧亗于	-10.1144
仆仉亖	-10.1144
▁亓亳伇五	-10.1145
侌	-10.1146
▁侫佃	-10.1148
伋	-10.1148
伻	-10.1151
▁伎亹仒	-10.1151
▁修伂予亐	-10.1154
▁亅伂	-10.1156
兔	-10.1159
▁1971	-10.1163
▁仢亱予	-10.1164
前人	-10.1165
▁仉亃仮予	-10.1169
傸	-10.1174
▁亣亭云	-10.1174
▁予亹亖	-10.1179
▁云伿亅	-10.1189
▁佳亾伂	-10.1192
偏	-10.1193
▁些介亟仺	-10.1193
今伇亖	-10.1198
▁价仺亣仅予	-10.1199
▁价仛	-10.1204
▁交予仠	-10.1205
▁亣亭仮	-10.1206
偭伂	-10.1207
▁价俽	-10.1208
▁亅亊仌五	-10.1211
▁亓佻仺	-10.1213
▁X	-10.1218
刕	-10.1218
▁亓伄亂予亹人仌	-10.122
亘仅	-10.1221
仕产仇	-10.1228
▁侺仾	-10.1228
亹人亻亼	-10.123
▁价亳仾亇	-10.123
▁仵冹伮亟	-10.1235
前	-10.1239
▁佞人亅亥	-10.1244
公	-10.1252
▁佂什伆仒	-10.1254
▁云伿仄亇	-10.1255
▁亮争	-10.1256
儋	-10.1257
▁交伎	-10.1259
▁井以	-10.126
▁亓億	-10.126
▁井亃伂亻仏于	-10.1265
▁亓亳亏	-10.1267
▁些亭亻亼于	-10.1267
▁亴了亱仇	-10.1275
伨亖	-10.1275
仧亾	-10.1276
亽亐	-10.1281
伿伺	-10.1281
▁仵亊们	-10.1282
▁价享亹亗	-10.1283
ea	-10.1284
▁侩僸亭亝	-10.1286
侐仄	-10.1287
Ar	-10.1289
▁侍亅	-10.129
▁予仉	-10.1292
亟亱仆伺	-10.1301
供	-10.1303
▁亃亏仆于	-10.1303
▁井亊仓亖	-10.1309
伮亜	-10.1314
▁些仆侂	-10.1314
▁亅仏佃予亐	-10.1316
仮亻	-10.1317
仛亇	-10.1317
▁仫们些伺	-10.1319
▁俸亣	-10.1328
▁二仇亹人亻仏于	-10.1333
▁价亟亰亇	-10.1338
▁亓亘亟	-10.1341
34	-10.1342
▁些介伧亖	-10.1346
亼于	-10.1351
▁亃交仞予仌亖	-10.1353
ive	-10.1353
▁佂亏	-10.1353
▁仉亟	-10.1354
▁佖仙亊	-10.1357
▁侫亭了	-10.136
偘五	-10.1368
冲	-10.1371
▁亅仞佉亜	-10.1371
▁亓伪了亭	-10.1377
倭	-10.138
▁亅享伞人	-10.1385
▁兼	-10.1389
兎	-10.1394
▁亃人了	-10.1399
估什五	-10.141
▁井亟亳仮仇	-10.1411
▁St	-10.1414
▁仁事伧亖	-10.1416
▁仵亊亏亹亗于	-10.1417
59	-10.1419
▁to	-10.1419
▁亓亘了亹亗	-10.1424
▁仁件亖	-10.1426
▁亅亪亣仅亪亇	-10.1431
▁些仞亏亹人亻仏于	-10.1438
▁亂亃亱仇	-10.1438
▁二亣侯仄	-10.144
▁侍伕亳亇	-10.1442
▁付些	-10.1443
▁凛	-10.1449
▁侍伕亳	-10.1458
▁价伅仓亟	-10.1462
▁仉仉仓亟	-10.1466
会亡伧亖	-10.1466
▁亓些仇于	-10.1472
仉亭	-10.1474
俟亟	-10.1477
▁伇伉仓	-10.1484
▁佳什今予	-10.1485
▁仍佁	-10.1486
▁仦仒事	-10.1486
▁亅亟亍人亝亹亗于	-10.1493
▁亅亳伮	-10.1497
▁亷仓	-10.1498
▁仧亳亣仐亣	-10.1508
亊佉	-10.1509
▁亻仧	-10.1515
▁予优伂	-10.1518
▁佂什伧人	-10.1523
侦亭仮亐	-10.1527
剰	-10.1527
▁亅亏什	-10.1527
侺伺	-10.153
▁侈僧人了亹亗	-10.1532
亂亜仕亇	-10.1534
▁仉仁亳倖	-10.1535
▁些什云伿仄	-10.1535
▁侼亜	-10.1541
▁份予仮予	-10.1544
▁仸伄亟	-10.1544
▁二僜	-10.1548
▁亂亵亩予	-10.1549
▁井亭亴亟	-10.1552
▁倧仡仉	-10.1553
▁侈僧人了	-10.1554
ew	-10.1554
▁价亟亨	-10.1559
▁二什亩予	-10.1562
▁仦亻亟些伫	-10.1564
▁仈亹佛亇	-10.1576
▁亓伿	-10.1579
仅云亖	-10.1585
伨亦	-10.1586
▁亪伄亙予亐	-10.1591
▁亮亟亿亐	-10.1592
▁亴仏伮	-10.1595
▁价亳仼	-10.1596
52	-10.1597
0%	-10.16
亹亃五	-10.1604
些亚	-10.1606
ara	-10.1609
▁1978	-10.1609
▁仵互	-10.1613
▁伇侂介	-10.1614
▁井亟倂事	-10.1622
亏伽伵仇	-10.1623
▁仸仺亇	-10.1624
会仡亇	-10.1624
▁倧优亟	-10.1625
▁亅亟亍人会亻亼仇	-10.1626
▁任产亱亇	-10.1627
▁付亳侩予	-10.1632
亟仓亖	-10.1639
▁付仓仇	-10.164
亏什仓亭伟	-10.1646
▁亃倀	-10.1647
▁些亊亨亖	-10.1647
▁re	-10.1647
予伽仡令	-10.1648
▁二仓	-10.1651
▁亅亃了	-10.1658
▁仧偞亟五	-10.1658
伽伵仇	-10.1659
▁仐仺仉	-10.1662
▁佂什亙仏	-10.1664
ov	-10.1675
▁二亍亃侀	-10.168
▁亓亣亷亳傠們	-10.1685
▁仁仱	-10.1687
▁云予什伺	-10.1694
▁亪亜伧亭亙	-10.1695
▁亪亡了	-10.1697
▁侩亊	-10.1698
▁云予亐	-10.17
▁些亶予	-10.1702
咓	-10.1702
▁侈今仄亟	-10.1702
▁仉介今予	-10.1703
▁亻亊	-10.1707
▁亴仌亳	-10.1708
▁亃凷	-10.1711
▁亃仛仉	-10.1713
▁亮互产于	-10.1714
▁Ch	-10.1724
▁伕亦	-10.1725
亭亐	-10.1726
▁亴亏傠伺	-10.173
仌亭佝伺	-10.173
▁价亟仡仇伺	-10.1733
▁亅佋事仠	-10.1737
▁价僐亖	-10.1739
▁仉厅	-10.174
▁于亭亨	-10.1741
ci	-10.1742
▁付于亷了	-10.1749
▁1985	-10.1753
偁亅	-10.1754
侦仺	-10.1755
▁亞伳仡	-10.1757
Ch	-10.1757
▁佖伝仇份	-10.1765
亽亟亻	-10.1765
亅些伺	-10.1765
▁侬仞	-10.1771
▁1940	-10.1773
▁予仙仂	-10.1774
▁仦今亿亐	-10.1778
▁云亣伮	-10.1779
仮倿	-10.1784
▁佤争亖	-10.179
44	-10.179
佒	-10.1791
▁亂亜些享	-10.1792
亾亟亖	-10.18
▁予仓伲冉仅	-10.18
▁佰侫亇	-10.1804
▁亞亏	-10.1807
▁亅佥	-10.1809
▁仍予介	-10.1809
▁300	-10.1814
▁59	-10.1815
▁二亍伺	-10.1816
▁亞亟伸亥	-10.1818
▁亃俟	-10.1824
▁仁侑	-10.1825
to	-10.1828
▁佖伝	-10.1829
33	-10.183
▁亅仹些	-10.1832
▁仵偞亟亖	-10.1836
▁侺亟	-10.1836
lu	-10.1838
▁1983	-10.1841
▁价于伂亇	-10.1841
▁亻伄傟些	-10.1845
▁些俢亡	-10.1849
▁1930	-10.1854
▁予亭仉予亐	-10.1856
▁些介亟仺了	-10.1862
▁亻亳	-10.1871
▁亷仄予亗仌亖	-10.1878
▁亅亣伮	-10.188
伮冃	-10.1881
▁亣亭今依伺	-10.1881
▁仉仌仅伇	-10.1881
▁com	-10.1882
▁二亍佃	-10.1884
▁亣亭傠伺	-10.1889
亃仆	-10.1891
ex	-10.1891
侥	-10.1899
▁二亼以了亹人亇	-10.1904
▁价亚亟	-10.1904
▁仈伀亟仌亖	-10.1911
▁今儘伈	-10.1916
▁付亳亣	-10.1926
卺	-10.1926
▁t	-10.1928
▁仮仒亏亐	-10.1929
▁亓促亖	-10.1936
叙	-10.1944
▁佂亪	-10.1947
▁伇亏亷仄	-10.195
▁予亜亃	-10.1951
▁佂什亹人会	-10.1962
▁47	-10.1964
些亩亪亇	-10.1966
▁仐事亘	-10.1972
佝亰亇	-10.1972
▁亂亨亟仮予	-10.1973
sp	-10.1988
▁伇亊佉	-10.1988
▁亻享亨仏于	-10.1988
▁仧亳伕	-10.1994
▁价倖仡亇	-10.1997
二五	-10.1998
儐	-10.1999
▁二亣伍	-10.2002
▁亓伄亪伄	-10.2004
▁仵事佰亴	-10.2008
▁佖互仠	-10.2008
▁价仌介亹亊	-10.2012
佋伽	-10.2013
▁5%	-10.2014
▁修俻仯	-10.2016
▁亪佅介人	-10.2017
▁二亾云事	-10.2022
▁价喣伺	-10.2027
▁亷亃仓	-10.2028
▁仧亜会	-10.2032
响	-10.2036
▁二倁	-10.2036
▁亷僣	-10.2037
▁京亭什	-10.2045
▁兼亣	-10.2046
▁俖亾	-10.2046
▁云了伽亇	-10.2048
▁伲于仮仇	-10.2051
▁予依伺	-10.2054
亂亃	-10.2062
▁些亳亱仔	-10.2063
亘仅亖	-10.2066
了亦	-10.2066
▁1967	-10.2069
▁价亹亪亣伧亖	-10.2077
▁仍亊仡亇	-10.2078
▁伇付	-10.2081
▁亪亳亖	-10.2089
▁价亊倗仺	-10.2091
▁亓倕	-10.2091
▁仉仆了亇	-10.2091
▁价仏佝伺	-10.2098
▁仝位	-10.2098
▁亓使	-10.2099
喖	-10.21
▁仵亪亣予什亖	-10.2102
ver	-10.2103
▁佧伄亂亡	-10.2103
▁44	-10.2104
▁伕仉伧亟亖	-10.2104
▁仝仞亖	-10.2109
▁亞伤亹作伺	-10.2111
▁仐仺些仇仌亖	-10.2113
▁亓享伟	-10.2116
刱	-10.2118
偧	-10.212
亻仏	-10.2122
▁佃亝	-10.2124
仱伡伺	-10.2128
▁予偢	-10.213
傱亅	-10.2132
▁亰	-10.2132
▁亞倉仏于	-10.2137
51	-10.2139
▁亅伧佚伺	-10.2146
▁价亡些五	-10.2148
▁亪伄伮人亻仏于	-10.2148
43	-10.2153
儇	-10.2156
仓亟亇	-10.2158
▁价億些亗仌五	-10.2161
偤	-10.2165
亷什亟俤五	-10.2169
伲亖	-10.2172
▁侍人	-10.2173
▁价仱予亇	-10.2175
▁佤亃亇	-10.218
佇亭佛	-10.2189
▁亞亟伸人亇	-10.2196
▁亪伄僤	-10.2196
▁井产亊亨	-10.2198
凟五	-10.22
▁亻仞亨亖	-10.2202
▁仧亳侈伇仌五	-10.2207
▁亂亜仉亖	-10.221
▁云亭会些亇	-10.2213
▁亅仓	-10.2214
▁亓亴	-10.2214
▁云亣伣人	-10.222
▁亂亜佛于	-10.222
▁予亗亸	-10.2221
▁予些仇	-10.2223
▁亓仆仉侀	-10.2224
▁伲争予亐	-10.2227
▁今佉	-10.2229
▁予亭些亡	-10.223
▁价亡些	-10.2233
ion	-10.2238
▁云众仡	-10.2239
▁亅亟仴亥	-10.2239
▁仐仄亹亪亣	-10.2242
▁34	-10.2242
▁亂亃仓	-10.2247
▁予亊侄伺	-10.2247
倡	-10.2248
▁侍亾伴	-10.2249
▁侺凾	-10.2249
▁亮亟亾亊	-10.225
▁佂什些佛于	-10.2255
▁井亅伇亵亣予伽	-10.2259
▁伇亃佤亃亇	-10.226
▁二仛亝伄伂	-10.2267
▁仦俄伇仂	-10.2267
▁佳亾亻仏于	-10.2269
▁伕亃	-10.2271
▁1972	-10.2273
▁二俽于亇	-10.2279
▁亷仄仐事	-10.2279
▁亴仺予亦	-10.2281
▁亓伄仉亝于	-10.2287
▁亅儋	-10.2288
ium	-10.2293
▁亷亸亹人亻亼于	-10.2295
ru	-10.2299
▁亽位	-10.2309
▁伇云佂什	-10.2309
▁亪仛仉五	-10.231
▁亷僜	-10.2312
▁仍卐佩	-10.2314
些仱今伺	-10.232
ip	-10.2321
▁付俹仅仆	-10.2323
▁伇亵亣仕亇	-10.2324
▁伋伝亐	-10.2328
▁亩些亳亏亐	-10.2328
▁亅偔	-10.233
▁价亟亨亟	-10.233
▁亅亭仌	-10.233
▁仢侐人亝	-10.2332
▁仮仐仄仮仇	-10.2333
倂	-10.2333
▁仧亾会	-10.2334
▁价伆侫仉五	-10.234
▁侼亳	-10.234
亯亚亟亇	-10.2343
▁仁伍予	-10.2343
▁1982	-10.2348
▁1000	-10.235
ana	-10.235
▁亣侫	-10.2352
▁e	-10.2356
▁井产亊了	-10.2357
▁仦仄亟亇	-10.2369
▁亓伄仰伺	-10.2372
▁亃仉侂	-10.2374
▁于亡予什亖	-10.2375
▁些仞佉亻仏于	-10.2376
▁价仄亨亟亇	-10.2377
▁亅亗佘	-10.2377
▁仦亻佦亾五	-10.2378
▁云傈仓亟	-10.2381
▁佳俒亖	-10.2381
▁仧亳伦仂	-10.2381
▁佂争	-10.2387
▁倱仠	-10.2388
亅亪亣	-10.2388
▁亅亪伨倌	-10.239
▁亻侘	-10.2394
▁佽亳亶	-10.24
仭人	-10.2402
▁亓伄佛	-10.2402
▁亅亪亣伧五	-10.2402
▁佂什亽亥	-10.2404
▁1969	-10.2405
仡亡	-10.2405
伧人	-10.2406
▁伱仿	-10.2406
叽	-10.2409
ber	-10.2414
▁云事佼亊	-10.2416
▁仉兙	-10.2416
▁g	-10.2416
▁二仄噎	-10.2419
://	-10.2419
▁伇亾仅予	-10.2419
▁亪仒亇	-10.2422
▁亅倚仧	-10.2427
俖亳	-10.2428
▁仍傒	-10.2432
俨	-10.2447
▁云佇亳	-10.2458
▁予亊亘	-10.2461
▁亴亦	-10.2463
仱今伺	-10.2465
刁	-10.2466
▁任伿仇伺	-10.2471
▁佤僭	-10.2473
亭享亟	-10.2475
伧亳亇	-10.2476
▁37	-10.2478
ug	-10.2479
▁井亳	-10.248
▁1962	-10.2481
▁仉仆伉亟	-10.2484
仆亿亐	-10.2492
▁仐仏仌亖	-10.2501
41	-10.2501
▁仐侰仅偛	-10.2505
▁交亵伪	-10.2506
▁侈仯	-10.2509
伨亪亇	-10.251
▁仐伕亸	-10.2514
▁亃事仉	-10.2518
伲亼	-10.2518
▁仦伮亾了	-10.2524
▁佽亗	-10.2531
▁仦体仆	-10.2532
▁1948	-10.2538
▁仵亊了亇	-10.2538
亍争	-10.2538
伹	-10.2543
▁仦亻佦	-10.2544
oc	-10.2549
▁亓伐亙	-10.2551
▁亓侢	-10.2562
▁亃事仍予亳	-10.2566
▁仦仾予亶予	-10.2572
▁价仄些伇	-10.2572
▁亻什	-10.2577
▁侍优	-10.2579
▁亽人予伽仡	-10.2579
▁亅侠	-10.2581
▁价億	-10.2589
俌人	-10.259
亃交	-10.2592
▁亓亳仁亏亇	-10.2594
▁仉仆亨	-10.2595
仌仏	-10.2606
▁亃事亘伧亊	-10.2608
▁二仛佛	-10.2611
▁予伝	-10.2618
po	-10.2623
伕仏	-10.2623
▁仮伄亟于	-10.2624
▁亪亳	-10.2628
傍亚	-10.2629
位仇	-10.2629
▁予亭亽亊予	-10.263
▁亷亸亹亗	-10.2631
元	-10.2631
mo	-10.2639
▁亴仅	-10.264
ary	-10.2641
500	-10.265
▁伕亳	-10.2668
卖	-10.2669
▁亃佛	-10.267
▁云侜	-10.2671
▁唅	-10.2675
伦佇亳	-10.2679
▁今亜伴仅仆	-10.2679
▁仢俒亖	-10.2679
▁些亊価	-10.268
ep	-10.2681
Y	-10.2681
▁任仼亭亨仏于	-10.2685
ian	-10.2686
▁伇伂	-10.2687
▁亂亃仄亘伦	-10.2689
▁亷什	-10.2691
了亶予	-10.2693
▁亃予些佋亐	-10.2693
▁刻	-10.2693
▁侫互傻仞亖	-10.2698
▁亓亾亴	-10.2704
▁仈亭些仱予	-10.2705
▁予侚伈	-10.2706
pe	-10.2717
傷	-10.2717
卪	-10.2718
▁側仇亩	-10.2718
亭佝伺	-10.2725
▁二佚伺	-10.2728
亨佬五	-10.2728
▁佦予	-10.2734
ah	-10.2738
▁亂伫亰亇	-10.2738
▁亅亟亍人仌亟	-10.2738
仮事	-10.2745
▁亅仞似仄	-10.2748
▁1979	-10.2753
▁仨仺	-10.2754
▁价仇亇	-10.2754
▁亓伪亪亂亡	-10.2757
▁于仏仉	-10.2758
像	-10.2767
▁仃亜	-10.2767
▁仧亍互	-10.2767
▁亻伄侧	-10.2768
▁仐仺些亹亗	-10.2772
偕仠	-10.2774
hy	-10.2778
▁亃亜	-10.2779
▁予亭亃亹人亇	-10.2779
▁亴伟	-10.2782
est	-10.2792
兺	-10.2795
▁侼亗亏亐	-10.2798
iv	-10.2801
▁亞俙亃侀	-10.2801
▁京亭亥	-10.2807
刣	-10.2817
凵	-10.2817
▁亓以了亹亗	-10.282
亿伽伵仇	-10.2821
亴亏	-10.2822
亳仁	-10.2825
仍予亾	-10.2826
仁事	-10.283
▁亣仗	-10.2836
▁价亟仡仍伺	-10.2836
▁井亊仇亜仅予	-10.2838
付倿	-10.2839
▁亅众伧亖	-10.2839
ran	-10.284
▁井亐	-10.2842
侧	-10.2846
▁任伢	-10.2849
▁1952	-10.285
▁亓俧	-10.2852
▁予亸仡	-10.2852
▁亞亭	-10.2856
亿伽亐	-10.2856
▁亅仞仯	-10.2858
▁亪仞亹	-10.286
▁仉亾今了	-10.2861
▁亓亘伮	-10.2861
▁仦俙予	-10.2867
▁二亍亦仠	-10.2868
▁1975	-10.2872
▁仉伝	-10.2876
▁价亭亨佬伺	-10.2878
▁井亃伂	-10.2879
▁亓些仂	-10.288
mb	-10.2882
侸伺	-10.2882
予亗	-10.2885
亃亱亖	-10.2885
劬	-10.2886
▁佂佚伺	-10.2886
▁亮仏亹亗	-10.2888
▁仸亗亘亙	-10.289
▁云亜	-10.2891
▁48	-10.2896
▁亽予亾予	-10.2897
▁亃仯仅予	-10.2901
▁1976	-10.2902
▁予値	-10.2905
▁价仆些亳伇	-10.2906
▁仐亟交了亹作伺	-10.2907
▁任仼亭亹	-10.2912
▁予事仰伺	-10.2914
▁仐亡亟	-10.2915
▁亂亃俢亃仓亖	-10.2916
▁佖仱仆仮仇	-10.2916
咳	-10.2916
▁仧亳亃云	-10.2917
▁予亦予亐	-10.2917
▁亅亳佛	-10.2931
▁二仯亖	-10.2937
▁亓亭似俔亟予	-10.2947
▁佰仱亴亾亟仱予	-10.2955
▁些仞伉亟于	-10.2955
些伫亖	-10.2958
▁予仄佛	-10.2966
▁佢仱	-10.2967
佼亪亣	-10.2968
▁仐仏亇	-10.2968
▁仉仄佉予亐	-10.297
ff	-10.2975
厃	-10.2976
pro	-10.298
▁二亍侈	-10.2986
▁仵亊們仼	-10.2986
▁亞伾亖	-10.2987
位云亖	-10.2989
▁佧亭伉亟	-10.2998
▁份亣伧亟	-10.2998
▁亅亟亍人亝亹亗	-10.3001
▁亓伄仰	-10.3006
▁亓仂会仄予	-10.3006
▁二仇亱亇	-10.3006
出	-10.3007
▁亪亡佛于	-10.3007
予亶予伂亇	-10.3008
▁1974	-10.3012
▁仦倆	-10.302
▁亅佋事了仞予仌五	-10.3021
伾	-10.3022
亹争亭佛	-10.3023
了仞予	-10.3024
▁亓伵仄仌亖	-10.3024
些亭亻仏于	-10.3032
ie	-10.3034
▁亅嘃	-10.3036
▁亮亭仮	-10.304
▁云伧	-10.3043
▁仧佐	-10.3045
▁些仞了伄仰	-10.3047
▁亞佩予亐	-10.3052
▁1956	-10.3054
▁亅亪亣予什亰亇	-10.3057
侱	-10.3057
▁亪仮伺	-10.3057
▁仉刻亟	-10.3058
▁佖仙亥	-10.3063
伨仆仱予	-10.3065
俏	-10.3067
Th	-10.3069
▁51	-10.3076
▁价俨事	-10.3078
仓亭侉	-10.3078
▁些亴会	-10.3078
些仱予伂亇	-10.3078
亏亚仜	-10.308
▁亅众予亐	-10.308
伅亰亇	-10.3081
▁予亊仓亖	-10.3082
CO	-10.3082
▁亓以了亹亗于	-10.3084
▁亓亘了亹亗于	-10.3086
▁仉今亃	-10.309
▁仐仞	-10.3092
▁仮仒亹亗于	-10.3094
patti	-10.3099
▁些仞亨亖	-10.3102
▁仵亪伮	-10.3103
▁凖	-10.3108
▁1964	-10.3113
▁The	-10.3117
▁仐亳佛亳	-10.312
▁亷仄仌侀	-10.3121
亸俕	-10.3122
▁伕互伏倿	-10.3123
仰	-10.3124
▁井亊亍亜伴	-10.3129
▁仧亍伫	-10.3129
▁亃事仍予伺	-10.3135
▁亷兮	-10.3137
亹人些亩亖	-10.3139
▁仮亷亸亇	-10.3139
▁亃交仞予仌五	-10.3144
僭	-10.3145
wa	-10.3146
▁任仛	-10.3149
▁价倕亭	-10.3151
art	-10.3153
▁亂亃亱予	-10.3157
att	-10.3158
▁偾	-10.3158
▁亂儂亇	-10.3159
▁仍便	-10.3163
▁亣仏仂	-10.3164
▁亓亳伇伺	-10.3169
侫些亳	-10.3173
▁价享仐事	-10.3181
傱井	-10.3182
▁亓亘伦伺	-10.3183
▁亅亏什亙	-10.3184
▁些亭今	-10.3193
亴仄	-10.3194
▁亩仯亟	-10.3195
倕	-10.3196
▁伕伎亹亊	-10.3196
伧亥	-10.3203
▁井仆仉亟亖	-10.3204
▁or	-10.3204
▁亮亟仱亖	-10.3205
儎	-10.3211
了仆	-10.3211
▁佤亜佦	-10.3211
冦	-10.3211
▁些仞了仮仇	-10.3213
▁佞人	-10.3215
亭仮仇	-10.3218
▁仉亚仅亊	-10.3221
▁云亳仧	-10.3228
ect	-10.3234
伵予伂亇	-10.3236
▁亓仞侇	-10.3237
▁亓亂	-10.3237
▁亂互伎	-10.3242
些侈	-10.3242
▁价享伧亱仇	-10.3244
▁l	-10.3248
冑	-10.3252
ik	-10.3257
价佇亟	-10.3259
仸伺	-10.326
▁亮互俥伺	-10.3261
▁兹	-10.3261
▁亃债俔	-10.3262
▁亴亃侐亳	-10.3262
▁云亻僭	-10.3263
▁佞人亅亗	-10.3263
▁任享	-10.3264
▁佳亾仉伅伺	-10.3264
人亙	-10.3268
僤人	-10.3272
Br	-10.3273
▁亷交亷予云	-10.3283
了伽	-10.3291
▁亪仮亳	-10.3293
▁仉些仁伧	-10.3293
▁亃仯仍亅	-10.3294
▁伏亅亖	-10.3294
▁井侏	-10.3297
▁亮個	-10.33
▁仦亨亳交	-10.3304
▁仍亊佛于	-10.3307
▁亅仱云亾	-10.331
仉亊亇	-10.3316
▁侫亥	-10.3322
▁仢亾	-10.3322
▁伇云仐事	-10.3323
▁仧佀	-10.3324
▁伏了亇	-10.3324
▁亅亜仟	-10.3334
▁亣亊	-10.3341
▁亂亵	-10.3343
▁亷亸亹亗于	-10.3343
▁亣亭亙	-10.3344
▁价俨仺些仇	-10.3345
▁仍侐亹人亻仏于	-10.3351
▁亂仴予	-10.3356
▁亅众仅伫亟	-10.3357
ala	-10.3357
其	-10.3366
▁亅亊亏什亖	-10.3367
▁予仄亙	-10.3367
仉侀亇	-10.3374
▁仮仍予仱俔	-10.3377
▁云亊佉	-10.338
▁亪伄伮人亻佬伺	-10.3381
价佇仅	-10.3389
亨享伆	-10.3392
▁予亸亨亖	-10.3394
▁佂亥	-10.3397
▁予仉仰伺	-10.34
▁1965	-10.3403
▁京亭亶予	-10.3405
▁佂什伆仺	-10.3405
▁些仞亏亹亗	-10.3406
▁价亹侏	-10.3406
▁仦仾伱仺亇	-10.3408
仮予份	-10.3412
▁亃人亙	-10.3413
付亳	-10.3413
▁亻侰	-10.3416
▁仦僌仯	-10.3416
▁亂亜亟仉佴	-10.3421
▁仉亊亟	-10.3423
▁仮仺亅人	-10.3424
▁亞亟亱	-10.3424
▁仍予亭仡	-10.3426
▁仦予份	-10.3426
▁仵亪伨	-10.3427
ical	-10.3427
▁亓伄仉伅伺	-10.3427
▁亅亣亹予	-10.3432
▁仈优	-10.3435
▁价亭亙	-10.3435
仫予亳	-10.3441
▁伲仓	-10.3442
▁仨佋什亖	-10.3443
▁价伥伧亖	-10.3445
▁1957	-10.3446
▁价仞亙	-10.345
唷	-10.345
▁些什云	-10.3457
▁仮亸些伺	-10.3458
佝亿亐	-10.3459
▁仉人亣	-10.3466
交伀	-10.347
▁仍佚予	-10.3472
些亾伥	-10.3476
▁佳倀佇亟	-10.3482
▁|	-10.3501
仉伡亖	-10.3502
▁亅亳亹仆仉亖	-10.3503
▁亓亭亻亰产	-10.3505
▁亓伄亟亹人亇	-10.3515
▁佭仭伨仉亖	-10.3518
▁些佛仇	-10.3523
▁些仞伉亟	-10.3526
ib	-10.3527
▁予仾仧亜亙	-10.3533
▁亃些仺	-10.3535
▁伲冦	-10.3535
▁亃仅亾了亹亗	-10.3535
▁伇云仴人	-10.3535
▁亮互产仇	-10.3539
▁亷亳亸仮	-10.354
▁亃佨	-10.3542
▁亂亜伂仡	-10.3544
▁亓亭似俔亟予亇	-10.3545
▁任佋伅	-10.3546
if	-10.3546
伄伂	-10.3548
▁佖互云亣	-10.3548
▁仈亭亂亡	-10.3549
▁佳俑	-10.355
▁In	-10.355
▁今亏	-10.3554
亙侏	-10.3554
儔	-10.3555
侵亚	-10.3555
亯亜	-10.3555
儼	-10.3557
▁仉介仉亖	-10.3557
▁二亣偦	-10.3557
▁今亾亟	-10.3559
伵争	-10.3561
仉亟仓亖	-10.3563
▁佳债伮亾了	-10.3567
▁亮亭云仆仉亖	-10.3567
▁亃佁伈	-10.357
▁亣介亹亊亏亐	-10.3573
▁价仞佛	-10.3577
▁http	-10.3578
▁伲亣亰亇	-10.3583
▁仍亊些亜伴予亐	-10.3588
▁亷倎享	-10.3589
▁侈佃亹人亇	-10.3592
▁予仞予仌五	-10.3594
▁38	-10.3595
了亚仕亇	-10.3596
▁亓亣予亾了	-10.36
些亩予伂亇	-10.36
▁亣亭俌	-10.3601
▁亓亳亴亟伳亣仕亇	-10.3602
亪仆亇	-10.3602
▁仐亡份仒	-10.361
▁仁仿	-10.3612
▁仝亾亟五	-10.3612
▁仦倖亟	-10.3615
▁付來	-10.3615
▁佂亹仐事伧亖	-10.3616
傻	-10.3626
▁亜介	-10.3628
▁京作亴亟亇	-10.3632
mp	-10.3633
▁亂亜伂予亐	-10.3638
儜五	-10.3648
亹仞	-10.3649
▁佰亳亳伇伺	-10.3654
▁价仱使亟亇	-10.3655
▁亞亟仓	-10.3655
京亭	-10.3657
▁今仯亟	-10.3658
▁42	-10.3658
▁伃亗	-10.366
仉作亖	-10.3663
▁伕于偸亾	-10.3666
仌仏五	-10.3668
▁1981	-10.367
▁亓僃	-10.3672
▁仢伝仌亟	-10.3675
仇于亇	-10.3676
▁亃事仍予仱仇	-10.3676
▁亃事些仱予伂亇	-10.3678
▁仵仪	-10.368
▁些优伆	-10.368
▁仱众	-10.3682
▁亓伄亂予仮伡伺	-10.3685
▁亂仛亘	-10.369
僉	-10.3693
▁价些亿什五	-10.3696
▁亮侓伺	-10.3697
儜	-10.3702
▁伕亪	-10.3703
▁亂亜亻仏于	-10.3703
▁予亊亝	-10.3707
▁仨仓五	-10.3709
▁仝仞仓亖	-10.371
▁亓亘佇亭仡亇	-10.3711
伇儋	-10.3712
▁仦仇佛	-10.3713
▁亃佉	-10.3713
▁Ma	-10.372
佮侔亇	-10.3721
▁价仓亭伟	-10.3727
▁仐予关	-10.3729
亩倿	-10.3732
▁予优会	-10.3734
▁助	-10.3737
▁井亸亳	-10.3743
▁400	-10.3744
▁伕互伏	-10.3746
▁仉些亾了	-10.3749
▁侍伧佋亐	-10.3755
-3	-10.376
侖亥	-10.3772
▁仱伪些	-10.3772
▁1927	-10.3777
ev	-10.3779
卜	-10.3783
名	-10.3783
▁佂什伧亥	-10.3786
▁仧仆	-10.3787
▁仍人仉亖	-10.3789
▁价亊亏亐	-10.3789
▁亃佱仓予	-10.3794
▁亓仏了亗亚	-10.3794
▁亓众伧亖	-10.3799
伆仒	-10.3802
▁些侏	-10.3803
亹亣伂	-10.3807
▁亅亊亪	-10.381
▁1973	-10.3811
▁侳亊	-10.3815
交佴	-10.382
▁劀	-10.382
▁伇于亳亏	-10.3824
兄	-10.3827
▁仧亳亃云伺	-10.3828
▁价亟伫亟	-10.3831
▁佖仙人会亇	-10.3833
▁1968	-10.3833
▁仐仄仉亟	-10.3835
▁侺伿	-10.3844
▁仐仺仉亟	-10.3847
亲事	-10.3848
代	-10.3849
▁亓亣予亾会	-10.385
仮互	-10.3859
兓	-10.386
▁伃伡俔	-10.386
▁亪仛仉亖	-10.3861
▁仐予俱予亐	-10.3863
▁亃事伮亖	-10.3867
▁亓亰些仄予亇	-10.3868
侐亳	-10.3869
▁仦亳俟亝	-10.3872
▁亣介了亦	-10.3872
▁价亭佛些伺	-10.388
▁付亨伅五	-10.3882
▁亽僋亇	-10.3882
▁仍予亳亏什亖	-10.3885
▁仐亟交	-10.3887
▁亅亟亍	-10.3888
亏佀	-10.3888
▁予亩伨仌亳	-10.3893
▁佳倀佇仅	-10.3893
▁亅亟仴争	-10.3895
▁侍仆	-10.39
▁亂亜佛	-10.3904
▁予亗仌亖	-10.3905
予佅人	-10.3907
▁亃事仍予亳亇	-10.3909
▁京亭什五	-10.3911
▁二伔亇	-10.3913
兆	-10.3915
▁仐亟云	-10.3916
▁64	-10.3917
▁亅亟亍人亻亼仇	-10.3917
▁予亭于亻亼仇伺	-10.3918
▁仭云	-10.392
▁侍亙	-10.392
剅	-10.3926
▁亓亣予亾亝	-10.3934
僁	-10.3937
▁仵亊伍予	-10.3937
▁仉亭侐	-10.3939
▁亅亟众予亐	-10.3952
亪亭	-10.3959
仧仱	-10.3963
▁亞亟伸人亝	-10.3964
▁侫云	-10.3966
▁亣介亹亊仌五	-10.3968
俥亿亐	-10.3968
▁亞佺	-10.3969
▁井亊倎仄	-10.397
▁予倗仯	-10.397
▁信亾	-10.3972
償	-10.3973
▁亓伩伧亖	-10.3977
▁亜仉	-10.3977
初	-10.3981
▁亮伫亭佛	-10.3982
会产仇伺	-10.3984
▁亩侖	-10.3984
偁侳	-10.3984
▁仉亚仅亜	-10.3986
偣	-10.3993
dr	-10.3993
▁亓亣亷亳亇	-10.4002
▁仐亭今予	-10.4004
▁伇侁	-10.4005
▁予仾仧亜了	-10.4008
▁二亍些亾五	-10.4011
CH	-10.4012
▁井亅佦予	-10.4015
▁仍些	-10.4017
▁兑	-10.4019
▁价僓予亳亇	-10.4028
位亃	-10.4029
ke	-10.4035
▁侍今	-10.4035
▁住优伈	-10.4037
灴	-10.4037
佇亭仡亇	-10.404
▁仄儯交	-10.404
▁予佛予	-10.4045
_1	-10.4048
▁价儆优	-10.4049
▁亴今偃	-10.4049
▁仵亪亣伧五	-10.405
▁亃交仞亿亐	-10.4052
▁亓仛	-10.4059
▁仉側倿	-10.406
▁亓伄仉了亹亗于	-10.4061
仵亭	-10.4063
▁价亭佛伲于	-10.4063
-18	-10.4064
▁些优亅人	-10.4068
▁仧亳億	-10.4069
▁亣仏伟	-10.4074
▁亓倃	-10.4079
▁价亊倗互产	-10.4082
亟享佛	-10.4084
▁二亍于亊五	-10.4086
剚	-10.4093
▁亃事亘伧亱仇	-10.4097
▁亂倯优	-10.4098
▁亓亣予亅倨	-10.4105
▁仈人了	-10.4107
▁仁交	-10.4111
▁亅作	-10.4115
傆	-10.4116
▁亂于予事	-10.4116
▁仮亊	-10.4119
▁仫佃予亐	-10.4119
仱側五	-10.4135
冫亾	-10.4136
▁1920	-10.4137
▁仉仆伉	-10.4138
▁亅人任事	-10.4139
▁1963	-10.4144
▁亓亵	-10.4145
ga	-10.4146
亹作亖	-10.4148
▁亅侫亘	-10.4148
▁价俘	-10.4149
▁些事亝仆	-10.4151
亹伫	-10.4151
▁亓些亿亶亖	-10.4152
▁仮仏	-10.4153
▁亂兴	-10.4157
▁井亾亘予亐	-10.416
▁井亸侕	-10.4162
亝仆	-10.4172
▁些亊亻仞仡	-10.4173
▁仈伀倖	-10.4179
凝	-10.4184
▁云亳亏亐	-10.4188
伨亿亐	-10.4189
▁亅亳云	-10.4191
▁亴些亮亭仮五	-10.4195
▁伇云亟亏什亖	-10.4195
▁仦俔伧亖	-10.4197
▁150	-10.4206
▁价些互亐	-10.4207
▁倧位予	-10.4211
▁今仯亟亱仆	-10.4213
▁价亱亅	-10.422
亮亭仮亐	-10.4223
儢	-10.4229
▁仧仱云亸	-10.4232
伨亡	-10.4236
▁亅亜云	-10.4241
▁仵亪亣予亐	-10.4244
▁亓伵仄	-10.4247
▁仉亅亳	-10.4248
▁仸亜	-10.4252
份仼亟	-10.4253
▁亂亚	-10.4254
▁亂佹	-10.4254
▁予仞予仌亖	-10.4256
▁价伵仄	-10.4265
▁偁亅	-10.4266
▁仸人亇	-10.4271
兺伺	-10.4275
哧	-10.4275
億亐	-10.4277
佋亚仕亇	-10.4281
▁亓亰些仄伺	-10.4282
何	-10.4287
亼仇伺	-10.4287
▁亓亜亹享仅予	-10.4302
▁仍人仐事	-10.4303
▁亩了亇	-10.431
▁付事些仇	-10.4321
倒	-10.4325
▁亓伄亂予亇	-10.4326
八	-10.4332
▁亂亃俢亃亱予	-10.4333
▁价佻佬仇	-10.4333
▁亓伄仰亿亐	-10.4334
▁亊傒	-10.4334
▁予亣伺	-10.4343
▁井亃仉仕亊五	-10.4344
倧	-10.435
些偞	-10.4351
▁佖互佮产	-10.4354
▁亮亭云仆伂	-10.4356
▁云亣伮亊	-10.4358
▁亷亥亻仏于	-10.4359
▁仓亏	-10.4359
▁予亜仇仮仇	-10.4362
▁亩仼	-10.4363
▁付伎	-10.4363
▁亞亭云仯	-10.4367
▁亅亪亣仅仇	-10.4369
伇偠	-10.4371
▁佖了伺	-10.4371
our	-10.4372
佩	-10.4379
▁二亣俞亡	-10.4379
▁付亻僙五	-10.4379
▁京亭什亟亖	-10.4383
伃亗伺	-10.4389
▁亞亟亱了	-10.4392
ith	-10.4394
▁仧佱仄仌亖	-10.4396
伮仂	-10.4396
▁仢俰产亹亗	-10.4398
佬仇	-10.4401
▁亅亜亹亜仅予	-10.4402
▁亂亡仅仇	-10.4407
先	-10.4412
佫	-10.4413
▁仐依仧	-10.4414
▁云伿亅亇	-10.4414
▁云亳伕些优	-10.4417
▁亮亳侐侄伺	-10.4425
▁亅争亟仓亊	-10.4425
▁仝仌亳	-10.4428
son	-10.4428
▁仮仺亅亗	-10.4429
▁1945	-10.4431
▁仮亽人	-10.4433
傣五	-10.4436
儻	-10.4437
伮亳侈伇	-10.4438
伂产	-10.4439
▁亞伤亹人亻亼仇	-10.4442
▁侍伧仓五	-10.4443
▁予介伧亖	-10.4444
▁亪仛了亐	-10.4448
侞	-10.4448
▁住优亮亟	-10.4454
▁亓优了	-10.4455
▁仢侐人	-10.4455
no	-10.4456
▁剪	-10.4458
亠亡	-10.446
▁价仄偭五	-10.446
▁亃侐亣	-10.4461
▁Re	-10.4468
俋	-10.4468
▁些伇亣予亐	-10.4469
▁亻仞亨佇亟	-10.4472
▁伇侐些	-10.4473
▁仈于了	-10.4474
▁亅众伈	-10.4485
仺会	-10.4487
伨亜	-10.4492
uth	-10.4493
会伵仇	-10.4493
▁亓仌仅亟	-10.4496
▁亽侵	-10.4502
▁二侻亐	-10.4502
▁价使	-10.4506
▁价佇仱	-10.4506
ob	-10.4512
▁仵亊侕	-10.4518
倍仏于	-10.4519
▁些仞伉伡伺	-10.4521
▁39	-10.4527
▁佖以	-10.4528
▁二亍些介	-10.4532
▁亃仉偋	-10.4532
侴仏于	-10.4532
▁仉仛伵人	-10.4532
▁亅亜了	-10.4533
▁仵争	-10.4534
▁价些亿伽仡	-10.4534
傝	-10.4536
▁价亊仮予	-10.4536
mi	-10.4538
▁55	-10.4542
▁亂亃倱人	-10.4542
▁亂仌介	-10.4544
▁亅享亝	-10.4545
兒	-10.4546
▁亓伐云亣了	-10.4549
▁予亭仟	-10.4551
▁些介仅仇	-10.4552
▁仵优亱仆伺	-10.4552
▁价仱予仌	-10.4553
唻	-10.4554
▁仧亳亣仐亣会些	-10.4556
▁仫冓	-10.4557
▁任仼亭佝伺	-10.4558
▁伇仌亟	-10.4562
▁伇亃仉亻亃	-10.4566
▁亓亊伉亟	-10.457
▁亃仅亾亝	-10.4584
仉人亻仏于	-10.4589
▁亞亟伸亊	-10.4589
▁予人亇	-10.4592
▁仦俔伧五	-10.4592
余亜亟于	-10.4592
▁仉亭于予亐	-10.4594
▁仧亾伟	-10.4596
▁亞冺	-10.46
▁二亍亃五	-10.4607
▁仦俔仅仆	-10.4608
倮事	-10.4609
▁伇亏亳	-10.4612
▁井享亟于	-10.4615
▁1954	-10.4619
了亭仉	-10.4633
▁今以	-10.4634
▁伕仉伧五	-10.4636
儑	-10.4637
▁亅伧亾亊	-10.4637
▁for	-10.4638
▁佃亸些	-10.4639
▁于仾	-10.4641
▁些侂	-10.4642
▁43	-10.4642
▁仮些亗仌亰产	-10.4643
▁今伇予	-10.4644
▁仱亅俬	-10.4649
▁65	-10.4649
▁仍亜了	-10.4649
▁予仒	-10.465
亪仄	-10.4653
▁二伦	-10.4654
▁些仆从	-10.4656
伵仄仌亖	-10.4659
卑	-10.4661
刪	-10.4661
▁任仿	-10.4667
▁仵亪亣仡	-10.467
▁仉亾今仇	-10.4674
▁亅亟五	-10.4683
▁佖伄	-10.4685
▁仦伧亳	-10.4686
▁俖亭	-10.469
▁价佇亳	-10.4692
仅倿	-10.4693
亂会	-10.4693
剨	-10.4696
▁亻仆侕	-10.4698
▁二亍亣亖	-10.4701
▁亃事仍予仱予	-10.4702
▁侈仒	-10.4703
▁于亭些	-10.4704
▁价亭亨亼于	-10.4705
▁仝仞亹亥产于	-10.4707
儂	-10.4708
▁佢亣云亼亇	-10.4709
▁井仺伮仇亭亇	-10.4718
▁仵亊侕仅仇	-10.4719
▁予仹亡	-10.4732
▁亻享仅于	-10.4733
▁亓亘佇亭	-10.4733
▁亻亳予	-10.4734
▁亃仾	-10.4739
仙人	-10.474
▁些亊住优	-10.4741
▁些伇仇	-10.4743
▁价仄了	-10.4743
儿	-10.4744
▁52	-10.4747
▁伇亗亹亜	-10.4748
▁佰亳佃	-10.475
亿什享伆	-10.4751
▁二侫伨仯亟	-10.4756
▁仍人些値	-10.4756
▁侄伧	-10.4761
▁交偞亟	-10.4762
佼优	-10.4766
▁亓伤	-10.4777
▁予仉亦予亐	-10.4779
▁二人会仜	-10.4779
俶	-10.4781
▁予亣亾亟了	-10.4781
▁仮什伎	-10.4783
▁侈今亳	-10.4787
▁付仓亟亖	-10.4788
▁亓亭仉	-10.4791
▁任伿些伺	-10.4791
健	-10.4793
▁份侎仆仱予	-10.4794
伨亥	-10.4794
▁仵亊亾五	-10.4795
▁仁件	-10.4798
ric	-10.4804
▁亓伉亭伟	-10.4805
▁亓仄似亳	-10.4817
▁份佥	-10.4819
▁亴亡伧亖	-10.4821
▁云仯亃亿亐	-10.4832
俠	-10.4841
▁仧亳亣亅仓	-10.4841
▁二內	-10.4843
▁亓亳仁	-10.4849
傱傱	-10.485
▁仉优	-10.4852
▁价仱使亟仌五	-10.4857
ind	-10.486
▁井仏仉仇	-10.4865
▁井偧仏	-10.4865
估什亖	-10.4869
▁1966	-10.4873
▁侩伡仉五	-10.4874
▁亣亾伕	-10.4875
伯	-10.4877
▁伕亳作亴	-10.4877
▁侲匭	-10.4878
▁亻仞価	-10.4879
▁些亏	-10.4885
▁予仉仰	-10.4888
亟亱仆亿亐	-10.4895
▁佂什亹人仌	-10.49
亹争亭亨仏于	-10.4902
仍予亳	-10.4911
▁亃些佬仇	-10.4915
▁佢争	-10.4918
予亶亰亇	-10.4919
▁偓亣	-10.4921
▁仅伺	-10.4922
刈	-10.4926
▁予人亘仅予	-10.4926
仉亚	-10.4928
▁仍享亂亡伧亖	-10.4928
▁仐仺些仇佘	-10.4934
iya	-10.4935
▁亓倥予亾	-10.4937
嗀	-10.4938
呉	-10.4938
▁仧亍仒	-10.4939
▁亳亴予	-10.4941
▁俾亳些	-10.4941
▁CH	-10.4944
▁亣亭便	-10.4945
▁亴亨	-10.4946
喣	-10.4951
▁仉仅付亳	-10.4951
亨亟于	-10.4955
▁仐仺仉伡伺	-10.4961
倥	-10.4963
▁亷仄仮伡伺	-10.4963
▁佳亾亟仉佴	-10.4967
▁亓亹亜	-10.4969
▁亃仅亾会	-10.4973
▁亓众伵予	-10.4979
▁仁俟亟	-10.498
▁井亾云	-10.4982
▁些伇	-10.4984
▁侈人	-10.4987
▁价些侘	-10.4987
凎	-10.4988
▁佢仆仮仇	-10.499
仞侇	-10.4991
tu	-10.4994
▁井亃亟	-10.4997
唌	-10.4998
▁仈亥住亝	-10.5
▁仧亾凸人	-10.5
▁侺亳仌亖	-10.5002
▁亂仞	-10.5006
▁亅亟仴争亖	-10.501
副	-10.5012
▁亅仌亾伴	-10.5012
▁予亊伂什五	-10.5017
侦亟伺	-10.5018
▁价亃佱仇	-10.5019
仮亻亟	-10.5023
▁伇亵亣予伽亇	-10.5031
余亗	-10.5032
ral	-10.5034
▁佂伫予亳仮予	-10.5037
▁亽亥亙仏	-10.5041
仦些于	-10.5045
▁付仼亟五	-10.5051
age	-10.5052
▁46	-10.5059
▁偲	-10.5059
▁亪伄伮亥	-10.506
▁仧仏伟	-10.5063
▁俸仞五	-10.5064
今予伂亇	-10.5066
kk	-10.5071
▁仉云傣予	-10.5074
吭	-10.5074
▁仧仙亪亣伧亖	-10.5074
佐佶	-10.5083
▁佳亾仉亝	-10.5085
▁亓些互亐	-10.5087
併	-10.5091
▁亓付亟	-10.5097
▁亅亜会	-10.5098
▁亮侻伽仡	-10.5099
偾	-10.51
▁侫仒	-10.5101
▁亪仆亇	-10.5104
▁仮人	-10.511
傞	-10.5111
▁仦侻什五	-10.5111
▁价仆亏事	-10.5111
▁亴伄	-10.5114
▁仐仄亹亳	-10.5123
▁亃俰事	-10.5124
▁予仾仧亜亝	-10.5125
▁佰亳亳伇	-10.5126
▁亂予些亾	-10.5129
▁今亃	-10.5131
▁亷亳亸伅亖	-10.5131
僙仯	-10.5132
▁1958	-10.5132
▁云伧亱人于亡	-10.5136
佣	-10.5137
▁亂予亱亟	-10.5138
▁二亍亦仕亇	-10.5139
▁亪亡伂	-10.514
▁予亭亹	-10.5143
▁佂什些伟	-10.5145
▁仵亊亏	-10.5146
▁亃亥	-10.5146
▁亽侵伽仡	-10.515
▁倧了	-10.5152
▁仫俞亏亐	-10.5155
▁京亭佄亐	-10.5155
剜	-10.5161
▁偓伇仮仇	-10.5162
仚亭侵	-10.5168
▁仦亳众	-10.5168
佉仆亇	-10.5172
▁修俻仇	-10.5174
▁仍云于	-10.5175
▁1961	-10.5181
佾	-10.5181
亏伽伵予	-10.5188
▁亓什会	-10.519
▁付便	-10.5191
些俞五	-10.5192
▁二僻	-10.5193
▁井产亊亨亟于	-10.5196
亃亰仡	-10.5197
▁亓亘亻仏于	-10.5199
▁佖仏仡亡亟	-10.5199
▁予亜亷亳	-10.5199
▁修侂	-10.5201
▁亣亗佘	-10.521
例	-10.5212
ron	-10.5223
凥	-10.5224
位仇于	-10.5228
▁亓些亚	-10.5234
▁亓亘伟	-10.5234
▁云仱仌	-10.5236
▁亪什侯仄	-10.5237
▁亓亜亹享伧亱仇	-10.5241
▁亃事些亿亐	-10.5242
▁佞从	-10.5247
▁佂亼于	-10.5249
呂	-10.5249
▁京亭侵什五	-10.5249
▁侍享	-10.5252
▁仢俰仾	-10.5257
▁亃亳仐事	-10.5258
侮	-10.5262
▁云予伡予	-10.5262
▁侫伫仕产	-10.5265
ord	-10.5276
▁价傓	-10.5277
▁伱伀亟于	-10.5283
▁侈亊	-10.529
▁井亭亴仅	-10.5307
仝伺	-10.5309
▁云伿仄仌亖	-10.531
剳	-10.5313
eg	-10.5316
▁予亭佘	-10.5318
▁仈伀亟仌五	-10.5319
到	-10.5326
僺亭	-10.5327
NA	-10.5337
▁仦仭亨亟	-10.5338
▁亅亻侑	-10.5338
▁1959	-10.5343
▁亓亣亅	-10.5349
▁仈人	-10.5351
▁仍享亮互	-10.5351
▁仢亯亥	-10.5351
▁今儘伧亖	-10.5354
ca	-10.5356
tor	-10.5359
伵亥	-10.5364
▁亞亟仙人	-10.5366
▁侫亳伮	-10.537
▁亞伄	-10.5371
▁京仺倻	-10.5378
▁亓亜亝仆	-10.5382
▁井亊仓五	-10.5382
▁仐事亟仌亖	-10.5384
▁亃事些五	-10.5386
▁付亊事	-10.5391
亏仆	-10.5393
▁仍亊亨亼仇	-10.5399
伵俔	-10.5401
▁1946	-10.5409
▁亂亜亟	-10.5413
▁些亳亱伫	-10.5413
儫	-10.5415
▁亓亘伦亳佃	-10.5415
ial	-10.5417
▁云亗了仆亙	-10.5428
▁仉亚仅争	-10.543
▁伲亭仡	-10.5435
▁价亹亊亇	-10.5437
▁井仭云	-10.5438
▁亃仅亾伮亖	-10.5438
▁仐予僭伧亖	-10.544
▁云了倦伎	-10.5441
▁价亃优亖	-10.5441
▁住优亮亟从	-10.5442
亻亭僱	-10.5443
▁任倐亊亹人亻仏于	-10.5447
▁仃仄些伺	-10.545
▁仈互亘	-10.5454
▁仸位于	-10.5454
偉	-10.5467
倓	-10.5467
云亟仮了	-10.5476
▁仈会	-10.5478
▁侺亳亇	-10.5479
▁亅产伅仡	-10.5479
伨了亇	-10.5481
▁仉亚伂予亚	-10.5484
▁些亜些仌亖	-10.5486
▁亅亟亍人亝亱亇	-10.549
▁今伧亱予	-10.5492
▁仍亜亙	-10.5493
了侚	-10.5494
ple	-10.5494
▁倇亣仅仇	-10.5499
▁于亭	-10.55
▁伕互	-10.5502
▁亴亝亾	-10.5505
▁佧亭了亜	-10.5505
har	-10.5516
▁亓些伇亳	-10.5519
▁仱傊	-10.5521
▁亃亭亻仏于	-10.5522
▁仵亪会	-10.5524
▁亓亘了亹亥产于	-10.5525
▁仦亴亾亟亿亐	-10.5525
▁价僛侖亴仅	-10.5531
▁价亟伫	-10.5536
佄什五	-10.554
▁1949	-10.5541
▁仓佦	-10.5541
▁佳佪仞仡	-10.5544
▁亂予俤于	-10.5544
▁侳亗伺	-10.555
ence	-10.5551
价亭	-10.5552
ern	-10.5552
▁井仺伮仇仱予伂亇	-10.5553
▁亓亳仁亖	-10.5563
▁亳仉	-10.5564
▁云仺会	-10.5568
AT	-10.5573
▁亃仅亾了亹人亻仏于	-10.5576
任仼亭	-10.5577
▁佤亃	-10.5577
gr	-10.5581
▁价倕仂	-10.5583
▁亓俽亦亟	-10.5583
▁1951	-10.5588
▁亪人侐佘仜	-10.5594
咴	-10.5597
▁仈亹享	-10.5597
ton	-10.56
偘亖	-10.5607
▁佞人付人	-10.561
▁亓亘亝	-10.5615
唅	-10.5615
▁亓亳亴亟仄亘亙	-10.5623
▁付卨亾仅	-10.5623
傗	-10.5623
▁亅仛亙	-10.5623
▁侲于今予	-10.5624
▁仮亃亏亐	-10.5629
亹人些亦	-10.5632
▁仵仛	-10.5633
▁价僓予	-10.5635
▁仮伫亟亘	-10.5636
俘	-10.5637
亏倞	-10.5638
ach	-10.5638
▁亓优伟	-10.5639
▁亅众伕亾佝伺	-10.5639
亿亶予伂亇	-10.564
▁亩了佘	-10.5642
侊	-10.5645
▁亅亭些仌亖	-10.5648
僲	-10.5648
劵	-10.5649
▁云亷付亳亃	-10.5649
▁亷倫伎	-10.5649
▁佭佝亇	-10.565
▁于些了仌亖	-10.565
倍	-10.565
▁二仛会了亐	-10.5651
伇云亟	-10.5652
▁伇亗仌五	-10.5656
▁亓伃	-10.5658
▁京亭侷人亇	-10.5662
▁佂侌	-10.5668
▁佢仱仉	-10.5673
▁修仉亖	-10.5673
▁仮亿优	-10.5675
▁些优付亥	-10.5675
▁价亭伴	-10.5676
仓仓亭伟	-10.5679
▁嚻	-10.5679
亹位	-10.5684
▁二亣伍侂	-10.5691
▁1955	-10.5694
▁亂亵侘	-10.5695
▁云亭伟予亐	-10.5698
▁价億些亗亇	-10.57
▁亓些亿伽享亟	-10.5702
▁任儅亼仇	-10.5702
▁亅元予亚	-10.5703
▁侼亳仆伂	-10.5704
▁佤人予亐	-10.5707
▁仸仺亻亼仇伺	-10.5712
▁亴佣	-10.5715
▁京仓	-10.572
▁伲仱亜	-10.5724
▁亓亳亴亟	-10.5726
▁亅亪亣予伽仡	-10.5727
傰	-10.573
伇亏	-10.5731
▁亴仺佢	-10.5734
▁佡伇	-10.5737
▁仍偧	-10.5739
▁仵亪亣仅亪亇	-10.5739
▁仁亃予	-10.5745
▁伕依	-10.5746
▁亅佉仯	-10.5747
▁亴仒	-10.5752
▁价亟亨伡伺	-10.5752
▁侲偞亟	-10.5754
儌	-10.5755
▁仍亳亴俤	-10.5755
sc	-10.5764
▁侫亭了仮予	-10.5764
剔	-10.5768
▁亞倉亼仇	-10.5768
▁亓侅亟	-10.5768
▁价亭佛亩亖	-10.577
伅亿亐	-10.5771
▁1944	-10.5773
▁1939	-10.5775
▁亃僖仛于	-10.5781
伕佅介人	-10.5781
▁交估仄	-10.5782
▁仐予儉	-10.5782
▁京亭佄亚	-10.5785
▁予亭便	-10.5786
伧亍亜	-10.5786
▁亓亣予亾仡亇	-10.5787
[	-10.579
仡仮仺	-10.5791
▁亅冴	-10.5794
▁佽侵	-10.5795
▁仦伽亘	-10.5795
▁仵优亠亡	-10.5797
▁伱优	-10.5804
▁仧债什亖	-10.5808
▁井亅佦亻	-10.5808
▁些优亝亊	-10.5809
ich	-10.5811
▁仉做仉亖	-10.5812
int	-10.5816
▁亅仌亳	-10.5819
*	-10.5821
▁份亚伧亖	-10.5822
▁亅众仅互	-10.5822
▁亮仺亻仏于	-10.5824
▁井亊事	-10.5825
yl	-10.5826
▁价亊仌侀	-10.5829
伧伀	-10.5832
▁侺亨	-10.584
▁仉亚伂予亐	-10.5842
▁些伎予什亖	-10.5844
了亶亖	-10.5845
▁仵优亱仆	-10.5846
党	-10.5848
咵	-10.5848
▁伲偋価亟	-10.5848
▁二個伴伧亖	-10.5851
ish	-10.5858
▁亓亣亷亾予亐	-10.5858
▁仦亳侐仮仇	-10.5859
嗇	-10.5862
▁側伨仯亟	-10.5862
佹	-10.5863
争亭佛	-10.5864
▁价仏伉	-10.5867
▁亣亗亏亐	-10.587
▁仦倖亟亇	-10.5872
▁Y	-10.5872
ts	-10.5873
▁任亾仅	-10.5873
▁仃傒	-10.5874
▁伕仛	-10.5874
剱	-10.5875
回	-10.5875
▁价亟亱于	-10.5875
▁仐事亟亏亐	-10.588
der	-10.5882
aw	-10.5889
▁亣伥伧亖	-10.5891
▁佖伫	-10.5894
▁41	-10.5903
▁予仩伺	-10.5905
▁亃仄亏什亖	-10.5909
佂亹	-10.5912
▁仦亅会	-10.5913
▁仦倛伇侖仒	-10.5915
▁亅亳伂	-10.5917
ite	-10.5921
▁任冃	-10.5927
▁予個	-10.5928
▁仈伮人	-10.5929
ight	-10.5929
仌亍亜	-10.5931
▁亓亻仄	-10.5934
▁云伐	-10.5937
▁仦企予	-10.5943
▁仧仆伂	-10.5944
▁予些事	-10.5946
▁亅伂亖	-10.5953
▁亪伄僤亥	-10.5959
▁予亭会了亚	-10.5963
▁仉亅会	-10.5965
劇	-10.5983
▁佭佝些于	-10.5983
▁仧位亾	-10.5984
▁伇佇亙	-10.5985
▁仉介伂	-10.5986
▁井亭今仡亻仏于	-10.5987
▁亓以亹伺	-10.5987
▁价亊亏亚	-10.5991
▁他予僼	-10.5997
▁亪人侐仌仇	-10.5998
▁仉亭于予亚	-10.6
▁仮仍予亳	-10.6009
位亪亇	-10.6012
ja	-10.6014
▁任人伅伺	-10.6017
▁仧仏伮	-10.6023
▁亣亭俟亟	-10.6023
▁价倖了亹亗	-10.6024
▁付們亣	-10.6024
▁仃倫	-10.6025
仵亊	-10.6026
▁亷亻亃	-10.6029
▁亅亗于	-10.6035
▁亅享予亚	-10.6036
▁侬囇伪亇	-10.6038
▁亅倨	-10.604
▁价伉亱佇亖	-10.6046
亃交僴人	-10.6048
do	-10.6048
▁佃伅伺	-10.6048
▁亘価亖	-10.6052
▁仮仩予	-10.6052
些侖	-10.6055
▁亅佛亟	-10.6059
▁价傊	-10.6063
▁亓亭亻	-10.6065
及	-10.6065
▁交亵仛亝	-10.6065
僷	-10.6079
▁亂予云于	-10.6079
亃交冋	-10.6082
▁佳傳侀	-10.6093
▁仢俰倐伺	-10.6093
▁亴亰佃	-10.6093
▁亃亳些亾伥	-10.6097
侵什亖	-10.6102
▁亮亭侐亪亣	-10.6106
▁今俱	-10.6107
仓侪	-10.6108
▁伕亾佛	-10.6108
▁仮仐仄亏什亖	-10.6109
傃	-10.6117
▁仈什亹亊	-10.6118
▁仦侨侘仓亟	-10.612
▁亮侻伽亇	-10.612
亷僣	-10.612
▁价伀	-10.6121
▁亅亟亍人亝亹亥	-10.6123
tra	-10.613
▁仍予亳亏亐	-10.6133
仅伫	-10.6133
咣	-10.6134
▁亓予仒	-10.6142
吘	-10.6148
喋	-10.6148
▁僵伀	-10.6149
end	-10.6149
▁仈亭伉倖佛	-10.6151
▁仁侐亖	-10.6163
▁价仇亝些	-10.6168
▁仉亗于	-10.6169
▁亪做倿	-10.617
▁匈	-10.6172
▁亃仆仌亖	-10.6175
▁价亭伮亊	-10.6177
▁井伧亾仞	-10.6187
▁佐争	-10.6188
ox	-10.6193
▁价亟仒亹亗	-10.6197
▁于亍	-10.6206
▁井亸佃	-10.621
▁亓什仡亇	-10.6216
▁亅亟伐产	-10.6217
亲亾	-10.6223
In	-10.6225
咕	-10.6231
▁价亟亱亃	-10.6231
▁78	-10.6232
倻佥	-10.6232
▁云亣仟	-10.6245
伡予伂亇	-10.6249
IS	-10.6251
▁伎仅仆	-10.6251
▁些仓亘仅仇	-10.6254
lan	-10.6257
▁佳债伮亾伵	-10.6259
刍	-10.6259
▁些亗仌五	-10.6259
伨亚亟亇	-10.6259
傻仞	-10.6266
▁亘亟仌亖	-10.6266
些仹	-10.6267
云伿仄	-10.6268
▁京亭伽	-10.6271
gen	-10.6273
▁刉	-10.6274
▁价亃佱予	-10.6276
▁亅人亝	-10.6279
▁侍伧仓亖	-10.6281
str	-10.6284
仡伄使	-10.6287
▁伲仒	-10.6287
▁亅亴仧仠	-10.6287
▁佖侈伐亇	-10.6287
▁付仱争	-10.629
act	-10.6291
估伽亇	-10.6294
▁仉亚仅亜伡伺	-10.6296
▁亅亣值作亇	-10.6301
▁仧亾伅仯仅	-10.6301
▁亷亙亾亘	-10.6301
佼亪亙	-10.6301
▁伕仓予亐	-10.631
▁仍亊些亜伴予亚	-10.6316
▁亂亜会	-10.6317
僆	-10.6318
▁亞伤亱亇	-10.6321
伨仆亿亐	-10.6322
▁1953	-10.6323
▁交亪亣仅予	-10.6326
倁	-10.6327
伭	-10.6329
冶	-10.6329
哖	-10.6329
▁仸人亃亱仇	-10.6329
亭佝亰亇	-10.633
▁仦倛伇五	-10.6332
▁仧亳侈伇仌亖	-10.6334
▁俸云	-10.6336
仸亊	-10.6342
sa	-10.6344
佋亶予	-10.6345
▁亓享佛于	-10.6354
▁仱云亽亃伕亳亇	-10.6357
▁亓仺些享	-10.6357
▁亓仆佤人	-10.6357
▁他介僤亳亖	-10.6357
佲	-10.6358
仡仆亇	-10.6358
▁伇侍亃亳伺	-10.636
▁佡农	-10.6361
▁亓以了亹人	-10.6361
▁佤亴	-10.637
亓侏	-10.6375
▁亽亚	-10.6377
▁亅亊亏亐	-10.6382
伟产仇	-10.6385
圡	-10.6386
▁亃佱仄仌亖	-10.6388
▁交亪	-10.6391
▁亓伄亪伄予亐	-10.6395
au	-10.6395
▁仈亥	-10.6399
咩	-10.64
▁仢仙亳伮	-10.64
▁仉亃仮仇	-10.64
▁亞伳	-10.6407
so	-10.641
▁侼亗亏亚	-10.6413
▁京于云了亐	-10.6414
▁云儝	-10.6414
▁亓伄亟亹人亻佬伺	-10.6417
▁仮佬	-10.6423
▁1936	-10.6434
偁亮	-10.6435
▁仵事伂	-10.6435
▁今僆	-10.6438
▁京亭亝仮仇	-10.6439
▁伇伃亅	-10.644
▁些伟产于	-10.6441
▁亃倾伧五	-10.6442
剷	-10.6442
▁亓仂佘仕亇	-10.6443
▁亅众予亚	-10.6447
▁亮仒仇伺	-10.6452
▁些亊仢侀	-10.6457
▁二人伅伺	-10.6457
▁价仆亘	-10.6461
▁些介伧亰亇	-10.6463
▁仵亪亣伧亰亇	-10.6464
▁佳亾伟	-10.6465
▁价亳仁亟仇	-10.6471
▁亞亟伸亗	-10.6471
▁井介仅亊	-10.6472
▁亮仺亻亼仇	-10.6474
▁仍亅伺	-10.6481
▁仍享亮仺	-10.6482
▁仃仄亂亇	-10.6484
▁些亰今仇	-10.6485
刾	-10.6485
傄	-10.6485
▁些佺仍	-10.6485
▁仉冩仳	-10.6485
▁伇佛來	-10.6485
▁亅了仌亖	-10.6488
▁Na	-10.6489
▁仸仏亱亇	-10.649
▁任侔	-10.649
▁井亭今亻亼仇	-10.6495
▁亮亭亯佁仅仇	-10.6496
余位于	-10.6499
▁侩伇	-10.65
udi	-10.6501
▁佡交伧五	-10.6505
▁佢亨	-10.6509
▁亓享仕亇	-10.6514
亯了亇	-10.6515
▁俍偞	-10.6516
云仯亃	-10.6517
▁二什亘	-10.6519
▁仉仆伉伡伺	-10.6523
▁伇們	-10.6523
侙介	-10.6523
▁些亜些亘了亹亗	-10.6523
▁佢亾五	-10.6533
▁些亴亨亼仇伺	-10.6544
▁亷仄亹亪亣伧亖	-10.6544
▁亅人亻仏于	-10.6551
▁京儒	-10.6555
云亼	-10.6557
偁伕	-10.6561
▁亽人予什亰亇	-10.6562
▁伇亳仡	-10.6567
▁伲亼些伫亖	-10.6571
▁些仺亘	-10.6572
▁伋佛仮仇	-10.6573
▁仦倆亖	-10.6576
▁伏傍亐	-10.6579
▁亅亜伅伺	-10.658
▁亓亷亃交	-10.6586
▁亓你	-10.6587
▁井仌亳	-10.6594
▁仮仒亏亚	-10.6599
僓	-10.6599
▁亣亭伦偠伧五	-10.66
亟亹五	-10.6615
兩	-10.6615
▁仫交亙	-10.6615
▁亅倚	-10.6616
▁二佇亳	-10.6618
仉亗仇	-10.6618
▁亪依	-10.6621
侐亥	-10.6622
▁亣介亹亊佘	-10.6643
▁予介佦亳	-10.6644
▁予享伮亜	-10.6645
▁亃仅仱	-10.6646
亃凹亐	-10.6651
▁付亊佋什	-10.6654
匮	-10.6658
▁側仇亽亟予	-10.6658
▁二佴予亶予	-10.666
▁些伧互	-10.6661
▁份仺付人予亐	-10.6668
卮	-10.6673
▁仉偞	-10.6679
▁1942	-10.6679
▁井亭今予	-10.6682
▁亃事亘亟予亇	-10.6685
▁伇亏仌五	-10.6686
▁保俞五	-10.6687
▁仈什亅亳伨	-10.6689
▁亘仝伺	-10.6689
▁仦佬亇	-10.6691
ome	-10.6691
ani	-10.6694
▁亣亭伮	-10.6703
▁仢伌俹	-10.6716
▁侼仉亟亏亐	-10.6721
▁佂伫伈	-10.6724
▁井亸今予	-10.673
▁亪侐侍亸亇	-10.6731
▁亓兛亖	-10.6731
adi	-10.6731
▁伕侖	-10.6733
cy	-10.6737
▁亃亊佃	-10.674
▁亅仞亘	-10.6743
倴	-10.6743
傩	-10.6746
▁仢仙亳亙	-10.6746
▁1937	-10.6752
▁亓些亩亳	-10.6756
▁二偁令	-10.6756
伧亭亨佬伺	-10.6757
mon	-10.6757
▁价云亟云事	-10.676
▁交佹亗	-10.6761
▁仉亾伂介	-10.6761
亨佚伺	-10.6761
▁伲偋	-10.6764
▁仫佃予亚	-10.6766
▁予仒亖	-10.6768
▁井亊侖	-10.677
▁云了什享伆	-10.6775
www	-10.6775
▁仦体仆亿亐	-10.6778
▁亂亡予亚	-10.6779
▁价僛	-10.6785
▁二仴	-10.6788
▁亓伄亂予亹人亝亹亗于	-10.6789
▁仵优伜亡	-10.679
▁京伄仅仆	-10.679
余亜亟亩予	-10.6794
仅亻亟	-10.6796
伧兒于	-10.6798
▁亻享亨亼仇	-10.6798
▁伋倰	-10.68
▁些亭些于	-10.6801
▁亷仄予亗	-10.6805
▁亅伧仿	-10.6807
▁任人仡亇	-10.6808
▁予伿伄佛	-10.6808
▁仦亻佦亭仡	-10.6812
▁亅仞佉亜伧仇	-10.6823
▁仃佚	-10.6824
亪仮伺	-10.6825
▁仵亊亏亹亗	-10.6828
▁井亭亪	-10.6831
伟亡	-10.6835
▁些介亟仺了亹亗	-10.6839
南	-10.6849
▁仐儇伧	-10.6849
▁些伎仅亪亇	-10.6849
▁二仛使	-10.6864
▁侈伧事	-10.6864
▁价享伆仅仇	-10.6864
▁仐仄了亾	-10.6865
▁侺仼	-10.6867
亹争亭佛仇	-10.6869
ld	-10.687
▁价倕亊	-10.6882
▁亓亘亻亼仇	-10.6888
sion	-10.6889
▁佂什仅亻	-10.6893
传	-10.6894
▁予争亊亏亐	-10.6905
亂亃亖	-10.6907
▁仉仂伕亾	-10.6907
咮	-10.6909
▁仉僊仇	-10.6909
▁仧亾了亹亥产于	-10.691
▁云亱仅	-10.6912
▁Mo	-10.6914
▁仃仄亃仇	-10.6915
▁亅元予亐	-10.6917
▁仐亼	-10.6922
▁亅亳亹仆佃	-10.6923
偹	-10.6923
咖	-10.6923
俟伎	-10.6924
▁侍仉仓亖	-10.6926
▁价亭佛亩予	-10.6929
偁偠	-10.693
▁亞亼于	-10.6934
▁任佉	-10.6938
▁价享伵仄	-10.6939
ism	-10.694
▁价亃伐享亟	-10.6942
▁亷俯	-10.6946
▁亷人予亐	-10.6947
▁亂亃佁仅予	-10.6955
▁亪仞倾予伽仡	-10.6956
倞伺	-10.6957
僵	-10.6957
予什伡亖	-10.6961
▁仵亊伉仇伺	-10.6965
▁伃仆	-10.6971
▁亂亡仅亪亇	-10.6971
▁价亳伧亖	-10.698
▁亂侞	-10.6981
僗	-10.6983
兿	-10.6983
▁偁佰	-10.699
▁今了什	-10.6991
▁井亭今亨亟于	-10.6994
▁亞伄伂	-10.6995
ong	-10.6997
▁亃儒	-10.6998
參	-10.6998
仉伊伆	-10.6999
▁仐予偙	-10.6999
仰伺	-10.7008
▁俖亳佘	-10.701
傢	-10.7013
则	-10.7013
▁仁亪亅亜	-10.7014
▁付亦伧亖	-10.7014
侻什亖	-10.7017
▁侩亳亘	-10.7019
ore	-10.7019
▁亂仯些伺	-10.702
▁仢俑	-10.7028
冨	-10.7029
▁亓亰交仯亟亇	-10.7029
pp	-10.7029
▁亃亳伂亝仆	-10.703
▁任仼亭亨亼仇	-10.7033
▁亴亦伂	-10.7034
▁仉亭仌	-10.704
▁仁仿予亐	-10.7044
▁亂亜亝	-10.7044
亪傝	-10.7048
▁亅亟亍人	-10.7048
▁兝	-10.7049
▁价亳予	-10.7052
仡人侐	-10.706
▁云伊亴仅仉亖	-10.7062
▁价仞伟	-10.7064
▁予亊仌	-10.7073
▁伇交兪	-10.7074
▁亓仆仉亊	-10.7074
▁亷伪亇	-10.7075
▁亓什伅伺	-10.7076
▁些亴仡亇	-10.7076
▁亩亟予	-10.7077
▁亓亰些	-10.7078
伅亐	-10.708
▁付亳亣亟	-10.7081
争仓亭伟	-10.7084
▁仦仌侘仓仅	-10.7089
仕亊伐亇	-10.7091
伇亗云亼亢	-10.7094
▁佤争	-10.7095
剈伺	-10.7096
▁侫冝五	-10.7097
予什亊亇	-10.7103
▁仧亜了	-10.7103
冻	-10.7104
▁价俌伧仓五	-10.7104
▁亂亜佂人	-10.7104
▁仄伿五	-10.7105
▁仧倾亟	-10.7105
▁价亹亊佘	-10.7105
▁亃些佬予	-10.7106
偼仇	-10.7111
▁侩伡仉亖	-10.7114
one	-10.7116
仌亭仡亇	-10.7117
嗥	-10.712
▁井予佛	-10.712
▁亓予亳	-10.712
亹人会亻仏于	-10.712
▁云亾仅亦	-10.7121
▁份亶値	-10.7121
▁侍仉佛	-10.7122
▁亅亊佘	-10.7124
▁交亵	-10.7125
亹人些亩予	-10.7126
▁亂亜伅伺	-10.7128
#	-10.7135
▁仝佬些什	-10.7135
厒	-10.7135
吡	-10.7135
▁价喣亾五	-10.7135
剏	-10.714
100	-10.7149
▁仐侰亴亱伟	-10.715
▁价仱云亽亃伕亳亇	-10.715
▁亂亳侌	-10.715
▁付侄争	-10.715
▁俲亜	-10.7153
▁亓亘仉亊亇	-10.7154
仮众了	-10.7157
▁亪伄伮人亻亼仇	-10.7158
▁佰依仱俔	-10.7162
▁些仆侕亟享	-10.7162
▁仮亃亏什亖	-10.7163
冔	-10.7165
傳	-10.7165
劚	-10.7165
▁价亟但仇	-10.7165
▁云亵亿亐	-10.7166
▁今仯事	-10.7166
▁亘亩仇	-10.7172
仌兒于	-10.7172
▁二亻兛	-10.7181
▁亓來众	-10.7181
▁仦予儁	-10.7182
▁亘先	-10.7183
▁亅享伞人亙	-10.719
▁伲倁	-10.7192
tri	-10.7194
▁任倐人	-10.7196
▁予冔伇五	-10.7196
傀	-10.7196
▁亞亟亱仆仱予	-10.7197
▁些倀	-10.7201
亿什亊交亭伟	-10.7201
侭	-10.7202
▁价亟侽仅予	-10.7206
▁井亅伇亵亣	-10.7209
▁亓倥亷亳	-10.7211
▁伇云仮仇	-10.7213
▁佖于亇	-10.7214
▁仦俔伈	-10.7214
仉亗仇伺	-10.7215
▁仉亣亂亡	-10.7215
了伽亊五	-10.7223
▁仱亩	-10.7226
儖	-10.7227
▁仉伇亟	-10.7233
▁亅亸佘	-10.7236
▁井侢	-10.7236
▁井亟俧	-10.724
▁伇云何亭亃	-10.7242
亅侏	-10.7245
佮人	-10.7248
俲	-10.7249
▁亓亃佱仇	-10.725
▁价亟了佘	-10.7259
▁亮仏亹人亇	-10.726
伏倿	-10.7267
▁些仄亟	-10.7271
▁些佇亭	-10.7278
▁亓佉产	-10.7279
亞伾	-10.7285
▁些亳便	-10.7285
▁些优些亪	-10.7287
▁仉僊仯	-10.7289
哛	-10.7304
▁伇倾伧亖	-10.7314
ham	-10.7318
▁仍人亝亳	-10.732
▁亓交侜	-10.732
▁亩云介	-10.7321
▁亂侞伄	-10.7332
▁些亭亊亏伽仡	-10.7335
侗	-10.7335
ous	-10.7338
▁伲亣亟	-10.7338
亹位云亖	-10.7339
▁伇佇会	-10.734
▁亽位予	-10.735
嗬	-10.7351
嗩	-10.7351
▁井养些	-10.7351
▁云佇亾	-10.7352
ture	-10.7355
IV	-10.7357
▁佢伿亷仄	-10.7358
▁井倐仡	-10.736
▁予仾仧亜了亹亗	-10.7362
击	-10.7366
▁任人了亹亗	-10.7369
▁仉云停	-10.7382
▁侍伧佋什亖	-10.7385
伧伊	-10.7386
偎	-10.7387
份亰	-10.7395
▁亅亊仄	-10.7402
▁伇傝	-10.7402
▁仧僃仏	-10.7411
▁价亊倗亟	-10.7413
lli	-10.742
▁仉亚仅亜亟	-10.7427
▁仐仺些仇仮仇	-10.7427
▁仐亅佛仂	-10.7429
▁亷卯亟亇	-10.7429
▁伕仏了众	-10.7429
▁侍侎争	-10.7429
▁亃人会	-10.744
▁伱亼	-10.7442
▁些仓仕仺仌	-10.7445
▁亃交冪仞	-10.7445
▁亂伄亟亜	-10.7445
▁亃仯会些仮仇	-10.7445
亹人些亃侀	-10.7445
▁佂什亹人亝	-10.7447
▁1941	-10.745
亹人会亃亖	-10.7452
▁云亭会些云仂伧亖	-10.7456
ies	-10.7457
▁亷伳	-10.7458
品	-10.746
▁仝亹伺	-10.746
▁側伨五	-10.7461
▁亂债亖	-10.7461
▁付仱亥	-10.7463
▁佳什今仇	-10.7464
▁价亊亏伽仡	-10.7467
▁予亹佋亐	-10.7471
▁伕于亘	-10.7472
▁价仏伴	-10.7476
冠	-10.7476
▁亂倀事伧亖	-10.7477
▁仝人	-10.7479
▁亅亜仐事	-10.7482
▁亅人伴	-10.7488
偱	-10.7492
▁些亚亪位	-10.7492
▁价伉亱佇五	-10.7493
▁伎仉亊	-10.7496
▁佞争	-10.7496
亳値	-10.7503
俵	-10.7507
▁予仾仧亜了亹亗于	-10.7508
▁些事亟亘亙	-10.7508
▁佖仙人仌亟于	-10.7517
仚亭侵亐	-10.752
▁京亵	-10.7523
卩	-10.7524
▁亂于亪	-10.7531
▁亷些仄	-10.7534
▁二佲仆伂	-10.7539
▁俲伇令	-10.754
▁亴仯仮	-10.7541
▁亪伄伮亥俥伺	-10.7541
▁仦們仄	-10.7543
俀	-10.7544
SO	-10.7545
▁1934	-10.7546
▁价亊亏什亰亇	-10.7549
▁仦伎仅亖	-10.7556
▁价亡使	-10.7558
伕仭	-10.7563
▁仫交了	-10.7565
▁仍亊仌伡伺	-10.7566
割	-10.7571
俅	-10.7571
▁价亹亊仌亖	-10.7572
▁二亻侮亟	-10.7573
▁二什亘仅仇	-10.7584
▁价億些亗仌亖	-10.7585
▁亅亜亹伄伂	-10.7587
僦	-10.7587
価仙	-10.759
▁伋佴	-10.7593
▁仍予亳仮亪亇	-10.7593
▁亓亳亴亟仓亖	-10.7594
▁今僴亐	-10.7603
冗	-10.7603
務	-10.7603
叢	-10.7603
▁予亊俄亳	-10.7603
▁仦亃亳今予	-10.7604
依亅	-10.7607
▁仉仐佦予	-10.7619
厳	-10.7619
▁亷僥伺	-10.7619
▁仮亸些亿伽仡	-10.7621
▁亃亪佛	-10.7621
▁亅嘃亿亐	-10.7621
▁伋伝亚	-10.7638
▁价亳仉亖	-10.764
▁佖仙亊亱亇	-10.7643
▁仸亥仏伂	-10.7652
▁偠亳些伺	-10.7652
▁亓亳伥	-10.7653
▁亩云亃	-10.7655
▁1938	-10.7658
▁些亳份	-10.766
▁亅亗亂亇	-10.7662
▁仦促俖亟伺	-10.7667
▁亅伅仾	-10.7668
▁价侦亟伺	-10.7668
▁侲倝亟亖	-10.7671
亠	-10.7679
▁价亭亅亩	-10.7679
▁些伇佛	-10.7683
▁佖值佚亖	-10.7683
刺	-10.7683
▁侩仯今伇	-10.7684
▁予卑亸	-10.7684
▁伇党予	-10.7684
ory	-10.7688
▁亓仞亻	-10.7695
▁予仾仧亜伅伺	-10.7696
侽	-10.7696
bi	-10.7703
傱井产	-10.7707
▁于偞亟仮予	-10.7707
兝	-10.771
▁京优	-10.7712
京亭亐	-10.7716
▁价亹仏佃	-10.7716
仡伓亗	-10.7716
▁伎仅伽	-10.7717
▁任亾亟	-10.7721
冓	-10.7722
予亳仮仇	-10.7729
▁仦亃亳今仆	-10.7732
▁仸互	-10.7736
▁仉亾些享	-10.7749
ack	-10.7751
▁仈会以	-10.7752
▁仸伄仕俥伺	-10.7752
▁仸仺些伺	-10.7758
las	-10.7759
付仼亟	-10.7764
▁伇亳侣仄亟	-10.7764
俪	-10.7764
▁价亭侉	-10.7766
▁付亜仕俥伺	-10.7767
▁仸仺亻亼仇	-10.777
▁仦亳侐亷仄	-10.7771
倗亭	-10.7777
傰伺	-10.7778
吜	-10.7781
哥	-10.7781
▁亴仺付佁	-10.7781
▁伱仱亟仮予	-10.7781
▁仐仺些仇亏什五	-10.7781
俰	-10.7789
亹人伬于	-10.7791
▁二仇亹人些于	-10.7796
嘩	-10.7797
▁井亅予亳亸	-10.7797
▁仉亃仌亖	-10.7801
▁亪伄伮亊亹人亻仏于	-10.7806
▁伲仡些亳	-10.7813
▁价亊佘仕亇	-10.7817
▁伇亗伇偠	-10.7817
▁1943	-10.7819
仅今伺	-10.7823
▁亷亹予	-10.7826
▁些亻亝	-10.7829
▁亣亭些仇佛伕亳	-10.783
▁仢侐亗	-10.783
▁亴仺予亦予亐	-10.7838
仉人亻亼仇	-10.7844
傪	-10.7846
▁佖伂予倖	-10.7846
▁亷傍伄	-10.7846
▁予亩亽亟予	-10.7846
▁亪亜云了亐	-10.7846
▁些亸伉	-10.7847
▁亓伪了亐	-10.7847
OH	-10.7849
▁仨仩仼	-10.7853
▁侫冝	-10.7862
卻	-10.7862
▁亳刚	-10.7863
伝亚	-10.7864
僻	-10.7864
仍亝亇	-10.7875
▁云亭亃	-10.7875
▁云亡伟	-10.7878
▁侲倝亟	-10.7878
▁亅亊伮亜亙	-10.7879
▁亅仏仡亇	-10.7881
▁亓亣亅伺	-10.7883
▁些仛	-10.7886
▁仐仺些仇伅亖	-10.7887
亪佅仭	-10.7892
▁侈侕	-10.7893
▁亞亟伸人会	-10.7896
▁二偔	-10.7897
▁佭仭伨仉	-10.79
▁1935	-10.7904
▁佃了亹亗于	-10.7907
▁价亳予亴亟	-10.7914
亰伵予	-10.7919
▁亅侠仒	-10.7923
▁亽人予亚	-10.7923
Se	-10.7927
场	-10.7928
▁仵亪亣伧仓亭伟	-10.7929
▁仉亚京亭	-10.7931
▁亽僟争	-10.7933
min	-10.7939
▁井伧亾仇亏亐	-10.7941
傴	-10.7941
▁修亅予仙	-10.7945
▁仧亾仉仂	-10.7945
亿佀	-10.7946
呄伺	-10.7949
▁佦今五	-10.795
▁价伮亾伂	-10.7952
▁任仹亹亗仇伺	-10.7952
▁120	-10.7955
伞仛	-10.7961
▁仦侻伽仡	-10.7961
▁仐仂些予	-10.7963
仐仏	-10.7963
云互亇	-10.7964
▁1929	-10.7969
▁京仺伨	-10.7972
800	-10.7975
僳	-10.7978
▁二倕亃	-10.7978
▁仉人亂亡	-10.7978
▁仧佱仄	-10.7982
▁二亾京亭亐	-10.7987
亭仮今伺	-10.7996
▁org	-10.7998
▁仉亾今予	-10.7999
▁仮偛	-10.8009
▁仵事伏亨	-10.8011
伞人	-10.8021
▁亓亝伎亟	-10.8028
▁佂侻仄	-10.8028
儃亐	-10.803
▁仦伫亖	-10.803
▁亅亳些亱仇	-10.803
▁价了僂亾	-10.8033
▁伕仄亘	-10.8034
偂	-10.8044
喩	-10.8044
喸	-10.8044
▁价亟佉亃仆	-10.8045
▁付伿些	-10.8058
匋	-10.8061
啳	-10.8061
▁侈倘佋什亖	-10.8063
▁佰伇亹人亻仏于	-10.807
▁亞伤亹亥产于	-10.8073
▁250	-10.8075
▁仦倛伇	-10.8075
▁二亻侮	-10.8076
亓亩些于	-10.8076
ther	-10.8079
uk	-10.8084
▁任仼亭了	-10.8085
▁佞人亅作伺	-10.8095
▁亞亟但争	-10.8095
▁予亭亃亹人亻佬伺	-10.8097
冿	-10.8111
^	-10.8112
▁仧亳亲亳	-10.8112
▁亓亭亐	-10.8112
▁亞俤	-10.8113
俢亡	-10.8114
▁亩交亳	-10.8115
▁付倅亇	-10.8123
▁亓亣予亹亜仅仇	-10.8128
▁仮亽争亖	-10.8128
▁亂兓人	-10.8129
▁仐亟交了	-10.8129
▁亅亪亣予亶予	-10.8131
▁仉今亣	-10.8132
ics	-10.8135
▁价仄仌亳	-10.8138
▁价亟冕亟伺	-10.8145
備	-10.8145
▁亪亡佛亅倨	-10.8145
▁井亭亚	-10.8145
▁亴仙亏亐	-10.8147
▁予亭亃亹亗于	-10.8148
亾亊交亭伟	-10.816
啒	-10.8162
▁云仺云仄侕	-10.8162
▁亅仄佤仇	-10.8163
▁交偞	-10.817
▁亂亟亼	-10.817
▁予傥俔	-10.8179
▁佤关	-10.8181
▁仦亻佦亭亊五	-10.8181
▁亅亟伡	-10.8182
▁予亭亃亹人亻亼仇	-10.8193
▁份侎仆	-10.8194
嘢	-10.8196
▁伃偍亜	-10.8196
▁仐仱予亾	-10.8196
▁亴仺佢亳予	-10.8197
▁井亸侑	-10.8204
▁仦亳俟伅伺	-10.8205
ty	-10.8208
些倘	-10.8208
偙	-10.8219
▁亃交做	-10.8222
IC	-10.8223
▁50%	-10.8227
僄	-10.823
▁予亣兄傒	-10.823
伜	-10.823
▁予众伇仮仇	-10.823
▁佖亩些于	-10.823
些亿伽亊五	-10.8233
傱云互亇	-10.8236
▁仐仺些仇亏什亖	-10.8244
▁付亊予伺	-10.8252
估伽仡	-10.8256
嘃	-10.8263
▁亻佐	-10.8267
▁佰亾仇	-10.8268
▁价亟仡仍仱予	-10.8273
侦互	-10.8277
▁佂伩	-10.8278
▁价亳伧传	-10.8281
▁任仄俟仅	-10.8281
叄	-10.8281
▁云亣伣	-10.8284
▁伕亾佝伺	-10.8288
▁亞侶俥伺	-10.8291
伮亾伂	-10.8295
▁仸伄亟于	-10.8295
▁价伉亭伟	-10.8298
▁予众亃仉亟亱仆	-10.8299
▁些亚伂	-10.8307
▁付兂	-10.8311
▁佂仹	-10.8313
佬云亖	-10.8314
▁二侫伨仯仅	-10.8315
▁仦伧亳了亸伵仇	-10.8315
匒	-10.8315
▁亃交凳	-10.8316
▁亩伿些	-10.8319
▁亓以亙	-10.832
▁些亴亨佚亿亐	-10.8333
▁亽亟了伺	-10.8334
▁亓侫亳	-10.8337
▁予仄些亳	-10.8338
▁价亟仡仍	-10.8341
ava	-10.8341
ick	-10.8341
▁交亪亣	-10.8347
▁亴亳云	-10.8354
▁二亾京亭	-10.8355
▁云予伡仇	-10.8355
▁予些仇佘	-10.836
偁佰	-10.8364
亹人亅些	-10.8365
▁价亡仉	-10.8366
侴亼仇	-10.8367
厣	-10.8367
▁亓你倡	-10.8367
▁亓佲俽于	-10.8367
▁亮具亟	-10.8367
▁亷俔亟什	-10.8367
▁伲仱什	-10.8368
land	-10.8371
▁伇侉予	-10.8372
▁仍云仡	-10.8374
▁亃仅亾仡亇	-10.8377
▁亮侻亚	-10.8384
▁仧债亖	-10.8385
▁仈仛了	-10.8385
▁亮偔	-10.8386
▁亂俌亸仌五	-10.8393
亪仮亾	-10.8394
▁价仄仡予亚	-10.8395
嘅	-10.8402
▁仉健亾仅	-10.8402
▁云于仱	-10.8402
▁亓俓亃	-10.8402
▁佢仄亻亾	-10.8405
▁亓佻	-10.8413
▁伃估亐	-10.8414
▁侫今伇	-10.8422
▁亃仅亾伨仆伺	-10.8422
▁于今亳	-10.8431
Si	-10.8434
傖	-10.8436
▁佃亷亴	-10.8437
▁任人亘	-10.8438
▁1931	-10.8444
▁二仛伮	-10.8445
▁亮亟亿亚	-10.8448
▁伲亃仂	-10.845
▁亓仚仛于	-10.845
ett	-10.8453
▁亞俉些	-10.8455
▁亃侏	-10.8456
▁伱伀伡伺	-10.846
▁予亥介予亚	-10.8467
▁井仄亻	-10.847
▁任便	-10.847
▁仁伽亨亟	-10.8471
▁仦侻伽亇	-10.8471
▁亪仒今什	-10.8471
Per	-10.8475
▁佃仌亭佛	-10.8477
▁仦仼仓亭伟	-10.8479
▁亮併	-10.8482
▁佳什伂	-10.8482
▁仦佬些于	-10.8489
▁亓予仱亣	-10.8489
▁仈伔佛	-10.8489
▁仉亭亣仂	-10.8489
▁仢亱仇	-10.8489
▁井仄予仆仉亖	-10.8495
吸	-10.8506
嚁	-10.8506
▁些佺仇	-10.8508
▁亓伄伂介	-10.8515
▁修仉亳仮予	-10.8517
▁价亟佉亻仏于	-10.8519
休	-10.8524
▁佃亪伿	-10.8524
▁二亍伱人	-10.8528
兴	-10.8529
▁井亟倫	-10.8534
▁劘	-10.8537
▁亓仞亷仇	-10.8541
▁亓伐亅仉	-10.8541
▁亪伄伮亊亹亥产于	-10.8544
▁云亗仌亖	-10.8545
▁侍伧亰仡	-10.8547
▁亽僟争伧亖	-10.8554
▁二佪佬伺	-10.8559
▁仐仅亟	-10.8562
亭佝亖	-10.8565
▁些亶予仌亖	-10.8571
▁仢仆予伒	-10.8576
▁予儇	-10.8579
企于	-10.8584
佮倐	-10.8585
▁予伿伄伟	-10.8587
▁佂什伨人	-10.8591
傱券	-10.8591
▁亓仧仉亭仌	-10.8594
亨佬亐	-10.8594
▁仧侘亴亖	-10.8595
▁仐仺伂	-10.8596
▁仐侀亇	-10.8599
劫	-10.8612
亽仱亟亸	-10.8614
▁亂亜仅云亖	-10.8616
佄什亖	-10.8616
van	-10.8624
▁亓亰些仄仱	-10.8624
▁交僋佛	-10.8629
▁亷仙伟	-10.863
▁佭亃仭	-10.863
▁享兎	-10.8632
▁侼亾亊	-10.8638
▁京仺仟	-10.8639
▁二個伴伈	-10.8641
傱仈亭	-10.8646
呫	-10.8647
▁井亸些予	-10.8649
▁予亭亃亹人亻亼于	-10.8654
▁他內伧	-10.8659
喑	-10.8665
▁伲争伧亗	-10.8665
▁亓俖予	-10.8665
▁亓享佝伺	-10.8666
▁亅亟亍人会些于	-10.8681
剩	-10.8683
▁亓亾亟侄伺	-10.8685
▁予亸亅亣	-10.8689
▁亮仩	-10.869
▁予仺亙	-10.8692
▁些亻伅伺	-10.8692
▁伇佇亝	-10.8693
▁价倖亨仏于	-10.8695
▁仧仱俆侫	-10.8712
伧亟仓亖	-10.8713
▁予僳亊亷	-10.8718
册	-10.8718
厗	-10.8718
予伽亨享伆	-10.872
▁亳卛	-10.8721
亓侲亾了	-10.8722
▁仦仞仮仇	-10.8722
▁仧冃仅伺	-10.8729
▁侩亦	-10.8731
▁亣亭云事	-10.8732
▁仧仱係	-10.8733
▁亞亼仇伺	-10.8744
▁仢倮事	-10.8747
▁亮亟亭亇	-10.8754
▁亓仏似些仄亿亶	-10.8754
▁京仛于伲仡	-10.8754
▁伎伞仛仌	-10.8754
▁予刣人	-10.8754
▁些优亷争	-10.8755
▁仍亊亨仏于	-10.8755
▁亅众仅伫仕俥伺	-10.8756
▁伇仮亣	-10.8756
▁亓以亨亼仇伺	-10.8757
▁亮亭亯	-10.8759
▁佰亾亖	-10.876
▁倧亣亟	-10.8762
Par	-10.8762
chi	-10.877
▁予伿伄亟亹亗于	-10.8771
▁伇仯亨仞亘	-10.8772
▁些仝仓	-10.8773
▁仉侻仄	-10.8773
▁井侔	-10.8774
▁亓以了亹人亻佬伺	-10.8776
▁些亟亩仇	-10.8777
凷	-10.8778
▁亻仱云亙仏	-10.8781
nam	-10.8784
▁亓仏仐事亟	-10.879
▁仐亡份互	-10.879
▁亪佑	-10.8807
垛	-10.8808
▁亓予佃伧亖	-10.8809
▁亓亃亍亜	-10.8811
▁于些伉亟于	-10.8816
▁亽些亖	-10.8821
▁伋僖优	-10.8826
另	-10.8826
▁仧亳亅仄仮予	-10.8829
▁仐予仞	-10.8835
匍	-10.8844
▁亣予僉仏于	-10.8844
▁伃伄	-10.8847
▁仐仄亹亳亙	-10.8848
佧伄	-10.8855
亿什亰亇	-10.886
▁二伦亾伴	-10.8862
▁仢亯人	-10.8863
▁佞亳亹亃	-10.8868
▁仦亳俟会	-10.8876
▁付亳亃	-10.8876
▁亓什亨仏于	-10.8878
▁伕仂伂	-10.8889
▁仧亾伂予亶予	-10.8891
▁交亃仮仇	-10.8894
▁予亸偼人	-10.8895
▁井伓人亝	-10.8899
▁亞卯亟侫	-10.8899
▁付亻僙仯	-10.8899
▁仮亃亏伽仡	-10.8899
▁亓事些亾伥	-10.8901
▁亻仞亨	-10.8904
伮佱予	-10.8911
▁伲仇于	-10.8913
▁亓些伐仡	-10.8915
▁价仱仮亟亸	-10.8917
又	-10.8917
▁亂仙亗	-10.8917
▁井倐亪亇	-10.8925
▁价享亂予	-10.8929
吷	-10.8935
▁亮仗众	-10.8935
▁佭亃仱前人	-10.8935
▁侫互亹亟亸	-10.8936
▁京仺亝些介	-10.8937
▁京伄伧亟	-10.8943
▁側侤	-10.8944
些伎伈仜	-10.896
▁仃仓伎	-10.8972
▁亓些亭亊五	-10.8972
▁仸亗亘伮	-10.8974
亞侶	-10.898
▁仍予亭亇	-10.8985
▁亃亏伽享亟	-10.899
▁亩僚伟	-10.899
冷	-10.899
▁亣亭俟伡伺	-10.8991
▁仦亃亳佃	-10.8992
▁于冓	-10.8996
▁佂什些亭亇	-10.8997
▁予些伇	-10.8998
▁佳亾仉亨亼仇	-10.9004
▁云亡仮些亗	-10.9008
▁亩云仳	-10.901
▁仉冫亽亃	-10.901
▁亣仇亂亇	-10.9017
▁价喣亾亖	-10.9027
▁伇亳亸享	-10.9028
▁价亟侽仅仇	-10.9031
und	-10.9039
▁亓优伂	-10.904
卽	-10.9045
嗱	-10.9045
▁价伥了亭仉	-10.9051
▁1932	-10.9054
▁亓亣亷亳佡們	-10.9056
云亏仄	-10.9059
aya	-10.9059
▁亅仩仡亡	-10.9064
▁于亾亃	-10.9065
佌位予	-10.9066
▁价伵仄仌亖	-10.9068
伧仓亭佛	-10.907
仆仉亱仇	-10.907
▁佡倫	-10.907
▁佰亳亳亴	-10.9071
▁佳亵	-10.9072
▁亅伧亼	-10.9079
PA	-10.9081
▁仉仂侰亨	-10.9082
▁亣予債	-10.9082
▁任倐亗	-10.9086
▁仵亊佉亻仏于	-10.9097
吾	-10.9101
▁亓傒仺亝	-10.9101
儅亼	-10.9103
▁予亗亘了	-10.9113
q	-10.9117
▁亂倔	-10.9118
▁井仄予俌仟	-10.9119
仚亭佄	-10.913
傦	-10.9138
▁側伡亣亅亣	-10.9138
▁二佪亼	-10.9139
伕仌亳	-10.9144
▁井亸偋	-10.9144
亳仌仇亇	-10.9146
亂亜仅亃	-10.9147
▁亂佇亟	-10.9156
划	-10.9157
呾	-10.9157
▁他侢伄	-10.9157
▁仅侃	-10.9157
佇亭了亱亇	-10.9159
▁仦亳俟了亹亗于	-10.9163
▁伇侍亃亳亿亐	-10.9168
ance	-10.9168
刌	-10.9175
▁仐仄仍人了	-10.9175
哘	-10.9175
嗻	-10.9175
▁份互亘	-10.9176
▁亻仞亘	-10.9188
哐	-10.9194
▁佖做亇	-10.9195
▁仧亳亷伇	-10.9195
▁云伊亴仅仉五	-10.9199
▁亻俄伃亗亿亐	-10.9199
▁仉仆佉亻亼于	-10.9201
▁二亍些仔	-10.9205
▁价亃凹什亖	-10.9213
ft	-10.9214
▁侍于亘	-10.9215
▁伇伃亅仌亟	-10.9216
▁亃事亘亟予	-10.9217
▁仸仏亹人亇	-10.9223
▁亓使亊	-10.9223
▁他以今伧	-10.9227
▁亃云仡	-10.9229
▁二仧侘亟	-10.9232
▁亓些亩仯	-10.9232
▁井內亇	-10.9232
▁仐伦亟	-10.9233
▁亓佚亊	-10.9234
▁予亗亘伮	-10.9235
▁价亟亏	-10.9244
ook	-10.9245
▁亪亜伧亭	-10.9246
▁仈伭仿亇	-10.9251
▁仦俄伇予	-10.9251
▁亞亟但亥	-10.9251
▁他內伧亾	-10.9257
▁仍予俕	-10.9259
▁份亶	-10.9264
▁佧亃偌伟	-10.9269
▁仸仺些于	-10.9269
▁仉些亷亳	-10.927
▁价亭仡伬于	-10.9276
▁亮亟亾亊亹亗于	-10.9279
▁仐予僉仏于	-10.9288
劢	-10.9288
兡	-10.9288
lam	-10.929
▁亪亡今予份	-10.93
倊	-10.9307
凁	-10.9307
仱僲亳	-10.9308
予什伊伆	-10.9309
予什亍亜	-10.9313
了僂亾	-10.932
伧亭亨仏于	-10.9324
▁修从	-10.9324
嗍	-10.9326
▁亴些仱仌亾	-10.9326
▁于些亏	-10.9327
仐仺些仇	-10.9335
▁仭佔	-10.9339
▁1900	-10.9342
単	-10.9345
▁亅亾侣云	-10.9345
▁住优亮亟侂	-10.9348
▁亷亳亸仮亪亇	-10.935
▁亅众伕亾佛	-10.9359
▁仵优亱仆亿亐	-10.9362
▁Com	-10.9363
▁亴伄亃仆伂	-10.9364
▁儁亜佦	-10.9364
叩	-10.9364
▁仉亾亪位	-10.9364
▁亞侒亡	-10.9383
▁京于仍仄今亟	-10.9383
冴	-10.9384
仚亭亶予	-10.9388
▁仨佋什	-10.939
亃交侃	-10.9396
▁亩些亳仉亟亖	-10.9402
John	-10.9403
埫	-10.9403
▁仵僘亭	-10.9403
▁兼亜	-10.9404
▁京仺亝	-10.9406
凼	-10.9406
仆刷伺	-10.9407
▁亓亘伨亪亇	-10.9408
▁仧亾仉仇	-10.9409
▁于些亨	-10.9415
▁亣亗亏亚	-10.9419
云享伟	-10.9419
▁亪伄伮作伺	-10.9422
▁仦佱人	-10.9422
▁仦亻亟些互仡	-10.9422
▁价亟亨仕俥伺	-10.9423
▁仐仺会	-10.9429
▁亓以了亹人亻亼于	-10.943
▁仐予俱予亚	-10.9432
俣	-10.9441
▁亓亳俌亸亇	-10.9441
▁佧亻优	-10.9441
▁今亾侫	-10.9442
▁修俻仯了	-10.9443
▁价亭亹些	-10.9453
▁仧倇交亟伺	-10.946
lect	-10.9466
倇亣仅仇	-10.9471
az	-10.9476
▁予亗亘仟	-10.9479
佨	-10.9482
▁佳亾佛	-10.9489
剛	-10.949
▁倧亗伦会	-10.9499
▁侍仉仓五	-10.95
亿伽伵予	-10.95
▁伕佅亾	-10.95
今伵仆	-10.9503
▁二人会佮产	-10.9508
▁仢倒	-10.9523
▁亻享了仉佴	-10.9528
▁伎亹伫伡伺	-10.9532
▁伇凼	-10.9533
}	-10.9537
▁仦仌侘仓亟	-10.9537
▁佂伫予亳仮仇	-10.9541
▁予事仰亿亐	-10.9551
啰	-10.9557
▁些亳份刀	-10.9557
▁仃僉	-10.9562
▁1928	-10.9566
▁侲倛俌	-10.9576
制	-10.9576
劶	-10.9576
▁云亣伣争五	-10.9578
▁仉亭于仍予伺	-10.9581
▁亓伄亂予亹人亝亹亗	-10.9582
▁佤傒	-10.9583
ung	-10.9594
▁价亟伝众亃	-10.9596
叻	-10.9596
▁亣仇伇亾	-10.9596
卿	-10.9615
▁价僓予亳仌五	-10.9615
▁亴伅佛	-10.9616
▁US	-10.9616
▁云亥云伀	-10.9635
双	-10.9635
▁今亍享	-10.9635
▁价亃优五	-10.9635
▁价仄伿五	-10.9635
▁仐亳亱了	-10.9636
▁仦亻佦仱亖	-10.9639
▁侍付仄	-10.9639
▁伱仿亻仏于	-10.9646
▁仦仼侀	-10.9659
▁依付	-10.9668
▁亃交僴亥	-10.9674
俐	-10.9674
▁俖俞亡	-10.9674
▁些亟亣伊伆	-10.9674
▁亂仛于亇	-10.9687
亸侕	-10.9689
▁价亡些仂	-10.9692
儉	-10.9693
▁亷伉亳	-10.9694
厕	-10.9694
▁亓亰些仄	-10.9699
▁1924	-10.9703
▁亃事仍予亳仮予	-10.9704
▁亅亟亍人亝亹人亻亼于	-10.9707
▁亅亟亍人会亻仏于	-10.9707
▁京亭亶	-10.9708
▁些优亅亗	-10.9709
倇亣仅予	-10.9712
▁二伖交亊仌亖	-10.9714
▁1919	-10.9719
▁亘佋亐	-10.9721
ood	-10.9724
NO	-10.9733
▁亴仄亹亣亷亳	-10.9733
▁价伀亟亘仅亃	-10.9733
▁侳亳伉	-10.9733
佇亭亨仏于	-10.9737
▁予仇亜亟	-10.9745
▁亅享会亡	-10.9749
▁侬以	-10.9751
叭	-10.9753
▁仦亻亟些互亊五	-10.9753
▁亂亃亱什	-10.9753
予伂伿	-10.9758
▁仉仆仡亻仏于	-10.976
▁价亃做	-10.976
▁亮內	-10.9765
农	-10.9768
pur	-10.9772
别	-10.9773
▁二侢仒	-10.9775
▁仉唌	-10.9776
▁仮仺付人	-10.9776
▁些亭亻亼	-10.978
▁1933	-10.9781
叇	-10.9793
▁份亚予什亖	-10.9793
▁佡佨	-10.9798
▁亅仱云亾亙	-10.9802
▁仍亊仱側	-10.9802
仮亾亟俤五	-10.9807
▁亓伄亟亱亇	-10.9809
▁亪側仱亢	-10.9813
儭	-10.9813
▁亓佊亏亚	-10.9815
仐侰	-10.9816
▁今僉亼仇	-10.9822
儁	-10.9831
亴伫亃侃	-10.9833
▁亓亊佉些伺	-10.9833
▁予亸偼人亙	-10.9835
▁井亭今仡亻亼仇	-10.9845
thi	-10.985
▁仍刌享	-10.9853
▁仮亮亭亇	-10.9853
▁亂仛些亣亰亇	-10.9855
▁伃亗亿亐	-10.9855
▁价亳仌仇	-10.9858
▁亞俙亃佱予	-10.9858
佮伢	-10.986
▁亓云侑	-10.9861
▁亘先仁凅	-10.9873
冕	-10.9873
▁亓亣侕	-10.9879
▁伇傿	-10.9881
▁亷吰	-10.9882
伇亂仌亳亇	-10.9883
▁今僋亸予	-10.9893
▁仐倹亻	-10.9893
▁侰仯亟五	-10.9893
▁亓亃伐享亟	-10.9895
▁予亥伨争	-10.9902
▁1925	-10.9907
▁予僪仯僫	-10.9913
▁云亥云伔云亖	-10.9913
▁伕伎伧事	-10.9913
▁仧亳予亊仇	-10.9913
▁亓了亡	-10.9915
▁些优些亪亝于	-10.9916
亞伤亹亗	-10.9916
ock	-10.9919
▁云了亶俔	-10.9933
▁亓亭亷亘伧亖	-10.9933
▁亮亏倞伺	-10.9933
▁予些侕	-10.9933
▁亓侾云事	-10.9937
些亿佀	-10.9938
▁仉仂伕亾伟	-10.9945
兀	-10.9953
伮亾仉	-10.9956
些亣亰亇	-10.9964
佋亶亖	-10.9966
▁些亟于仡伓儀伺	-10.9974
咃	-10.9974
亻佫五	-10.9974
▁亓亊伉仕产	-10.9974
▁亴了佋亐	-10.9992
ust	-10.9993
亝交侃	-10.9994
▁价亭伵于	-10.9995
▁亞亟佋亚	-11.0003
ica	-11.0009
听	-11.0014
▁亃倾仅伺	-11.0015
▁亷伳倿	-11.0021
▁亞亟仓仞	-11.0024
▁价仇仡仛	-11.0026
侹	-11.003
▁价僓予亾	-11.0034
▁亷仄俽亨亖	-11.0035
▁价亹亊仌五	-11.0035
▁佰于亭	-11.0036
▁些亸了	-11.0038
▁仐仏仮事	-11.0039
▁仉人仉了	-11.0042
▁价凡	-11.0043
▁亴亝亾了	-11.0044
仑仒	-11.005
>	-11.0055
▁份嗒亭	-11.0055
勚	-11.0055
▁价仆些亳亴	-11.0055
▁亮亏倞亭	-11.0055
▁亞亟但人予亚	-11.0056
▁亃些伄	-11.0058
凶	-11.0075
噩	-11.0075
▁云傞仿	-11.0075
▁仃伀亖	-11.0076
▁仵亊偂伺	-11.0081
▁云亗仌仓亭伟	-11.0082
▁京亏亖	-11.0086
▁亪亜亟亳亴五	-11.0096
▁仍享亮仏	-11.0096
啁	-11.0096
▁仍亊亝亹人亇	-11.0099
▁1926	-11.0105
▁亷亥亻亼仇	-11.0109
▁侈创	-11.0116
嚿	-11.0116
▁伋伝什	-11.0117
仮亣亾	-11.0118
ology	-11.0121
▁仍享亮仺亻亼仇	-11.0121
oph	-11.0121
▁仈倁	-11.0124
▁价倖佝伺	-11.0129
▁仦亃亳些什	-11.0137
▁亓倭仼仠	-11.0137
吴	-11.0137
刁仛于	-11.0137
▁亓侈份亚	-11.0137
▁仈亜仁	-11.0137
▁些优亷亥	-11.0137
▁些仞佉亻亼仇	-11.0142
▁亓俸予	-11.0143
亹人亻仏	-11.0143
▁井仺伮仇亿伽	-11.0151
▁仨亱予	-11.0154
▁伇云亷仄	-11.0155
▁佞人亅争亭	-11.0158
▁亷亃仄	-11.0161
▁价仚仛于	-11.0171
log	-11.0174
囚	-11.0178
▁1921	-11.0191
▁云亥交伀	-11.0199
▁佂什亹享仅予	-11.0199
National	-11.0199
▁仵亊倴	-11.0202
▁亅亳仉亟于	-11.021
剈	-11.021
▁佂什亽人	-11.0212
▁于偞亟仮仇	-11.0215
▁亣亭侍亸云事	-11.022
俴	-11.022
処	-11.022
▁亅亟亏亳	-11.022
▁亅亪亝伄	-11.022
▁亞于了	-11.0222
▁亅伅亇	-11.0226
▁侍伧事	-11.0226
▁亃予些事	-11.0228
▁些仆偋	-11.0232
▁伋仹亹人亻仏于	-11.0238
堈	-11.024
▁云亷儔	-11.0245
▁价亃亍亜	-11.0246
侙	-11.0248
价仄偢	-11.0259
▁仈伮人伎伧亖	-11.0263
▁亓仁亇	-11.0277
僖	-11.0282
叚	-11.0282
▁仍亳俟	-11.0284
▁价偳亟	-11.0286
僇	-11.0293
▁京亭佄什	-11.0298
▁亣亮仌亟	-11.0303
▁价亵亂亇	-11.0303
▁侲佁仅仇	-11.0303
佂値	-11.0307
AD	-11.0308
▁些亻亨仏于	-11.0312
▁井亸们	-11.0322
▁仧亵侘	-11.0324
▁亓亣亳亜	-11.0324
▁亅享伮亾伂	-11.0328
▁亮仺些亃侀	-11.0328
▁今冀	-11.033
伧仇亭仡	-11.0335
▁付于亷伨仇	-11.0343
嘜	-11.0345
▁亅亟亍人亻亼于	-11.0348
▁亂亃仓仅伺	-11.0349
▁俍吞	-11.0355
▁云亟了	-11.0357
▁二俽于	-11.0363
▁1912	-11.0365
剉	-11.0366
▁亳伧传	-11.0366
▁仦亻佦介	-11.0367
▁亪亳佉	-11.0378
▁伕于伮了	-11.0379
▁价仏仡云亣	-11.0387
▁亞亭仮仯亟	-11.0387
▁伇仮亩仇	-11.0387
▁予伿伄佝伺	-11.0392
▁二亣俧	-11.0393
▁仵傅	-11.0396
▁伕仄倗亟	-11.0408
▁二仛会了亚	-11.0412
▁予亭侣仐亣	-11.043
▁侫侾便	-11.043
▁仧亳亅促	-11.043
▁仧仏伮亊仮予	-11.043
▁些亸佉	-11.043
▁任仾些亳亹亗	-11.0436
▁亅众仅伫亟些伺	-11.0449
▁予佋伅	-11.0451
▁亃众伴	-11.0451
▁亂仛些于仮予	-11.0451
▁仉什便	-11.0451
▁亮仏仉佴	-11.0453
▁亮亭仍予亳	-11.0457
▁1922	-11.0461
养	-11.0472
喀	-11.0472
▁亾伦俬	-11.0472
亹人亻佬亿亐	-11.0476
▁佤争侀	-11.0486
垒	-11.0493
▁Jump	-11.0493
▁仉亟卭亇	-11.0493
▁仐仄亝亜	-11.0494
▁伎亹互	-11.0494
▁予倐伺	-11.0495
app	-11.05
▁仢倒亐	-11.0503
we	-11.0504
▁仈什亅亳亹	-11.051
▁亓仂些亭仡亇	-11.0515
倶	-11.0515
哊	-11.0515
佄伽亇	-11.0533
▁佰仱亴亾亟	-11.0534
▁云仺侩亳亘	-11.0536
▁京俥使	-11.0536
亂亃倱作仆	-11.0536
▁云予亳佛	-11.0537
▁亓亹亜伆	-11.0547
▁仨亱亴亾亟	-11.0558
匽	-11.0558
▁些亭仮仺	-11.0569
▁二仛伅仆亭亇	-11.0579
▁仍予从仏	-11.0579
▁倧僸	-11.0579
▁伇伨仯亟	-11.0579
▁井亟俕	-11.0586
▁亷仄仌伊伆	-11.0599
dia	-11.06
▁仦亻亟些仩亖	-11.0601
▁仢仙亜	-11.0601
价亃侃	-11.0601
▁佧亭了仮予	-11.0601
▁俖倫	-11.0605
▁于亝亽予	-11.0622
▁仵优允亡	-11.0622
▁侍亶仺	-11.0622
亹争亭亨亼仇	-11.0622
▁亅伧互仉	-11.0622
▁些亳亃仱側侦亭仮亐	-11.0623
▁亅似伫	-11.0624
▁付仱亗	-11.0624
倷	-11.0644
吠	-11.0644
▁亳予亴亟	-11.0644
仉作亰亇	-11.0651
匉	-11.0666
▁仢俒佇亟	-11.0687
▁倇亣伧亖	-11.0688
▁仍傒亝佁	-11.069
▁价仺了	-11.0691
▁1923	-11.0698
▁亂侫仓	-11.0711
▁交亭予	-11.0712
兂	-11.0715
▁二亣吵倀	-11.0731
▁伕傷什	-11.0731
▁二什亩	-11.0733
▁价倖亟亃仆	-11.0734
▁偓作伺	-11.0752
▁伇仇佼伎	-11.0753
▁亣亗交亗	-11.0753
▁亷伨仒	-11.0753
▁仉仅仞	-11.0754
▁二作亇	-11.0758
▁侍享伵仄	-11.0766
仉亗亩予	-11.0773
▁亊仧哂	-11.0775
▁亪亜仕亾亘	-11.0775
▁价些亿仆于	-11.0775
剬	-11.0775
▁佃亗交五	-11.0775
▁亃事仍予	-11.0783
▁亓亣予亾亨仏于	-11.0787
▁于偞亟	-11.0788
▁交予侦亭	-11.079
▁亞亟伸人亻亼仇	-11.079
▁云仇亣亖	-11.0791
▁些仆停亦	-11.0797
▁亞亟侽俌亐	-11.0797
▁亅亣仄什	-11.0797
▁亴些仓亏	-11.0803
▁任仹亹亗	-11.0804
▁予侚亟伄今仇	-11.0819
▁交予使仏佛	-11.0819
厀	-11.0819
亏佅人	-11.082
些亿伽亐	-11.082
▁价亸了	-11.083
war	-11.0832
▁修仉亳今亃	-11.0845
▁井些亘	-11.0849
▁亓些亾亊亇	-11.0856
▁1914	-11.0857
削	-11.0863
嘮	-11.0863
▁仉亚仅亗亳	-11.0863
▁亪仒亲亥	-11.0863
凄	-11.0885
▁亽仕人	-11.0886
▁仸互亹亜	-11.0887
▁云众俖亳	-11.089
▁仨亱亪亇	-11.0891
▁些仞亨	-11.09
偐	-11.0905
▁伎伶亹	-11.0907
▁1911	-11.0925
冁	-11.093
力	-11.093
▁予亱仁亳	-11.093
偨	-11.093
▁价亟但予	-11.093
▁云仝亣	-11.093
▁伇僜伎	-11.093
▁侍享亷仄	-11.0932
兮	-11.0934
偖	-11.0952
兾	-11.0952
▁亓亾仅伡	-11.0953
▁今冟	-11.0953
▁亓以了亹作伺	-11.0959
▁亅享亝事些	-11.0959
▁京亭亶亪亇	-11.0961
▁些仓仕仺会	-11.0974
▁劘公侪	-11.0974
些亭亻亼仇	-11.0979
▁亻亾偼佶	-11.0997
▁亣亭仡仏亐	-11.0997
▁井仄亻伊伆	-11.0999
側倀亟	-11.1016
劉	-11.1019
▁亪伽俌	-11.1019
▁仭仮仯亟	-11.1019
▁亅倐亳	-11.1021
▁价亃做亪亇	-11.1022
▁亅仼亃	-11.1026
儈	-11.1042
▁云伊亾仅	-11.1042
仉亟卭交	-11.1042
▁些优付争	-11.1048
apuram	-11.105
▁今亊伎	-11.1065
▁些优亅亥	-11.1074
▁些儇	-11.1081
▁仉优亙亸俕	-11.1087
▁伇云侫亻亭亃	-11.1087
▁亅倚亟会	-11.1087
▁份佥仅人	-11.1088
▁仉側亟仍予亳	-11.1088
偲	-11.1092
▁仱云仁交	-11.1096
▁仈仛亏亘	-11.111
净	-11.111
咛	-11.111
圵	-11.111
▁伃亃亂产	-11.111
▁亪仛仉仇伺	-11.111
▁予亣亳些	-11.1114
▁亂亃倱亥	-11.1132
▁云個亖	-11.1133
亪今伿亇	-11.1135
▁于些佉	-11.1135
▁亷亳亸亏亶亖	-11.1136
伕仱亸	-11.114
偡	-11.1155
▁佂什僤亥	-11.1155
▁云亱倿	-11.1156
剪	-11.116
▁亩仯亟伉	-11.117
▁亅产伅亨	-11.1178
▁亓侘仧亟	-11.1178
▁佞人亅亊	-11.1179
▁仦些众	-11.118
▁亮伫亭佝	-11.1181
▁今僠	-11.1183
▁亓亣予仆仉亖	-11.1189
▁二儛亳仳	-11.1201
▁云亱伵	-11.1202
▁剏侈仉	-11.1207
▁亓亟偌伟	-11.1224
▁京于伂亊亘	-11.1224
▁价亃侗仄亇	-11.1224
▁佖亷亃亴	-11.1224
▁佰亳亳伥	-11.1224
▁亣亗交亥	-11.1224
僥	-11.1247
呶	-11.1247
亿佅人	-11.1247
port	-11.1251
▁佂亪今予	-11.1253
助	-11.1253
▁佖互佮产亹亗	-11.1253
▁仍予亾亟亇	-11.1253
些伫仓亭伟	-11.1257
▁佰伇亹人亇	-11.1261
2001	-11.1269
兢	-11.127
▁价亭佛伲亣亰亇	-11.1273
ound	-11.1278
▁些优亅亊	-11.1279
▁今唯	-11.128
▁仍仺云亸	-11.1293
▁亅仯了争	-11.1293
▁亻亸仺	-11.1293
▁侫互伨亦	-11.1296
▁仱側僙五	-11.1296
唯	-11.1305
▁亅仱云亾了	-11.1314
吻	-11.1316
▁侼唇亣亟	-11.1316
劑	-11.1316
卞	-11.1316
▁价仓仌亟亇	-11.1316
▁仈仓亅亳亙	-11.1316
▁亓仄亏亾	-11.1316
▁井亃伂亻亼仇	-11.1324
▁亅侠互	-11.133
僌	-11.1339
傇	-11.1339
嘉	-11.1339
▁亃俔侣仃倫	-11.1339
侦値	-11.1354
卍	-11.1363
噏	-11.1363
▁亓伄亂予亹人亝	-11.1366
▁二亣傸	-11.1367
合	-11.1386
▁仫交会	-11.1387
关	-11.1406
▁云亷仱僲仱	-11.1409
儡	-11.1409
坵	-11.1409
▁亩伐伟	-11.1409
偸冓	-11.141
▁佖仙人亻亼仇	-11.1423
▁云亷仱争亳	-11.1433
呸	-11.1433
▁伇倥亃	-11.1433
伞伔亇	-11.1433
▁井亭仮仒	-11.144
亣亭仡仏	-11.1452
劅	-11.1456
圇	-11.1456
▁亓亷亊交	-11.1456
▁仁劄仳	-11.1456
▁佳僋亴	-11.1456
▁价仱些亸	-11.1456
▁亣咃亅亣亟俤五	-11.1457
▁亓亣呂値	-11.148
俊	-11.148
墿	-11.148
伧亊亹亗	-11.1495
▁价了俔	-11.1496
▁侫仌予亾	-11.1503
▁佡兄予	-11.1503
▁亷僣侖亥	-11.1504
▁二亝仂	-11.1506
▁佂什伧亥俥伺	-11.1506
偰	-11.1527
哽	-11.1527
▁予仆僜亟	-11.1527
佽伇亾	-11.1541
▁亅倰伎	-11.1551
▁仁伀亃侃	-11.1552
▁予仧仄	-11.1552
侶	-11.156
▁仱免佇亳	-11.1574
亨享伧亖	-11.1576
▁亷亳亸仌伡亖	-11.1579
▁亃仆侕	-11.1583
亭今了	-11.1594
卵	-11.1598
叮	-11.1598
些仇于	-11.16
亽亃侫今交	-11.1601
▁付傷什	-11.1622
▁价亟仄仉佴	-11.1622
▁仈伮亥	-11.1622
▁亅俢予	-11.1622
▁侫冝仇予	-11.1623
▁价亟仡仇仱予	-11.1625
▁亓亃伐亊五	-11.1626
▁亓伐亹亹亗	-11.1633
▁仧亳亃云仱予	-11.1643
▁亷亳亸亏伽伵予	-11.1648
50,000	-11.1655
佋什亰亇	-11.1666
▁井仄偫佉亇	-11.167
刋	-11.167
▁侍侎亥	-11.167
▁仮僣予	-11.167
▁仉亚仅亜仕俥伺	-11.1672
▁井仏佃	-11.1674
児	-11.168
▁仐亣仕亃仉	-11.1694
▁住偠亖	-11.1694
▁侘亜佦	-11.1694
▁仦伮亐	-11.1695
▁侳亷伺	-11.1695
▁亞佉会	-11.1696
▁亅享佤亳	-11.1704
▁1905	-11.1708
喉	-11.1718
坑	-11.1718
▁佖做些于	-11.1718
▁仫侂亹亥产仇	-11.1729
▁侍仉亰仡	-11.1738
2011	-11.1739
▁任儅仏于	-11.1742
卨	-11.1742
冂	-11.1742
亻伯亇	-11.1742
偊	-11.1766
▁仉亨伣亜仅	-11.1766
偝	-11.1766
吪	-11.1766
▁二亣僾仂	-11.1766
▁亞伧偆	-11.1766
兠伎人	-11.1766
▁他個亟	-11.1771
▁亓伄佇亭	-11.1773
▁云亳仧亟亖	-11.1774
▁些亳亱仩	-11.179
▁佰傒今儾	-11.1791
▁侲倛侍	-11.1791
▁亅予侺伺	-11.1793
▁些亳亃仱側	-11.1815
劄	-11.1815
咗	-11.1815
嘔	-11.1815
▁仉侫些亽亃	-11.1815
▁佂亹云伿仄	-11.1819
▁侫互亙仏	-11.1819
▁仮仒云享	-11.182
▁予亥亹人会亇	-11.1821
仄亻亖	-11.1823
仉人亻佬伺	-11.1826
剙	-11.1839
▁亓亭傒仇	-11.1839
▁倧們仄	-11.184
form	-11.1841
▁今优亊	-11.1842
云伿亅	-11.1853
亟亱仆亭亇	-11.1869
▁亓亭嘏亪	-11.1888
▁仮伹五	-11.1889
▁亓交倘	-11.1889
▁价儐亇	-11.1889
▁仧亳仁亢	-11.189
予伽亊伐亇	-11.1892
卛	-11.191
▁保亟仄仓亩	-11.1913
傕	-11.1913
傧	-11.1913
囩	-11.1913
坻	-11.1913
▁亅仼伎	-11.1913
▁仦仱八	-11.1914
▁佳亾仅亃	-11.1916
▁佢凮了	-11.1938
▁亷佝亳亇	-11.1938
▁些亟亣侀	-11.1938
▁仢仄亣予	-11.1938
▁价佻仄亟	-11.1938
仧亵伺	-11.1951
▁井仄予亨侢	-11.1962
▁于僃仺	-11.1962
▁付予些亃	-11.1965
▁亷份亾	-11.1966
▁任仹亹作伺	-11.1967
▁免停	-11.197
▁佢亾伡	-11.1976
▁价仌亗仌	-11.1981
▁仢侐人会些	-11.1984
▁云僅亝	-11.1987
▁伇亳冫亣	-11.1987
▁仈仿佮仿	-11.1987
▁仦亴亳云	-11.1987
▁亷仮俔	-11.1987
▁予伂俆	-11.1992
▁伇亾仌亳	-11.1995
吏	-11.2012
▁亃债們	-11.2012
▁亞倍佬伺	-11.2012
▁付亃亳伇	-11.2013
价亳仪仕亇	-11.2015
▁伇佛仇	-11.2021
▁仐亡份伫	-11.2037
▁些仆亳余亜亟	-11.2039
啕	-11.2061
▁亴伫仄亨亟	-11.2062
▁仦仒亏介	-11.2062
▁侬仛产	-11.2062
▁亴亦些享	-11.2062
2008	-11.2062
▁亞佺伬于	-11.2065
卷	-11.2087
▁井伄佑	-11.2087
亶亻亟	-11.2091
▁些亭亻佚伺	-11.2095
亏什伊伆	-11.2096
▁亓亣俕	-11.2097
▁仐亟交了亹亗	-11.2099
喕	-11.2112
▁亓亃偍五	-11.2112
▁伇云僙仇	-11.2112
▁亅侌争	-11.2113
▁云仺亅亜仕亇	-11.2137
▁亪側仱仌	-11.2137
▁亜偃亗亖	-11.2162
▁仵事佼亊伛	-11.2162
叵	-11.2162
▁亣亭刷亃	-11.2162
▁亓佻佫	-11.2162
伧亭了亱亇	-11.218
▁亃倚冚	-11.2187
▁保仇亳亖	-11.2187
▁价仱予仮亻亟	-11.2187
▁侼俸五	-11.2188
▁亅亟仴佥	-11.2213
凋	-11.2213
▁佰亲仆	-11.2213
▁价倖亟亝仆	-11.2216
▁亅亸伵亳	-11.2219
&	-11.2228
亹人亅佃	-11.2229
▁仨互了亸伵仇	-11.2238
傡	-11.2238
匧	-11.2238
嘽	-11.2238
吁	-11.2238
▁佢亣了俔	-11.2238
▁亓伉亭佛	-11.2238
▁些仏俔	-11.2238
▁伲争伧人	-11.2245
▁二仓伇亮亢	-11.2263
▁京于伂享亘	-11.2263
▁亴今仄亟	-11.2263
▁亓佃仅些仇	-11.2263
▁亂亃倰仱予	-11.2264
▁佭侐于	-11.2264
▁仐予僆	-11.2265
International	-11.2289
▁佭亃仱付亢	-11.2289
▁云了什亊亇	-11.2289
▁亣倖了仆	-11.2289
啸	-11.2289
▁些仇仉仄佉	-11.2314
偩	-11.2314
▁付亊亱亴亾亟	-11.2314
▁亂亃俢亡仅予	-11.234
▁侍侎佥	-11.234
▁云佽佇亳	-11.234
▁二亭亘	-11.2343
▁亅倀亳仾	-11.2366
▁伕侏仉些亳	-11.2366
▁佧亭了仮仇	-11.2366
▁亷伨互	-11.2367
亪亹亇	-11.2383
▁井亊仙伧侇	-11.2392
僎	-11.2392
函	-11.2392
坂	-11.2392
▁佭佝仾	-11.2392
▁二亣吵五	-11.2392
▁仦亳佑	-11.2392
▁仍亜仌亭	-11.2405
俺	-11.2443
垴	-11.2443
刜	-11.2469
凾	-11.2493
吖	-11.2521
嚂	-11.2521
包	-11.268
冝	-11.2681
儨	-11.2706
傥	-11.276
剖	-11.276
嫧	-11.2813
儆	-11.2867
呅	-11.2867
呈	-11.2867
勡	-11.2894
囔	-11.2894
向	-11.2922
冭	-11.2922
喝	-11.2922
{	-11.2976
堳	-11.2976
厤	-11.2976
偟	-11.3059
劷	-11.3059
凍	-11.3059
唠	-11.3086
俭	-11.3114
嗉	-11.3142
厨	-11.3142
墼	-11.3142
啪	-11.3169
吔	-11.3197
咝	-11.3197
堩	-11.3225
埄	-11.3253
偦	-11.3365
儘	-11.3385
咚	-11.3395
壞	-11.3395
喥	-11.3424
噷	-11.3424
凅	-11.3451
儛	-11.351
僪	-11.351
命	-11.351
匆	-11.3539
嗆	-11.3539
$	-11.354
堃	-11.3597
媚	-11.3626
嗊	-11.3655
僐	-11.3689
凌	-11.3714
員	-11.3803
喙	-11.3833
倏	-11.3862
决	-11.3862
凚	-11.3862
儠	-11.3892
后	-11.3892
咂	-11.3892
噄	-11.3892
嚑	-11.3892
僚	-11.3983
喿	-11.3983
咄	-11.3983
塑	-11.4013
僿	-11.4071
劖	-11.4104
可	-11.4104
启	-11.4135
厏	-11.4166
俉	-11.4194
匈	-11.4203
哼	-11.429
噍	-11.429
咬	-11.4353
嗎	-11.4384
啐	-11.4416
唂	-11.4416
圆	-11.4447
圔	-11.4447
唉	-11.4479
嘦	-11.4511
塌	-11.4511
嚒	-11.4511
倝	-11.4568
啑	-11.4575
嗴	-11.4575
告	-11.4607
啽	-11.4607
倎	-11.4672
啮	-11.4672
嘈	-11.4672
噻	-11.4704
坪	-11.4737
壍	-11.4737
傶	-11.4769
咁	-11.4769
僼	-11.4802
凗	-11.4802
冊	-11.4834
匝	-11.4835
入	-11.4868
再	-11.4868
切	-11.4901
問	-11.4901
喓	-11.4901
冧	-11.4968
呬	-11.4968
傤	-11.5001
厫	-11.5001
古	-11.5001
奫	-11.5001
審	-11.5001
傹	-11.5034
呲	-11.5035
喊	-11.5035
僑	-11.5068
兟	-11.5068
喺	-11.5068
冀	-11.5091
哌	-11.5136
`	-11.517
冣	-11.517
分	-11.517
唴	-11.517
卹	-11.5204
厝	-11.5204
俚	-11.5238
俾	-11.5255
厙	-11.5273
凴	-11.5307
夓	-11.5342
偻	-11.5446
哢	-11.5446
只	-11.5481
叉	-11.5517
坶	-11.5552
嫊	-11.5552
厓	-11.5587
吊	-11.5587
克	-11.5623
嚖	-11.5659
哕	-11.5695
塣	-11.5695
嘬	-11.5731
坠	-11.5731
傿	-11.5751
匑	-11.5803
妅	-11.5803
傮	-11.5803
候	-11.5839
僈	-11.5839
坩	-11.5839
冇	-11.5876
唱	-11.5876
啹	-11.5876
凂	-11.5912
兜	-11.5949
厢	-11.5949
唛	-11.5949
嚎	-11.5949
嬯	-11.5949
僒	-11.5986
卐	-11.5986
儩	-11.5986
劭	-11.6023
嘟	-11.6023
劝	-11.6023
哄	-11.6098
嘄	-11.6098
埗	-11.6135
兼	-11.6162
咥	-11.6173
兯	-11.6173
坆	-11.6173
吰	-11.6192
凔	-11.621
剕	-11.6248
吙	-11.6286
埪	-11.6324
儦	-11.6324
厄	-11.6324
圎	-11.6324
咷	-11.6363
哜	-11.6363
哨	-11.6363
儏	-11.6401
兤	-11.6401
务	-11.6401
凃	-11.644
厛	-11.644
囬	-11.644
哷	-11.6479
坸	-11.6479
娚	-11.6479
刖	-11.6517
咀	-11.6517
咟	-11.6517
兛	-11.6556
堛	-11.6557
妓	-11.6557
募	-11.6557
咢	-11.6596
垾	-11.6596
堠	-11.6596
堋	-11.6596
单	-11.6714
咶	-11.6714
哠	-11.6714
厚	-11.6714
垓	-11.6714
吇	-11.6714
僊	-11.6754
剄	-11.6754
劙	-11.6754
偶	-11.6774
卲	-11.6834
噔	-11.6834
専	-11.6834
呄	-11.6864
具	-11.6875
別	-11.6875
嗌	-11.6875
姄	-11.6875
凮	-11.6915
勝	-11.6915
即	-11.6915
唀	-11.6915
姜	-11.6915
凢	-11.6956
呁	-11.6956
块	-11.6956
实	-11.6956
劺	-11.6997
\	-11.6997
刉	-11.7034
君	-11.7038
协	-11.7038
壖	-11.7038
剁	-11.7079
劜	-11.712
剻	-11.712
囫	-11.712
儸	-11.7162
啴	-11.7162
凛	-11.7201
僔	-11.7203
剓	-11.7245
嘭	-11.7287
匇	-11.7287
咨	-11.7329
姩	-11.7329
剐	-11.7372
呮	-11.7372
嗟	-11.7372
塓	-11.7372
夎	-11.7372
埶	-11.7372
呻	-11.7414
垏	-11.7414
叼	-11.7414
佸	-11.7457
嗽	-11.75
壽	-11.75
劊	-11.75
兙	-11.7529
叔	-11.7543
呓	-11.7543
地	-11.7543
卡	-11.7543
发	-11.7586
唁	-11.7586
嗋	-11.7586
坥	-11.763
堌	-11.763
冸	-11.7675
哤	-11.7717
婉	-11.7717
倃	-11.7749
呏	-11.7806
厧	-11.7806
嗺	-11.7806
凊	-11.785
凒	-11.785
吳	-11.785
兗	-11.785
<	-11.7895
嘪	-11.7895
啄	-11.7939
允	-11.7985
冘	-11.7985
圭	-11.7985
口	-11.803
喗	-11.803
垫	-11.803
埀	-11.803
劯	-11.8075
圂	-11.8075
嘱	-11.8121
墻	-11.8121
刐	-11.8167
吉	-11.8167
凙	-11.8167
儧	-11.8259
垬	-11.8259
垐	-11.8306
厁	-11.8352
呑	-11.8352
在	-11.8352
塜	-11.8352
冽	-11.8399
凫	-11.8399
刮	-11.8399
叺	-11.8399
咠	-11.8399
叨	-11.8446
囎	-11.8446
傲	-11.8493
嘖	-11.8494
卭	-11.8541
嗢	-11.8589
儗	-11.8622
哱	-11.8637
卼	-11.8686
噸	-11.8686
典	-11.8697
圩	-11.8734
嘝	-11.8734
囪	-11.8783
嫑	-11.8783
凧	-11.8832
嚨	-11.8832
坃	-11.8832
僺	-11.8856
僢	-11.8881
凿	-11.8881
僠	-11.8921
唞	-11.8931
喾	-11.8931
坚	-11.8931
倮	-11.8964
噎	-11.8981
剼	-11.8981
嘕	-11.8981
劸	-11.9031
唫	-11.9031
喧	-11.9031
坨	-11.9031
厅	-11.9067
僘	-11.9081
员	-11.9081
哣	-11.9081
嚴	-11.9081
吢	-11.9131
嗒	-11.9182
凓	-11.9182
劆	-11.9182
塤	-11.9182
尤	-11.9182
奒	-11.9182
俳	-11.9233
嗲	-11.9233
凳	-11.9283
嗁	-11.9284
味	-11.9284
商	-11.9284
嗚	-11.9284
埰	-11.9284
変	-11.9284
匞	-11.9336
囓	-11.9336
嗔	-11.9388
儱	-11.944
呿	-11.944
层	-11.9492
囐	-11.9492
埐	-11.9492
儤	-11.9545
叅	-11.9545
堲	-11.9545
嫈	-11.9545
嫸	-11.9545
啇	-11.9598
啧	-11.9598
埞	-11.9651
媩	-11.9651
吨	-11.9704
壳	-11.9758
嘷	-11.9812
坙	-11.9812
囧	-11.9867
幓	-11.9867
劂	-11.9867
哯	-11.9867
厽	-11.9921
嗖	-11.9921
呒	-11.9945
半	-11.9976
呰	-11.9976
势	-11.9976
唜	-11.9976
劌	-12.0031
嗯	-12.0031
奬	-12.0031
嶗	-12.0031
吆	-12.0031
刦	-12.0087
哗	-12.0087
岴	-12.0087
功	-12.0143
則	-12.0143
僨	-12.0199
凉	-12.0199
坔	-12.0199
嘹	-12.0256
堊	-12.0256
傂	-12.0312
召	-12.0312
嗅	-12.0312
奷	-12.0369
因	-12.0427
卟	-12.0427
呍	-12.0427
垣	-12.0427
冯	-12.0485
圓	-12.0485
営	-12.0485
吱	-12.0543
妧	-12.0543
媵	-12.0543
倪	-12.0543
咋	-12.0601
嘓	-12.0601
埵	-12.0601
嬇	-12.0601
墫	-12.066
冖	-12.066
厮	-12.066
妆	-12.0719
咞	-12.0719
塛	-12.0719
嗕	-12.0779
嫵	-12.0779
刬	-12.0839
咒	-12.0839
咦	-12.0839
囏	-12.0839
壤	-12.0839
娦	-12.0839
嵳	-12.0839
吣	-12.0899
哇	-12.0899
塡	-12.0899
孜	-12.0899
~	-12.096
冪	-12.096
叏	-12.096
夐	-12.096
妋	-12.096
恡	-12.096
俫	-12.1021
恨	-12.1021
劀	-12.1057
咙	-12.1082
嗄	-12.1082
埨	-12.1082
唡	-12.1082
執	-12.1082
嚀	-12.1144
媲	-12.1144
剺	-12.1206
号	-12.1206
围	-12.1206
呃	-12.1206
危	-12.1268
刂	-12.1268
呭	-12.1268
囖	-12.1268
唾	-12.1331
姥	-12.1331
兘	-12.1331
堇	-12.1331
奣	-12.1331
唏	-12.1394
凡	-12.1433
佗	-12.1458
夷	-12.1458
卾	-12.1522
垌	-12.1522
僬	-12.1587
嘎	-12.1587
嗵	-12.1587
嚾	-12.1587
妭	-12.1587
垀	-12.1652
姃	-12.1652
妁	-12.1652
嚻	-12.1696
凲	-12.1717
剭	-12.1717
園	-12.1717
侟	-12.1783
凤	-12.1783
傜	-12.1783
周	-12.1783
囂	-12.1783
埊	-12.1783
嚉	-12.1849
埯	-12.1849
劁	-12.1849
呌	-12.1849
墲	-12.1916
喭	-12.1916
嚳	-12.1983
孹	-12.1983
崰	-12.1983
憊	-12.1983
哸	-12.205
嘑	-12.205
囨	-12.205
妲	-12.205
媆	-12.205
傎	-12.2118
冏	-12.2118
刘	-12.2118
唎	-12.2118
嚠	-12.2118
壚	-12.2118
壻	-12.2118
多	-12.2118
哦	-12.2187
剂	-12.2187
刃	-12.2256
塆	-12.2325
企	-12.2365
嗠	-12.2466
噐	-12.2466
剹	-12.2466
唃	-12.2537
厸	-12.2608
射	-12.2608
准	-12.2608
噦	-12.2608
壟	-12.2608
僧	-12.268
圑	-12.268
壙	-12.268
崘	-12.268
咰	-12.2752
喒	-12.2752
几	-12.2752
叱	-12.2752
叾	-12.2752
夭	-12.2752
怌	-12.2825
敲	-12.2825
啬	-12.2899
悄	-12.2973
啋	-12.3048
噌	-12.3048
圮	-12.3048
兖	-12.3123
各	-12.3123
唗	-12.3123
嘌	-12.3123
場	-12.3123
厠	-12.3199
变	-12.3199
嘫	-12.3199
士	-12.3199
優	-12.3199
帽	-12.3199
僰	-12.3268
吥	-12.3275
唊	-12.3275
塯	-12.3275
好	-12.3275
啩	-12.3352
嬠	-12.3352
山	-12.3352
博	-12.3352
呐	-12.3352
冾	-12.3429
和	-12.3429
嚏	-12.3429
圞	-12.3429
圹	-12.3429
媡	-12.3429
嬧	-12.3429
呎	-12.3508
咭	-12.3508
噑	-12.3586
夋	-12.3586
峦	-12.3586
哳	-12.3586
寧	-12.3666
刏	-12.3666
埭	-12.3666
奙	-12.3666
喁	-12.3666
兌	-12.3746
嘆	-12.3746
坄	-12.3746
塟	-12.3746
倩	-12.3826
嗰	-12.3826
剮	-12.3908
哋	-12.3908
啦	-12.3908
埓	-12.3908
匎	-12.3908
呵	-12.3908
吧	-12.399
咹	-12.399
婚	-12.399
察	-12.399
寶	-12.399
叶	-12.4072
吽	-12.4072
咽	-12.4072
唤	-12.4072
塋	-12.4072
全	-12.4156
圣	-12.4156
垻	-12.4156
墒	-12.4156
嫤	-12.4156
廕	-12.4156
刳	-12.4156
圿	-12.424
堡	-12.424
啱	-12.4324
堤	-12.4324
呯	-12.4324
垑	-12.4324
兕	-12.4409
燀	-12.441
唺	-12.441
堁	-12.441
媊	-12.441
孙	-12.441
嶆	-12.441
剋	-12.4496
咊	-12.4496
砭	-12.4496
喜	-12.4496
偬	-12.4583
劾	-12.4583
嘒	-12.4583
噜	-12.4583
垡	-12.4583
利	-12.4671
吕	-12.4671
吼	-12.4671
呕	-12.4671
哫	-12.4671
惣	-12.4671
努	-12.4759
囍	-12.4759
坦	-12.4759
壼	-12.4759
撏	-12.4759
傼	-12.4848
呗	-12.4848
哂	-12.4848
嚶	-12.4848
愿	-12.4848
図	-12.4848
圴	-12.4848
垗	-12.4848
咎	-12.4939
幆	-12.4939
嫾	-12.4939
哾	-12.5029
受	-12.5029
坭	-12.5029
堦	-12.5029
叞	-12.5121
哟	-12.5121
囒	-12.5121
圈	-12.5121
儾	-12.5204
哉	-12.5214
喤	-12.5214
垵	-12.5214
妈	-12.5214
儺	-12.5307
匏	-12.5307
嘥	-12.5307
團	-12.5307
坾	-12.5307
圕	-12.5402
埘	-12.5402
姟	-12.5402
媀	-12.5402
呔	-12.5402
嚔	-12.5402
墄	-12.5402
墱	-12.5402
嫜	-12.5402
导	-12.5402
岛	-12.5402
仲	-12.5497
匿	-12.5497
喘	-12.5497
噒	-12.5497
堪	-12.5497
媷	-12.5497
否	-12.5593
哺	-12.5593
喈	-12.5593
喦	-12.5593
妠	-12.5593
妵	-12.5593
劗	-12.5593
嚓	-12.5593
儬	-12.5689
効	-12.569
嘏	-12.569
噕	-12.569
崶	-12.569
帓	-12.569
哞	-12.569
堵	-12.569
吂	-12.5788
剸	-12.5788
叕	-12.5788
呪	-12.5788
墁	-12.5788
婬	-12.5788
儽	-12.5887
婋	-12.5887
卦	-12.5987
咸	-12.5987
唧	-12.5987
啫	-12.5987
巓	-12.5987
呴	-12.6088
匯	-12.6088
圃	-12.6088
妌	-12.6088
咑	-12.6088
刿	-12.619
啎	-12.619
圫	-12.619
墩	-12.619
屃	-12.619
傑	-12.6293
升	-12.6293
吺	-12.6293
嘀	-12.6293
埩	-12.6293
儮	-12.6293
嗛	-12.6293
刚	-12.6394
慺	-12.6397
凱	-12.6397
圼	-12.6397
婺	-12.6397
叹	-12.6503
寏	-12.6503
哬	-12.6503
圖	-12.6503
壏	-12.6503
帥	-12.6503
嗞	-12.6609
孖	-12.6609
峐	-12.6609
兲	-12.6609
吿	-12.6609
垠	-12.6609
夌	-12.6609
媟	-12.6609
媢	-12.6609
嫔	-12.6609
峨	-12.6609
俷	-12.6609
僝	-12.6717
匐	-12.6717
厪	-12.6717
喯	-12.6717
僩	-12.6717
内	-12.6717
劒	-12.6717
坊	-12.6717
厥	-12.6825
囑	-12.6825
姛	-12.6825
孌	-12.6825
尛	-12.6825
妽	-12.6825
劘	-12.6849
冋	-12.691
堬	-12.6935
嗘	-12.7046
@	-12.7046
嚤	-12.7046
尲	-12.7046
價	-12.7046
啂	-12.7046
嘠	-12.7046
噀	-12.7046
噰	-12.7046
埬	-12.7046
堾	-12.7046
嬚	-12.7046
嚗	-12.7046
兊	-12.7159
匔	-12.7159
型	-12.7159
剾	-12.7159
嚍	-12.7159
墌	-12.7159
墾	-12.7159
夦	-12.7159
悥	-12.7159
峠	-12.7272
囶	-12.7272
岊	-12.7272
嶻	-12.7272
刀	-12.7387
働	-12.7387
厲	-12.7387
唋	-12.7387
唝	-12.7387
噧	-12.7387
嗈	-12.7504
媧	-12.7504
列	-12.7504
剝	-12.7504
台	-12.7504
噃	-12.7504
対	-12.7504
廃	-12.7504
岣	-12.7504
夔	-12.7621
媌	-12.7621
原	-12.7621
偅	-12.774
哶	-12.774
囘	-12.774
塎	-12.774
墅	-12.774
墳	-12.774
墺	-12.774
搊	-12.774
咫	-12.7861
哀	-12.7861
唳	-12.7861
娥	-12.7861
勎	-12.7861
媤	-12.7861
峭	-12.7861
孔	-12.7983
咯	-12.7983
嗜	-12.7983
均	-12.7983
匤	-12.8106
唵	-12.8106
啔	-12.8106
噁	-12.8106
堀	-12.8106
堨	-12.8106
夂	-12.8106
夛	-12.8106
奟	-12.8106
尪	-12.8106
就	-12.8106
帜	-12.8106
抛	-12.8106
嫀	-12.8106
劻	-12.8231
咺	-12.8231
唙	-12.8231
孊	-12.8231
揠	-12.8231
域	-12.8231
强	-12.8231
唖	-12.8358
喚	-12.8358
嘾	-12.8358
吋	-12.8358
坌	-12.8358
夏	-12.8358
尰	-12.8358
弎	-12.8358
悈	-12.8358
司	-12.8486
姣	-12.8486
崇	-12.8486
嚩	-12.8616
塮	-12.8616
姶	-12.8616
婿	-12.8616
嫌	-12.8616
弋	-12.8616
卬	-12.8616
埙	-12.8616
坬	-12.8747
婈	-12.8747
孒	-12.8747
叡	-12.8747
啼	-12.8747
喹	-12.8747
塀	-12.8747
吚	-12.8881
勍	-12.8881
嗤	-12.8881
峬	-12.8881
帢	-12.8881
府	-12.8881
刭	-12.8881
噊	-12.8881
囅	-12.8881
埈	-12.8881
夨	-12.8881
嫮	-12.8881
巺	-12.8881
嘡	-12.8881
嵈	-12.8881
劰	-12.9016
姎	-12.9016
刎	-12.9016
嗾	-12.9016
噺	-12.9016
垃	-12.9016
垄	-12.9016
怬	-12.9016
峉	-12.9016
婯	-12.9153
句	-12.9153
噣	-12.9153
埥	-12.9153
庩	-12.9153
兞	-12.9153
堿	-12.9153
塳	-12.9153
妊	-12.9153
妛	-12.9153
廡	-12.9153
兏	-12.9292
厔	-12.9292
呆	-12.9292
唸	-12.9292
喆	-12.9292
堅	-12.9292
塇	-12.9292
嬙	-12.9292
愬	-12.9292
喏	-12.9292
帛	-12.9292
嗐	-12.9433
劓	-12.9433
吃	-12.9433
哑	-12.9433
囟	-12.9433
堂	-12.9433
墨	-12.9433
徘	-12.9433
嘙	-12.9575
怛	-12.9575
嚚	-12.9575
囙	-12.9575
巠	-12.9575
声	-12.9575
卶	-12.972
嗶	-12.972
堼	-12.972
妉	-12.972
姐	-12.972
姲	-12.972
嵥	-12.972
彞	-12.972
厞	-12.972
姏	-12.972
厦	-12.972
嗝	-12.9867
壣	-12.9867
媱	-12.9867
嫽	-12.9867
匦	-12.9867
吅	-12.9867
嘿	-12.9867
嚇	-12.9867
墈	-12.9867
墑	-12.9867
崂	-12.9867
毻	-12.9868
噹	-13.0017
嚷	-13.0017
垮	-13.0017
埴	-13.0017
匜	-13.0017
堯	-13.0017
壛	-13.0017
夊	-13.0017
娓	-13.0017
娕	-13.0017
後	-13.0017
渵	-13.0017
墹	-13.0017
傓	-13.0143
恜	-13.0168
勌	-13.0168
唚	-13.0168
廳	-13.0168
励	-13.0168
娅	-13.0168
娵	-13.0168
愥	-13.0168
卙	-13.0322
午	-13.0322
剀	-13.0322
哈	-13.0322
哴	-13.0322
坧	-13.0322
堷	-13.0322
塥	-13.0322
塨	-13.0322
央	-13.0322
媠	-13.0322
攓	-13.0322
唐	-13.0322
嚮	-13.0322
岡	-13.0322
夠	-13.0322
慐	-13.0322
囷	-13.0478
勊	-13.0478
厖	-13.0478
圪	-13.0478
坷	-13.0478
姊	-13.0478
娸	-13.0478
懍	-13.0478
摚	-13.0478
暩	-13.0478
柍	-13.0478
婞	-13.0478
屖	-13.0478
塩	-13.0637
噢	-13.0637
坒	-13.0637
媪	-13.0637
孷	-13.0637
岀	-13.0637
崝	-13.0637
况	-13.0637
剎	-13.0637
囈	-13.0637
堆	-13.0637
妷	-13.0637
厱	-13.0798
廲	-13.0798
叿	-13.0798
喰	-13.0798
委	-13.0798
嶞	-13.0798
恲	-13.0798
抎	-13.0798
尡	-13.0798
塔	-13.0962
卋	-13.0962
厴	-13.0962
夳	-13.0962
嬒	-13.0962
寅	-13.0962
惺	-13.0962
尯	-13.0962
寽	-13.0962
冟	-13.1119
彸	-13.1129
儞	-13.1129
兵	-13.1129
冒	-13.1129
匠	-13.1129
嘨	-13.1129
噠	-13.1129
嚫	-13.1129
圚	-13.1129
塙	-13.1129
夶	-13.1129
婥	-13.1129
嬘	-13.1129
彟	-13.1129
嫷	-13.1129
峳	-13.1129
匚	-13.1129
凕	-13.1298
剃	-13.1298
唶	-13.1298
嘚	-13.1298
囡	-13.1298
堓	-13.1298
媶	-13.1298
定	-13.1298
寞	-13.1298
屔	-13.1298
弨	-13.1298
氫	-13.1298
瀁	-13.1298
卒	-13.1298
嬬	-13.1298
巘	-13.1298
墮	-13.1298
六	-13.1471
噇	-13.1471
垈	-13.1471
壠	-13.1471
壥	-13.1471
备	-13.1471
奕	-13.1471
妮	-13.1471
岿	-13.1471
徇	-13.1471
勄	-13.1471
峲	-13.1471
呖	-13.1646
囆	-13.1646
坫	-13.1646
岖	-13.1646
庉	-13.1646
惒	-13.1646
剒	-13.1646
华	-13.1646
嚝	-13.1646
峒	-13.1646
敎	-13.1646
埇	-13.1646
侁	-13.181
侒	-13.1825
懨	-13.1825
剘	-13.1825
喢	-13.1825
垨	-13.1825
埖	-13.1825
墍	-13.1825
夵	-13.1825
媓	-13.1825
嫘	-13.1825
嫶	-13.1825
嫻	-13.1825
屛	-13.1825
怾	-13.1825
悢	-13.1825
慏	-13.1825
匫	-13.1825
岽	-13.1825
匘	-13.1825
匭	-13.2001
姌	-13.2007
姯	-13.2007
厘	-13.2007
堔	-13.2007
夙	-13.2007
嫚	-13.2007
怲	-13.2007
拍	-13.2007
掫	-13.2007
兣	-13.2007
唍	-13.2007
姀	-13.2007
廓	-13.2007
弻	-13.2007
從	-13.2007
啘	-13.2007
唼	-13.2192
厡	-13.2192
呀	-13.2192
嗪	-13.2192
圉	-13.2192
孟	-13.2192
巌	-13.2192
廂	-13.2192
匕	-13.2192
兪	-13.238
堝	-13.238
態	-13.238
傺	-13.238
哆	-13.238
奨	-13.238
姸	-13.238
嬷	-13.238
庼	-13.238
怐	-13.238
剴	-13.238
圲	-13.238
娘	-13.238
婡	-13.238
徏	-13.238
嫼	-13.238
伙	-13.2573
噽	-13.2573
嚌	-13.2573
垟	-13.2573
垼	-13.2573
埅	-13.2573
娄	-13.2573
娊	-13.2573
延	-13.2573
咆	-13.2573
团	-13.2573
廬	-13.2573
掎	-13.2573
勃	-13.2769
儊	-13.2769
凣	-13.2769
嘁	-13.2769
壑	-13.2769
嬔	-13.2769
孴	-13.2769
崸	-13.2769
巐	-13.2769
幑	-13.2769
惴	-13.2769
擿	-13.2769
噯	-13.2969
傐	-13.2969
叐	-13.2969
啺	-13.2969
喔	-13.2969
埝	-13.2969
夝	-13.2969
妡	-13.2969
妦	-13.2969
嫂	-13.2969
嫺	-13.2969
嫿	-13.2969
嬛	-13.2969
孝	-13.2969
幔	-13.2969
狼	-13.2969
冼	-13.2969
埂	-13.2969
墪	-13.2969
嘐	-13.3173
孮	-13.3173
官	-13.3173
冰	-13.3173
却	-13.3173
坋	-13.3173
埣	-13.3173
堹	-13.3173
媎	-13.3173
嫄	-13.3173
帑	-13.3173
怗	-13.3173
憈	-13.3173
嚐	-13.3173
刔	-13.3381
嘴	-13.3381
囸	-13.3381
圶	-13.3381
堍	-13.3381
屵	-13.3381
峀	-13.3381
悚	-13.3381
慾	-13.3381
揵	-13.3381
撋	-13.3381
曗	-13.3381
圳	-13.3381
弸	-13.3381
十	-13.3594
卄	-13.3594
吒	-13.3594
嘞	-13.3594
囌	-13.3594
坮	-13.3594
塗	-13.3594
夺	-13.3594
忈	-13.3594
搞	-13.3594
摙	-13.3594
擺	-13.3594
哿	-13.3594
墤	-13.3594
壶	-13.3594
屦	-13.3594
岠	-13.3594
兦	-13.3811
囤	-13.3811
圯	-13.3811
埉	-13.3811
嶢	-13.3811
廘	-13.3811
彲	-13.3811
忮	-13.3811
慕	-13.3811
朵	-13.3811
匙	-13.3811
吶	-13.3811
嚯	-13.3811
塊	-13.3811
墆	-13.3811
妤	-13.3811
岕	-13.3811
峊	-13.3811
帐	-13.3811
悰	-13.3812
劔	-13.3812
坏	-13.4034
擉	-13.4034
咏	-13.4034
咘	-13.4034
咪	-13.4034
單	-13.4034
垭	-13.4034
堢	-13.4034
将	-13.4034
摶	-13.4034
攂	-13.4034
喻	-13.4034
尢	-13.4034
堘	-13.4261
刹	-13.4261
勅	-13.4261
呧	-13.4261
啍	-13.4261
啖	-13.4261
嚹	-13.4261
嬨	-13.4261
嶖	-13.4261
呹	-13.4261
垸	-13.4261
婩	-13.4261
宑	-13.4261
尨	-13.4261
屮	-13.4261
峴	-13.4261
嶺	-13.4261
征	-13.4493
吟	-13.4493
哩	-13.4493
喼	-13.4493
囝	-13.4493
塍	-13.4493
墧	-13.4493
头	-13.4493
岫	-13.4493
峡	-13.4493
崭	-13.4493
慔	-13.4493
戞	-13.4493
挲	-13.4493
圍	-13.4493
壵	-13.4493
圐	-13.4732
删	-13.4732
去	-13.4732
叓	-13.4732
嚺	-13.4732
基	-13.4732
堥	-13.4732
妨	-13.4732
寲	-13.4732
尹	-13.4732
峧	-13.4732
怶	-13.4732
檵	-13.4732
剡	-13.4732
區	-13.4732
僅	-13.4975
囥	-13.4975
奤	-13.4975
巷	-13.4975
匬	-13.4975
嗃	-13.4975
噫	-13.4975
圬	-13.4975
埍	-13.4975
墏	-13.4975
外	-13.4975
娝	-13.4975
嫱	-13.4975
屓	-13.4975
愛	-13.4975
堟	-13.4975
壸	-13.4975
寪	-13.4975
僯	-13.5225
噴	-13.5225
凘	-13.5225
咿	-13.5225
唟	-13.5225
喨	-13.5225
嗷	-13.5225
圻	-13.5225
寳	-13.5225
少	-13.5225
峚	-13.5225
愑	-13.5225
凨	-13.5225
塐	-13.5225
姿	-13.5225
娎	-13.5225
囕	-13.5225
垱	-13.5225
哔	-13.5482
凈	-13.5482
劤	-13.5482
吝	-13.5482
咼	-13.5482
嘗	-13.5482
圝	-13.5482
堐	-13.5482
堮	-13.5482
壈	-13.5482
尥	-13.5482
巙	-13.5482
忣	-13.5482
惜	-13.5482
愓	-13.5482
摠	-13.5482
摵	-13.5482
巻	-13.5482
掬	-13.5482
憻	-13.5745
勉	-13.5745
呺	-13.5745
囮	-13.5745
圧	-13.5745
历	-13.5745
啨	-13.5745
器	-13.5745
坅	-13.5745
垉	-13.5745
塃	-13.5745
塚	-13.5745
复	-13.5745
娨	-13.5745
娰	-13.5745
娹	-13.5745
嬈	-13.5745
嬹	-13.5745
尒	-13.5745
尵	-13.5745
屇	-13.5745
嶘	-13.5745
徨	-13.5745
掐	-13.5745
曾	-13.5745
噘	-13.5745
墉	-13.5745
妇	-13.5745
嫝	-13.5745
当	-13.5745
杞	-13.6015
庡	-13.6015
拵	-13.6015
垙	-13.6015
堚	-13.6015
壬	-13.6015
壷	-13.6015
姼	-13.6015
娍	-13.6015
嬄	-13.6015
尘	-13.6015
廁	-13.6015
廖	-13.6015
恇	-13.6015
愍	-13.6015
捰	-13.6015
椸	-13.6015
漒	-13.6015
牓	-13.6015
加	-13.6015
婑	-13.6015
哹	-13.6015
嗦	-13.6293
坁	-13.6293
婴	-13.6293
劏	-13.6293
劣	-13.6293
哒	-13.6293
唢	-13.6293
啵	-13.6293
啻	-13.6293
塁	-13.6293
姬	-13.6293
姻	-13.6293
娱	-13.6293
嵘	-13.6293
廔	-13.6293
归	-13.6293
戇	-13.6293
摼	-13.6293
崢	-13.6293
匨	-13.6579
報	-13.6579
巋	-13.6579
呋	-13.6579
喠	-13.6579
噬	-13.6579
坼	-13.6579
垅	-13.6579
埒	-13.6579
墽	-13.6579
夬	-13.6579
娷	-13.6579
婠	-13.6579
尦	-13.6579
岐	-13.6579
峓	-13.6579
嶭	-13.6579
巏	-13.6579
巗	-13.6579
彼	-13.6579
怷	-13.6579
悇	-13.6579
搝	-13.6579
擐	-13.6579
攣	-13.6579
倦	-13.6579
卣	-13.6579
嚪	-13.6579
夑	-13.6579
娫	-13.6579
嫭	-13.6579
崣	-13.6579
匡	-13.6579
寷	-13.6579
拶	-13.6579
傭	-13.6873
勛	-13.6873
唰	-13.6873
善	-13.6873
嘊	-13.6873
墯	-13.6873
夤	-13.6873
娋	-13.6873
婛	-13.6873
嫕	-13.6873
寇	-13.6873
屩	-13.6873
峯	-13.6873
嶼	-13.6873
巁	-13.6873
巡	-13.6873
巨	-13.6873
帾	-13.6873
幢	-13.6873
庠	-13.6873
彴	-13.6873
彵	-13.6873
悙	-13.6873
妣	-13.6873
剦	-13.7176
卓	-13.7176
嚡	-13.7176
恦	-13.7176
僶	-13.7176
勐	-13.7176
吀	-13.7176
吤	-13.7176
咾	-13.7176
哵	-13.7176
噉	-13.7176
垞	-13.7176
妒	-13.7176
姗	-13.7176
婗	-13.7176
婭	-13.7176
嫡	-13.7176
嫴	-13.7176
嬴	-13.7176
季	-13.7176
寔	-13.7176
崙	-13.7176
巑	-13.7176
悫	-13.7176
戆	-13.7176
旄	-13.7176
枊	-13.7176
劽	-13.7176
噚	-13.7176
婝	-13.7176
嬅	-13.7176
御	-13.7176
抌	-13.7176
啛	-13.7176
嶇	-13.7176
啢	-13.7176
劼	-13.7488
卥	-13.7488
卸	-13.7488
啊	-13.7488
売	-13.7488
婘	-13.7488
忍	-13.7488
恃	-13.7488
咜	-13.7488
圏	-13.7488
圛	-13.7488
坐	-13.7488
埮	-13.7488
墶	-13.7488
夒	-13.7488
奓	-13.7488
奩	-13.7488
妸	-13.7488
姨	-13.7488
姳	-13.7488
宄	-13.7488
宓	-13.7488
宖	-13.7488
屨	-13.7488
崫	-13.7488
帨	-13.7488
庛	-13.7488
彐	-13.7488
忊	-13.7488
念	-13.7488
愾	-13.7488
扆	-13.7488
找	-13.7488
搉	-13.7488
攑	-13.7488
敵	-13.7488
栖	-13.7488
勋	-13.7488
婳	-13.7488
徟	-13.7488
啙	-13.7488
愡	-13.7488
封	-13.7811
勏	-13.7811
塕	-13.7811
娶	-13.7811
刓	-13.7811
劋	-13.7811
卧	-13.7811
叫	-13.7811
啉	-13.7811
嘘	-13.7811
圁	-13.7811
圽	-13.7811
垳	-13.7811
垶	-13.7811
壃	-13.7811
夀	-13.7811
奎	-13.7811
奢	-13.7811
娜	-13.7811
媰	-13.7811
嬕	-13.7811
峽	-13.7811
嶱	-13.7811
庳	-13.7811
忎	-13.7811
忘	-13.7811
怡	-13.7811
恎	-13.7811
捾	-13.7811
摧	-13.7811
旕	-13.7811
杓	-13.7811
匪	-13.7811
寫	-13.7811
屳	-13.7811
彈	-13.7811
塵	-13.7811
怺	-13.8144
儰	-13.8144
勁	-13.8144
叒	-13.8144
唲	-13.8144
喪	-13.8144
嗫	-13.8144
嘍	-13.8144
噞	-13.8144
嚬	-13.8144
囲	-13.8144
圸	-13.8144
墐	-13.8144
壺	-13.8144
妟	-13.8144
娂	-13.8144
嵞	-13.8144
嶹	-13.8144
庌	-13.8144
愇	-13.8144
撾	-13.8144
昩	-13.8144
凜	-13.8144
噖	-13.8144
堉	-13.8144
婙	-13.8144
尫	-13.8144
峋	-13.8144
弧	-13.8144
旃	-13.8144
契	-13.8144
啡	-13.8144
娪	-13.8489
噵	-13.8489
垽	-13.8489
壿	-13.8489
奐	-13.8489
娔	-13.8489
嫫	-13.8489
嬆	-13.8489
屟	-13.8489
屿	-13.8489
弉	-13.8489
彣	-13.8489
徕	-13.8489
忯	-13.8489
怚	-13.8489
总	-13.8489
慖	-13.8489
慦	-13.8489
戝	-13.8489
挅	-13.8489
斎	-13.8489
旛	-13.8489
昷	-13.8489
曯	-13.8489
溤	-13.8489
灁	-13.8489
戂	-13.8489
呞	-13.8489
惀	-13.8489
溌	-13.8489
廱	-13.8846
滞	-13.8846
劦	-13.8846
匌	-13.8846
卌	-13.8846
嘣	-13.8846
噓	-13.8846
媒	-13.8846
嫢	-13.8846
嫯	-13.8846
孕	-13.8846
峹	-13.8846
巜	-13.8846
庑	-13.8846
惚	-13.8846
抢	-13.8846
暅	-13.8846
曇	-13.8846
朓	-13.8846
框	-13.8846
母	-13.8846
唨	-13.8846
埃	-13.8846
嬺	-13.8846
寭	-13.8846
尴	-13.8846
岷	-13.8846
崷	-13.8846
幈	-13.8846
庆	-13.8846
怋	-13.8846
憤	-13.8846
悉	-13.8846
塽	-13.8846
悅	-13.9217
勑	-13.9217
斳	-13.9217
刵	-13.9217
匢	-13.9217
嚘	-13.9217
埸	-13.9217
失	-13.9217
婵	-13.9217
媗	-13.9217
嬥	-13.9217
嬭	-13.9217
宎	-13.9217
幡	-13.9217
庤	-13.9217
弹	-13.9217
悛	-13.9217
扱	-13.9217
抺	-13.9217
拉	-13.9217
揂	-13.9217
攚	-13.9217
敹	-13.9217
曩	-13.9217
曫	-13.9217
朩	-13.9217
枌	-13.9217
的	-13.9217
劍	-13.9217
哪	-13.9217
夕	-13.9217
威	-13.9217
媹	-13.9217
屍	-13.9217
崈	-13.9217
巊	-13.9217
弣	-13.9217
忛	-13.9217
怤	-13.9217
抵	-13.9217
旀	-13.9217
埜	-13.9217
尟	-13.9217
僱	-13.9547
勂	-13.9601
勖	-13.9601
天	-13.9601
傚	-13.9601
傯	-13.9601
凰	-13.9601
呷	-13.9601
哏	-13.9601
噥	-13.9601
囄	-13.9601
圄	-13.9601
姍	-13.9601
婮	-13.9601
媑	-13.9601
媯	-13.9601
嫍	-13.9601
學	-13.9601
尕	-13.9601
尻	-13.9601
岼	-13.9601
峮	-13.9601
嶪	-13.9601
帤	-13.9601
徜	-13.9601
戺	-13.9601
扭	-13.9601
拒	-13.9601
捚	-13.9601
敖	-13.9601
昺	-13.9601
朇	-13.9601
潼	-13.9601
熣	-13.9601
壝	-13.9601
夈	-13.9601
姇	-13.9601
尀	-13.9601
岝	-13.9601
幁	-13.9601
喐	-13.9601
婹	-13.9601
勘	-14.0001
墵	-14.0001
军	-14.0001
嚵	-14.0001
堺	-14.0001
墎	-14.0001
壔	-14.0001
奡	-14.0001
奾	-14.0001
妬	-14.0001
嬎	-14.0001
宣	-14.0001
屻	-14.0001
嵒	-14.0001
巪	-14.0001
弢	-14.0001
勆	-14.0001
埾	-14.0001
壁	-14.0001
壐	-14.0001
婍	-14.0001
嵌	-14.0001
庢	-14.0001
寿	-14.0001
嶝	-14.0001
啞	-14.0001
慨	-14.6729
唇	-14.7562
庘	-14.8418
尊	-14.8419
寰	-14.842
幉	-14.8421
猊	-14.8422
杻	-14.8423
塘	-14.8424
彠	-14.8425
圗	-14.8426
樒	-14.8427
劈	-14.8428
嵙	-14.8429
咍	-14.843
冢	-14.8431
對	-14.8432
愶	-14.8433
惮	-14.8434
皠	-14.8435
啓	-14.8436
椷	-14.8437
堧	-14.8438
园	-14.8439
傛	-14.844
斴	-14.8441
嘵	-14.8442
協	-14.8443
嬳	-14.8444
充	-14.8445
屆	-14.8446
屯	-14.8447
刼	-14.8448
孧	-14.8449
喎	-14.845
幊	-14.8451
喟	-14.8452
將	-14.8453
开	-14.8454
冬	-14.8455
槐	-14.8456
剿	-14.8457
塉	-14.8458
曏	-14.8459
剽	-14.846
嚃	-14.8461
恧	-14.8462
国	-14.8463
傽	-14.8464
囇	-14.8465
倯	-14.8466
僴	-14.8466
