<unk>	0
<s>	0
</s>	0
.	-2.885
,	-3.57923
ம்	-4.62484
க்	-4.81956
ப்	-4.88715
கள்	-4.99416
்	-5.02946
▁	-5.23521
▁மற்றும்	-5.30306
த்	-5.30831
▁(	-5.31992
▁ஒரு	-5.32499
)	-5.39663
▁"	-5.60668
"	-5.67052
ு	-5.68248
▁இந்த	-5.73273
ும்	-5.7464
ன்	-5.81202
ச்	-5.84162
து	-5.84914
ல்	-5.85297
ின்	-5.93082
ர்	-5.98275
-	-6.00538
ஸ்	-6.04157
யில்	-6.045
▁இது	-6.10375
த்தில்	-6.12497
ய	-6.14115
க்கு	-6.14687
▁என்ற	-6.1601
களை	-6.18688
▁ஊராட்சி	-6.2025
யின்	-6.21038
▁உள்ள	-6.21269
:	-6.21928
▁ஆகும்	-6.22614
களில்	-6.23765
ில்	-6.26004
▁ஆம்	-6.28604
ன	-6.29391
▁ஆண்டு	-6.33504
ட்	-6.33587
ங்கள்	-6.34792
களின்	-6.39867
▁என்பது	-6.43423
க	-6.44185
ை	-6.45255
▁இவர்	-6.46213
ி	-6.47019
▁அல்லது	-6.47809
▁பல	-6.48119
யை	-6.48684
த்தின்	-6.49211
▁உள்ளது	-6.51986
▁க	-6.5231
▁அ	-6.53907
த்தை	-6.56077
▁மக்கள்	-6.57014
சு	-6.58194
▁என்று	-6.59733
யும்	-6.61482
▁இருந்து	-6.62365
வை	-6.63202
▁முதல்	-6.63871
ம	-6.64647
வ	-6.65348
▁இந்திய	-6.67294
ஆம்	-6.67878
ா	-6.69349
▁("	-6.69815
த	-6.72597
களும்	-6.72687
ப	-6.73599
சி	-6.74172
▁என	-6.76111
மாக	-6.76598
ார்	-6.76912
ப்படுகிறது	-6.77726
ரி	-6.78093
வர்	-6.79252
டி	-6.79447
▁இ	-6.81048
ர	-6.83021
▁கோயில்	-6.83851
த்த	-6.83921
▁என்னும்	-6.84544
க்க	-6.84659
▁சில	-6.88299
மா	-6.89307
▁போன்ற	-6.89978
வி	-6.9048
வும்	-6.90717
▁பி	-6.91256
▁அவர்	-6.9208
வு	-6.92239
▁7	-6.92298
னி	-6.93308
மான	-6.93563
தி	-6.94673
ரா	-6.95519
ுள்ளது	-6.95794
▁அமைந்துள்ள	-6.96046
▁தொகை	-6.96188
▁கொண்ட	-6.96441
▁மேலும்	-6.96713
த்து	-6.97031
ந்த	-6.99566
கா	-7.0055
யாக	-7.01139
▁இல்	-7.01208
ட	-7.01407
லா	-7.01551
ச	-7.03095
▁-	-7.03247
லி	-7.03279
ப்பட்ட	-7.03537
களுக்கு	-7.05374
னர்	-7.07277
▁த	-7.07632
ிய	-7.07954
வா	-7.08321
ல	-7.08744
மை	-7.09347
ப்ப	-7.09718
யா	-7.10763
டு	-7.11037
▁வரை	-7.13148
ப்பு	-7.13445
னா	-7.13845
வின்	-7.14167
ங்களில்	-7.14293
▁18	-7.15038
▁ஆண்டில்	-7.16402
▁பயன்படுத்த	-7.18286
ாக	-7.19281
▁வி	-7.20014
▁அமைந்துள்ளது	-7.2018
s	-7.20664
▁ப	-7.20875
▁சி	-7.21196
ங்	-7.21464
▁இதன்	-7.2184
▁உள்ளன	-7.22148
▁கி	-7.2238
▁இக்கோயில்	-7.22663
;	-7.23196
லை	-7.24169
▁ச	-7.2461
),	-7.24841
ரை	-7.24885
▁பின்னர்	-7.24996
கு	-7.2623
பா	-7.27288
பி	-7.27295
▁கா	-7.27384
▁இருக்கும்	-7.28909
ப்பட்டது	-7.28912
க்கும்	-7.29939
மி	-7.31068
▁மூலம்	-7.31762
ால்	-7.32086
தா	-7.32132
மும்	-7.33541
▁எ	-7.33804
கி	-7.339
▁இரு	-7.33934
▁கொண்டு	-7.34845
▁மாவட்டம்	-7.34993
வே	-7.35227
▁தொகுதிக்கும்	-7.35717
த்திற்கு	-7.35756
▁ஆனால்	-7.36156
▁பேரும்	-7.36158
தாக	-7.36674
ப்படும்	-7.37066
")	-7.37101
ங்களை	-7.37182
▁ஆ	-7.37788
▁ஏ	-7.37996
யான	-7.38313
▁தனது	-7.38364
ான	-7.38477
▁கு	-7.38733
சா	-7.39486
▁ஆகிய	-7.40229
▁அதன்	-7.40319
▁மாவட்டத்தில்	-7.40372
▁இரண்டு	-7.40392
▁அந்த	-7.40475
வில்	-7.41713
ே	-7.41738
களையும்	-7.41937
▁2011	-7.42195
▁மு	-7.42698
▁முக்கிய	-7.42997
▁தமிழ்	-7.43652
▁ம	-7.43688
▁சா	-7.4427
ுக்கு	-7.44673
▁உ	-7.45959
▁2	-7.46104
அ	-7.46603
▁போது	-7.47188
▁மா	-7.48253
▁மொழி	-7.48605
▁டி	-7.49042
▁வளர்ச்சி	-7.50063
ந்து	-7.50116
யே	-7.5017
னை	-7.50304
▁கொண்டுள்ளது	-7.51674
▁சு	-7.52885
▁இருந்த	-7.53346
▁ஆவார்	-7.53352
'	-7.53363
▁தமிழ்நாடு	-7.53537
▁பெயர்	-7.5397
▁இவை	-7.54815
ட்டு	-7.5542
▁பா	-7.5571
▁இக்கோயிலில்	-7.55862
▁பெரிய	-7.55965
▁துடுப்பாட்டப்	-7.57799
ரோ	-7.59465
▁தா	-7.59894
▁பெண்கள்	-7.59939
▁அது	-7.60128
ள	-7.60522
▁இந்து	-7.60646
த்தி	-7.60777
▁மொத்த	-7.61017
).	-7.61152
▁செ	-7.61156
மே	-7.614
▁என்றும்	-7.6165
ப்படுகின்றன	-7.61653
▁அவரது	-7.61908
▁மே	-7.62355
களைக்	-7.62367
ங்க	-7.63238
▁முறை	-7.63736
களால்	-7.63767
▁5	-7.63934
▁கே	-7.63936
டை	-7.64423
▁நிலை	-7.64504
▁தேர்ந்தெடுக்க	-7.64524
▁சட்டமன்றத்	-7.65817
▁வேண்டும்	-7.67082
▁தேசிய	-7.67082
ற்ற	-7.67092
▁1	-7.67233
▁மிகவும்	-7.67626
டன்	-7.68064
▁ஒன்று	-7.68251
▁4	-7.68505
▁உள்ளனர்	-7.68515
யோ	-7.68595
▁இங்கு	-7.68756
▁மூன்று	-7.68884
(	-7.68974
ண	-7.6942
▁பிற	-7.70136
▁திரு	-7.70503
டா	-7.70908
ட்ட	-7.70995
ட்டி	-7.71194
லாம்	-7.71451
▁தகவல்	-7.71521
▁பெற்ற	-7.71539
ற	-7.71586
ரு	-7.71765
ரின்	-7.71929
இல்	-7.7195
▁கீழ்	-7.71983
▁கோ	-7.72077
▁கால	-7.72683
ச்சி	-7.73434
▁தி	-7.73491
▁கல்வி	-7.74022
கோ	-7.7405
▁அரசு	-7.74322
▁ந	-7.74442
▁பட்டியல்	-7.748
S	-7.74969
▁பகுதி	-7.75199
ப்பட்டு	-7.75469
▁3	-7.75575
ங்களின்	-7.75796
▁10	-7.76188
▁ஐ	-7.76271
களாக	-7.76541
▁மீ	-7.76949
▁வந்த	-7.7722
▁வகை	-7.7771
▁தமிழ்நாட்டில்	-7.78013
▁அமெரிக்க	-7.78165
▁,	-7.78175
▁மன்ற	-7.78286
னின்	-7.78354
▁செய்ய	-7.78453
▁மக்களவைத்	-7.78699
▁தர	-7.78873
▁பூசை	-7.78912
▁அவை	-7.79043
சன்	-7.79589
▁எனும்	-7.79908
ணி	-7.79938
▁ஆர்	-7.80049
மு	-7.80344
▁நா	-7.80677
▁ஊரில்	-7.81039
▁தன்	-7.81068
றி	-7.81072
▁2015	-7.81163
%	-7.81394
▁ஆண்கள்	-7.81452
▁இருந்தது	-7.81842
▁பின்	-7.82242
▁6	-7.83224
ுதல்	-7.83891
ின்றனர்	-7.8424
யர்	-7.84408
ினார்	-7.84451
பு	-7.84543
▁தமிழ்நாட்டின்	-7.84605
/	-7.84921
கை	-7.85138
▁இதில்	-7.85403
▁இவற்றில்	-7.85626
ோ	-7.85717
▁அதிக	-7.85731
▁17	-7.85765
▁'	-7.8593
ிலும்	-7.85952
▁மாதம்	-7.86796
▁புதிய	-7.86877
தை	-7.8724
C	-7.87254
று	-7.87664
▁மொத்தம்	-7.879
வ்	-7.88252
y	-7.88707
e	-7.89237
▁பொதுவாக	-7.89471
▁15	-7.89536
ளி	-7.89654
▁கலந்து	-7.89746
▁நிர்வகிக்க	-7.89859
▁பல்வேறு	-7.90866
ணக்கெடுப்பின்படி	-7.90915
▁சேர்ந்த	-7.90961
▁கட்டுப்பாட்டில்	-7.91411
P	-7.91543
▁12	-7.92226
▁உலக	-7.92506
▁மிக	-7.92826
▁8	-7.92835
▁செய்து	-7.9294
▁ஆறு	-7.93087
▁சேர்ந்தது	-7.9316
",	-7.93206
யாகும்	-7.9384
n	-7.94051
▁இட	-7.94202
▁கோயிலாகும்	-7.9438
▁அமைப்பு	-7.94517
▁விட	-7.94745
ங்களும்	-7.94952
▁இவர்களில்	-7.95169
"),	-7.95189
▁ஓர்	-7.95333
வோ	-7.95495
▁நூற்றாண்டைச்	-7.95693
▁வ	-7.9612
▁காரணமாக	-7.96284
▁16	-7.96326
▁போர்	-7.96872
▁பு	-7.97395
▁கை	-7.97537
▁வகைப்பாட்டில்	-7.977
▁துறையின்	-7.97826
மாகும்	-7.97925
▁அணி	-7.98055
காலப்	-7.98123
ண்ட	-7.98177
▁போ	-7.98328
களைப்	-7.98609
ப்பட	-7.98899
▁அன்று	-7.9898
லோ	-7.99335
▁இவரது	-7.99565
▁9	-7.99778
▁அளவு	-7.99796
▁அறநிலையத்துறைய	-7.99826
ய்	-8.00076
▁பிறகு	-8.0046
▁அடி	-8.00935
களுடன்	-8.01144
ுள்ள	-8.01327
▁திருக்கோயில்	-8.01444
ரே	-8.01753
ான்	-8.02344
வது	-8.02418
▁தொகுக்கப்பட்ட	-8.02681
▁ஓ	-8.02817
al	-8.02841
▁அவர்கள்	-8.02883
▁இசை	-8.03004
▁பகுதியில்	-8.03278
சை	-8.03598
இ	-8.03896
▁கீழ்க்கண்ட	-8.0417
▁பூ	-8.04199
க்கி	-8.04275
▁தொடர்ந்து	-8.04332
▁படி	-8.04443
▁வெற்றி	-8.04494
▁ஊரக	-8.04527
a	-8.04934
▁மாற்ற	-8.04966
2	-8.05034
▁நீர்	-8.05076
▁தான்	-8.05202
M	-8.05468
▁ஆய்வு	-8.05604
▁முதன்மைத்	-8.05961
▁என்	-8.06062
▁தொகுதிகளைக்	-8.06177
ாத	-8.06245
▁எஸ்	-8.06551
தால்	-8.06717
ழ	-8.06752
▁சிற்றூர்கள	-8.06971
▁மன்றத்	-8.06998
விட	-8.07002
களிலும்	-8.0724
▁உருவாக்க	-8.07257
டோ	-8.07312
▁இந்தியாவின்	-8.07327
▁கொ	-8.07393
▁ஊராட்சியில்	-8.07415
வர	-8.0746
▁Gram	-8.07535
▁காலத்தில்	-8.07594
போது	-8.07609
▁துடுப்பாட்ட	-8.07775
▁Panchayat	-8.07816
▁பணி	-8.07909
▁தரவின்படி	-8.08087
▁ஸ்	-8.08114
▁உறுப்பினர்களைத	-8.08173
ுடன்	-8.08367
கம்	-8.08388
▁தொகுதி	-8.08403
▁உட்பட்டதாக	-8.08552
▁அரச	-8.0868
யால்	-8.08814
ண்டு	-8.08879
ச்ச	-8.09033
▁கலை	-8.09213
ுகிறது	-8.09243
னோ	-8.09302
▁ஒவ்வொரு	-8.09339
▁ஆண்டுத்	-8.09642
ிலிருந்து	-8.10117
யு	-8.10177
▁வட்டாரத்தில்	-8.10229
▁சிறந்த	-8.10348
an	-8.10424
க்கா	-8.10558
யுடன்	-8.10703
ானது	-8.11026
ிற்கு	-8.11277
▁ஊராட்சித்	-8.11317
ள்	-8.11425
▁மற்ற	-8.11426
A	-8.11507
▁நான்கு	-8.11713
ாகும்	-8.11952
யானது	-8.12035
▁அனைத்து	-8.12225
ையும்	-8.12366
வன்	-8.12545
▁மி	-8.12562
▁சார்ந்த	-8.12732
▁பரம்பரை	-8.12803
▁நகர	-8.12846
▁மாநில	-8.12864
யிலிருந்து	-8.12939
▁நாள்	-8.13047
▁தீ	-8.13114
▁நடக்கின்றது	-8.1315
▁11	-8.13249
▁மலை	-8.13798
நிலை	-8.1387
▁மீது	-8.14021
▁வா	-8.14272
ற்று	-8.14371
▁சமூக	-8.14528
ப்பட்டுள்ளது	-8.14603
ஷ்	-8.14667
▁வெளிவந்த	-8.14715
▁அல்லாத	-8.14871
▁சென்னை	-8.15032
வர்கள்	-8.15104
▁ஆட்சி	-8.15106
▁மட்டுமே	-8.15254
▁S	-8.15403
o	-8.15429
க்கான	-8.15555
▁பொருள்	-8.15574
▁சோ	-8.15677
▁வர	-8.15763
▁து	-8.15813
▁துணை	-8.16039
▁20	-8.16254
▁இலங்கை	-8.16316
▁சிறு	-8.1665
▁நில	-8.16744
▁பத்தொன்பதாம்	-8.1699
r	-8.17274
i	-8.17533
▁ஈ	-8.17713
3	-8.18173
க்கள்	-8.18272
▁பெற	-8.18614
யிலும்	-8.18752
ியது	-8.19075
▁பொது	-8.19091
யி	-8.19289
▁முன்	-8.19315
▁மேல்	-8.19415
▁வட	-8.19489
தான்	-8.19524
▁ஒ	-8.19526
▁மெ	-8.19531
த்துக்கு	-8.19835
▁இயக்க	-8.20011
▁14	-8.20096
▁குறிப்பிட்ட	-8.20526
லே	-8.20599
யைக்	-8.20726
த்திலும்	-8.20787
▁இதனால்	-8.20978
ஜி	-8.21272
ஆ	-8.21319
▁13	-8.21351
ைக்	-8.21551
▁வெளி	-8.21566
▁பிர	-8.21959
ாமல்	-8.22029
▁அறங்காவலர்	-8.22279
▁சிறிய	-8.2238
▁கொள்ள	-8.22542
▁நோய்	-8.22626
▁சே	-8.22665
▁பெண்	-8.22672
▁பல்கலைக்கழக	-8.23077
▁உற்பத்தி	-8.23131
ங்கு	-8.23225
ியல்	-8.23406
ழி	-8.23512
▁திரைப்பட	-8.2356
▁ர	-8.2384
▁பற்றிய	-8.23907
▁பள்ளி	-8.23927
▁செய்த	-8.24063
▁பெற்றார்	-8.24139
▁பட	-8.24411
▁மீண்டும்	-8.24435
ர்கள்	-8.24541
▁மனித	-8.24554
▁எண்	-8.24625
▁வழங்க	-8.24712
▁தலை	-8.24735
1	-8.24815
தே	-8.24815
▁சட்ட	-8.25024
▁வரும்	-8.25094
]]	-8.25164
▁பெரும்	-8.25355
கர்	-8.25598
▁எம்	-8.25646
றை	-8.25701
▁இருப்பினும்	-8.25775
▁நூல்	-8.26332
▁இன	-8.26455
யூ	-8.26883
▁இன்	-8.26972
ட்டா	-8.27089
ரிய	-8.2715
▁பற்றி	-8.27217
▁ஐக்கிய	-8.27262
▁பெ	-8.2732
er	-8.2745
▁வழி	-8.27474
ுவது	-8.27486
▁ஒளி	-8.27639
p	-8.27804
▁ஒரே	-8.28086
▁என்பவர்	-8.28254
▁நி	-8.283
போ	-8.28305
B	-8.28473
ப்பா	-8.2858
▁அமைப்பால்	-8.28915
ண்டி	-8.2898
ுகின்றன	-8.29125
கே	-8.29222
E	-8.29441
வில்லை	-8.29532
▁தனி	-8.2968
▁வெ	-8.29859
▁வினை	-8.29936
▁பட்ட	-8.30097
T	-8.3021
ஞ்ச	-8.30435
m	-8.3079
ங்களுக்கு	-8.3081
மோ	-8.30846
▁போட்டிகளில்	-8.30881
▁ஹ	-8.30913
ப்பி	-8.31032
ுள்ளார்	-8.31055
▁தென்	-8.31165
மானது	-8.31189
ar	-8.31384
▁படை	-8.31409
▁ஜ	-8.31512
▁C	-8.31615
ந	-8.31659
▁வேலை	-8.31902
4	-8.31946
t	-8.32087
▁[[	-8.32387
ள்ள	-8.32558
வரை	-8.32579
சோ	-8.32677
▁இந்தியா	-8.32918
▁பிறப்பு	-8.32941
க்கோ	-8.33141
b	-8.3315
▁B	-8.3346
▁நடைபெறுகிறது	-8.33617
▁இரண்டாம்	-8.33794
மன்	-8.33976
க்கூடிய	-8.34219
▁சீ	-8.34574
லின்	-8.3461
த்துடன்	-8.34653
ட்டை	-8.34704
▁மின்	-8.3505
5	-8.35446
படி	-8.35504
த்திலிருந்து	-8.35565
ிருக்கும்	-8.35596
▁இதனை	-8.36351
ாலும்	-8.36432
▁இல்லை	-8.3646
D	-8.365
யைப்	-8.36646
▁கதை	-8.36914
▁துறை	-8.37226
முறை	-8.37351
▁கூட	-8.3746
▁பாட	-8.37514
ுள்ளன	-8.38138
▁அறிவியல்	-8.38201
▁மேற்கு	-8.38382
▁தற்போது	-8.38516
ராக	-8.38517
ண்	-8.38527
▁நாடு	-8.38564
”	-8.38589
ரும்	-8.3859
▁உணவு	-8.38716
▁கரு	-8.38854
னே	-8.38922
யையும்	-8.38978
▁பே	-8.39025
ிருந்த	-8.3909
▁P	-8.39157
▁வே	-8.39377
த்தா	-8.39753
u	-8.4013
▁காணப்படும்	-8.40227
▁தொடர்	-8.40635
னார்	-8.41231
c	-8.41359
▁செல்ல	-8.4139
L	-8.41604
டர்	-8.41668
செ	-8.41822
▁முடியும்	-8.42028
▁ஆக	-8.42314
க்காக	-8.42488
ூ	-8.42526
▁of	-8.4258
▁அதே	-8.42612
▁காண	-8.4271
▁கடல்	-8.4293
▁)	-8.42945
▁கிழக்கு	-8.42979
ற்	-8.43014
களுக்கும்	-8.43201
O	-8.4323
▁மர	-8.43257
▁அளவில்	-8.43314
ணை	-8.43416
▁உயர்	-8.43425
’	-8.44567
ோர்	-8.44637
▁ரா	-8.44702
▁குழந்தை	-8.44851
▁A	-8.44932
▁பொ	-8.45037
த்தால்	-8.45113
▁இடம்	-8.45122
▁அக்டோபர்	-8.45154
R	-8.45359
▁தேவை	-8.45406
6	-8.45429
▁கட்சி	-8.45429
▁குறிப்பிட	-8.4544
▁தேர்வுத்	-8.45683
▁கார்	-8.4572
▁நிலையில்	-8.45788
d	-8.45905
ங்கி	-8.46016
▁என்பதை	-8.46019
▁மீட்டர்	-8.46029
▁தந்தை	-8.46086
த்தையும்	-8.4626
▁சிறப்பு	-8.46315
▁போல	-8.4649
▁ஆகியவை	-8.46518
▁ஜி	-8.46687
▁கல்லூரி	-8.46875
ிறது	-8.47023
▁அம்மன்	-8.471
▁பெரும்பாலும்	-8.47203
▁புற	-8.47204
▁வடிவ	-8.47259
▁ஐந்து	-8.47323
ைப்	-8.47377
▁கொண்டது	-8.47506
ருக்கு	-8.47559
▁நிறுவனம்	-8.47688
▁சுமார்	-8.47833
தாகவும்	-8.4796
யம்	-8.48099
h	-8.48131
▁இருக்கிறது	-8.48212
▁அடிப்படையில்	-8.48294
▁கிராம	-8.48421
எ	-8.48473
▁அரசியல்	-8.48507
▁இதை	-8.48566
▁அழைக்க	-8.4869
▁ஒன்றாகும்	-8.48708
ஹ	-8.48738
▁இணைந்து	-8.48762
▁பாடல்	-8.48768
▁நாட்டின்	-8.48866
▁கண்ட	-8.489
▁மணி	-8.48972
▁மறு	-8.49016
▁மைய	-8.49147
▁மத்திய	-8.49202
▁வணிக	-8.49204
ண்ட்	-8.49229
▁முதலில்	-8.49264
▁முதல்தர	-8.49335
▁மருத்துவ	-8.49658
▁இதற்கு	-8.49822
ந்தி	-8.49837
புரம்	-8.50006
ூர்	-8.50064
வியல்	-8.50274
▁கட்ட	-8.50293
▁தோ	-8.50436
ஜ	-8.50607
▁எனவே	-8.50725
▁நிற	-8.50777
▁உண்டு	-8.50822
▁விளக்க	-8.50886
தன்	-8.50962
▁வெப்ப	-8.50982
H	-8.51051
▁சிவ	-8.51452
▁அங்கு	-8.5147
▁நவம்பர்	-8.51482
▁–	-8.51713
▁ஒலி	-8.51811
▁மாவட்ட	-8.51824
▁குறைந்த	-8.51988
f	-8.52074
▁பெரு	-8.52741
க்காரர்	-8.52858
▁மூல	-8.52879
கிறது	-8.52893
▁சென்று	-8.52945
▁எனப்படும்	-8.53027
▁நேர	-8.53191
▁எந்த	-8.53241
▁இந்தியாவில்	-8.53253
ுவதற்கு	-8.53299
▁கூடிய	-8.5338
▁உதவி	-8.53759
▁பங்கு	-8.53799
னால்	-8.538
▁குழு	-8.53824
தாகும்	-8.53949
▁சமய	-8.54067
ின	-8.54125
▁லா	-8.54209
l	-8.54348
▁இருந்தார்	-8.54367
ur	-8.54441
▁குரு	-8.54582
F	-8.54583
▁உயிர்	-8.54646
▁“	-8.54775
▁அதற்கு	-8.54977
▁அதை	-8.55073
▁M	-8.55254
▁பேர்	-8.55436
k	-8.55517
ினால்	-8.55538
வரும்	-8.55566
▁ஆங்கில	-8.55617
ம்ப	-8.55957
▁தொழில்	-8.56034
▁அணியின்	-8.56415
த்தைக்	-8.56444
▁ஆண்டுகளில்	-8.56457
▁முக	-8.56596
▁மோ	-8.56681
▁சங்க	-8.57073
▁சொல்ல	-8.57148
▁எழுதிய	-8.57165
லு	-8.57373
▁காலம்	-8.57377
N	-8.574
டைய	-8.57454
▁காட்சி	-8.57462
▁நோ	-8.57487
▁30	-8.57499
யன்	-8.5754
▁வேறு	-8.57743
in	-8.57877
லில்	-8.57884
▁எனினும்	-8.58212
▁சதுர	-8.58317
ரியா	-8.58397
சே	-8.58495
ழு	-8.58834
▁விருது	-8.58947
▁அதில்	-8.58962
▁முறையில்	-8.5906
▁உருவாக்கப்பட்ட	-8.59216
▁வருகிறது	-8.59268
டே	-8.59588
ப்பட்டன	-8.5968
▁சேவை	-8.59769
▁ஊ	-8.59982
ெ	-8.60229
▁பெற்றது	-8.60244
▁சம	-8.60363
உ	-8.60429
▁25	-8.60505
▁நடந்த	-8.60549
ங்களையும்	-8.60563
▁மாத	-8.60666
தர	-8.60681
)"	-8.60998
▁கோவில்	-8.61381
▁ஊர்	-8.61388
வாக	-8.61389
▁வீர	-8.61479
▁கெ	-8.61682
▁ஆண்ட	-8.61693
ினை	-8.61701
en	-8.61739
▁மதுரை	-8.61915
I	-8.6193
▁பால	-8.61964
▁வழியாக	-8.62012
▁பெரும்பாலான	-8.62098
▁தொடர்பு	-8.62298
▁19	-8.62364
நா	-8.62418
▁இந்தப்	-8.62551
ஸ்ட்	-8.62687
▁சிகிச்சை	-8.62971
ுகிறார்	-8.63
▁போட்டியில்	-8.63114
▁கிலோ	-8.63136
ங்கா	-8.63247
ப்படுத்த	-8.63279
களுக்கான	-8.63457
▁குறிப்பாக	-8.63496
▁எனவும்	-8.63574
▁அக	-8.6364
களான	-8.63898
சாமி	-8.64158
ப்பட்டார்	-8.64408
▁நல்ல	-8.64433
▁மகா	-8.64616
▁செய்யும்	-8.64702
▁குறிப்பிடத்தக்க	-8.6475
on	-8.64784
ஷ	-8.64821
or	-8.64909
ப்படுகின்றது	-8.64993
▁பிறந்த	-8.65182
▁திருவிழாவாக	-8.65202
▁எழுத	-8.65299
▁இரண்டாவது	-8.65305
▁கருத்து	-8.65413
▁2008	-8.6553
G	-8.65603
பூ	-8.65617
▁இருக்க	-8.65671
▁ஏற்படும்	-8.6592
▁நிலையம்	-8.66108
சீ	-8.66143
▁அதிகமாக	-8.66174
▁செப்டம்பர்	-8.66204
▁மன	-8.66247
▁பிரதேச	-8.66256
பெ	-8.66334
▁வகையில்	-8.6643
ச்சு	-8.66444
ப்பை	-8.66473
▁"(	-8.66593
▁ஏற்பட்ட	-8.66746
▁உடல்	-8.66963
விற்கு	-8.67262
▁இங்கிலாந்து	-8.67328
▁பகுதிகளில்	-8.67368
▁காட்ட	-8.67439
▁இவ்வ	-8.67484
▁பயன்படுத்தி	-8.67559
▁அமைந்த	-8.67731
னிய	-8.67787
▁எதிர்	-8.67847
ளை	-8.68077
▁நாட்டு	-8.68081
▁விமான	-8.68117
▁மட்டும்	-8.68132
பர்	-8.68133
ing	-8.68136
▁பக்க	-8.68222
▁இலக்கிய	-8.68244
▁முக்கியமான	-8.683
▁தலைமை	-8.68489
▁ஆகியோர்	-8.68495
▁போட்டி	-8.6886
▁டா	-8.68864
ஜ்	-8.68927
த்திய	-8.69047
▁(19	-8.69096
▁கொண்டுள்ளார்	-8.69124
சிய	-8.69227
ங்களிலும்	-8.69237
▁நாடுகளில்	-8.69248
▁மில்லியன்	-8.69271
▁தலைவர்	-8.69305
▁புனித	-8.69421
▁தன்மை	-8.6943
ஸ	-8.6945
▁செல்லும்	-8.69461
கன்	-8.69683
▁இடத்தில்	-8.69839
▁பயிற்சி	-8.69907
▁வடக்கு	-8.69967
▁சட்டமன்ற	-8.69981
▁நிலைய	-8.70361
▁பதி	-8.7077
▁0	-8.70834
▁செய்யப்பட்ட	-8.70839
▁நகரம்	-8.70957
▁போன்றவை	-8.70961
▁ரோ	-8.71
▁நடைபெற்ற	-8.71003
▁தொலைக்காட்சி	-8.71066
▁வட்ட	-8.71182
த்திர	-8.71554
வன	-8.71647
g	-8.71675
▁தமிழ்த்	-8.71759
க்ஸ்	-8.71815
ப்பட்டுள்ளன	-8.71827
▁காணப்படுகிறது	-8.71844
▁பிரி	-8.72306
▁முழு	-8.7237
களைத்	-8.72572
▁பிரித்தானிய	-8.72731
▁பிறந்தார்	-8.72834
▁சொல்	-8.72845
வழி	-8.72949
▁எனக்	-8.73048
ோடு	-8.73214
ாகவும்	-8.73247
சர்	-8.73343
7	-8.73379
▁ஏப்ரல்	-8.73434
▁மத	-8.73447
▁ஆண்டின்	-8.73547
பே	-8.7366
தர்	-8.73824
▁பெற்று	-8.73831
le	-8.73832
▁கல	-8.74064
▁கூட்ட	-8.7414
▁வரலாற்று	-8.74194
க்கப்பட்ட	-8.74271
க்குப்	-8.74331
▁H	-8.74344
▁இறுதி	-8.7442
த்தைப்	-8.74588
▁மூலமாக	-8.74778
முக	-8.74931
▁அடுத்த	-8.74942
▁பழைய	-8.75233
ிக்	-8.75352
am	-8.75415
ங்களைக்	-8.75478
V	-8.75499
சின்	-8.75624
K	-8.75736
த்துறை	-8.75797
▁முயற்சி	-8.75822
ுகின்றது	-8.75876
▁வந்து	-8.75917
8	-8.75952
▁குடும்ப	-8.7641
▁21	-8.76419
▁G	-8.76504
▁ஸ்ரீ	-8.76687
▁ஒருவர்	-8.76783
▁அடிப்படை	-8.76828
ீ	-8.77065
▁விளையாட்டு	-8.77127
▁ஜெ	-8.7717
னும்	-8.77211
▁எல்லை	-8.77297
தில்	-8.77369
தல்	-8.77491
▁நூற்றாண்டில்	-8.77589
▁வந்தது	-8.77603
20	-8.77659
▁2009	-8.77743
▁திகதி	-8.77785
▁ஆராய்ச்சி	-8.7783
▁சின்ன	-8.77925
▁விட்டு	-8.77939
▁பாதுகாப்பு	-8.77993
ம்பு	-8.78034
வான	-8.78179
▁அல்	-8.7819
ிக்க	-8.78208
னுக்கு	-8.78208
▁லி	-8.78249
▁விதி	-8.78252
▁தாவர	-8.78279
பூர்	-8.78294
▁டை	-8.78428
▁தங்கள்	-8.78439
▁=	-8.78541
தோ	-8.78544
▁திரைப்படம்	-8.78572
▁எண்ண	-8.78755
▁சீன	-8.78758
▁நீ	-8.78795
▁வைத்து	-8.78795
▁D	-8.78857
க்கை	-8.78984
▁24	-8.79207
ஞ்சி	-8.79327
▁காணப்படுகின்றன	-8.79422
▁பை	-8.79478
▁அருகில்	-8.79505
த்தல்	-8.79523
▁சென்ற	-8.79648
ப்படி	-8.79951
▁தொழில்நுட்ப	-8.80206
▁2010	-8.80227
▁யூ	-8.80232
▁தமிழக	-8.80246
▁தாக்க	-8.80287
▁மறை	-8.80336
ரீ	-8.80408
ிடம்	-8.80504
▁நீண்ட	-8.80535
ிட	-8.8063
▁‘	-8.80789
▁பீ	-8.80895
▁அணு	-8.80989
▁போட்டிகளிலும்	-8.81041
▁அவருடைய	-8.81083
▁நிதி	-8.81083
▁இயற்கை	-8.81119
ுள்ளனர்	-8.81219
ப்போ	-8.81264
|	-8.81276
▁ட	-8.81286
ங்களாக	-8.81297
ும்போது	-8.81325
▁நிறுவன	-8.81339
▁22	-8.81358
யைத்	-8.81395
▁கொள்கை	-8.81525
வுக்கு	-8.81527
▁நோக்க	-8.81653
களுள்	-8.81669
▁பதிவு	-8.81681
சார்	-8.81747
ுகின்றனர்	-8.81767
▁செய்தார்	-8.81972
▁ஆண்	-8.82058
▁உள்ளிட்ட	-8.82224
ரம்	-8.82285
மொழி	-8.82341
▁2007	-8.8237
▁இணை	-8.82387
▁தங்க	-8.82388
▁யா	-8.82411
▁தமது	-8.82485
▁எல்லா	-8.82531
▁சூரிய	-8.82772
▁கணினி	-8.82828
▁செல்வ	-8.82834
▁பெயரில்	-8.82905
▁N	-8.8301
▁வழக்கு	-8.8304
▁அறிய	-8.83092
x	-8.83224
▁முறைப்படி	-8.83356
▁கருவி	-8.83387
▁பொருளாதார	-8.83787
▁பால்	-8.83823
▁ஒன்றாக	-8.83876
▁தேதி	-8.83994
யின	-8.84024
ாவின்	-8.84068
▁தடை	-8.84121
▁அவருக்கு	-8.84168
கள	-8.84281
வகை	-8.84294
▁சாலை	-8.84414
▁பெருமாள்	-8.84576
▁பிரிவு	-8.84661
▁இணைய	-8.84793
மலை	-8.84814
▁T	-8.84837
us	-8.84993
_	-8.85005
னு	-8.85145
▁முதன்மை	-8.85251
மீ	-8.85423
▁எந்தவொரு	-8.85556
பட	-8.85589
ைத்	-8.85597
▁எண்ணிக்கை	-8.85606
il	-8.85627
▁நோக்கி	-8.85652
ளா	-8.85665
▁F	-8.85689
▁குறிக்கும்	-8.85739
▁குறித்த	-8.8576
ஐ	-8.85939
தம்	-8.8601
தற்கு	-8.8628
▁தமிழ	-8.86359
ஃப்	-8.86535
▁நாடக	-8.86574
▁ஏரி	-8.86645
மாகவும்	-8.86691
▁பேர	-8.8674
▁புள்ளி	-8.86761
ed	-8.86926
▁வாழ்க்கை	-8.87076
பின்	-8.87088
▁நகரில்	-8.87108
▁மாநிலத்தில்	-8.8717
▁கோட்டை	-8.87298
▁நூற்றாண்டு	-8.87331
▁வரி	-8.87357
ic	-8.87435
▁தெற்கு	-8.8746
யார்	-8.87476
ழை	-8.87492
▁2006	-8.8751
▁உரிமை	-8.87533
▁அவரை	-8.87615
▁இவருக்கு	-8.87715
▁தொலைவில்	-8.87733
ra	-8.87885
▁அலை	-8.87953
]	-8.88143
▁தேவ	-8.88188
பட்ட	-8.88208
▁வாழ்ந்த	-8.88269
▁அதாவது	-8.88269
▁எரி	-8.88348
▁உறுப்பினர்	-8.88353
▁கருதப்படுகிறது	-8.88361
▁ஜா	-8.88617
▁மனைவி	-8.88758
வந்த	-8.88817
▁முழுவதும்	-8.88829
▁சோதனை	-8.88917
▁பெர்	-8.89117
▁இக்	-8.89134
▁டெ	-8.89139
▁மேற்பட்ட	-8.89188
▁ரி	-8.89323
▁சேர்ந்து	-8.89383
▁மகன்	-8.89614
வுடன்	-8.89635
▁23	-8.89734
▁இடங்களில்	-8.89777
▁இவ்வாறு	-8.89947
▁சராசரி	-8.90008
▁வீ	-8.90027
▁செயல்	-8.90127
▁ஆகியவற்றை	-8.90274
▁formula	-8.9036
▁மக்களின்	-8.90425
ிருந்தது	-8.90551
▁போட்டியிலும்	-8.90595
▁விழா	-8.90665
▁L	-8.90736
ாளர்	-8.90757
▁தவிர	-8.90881
▁நகர்	-8.9094
▁தள	-8.9099
▁வரலாறு	-8.91197
வான்	-8.91306
வெ	-8.91371
▁பதவி	-8.91478
ஹா	-8.91517
▁உறுப்பினராக	-8.91537
▁செலுத்த	-8.91548
▁சக்தி	-8.91597
▁கடைசியாக	-8.91656
▁குடி	-8.91722
at	-8.91812
▁ஏற்ற	-8.91854
▁தெ	-8.91889
▁நிர்வாக	-8.91901
▁குறித்து	-8.91908
▁மதிப்பு	-8.91993
▁நியூ	-8.92212
▁உலகின்	-8.92253
ினர்	-8.92312
▁திட்ட	-8.924
▁கூற	-8.92428
▁அமெரிக்கா	-8.9246
யாகவும்	-8.92482
▁R	-8.92485
▁நெ	-8.92494
▁வங்கி	-8.92801
▁முடிவு	-8.92816
▁வேண்டிய	-8.92915
ிருந்தார்	-8.92924
▁தீவு	-8.93204
▁ஆற்றல்	-8.93206
▁உரை	-8.93217
▁மார்ச்	-8.93269
▁மக	-8.9342
el	-8.93447
▁ஆசிரியர்	-8.93448
மெ	-8.9348
▁இடையே	-8.93713
ண்டா	-8.93817
ப்பகுதி	-8.93863
▁நிகழ்ச்சி	-8.93926
வீ	-8.93963
▁பார்	-8.94
▁இவர்கள்	-8.94018
▁வரிசை	-8.94129
▁நடத்த	-8.94204
ின்றன	-8.94272
▁எதிராக	-8.94304
▁அப்போது	-8.94519
▁ஜான்	-8.94581
பதி	-8.9467
▁அதனை	-8.95014
சூ	-8.95155
▁வை	-8.95186
▁வார	-8.95256
▁நடவடிக்கை	-8.95265
▁பழ	-8.95308
▁இந்தக்	-8.95325
ட்ஸ்	-8.9533
▁கண்	-8.95331
▁உருவ	-8.95405
▁அவற்றின்	-8.95675
▁தாய்	-8.95743
ற்ப	-8.95765
த்தார்	-8.95791
கொ	-8.95847
▁ஆண்டுகள்	-8.95849
ாய்	-8.95999
ிலுள்ள	-8.9607
▁மற்றொரு	-8.96269
▁நம்பிக்கை	-8.96394
▁அமில	-8.96445
▁the	-8.96459
▁மாநிலத்தின்	-8.96492
▁இத்திரைப்படத்த	-8.96628
▁சேர்த்து	-8.96718
ளவு	-8.96808
லும்	-8.96837
டின்	-8.97091
▁பங்குகொண்டார்	-8.97142
ஏ	-8.97293
▁செல்	-8.97362
▁சுற்றி	-8.974
▁வசதி	-8.9742
யாளர்	-8.97485
▁இராணுவ	-8.97528
ch	-8.97568
ாது	-8.97831
▁கூ	-8.97994
▁சூ	-8.98032
▁சபை	-8.98304
▁ஆரம்ப	-8.98345
▁இரத்த	-8.98398
▁திருமணம்	-8.98472
▁தம்	-8.98507
னியா	-8.98546
கல்	-8.98549
▁போல்	-8.98586
▁கிளை	-8.98646
▁பட்டம்	-8.98721
▁ஹா	-8.98786
▁பார்க்கப்பட்ட	-8.98905
▁உடன்	-8.98981
▁மொ	-8.98989
▁எழுத்தாளர்	-8.99013
▁நடைமுறை	-8.99271
▁1.	-8.99502
▁எழுத்து	-8.99537
ரெ	-8.9954
▁E	-8.99589
▁அரசின்	-8.99629
வால்	-8.99686
▁இலங்கையின்	-8.99753
▁உள்ளார்	-8.99949
ஜா	-9.00023
▁முன்னாள்	-9.00063
–	-9.00127
ிருக்கிறது	-9.00137
▁கரை	-9.0015
டிய	-9.00228
த்தைச்	-9.00229
ri	-9.00306
யைச்	-9.0032
▁நாடுகள்	-9.00321
▁2001	-9.00425
▁தே	-9.00464
கால	-9.00503
லெ	-9.00553
களே	-9.00584
கர	-9.00893
ரால்	-9.00934
▁இறப்பு	-9.00953
▁தொடக்க	-9.01056
▁எல்	-9.01105
▁செய்தி	-9.01105
மான்	-9.01118
ுக்கும்	-9.012
ரான	-9.01219
it	-9.01319
▁புகழ்	-9.01585
▁விலை	-9.0169
▁பருவ	-9.01738
ட்டோ	-9.01781
▁கள	-9.01968
9	-9.02051
▁தேர்தல்	-9.02474
ந்தா	-9.02492
னெ	-9.02649
▁நீக்க	-9.02802
ழ்	-9.02952
மணி	-9.02958
▁கால்	-9.02996
▁திரைப்படமாகும்	-9.0301
▁பார்க்க	-9.03113
▁2014	-9.03134
▁திருவிழா	-9.03189
▁ஐரோப்பிய	-9.03193
▁திட்டத்தின்	-9.03312
▁புது	-9.03312
யுள்ள	-9.03419
▁விற்பனை	-9.03432
▁தோற்ற	-9.03457
னம்	-9.03504
▁அதனால்	-9.0351
▁விளையாட்டுவீரர்	-9.03515
▁மொழியில்	-9.0353
னில்	-9.0356
லம்	-9.03584
நில	-9.03627
▁சிவன்	-9.0368
த்தினை	-9.0374
▁கொண்டார்	-9.03873
▁விபரக்குறிப்பு	-9.03881
பை	-9.0429
▁26	-9.04358
▁ஆடி	-9.0437
▁ஒத்த	-9.04386
▁ஆண்டுகளுக்கு	-9.04571
ad	-9.04941
re	-9.05096
▁கான்	-9.05212
▁வெள்ளை	-9.05224
ol	-9.05441
▁27	-9.05482
வல்	-9.05485
▁ராஜ	-9.05486
▁மாற	-9.05491
▁உலோக	-9.05552
ல்லா	-9.05612
▁தொடர்பான	-9.05657
யிட	-9.0566
▁வகையான	-9.05711
▁:	-9.05888
▁வந்தார்	-9.05951
▁கொள்ளவில்லை	-9.05955
▁இடம்பெற்ற	-9.05965
▁I	-9.05977
▁நடித்த	-9.06082
ொ	-9.0633
▁அவர்களின்	-9.06344
ைச்	-9.06434
▁இருப்பதால்	-9.06461
கின்றன	-9.06481
சியா	-9.06529
▁வைக்க	-9.06611
▁பிள்ளை	-9.06626
ுவதை	-9.06716
வாய்	-9.06727
க்கல்	-9.06814
▁விடுதலை	-9.06882
▁கண்ண	-9.06939
▁புவி	-9.06997
▁ஓட்ட	-9.07027
▁வாழும்	-9.07035
ுடைய	-9.0707
▁தயாரிக்க	-9.07089
▁அதிகமான	-9.07177
▁மன்னர்	-9.07238
▁தேர்வு	-9.07252
நி	-9.07263
▁நீர	-9.07301
▁சுவாமி	-9.07357
ன்ஸ்	-9.07413
▁சை	-9.07465
▁ஏழு	-9.07587
வராக	-9.07612
▁பேச	-9.07622
பீ	-9.07664
▁குறி	-9.0769
▁உட்	-9.07719
▁குறிக்க	-9.07767
▁மாதிரி	-9.07821
0	-9.07848
டெ	-9.07986
▁28	-9.08155
தும்	-9.08182
▁இப்	-9.08197
▁மண	-9.08207
களாகும்	-9.08212
ப்பட்டி	-9.08338
▁கீ	-9.08461
▁K	-9.08472
19	-9.08479
லீ	-9.08509
▁இல்லாத	-9.08514
▁வீரர்	-9.08536
▁நவீன	-9.08609
▁ல	-9.08618
▁p	-9.08697
▁பாரம்பரிய	-9.08919
▁தேர்தலில்	-9.08951
▁[	-9.09069
▁எனப்	-9.09129
as	-9.09148
▁வயது	-9.09231
?	-9.09404
மர	-9.09417
ிருக்க	-9.09449
க்குள்	-9.09451
ation	-9.09553
யினை	-9.09735
கொண்ட	-9.09811
▁டிசம்பர்	-9.09951
▁பன்னாட்டு	-9.10028
களிலிருந்து	-9.10171
▁உறுதி	-9.10214
▁மிகப்பெரிய	-9.10221
10	-9.10307
▁தஞ்சாவூர்	-9.10392
▁சனவரி	-9.10481
னாக	-9.10506
றிய	-9.10668
▁கிறித்தவ	-9.10712
▁2012	-9.10775
▁மை	-9.1081
ir	-9.10867
▁மாகாண	-9.10892
▁டே	-9.11003
▁அமைக்கப்பட்ட	-9.1106
▁அக்	-9.11172
50	-9.11201
▁நடு	-9.11203
சம்	-9.11429
▁ல்	-9.11445
ப்பர்	-9.11499
▁நாக	-9.11558
மார்	-9.1157
▁உடைய	-9.11581
▁குறை	-9.1163
▁கொண்டாட	-9.11642
▁நேரத்தில்	-9.11697
▁இயக்கத்தில்	-9.11818
▁கிரேக்க	-9.11867
▁வெப்பநிலை	-9.11888
▁வானூர்தி	-9.11935
▁பல்	-9.12217
▁இருந்தன	-9.12239
▁திறன்	-9.12299
ுக்கான	-9.12307
▁இடை	-9.12312
▁மூன்றாம்	-9.12336
▁சர்வதேச	-9.12337
▁அறிமுகப்படுத்த	-9.12364
▁2005	-9.124
▁வைத்த	-9.12425
▁ஆட்ட	-9.12427
▁இர	-9.12436
▁அடுத்து	-9.12452
▁மூ	-9.12643
தற்காக	-9.12667
▁பொதுவான	-9.12723
▁பெயர	-9.12776
▁நிறுத்த	-9.1281
▁முன்பு	-9.12836
▁100	-9.12967
ரன்	-9.12989
▁கட்டிட	-9.13097
கிரி	-9.13304
▁வெளியிட்ட	-9.13568
▁பரவலாக	-9.13634
▁ஹெ	-9.13724
விய	-9.13739
த்திற்கான	-9.13868
▁முன்னர்	-9.13911
▁இருக்கலாம்	-9.14027
▁மண்டல	-9.14057
▁நான்	-9.14097
▁1,	-9.14107
▁லெ	-9.14135
ாள	-9.14178
▁நூற்றாண்டின்	-9.14341
▁வாய்ந்த	-9.14448
▁மிகப்	-9.14453
▁இருக்கின்றன	-9.14474
▁உயர்ந்த	-9.14497
▁வள	-9.14584
ப்படவில்லை	-9.15005
▁வேதியியல்	-9.15062
▁பகுதிகள்	-9.15081
ுவதாக	-9.15139
▁உரு	-9.15179
▁மிகுந்த	-9.15337
!	-9.15354
▁தமிழர்	-9.15527
னூர்	-9.15531
களைச்	-9.15563
த்தூர்	-9.1559
▁ஒன்றை	-9.15602
மங்கலம்	-9.15613
▁வெளியிட	-9.15623
ட்டில்	-9.15649
▁சட்டம்	-9.1585
▁குறைவான	-9.15904
▁கணித	-9.1595
▁ஏற்படுத்த	-9.16025
▁எழுதி	-9.16043
▁உறுப்பு	-9.16076
▁இராம	-9.16183
விட்டு	-9.16298
▁அடை	-9.16524
ணு	-9.16853
▁தலைவராக	-9.16984
▁மட	-9.16984
ுவதற்காக	-9.17102
▁இவரின்	-9.17196
z	-9.1726
ாவில்	-9.17263
▁எதிரான	-9.17335
▁ஏற்பட	-9.17605
▁2004	-9.17619
▁கட்டுப்படுத்த	-9.17626
ுக்	-9.17632
es	-9.1766
▁மாவட்டத்தின்	-9.177
is	-9.17731
▁கொண்டிருக்கும்	-9.17798
▁மரபு	-9.178
▁தல	-9.1788
கார்	-9.18018
தாகக்	-9.18111
▁நடிகர்	-9.18133
▁2013	-9.18487
ரில்	-9.18506
▁தன்னுடைய	-9.18634
லூர்	-9.18673
▁கிமீ	-9.18713
▁பனி	-9.18883
▁இன்று	-9.18935
▁முனை	-9.19054
▁சொந்த	-9.19072
▁குல	-9.19081
ாட்சி	-9.19164
▁சர்	-9.19266
ப்பள்ளி	-9.19284
ப்படை	-9.19349
▁தொ	-9.19523
▁யு	-9.19553
▁2000	-9.19634
ுமாறு	-9.19662
கார	-9.19681
▁நேர்	-9.197
▁தத்துவ	-9.19801
▁அவற்றை	-9.19805
▁அமைக்க	-9.19876
ா்	-9.19923
▁அமைப்ப	-9.19978
▁பயன்பாடு	-9.20013
▁வருட	-9.20068
▁ஜே	-9.20096
மின்	-9.20148
▁பர	-9.20173
▁பாடல்கள்	-9.20181
▁பார்வை	-9.20188
ாள்	-9.20221
▁இறந்த	-9.20238
▁சோழ	-9.20383
▁நாட்டில்	-9.20393
▁29	-9.20403
▁டோ	-9.20503
▁இயந்திர	-9.20514
▁50	-9.20587
ம்பி	-9.20644
▁இறுதியில்	-9.20854
▁இத்தகைய	-9.20916
த்துவ	-9.20949
▁வர்த்தக	-9.21027
▁தொகுப்பு	-9.21038
▁சண்டை	-9.2106
த்தைத்	-9.21109
▁சிங்	-9.21493
க்கம்	-9.21494
லுக்கு	-9.21595
▁அறிக்கை	-9.21687
லர்	-9.21693
▁தமிழில்	-9.21695
th	-9.21877
▁உட்பட	-9.21887
▁கருத	-9.22
சல்	-9.22014
▁சுந்தர	-9.22062
▁அத்துடன்	-9.22068
▁ரெ	-9.22108
▁கரிம	-9.2215
டம்	-9.22259
பட்டி	-9.22332
▁அல்ல	-9.22578
▁அமெரிக்காவில்	-9.2258
▁பூங்கா	-9.22643
ண்ண	-9.22666
▁பகுதியாக	-9.22726
▁பொருட்கள்	-9.22734
▁கட்டி	-9.22742
▁நாடாளுமன்ற	-9.22835
▁விசை	-9.22953
▁திருத்தந்தை	-9.22994
▁முதலாம்	-9.23049
ங்கோ	-9.23051
30	-9.23058
ங்களைப்	-9.23061
த்தான்	-9.23102
▁கொடுக்க	-9.23421
▁காந்தி	-9.23507
▁உள்	-9.23517
ப்பின்	-9.23533
▁W	-9.23557
▁பணியாற்றினார்	-9.23595
▁மாறி	-9.23696
களிடம்	-9.23815
U	-9.23838
▁2016	-9.23894
▁வாய்ப்பு	-9.23975
▁சொ	-9.24035
▁தேவையான	-9.24051
ித்த	-9.24159
த்தன்மை	-9.24352
0,000	-9.24457
▁அழைக்கப்படும்	-9.24459
▁குண	-9.24501
பார்	-9.2455
-19	-9.24561
▁ஆக்கைவ	-9.24561
▁எட்டு	-9.24577
et	-9.24595
▁அச்ச	-9.24602
ிறார்	-9.2472
பிறப்பு	-9.24723
▁வழக்க	-9.24756
ிருக்கிறார்	-9.24789
ந்தை	-9.24889
▁தன்னை	-9.25027
▁அணை	-9.25155
ணா	-9.25192
ிலேயே	-9.25212
▁புல	-9.25242
ணம்	-9.25252
▁குள	-9.25267
எஸ்	-9.25286
▁அழுத்த	-9.25312
▁இதுவே	-9.25313
▁எடுத்து	-9.254
▁சுதந்திர	-9.25436
▁நெல்	-9.2547
▁புகழ்பெற்ற	-9.25503
▁அறை	-9.25616
▁கட்டப்பட்ட	-9.257
களுக்காக	-9.25707
மாகக்	-9.25721
▁பறவை	-9.25772
▁ஆக்க	-9.25794
▁கண்டுபிடிக்க	-9.25955
▁சந்தை	-9.26009
▁மார்	-9.26056
▁மழை	-9.26074
▁கோட்ட	-9.26112
லிய	-9.26237
▁மேல	-9.2632
மர்	-9.26512
▁கீழே	-9.26549
டல்	-9.26566
▁அதிகம்	-9.26581
▁இடையில்	-9.26583
▁மக்கள்தொகை	-9.26645
தீ	-9.26707
▁வருகிறார்	-9.2671
▁பத்து	-9.26777
▁s	-9.26862
▁போக்குவரத்து	-9.26921
புர	-9.26955
▁வெவ்வேறு	-9.27187
▁மேற்	-9.27244
▁இந்தத்	-9.27339
▁இயேசு	-9.27474
▁காரணம்	-9.27518
▁தொகுதியில்	-9.27539
▁சேர	-9.27553
▁ஹோ	-9.27585
▁சூலை	-9.27664
▁கல்லூரியில்	-9.27913
அழைக்கப்படுகிறது	-9.27962
▁பிப்ரவரி	-9.27991
▁ஆல்	-9.28053
▁ராம	-9.28059
▁கவிதை	-9.28132
▁ஆஃப்	-9.28253
▁புத்த	-9.28323
▁சரி	-9.28337
▁மீன்	-9.28356
▁வாழ்	-9.2842
பால்	-9.28452
▁நெடுஞ்சாலை	-9.28512
▁திரும்ப	-9.28528
▁செய்யப்பட்டது	-9.28618
ுவதால்	-9.28683
▁பங்க	-9.28775
▁இரண்ட	-9.28967
▁கட்டுரை	-9.28986
▁விட்ட	-9.29084
▁மாரியம்மன்	-9.29089
▁எடை	-9.29095
தான	-9.29206
▁முன்ன	-9.29403
▁40	-9.29434
▁கூட்டு	-9.29486
▁தோட்ட	-9.29503
um	-9.2951
▁ஷா	-9.29585
▁அவன்	-9.29608
▁தொடருந்து	-9.2962
▁என்பன	-9.29667
▁அரி	-9.29746
ரூ	-9.29795
▁c	-9.29873
▁ஆவது	-9.29933
▁மருந்து	-9.30048
▁கண	-9.30152
▁வங்காள	-9.30184
ந்தர்	-9.30193
▁பாக	-9.30346
▁and	-9.30408
த்தோ	-9.30419
▁எழுதப்பட்ட	-9.30585
▁V	-9.30587
▁கீழ	-9.30633
15	-9.30674
▁பயன்படுகிறது	-9.30709
சன	-9.30716
▁பாதை	-9.30782
ai	-9.30855
▁ஆதி	-9.30927
00	-9.30933
▁சூன்	-9.30935
முனை	-9.31144
ட்டின்	-9.3127
▁நிறுவனத்தின்	-9.31451
ுவதற்கான	-9.31474
ுகின்ற	-9.31491
▁பர்	-9.31534
▁நடித்தார்	-9.31634
▁தூ	-9.31658
▁கூறினார்	-9.31704
▁பண்டைய	-9.31753
▁பாத்திர	-9.31791
▁பொருட்	-9.31843
▁காற்று	-9.31913
▁அவ்வ	-9.31931
வார்	-9.31995
li	-9.32008
▁திருமண	-9.32063
படுத்த	-9.32102
ரான்	-9.32118
▁பின்ன	-9.32154
▁ஊடக	-9.32237
▁இதழ்	-9.32241
000	-9.32259
▁பரிசு	-9.32301
▁கல்	-9.32665
ிகள்	-9.32678
▁எதிர்ப்பு	-9.3272
▁நேரம்	-9.32764
வேண்டும்	-9.32909
▁வலி	-9.33014
▁ஃபி	-9.33027
ட்டர்	-9.33057
யிலுள்ள	-9.33098
▁முன்னணி	-9.33138
பாளையம்	-9.33144
கெ	-9.33181
▁கண்டு	-9.33215
த்திற்கும்	-9.33237
▁குறு	-9.3325
ul	-9.33252
▁செயல	-9.33253
ஒ	-9.33325
▁விலங்கு	-9.33344
▁பண	-9.33358
▁வருகின்றன	-9.33437
▁ஜோ	-9.33441
ந்திர	-9.3345
ங்களுடன்	-9.33513
▁போன்று	-9.33567
▁1990	-9.33685
▁பத்திரிகை	-9.33745
▁இன்னும்	-9.3378
▁கோல்	-9.33831
▁31	-9.3385
டீ	-9.33858
▁அரை	-9.33877
ங்கை	-9.33953
▁கனிம	-9.34
▁நூல்கள்	-9.34007
▁ஆனது	-9.34022
▁மூன்றாவது	-9.34088
▁செயல்முறை	-9.34128
▁காட்டு	-9.34148
▁முடி	-9.34199
▁பெயரை	-9.34253
▁விநாயகர்	-9.34271
ஷா	-9.34327
▁கடந்த	-9.34382
▁ரே	-9.34456
▁in	-9.34481
▁கோட்பாடு	-9.34504
▁முந்தைய	-9.34504
▁அடர்த்தி	-9.34609
ம்பட்டி	-9.34661
▁நீள	-9.3474
▁கிராமம்	-9.34761
ரண	-9.34875
மற்ற	-9.34986
=	-9.35139
▁உட்பட்ட	-9.35161
யியல்	-9.35207
▁உயர	-9.35258
▁வெளியான	-9.35295
▁தற்போதைய	-9.35338
▁யாழ்ப்பாண	-9.3541
▁வயதில்	-9.35419
▁ஞான	-9.35431
ப்பில்	-9.35495
▁திருவண்ணாமலை	-9.3551
▁ஜனவரி	-9.35553
ட்ச	-9.35631
சுவாமி	-9.35636
ையில்	-9.35769
மிக்க	-9.35796
▁தகுதி	-9.35891
க்கொண்டு	-9.3595
▁இந்தியத்	-9.35971
▁விருப்ப	-9.35973
▁அர	-9.36094
▁பின்பு	-9.36105
▁சிறப்பாக	-9.36127
▁தொடர்புடைய	-9.36183
▁அளிக்க	-9.36248
▁ஆவர்	-9.36257
த்தே	-9.36334
▁பௌத்த	-9.36387
W	-9.36456
▁குறியீடு	-9.36488
கல	-9.36518
▁m	-9.36664
▁கார	-9.36741
▁பல்கலைக்கழகம்	-9.36874
▁இரா	-9.36882
▁ஆப்	-9.36936
ஸி	-9.3698
முடி	-9.37008
▁ஒற்றை	-9.3701
▁நிறுவனங்கள்	-9.37172
▁அடங்கும்	-9.37174
▁அவ	-9.37206
▁நம்ப	-9.37275
ின்றது	-9.37403
த்திற்காக	-9.37414
▁மண்	-9.37579
▁நீல	-9.37585
வெளி	-9.376
▁தரவு	-9.37628
▁உலகப்	-9.37688
▁பொழுது	-9.37769
ைய	-9.37783
▁வெள்ள	-9.37797
ப்பொருள்	-9.37801
த்துக்	-9.37843
▁அனுப்ப	-9.37885
▁தை	-9.37899
▁வாங்க	-9.37914
வாத	-9.37949
▁ய	-9.37988
ாளி	-9.37992
▁இதய	-9.37997
▁சந்திர	-9.38038
▁போராட்ட	-9.38044
▁பயண	-9.38056
பர	-9.38087
▁கதிர்	-9.38206
ப்படாத	-9.38208
ச்சா	-9.38258
ேன்	-9.38429
▁சன்னதி	-9.38437
▁பொருத்த	-9.38521
▁விளம்பர	-9.38546
யற்ற	-9.38576
▁அதிகார	-9.38757
▁துவக்க	-9.38776
டிக்	-9.38844
▁வேத	-9.38851
▁நாடுகளின்	-9.38958
▁மிக்க	-9.38971
▁சுற்று	-9.39026
ார்கள்	-9.39064
▁பொருள	-9.39117
▁விகிதம்	-9.39192
▁முதன்	-9.39235
▁தாக்குதல்	-9.39246
▁சுற்றுலா	-9.39247
▁வான்	-9.39257
▁வாகன	-9.3928
▁வருவாய்	-9.39315
▁இரட்டை	-9.39448
▁ஆகவும்	-9.39474
16	-9.39481
மிய	-9.39487
▁தொடங்கி	-9.39491
▁தூண்ட	-9.39497
▁கடற்கரை	-9.39579
▁சாதாரண	-9.39636
▁கத்தோலிக்க	-9.39638
▁இம்	-9.39663
▁புலவர்	-9.39785
▁திசை	-9.3983
▁கர	-9.3992
வினை	-9.39959
▁இவரை	-9.40011
▁மாற்றம்	-9.40018
றா	-9.4004
க்களை	-9.40127
▁ஒப்பந்த	-9.4015
▁ஆகியவற்றின்	-9.40171
▁கட்சியின்	-9.40201
▁விண்மீன்	-9.40388
▁நிறுவ	-9.40403
▁கிடைக்கும்	-9.4047
▁திரைப்படத்தில்	-9.40565
▁தெய்வ	-9.40569
▁ஒன்றிய	-9.40697
யூர்	-9.40734
▁முதலாவது	-9.40744
▁இப்போது	-9.4076
▁கல்வெட்டு	-9.40841
▁கடைசி	-9.40893
ட்சி	-9.40928
க்கே	-9.4093
▁மூலக்கூறு	-9.40971
▁மேம்படுத்த	-9.41159
▁அருகே	-9.41167
▁வெளிப்படுத்த	-9.41207
னல்	-9.41226
ஃ	-9.413
ஷி	-9.41309
கூ	-9.41329
க்கிய	-9.41333
▁மாற்றி	-9.41415
▁1980	-9.41472
▁உடை	-9.41538
▁திரை	-9.41551
ரச	-9.41641
▁தொடர	-9.41651
▁விதை	-9.4172
கின்றது	-9.41771
பால	-9.41786
▁ஒருநாள்	-9.4179
▁கழக	-9.41799
▁குற்ற	-9.41802
▁வண்ண	-9.41822
யினால்	-9.41922
ௌ	-9.41965
▁கொடி	-9.42027
▁நை	-9.42127
ல்லி	-9.42206
un	-9.42227
▁இலங்கையில்	-9.42243
▁கொடுத்த	-9.42299
la	-9.42304
▁என்றால்	-9.42417
▁நடிகை	-9.42457
▁திருநெல்வேலி	-9.42534
▁தின	-9.42561
▁பாறை	-9.42574
▁கல்வியறிவு	-9.42579
▁O	-9.42654
கண்ட	-9.42657
▁கிலோமீட்டர்	-9.42677
▁நுட்ப	-9.42753
▁புத்தக	-9.42756
▁கன	-9.43008
யிலேயே	-9.43082
▁இருந்தாலும்	-9.43097
▁தொடங்கியது	-9.4315
▁சிலை	-9.43164
▁அனுமதி	-9.43253
ஸ்ட	-9.43313
▁ஏற்ப	-9.43321
▁லே	-9.43378
▁இல்லாமல்	-9.4338
▁மெய்	-9.4339
▁காஞ்சிபுரம்	-9.43403
and	-9.43456
பிர	-9.43481
▁வான	-9.43489
▁பிரெஞ்சு	-9.43527
▁இளம்	-9.43573
▁நல	-9.43573
▁போரில்	-9.43604
▁படம்	-9.43649
ர்களின்	-9.43657
▁இணைந்த	-9.43728
க்குச்	-9.4375
த்தது	-9.43768
▁அமெரிக்காவின்	-9.43787
▁பதிப்பு	-9.43809
▁திட்டம்	-9.43879
▁உறவு	-9.43909
ித்து	-9.44102
▁விளைவாக	-9.44126
▁மாணவர்	-9.4414
▁உண்மை	-9.44144
ுவர்	-9.44145
▁பஞ்ச	-9.44177
மைய	-9.44284
▁மாற்று	-9.44313
வதற்கு	-9.44459
ஸின்	-9.44465
▁வில்	-9.44485
கில்	-9.44504
▁2003	-9.4467
▁இவருடைய	-9.44681
▁ஆகியன	-9.44799
தில்லை	-9.44831
▁J	-9.44918
▁வழங்கி	-9.4501
▁உள்ளூர்	-9.45061
▁அளவை	-9.45071
▁கூறி	-9.45093
▁ஜூன்	-9.4513
▁என்பதால்	-9.45218
▁தயாரிப்பு	-9.45225
▁தொடங்கினார்	-9.45253
▁வெள்ளி	-9.45254
▁இல்ல	-9.4532
▁ஏனெனில்	-9.4533
v	-9.45352
▁ஏறத்தாழ	-9.45469
▁அயனி	-9.45489
க்குத்	-9.45506
▁மேற்கொள்ள	-9.45529
▁அரங்க	-9.45539
▁சைவ	-9.45582
j	-9.4566
▁விரும்ப	-9.45716
▁அலகு	-9.45719
▁நதி	-9.45813
▁என்ன	-9.45936
முள்ள	-9.4594
ுகிறார்கள்	-9.4598
▁அரு	-9.45985
▁ஆகத்து	-9.46035
▁அறிவு	-9.46133
▁கொண்டிருந்த	-9.46151
ஸ்டர்	-9.46319
திரு	-9.46352
▁வழங்கப்பட்டது	-9.46369
▁இக்க	-9.46428
கான்	-9.46519
▁குதிரை	-9.46523
▁படைகள்	-9.46547
w	-9.46559
▁உப்பு	-9.46591
▁பின்வருமாறு	-9.46592
▁பகுதியை	-9.46617
புரி	-9.46655
▁வெளியிடப்பட்டது	-9.4669
▁பலர்	-9.4683
வல	-9.46952
ப்பதற்கு	-9.47002
▁நன்கு	-9.47046
▁தொலை	-9.47052
▁கிரி	-9.47053
▁அவர்களது	-9.47065
▁காய	-9.47116
ia	-9.47117
▁இருவரும்	-9.4712
▁வல்ல	-9.47132
▁இதே	-9.47263
விலும்	-9.47277
எடுத்துக்காட்டாக	-9.47313
ஃபி	-9.47404
மம்	-9.47415
ன்ன	-9.47452
▁வகுப்பு	-9.47475
ent	-9.47489
ூட்ட	-9.47525
▁அரசாங்க	-9.4755
▁அமையும்	-9.47567
▁நினைவு	-9.47593
▁கட்டு	-9.47631
▁அமைதி	-9.47634
ளு	-9.47639
▁பதிலாக	-9.4769
▁லீ	-9.47809
▁சுழற்சி	-9.47836
40	-9.47838
▁கடை	-9.4784
ந்	-9.47841
▁சேர்க்க	-9.47882
▁பிரபலமான	-9.47911
▁விளையாட	-9.48041
சில்	-9.4822
▁பேரரசு	-9.48238
▁அங்க	-9.483
▁மேலாண்மை	-9.48352
ிருக்கலாம்	-9.48374
▁நாட்கள்	-9.48404
▁இலை	-9.48411
▁சமுதாய	-9.48445
▁b	-9.48453
80	-9.48521
▁தோன்றிய	-9.48535
▁திரி	-9.48593
▁மாலை	-9.48594
குடி	-9.48688
14	-9.48756
▁முத்து	-9.48779
▁இவற்றின்	-9.48807
லாக	-9.48834
ப்பான	-9.48925
▁ஏனைய	-9.4898
நாத	-9.48989
▁கிடைத்த	-9.48993
▁திராவிட	-9.49024
▁பேருந்து	-9.49312
▁யானை	-9.49321
வற்ற	-9.49507
ஹ்	-9.49543
ங்கள	-9.49606
▁சொற்	-9.4961
▁ஜூலை	-9.49632
▁அழி	-9.4981
▁எழு	-9.49834
▁தனிம	-9.49873
ter	-9.49947
▁வார்த்தை	-9.49948
▁2002	-9.49954
▁மது	-9.49959
ரசு	-9.49985
ரங்க	-9.50003
▁நீளம்	-9.50206
▁அடைந்த	-9.50212
▁மனிதர்	-9.50223
▁காம	-9.50226
த்தன	-9.50317
▁குழந்தைகள்	-9.5032
க்கப்பட்டது	-9.50411
▁அறியப்பட்ட	-9.50424
ஓ	-9.50529
▁பாதிக்கப்பட்ட	-9.5057
ம்பா	-9.50604
▁தனிப்பட்ட	-9.50615
▁கிராமக்	-9.50649
ஹி	-9.50672
▁விகித	-9.50758
om	-9.50764
▁பலரும்	-9.50766
▁படுத்த	-9.50793
▁தேர்	-9.5081
▁வில்லியம்	-9.50836
வள	-9.50862
▁பரி	-9.50969
▁வானொலி	-9.50974
தோடு	-9.51029
60	-9.51101
▁நேரடியாக	-9.51128
▁முறையாக	-9.51265
▁ஆன	-9.51273
▁வன	-9.51324
த்தக்க	-9.51338
தலை	-9.51458
▁ஈர	-9.51544
▁பிரதான	-9.51654
▁இவற்றை	-9.51686
▁திரவ	-9.51728
▁நடைபெறும்	-9.51742
▁கோண	-9.51761
id	-9.51797
▁பிரா	-9.51811
▁பயிர்	-9.51813
▁ஆலய	-9.51896
▁பயன்	-9.51909
ன்று	-9.52072
▁ரூ	-9.52131
▁ஆக்	-9.52204
▁திறமை	-9.52255
▁இப்ப	-9.52299
▁உலகில்	-9.52303
▁+	-9.52308
ுக்காக	-9.52322
▁எடுக்க	-9.52326
▁நிகழ்வு	-9.52347
▁புரத	-9.5236
▁வட்டம்	-9.52379
▁வளர்ந்த	-9.52401
▁கழகம்	-9.52555
ப்படுவது	-9.52609
ார	-9.52635
ுவதன்	-9.52638
பொ	-9.52682
▁பென்	-9.52689
▁குறைவாக	-9.52701
▁பார்த்த	-9.52794
▁இச்ச	-9.52796
▁தேச	-9.52798
▁பொறியியல்	-9.52835
▁பின்பற்ற	-9.52848
▁எடுத்துக்	-9.53055
▁செய்தது	-9.53065
12	-9.53074
▁வீட்டு	-9.53088
▁நாம்	-9.5309
▁பொருட்களை	-9.53171
ேட்டு	-9.53265
ுவதில்	-9.53309
▁கொலை	-9.53367
ியா	-9.53398
▁சார்	-9.53414
▁பன்னாட்டுத்	-9.53552
▁உச்ச	-9.53564
▁அதி	-9.53596
▁குட	-9.53613
▁இள	-9.53633
ro	-9.53698
▁வேறுபட்ட	-9.5373
▁ஆயுத	-9.53777
விலிருந்து	-9.53799
▁ஆசிய	-9.53832
▁ஓவிய	-9.53854
▁ஆல	-9.53893
ளம்	-9.53905
▁காணலாம்	-9.53953
▁சென்	-9.54043
ணர்	-9.54114
▁திசம்பர்	-9.54117
▁தெலுங்கு	-9.54175
களாகவும்	-9.54263
எம்	-9.54455
பகுப்பு	-9.54482
▁பச்சை	-9.54517
▁கப்பல்	-9.54546
பாடு	-9.54577
▁ஓர	-9.54589
▁இரவு	-9.54649
▁ஏற்பட்டது	-9.54667
களாலும்	-9.54673
18	-9.54675
▁வடிவம்	-9.54743
▁நேபாள	-9.54782
முடைய	-9.54811
▁வால்	-9.54812
▁கர்	-9.54871
▁பயன்படும்	-9.54905
▁சிங்க	-9.55009
▁எடுத்த	-9.55013
▁வழிமுறை	-9.55086
யல்	-9.55101
▁இணைப்பு	-9.55113
▁இருப்பது	-9.55171
▁யூத	-9.55213
▁தேவி	-9.55239
▁துணி	-9.55366
▁மக்களுக்கு	-9.55421
▁புரட்சி	-9.55443
▁பின்வரும்	-9.55454
▁படத்தில்	-9.55486
க்கொண்ட	-9.55496
▁அமைந்துள்ளன	-9.55529
▁ஜெய	-9.55541
▁வேதி	-9.55564
▁தட	-9.55592
▁வல	-9.55598
▁கடவுள்	-9.55611
▁செயற்கை	-9.55613
லன்	-9.55625
வற்றை	-9.55635
▁இருந்தால்	-9.55639
ப்பூ	-9.55738
ாண்டு	-9.55757
▁பரவ	-9.55941
▁1970	-9.55942
ெழு	-9.55948
▁வெளியே	-9.55989
▁60	-9.5622
ராஜ	-9.56318
▁சார்பு	-9.56346
யெ	-9.56351
▁கேரள	-9.56431
வையாக	-9.56447
▁ஹி	-9.56458
▁இங்குள்ள	-9.56554
▁வலை	-9.56575
▁சிலர்	-9.56674
▁திருச்சபை	-9.56682
நூல்	-9.56701
போர்	-9.56705
▁விஜய	-9.56716
▁அனுபவ	-9.56801
▁/	-9.56822
▁பிரச்சினை	-9.56835
▁போன்றவற்றை	-9.56857
25	-9.56924
▁அமைந்தது	-9.5694
▁குறிப்ப	-9.56952
த்தினால்	-9.56982
ராய	-9.56991
நாடு	-9.57041
▁வழங்கும்	-9.5709
▁ஆன்	-9.57124
▁ஆட	-9.57135
ிற்காக	-9.57165
▁உர	-9.57175
▁சிறை	-9.57246
ாா்	-9.57261
▁கிருஷ்ண	-9.57298
▁ஷ	-9.57369
▁நிறைவேற்ற	-9.5737
▁வென்ற	-9.57454
▁அடிப்படையாகக்	-9.57507
▁கட்டமைப்பு	-9.57591
▁எண்ணெய்	-9.57707
▁முதலிய	-9.57748
வடிவ	-9.57759
ற்க	-9.57765
▁சாதனை	-9.57788
ிடமிருந்து	-9.57829
▁துறையில்	-9.57843
▁கலாச்சார	-9.57946
▁வீடு	-9.57963
பெர்	-9.57994
▁பொறி	-9.58046
▁முடியாது	-9.58101
▁செயல்பட	-9.58127
ிற்கான	-9.58128
ரிக்	-9.58207
▁முறைமை	-9.58307
▁சிவகங்கை	-9.58315
▁ரயில்	-9.58323
70	-9.58342
▁என்றாலும்	-9.58344
ஜெ	-9.58381
▁வாயு	-9.58406
J	-9.58413
▁நடித்துள்ளார்	-9.58463
▁அச்சு	-9.58541
▁பிடித்த	-9.58658
13	-9.58681
▁லோ	-9.58705
▁பிரம்ம	-9.58718
▁ஏற்க	-9.58723
ag	-9.58758
▁முட்டை	-9.58841
ப்பணி	-9.58884
▁விண்வெளி	-9.58901
▁இவ்	-9.58963
கின்	-9.58977
▁அரசியல்வாதி	-9.58993
▁நிறைந்த	-9.59007
▁நே	-9.59015
யோடு	-9.59029
▁ஆகியவற்றில்	-9.59053
▁வகைப்படுத்த	-9.59114
கொள்ள	-9.59121
▁1960	-9.59185
திய	-9.59292
▁வளைய	-9.59331
▁நிகழ்ந்த	-9.5937
▁கேள்வி	-9.59433
▁அவர்களுக்கு	-9.59468
▁ஆவண	-9.59525
▁சீனா	-9.5959
நல்லூர்	-9.59624
▁கூறப்படுகிறது	-9.59657
▁குருதி	-9.59691
ion	-9.59739
▁போலவே	-9.59741
▁பயணி	-9.59746
+	-9.59753
▁சமயம்	-9.59776
▁நிலையை	-9.59784
மதி	-9.59878
▁கட	-9.59912
▁நாள	-9.59963
க்கரை	-9.60015
ண்டர்	-9.60109
▁உருவாக்கிய	-9.60116
ate	-9.60128
▁சாதி	-9.60171
▁அனு	-9.60224
பெரு	-9.60226
▁தில்லி	-9.60271
▁புதின	-9.60471
▁அடையாள	-9.60477
ay	-9.60484
▁மஞ்சள்	-9.60532
▁சேர்	-9.60534
நேர	-9.60549
பன்	-9.6055
▁()	-9.60555
▁நாட்ட	-9.606
நகர	-9.60661
▁பிரதி	-9.60668
வதி	-9.60682
­	-9.60725
▁கலவை	-9.60789
▁சென்றார்	-9.60846
▁என்கிற	-9.60857
▁கைப்பற்ற	-9.60874
மாற்ற	-9.60883
▁கம்ப	-9.60898
▁அளித்த	-9.60975
▁காதல்	-9.61076
▁டொ	-9.61101
▁சூழ்நிலை	-9.61106
▁அண்ட	-9.61142
▁பெற்றவர்	-9.61171
தற்கான	-9.61213
▁வெளியேற்ற	-9.61259
▁நட்சத்திர	-9.61323
▁எழுதியுள்ளார்	-9.6141
▁இருப்பதாக	-9.6146
▁வெளியிடப்பட்ட	-9.61517
▁பாடிய	-9.61562
▁திருத்த	-9.61599
பிரி	-9.61616
▁அதிகாரி	-9.61636
11	-9.61663
▁கொல்ல	-9.61682
▁ஆகஸ்ட்	-9.61756
▁காரண	-9.61757
▁பிரிக்க	-9.619
▁அறிந்த	-9.61901
ப்பெற்ற	-9.62002
ha	-9.62031
▁புதுக்கோட்டை	-9.62044
னிக்	-9.62049
▁சேலம்	-9.62086
▁டீ	-9.6209
▁அமிலம்	-9.62159
▁உள்ளடக்கிய	-9.62214
▁பகுதிகளை	-9.62219
▁ஒலிம்பிக்	-9.62335
▁ஆற்றின்	-9.62354
ல்ல	-9.62409
▁முக்கியத்துவம்	-9.62426
▁நிகழ்	-9.62549
யாக்க	-9.62556
▁பாய்	-9.62651
▁அடுக்கு	-9.62686
▁இருந்தனர்	-9.62697
▁பத	-9.6277
▁ஆதார	-9.62775
▁இந்	-9.6279
▁இல	-9.62836
▁நகைச்சுவை	-9.62862
▁திறந்த	-9.62869
▁குறிப்பு	-9.62903
மூ	-9.62915
▁அன்	-9.62923
ப்பூர்	-9.63
▁எலும்பு	-9.63056
ஞ்	-9.63119
▁என்பவரால்	-9.6313
▁கடத்த	-9.63228
▁எழுதினார்	-9.6328
பகுதி	-9.63343
▁லூ	-9.63409
ig	-9.63504
▁எடுத்துக்காட்டு	-9.63523
▁மலர்	-9.63545
▁பிரபல	-9.6356
ிருப்ப	-9.63582
▁ஆய	-9.63586
▁தனியார்	-9.63586
யினர்	-9.6363
▁பயணம்	-9.6364
▁இயக்கம்	-9.63657
வித	-9.63756
▁குறைக்க	-9.63785
▁கிட்டத்தட்ட	-9.63808
ையா	-9.63818
▁கடல	-9.63867
▁மூலக்கூற்று	-9.6392
▁அமைப்பை	-9.63966
▁பல்ல	-9.64215
▁வாழ	-9.64344
▁a	-9.64384
▁கொண்டுள்ளன	-9.6442
கலை	-9.64466
▁இந்நகர	-9.64496
ப்படலாம்	-9.64572
▁திரைப்படங்களில்	-9.6458
▁இறை	-9.64614
▁செயல்படுத்த	-9.6468
-1	-9.64685
▁f	-9.64736
▁அல	-9.64738
st	-9.64753
▁நாணய	-9.64759
▁அரண்மனை	-9.64764
▁கார்பன்	-9.64857
▁பெறும்	-9.64901
ேற்ற	-9.64921
▁செய்	-9.64926
▁இராச	-9.64943
im	-9.64973
▁பாடசாலை	-9.65061
▁நகராட்சி	-9.65091
▁நடத்திய	-9.65109
▁கிரிக்கட்	-9.65145
▁அனைத்தும்	-9.65149
த்திலேயே	-9.65158
ினாலும்	-9.65163
▁மூத்த	-9.65213
என்	-9.65256
▁பரிமாற்ற	-9.65373
▁முனைவர்	-9.65379
▁சோவியத்	-9.65396
▁முடியாத	-9.65428
▁கோடி	-9.65479
க்கொள்ள	-9.65505
க்குரிய	-9.65514
▁வம்ச	-9.65526
லால்	-9.6564
▁மைல்	-9.65685
▁பய	-9.65698
▁இப்பகுதி	-9.65728
▁மாதத்தில்	-9.65736
▁கூறிய	-9.65766
▁பாதுகாக்க	-9.65773
▁அந்	-9.6578
▁சரியான	-9.65841
▁குறிக்கிறது	-9.65889
▁சிற்ப	-9.65896
▁வடிவில்	-9.65998
யாகக்	-9.66135
▁சிங்கள	-9.66154
▁வாழ்ந்து	-9.66193
▁தற்கால	-9.66218
▁வாய்	-9.6631
த்திலுள்ள	-9.66336
▁மரண	-9.66402
க்குடி	-9.66409
▁நீதி	-9.66461
ப்பகுதியில்	-9.66489
▁புலி	-9.66508
▁புராண	-9.66525
▁பரப்பளவு	-9.66588
▁மும்பை	-9.66616
▁படைப்பு	-9.66675
▁தூத்துக்குடி	-9.66701
ma	-9.66757
▁ஒன்ற	-9.66763
te	-9.66774
▁கொள்ளும்	-9.66811
யம்மன்	-9.66836
▁2017	-9.66843
களுக்குப்	-9.66896
▁ஈடுபட	-9.66904
01	-9.66921
▁யோ	-9.66979
▁இசு	-9.66998
ுவ	-9.67045
▁கிள	-9.67117
ாக்க	-9.67154
▁கடன்	-9.67178
வையும்	-9.67189
நீர்	-9.6719
வரின்	-9.67206
▁பண்பு	-9.67208
▁உடல	-9.67236
▁தடுக்க	-9.6725
விட்ட	-9.67397
▁அடையாளம்	-9.67399
▁முருகன்	-9.67414
▁தொழிற்சாலை	-9.67455
▁நடத்தி	-9.67486
▁இவ்வகை	-9.67558
▁புரிந்து	-9.67574
▁விளங்குகிறது	-9.67585
▁இலக்கண	-9.67637
க்கார	-9.6773
▁மென்பொருள்	-9.67778
▁தொடங்கிய	-9.67839
ியுள்ளார்	-9.67905
se	-9.6792
99	-9.67948
▁வடிவமைப்பு	-9.67955
▁மல	-9.67968
▁உறை	-9.67997
▁அறிந்து	-9.68056
▁இரும்பு	-9.68083
▁இந்தி	-9.68083
os	-9.68118
கூட	-9.68162
▁விவசாய	-9.68188
▁உரிய	-9.68229
▁உருவான	-9.68232
▁சாத்திய	-9.68273
ப்புற	-9.68337
▁1999	-9.68344
▁ஒளிபரப்ப	-9.68406
கிறார்	-9.68423
▁அரசர்	-9.68455
▁காவல்	-9.6846
▁நடை	-9.6852
▁உலகம்	-9.68552
ராய்	-9.68556
▁தவ	-9.6858
▁மட்ட	-9.68586
▁இத்	-9.68641
▁கணக்கெடுப்பின்	-9.68683
▁இணைக்கப்பட்ட	-9.68772
▁பெரிதும்	-9.68803
▁வேளாண்மை	-9.68834
▁பள்ளியில்	-9.68865
டியா	-9.68878
▁தரும்	-9.68914
▁தேட	-9.68925
ப்படுகிறார்	-9.68933
ாகப்	-9.69025
▁அமைத்த	-9.6908
▁உதாரணமாக	-9.69094
க்கால	-9.69169
▁இச்	-9.69196
▁வரலாற்றில்	-9.69259
▁காந்த	-9.69279
▁நகரின்	-9.69349
▁கிரா	-9.69361
▁கேட்ட	-9.69427
வர்களுக்கு	-9.69576
▁கிராமத்தில்	-9.69644
▁புரோ	-9.6967
89	-9.69812
▁நடைபெற்றது	-9.69909
ஷன்	-9.69932
▁இத்தாலிய	-9.69937
▁கலைஞர்	-9.69975
▁நேரங்களில்	-9.70054
▁எச்	-9.70154
▁ராஜ்	-9.70333
▁சூழல்	-9.70471
▁(1	-9.70498
▁உறுப்பினர்கள்	-9.70501
▁சிறிது	-9.70578
▁துறைமுக	-9.70738
லாந்து	-9.70759
ராஜ்	-9.70788
▁பெப்ரவரி	-9.70814
▁பாடல்களை	-9.70925
▁எவ்வாறு	-9.70933
ang	-9.70956
▁2,	-9.7097
▁நைட்	-9.71003
▁கொண்டுள்ள	-9.71004
▁கற்	-9.71045
பெற்ற	-9.71107
▁விவரிக்க	-9.71109
வாறு	-9.71124
▁வரையறை	-9.71128
ப்பட்டுள்ள	-9.71142
ak	-9.71159
ங்களால்	-9.71162
▁நேரடி	-9.71171
▁விழுப்புரம்	-9.71174
ன்ற	-9.7121
ot	-9.71222
▁நிறைவு	-9.71223
▁செய்வ	-9.71335
ஆங்கிலம்	-9.71352
▁பன்	-9.71352
▁நியமிக்கப்பட்ட	-9.71378
▁மாணவர்கள்	-9.71476
வடி	-9.71563
ிற்கும்	-9.71644
▁பிறந்தவர்	-9.71666
▁தென்னாப்பிரிக்க	-9.71717
ிருக்கின்றன	-9.71758
ேஸ்வரர்	-9.71806
களோடு	-9.71848
▁பசு	-9.71864
▁அறிஞர்	-9.71866
▁நாளில்	-9.71933
▁சிவப்பு	-9.71951
▁முஸ்லிம்	-9.71959
▁அடிக்கடி	-9.7196
லியா	-9.72001
யில	-9.72011
க்கல	-9.72064
▁தயாரிப்ப	-9.72077
X	-9.72089
▁மேற்கொண்ட	-9.72117
▁வண்டி	-9.72129
92	-9.72167
▁32	-9.72276
▁ஆடு	-9.7229
▁வெளியானது	-9.72326
▁அடைய	-9.72339
▁நிறை	-9.72476
▁நோயாளி	-9.72556
ுபவர்	-9.72586
▁ஐரோப்பா	-9.72749
86	-9.72754
▁காலை	-9.7277
▁பிரிக்கப்பட்ட	-9.72824
▁செலவு	-9.72833
▁கட்டுரைகள்	-9.72885
▁1996	-9.72889
▁மரியா	-9.72894
▁நபர்	-9.7294
ஸில்	-9.7298
▁கூறுகிறது	-9.73022
யான்	-9.73048
▁ஆய்வ	-9.73054
க்கூ	-9.73149
▁மாநிலம்	-9.7321
▁முறையை	-9.7332
▁நிறுவப்பட்டது	-9.73372
பல	-9.73453
▁மக்களை	-9.7346
▁மின்ன	-9.73513
17	-9.73523
87	-9.73541
▁வழக்கமாக	-9.73619
▁கணக்கிட	-9.73694
யிடம்	-9.73706
▁இசுலாமிய	-9.73706
▁அவற்றில்	-9.73746
▁காரணி	-9.73758
▁தயாரித்த	-9.73765
▁இயல்பு	-9.73769
ீர்	-9.73819
ந்தது	-9.73858
▁முக்கோண	-9.73893
▁உருவாக்கி	-9.73919
od	-9.74003
▁தனக்கு	-9.74038
▁தொகுப்ப	-9.74051
ற்கு	-9.74088
வாதி	-9.74112
▁சக	-9.7412
▁அலுவலக	-9.74185
▁வகைகள்	-9.74269
▁பயன	-9.7428
ந்திய	-9.74282
▁$	-9.74344
▁இருப்ப	-9.74382
▁குடியரசு	-9.7441
▁இயற்பியல்	-9.74414
▁முழுமையாக	-9.74424
▁ஆனார்	-9.74426
▁வெளியிட்டார்	-9.7443
ப்பிர	-9.74509
▁உதவ	-9.74541
▁நாட்	-9.74563
▁ஆர	-9.74568
ூரில்	-9.74646
▁மதிப்ப	-9.7465
ட்ரா	-9.74732
▁காட்டிலும்	-9.74787
▁சுய	-9.74806
97	-9.74818
▁வருகின்றனர்	-9.74831
▁தப்பி	-9.74863
தொ	-9.74864
▁மையம்	-9.74864
மைப்பு	-9.74897
்க	-9.74905
செல்	-9.74912
▁ஆய்வுகள்	-9.74968
▁அகல	-9.74978
ராச	-9.74987
▁நேச	-9.7515
ist	-9.75187
▁கட்டுமான	-9.75253
▁மேலே	-9.75262
▁கண்ணாடி	-9.75291
▁கூடுதலாக	-9.75354
▁1998	-9.7537
க்களின்	-9.75399
தெ	-9.75444
▁மாறாக	-9.75463
▁”	-9.75583
▁பாலி	-9.7561
▁பொறுப்ப	-9.75615
▁நம்	-9.75638
ath	-9.7564
84	-9.75663
▁உயரத்தில்	-9.7568
▁ஆனாலும்	-9.75698
▁பொறுத்து	-9.75735
▁ஓய்வு	-9.7576
▁நூலில்	-9.75802
ப்பாக	-9.75811
ாய்வு	-9.7582
▁கண்டறிய	-9.7585
▁குழாய்	-9.75876
▁காய்	-9.7589
▁அளவிலான	-9.75895
▁சற்று	-9.75898
சம	-9.75902
க்கலை	-9.75966
▁உயிர	-9.76005
▁உணவ	-9.76048
▁தொடரில்	-9.7607
ab	-9.76088
90	-9.76088
▁இலக்க	-9.76135
▁போரின்	-9.76167
▁சுத்த	-9.76286
குல	-9.76301
▁அட்டை	-9.76312
க்கர்	-9.76324
ுள்	-9.76329
▁வேறுபாடு	-9.76379
na	-9.7638
▁ஃப	-9.76387
▁தோன்ற	-9.76403
வம்	-9.76474
▁கூட்டணி	-9.76477
94	-9.7649
லூ	-9.76513
▁ஆர்வ	-9.76526
▁அவரின்	-9.76553
ட்டம்	-9.76556
▁3.	-9.76558
▁தொடு	-9.76562
▁ஈடுபட்ட	-9.7659
▁பெருமை	-9.76592
▁கிடைக்க	-9.76604
ப்பெரு	-9.76628
▁எதிரி	-9.76649
▁செய்யப்பட்டு	-9.76663
▁பெண்ண	-9.76702
▁அலி	-9.76773
▁நடன	-9.7678
▁பேச்சு	-9.76793
ut	-9.7685
▁மரபணு	-9.76934
▁முதன்மையான	-9.7697
▁வார்	-9.77057
பக்க	-9.77077
ாளர்கள்	-9.77114
▁அறிவிக்கப்பட்ட	-9.77121
▁ஒன்பது	-9.77126
▁சங்கம்	-9.77139
▁அங்கே	-9.77143
வரி	-9.77196
ச்செ	-9.77207
▁உருவாகும்	-9.77247
▁அடங்கிய	-9.77256
▁வருகை	-9.77269
▁குடியேற்ற	-9.77287
▁கூறுகிறார்	-9.77352
▁ராஜா	-9.7748
▁சுர	-9.77483
▁80	-9.7751
கிராம	-9.77536
▁உயிரின	-9.77589
▁மக்	-9.7759
▁செய்யப்படும்	-9.77594
°	-9.77614
▁நடித்துள்ளனர்	-9.77669
▁விளைவு	-9.77671
▁வேலூர்	-9.77691
கீ	-9.77696
▁மலேசிய	-9.77713
ப்பட்டனர்	-9.77729
பொருள்	-9.77791
ிசை	-9.77852
▁குளிர்	-9.77891
ta	-9.7795
ர்ஸ்	-9.78021
▁சென்னையில்	-9.78076
▁பாராளுமன்ற	-9.78088
▁நிலுவையில	-9.7809
▁மூளை	-9.78186
▁தொழிலாளர்	-9.78193
man	-9.78243
யுடைய	-9.78254
▁அமைப்பின்	-9.78256
▁பரிந்துரை	-9.78385
▁மிகச்	-9.78412
▁பெற்றோர்	-9.78441
▁பரப்ப	-9.78443
▁நிகழ்த்த	-9.78478
▁கருப்பு	-9.78542
▁அர்	-9.78545
திரைப்படம்	-9.78561
▁கைது	-9.78572
▁கோள	-9.78624
ap	-9.78633
▁கலந்த	-9.78661
▁நகரத்தில்	-9.78707
க்கின்	-9.78758
கொள்	-9.78774
▁இவன்	-9.78783
▁அமைய	-9.78801
▁யார்	-9.78854
▁இவ்வி	-9.78869
▁பாதி	-9.78923
ியம்	-9.78956
91	-9.78959
▁இடைவெளி	-9.79035
▁நுண்	-9.79129
▁சர	-9.79133
▁பாதுகாப்ப	-9.79147
▁சேர்ம	-9.7917
ுவதில்லை	-9.79175
▁சக்கர	-9.7924
▁தீர்த்த	-9.79257
டுகள்	-9.79323
▁காலங்களில்	-9.7936
▁பாண்டிய	-9.79392
▁கூடுதல்	-9.79428
▁கடவுள	-9.79434
▁பயன்படுத்தும்	-9.79447
▁தக்க	-9.79472
▁ஹை	-9.79524
▁பின்னணி	-9.79585
▁கேட்க	-9.79587
க்குழு	-9.79613
▁மகள்	-9.79662
▁பிரதேசம்	-9.79664
மாக்க	-9.79675
▁எழுந்த	-9.79705
ொரு	-9.79724
▁ஆசியா	-9.79742
▁உண்மையான	-9.79746
மாய்	-9.79748
ell	-9.79793
▁1989	-9.79799
▁செய்கிறது	-9.79803
▁மண்ண	-9.79829
▁அமைப்புகள்	-9.79898
93	-9.799
98	-9.79937
▁கண்டி	-9.79939
▁இங்கே	-9.79985
▁சிற்ற	-9.80006
▁சோடியம்	-9.80059
▁அனைவரும்	-9.80099
த்தோடு	-9.80114
▁வளை	-9.80131
▁உருவாக்கும்	-9.80141
வைக்	-9.80144
▁கடுமையான	-9.80176
▁அடிமை	-9.80323
▁அவர்களை	-9.80328
ப்படுத்தி	-9.80334
▁1950	-9.80342
▁U	-9.80428
துடன்	-9.80463
நாதர்	-9.8048
▁பேரரசின்	-9.80491
▁இணைத்து	-9.80503
▁வானியல்	-9.80515
▁சார	-9.80531
▁தாம்	-9.80561
▁வழங்கிய	-9.80616
டில்	-9.80641
▁ஆழ	-9.80661
▁35	-9.80766
▁வழியில்	-9.80799
▁ஏற்றுக்கொள்ள	-9.80811
ine	-9.80873
ற்றி	-9.80892
▁தீவிர	-9.80926
ுரு	-9.80942
▁சுருக்க	-9.81073
▁வரையறுக்க	-9.81092
▁அசை	-9.81109
▁தலைமையில்	-9.81169
▁இலக்கு	-9.81189
▁புகை	-9.81348
▁மரப	-9.81477
ாகக்	-9.81504
▁ஆதரவு	-9.81535
▁ஆனந்த	-9.81536
▁ஆரம்பத்தில்	-9.81536
▁n	-9.81586
கின்ற	-9.81611
▁கதாபாத்திர	-9.81669
லிங்	-9.81672
▁படிக	-9.81672
▁1991	-9.81785
▁மீதான	-9.81789
▁அறியப்படுகிறது	-9.81804
ங்கல்	-9.81886
▁சிந்தனை	-9.81902
▁தெரிவித்த	-9.81949
தன	-9.81956
ுவார்	-9.8196
▁கையாள	-9.81978
▁உயரம்	-9.81982
▁உணர்வு	-9.82008
▁வளர்க்க	-9.82016
ாளராக	-9.82023
பேட்டை	-9.82065
▁நாகப்பட்டினம்	-9.82102
செய்	-9.8213
▁ஆசிரியராக	-9.82146
▁தூர	-9.82147
▁இன்றும்	-9.82149
op	-9.8215
05	-9.82222
▁வாய்ப்பாடு	-9.82245
ாண்ட	-9.82247
▁கண்டுபிடித்த	-9.82278
▁அழக	-9.82301
▁நிகழ்வ	-9.82316
▁எப்படி	-9.82329
▁அகற்ற	-9.82404
▁கோப்பை	-9.82432
vi	-9.82625
யிர	-9.82678
82	-9.82692
▁கிருஷ்ணகிரி	-9.82722
▁நீதிமன்ற	-9.82733
▁இந்தச்	-9.82759
▁தந்த	-9.82778
▁செயல்பாடு	-9.82812
சில	-9.82833
▁கூறு	-9.82839
▁உள்ளடக்க	-9.82851
▁தொடங்க	-9.82853
▁அய்யனார்	-9.8286
▁பந்து	-9.83027
குறி	-9.83041
▁தசை	-9.83078
தூ	-9.83113
▁அந்தப்	-9.83115
இன்	-9.83159
க்கூட	-9.83225
▁கால்பந்து	-9.8325
▁உதவும்	-9.8327
▁அம்ம	-9.83278
ண்டோ	-9.83362
▁குழும	-9.83424
ங்குடி	-9.83427
ிடையே	-9.83455
▁வைக்கப்பட்ட	-9.83474
▁எழுப்ப	-9.83502
▁நீரில்	-9.83535
▁பாவ	-9.83556
▁இவன	-9.83556
▁காங்கிரஸ்	-9.83673
ேந்திர	-9.83728
ட்சு	-9.8374
▁தோல்	-9.83746
▁படைத்த	-9.83874
▁பூச்சி	-9.8399
ருக்கும்	-9.84
ஞ	-9.84105
குளம்	-9.84119
▁பழக்க	-9.84186
▁ஒன்றான	-9.84281
35	-9.84288
ுகிறான்	-9.84309
▁முறைகள்	-9.84316
▁கொண்டிருந்தது	-9.84387
▁மாகாணத்தில்	-9.84387
▁நிருவாகியா	-9.84405
▁அவள்	-9.84428
▁உயிரி	-9.84531
▁நூலை	-9.84537
▁நிலையான	-9.84544
▁ஜெர்மனி	-9.84554
▁ஒடுக்க	-9.84562
▁வந்தனர்	-9.84567
ne	-9.84575
▁செய்யப்படுகிறது	-9.84637
▁தொலைவிலும்	-9.84698
▁பதிப்ப	-9.84741
▁நடிக்க	-9.84835
▁முடிவ	-9.84837
▁1994	-9.84844
▁வழிபாடு	-9.84864
▁பாணி	-9.84872
▁கன்னட	-9.84874
களிடையே	-9.84893
▁ரூபாய்	-9.84909
▁கலி	-9.84911
மன	-9.85102
▁முன்னேற்ற	-9.85127
▁சிக்கல்	-9.85142
மய	-9.85146
காண	-9.85164
▁வெடி	-9.85179
▁போதும்	-9.85242
▁ஆஸ்திரேலியா	-9.85283
ப்பெயர்	-9.85361
▁பார	-9.85481
க்கப்பட்டு	-9.8549
▁பார்த்து	-9.85544
▁கடந்து	-9.85563
▁பிளா	-9.85581
▁அறுவை	-9.85592
▁அறிவ	-9.8562
பிள்	-9.85641
ிருந்தனர்	-9.8569
வருக்கு	-9.85713
▁தண்டனை	-9.85719
96	-9.85847
▁அறிவித்த	-9.85931
▁பொன்ன	-9.85941
ஸா	-9.86027
▁அளவுக்கு	-9.86057
னியம்	-9.86132
▁இராஜ	-9.86142
all	-9.86173
யிலான	-9.86179
ப்பாடு	-9.86199
▁திண்டுக்கல்	-9.86214
▁என்பதாகும்	-9.86227
▁பேரரச	-9.8628
▁எளிய	-9.86287
ly	-9.86307
▁பிரே	-9.86341
▁ஹே	-9.86364
▁சுற்ற	-9.86369
▁பெண்களின்	-9.86372
▁வடி	-9.86382
▁வழங்கப்பட்ட	-9.86417
த்தர	-9.86418
▁மேடை	-9.86437
▁நூல்களை	-9.86492
▁சேர்ந்தவர்	-9.8664
▁கட்டப்பட்டது	-9.86704
▁குறுகிய	-9.86714
▁பயனர்	-9.86769
ப்பது	-9.868
ஒரு	-9.86825
▁மொழிகளில்	-9.8685
▁உணர	-9.86882
▁இவற்ற	-9.86899
The	-9.86914
▁பற்றியும்	-9.86917
▁நடித்திருந்தனர்	-9.86927
ீடு	-9.86952
▁வரைபட	-9.86972
▁செடி	-9.86987
நகர்	-9.87001
▁ஆங்கிலம்	-9.87007
04	-9.87029
▁காணப்பட்ட	-9.87043
▁உண்மையில்	-9.87082
▁இத்த	-9.87087
லிங்க	-9.87099
▁மருத்துவர்	-9.87157
டும்	-9.87201
▁தொகையில்	-9.87249
▁செய்தனர்	-9.87282
ஸ்டி	-9.87296
06	-9.87305
hi	-9.8733
க்கோட்டை	-9.87341
▁பக	-9.87354
▁அணிக்கு	-9.87382
▁200	-9.87432
▁மலையாள	-9.87454
▁நரம்பு	-9.87459
▁அவள	-9.87465
▁லை	-9.8758
▁கட்டுப்பாடு	-9.87639
னான்	-9.87676
வாகும்	-9.87679
▁45	-9.87759
▁குண்டு	-9.8782
▁மான்	-9.87821
▁குழுக்கள	-9.87851
▁அண்ட்	-9.87866
போல்	-9.87874
▁கர்நாடக	-9.879
▁அமைச்சர்	-9.87914
▁குவி	-9.87957
▁சிறப்பான	-9.8797
ங்களுள்	-9.8798
sh	-9.87984
▁பண்பாட்டு	-9.88156
▁விவர	-9.88177
▁நாமக்கல்	-9.88192
▁போற்ற	-9.88234
▁செயலாளர்	-9.88301
க்காடு	-9.88337
▁முழுமையான	-9.88343
▁ரீ	-9.884
▁சன்	-9.88444
▁மற	-9.88455
▁வது	-9.8847
▁இன்றைய	-9.88543
▁தளபதி	-9.88585
மீன்	-9.88619
09	-9.88628
வார	-9.88673
▁கேட்டு	-9.88696
▁திருவ	-9.88698
▁கோவை	-9.88782
னீ	-9.88792
▁ஆடை	-9.88798
▁முடிய	-9.88808
ேஸ்வர	-9.88827
▁ரீதியாக	-9.88859
de	-9.88937
▁அமைத்து	-9.88976
▁சிவாகம	-9.8898
▁நபர்கள்	-9.88989
▁வலிமை	-9.89041
▁அன்னை	-9.89072
ில	-9.89101
▁ஆல்ப	-9.89109
▁ரொ	-9.89194
▁இதுவரை	-9.89197
▁மன்னன்	-9.89241
▁வாழ்வ	-9.89274
▁மாவட்டங்களில்	-9.89292
வானது	-9.89317
▁பெருக்க	-9.89335
▁மரம்	-9.8934
▁தர்மபுரி	-9.89348
த்ரா	-9.8939
▁நியூயார்க்	-9.89423
▁உப	-9.89429
39	-9.89464
▁சீர	-9.8947
னுடன்	-9.89564
▁ஈரோடு	-9.89581
▁காசி	-9.89594
▁கிடைத்தது	-9.89602
தல	-9.89616
▁கடற்படை	-9.89632
▁இப்படி	-9.89637
▁திருப்ப	-9.89671
ac	-9.89699
ப்பான்	-9.89707
▁வைர	-9.89785
▁ஒன்றில்	-9.89796
▁ஜார்ஜ்	-9.89847
▁பிடிக்க	-9.89859
▁கொடுத்து	-9.89911
▁குடும்பம்	-9.89917
▁இராக	-9.8992
▁கட்டட	-9.89923
ிருச்சிராப்பள்ளி	-9.8993
▁சுப்பிரமணிய	-9.89962
▁நிறுவப்பட்ட	-9.89981
▁சேத	-9.89986
▁விடு	-9.89988
▁கன்னியாகுமரி	-9.89992
பாய்	-9.90088
▁கணக்க	-9.90155
▁1992	-9.90158
பிய	-9.90169
▁நெறி	-9.90179
▁கொள்	-9.9021
க்கிறது	-9.90212
ருடன்	-9.90216
▁நந்தி	-9.90221
▁உருவாகிறது	-9.90227
▁1997	-9.90231
▁சாதன	-9.90233
▁h	-9.90243
▁நூலக	-9.90244
▁எதுவும்	-9.90272
கிறான்	-9.90304
▁சமயத்தில்	-9.90339
▁மாசி	-9.9034
▁ஆயினும்	-9.90356
▁பரப்பு	-9.90418
யாளராக	-9.90506
▁யோக	-9.90518
▁சேர்க்கப்பட்ட	-9.90547
▁சித்திரை	-9.90554
மண	-9.90558
▁வளர்	-9.90597
88	-9.9071
▁ஆலை	-9.9072
ங்களுக்கும்	-9.90737
▁மலேசியா	-9.90832
▁மக்களவை	-9.90842
ிருந்தன	-9.90878
▁கிமு	-9.90895
▁தெளிவாக	-9.90897
ண்டை	-9.91003
▁உண்டாக்க	-9.91014
▁செய்வது	-9.91025
▁மித	-9.91254
▁அற	-9.91274
லக	-9.91276
▁விளை	-9.91276
வட்ட	-9.91318
ரல்	-9.91342
▁கோர்	-9.91347
75	-9.9138
தார	-9.91382
▁1995	-9.91397
▁முடிந்த	-9.91444
ருக	-9.91468
▁அழைக்கப்பட்ட	-9.91515
▁நடத்தை	-9.9157
▁அப்ப	-9.91635
▁தர்ம	-9.91646
க்கண	-9.91651
▁வீதி	-9.91756
▁தொடக்கத்தில்	-9.91775
▁வின்	-9.91779
02	-9.91786
னிடம்	-9.91789
ோட்ட	-9.91831
▁தரை	-9.91841
▁இருக்கிறார்	-9.91862
நே	-9.91873
▁ஆங்கிலேய	-9.9191
டாக	-9.9204
▁வேக	-9.92051
சென்	-9.92057
▁எளிதாக	-9.92067
எல்	-9.92068
▁குரல்	-9.9208
▁பட்டியலில்	-9.92091
▁போட்டியிட்டு	-9.9212
க்குறி	-9.92121
வாரி	-9.92178
க்கில்	-9.92194
▁செங்க	-9.92255
▁வெளியேற	-9.92285
▁கல்ல	-9.9233
▁முறையே	-9.92369
▁மார்ச்சு	-9.92416
▁அழுத்தம்	-9.92459
ஃபா	-9.92514
▁உருவானது	-9.92546
தேவி	-9.92558
▁d	-9.92609
▁தாழ்	-9.92612
▁வித	-9.92634
▁பேராசிரியர்	-9.92634
▁மிகக்	-9.9268
▁பொறுப்பு	-9.92722
▁சேர்ந்தார்	-9.92729
ங்களான	-9.92761
▁ஒன்றியம்	-9.92815
▁போக	-9.92831
▁மத்தியில்	-9.92848
நாதன்	-9.92859
▁இந்தியப்	-9.92894
▁ஏர்	-9.9294
▁தண்ட	-9.92979
▁வருடம்	-9.93001
85	-9.93016
கோண	-9.93031
▁இன்னொரு	-9.93094
24	-9.93096
▁கோயம்புத்தூர்	-9.931
▁பணம்	-9.93129
ஸ்டா	-9.93155
▁தோன்றும்	-9.93165
▁அதிகரிக்க	-9.93173
▁அழகிய	-9.93185
▁நவ	-9.93225
தின்	-9.93233
78	-9.93252
மென்	-9.93271
▁தண்ணீர்	-9.93272
▁உருவாக்கினார்	-9.93294
21	-9.93296
▁அப்	-9.93311
▁டாலர்	-9.93326
▁திருவள்ளூர்	-9.93391
▁டேவிட்	-9.9341
65	-9.93429
▁கட்டளை	-9.93462
▁அஞ்சல்	-9.93484
▁விருதை	-9.93506
மையான	-9.93509
▁கொண்டதாக	-9.9351
ஆர்	-9.93515
ுப்	-9.93548
▁நீர்ம	-9.93579
கட்ட	-9.93589
07	-9.93596
ோன்	-9.93657
▁நாட்களில்	-9.93708
ட்டன்	-9.93723
கட	-9.9374
ow	-9.93752
▁1984	-9.93788
னுடைய	-9.93824
▁மையமாக	-9.93892
ினான்	-9.93911
▁°	-9.93948
ீஸ்வரர்	-9.94039
45	-9.94064
28	-9.94115
▁கட்டிடக்கலை	-9.94126
▁புற்றுநோய்	-9.94135
நீ	-9.94184
▁சூட்ட	-9.94234
▁ஆற்று	-9.94271
▁வழிபட	-9.94273
▁அள	-9.94297
▁மருத்துவமனை	-9.94301
▁வட்டார	-9.94331
▁நகரத்தின்	-9.94387
di	-9.94403
ஞ்சு	-9.94424
-2	-9.94454
▁கோள்	-9.94456
▁கோப	-9.94484
▁வலது	-9.94484
▁இளைய	-9.94501
னன்	-9.94501
ங்க்	-9.94527
▁1947	-9.94542
▁பழங்குடி	-9.94559
புற	-9.94578
▁ஆள	-9.94588
▁இயங்கும்	-9.94616
▁பிணைப்பு	-9.94728
67	-9.94736
▁தெரிவிக்க	-9.94757
▁தீர்வு	-9.9476
▁கவன	-9.948
▁குகை	-9.94821
▁இடது	-9.94841
▁அமைச்ச	-9.94903
▁நெடு	-9.94905
▁உள்ளே	-9.9492
▁தன	-9.94935
▁உண்ண	-9.9494
ட்ரி	-9.94944
▁விழ	-9.94951
ேஷ்	-9.94997
ud	-9.95002
▁பழமையான	-9.9501
▁கொழும்பு	-9.95023
வதை	-9.95038
▁வங்காளதேச	-9.95064
▁இத்திரைப்படம்	-9.95066
சொ	-9.95081
ெய்	-9.95132
▁பிள	-9.95178
▁தோற்றம்	-9.95205
▁மின்சார	-9.95215
▁வலியுறுத்த	-9.95343
▁முதல	-9.95347
பியா	-9.95379
▁சகோதரி	-9.95493
▁திரும்பி	-9.95504
லிருந்து	-9.95509
விடும்	-9.9551
ல்கள்	-9.95521
▁தெரிய	-9.95547
ப்பொ	-9.95553
அல்லது	-9.95594
▁வடிவமைக்கப்பட்ட	-9.95632
▁குடும்பத்தில்	-9.95701
ச்சை	-9.95722
▁உத்தர	-9.95767
ரிடம்	-9.95796
▁தலைநகர	-9.95829
▁நார்	-9.95835
▁எதிர்த்து	-9.95836
பார	-9.95875
per	-9.95879
▁வீழ்ச்சி	-9.95902
▁வரையிலான	-9.95916
▁சதவீத	-9.9594
▁முதலான	-9.95999
▁வளரும்	-9.96012
▁சான்	-9.96046
▁டு	-9.96075
▁இழை	-9.9608
▁செயல்படுகிறது	-9.96108
மடைந்த	-9.96157
▁இம்ம	-9.96164
▁ஃபெ	-9.96167
▁மீட்ட	-9.96174
▁ஆங்கிலத்தில்	-9.96177
ங்கிய	-9.96178
▁விமர்சன	-9.96188
▁விரிவாக்க	-9.96207
▁பிழை	-9.96254
▁33	-9.96403
குமார்	-9.96473
▁ஏற்பாடு	-9.96531
▁ஐதரசன்	-9.96531
▁விடுதலைப்	-9.96532
பரி	-9.96558
▁தேடி	-9.96561
▁இதர	-9.96563
ாதி	-9.96623
▁நான்காவது	-9.96677
ண்ணி	-9.96714
▁(18	-9.96742
ந்தார்	-9.9679
▁அணுக	-9.96805
ியக்க	-9.96891
▁ஐய	-9.96898
▁தேவர்	-9.96933
▁துளை	-9.97018
▁நின்று	-9.97022
48	-9.97032
▁பிரிட்டிஷ்	-9.97065
ேரி	-9.97072
▁2018	-9.97108
▁சுவர்	-9.97114
த்தனர்	-9.97126
சிங்க	-9.97152
ஈ	-9.97154
▁திருச்சி	-9.97167
▁கவி	-9.97203
▁பஞ்சாப்	-9.97205
▁கவிஞர்	-9.97223
▁மீற்றர்	-9.97223
ti	-9.97291
▁பொருளை	-9.9734
டைந்த	-9.97371
22	-9.97374
03	-9.97393
▁அன்ன	-9.97393
பல்	-9.97397
▁ஆகியவற்ற	-9.97398
▁இயக்குனர்	-9.97411
▁கோல	-9.97439
யீ	-9.97452
பாட	-9.97458
▁குழி	-9.97464
▁அருள்	-9.97471
▁தோல்வி	-9.97483
ியின்	-9.97497
▁ஏற்றுக்	-9.975
23	-9.97501
▁சௌ	-9.9751
▁பூமி	-9.97521
▁தொடர்ச்சியாக	-9.97622
▁ஆக்சைடு	-9.97631
▁தொழிற்	-9.97656
32	-9.9768
▁பிராந்திய	-9.97701
▁கோர	-9.97705
▁தவிர்க்க	-9.97706
▁1993	-9.97712
76	-9.97778
▁வண்ணம்	-9.9783
கொண்டு	-9.97863
களா	-9.97864
▁இடத்தை	-9.97892
பத	-9.97914
ால	-9.97972
வாக்க	-9.97992
▁1987	-9.98028
நாயக்க	-9.98044
▁கடற்	-9.98058
▁பாக்	-9.98093
ுதல	-9.98098
ment	-9.981
பொருள	-9.98218
ருக்க	-9.9822
சங்க	-9.98237
▁டாக்டர்	-9.98242
▁பாஸ்	-9.98244
▁எடுக்கப்பட்ட	-9.98249
ho	-9.9829
நோ	-9.98295
III	-9.98314
களாகப்	-9.98417
மிட	-9.98428
▁பொன்	-9.9845
▁புர	-9.98457
▁அமை	-9.98503
▁வழக்கம்	-9.98509
தனை	-9.98516
▁மாசு	-9.98526
▁உட்பட்டது	-9.98573
▁வேர்	-9.98596
▁ஆர்வம்	-9.98628
▁சராசரியாக	-9.98686
▁தாயார்	-9.98782
▁ஆணைய	-9.98875
▁நிகழும்	-9.98877
▁சுரங்க	-9.9889
▁நீரை	-9.98951
▁குமார	-9.98976
▁திறன	-9.99102
▁வெளியீடு	-9.9913
▁பாதிப்பு	-9.99162
64	-9.99187
தைக்	-9.99187
▁துப்பாக்கி	-9.99193
▁ஈழ	-9.99197
▁அந்தக்	-9.99321
▁படிப்பு	-9.99352
▁விரி	-9.99385
ஷ்ட	-9.99467
▁சோழர்	-9.99473
▁நடைபெற	-9.9949
55	-9.9952
வைச்	-9.99528
▁உள்நாட்டு	-9.99549
களினால்	-9.99553
▁வழங்கப்படும்	-9.99558
▁என்பவர	-9.99595
▁இருபது	-9.9968
47	-9.99708
▁சேர்மமாகும்	-9.99713
▁இனங்கள்	-9.99714
▁36	-9.99857
ாய	-9.99864
46	-9.99942
▁வரிசையில்	-9.99956
திர்	-9.99972
▁உருசிய	-10.0002
ட்ரோ	-10.0003
37	-10.0006
▁தலைப்பு	-10.001
ity	-10.0011
க்கட	-10.0012
▁இணைக்க	-10.0015
ஸை	-10.0016
▁வெண்	-10.0017
ல்ட்	-10.0021
ும்படி	-10.0025
26	-10.0027
ீட்டு	-10.0029
▁சிறுவர்	-10.0029
வர்களாக	-10.0029
ப்படுத்தப்பட்ட	-10.003
விலுள்ள	-10.0032
ொன்று	-10.0033
▁பொருந்த	-10.0033
லோக	-10.0034
ள்ளி	-10.0037
▁கண்டறிந்த	-10.0038
வெல்	-10.0039
▁பிரான்சு	-10.0044
ெடுத்த	-10.0045
ஸ்த	-10.0046
▁வட்டத்தில்	-10.0047
▁சிம்	-10.0052
ின்ற	-10.0055
▁நு	-10.0057
கிருஷ்ண	-10.0057
▁கூறும்	-10.0058
68	-10.0058
72	-10.0059
▁ஆயிரம்	-10.0062
சர	-10.0062
▁மன்னர	-10.0063
▁பண்பாடு	-10.0064
ப்பே	-10.0065
வர்களின்	-10.007
▁சமண	-10.007
▁நிலைக்கு	-10.0071
நீர	-10.0075
▁ஆவி	-10.0079
▁அண்ணா	-10.0081
▁பிரிவில்	-10.0081
ரெட்	-10.0085
56	-10.0094
▁பரிசோதனை	-10.0096
▁விளங்கியது	-10.0097
கின்றனர்	-10.0097
ஸ்தான	-10.0098
▁காலப்	-10.0101
▁ஜேம்ஸ்	-10.0105
▁பண்ப	-10.0106
▁ஓட	-10.0107
▁நடந்து	-10.0107
▁ஆட்	-10.0109
▁தமிழ்ப்	-10.0109
▁பீட	-10.011
58	-10.0112
▁நிறைய	-10.0116
▁வாரிய	-10.0119
▁காவிரி	-10.0121
மூல	-10.0123
▁குறைபாடு	-10.0123
▁சீர்திருத்த	-10.0129
களி	-10.0131
▁வாழ்கின்றனர்	-10.0132
வரிசை	-10.0133
▁சன்னதிகள்	-10.0134
▁இளைஞர்	-10.0134
▁கிரு	-10.0135
▁உலகளாவிய	-10.0137
▁1977	-10.0138
▁ஊர	-10.0139
36	-10.0144
▁ஏற்படுகிறது	-10.0144
▁பரு	-10.0151
▁அரசன்	-10.0152
▁கைப்பற்றி	-10.0157
▁இயக்குநர்	-10.0157
▁சுகாதார	-10.0161
▁உரோமை	-10.017
▁புதிதாக	-10.017
▁வளர்ந்து	-10.017
▁உயிரியல்	-10.0172
க்கரு	-10.0175
▁முயன்ற	-10.0176
▁அட்டவணை	-10.0178
ிற	-10.0184
றும்	-10.0185
29	-10.0187
▁கருத்த	-10.0188
▁இருப்பதை	-10.0189
▁கவனம்	-10.0192
-20	-10.0192
▁75	-10.0196
▁பல்கலைக்	-10.0202
▁1988	-10.0204
▁குரோ	-10.0206
▁de	-10.0217
▁காப்பாற்ற	-10.0219
சல	-10.0227
▁மாநகர	-10.0233
▁இந்நூல்	-10.0235
மையை	-10.0244
ill	-10.0244
▁வீரர்கள்	-10.0246
ளவில்	-10.0246
▁நட	-10.0248
▁இச்சேர்மம்	-10.0251
▁விற்க	-10.0255
▁பற்	-10.0257
▁வடிவமைப்ப	-10.0266
▁கன்னி	-10.0266
38	-10.0276
▁நினைவாக	-10.0281
▁கொழுப்பு	-10.0282
▁சொல்லி	-10.0286
▁வேண்டி	-10.0288
▁பணியாற்றி	-10.0292
▁எளிதில்	-10.0293
▁ஜெர்மானிய	-10.03
▁பெட்டி	-10.03
▁பரிந்துரைக்க	-10.0304
வதாக	-10.0308
▁மொழிகள்	-10.0308
பில்	-10.0309
நாயக	-10.0312
▁சுவை	-10.0315
▁துகள்	-10.0318
▁அனுமதிக்க	-10.0318
27	-10.0324
▁அரபு	-10.0328
▁விஷ	-10.0328
▁அரிய	-10.033
குரு	-10.0332
▁அமைப்பில்	-10.0336
▁மக்களால்	-10.0337
சக்தி	-10.0341
ும	-10.0343
▁மேலாக	-10.0344
▁படிக்க	-10.0344
▁படத்தின்	-10.0344
▁லீக்	-10.0347
▁மாகாணத்தின்	-10.0347
ec	-10.0358
ry	-10.0359
▁பில்லியன்	-10.036
▁விதமாக	-10.0367
▁வித்தியாச	-10.0368
▁இரண்டும்	-10.037
▁தன்ன	-10.0372
ெழுத்து	-10.0378
ப்பொருள	-10.0379
▁தயாரிக்கப்பட்ட	-10.0381
▁1986	-10.0386
▁பாலின	-10.0386
▁கம்பி	-10.0388
ர்ஜி	-10.0391
▁குற்றம்	-10.0392
▁செயற்பாடு	-10.0401
▁70	-10.0403
கிரா	-10.0407
▁தூய	-10.0412
ge	-10.0415
▁மண்டலம்	-10.0423
க்குக்	-10.0431
ீர	-10.0433
▁இயற்றிய	-10.0434
▁இஸ்லாமிய	-10.0435
ுவத	-10.0436
▁1971	-10.0436
▁இறுதியாக	-10.0437
ரஸ்	-10.0438
லான	-10.0438
▁இயக்கிய	-10.0444
ிறார்கள்	-10.0446
ுகின்றார்	-10.0449
▁வெளியிட்டது	-10.0456
ளே	-10.0458
▁சகோதரர்	-10.0458
▁தெரிவு	-10.0461
லட்சுமி	-10.0462
▁தீவுகள்	-10.0465
▁தொல்	-10.0471
யாளர்கள்	-10.0474
▁இடைப்பட்ட	-10.0478
செய்த	-10.0486
சான்	-10.0487
▁பரந்த	-10.0489
▁அவ்வாறு	-10.0494
ப்பாதை	-10.0495
▁வரையில்	-10.0495
மட்ட	-10.0496
க்கப்படும்	-10.0499
▁இயலும்	-10.05
▁உதவுகிறது	-10.0506
ஜீ	-10.0508
▁கோடு	-10.0508
▁நாராயண	-10.0511
▁கௌரவ	-10.0515
த்தான	-10.052
▁கனடா	-10.0521
▁சிக்கலான	-10.0524
▁காங்கிரசு	-10.0526
▁எசு	-10.053
▁அலுவலர்	-10.0533
சார	-10.0537
நாட்டு	-10.054
சிங்	-10.0541
▁வேகமாக	-10.0542
▁ரை	-10.0544
▁காற்ற	-10.0547
கையில்	-10.055
▁புகழ	-10.0556
ித்தார்	-10.0558
▁வருகின்றது	-10.0559
ுமான	-10.056
▁கரி	-10.056
▁t	-10.0562
வூர்	-10.0562
▁உள	-10.0564
கிய	-10.0567
▁சாலையில்	-10.0573
▁500	-10.0574
▁பறவைகள்	-10.0575
▁X	-10.0577
▁பணியாற்றிய	-10.0579
▁உடலில்	-10.058
த்தினர்	-10.0584
▁அறு	-10.0585
புல	-10.0586
▁தங்களது	-10.0586
▁பேசும்	-10.0588
▁உயரமான	-10.0588
▁விபர	-10.059
▁க்கும்	-10.0595
▁90	-10.0602
▁தமிழகத்தில்	-10.0605
▁மகளிர்	-10.0605
▁குவா	-10.0606
ங்களைத்	-10.0607
த்தல	-10.0608
த்திட்ட	-10.0608
49	-10.0608
▁விவாத	-10.061
ect	-10.0612
42	-10.0612
ந்த்	-10.0613
யாகப்	-10.0615
▁காட்டி	-10.0615
ெல்லாம்	-10.0616
ப்பதற்காக	-10.0619
ிட்ட	-10.0625
▁இழந்த	-10.0629
▁போன்றவற்ற	-10.0629
▁தாங்க	-10.063
▁சார்பில்	-10.0631
▁அணுக்கரு	-10.0633
▁கோபுரம்	-10.0635
வளை	-10.0642
ெடுக்க	-10.0643
▁குடியரசுத்	-10.0644
▁டன்	-10.0645
யிர்	-10.0656
▁to	-10.0659
▁கொண்டவர்	-10.0665
ni	-10.067
▁தென்னிந்திய	-10.067
ிருந்து	-10.067
▁மந்திர	-10.0671
▁பகுதியாகும்	-10.0672
ex	-10.0675
▁எழுத்த	-10.0676
ங்களாகும்	-10.0681
நெ	-10.0683
ொளி	-10.0683
ுவார்கள்	-10.0684
▁கந்த	-10.0686
77	-10.0687
▁ஒன்றியத்தில்	-10.0688
▁குழப்ப	-10.0689
79	-10.069
▁பட்டு	-10.0697
க்கூறு	-10.0698
▁வழங்கப்படுகிறது	-10.0699
▁தொடங்கப்பட்டது	-10.0702
குப்பம்	-10.0705
விழா	-10.0708
▁பணியாளர்	-10.0713
ுக்குப்	-10.0717
74	-10.072
க்கீ	-10.0725
▁சங்கிலி	-10.0726
க்கட்ட	-10.0726
▁கொண்டவை	-10.0728
மொ	-10.073
▁கோபுர	-10.0732
யளிக்க	-10.0734
81	-10.0736
▁விவிலிய	-10.0741
▁அவனது	-10.0744
▁திட்டமிட்ட	-10.0744
▁நன்மை	-10.075
ன்சு	-10.0753
▁ஒப்ப	-10.0754
▁முக்கியமாக	-10.0758
ிப்பு	-10.0759
0%	-10.0761
▁பத்ம	-10.0762
▁வளிமண்டல	-10.0767
ub	-10.0771
▁St	-10.0774
▁அடக்க	-10.0776
95	-10.0777
▁3,	-10.0784
▁எனப்படுகிறது	-10.0786
▁கிபி	-10.0787
▁கழிவு	-10.0798
▁Ch	-10.08
▁விசாரணை	-10.0801
பள்ளி	-10.0802
▁சிங்கப்பூர்	-10.0803
பெயர்	-10.0805
▁தொன்ம	-10.081
▁ஒப்பந்தம்	-10.0811
▁w	-10.0815
▁நெய்	-10.0817
மியா	-10.0825
▁கொடுக்கப்பட்ட	-10.0827
ச்சல்	-10.0828
தாய்	-10.0832
▁வாங்கி	-10.0833
73	-10.0844
▁எதிர்கால	-10.085
களிடமிருந்து	-10.0854
முடியும்	-10.0854
▁g	-10.0858
59	-10.0863
மூர்த்தி	-10.0867
▁இத்தல	-10.0868
ியுள்ளது	-10.087
த்துக்கும்	-10.087
▁கட்டாய	-10.0879
▁சர்க்கரை	-10.0882
▁விரைவாக	-10.0882
▁1978	-10.0882
▁குறிப்புகள்	-10.0883
66	-10.0883
▁என்பர்	-10.0885
ாலேயே	-10.0885
▁வடக்கில்	-10.0885
▁இவ்வூர்	-10.0885
ச்சந்திர	-10.0887
▁கவு	-10.089
தேவ	-10.089
71	-10.0892
▁போன	-10.0893
▁வெளிப்புற	-10.0893
ப்படுகின்ற	-10.0894
▁புரிந்த	-10.0894
மையால்	-10.0897
▁பயன்படுத்திய	-10.0898
▁எக்ஸ்	-10.0902
▁கொள்ளலாம்	-10.0909
▁நாட்டை	-10.0913
▁கட்டுப்பாட்டு	-10.0914
▁பாரசீக	-10.0915
வக	-10.0918
▁புரி	-10.092
பட்டு	-10.0921
▁பயிரிட	-10.0922
▁பண்ட	-10.0925
▁மிகை	-10.0925
▁அம்மா	-10.0926
▁உழ	-10.0928
34	-10.093
சாலை	-10.0931
▁ஆற்றலை	-10.0934
▁முன்னதாக	-10.0946
ப்படுவதில்லை	-10.0948
▁பூச	-10.0949
▁என்பதற்கு	-10.0951
▁ஆண்டி	-10.0956
▁டிரா	-10.0956
▁வீட்டில்	-10.0959
08	-10.0963
ிக்கும்	-10.0967
▁தேவாலய	-10.0969
▁விளக்கு	-10.097
▁தக	-10.0971
▁குடியிருப்பு	-10.0971
▁59	-10.0972
▁வளாக	-10.0975
31	-10.0976
▁தொல்லியல்	-10.0977
▁மருத்துவம்	-10.0978
▁கற்ற	-10.0979
▁என்பவை	-10.0986
▁பெற்றுள்ளது	-10.0989
ட்டிய	-10.0994
▁நடக்கும்	-10.0996
▁அழகு	-10.1003
▁புவியியல்	-10.1006
தாலும்	-10.1006
to	-10.1007
▁அறிவியல	-10.1009
யர	-10.101
▁திருவாரூர்	-10.1012
52	-10.1014
▁அருள	-10.1015
▁பேரரசர்	-10.1018
▁விஷ்ணு	-10.1021
லான்	-10.1021
61	-10.1023
ாறு	-10.1025
▁மன்னன	-10.1026
ard	-10.1029
▁வியாபார	-10.1031
▁1985	-10.1032
▁தம்பி	-10.1036
▁1940	-10.1042
▁காலகட்டத்தில்	-10.1043
Ch	-10.1046
▁கலிபோர்னியா	-10.1048
▁ஏற்கனவே	-10.1048
லிங்கம்	-10.1048
▁கற்பனை	-10.1052
▁கடித	-10.1052
▁சபா	-10.1062
▁வன்முறை	-10.1063
ip	-10.1065
em	-10.1065
▁எண்ணி	-10.1067
▁இணைக்கும்	-10.1068
▁செயல்படும்	-10.1073
▁இதுவும்	-10.1073
▁சார்பாக	-10.1077
▁வாக்கு	-10.108
த்துக்கான	-10.108
▁இதழ	-10.108
ாளரும்	-10.1087
மேல்	-10.1087
▁அட்	-10.1089
▁இறந்தார்	-10.1091
av	-10.1092
வாடி	-10.1095
▁அழிக்க	-10.1096
ற்றை	-10.11
மல்	-10.1102
லங்கா	-10.1105
▁இயங்கி	-10.1111
நாள்	-10.1117
▁சாய்	-10.1118
▁கிங்	-10.1119
▁1983	-10.1121
ah	-10.1121
மாலை	-10.1123
▁1930	-10.1124
க்கூடும்	-10.1125
ின்படி	-10.1133
44	-10.1134
வூ	-10.1138
ஸ்தான்	-10.1139
பொழுது	-10.114
▁இரை	-10.1148
▁வாழ்க்கையை	-10.115
▁காண்ப	-10.1153
ுவதும்	-10.1155
▁திருப்பூர்	-10.1156
யர்கள்	-10.1157
ியம்மன்	-10.116
ரொ	-10.116
▁மீள	-10.1161
வையாகும்	-10.1162
ுடனும்	-10.1166
▁காடு	-10.1168
▁முடிவில்	-10.1171
▁தொடர்ப	-10.1171
ப்பிள்ளை	-10.1175
▁மாற்றங்கள்	-10.1175
மில்	-10.1178
▁வெகு	-10.1181
▁மெக்	-10.1183
▁இராச்சிய	-10.1184
▁கருவிகள்	-10.1185
62	-10.1193
▁சுட	-10.1194
▁தொற்று	-10.1195
▁கிறிஸ்	-10.1198
யாற்ற	-10.1199
▁சரியாக	-10.1202
▁இனம்	-10.1204
▁விளங்கிய	-10.1207
ுடனான	-10.1207
▁இலங்கைத்	-10.1209
▁அழைத்து	-10.1209
▁காத்த	-10.1209
▁இப்பகுதியில்	-10.1211
ராகவும்	-10.1215
▁கிடைக்கிறது	-10.1222
▁அறிகுறி	-10.1224
தவி	-10.1231
▁கற்று	-10.1232
▁தலைமுறை	-10.1235
க்கொ	-10.1235
▁ஊக்க	-10.1237
han	-10.1239
கிறாள்	-10.1239
ச்சர்	-10.1243
ராம்	-10.1245
ங்களுக்கான	-10.1248
▁சித்த	-10.1253
▁இறைவன்	-10.1256
▁பங்கேற்ற	-10.1262
▁கிர	-10.1262
▁செய்யப்பட்டார்	-10.1266
▁எட்	-10.1269
கத்தில்	-10.1271
▁கரூர்	-10.1278
▁மாறுபட்ட	-10.128
▁தொலைபேசி	-10.1283
ஃப	-10.1287
▁சடங்கு	-10.1287
ீஸ்	-10.1289
க்கின்றன	-10.1289
▁அளிப்ப	-10.1291
▁சிறப்ப	-10.1297
▁செர்	-10.1297
▁மக்களும்	-10.1298
▁நிறுவனத்தில்	-10.1301
ச்சல	-10.1302
▁அறிமுக	-10.1307
ேஷன்	-10.1308
▁5%	-10.1309
▁1967	-10.1312
▁போதுமான	-10.1314
▁பயின்றார்	-10.1317
▁நண்பர்	-10.1321
▁நொதி	-10.1321
▁குளோரைடு	-10.1326
me	-10.1326
▁கங்கை	-10.1326
69	-10.1326
த்ரி	-10.1326
தையும்	-10.1332
ஜர்	-10.1337
மக	-10.1341
▁செல்கிறது	-10.1344
▁ஒப்பு	-10.1349
வைத்	-10.1356
மீது	-10.1358
த்தொகை	-10.136
▁உத்தி	-10.137
▁தடுப்ப	-10.1372
▁செயல்பட்டு	-10.1375
ரக	-10.1379
▁ஒட்ட	-10.138
▁நெறிமுறை	-10.1382
▁ஏற்று	-10.1387
▁தெளி	-10.1387
▁வாத	-10.1387
▁34	-10.139
▁கிளா	-10.139
▁ஆப்பிரிக்க	-10.1391
▁கட்டண	-10.1394
▁ஆப்பிரிக்கா	-10.1396
▁தொகுதிகளில்	-10.1397
▁எரிமலை	-10.1398
ங்களிலிருந்து	-10.1402
53	-10.1403
▁இலக்கியம்	-10.1404
ுகிறாள்	-10.1405
▁தானிய	-10.1405
▁போட	-10.1406
▁மென்	-10.1407
▁உருவாக	-10.1415
▁பரம	-10.1416
▁எலி	-10.142
▁நிலப்பகுதி	-10.1423
ழுத்த	-10.1426
33	-10.1427
▁குறிப்பிடுகிறது	-10.1428
▁வீதம்	-10.1433
▁கழி	-10.1434
▁கிழக்கில்	-10.1435
▁உணர்	-10.1437
▁சம்	-10.1439
▁எழுத்தறிவு	-10.1439
▁மணிக்கு	-10.1443
▁இம்மாவட்டத்தின்	-10.1444
▁விலக்க	-10.1448
▁அளவிற்கு	-10.1449
க்கால்	-10.145
▁காணப்பட	-10.1451
ம்மன்	-10.1452
லியம்	-10.1454
sp	-10.1458
டார்	-10.1461
த்திற்குப்	-10.1461
த்தினர	-10.1466
▁உயர்த்த	-10.1476
▁சுட்ட	-10.1476
▁மதிப்பீடு	-10.1477
▁சத	-10.1477
▁கடலூர்	-10.1481
▁எப்போதும்	-10.1482
செய்ய	-10.1483
lo	-10.1486
▁கோரிக்கை	-10.1487
▁பிரதேசத்தின்	-10.1487
▁செல்வாக்கு	-10.1489
▁ரோம	-10.1489
▁சதவீதம்	-10.1491
வரு	-10.1492
ant	-10.1495
வைப்	-10.1495
▁விளக்கம்	-10.1498
▁பாடி	-10.1499
ானார்	-10.1501
▁கற்க	-10.1502
▁இணைப்ப	-10.1508
▁பட்டை	-10.1509
▁முடிந்தது	-10.1511
▁கருவறை	-10.1515
ium	-10.1515
▁நிலைமை	-10.1515
43	-10.1516
▁குழுவின்	-10.1517
ஸ்கோ	-10.1519
▁பாராட்ட	-10.1519
51	-10.1522
ிலி	-10.1522
▁பகுதியின்	-10.1522
▁கருப்ப	-10.1523
க்கூட்ட	-10.1525
▁போட்டிகள்	-10.1526
▁முதற்	-10.1526
▁சமவெளி	-10.1527
▁தெரிகிறது	-10.1532
▁1972	-10.1534
ers	-10.1534
▁சத்திய	-10.1535
▁வேண்ட	-10.1536
▁மாநிலமான	-10.1539
▁சிறுகதை	-10.1541
▁ஆலோசனை	-10.1541
தார்	-10.1543
▁இருந்தவர்	-10.1547
த்தீ	-10.1548
▁தரம்	-10.1549
▁பக்தி	-10.155
▁அன	-10.1552
த்தாக்க	-10.1552
▁அணுக்	-10.1552
திலும்	-10.1553
▁தாவரங்கள்	-10.1554
▁இடமாக	-10.1559
▁வெளிவந்தது	-10.156
▁சவு	-10.156
▁கடமை	-10.1564
▁காலநிலை	-10.1565
▁இயங்க	-10.1566
▁l	-10.1569
▁திண்ம	-10.1571
▁எதிர்ப்ப	-10.1571
▁இராகம்	-10.1573
ாயிற்று	-10.1573
▁;	-10.1574
மாற	-10.1579
ew	-10.1581
▁காணப்படுகின்றது	-10.1581
▁பாதிக்க	-10.1584
▁லிங்க	-10.1585
▁ஆந்திரப்	-10.1586
▁நிறுவிய	-10.1587
கால்	-10.1596
ண்டே	-10.1596
▁ஒருவராக	-10.1597
▁நற்செய்தி	-10.1598
▁இயேசுவின்	-10.1598
▁ஆலயம்	-10.1599
▁சன்னதியும்	-10.1599
▁தேனி	-10.1599
ரியம்	-10.1609
▁செம்ப	-10.161
வீர	-10.161
ுகிற	-10.161
▁பருத்தி	-10.1611
▁தெற்கில்	-10.1618
▁அறிவித்தது	-10.1618
▁1982	-10.1619
▁பண்ணை	-10.162
தள	-10.162
போல	-10.1623
▁இறந்து	-10.1625
ce	-10.1625
▁அய்ய	-10.1629
ம்பூர்	-10.1635
ளிக்க	-10.1635
▁வழங்குகிறது	-10.1638
▁வரலாற்றை	-10.1641
▁குறைந்து	-10.1643
▁37	-10.1644
▁பிரச்சனை	-10.1645
tic	-10.1647
▁1000	-10.165
ep	-10.165
ாரா	-10.1651
▁ஆகியோரின்	-10.1661
▁நீடித்த	-10.1663
▁பெயர்கள்	-10.1664
▁ஆற்றல	-10.1675
போதும்	-10.1676
▁துறைகளில்	-10.1677
ென்று	-10.1679
னைப்	-10.1679
ாகிய	-10.168
▁சொற்கள்	-10.1683
▁ரு	-10.1684
▁வெளிநாட்டு	-10.1686
▁பகுப்பாய்வு	-10.1687
▁என்றே	-10.169
▁ஆண்டுகளாக	-10.1691
▁நிறத்தில்	-10.1694
▁1969	-10.1694
த்துப்	-10.1699
▁தீர்மானிக்க	-10.17
://	-10.1702
த்தலை	-10.1704
▁மார்க்	-10.1711
▁ஒட்டி	-10.1713
▁அதிகரிப்ப	-10.1717
த்திரி	-10.1722
▁பணியாற்ற	-10.1722
ியாக	-10.1727
▁துவங்க	-10.1729
▁சுற்றுச்சூழல்	-10.1732
ஆக	-10.1733
▁காளி	-10.1742
▁தொடக்கம்	-10.1746
▁1962	-10.1752
▁பஞ்சாபி	-10.1752
63	-10.1754
II	-10.1759
வியா	-10.176
▁கருநாடக	-10.176
துறை	-10.1761
▁நிலம்	-10.1762
co	-10.1764
▁லு	-10.1764
▁அரசாங்கம்	-10.1764
83	-10.1765
கத்தின்	-10.177
▁மின்னணு	-10.177
▁கொண்டனர்	-10.1771
கரு	-10.1777
▁பெல்	-10.1782
▁செவ்வ	-10.1784
▁தலைவி	-10.1784
ரியோ	-10.1784
▁ஒன்றி	-10.1785
▁அவற்ற	-10.1787
▁முன்னோடி	-10.1789
▁ஓரி	-10.1793
▁விளையாட்ட	-10.1794
Cl	-10.1795
▁நாவல	-10.1796
ங்கே	-10.1796
▁மேரி	-10.1797
▁பார்வையாளர்	-10.1798
▁பாரதிய	-10.1799
ிருந்தாலும்	-10.1801
▁பீட்டர்	-10.1801
ஜன்	-10.1804
ுமே	-10.1805
▁அளவிட	-10.1806
▁ஏராளமான	-10.1807
ட்டுகள்	-10.1808
▁நூல	-10.1816
▁1948	-10.1819
வில	-10.1824
▁அர்த்த	-10.1824
ழா	-10.1826
ப்படுகின்றனர்	-10.1839
▁ஆற்ற	-10.1843
▁சாரா	-10.1843
▁பணிபுரி	-10.1849
பொருட்	-10.185
▁அளவ	-10.1851
ப்பன்	-10.1853
ப்பிரி	-10.1853
பென்	-10.1854
▁கூர்	-10.186
▁சிந்து	-10.1867
ராம	-10.1871
ஹெ	-10.1875
ுரிமை	-10.1875
ary	-10.1882
41	-10.189
▁ஜனதா	-10.19
ஹோ	-10.1905
▁முருக	-10.1906
▁அனுப்பி	-10.1908
பெற	-10.1911
▁விழி	-10.1911
நாத்	-10.1914
▁மாறியது	-10.1915
▁வகித்த	-10.1915
▁நிறம்	-10.1917
▁வென்றார்	-10.1919
▁தூண்	-10.192
▁திரும	-10.1921
▁ஆங்கிலேயர்	-10.1924
▁பாடல	-10.1924
▁கல்வியை	-10.1928
▁அரிசி	-10.1933
▁வடக்கே	-10.1933
▁திற	-10.1936
த்தவர்	-10.1936
ஞ்சா	-10.1941
யாவின்	-10.1944
▁ஆவார்கள்	-10.1945
ெடுப்ப	-10.1945
▁நிமிட	-10.1946
▁மேற்கில்	-10.1955
ாயிரம்	-10.1959
▁பட்டத்தை	-10.1964
▁தகவல்களை	-10.1967
வேண்டிய	-10.1969
▁மேற்கொள்ளப்பட்ட	-10.1971
▁களில்	-10.1979
திறன்	-10.1979
▁பழங்கால	-10.1982
மண்டல	-10.1983
▁உயிரணுக்கள	-10.1986
▁பேண	-10.1987
▁நடத்தப்பட்ட	-10.1988
▁அவனை	-10.1991
▁கொண்டிருக்கிறது	-10.1995
▁தீர்க்க	-10.1996
▁பொருட்டு	-10.1996
Y	-10.1997
▁பிரித்து	-10.1999
54	-10.2
▁என்றழைக்கப்படும	-10.2003
▁பணியில்	-10.2004
▁முற்றிலும்	-10.2004
மேன்	-10.2005
▁நூறு	-10.2007
▁வாய்ப்ப	-10.2014
▁தனியாக	-10.202
▁துறவி	-10.2021
▁சகோதர	-10.2022
▁1979	-10.2023
▁ஓட்டங்கள்	-10.2027
▁சோம	-10.2028
ரையும்	-10.2037
▁அணுகுமுறை	-10.2041
▁பாசு	-10.2045
கூர்	-10.2046
ீன்	-10.2049
▁செய்தல்	-10.2055
up	-10.2057
▁கருதப்படும்	-10.2058
oc	-10.2058
▁கன்	-10.206
▁நெருங்கிய	-10.206
▁நடித்து	-10.206
▁செய்வதற்கு	-10.2061
▁வணங்க	-10.2072
▁உச்சி	-10.2081
▁பேராசிரியராக	-10.2081
வியல	-10.2087
▁பிடித்து	-10.2097
▁நாடுகளுக்கு	-10.2104
▁பந்த	-10.2112
▁உடனடியாக	-10.2113
▁e	-10.2115
▁விண்ண	-10.2118
▁கொண்டிருப்ப	-10.2123
தற்	-10.2124
▁1952	-10.2132
ide	-10.2132
▁பழனி	-10.2133
▁உட்படுத்த	-10.2134
▁முதன்முதலில்	-10.214
▁1975	-10.2142
▁சித்திர	-10.2142
▁ஏற்படுத்தி	-10.2143
▁நாகரிக	-10.2143
ச்சேரி	-10.2147
▁48	-10.2147
ப்பர	-10.2154
▁உளவியல்	-10.2157
▁பாத	-10.2158
▁ஏற	-10.2159
▁300	-10.216
▁கௌ	-10.2163
▁தெரு	-10.2167
▁புதை	-10.2168
▁அனைத்துலக	-10.2172
▁வென்று	-10.2172
▁1976	-10.2172
▁or	-10.2175
▁நாய்	-10.2175
▁தொடர்வண்டி	-10.218
ந்தன்	-10.2182
த்தள	-10.2182
▁தீர்மான	-10.2186
▁அப்பா	-10.219
▁அருங்காட்சியக	-10.2192
▁கணக்கு	-10.2193
▁திட	-10.2198
est	-10.2202
ம்பை	-10.2202
▁என்பதைக்	-10.2211
விட்டார்	-10.2211
▁இறைவன	-10.2214
சார்ந்த	-10.2217
ப்படு	-10.222
வட	-10.222
வெண்	-10.222
ana	-10.2226
கண	-10.2226
ci	-10.2231
▁நீதிபதி	-10.2233
▁செலவ	-10.2236
▁வழங்கியது	-10.2237
▁ராம்	-10.2238
▁விலங்குகள்	-10.2254
▁காதல	-10.2255
▁எனலாம்	-10.2255
▁டூ	-10.2257
▁உயிரணு	-10.2257
ஸ்டன்	-10.2257
▁தலைநகர்	-10.2257
▁மருந்த	-10.2258
▁காதலி	-10.2262
▁என்பதே	-10.2265
▁பிரித்த	-10.2269
▁1974	-10.2272
▁மாகாணம்	-10.2276
▁தவற	-10.228
▁குறைந்தது	-10.228
▁நிரல்	-10.2282
▁அக்காலத்தில்	-10.2286
▁உறுதிப்படுத்த	-10.2287
▁பயன்பாட்டு	-10.229
ொலி	-10.2291
▁அப்துல்	-10.2292
he	-10.2293
▁முதலாக	-10.2294
▁கூட்டமைப்பு	-10.2297
▁கடலில்	-10.2297
மானி	-10.2299
▁இறக்க	-10.2303
னைக்	-10.2306
த்தொ	-10.2311
▁வன்	-10.2311
▁குமார்	-10.2312
▁செய்திகள்	-10.2315
▁நிகழ்வுகள்	-10.2317
▁அமைச்சராக	-10.2319
▁ஆய்வக	-10.232
▁மாற்றப்பட்டது	-10.2331
▁கதைகள்	-10.2333
▁1956	-10.2333
_1	-10.2334
▁வயத	-10.2335
▁பகுதிகளிலும்	-10.2337
▁’	-10.2337
▁முனிவர்	-10.2341
▁வேல	-10.2354
பேர்	-10.2357
▁வசித்து	-10.2357
▁வெட்டி	-10.2359
க்கொண்டார்	-10.2364
▁அழைக்கப்பட்டது	-10.2365
▁இனி	-10.2365
▁பேரா	-10.2366
வியலில்	-10.2367
▁சீர்	-10.2371
▁வரலாற்ற	-10.2372
ாக்சைடு	-10.2372
▁1964	-10.2373
▁(2	-10.2375
▁கட்டுப்பாட்ட	-10.2377
▁பெற்றுள்ளார்	-10.2377
▁ஆற	-10.2378
▁அமைக்கப்பட்டது	-10.2381
ட்டான்	-10.2383
▁உபசன்னதி	-10.2389
▁சிலி	-10.2389
500	-10.2393
▁நிரப்ப	-10.2399
▁உடன்படிக்கை	-10.2402
யாய்	-10.2404
▁இவ்விரு	-10.2406
▁க்கு	-10.2409
▁கற்ப	-10.241
▁கொண்டே	-10.2411
▁வழக்கில்	-10.2412
▁தமிழகத்தின்	-10.2416
பெருமாள்	-10.2419
தனால்	-10.2423
வாழ்	-10.2423
▁அறிவிக்க	-10.2435
▁நோபல்	-10.2435
▁பெரும்பான்மை	-10.2437
▁தெரிவித்தார்	-10.2442
▁புகைப்பட	-10.2447
ங்கர்	-10.2449
▁பணிகள்	-10.2451
▁இடைநிலை	-10.2453
▁கணக்கில்	-10.2459
▁இயற்ற	-10.2472
▁மூட	-10.2472
▁கொடு	-10.2475
▁கோப்பு	-10.2477
▁வழக்கமான	-10.248
▁என்றார்	-10.248
▁ஆராய	-10.248
▁பெயரால்	-10.2484
▁வீடியோ	-10.2485
▁ஜீ	-10.2486
திர	-10.249
▁சூரியன்	-10.2495
▁அழற்சி	-10.2496
▁இடையிலான	-10.2496
▁ராபர்ட்	-10.2496
▁com	-10.2502
▁நகரை	-10.2502
ியர்	-10.2503
▁இசைக்குழு	-10.2504
▁விநியோக	-10.2504
னூ	-10.2508
▁பதில்	-10.251
சூர்	-10.2516
▁திறனை	-10.2522
▁தன்னாட்சி	-10.2526
▁படிப்ப	-10.2527
▁விலகி	-10.2531
வண	-10.2533
▁சியா	-10.2534
▁மகிழ்ச்சி	-10.2535
வதில்லை	-10.2539
திற	-10.2544
▁நடந்தது	-10.2544
▁The	-10.2546
▁வீச	-10.2557
▁அபி	-10.2558
▁முன்பாக	-10.256
▁காமிகாகம	-10.2566
ந்தோ	-10.2567
▁கிரே	-10.2573
ிருப்பது	-10.2573
▁அறிவித்தார்	-10.2577
▁போக்க	-10.2578
▁அதிகரித்த	-10.258
▁கருதி	-10.2587
▁இருப்பு	-10.2588
▁தேவைப்படும்	-10.2588
▁ஹார்	-10.2591
▁விஜய்	-10.2594
▁நம்பப்படுகிறது	-10.2594
▁படங்களில்	-10.2595
▁முளை	-10.2596
qu	-10.2597
▁பிளே	-10.2597
ப்படுத்தும்	-10.2598
த்தேர்	-10.2599
▁நோக்கம்	-10.2601
முதல்	-10.2603
▁செயலாக்க	-10.2603
வர்களை	-10.2605
சனின்	-10.2605
▁இசையில்	-10.261
CO	-10.261
▁கிரக	-10.2611
க்கெட்	-10.2617
▁|	-10.2618
▁ஒழி	-10.2621
▁கடின	-10.2624
ப்பாட்ட	-10.2625
▁கும்ப	-10.2626
ik	-10.2628
ேற்றம்	-10.2633
▁விடய	-10.2634
▁மடங்கு	-10.2637
▁குன்ற	-10.2639
▁மாநகராட்சி	-10.2641
▁ஏக்கர்	-10.2641
▁பணிபுரிந்த	-10.2642
ம்பாளையம்	-10.2643
▁அடைந்து	-10.2644
▁என்றழைக்க	-10.2644
▁நின்ற	-10.2645
▁காணப்பட்டது	-10.2645
யடைந்த	-10.2648
▁ஆண்டுதோறும்	-10.265
▁பிரதமர்	-10.2651
ரியன்	-10.2652
மின்றி	-10.2655
▁38	-10.2663
▁ஆரம்பிக்கப்பட்ட	-10.2664
ாட	-10.2668
▁பாட்ட	-10.2669
▁1965	-10.2673
▁நாவல்	-10.2673
▁தன்மையை	-10.2675
▁கிளி	-10.2675
▁படிப்பை	-10.2681
▁விடுதி	-10.2682
யேற்ற	-10.2683
▁முடியவில்லை	-10.2685
▁அழைப்ப	-10.2685
▁கியூ	-10.2692
ப்புள்ளி	-10.2693
▁போதிலும்	-10.2695
▁மடி	-10.2702
ஞான	-10.2703
▁1957	-10.2704
த்துறையில்	-10.2709
▁பங்களிப்பு	-10.2709
▁காலத்திற்கு	-10.271
▁வந்தன	-10.2711
Al	-10.2712
▁வளிம	-10.2714
▁அன்ப	-10.2716
▁ஆகவே	-10.2719
ாரி	-10.272
▁பரப்பளவில்	-10.272
▁பொருளாக	-10.272
▁அருங்காட்சியகம்	-10.2721
வுட்	-10.2721
▁ஐரோப்பாவில்	-10.2723
▁தடுப்பு	-10.2727
▁சமநிலை	-10.2728
▁எனில்	-10.2728
ாங்க	-10.2729
▁நன்றாக	-10.2734
▁நிருவாக	-10.2735
▁உறிஞ்ச	-10.2735
▁தொட	-10.2737
▁உரோம	-10.2738
▁அருகிலுள்ள	-10.2742
▁நாடாக	-10.2748
▁எர்	-10.2749
▁தகவல்கள்	-10.2751
▁அறியப்படும்	-10.2752
யாள	-10.2754
▁மாட	-10.2759
▁ஏற்றுமதி	-10.2766
▁கல்யாண	-10.2767
▁காவல்துறை	-10.2767
▁ஆட்சியின்	-10.277
da	-10.2773
▁ஒழுங்க	-10.2773
▁திரைப்படங்கள்	-10.2773
▁அரசியல்வாதியும்	-10.2782
▁ப்ர	-10.2782
▁நூலின்	-10.2783
▁இயல்	-10.2786
▁கழகத்தின்	-10.2793
▁முடிவுகள்	-10.2794
க்கோள	-10.2796
▁முடிவுக்கு	-10.2797
▁கொல்கத்தா	-10.2797
▁விரைவில்	-10.2798
▁பெருமளவில்	-10.2798
▁தஞ்சை	-10.2798
ian	-10.2798
▁பொய்	-10.2802
சிஸ்	-10.2802
கிற	-10.2806
▁முது	-10.2806
▁சமன்பாடு	-10.2808
▁k	-10.2809
▁டிரை	-10.2812
வென்	-10.2813
▁அடுக்க	-10.2813
▁நினைவ	-10.2815
னான	-10.2816
னுக்கும்	-10.2816
▁கால்நடை	-10.2819
ff	-10.282
▁மொழியை	-10.2822
▁ஃபா	-10.2822
▁எட்ட	-10.2824
▁தெற்கே	-10.2825
▁நூல்களில்	-10.2828
▁ஒருமுறை	-10.2829
▁ஆக்சிசனேற்ற	-10.2834
க்கட்டு	-10.2836
பிரா	-10.2836
▁வருமான	-10.2839
▁இறப்ப	-10.2842
▁வெப்பநிலையில்	-10.2843
▁இலிருந்து	-10.2844
டென்	-10.2847
நாள	-10.2847
▁இந்ந	-10.2848
ுமிட	-10.285
▁பொட்டாசியம்	-10.2851
▁மற்றவர்	-10.2853
▁மூன்ற	-10.2853
▁பட்டி	-10.2854
யிட்ட	-10.2856
▁இராச்சியம்	-10.2858
▁அறிமுகமானார்	-10.2867
▁அகில	-10.287
▁டெக்	-10.2872
▁பெரி	-10.2876
▁ஆந்திர	-10.2876
▁மறைந்த	-10.2877
▁விளங்க	-10.2881
▁கேரளா	-10.2883
▁ராணி	-10.2886
ுதலை	-10.2886
வல்ல	-10.2891
வாதம்	-10.2896
▁செம்ம	-10.2903
▁மேற்கத்திய	-10.2904
▁கந்தக	-10.2905
வினால்	-10.2907
▁தொழில	-10.2912
▁கண்டுபிடிப்பு	-10.2914
ப்பிய	-10.2914
▁நடவடிக்கைகள்	-10.2915
ப்பற்றி	-10.2916
▁அமைந்திருக்கும்	-10.2916
▁புதுச்சேரி	-10.2916
▁போய்	-10.2917
▁சான்று	-10.2919
க்கழக	-10.2922
▁ஏற்படுத்தும்	-10.2923
ொன்ற	-10.2923
▁வழியே	-10.2924
▁தலைவராகவும்	-10.2927
▁தொடர்ந்த	-10.2932
▁அணியில்	-10.2932
▁இழப்பு	-10.2933
▁காலி	-10.2934
ராஜன்	-10.2934
▁இடங்கள்	-10.2937
ினுள்	-10.2938
▁1981	-10.2939
▁பொருளின்	-10.294
▁முடிகிறது	-10.2942
▁வெப்பம்	-10.2944
▁நடிப்ப	-10.2944
▁துன்ப	-10.2954
▁நிறுத்தி	-10.2959
சனம்	-10.2962
▁தோன்றி	-10.2962
▁சூழலில்	-10.2964
▁பெற்றிருந்த	-10.2968
▁தலைநகரான	-10.2968
▁தொண்டை	-10.297
▁சதுரங்க	-10.2973
ளின்	-10.2976
▁கோவா	-10.2981
க்குறை	-10.2982
▁நுழைந்த	-10.2986
▁நடுவில்	-10.2989
▁ஃ	-10.299
▁கட்டத்தில்	-10.2994
▁ராணுவ	-10.3001
மில்லை	-10.3007
▁நான்காம்	-10.3013
▁நபர	-10.3016
வரம்	-10.3016
▁எசுப்பானிய	-10.3018
ப்பெருமாள்	-10.302
ru	-10.3031
▁பிரபு	-10.3042
▁துருவ	-10.3043
▁ஆஸ்	-10.3044
ாலய	-10.3047
மிழ	-10.3048
▁மொழியாக	-10.3052
▁பில்	-10.3055
ேசுவரர்	-10.3058
▁கழித்து	-10.3063
▁42	-10.3064
▁எச்ச	-10.3064
▁அறக்கட்டளை	-10.3067
▁தொகுதியின்	-10.3067
▁குழுவில்	-10.307
▁சீக்கிய	-10.3075
▁சுல்தான்	-10.3076
னையும்	-10.3079
▁படகு	-10.3079
▁சித்தரிக்க	-10.3079
▁குடியேற	-10.3082
த்திறன்	-10.3083
நிலையில்	-10.3084
▁தலைநகராக	-10.3085
ாசிரியர்	-10.3085
▁நகருக்கு	-10.3086
▁வகுத்த	-10.3088
இர	-10.309
கோட்	-10.309
▁1973	-10.3091
க்கிர	-10.3093
பட்டினம்	-10.3094
▁47	-10.3095
கோள்	-10.3097
ப்பாட	-10.3098
ினி	-10.3098
▁இசைக்	-10.31
ச்சே	-10.3102
▁நகரங்களில்	-10.3103
ாகவே	-10.3104
▁மாடு	-10.3104
நாட்ட	-10.3106
▁64	-10.3106
▁தலைப்பில்	-10.3107
▁அலுவலகம்	-10.3107
▁இத்தாலி	-10.3107
▁1968	-10.3113
art	-10.3115
▁எல்லாம்	-10.3119
▁மீனாட்சி	-10.3121
▁திரைக்கதை	-10.3122
▁அரசி	-10.3124
▁கடும்	-10.3125
▁தலைநகரம்	-10.3126
▁re	-10.3127
மட	-10.3128
▁பாக்கித்தான்	-10.3129
▁சொன்ன	-10.3133
▁நாயக	-10.3133
▁எஞ்சிய	-10.3134
▁அண்மையில்	-10.3135
▁ஓடி	-10.3138
▁அதிகாரம்	-10.3138
▁வடிவமைத்த	-10.3138
▁ஷெ	-10.3141
▁எடுத்துச்	-10.3142
▁ஒருங்கிணைந்த	-10.3143
முடியாத	-10.3147
▁மருத	-10.3147
▁நிலவ	-10.3148
▁சங்கர	-10.3149
காந்த	-10.315
ப்பிட	-10.3154
▁கதாப்பாத்திர	-10.3154
▁எதிர்பார்க்க	-10.3155
▁செரு	-10.3159
▁கொன்ற	-10.3163
கோட்டை	-10.3165
▁இத்திட்ட	-10.317
களு	-10.3176
▁உடல்நல	-10.3177
▁பயன்படுகின்றன	-10.3179
▁மஞ்ச	-10.3179
▁கருதுகின்றனர்	-10.3181
ப்பாடல்	-10.3181
ியவர்	-10.3184
வராகவும்	-10.3186
▁திரைப்படத்தின்	-10.3188
ம்மாள்	-10.319
▁அடிப்படையாக	-10.319
▁பயணிகள்	-10.3193
▁விளையாட்டுக்	-10.3195
▁ஊழியர்	-10.3198
▁இருவர	-10.3202
▁இம்மா	-10.3203
ங்களைச்	-10.3209
▁குளம்	-10.3212
▁(200	-10.3212
▁வங்க	-10.3214
டோன்	-10.3216
▁கம்பெனி	-10.3221
விடம்	-10.3224
பேசி	-10.3225
▁டிவி	-10.3225
▁தொடர்பாக	-10.3226
வெப்ப	-10.3231
▁ஆகியோர	-10.3232
▁நச்சு	-10.3235
ாக்கி	-10.3235
▁அவர	-10.3237
ண்ணா	-10.3245
▁லட்சுமி	-10.3247
mo	-10.325
க்கிறார்	-10.3254
▁சாமி	-10.3259
▁கொண்டிருந்தார்	-10.3259
களுடனும்	-10.326
▁இந்துக்	-10.326
▁நூற்றாண்ட	-10.3269
▁தானே	-10.3278
▁என்பவரின்	-10.3279
▁ஆதரவ	-10.3282
ட்ரிக்	-10.3282
▁கிழக்கிந்திய	-10.3287
விர	-10.3291
▁கணிக்க	-10.3301
ுகையில்	-10.3302
▁முழுமை	-10.3304
▁வேட	-10.3306
▁பாகை	-10.3307
▁தயாரிப்பாளர்	-10.3307
▁முதுகலை	-10.331
▁சிவாஜி	-10.3311
▁பிறப்ப	-10.3312
▁ஈட்ட	-10.3313
த்திரு	-10.3316
கோவில்	-10.332
நோக்கி	-10.3326
வள்	-10.3326
வச	-10.3331
▁தலைமையிலான	-10.3335
▁கில்	-10.3336
▁இம்மொழி	-10.3337
▁ஆட்சியில்	-10.334
▁அதிகபட்ச	-10.3345
யாளர	-10.3348
▁வைத்திருந்த	-10.3349
▁கிரிக்க	-10.3354
▁தாங்கி	-10.3359
-18	-10.336
▁என்பதுடன்	-10.3363
ical	-10.3365
வாசி	-10.3367
▁வழங்கினார்	-10.3369
▁மனிதன்	-10.337
▁நர	-10.3374
57	-10.3377
சாரி	-10.3382
▁தேர	-10.3392
▁சூப்பர்	-10.3393
▁சொத்து	-10.3397
▁பயன்பட்ட	-10.3399
▁போர	-10.3401
▁தேற்ற	-10.3401
களுக்கிடையே	-10.3405
▁வர்க்க	-10.3405
▁மரங்கள்	-10.3406
▁என்பதில்	-10.3408
▁1920	-10.3408
▁படுகொலை	-10.3411
▁இலாப	-10.3411
▁வலைத்தள	-10.3412
▁1963	-10.3413
பெல்	-10.3413
▁பொருளியல்	-10.3414
▁Re	-10.3417
▁பிரெ	-10.3429
▁அறிமுகம்	-10.343
▁வடகிழக்கு	-10.3434
▁உடு	-10.3434
▁வைப்ப	-10.344
▁சிவபெருமான்	-10.3442
▁மாணவ	-10.3443
▁பக்கம்	-10.3443
▁உரிமைகள்	-10.3443
சேர்	-10.3444
▁சம்பவ	-10.3446
▁சமயங்களில்	-10.3447
▁அருவி	-10.3448
▁ஜு	-10.345
▁உணர்ச்சி	-10.345
▁இவற்றுள்	-10.345
▁கூடும்	-10.3451
▁வள்ளி	-10.3451
▁முன்பே	-10.3453
ரிஸ்	-10.3457
ப்படுவதால்	-10.3458
▁என்பத	-10.3461
▁39	-10.3465
ியும்	-10.3465
▁பகுதியான	-10.3467
▁வரையறுக்கப்பட்ட	-10.3469
வலி	-10.3474
ப்பாறை	-10.3478
▁உதாரண	-10.3478
▁v	-10.3479
▁ஊடாக	-10.3482
▁இந்நகரம்	-10.3483
ara	-10.3483
போன்ற	-10.3491
▁சேவைகள்	-10.3494
▁வளர	-10.3497
▁கிராம்	-10.3498
முற்ற	-10.3504
ரூப	-10.3507
▁சூத்திர	-10.3508
▁தமிழர்கள்	-10.351
▁தெரிந்த	-10.3511
▁கழகத்தில்	-10.3512
மனை	-10.3515
கரை	-10.3515
போர்ட்	-10.3515
▁பணியை	-10.3519
விரு	-10.352
▁எழுத்துக்	-10.3521
▁அவர்களால்	-10.3525
ோம்	-10.3526
son	-10.353
ல்லாத	-10.3533
▁அங்கீகரிக்க	-10.3536
▁தாக்கம்	-10.3536
▁கடினமான	-10.3537
▁பாலைவன	-10.3537
ற்கா	-10.3542
▁குறிப்பிடப்பட்ட	-10.3543
▁அமைவ	-10.3554
▁நடுநிலை	-10.3555
ாம	-10.3558
▁இம்முறை	-10.3565
▁மரு	-10.3567
▁முதன்முதலாக	-10.357
ாசி	-10.3573
▁செய்யப்பட	-10.3577
▁வெங்கட	-10.358
▁ஒதுக்க	-10.3581
▁இவ்வாறான	-10.3581
கரி	-10.3585
▁மண்டபம்	-10.3586
▁கொண்டிருக்க	-10.3588
▁முறையான	-10.359
ராஜா	-10.3594
▁இருந்தபோது	-10.3596
▁முடிக்க	-10.3597
▁விளைவிக்க	-10.3597
▁டச்சு	-10.3597
▁உதவியுடன்	-10.36
▁காட்டுகிறது	-10.3603
ாவார்	-10.3604
▁உணர்ந்த	-10.3604
uc	-10.3608
if	-10.3611
ib	-10.3611
▁ஹீ	-10.3613
கிழ	-10.3613
தைப்	-10.3614
▁நாற்	-10.3615
▁கரையில்	-10.362
▁அதிகாரப்பூர்வ	-10.3621
த்தர்	-10.3622
ction	-10.3622
ென	-10.3625
ருவி	-10.3626
▁செருமனி	-10.3628
▁எனத்	-10.3631
▁பிட்	-10.3633
விற்கும்	-10.3633
▁திறந்து	-10.3634
பாட்டை	-10.3634
▁பெருமளவு	-10.364
▁பசுமை	-10.3649
▁பங்கேற்க	-10.3651
▁பகுதிக்கு	-10.3651
▁உடற்	-10.3654
▁பிற்காலத்தில்	-10.3654
▁தாள	-10.3656
பாட்டு	-10.3656
▁பலி	-10.3656
த்தன்	-10.3659
▁படிப்படியாக	-10.3662
ive	-10.3663
▁எதிர்மறை	-10.3664
பிற	-10.3664
tion	-10.3671
டூ	-10.3672
▁அனி	-10.3673
▁தோற்றுவிக்க	-10.3674
▁எதிர	-10.3674
▁மரபுவழி	-10.3679
கரம்	-10.3683
▁தொடங்கப்பட்ட	-10.3684
▁சம்பந்த	-10.3685
▁பெரம்பலூர்	-10.3685
முத்து	-10.3694
▁சதவிகித	-10.3697
▁1945	-10.37
▁அச	-10.3704
▁பாகிஸ்தான்	-10.3705
▁இலத்தீன்	-10.3709
▁தட்டு	-10.371
▁சனி	-10.371
▁வரையான	-10.371
▁அவ்	-10.3717
மயமாக்க	-10.372
▁விழுக்காடு	-10.372
▁மாநாடு	-10.3721
▁அறிஞர்கள்	-10.3723
▁எலக்ட்ரான்	-10.3724
கீழ்	-10.3725
▁ஏழை	-10.3725
▁அஸ்	-10.3726
▁கோயிலின்	-10.3727
▁உன்	-10.373
▁மனோ	-10.3731
▁கப்பல	-10.3734
▁தொகுதிகள்	-10.3735
▁புல்	-10.3737
▁மகனாக	-10.3738
▁தீர்ப்ப	-10.3747
க்கருவி	-10.3747
▁மீள்	-10.3751
சுந்தர	-10.3751
▁for	-10.3757
அள்ளி	-10.3763
-3	-10.3766
க்கதை	-10.3773
▁தங்கி	-10.3776
▁தவிர்த்து	-10.3776
பிள்ளை	-10.3776
▁குழுக்கள்	-10.3776
▁பிரதிநிதித்துவ	-10.378
▁ஷி	-10.3781
▁உடையது	-10.3781
▁இந்திர	-10.3782
▁Co	-10.3783
▁முத்திரை	-10.3785
ாி	-10.3786
முன்	-10.3789
▁உறுப்பினரும்	-10.3789
ேசுவர	-10.379
▁வீழ்த்த	-10.3791
காலம்	-10.3793
ிறான்	-10.3795
▁பாலியல்	-10.3796
▁பாதிப்ப	-10.3797
▁செயலி	-10.3799
▁நிலவிய	-10.38
▁காக்க	-10.3801
▁கொடுப்ப	-10.3802
▁வேட்டையாட	-10.3803
▁மேன்	-10.3804
▁பெறப்பட்ட	-10.3808
▁வேட்பாளராக	-10.3809
▁முடித்த	-10.3812
▁பகு	-10.3814
▁பான	-10.3825
▁முதலீடு	-10.3826
▁ஆசிரிய	-10.3829
▁65	-10.3831
▁என்பதன்	-10.3833
▁இந்திரா	-10.3835
▁கொடை	-10.3836
மடை	-10.3838
ாபாத்	-10.384
▁மாவட்டத்திலுள்ள	-10.3842
▁வசதிகள்	-10.3843
▁வரைய	-10.3847
▁என்பவரை	-10.3857
▁மனம்	-10.3857
ினைக்	-10.3859
ast	-10.3863
டுப்பாட்டக்காரர்	-10.387
ாபுரம்	-10.3874
▁புவியின்	-10.3878
மாகவே	-10.3878
▁ஆணை	-10.3878
▁நீதிமன்றம்	-10.3878
மென	-10.388
▁வைணவ	-10.388
ுருவ	-10.388
வர்களில்	-10.388
▁சட்டத்தின்	-10.3881
▁மைக்கேல்	-10.3885
▁நன்ன	-10.389
▁மென்பொருள	-10.3891
▁1954	-10.3891
சியம்	-10.3891
▁இனப்பெருக்க	-10.3895
▁நிறுவினார்	-10.3897
டையும்	-10.3899
மினி	-10.3906
▁வானியல	-10.3906
▁தொட்டி	-10.3909
▁வில்ல	-10.3911
படும்	-10.3916
ின்றார்	-10.3916
▁விரிவான	-10.3919
▁52	-10.3923
▁படைப்ப	-10.3927
▁அறி	-10.3927
மத	-10.3928
▁கிறிஸ்தவ	-10.3929
▁தொடரின்	-10.3929
▁விரும்பி	-10.393
லொ	-10.3933
▁மாறு	-10.3937
டான	-10.3938
ய்யா	-10.3939
காம	-10.3939
▁கருப்பை	-10.3939
▁நிறுவனத்தை	-10.3941
▁அலங்கார	-10.3944
ாளராகவும்	-10.3946
▁கால்வாய்	-10.3946
▁55	-10.3951
▁உணர்த்த	-10.3956
த்தியா	-10.3957
▁நொ	-10.3957
▁சோழன்	-10.3958
ுணர்வு	-10.396
▁அன்பு	-10.3961
▁400	-10.3962
▁150	-10.3963
▁சூழப்பட்டுள்ளது	-10.3963
▁இருக்கின்றது	-10.3964
▁நடுவண்	-10.3964
▁கலப்பு	-10.3967
▁ஒப்பிட	-10.3969
▁ஒருங்கிணை	-10.3969
வரான	-10.397
க்கன்	-10.397
▁போலி	-10.3971
▁தொடர்ச்சியான	-10.3977
▁தனிநபர்	-10.3978
▁கிளர்ச்சி	-10.398
தைத்	-10.3981
ுள்ளதாக	-10.3984
றே	-10.3985
ob	-10.3986
▁விருதுகள்	-10.3987
▁இப்பள்ளி	-10.399
▁கடுமையாக	-10.3992
▁நிறுவனங்கள	-10.3994
ரிக்க	-10.3997
CH	-10.4001
▁சேர்க்கை	-10.4002
▁பிரிந்து	-10.4002
▁கிடையாது	-10.4004
▁நீட்டி	-10.4005
▁கல்லறை	-10.4008
▁சிறையில்	-10.401
றிந்த	-10.4011
▁கதிரியக்க	-10.4016
▁மாளிகை	-10.4016
▁சட்டப்படி	-10.4018
▁போட்டியிட்ட	-10.402
டியம்	-10.4024
வற்றில்	-10.4027
▁கோவிந்த	-10.4029
▁வடமொழி	-10.4029
காட்டி	-10.4035
▁பெற்றுள்ளன	-10.4036
▁ஜூ	-10.4041
ுகை	-10.4046
▁தேவார	-10.4047
ிருப்பதாக	-10.4053
வேக	-10.4057
ran	-10.4059
▁ஹரி	-10.4063
▁பேரவை	-10.4072
▁மதிப்பிட	-10.4072
▁இராச்சியத்தின்	-10.4073
▁பொதுச்	-10.4074
▁அம்பா	-10.4077
▁வசன	-10.4079
▁நடப்ப	-10.4083
ந்தே	-10.4089
▁பிடி	-10.409
▁கிழக்க	-10.409
▁மாறிய	-10.4092
▁மனிதர்கள்	-10.4097
▁காலமானார்	-10.41
▁யாழ்ப்பாணம்	-10.4102
▁கோழி	-10.4103
▁சந்திக்க	-10.4104
ுவதற்கும்	-10.4104
▁கவிதைகள்	-10.4104
▁காண்க	-10.4105
▁மூவ	-10.4105
சுர	-10.411
▁உரிம	-10.4112
▁தொழில்நுட்பம்	-10.4114
▁சீனாவின்	-10.4115
▁வளர்ப்பு	-10.4116
▁அங்கிருந்து	-10.412
டைந்து	-10.4123
▁தொடர்ச்சி	-10.4123
நோய்	-10.4128
ானந்த	-10.4132
▁வகுப்ப	-10.4136
▁அணிக்காக	-10.414
குள	-10.414
▁சுட்டு	-10.414
ிடை	-10.4141
▁ட்ர	-10.4143
▁பாண்டியன்	-10.4144
ப்பார்	-10.4146
▁சேமிக்க	-10.4149
▁1966	-10.4151
▁அம்ச	-10.4151
புறம்	-10.4152
மாண	-10.4153
▁கொன்று	-10.4154
▁தண்டு	-10.4155
டொ	-10.4157
▁துண்டு	-10.4157
▁43	-10.4158
▁புரட்டாசி	-10.4161
▁தேசியப்	-10.4162
▁ஒத்து	-10.4162
▁நடைமுறையில்	-10.4163
po	-10.4163
▁உட்புற	-10.4167
▁சல்	-10.4167
▁கிழக்கே	-10.4168
கூற	-10.4173
▁பாடகர்	-10.4175
2)	-10.4176
▁தொகுதிக்கு	-10.4178
இந்த	-10.4184
▁படையினர	-10.4187
ப்பட்டிருக்கும்	-10.4191
▁வைத்துக்	-10.4191
பாட்ட	-10.4191
செயல்	-10.4191
▁கூடு	-10.4194
யாத	-10.4194
▁தலைவன்	-10.4194
▁ஸ்டா	-10.4196
இரு	-10.4201
▁வாடிக்கையாளர்	-10.4202
▁திருவா	-10.4203
▁நீளமான	-10.4209
▁கோட்பாட்ட	-10.421
ிலிருந்த	-10.4212
ுறவு	-10.4213
▁கட்டமைப்ப	-10.4214
நிலைய	-10.4215
▁கருத்தை	-10.4221
ப்பெற	-10.4222
▁பனை	-10.4226
ராமன்	-10.4231
▁செயல்பட்ட	-10.4232
▁பத்திரிக்கை	-10.4234
▁தெரியவில்லை	-10.4238
▁பயன்பாட்டில்	-10.424
▁இவரே	-10.4241
களாகக்	-10.4242
▁எண்கள்	-10.4245
▁தனித்தனி	-10.4246
ெண்	-10.4246
▁ஒட்டுமொத்த	-10.4246
▁எஃப்	-10.4247
▁இதற்கான	-10.4247
ee	-10.4248
தமிழ்	-10.4248
▁தூரத்தில்	-10.425
த்திரை	-10.4255
ங்களே	-10.4256
▁தவறான	-10.426
▁அப்படி	-10.426
யிட்டு	-10.426
லஸ்	-10.4263
▁44	-10.4263
▁குறிப்பிடுகிறார	-10.4263
தொரு	-10.4264
க்கல்வி	-10.4268
▁இளங்கலை	-10.4271
▁வெற்றிகரமாக	-10.4271
▁ஒர்	-10.4273
▁46	-10.4278
யூட்ட	-10.428
ுக்குள்	-10.4286
டைகிறது	-10.4286
Br	-10.4288
ம்பாடி	-10.4291
யடி	-10.4291
▁பத்திர	-10.4296
▁கரைசல	-10.4299
▁நாட்டுப்புற	-10.43
%)	-10.4308
ழற்சி	-10.4313
▁தமிழ்ச்	-10.4313
▁அவற்றுள்	-10.4315
லியன்	-10.4316
▁சன்னதிகளும்	-10.4317
▁காரணத்தால்	-10.4325
▁பிற்பகுதியில்	-10.433
▁குறைவு	-10.4333
ஆவது	-10.4334
▁சூழ	-10.4335
▁கிழ	-10.4336
▁கலா	-10.434
▁இரயில்	-10.4341
▁வசந்த	-10.4343
சஸ்	-10.4344
▁கடவுளின்	-10.4346
▁உணவாக	-10.4349
▁மதம்	-10.4351
▁தற்கொலை	-10.4358
▁வச	-10.436
▁முகலாய	-10.436
▁நிகழ	-10.4364
▁அபாய	-10.4372
▁என்பதையும்	-10.4372
▁சுவாச	-10.4373
▁மக்கள	-10.4376
▁காட்டும்	-10.4378
▁ஆரணி	-10.4379
நாக	-10.4383
▁மேற்கோள்	-10.4384
▁மெல்ல	-10.4387
▁சேர்த்த	-10.4389
மாற்றம்	-10.4397
▁ஈடு	-10.4397
வதால்	-10.4397
▁கோடை	-10.4397
▁சேர்மங்கள்	-10.4398
▁அமைகிறது	-10.4398
▁ராக்	-10.4401
▁மயிலாடுதுறை	-10.4407
▁குளோ	-10.4408
▁வகையைச்	-10.4413
lu	-10.4418
▁இவ்வா	-10.4419
▁மோசமான	-10.442
ev	-10.4422
▁1958	-10.4423
▁பாம்பு	-10.4427
▁சுற்றியுள்ள	-10.4427
வுக்கும்	-10.4433
▁கடிகார	-10.4433
▁சிதற	-10.4435
▁ராய்	-10.4438
▁படித்து	-10.444
▁முகவரி	-10.444
▁சந்தித்த	-10.4441
▁உத்தரப்	-10.4441
▁1961	-10.4447
▁போக்கு	-10.4448
▁திட்டத்தை	-10.4449
▁ஏற்றுக்கொண்ட	-10.4449
▁ஆயிர	-10.4453
▁உள்ளடக்கியது	-10.4457
▁நமது	-10.4458
▁அக்கால	-10.446
க்காகவும்	-10.4464
▁கான	-10.4466
▁ஏறக்குறைய	-10.447
▁படித்த	-10.4474
▁ஆப	-10.4474
▁ராவ்	-10.4475
மீட்டர்	-10.448
▁ஆண்களின்	-10.448
▁சிக்கி	-10.4482
▁என்பவற்ற	-10.4489
▁ஆகியவற்றைக்	-10.449
விளை	-10.4491
▁பொருட்களின்	-10.4496
▁கிட்ட	-10.45
வர்மன்	-10.45
ாலி	-10.4502
ஊ	-10.4504
▁காப்ப	-10.451
ப்பாடி	-10.4517
ிலான	-10.4518
▁தோற்கடித்த	-10.452
▁சுழல்	-10.452
பாக	-10.4521
▁நாயக்கர்	-10.4521
ேல்	-10.4521
▁வென்றது	-10.4524
▁நிற்க	-10.4526
▁ஈடுபட்டு	-10.453
நிற	-10.4531
▁பெருங்கடல	-10.4531
▁இறங்க	-10.4532
தேச	-10.4534
▁அடிப்படையிலான	-10.4536
▁பேசி	-10.4538
▁ஒழுங்கு	-10.4538
▁ஒன்றியத்தின்	-10.4541
▁அமர்	-10.4545
னவாக	-10.4547
▁(3	-10.4548
மிழ்	-10.455
ப்பாக்கம்	-10.455
▁அசிட்ட	-10.4551
▁ஜெய்	-10.4553
▁மாறும்	-10.4562
▁மூலவர்	-10.4562
▁மண்டலத்தில்	-10.4564
செய்யப்பட்ட	-10.4566
▁உதய	-10.4568
▁குளிர்கால	-10.4569
iv	-10.457
லாய்	-10.4574
▁மெதுவாக	-10.4575
▁தாக்கி	-10.4575
▁தியாக	-10.4576
▁நுரையீரல்	-10.4579
க்கள	-10.458
யொ	-10.4581
▁நாட்டுப்	-10.4583
▁வாழ்க்கையில்	-10.4585
▁போருக்கு	-10.4586
▁தோன்றியது	-10.4589
no	-10.4589
▁உடலின்	-10.4591
▁தேர்ந்தெடுத்த	-10.4595
▁இசையமைத்த	-10.4595
▁ஆரோக்கிய	-10.4596
கினி	-10.4597
▁தரநிலை	-10.4599
▁வேகம்	-10.4603
▁அதிகரிக்கும்	-10.4603
ass	-10.4604
ாவை	-10.4606
▁தீய	-10.4606
▁பிரதிநிதி	-10.4608
▁ஈர்ப்பு	-10.4612
▁சுருக்கமாக	-10.4613
▁இரக	-10.4613
▁Ma	-10.4615
▁குடும்பத்தைச்	-10.4616
▁ஓடு	-10.4618
▁கருத்தில்	-10.4621
▁சுரப்பி	-10.4621
▁தூரம்	-10.4623
▁1959	-10.4624
▁மேம்பாட்டு	-10.4635
ka	-10.4637
▁வாயில்	-10.4638
▁நிகழ்ச்சியில்	-10.464
▁வீத	-10.4643
▁சார்ப	-10.4646
▁நிலையத்தில்	-10.4646
ord	-10.4646
▁வைத்தார்	-10.465
▁இப்படம்	-10.4651
ber	-10.4653
▁வடிவத்தில்	-10.4654
▁புற்று	-10.4656
▁அடித்தள	-10.4657
▁பொருள்படும்	-10.4663
▁எது	-10.4666
▁தோல	-10.467
▁ஊட்ட	-10.4679
▁நடக்கின்றன	-10.4679
இந்திய	-10.468
▁பாடலை	-10.4682
ஷன	-10.4686
▁பரிச	-10.4687
▁1946	-10.4689
▁கோபால	-10.469
களிலேயே	-10.4693
▁நாட்களுக்கு	-10.4695
▁பெண்களுக்கு	-10.4695
▁உறுப்பினராகவும்	-10.4697
▁மகாபாரத	-10.4697
▁கொட்ட	-10.4698
சபை	-10.4699
▁எப்	-10.4699
▁இதழில்	-10.47
படுத்தி	-10.4701
கான	-10.4702
▁அசோக	-10.4704
5,000	-10.4705
ச்சொல்	-10.4706
▁எடுப்ப	-10.4707
An	-10.4711
▁ஊடுருவ	-10.4712
▁நிலவு	-10.4712
▁தயாரிப்பில்	-10.4713
▁தருகிறது	-10.4718
▁கூடாது	-10.4722
▁மட்டக்களப்பு	-10.4722
▁மக்கட்தொகை	-10.4724
▁ஒற்றுமை	-10.4724
ீசுவரர்	-10.4724
▁ஆஸ்திரேலிய	-10.4729
▁வசூல	-10.473
▁அவளை	-10.4731
pe	-10.4735
டிங்	-10.4736
யீடு	-10.4737
▁பவுல்	-10.4739
▁ரீதியான	-10.4741
கதிர்	-10.4742
▁ஆசிரியர	-10.4743
ess	-10.4745
▁லக்	-10.4746
▁மத்தியப்	-10.4746
▁ரவி	-10.4748
ங்குளம்	-10.4752
▁நரசிம்ம	-10.4756
விசை	-10.476
▁வாயிலாக	-10.477
▁அரசால்	-10.4771
▁பிலிப்	-10.4774
▁உத்திர	-10.4775
▁அவசர	-10.4777
த்தூ	-10.4781
▁நெருக்கடி	-10.4782
▁பெருந்த	-10.4783
▁சுரு	-10.4785
பாடாக	-10.4788
▁அப்போதைய	-10.4789
▁தென்கிழக்கு	-10.479
ெடுத்து	-10.4791
ug	-10.4791
▁1949	-10.4792
▁மன்	-10.4792
▁மோதி	-10.4794
▁சாம்பல்	-10.4799
▁திருப்பு	-10.48
▁வள்ள	-10.4802
▁சந்தேக	-10.4804
▁காஞ்சி	-10.481
▁மொழிபெயர்ப்பு	-10.4813
▁தீவில்	-10.4813
▁வெட்டு	-10.4814
▁முகம்மது	-10.4815
▁கட்டிய	-10.4816
▁இயலாத	-10.4816
▁ஃப்ர	-10.4828
▁ஐந்தாம்	-10.4828
▁ஆண	-10.4829
▁பணிபுரிந்தார்	-10.4831
▁தலைவர்கள்	-10.4832
▁இவ்வினை	-10.4834
▁தூய்மை	-10.4835
▁பயன்படுத்தலாம்	-10.4835
ish	-10.4835
க்கூடியது	-10.4835
ம்போ	-10.4835
ாடு	-10.4836
களுடைய	-10.4839
யியல	-10.4839
▁மாதங்கள்	-10.484
mm	-10.484
▁பழுப்பு	-10.4841
▁துவக்கத்தில்	-10.4841
▁வலு	-10.4842
▁பருவத்தில்	-10.4845
தொகு	-10.4846
age	-10.4848
▁லியோ	-10.4849
▁இவர்களுக்கு	-10.4849
▁பொதுத்	-10.4851
▁பட்ச	-10.4853
▁ஈடுபாடு	-10.4855
▁உருவாகி	-10.4858
▁வருவ	-10.4858
mi	-10.4863
நு	-10.4864
▁பராமரிக்க	-10.4867
இது	-10.4867
▁பயன்பாட்ட	-10.4868
▁1951	-10.4869
▁தளம்	-10.487
▁நோக்கிய	-10.4877
▁செயற்பாட்ட	-10.4879
▁காலத்தை	-10.488
iya	-10.488
▁திரும்பிய	-10.4881
ach	-10.4885
ence	-10.4886
ளர்	-10.489
▁கொடுத்தார்	-10.4891
வளி	-10.4892
வண்ண	-10.4893
▁செவி	-10.4894
▁குறுக்க	-10.4896
ie	-10.4896
▁வழிபட்ட	-10.4897
▁63	-10.4901
▁அழிந்து	-10.4901
▁செய்கின்றன	-10.4903
கோல்	-10.4904
▁கடு	-10.4905
ப்பிடி	-10.4908
▁புத்தகம்	-10.4909
ப்படுத்திய	-10.4912
▁நீராவி	-10.4919
ind	-10.4923
▁பள்ளத்தாக்கு	-10.4932
▁தனித்த	-10.4932
▁கார்த்திகை	-10.4932
▁எழுத்துக்கள்	-10.4933
▁பொலி	-10.4935
▁விசய	-10.4936
▁நேரு	-10.4937
▁ஆரம்பித்த	-10.4938
▁உத	-10.4941
▁பிரம்மா	-10.4942
▁கிரீ	-10.4943
▁உள்ளடங்க	-10.4945
▁வீடுகள்	-10.4947
▁வெண்பா	-10.4947
▁நாடகம்	-10.4955
▁அவர்களுடைய	-10.4956
▁மார்கழி	-10.4959
▁ஆதரிக்க	-10.4959
தீன்	-10.4959
▁1955	-10.4962
▁அரசியலமைப்பு	-10.4964
▁பெயரிட்ட	-10.4967
▁மெல்லிய	-10.4969
▁கூறுகின்றனர்	-10.4974
▁ஓரளவு	-10.4975
▁பங்குனி	-10.4976
▁எண்ணிக்கையில்	-10.4976
▁பட்டியல	-10.4976
▁சிறீ	-10.4978
▁இம்மாவட்டம்	-10.4979
▁நம்பி	-10.4979
றுக்க	-10.4982
▁முன்னரே	-10.4983
▁கட்டிடம்	-10.4986
▁வேல்	-10.4988
▁விடும்	-10.4988
▁மங்கோலிய	-10.4991
ial	-10.4993
▁சீடர்	-10.4995
▁பயன்பட	-10.4999
▁இயக்கினார்	-10.5
பெயர	-10.5003
▁சிக்க	-10.5004
▁திசையில்	-10.5004
ியற்	-10.5004
▁விளைவுகளை	-10.5006
▁இருந்ததால்	-10.5007
▁நிர்வாகம்	-10.5008
▁மேக	-10.5008
▁புரூ	-10.501
▁மருந்துகள்	-10.5012
▁தொகுதியாகும்	-10.5012
▁பெரும்பான்மையான	-10.5013
▁வேளையில்	-10.5014
yl	-10.5015
▁தோழி	-10.5019
AT	-10.5021
▁மின்கல	-10.5022
பணி	-10.5023
▁கொண்டுவர	-10.5024
▁அன்றைய	-10.5025
▁தாண்டி	-10.5025
▁வழித்தட	-10.5025
டான்	-10.5025
▁அருந்த	-10.5027
▁முற்றுகை	-10.5031
வாச	-10.5037
▁கரும்பு	-10.5037
ப்பட்டிருந்தது	-10.5038
ம்பர்	-10.5038
▁தற்பொழுது	-10.5039
▁1944	-10.5041
▁1939	-10.5041
▁சத்ய	-10.5043
▁முப்ப	-10.5043
▁திட்டங்கள்	-10.5044
▁பொருள்கள்	-10.5044
ov	-10.5044
▁அத்தி	-10.5045
▁இந்நூல	-10.5047
▁மண்டப	-10.5049
நான்	-10.5052
பிரதேச	-10.5053
வாசல்	-10.5053
▁விழாவில்	-10.5057
▁கற்றார்	-10.5057
ாகி	-10.506
▁அதிர்வெண்	-10.5062
ton	-10.5063
ுவதாகும்	-10.5065
▁ஆளுமை	-10.5065
ாலோ	-10.5067
ala	-10.5068
▁நிறுவி	-10.5073
▁ஆரிய	-10.5074
பரப்ப	-10.5074
▁தாக்கத்தை	-10.5076
▁CH	-10.5077
▁குடும்பத்தினர	-10.5081
▁இடி	-10.5081
▁பாரதி	-10.5082
▁பெறுகிறது	-10.5083
▁பகை	-10.5085
▁இழப்ப	-10.5086
▁பழம்	-10.5087
▁x	-10.5088
▁ஆசிரியர்கள்	-10.5088
▁இந்தோனேசியா	-10.5091
▁பின்னாளில்	-10.5091
▁கருத்துக்களை	-10.5092
▁சில்ல	-10.5092
▁அஞ்ச	-10.5094
▁வகைகளில்	-10.5097
▁41	-10.51
▁தொழில்முறை	-10.5104
இந்தியா	-10.5105
▁பசிபிக்	-10.5106
der	-10.5106
▁வெல்ல	-10.5108
மிகு	-10.5109
▁வாச	-10.511
▁அதன	-10.5112
யிருந்த	-10.5115
மேற்	-10.5117
▁மின்னழுத்த	-10.5119
▁அடையும்	-10.512
▁மலையில்	-10.5121
▁பொறுத்த	-10.5121
▁குறைப்ப	-10.5121
ப்பேட்டை	-10.5122
▁மூச்சு	-10.5126
ஸ்கி	-10.5127
▁நிலையங்கள்	-10.5131
▁உயிரினங்கள	-10.5134
லீன்	-10.5138
▁விளைவுகள்	-10.514
▁செலுத்தி	-10.5143
▁இடத்திற்கு	-10.5147
eg	-10.5147
▁பற்றிக்	-10.5148
லிஸ்	-10.5149
நத்தம்	-10.5152
▁அதிகாரிகள்	-10.5153
புல்	-10.5154
▁ஆணையம்	-10.5154
▁ஆரம்பமான	-10.5154
▁பகிர்ந்து	-10.5157
▁ரசிகர்	-10.5159
▁தலங்களில்	-10.5162
▁நுழை	-10.5163
▁பேச்ச	-10.5169
▁கென்	-10.5174
▁வேளாண்	-10.5176
▁கொள்வத	-10.5177
▁பரா	-10.5178
படை	-10.5179
▁நடிப்பு	-10.5181
▁விளையாடி	-10.5184
க்குட்பட்ட	-10.5188
▁பிளவு	-10.5192
▁அமைந்திருந்த	-10.5192
தாஸ்	-10.5193
▁வெட்ட	-10.5194
பான்	-10.5194
▁அருக	-10.5196
▁இக்கால	-10.5201
▁வழிபாட்டு	-10.5201
▁இன்ன	-10.5205
▁ஒளிப்பட	-10.5206
▁வெளியில்	-10.5207
ight	-10.5213
▁விரைவு	-10.5213
றிவு	-10.5213
▁மூர்த்தி	-10.522
▁உருவாக்குகிறது	-10.5221
▁கிருஷ்ணன்	-10.5221
▁கூட்டமைப்ப	-10.5223
த்தொடர்	-10.5224
▁படிம	-10.5225
▁இயலாது	-10.5225
▁ஐந்தாவது	-10.5226
▁கையில்	-10.5229
▁மேற்கொண்டார்	-10.5229
▁காகித	-10.5229
▁இடங்களை	-10.523
har	-10.5234
▁ஆட்சியாளர்	-10.5235
▁பூசைகள்	-10.5237
▁ஆன்மீக	-10.524
▁குண்ட	-10.524
▁நிர்	-10.5241
▁கவலை	-10.5241
▁அறியப்படுகிறார்	-10.5243
▁உபசன்னதிகள	-10.5243
▁ஸ்டார்	-10.5245
200	-10.5246
ப்பட்டாலும்	-10.5249
▁ஆபத்து	-10.5259
▁விபத்து	-10.5263
மறை	-10.5264
▁இட்டு	-10.5266
▁மிகுதியாக	-10.5267
▁கிழக்குப்	-10.5267
ஜோ	-10.5269
▁பிறந்து	-10.5269
▁சந்திப்பு	-10.527
adi	-10.527
▁குறியீட்டு	-10.5271
வலை	-10.5271
மூன்ற	-10.5275
க்காலம்	-10.5276
பாடி	-10.5282
நெறி	-10.5283
காட்	-10.5284
▁இயற்றப்பட்ட	-10.5284
ப்பாட்டு	-10.5285
▁மாநிலங்களில்	-10.5286
பரப்பு	-10.5286
▁இழு	-10.5287
▁போராட	-10.5288
▁நீங்க	-10.5289
▁கீழ்க்காணும்	-10.5294
▁அழைப்பர்	-10.5299
▁போராட்டம்	-10.5301
▁இங்கிலாந்தில்	-10.5306
act	-10.5306
▁அமைந்து	-10.5307
[	-10.5309
▁பார்வதி	-10.5311
patti	-10.5313
▁சுவர	-10.5314
▁புனை	-10.5317
aw	-10.5318
▁சாய	-10.5321
▁நகரங்கள்	-10.5322
▁அதிகரித்து	-10.5325
▁செல்கின்றன	-10.5329
end	-10.533
▁கண்டறியப்பட்ட	-10.5336
▁தென்மேற்கு	-10.5336
▁அலெக்	-10.5338
தலின்	-10.5341
▁In	-10.5343
▁நூ	-10.5344
▁உடலை	-10.5346
▁விட்டது	-10.5347
▁முகமது	-10.5349
▁பெர	-10.5353
▁பண்புகளை	-10.5353
▁தரவரிசை	-10.5356
du	-10.5363
▁தளத்தில்	-10.5364
ாமை	-10.5366
▁தள்ள	-10.5366
▁மெர்	-10.5368
▁எகிப்த	-10.537
▁பந்தய	-10.5376
▁மனு	-10.5378
▁சிலுவை	-10.5381
ட்டீ	-10.5384
ace	-10.5386
▁அளிக்கும்	-10.5389
▁விளையாடினார்	-10.539
தற்கும்	-10.5395
ிடமும்	-10.5396
களோ	-10.5399
▁ஆய்வாளர்	-10.5403
▁ஹென்றி	-10.5404
▁பெரும்பகுதி	-10.5411
க்கோடு	-10.5411
▁விளங்கினார்	-10.5416
▁சார்ந்து	-10.5416
▁கொண்டுவந்த	-10.5417
▁கற்பிக்க	-10.5418
ஃபோ	-10.542
▁பெரும	-10.5421
▁நீரின்	-10.5421
▁தற்	-10.5421
▁மையத்தில்	-10.5421
▁நீங்கள்	-10.5425
tu	-10.5427
▁பட்டது	-10.5428
▁கூடுதலான	-10.5431
▁படைகளை	-10.5432
▁விமர்சகர்	-10.5432
ுவதே	-10.5439
ேசன்	-10.544
▁பெண்களும்	-10.5442
யப்பன்	-10.5449
வேளை	-10.5454
▁பதினெட்டாம்	-10.5459
▁மன்ன	-10.5459
ளூர்	-10.546
▁இதற்காக	-10.5463
▁பகுத்த	-10.5465
▁ரெட்டி	-10.5467
▁வலிமையான	-10.5467
▁பூத	-10.5468
▁வட்டத்தின்	-10.547
▁இயக்கி	-10.5473
மிட்ட	-10.5477
லாந்த	-10.5477
▁குர்	-10.5478
ric	-10.5489
▁பரவிய	-10.5492
▁முடித்து	-10.5494
▁இருப்பிட	-10.5495
▁ஒழுக்க	-10.5503
▁கொரியா	-10.5504
கோயில்	-10.5508
▁மைசூர்	-10.5509
▁பகுதிகளுக்கு	-10.5509
ens	-10.5512
▁பட்	-10.5515
அமெரிக்க	-10.5516
▁வளர்ப்ப	-10.5517
▁பெய்	-10.5517
▁r	-10.5519
▁ஒன்றின்	-10.5519
▁தொண்ட	-10.5519
▁பொதுமக்கள	-10.5521
▁படங்கள்	-10.5523
இல	-10.5524
▁கணவன	-10.5525
▁கருதப்பட்ட	-10.5527
▁51	-10.5529
▁என்கிறார்	-10.5534
▁வர்ண	-10.5537
▁விவசாயம்	-10.5538
குப்த	-10.5542
▁ஏதேனும்	-10.5542
▁கோயிலில்	-10.5544
▁ரங்க	-10.5548
▁சேர்மம்	-10.555
▁பின்பற்றி	-10.5551
▁ஆக்சிசன்	-10.5554
▁ஹொங்கொங்	-10.5556
▁காப்புரிமை	-10.5557
▁பெயரிடப்பட்ட	-10.556
▁பிரிட்டன	-10.5562
▁மஹா	-10.5562
▁ஸ	-10.5569
ூன்	-10.5569
வல்லி	-10.5569
▁சிறப்புப்	-10.557
ப்படுவதாக	-10.5571
▁சூழல	-10.5571
▁புலிகள்	-10.5572
▁உபயோக	-10.5573
▁செய்யலாம்	-10.5573
▁உணவை	-10.5574
பேர	-10.5575
▁உமிழ்	-10.5577
▁மாற்றாக	-10.5577
▁இடர்	-10.5577
▁சிற்றூர	-10.5578
▁1953	-10.5587
▁அணிய	-10.5589
▁பிரதேசத்தில்	-10.559
▁எடுத்தார்	-10.5593
▁உலர்	-10.5593
ங்களாகப்	-10.5601
▁சூர	-10.5605
▁பிரான்ச	-10.5606
▁அலக	-10.5608
ஞர்	-10.561
▁ஹூ	-10.5611
▁செயற்கைக்கோள்	-10.5612
ினைப்	-10.5615
ுவோர்	-10.5617
ண்மை	-10.5619
க்குறிச்சி	-10.5619
▁லாஸ்	-10.5621
▁நூலகம்	-10.5623
மால்	-10.5623
ாவது	-10.5624
லியோ	-10.5626
திலிருந்து	-10.5626
நாயகி	-10.5627
▁அடைந்தது	-10.5629
ral	-10.5629
க்குளம்	-10.563
▁தற்காலத்தில்	-10.5638
▁ராமநாதபுரம்	-10.5641
▁அறுவடை	-10.5641
▁பூஜை	-10.5641
விட்டது	-10.5642
மளிக்க	-10.5645
▁விளையாடிய	-10.5646
▁படித்தார்	-10.5647
▁செயல்பாட்ட	-10.5651
ொன்றை	-10.5654
▁ஆரம்பிக்க	-10.5654
பக	-10.5655
▁உருவாகிய	-10.566
▁காலத்தின்	-10.5665
▁இரசாயன	-10.5669
யின்படி	-10.567
▁விதமான	-10.5671
ண்டெ	-10.5672
▁பிரதம	-10.5674
▁பாகிஸ்தான	-10.5674
▁அவதார	-10.5678
▁இயங்கு	-10.5678
▁இதன	-10.5681
▁இறைய	-10.5681
▁அளவீடு	-10.5683
ப்படுவதை	-10.5684
▁மந்த	-10.5686
ொழி	-10.5686
▁பக்கத்தில்	-10.5686
▁சாகி	-10.5689
▁முதன்மையாக	-10.569
▁நாளை	-10.569
▁பூமியின்	-10.5691
மோர்	-10.5693
▁தந்தையின்	-10.5693
▁வெற்றியை	-10.5696
▁பொதுமக்கள்	-10.5696
▁பள்ள	-10.5697
▁டெல்லி	-10.5698
▁சூழ்ந்த	-10.5701
▁பார்ப்ப	-10.5701
▁ஜோன்	-10.5701
ராணி	-10.5701
மாத	-10.5702
வனை	-10.5702
▁அகர	-10.5704
▁வரையிலும்	-10.5704
▁இருக்கை	-10.5705
▁தொலைவு	-10.5709
வேல்	-10.5712
▁1936	-10.5715
wa	-10.5718
▁கூறலாம்	-10.5721
▁விண்டோஸ்	-10.5726
▁தொடங்கும்	-10.5727
▁கொள்ளை	-10.5728
▁பொருத்தமான	-10.5732
▁அறிகுறிகள்	-10.5732
▁வலுவான	-10.5733
▁உருவாகின்றன	-10.5733
தனி	-10.5735
▁தோல்வியடைந்த	-10.5741
▁ஆளுநர்	-10.5741
▁அனைத்தையும்	-10.5742
▁சின்	-10.5744
ப்பாளையம்	-10.5745
▁தொகுதியிலும்	-10.5745
▁தயாரித்து	-10.5747
▁மூலமும்	-10.5748
▁பண்பாட்ட	-10.575
NA	-10.5752
▁ஆறாம்	-10.5755
▁வடமேற்கு	-10.5755
▁எடுத்துக்கொள்ள	-10.5766
▁தொகுத்து	-10.5766
▁இடைய	-10.5766
▁பள்ளிகள்	-10.5767
▁சரக்கு	-10.5776
களுக்குள்	-10.5778
▁மறுத்த	-10.5778
யாகவே	-10.5782
▁ஆய்வில்	-10.5784
▁பெற்றனர்	-10.5784
க்கூடாது	-10.5786
▁எந்திர	-10.5792
▁இதைப்	-10.5792
▁தாயக	-10.5793
▁பொம்மை	-10.5801
▁ஆசை	-10.5804
▁இழக்க	-10.5808
▁சொந்தமான	-10.5808
ரேட்	-10.581
▁கொடுக்கும்	-10.5812
▁டான்	-10.5813
▁வசிக்கின்றனர்	-10.5814
▁ஜனநாயக	-10.5817
▁அமர்ந்த	-10.582
▁காலப்பகுதியில்	-10.5823
▁பார்க்கும்	-10.5824
பியன்	-10.5825
▁வந்துள்ளது	-10.5827
▁மேம்பட்ட	-10.5828
கோள	-10.5828
▁திரைப்படத்தை	-10.5831
ப்பதற்கான	-10.5832
▁ஓட்டங்களை	-10.5834
▁நாடுகளிலும்	-10.584
▁திருச்சபையின்	-10.5842
▁பொதி	-10.5842
▁கற்றல்	-10.5845
யின்றி	-10.5845
▁மொழியின்	-10.5846
▁அமர	-10.5846
Ar	-10.5851
▁இளமை	-10.5852
▁வறுமை	-10.5855
ண்டின்	-10.5857
வுள்ள	-10.5861
ிலே	-10.5862
▁உகந்த	-10.5866
▁அகாதமி	-10.5869
▁ஜெர்மன்	-10.5869
▁உருசியா	-10.587
ிற்குப்	-10.5873
போதே	-10.5873
▁அளவி	-10.5873
▁குரூ	-10.5881
ுபவர்கள்	-10.5881
▁எல்லைகளாக	-10.5881
▁வாழை	-10.5882
▁கரையோர	-10.5884
▁போன்றவற்றில்	-10.5885
▁வளர்த்த	-10.5886
சரி	-10.5887
ந்தர	-10.589
▁ஹெர்	-10.5892
▁பொருளாதாரம்	-10.5894
▁படுகிறது	-10.5894
▁நுண்ண	-10.5899
▁தலைமையகம்	-10.5901
▁விளையாட்டுப்	-10.5901
▁சங்கத்தின்	-10.5905
த்திற்	-10.5906
▁நாடாளுமன்றத்	-10.5908
▁தியான	-10.5911
▁இன்றி	-10.5912
▁அவசியம்	-10.5913
ரோன்	-10.5913
ுயிர்	-10.5914
சிறு	-10.5914
att	-10.5914
பயன்	-10.5924
டுக்கு	-10.5926
▁இருப்பத	-10.5927
▁பட்டா	-10.5931
▁பாசி	-10.5932
▁உழைப்ப	-10.5933
▁ஓவியங்கள்	-10.5934
▁திரட்ட	-10.5934
▁கொத்த	-10.5941
▁கும்பகோணம்	-10.5942
▁ஐதரோ	-10.5944
ட்டெ	-10.5946
மல	-10.5948
▁சூட	-10.5949
▁இயல	-10.595
▁தவறாக	-10.5953
one	-10.5956
▁அளித்தார்	-10.5957
▁தெரிந்து	-10.5959
▁ரத்த	-10.5959
▁செய்துகொண்ட	-10.5962
▁போட்டியிட	-10.5963
▁அதிபர்	-10.5963
ron	-10.5965
▁நடவடிக்கைகளை	-10.5965
▁முன்னேற்றக்	-10.5966
விட்டன	-10.5968
▁வயிற்று	-10.5971
▁விஞ்ஞான	-10.5972
▁புலம்	-10.5972
ராஷ்டிர	-10.5972
▁தகுந்த	-10.5973
▁1942	-10.5974
▁பாலை	-10.5976
▁வேறுபாடுகள்	-10.598
▁நடக்க	-10.5983
▁அச்சுறுத்த	-10.5986
▁புனே	-10.5988
ஜு	-10.5988
▁துரு	-10.5989
▁தாக்குதல	-10.5993
▁சேகரிப்ப	-10.5995
▁வில்லை	-10.5995
▁பலகை	-10.5997
▁மேற்பார்வை	-10.6
▁ஆதிக்க	-10.6001
க்ஸி	-10.6002
▁சேமிப்பு	-10.6003
குளோரோ	-10.6004
▁பயனுள்ள	-10.6005
our	-10.6011
▁மின்னோட்ட	-10.6011
▁பழமை	-10.6011
வாள்	-10.6014
▁பணிகளை	-10.6016
▁திகழ்ந்த	-10.6016
▁காணும்	-10.6019
▁உடனே	-10.6019
▁இவ்விட	-10.602
▁இதைத்	-10.6024
▁முத்த	-10.6025
▁பெற்றுக்	-10.6026
▁இவரும்	-10.6027
க்கூடியதாக	-10.6028
▁இமயமலை	-10.6029
▁1937	-10.6033
▁படல	-10.6034
▁வெளியீட்ட	-10.6041
▁ஆள்	-10.6041
▁மக்களிடையே	-10.6046
நிறுவன	-10.6049
▁இடைக்கால	-10.6051
▁கிடைக்கின்றன	-10.6055
▁சமமாக	-10.6058
www	-10.6059
▁நிகழ்ச்சிகள்	-10.606
▁பிணை	-10.6064
ட்டே	-10.6067
ies	-10.6067
ts	-10.607
▁கொல்லப்பட்ட	-10.6073
▁வாசிப்ப	-10.6074
▁தொழில்துறை	-10.6076
▁உறவ	-10.6078
▁நிரந்தர	-10.6082
▁பாதுகாப்புச்	-10.6085
▁நடத்தினார்	-10.6085
▁எரிபொருள்	-10.6088
▁ஆட்சியை	-10.6089
▁ஒல்லாந்த	-10.6089
▁ஹில்	-10.6089
▁செய்கிறார்	-10.609
போன	-10.609
வனாக	-10.6092
▁செயலக	-10.6092
▁இடையேயான	-10.6098
▁கர்தினால்	-10.6103
au	-10.6103
▁ஆய்வாளர்கள்	-10.6103
வதற்கான	-10.6103
ிருந்தால்	-10.6103
மன்ற	-10.6107
▁உலை	-10.6108
▁ஆகியோருக்கு	-10.6109
▁அமைகின்றன	-10.611
▁நாசி	-10.6112
சால்	-10.6114
▁லோக	-10.6116
▁எழுச்சி	-10.6116
▁காங்கிரச	-10.6119
▁கனி	-10.612
▁கோவிலில்	-10.6121
நிதி	-10.6122
▁மோர்	-10.6123
▁72	-10.6123
▁%	-10.6124
▁பாயும்	-10.6124
▁செயல்திறன்	-10.6127
ந்துறை	-10.6129
▁பிரபலமாக	-10.613
▁மதிப்பை	-10.6131
க்காட்ட	-10.6132
டங்க	-10.6134
▁பாலம்	-10.6135
▁பாரிச	-10.6135
▁கட்டிடங்கள்	-10.6136
▁மாற்றங்களை	-10.6136
▁தண்ணீர	-10.6137
▁ஒருவன்	-10.6137
களுக்க	-10.6139
tra	-10.6142
▁வகையாகும்	-10.6142
▁காடுகள்	-10.6143
▁பதவியில்	-10.6144
▁நிலக்கரி	-10.6147
▁மோட்டார்	-10.6148
ுவதாகவும்	-10.6153
▁தங்களை	-10.6153
▁யாழ்	-10.6155
▁வைத்திருக்க	-10.6157
▁தேயிலை	-10.6163
மூலம்	-10.6163
▁காலகட்ட	-10.6164
▁இசைத்தொகுப்ப	-10.6171
▁அத்த	-10.6173
▁கொங்கு	-10.6177
▁66	-10.6181
▁உறுப்ப	-10.6182
▁மூலதன	-10.6182
▁தடவை	-10.6185
▁இப்பெயர்	-10.6188
▁விக்கி	-10.6189
▁தவறு	-10.619
▁கழ	-10.619
str	-10.6191
▁விருத்தி	-10.6191
▁மலாயா	-10.6193
▁காண்பிக்க	-10.6198
▁மாற்றிய	-10.6198
புதூர்	-10.6199
Th	-10.6199
▁வணிகம்	-10.6201
▁புத்தர்	-10.6201
▁சர்வ	-10.6201
காரம்	-10.6203
ஸ்திர	-10.6205
▁இதனுடைய	-10.6208
▁பிளாக்	-10.6211
▁di	-10.6212
▁கணிப்ப	-10.6212
▁பெருங்க	-10.6215
பந்தாட்ட	-10.6215
பழ	-10.6216
▁தாமத	-10.6218
▁மால்	-10.6225
▁பதக்க	-10.6227
▁மேற்பரப்பு	-10.6233
▁தொடங்கினர்	-10.6234
▁மதி	-10.6235
▁நினைத்த	-10.6235
▁இலட்ச	-10.6236
▁பாதையில்	-10.6237
ism	-10.6238
▁விமானம்	-10.6242
▁அளக்க	-10.6242
▁உயர்நிலைப்	-10.6242
▁வேட்டை	-10.6243
▁விருதுகளை	-10.6244
காளியம்மன்	-10.6245
ாயி	-10.6246
▁தொகுப்புக்	-10.6249
▁மைதான	-10.6249
▁நிறுவனமான	-10.6254
▁முடித்தார்	-10.6258
▁ஊசி	-10.6259
▁இருந்ததாக	-10.6259
கலா	-10.6263
▁பண்புகள்	-10.6263
▁ஆழ்	-10.6265
ஸ்ரீ	-10.6265
▁வலுவ	-10.6267
டெர்	-10.627
▁வசிக்கும்	-10.6273
▁ஹு	-10.6273
▁சென்றது	-10.6274
வருகிறது	-10.6275
காலத்தில்	-10.6277
▁ராதா	-10.6281
▁மாந்த	-10.6282
ite	-10.6284
▁குட்டி	-10.6285
▁ஜோசப்	-10.6287
pa	-10.6287
ம்பாக்கம்	-10.6288
▁தம்மை	-10.629
சனை	-10.6291
▁மேற்கே	-10.6292
▁அலுமினியம்	-10.6292
ark	-10.6292
▁போரிட்ட	-10.6296
▁சாகுபடி	-10.6297
னொ	-10.6298
▁தரவுத்தள	-10.6298
▁தொடங்கின	-10.6302
▁85	-10.6303
ரிங்	-10.6303
▁தொல்காப்பிய	-10.6306
▁உருவாக்கியது	-10.631
ப்படுவத	-10.6311
▁புராணம்	-10.6312
▁சர்ச்சை	-10.6313
▁சான்றுகள்	-10.6317
▁முறையாகும்	-10.6317
▁56	-10.6318
▁வயல	-10.632
▁கற்றுக்	-10.632
▁நிதிய	-10.632
ome	-10.6321
▁சமிக்ஞை	-10.6327
100	-10.633
▁சமமான	-10.6335
▁காலமாக	-10.6336
▁கவனிக்க	-10.6337
▁படத்தை	-10.6337
▁குழந்தைகளுக்கு	-10.6341
▁II	-10.6342
▁சண்முக	-10.6342
▁லண்டன்	-10.6342
pp	-10.6344
▁வருவது	-10.6347
▁ஜோடி	-10.6347
sc	-10.6347
ளிப்பு	-10.6349
▁விடை	-10.6357
▁பிந்தைய	-10.6358
▁நிபுணர்	-10.6362
ய்ய	-10.6364
▁நன்	-10.6365
▁சந்தி	-10.6366
▁சீனாவில்	-10.6366
▁பாட்டி	-10.6368
▁மேற்குப்	-10.6372
▁கொரிய	-10.6375
▁இராமநாதபுரம்	-10.6377
சட்டமன்றத்	-10.6377
ம்பர	-10.6378
▁கண்டுபிடிப்ப	-10.6378
▁பிரகாச	-10.638
hy	-10.6386
▁மரியாதை	-10.6386
▁மலேசியாவில்	-10.6388
▁பாலூட்டி	-10.6388
▁இப்படத்தை	-10.6388
▁பங்காற்ற	-10.639
tri	-10.6391
▁பிரித்தானியர்	-10.6392
▁நோக்கில்	-10.6392
▁சேவைகளை	-10.6392
டியன்	-10.6393
amb	-10.6394
தமிழ்நாடு	-10.6396
புத்திர	-10.6399
சமய	-10.64
▁இக்கோயில	-10.6403
▁சூறாவளி	-10.6403
▁ஏறி	-10.6405
ியலில்	-10.6405
▁விலக	-10.641
▁நட்பு	-10.6411
▁மோதல்	-10.6412
▁இக்கோயிலின்	-10.6414
▁சமஸ்கிருத	-10.6418
▁தோற்றுவித்த	-10.6418
▁மாதங்களில்	-10.6419
▁இவ்வூரின்	-10.6419
▁நடுத்தர	-10.6421
▁பேரூராட்சி	-10.6424
▁தங்கிய	-10.6425
ையூர்	-10.6426
▁49	-10.643
▁அடங்க	-10.643
▁சிதைவு	-10.6434
▁அமைவிடம்	-10.6436
▁போதிய	-10.6438
▁ஆட்டம்	-10.6439
▁போதி	-10.644
லுடன்	-10.6441
▁உந்து	-10.6441
▁மருத்துவக்	-10.6443
▁நிலைகளில்	-10.6446
▁நடைபெற்று	-10.6448
▁ஆகஸ்டு	-10.6449
▁டெல்	-10.645
▁முயற்சிகள்	-10.645
▁வானிலை	-10.6451
▁பெறப்படும்	-10.6453
▁பிள்ளையார்	-10.6456
▁ஏதும்	-10.6457
▁டார்	-10.6458
▁அதற்கான	-10.6461
படுகிறது	-10.6462
▁Al	-10.6464
▁இயல்பான	-10.6464
▁கையெழுத்த	-10.6465
▁பங்களிப்ப	-10.6472
▁53	-10.6474
▁சப்த	-10.6475
▁முனைய	-10.6477
▁கணேசன்	-10.6478
▁ஒன்றுக்கு	-10.6478
▁தங்களின்	-10.6479
ver	-10.648
க்காய்	-10.6481
னியர்	-10.6483
▁அங்குள்ள	-10.6483
▁54	-10.6484
▁புரு	-10.6486
▁விதிமுறை	-10.6486
▁காட்டிய	-10.6487
▁மெய்யியல்	-10.6487
▁நியூசிலாந்து	-10.6489
▁வலய	-10.6496
▁புள்ளிகள்	-10.6498
▁உட்கொள்ள	-10.6498
▁பெறுகின்றன	-10.6499
▁வியா	-10.6501
ியலாளர்	-10.6505
▁வேறுபட	-10.6509
▁சிர	-10.651
▁பாண்டியர்	-10.6513
▁சல	-10.6514
▁செட்டி	-10.6515
▁அளித்து	-10.6518
▁கூறப்பட்ட	-10.6521
▁காவிய	-10.6522
பிட்	-10.6523
▁http	-10.6527
▁சந்த	-10.6528
▁நபி	-10.6529
▁தலைமையிட	-10.6533
▁பறக்கும்	-10.6538
ுநர்	-10.6539
ிழை	-10.6541
▁ஐதராபாத்	-10.6541
▁முற்பட்ட	-10.6542
▁கோட	-10.6542
▁வளர்ச்சிக்கு	-10.6543
பருவ	-10.6543
▁பெற்றன	-10.6544
▁அமீ	-10.6545
▁பணத்தை	-10.6545
▁நோய்கள்	-10.6551
▁துர்	-10.6558
res	-10.6561
▁சந்தையில்	-10.6561
ேஸ்வரி	-10.6561
லானது	-10.6564
▁செயற்பட	-10.6565
▁சங்ககால	-10.6566
▁பற்று	-10.6568
▁மகிழ	-10.657
ari	-10.6572
▁மல்ல	-10.6576
கார்பன	-10.6585
▁அமினோ	-10.6588
▁பைரவர்	-10.6588
▁தாமரை	-10.6588
▁கண்டுபிடித்தார்	-10.6593
யிட்	-10.6595
▁அடித்து	-10.6596
விலேயே	-10.6598
▁இயக்கத்தை	-10.66
க்கொள்ளும்	-10.6604
தென்	-10.6607
▁வருடங்களுக்கு	-10.6612
va	-10.6613
பிறகு	-10.6615
▁Y	-10.6616
▁காண்ட	-10.6618
▁மணம்	-10.6618
▁உற்சவ	-10.6618
▁இடத்தைப்	-10.6619
ong	-10.662
▁பகுதிகளாக	-10.6625
கவுண்ட	-10.6628
▁முன்னிலையில்	-10.6632
▁62	-10.6632
▁விஞ்ஞானி	-10.6633
▁இறுதிப்	-10.6634
▁தோராயமாக	-10.6634
▁நிலத்தில்	-10.6635
▁தொங்க	-10.6639
uk	-10.6644
ஞ்ச்	-10.6647
னிங்	-10.6648
முறையில்	-10.6651
▁கள்ள	-10.6652
ஜிய	-10.6652
▁பாச	-10.6656
▁இச்சி	-10.6657
▁கார்பன	-10.6663
▁பயின்று	-10.6666
▁போத	-10.6666
▁நாட	-10.6668
▁அரிதாக	-10.6671
▁Ar	-10.6671
▁கோரி	-10.6675
▁மன்னர்கள்	-10.6675
▁தடுத்து	-10.6679
யாறு	-10.668
மூட்ட	-10.668
யுடனும்	-10.6682
▁நேரத்தை	-10.6689
களாவர்	-10.6689
▁போன்றே	-10.6691
▁வரவேற்ப	-10.6692
▁பசி	-10.6694
▁தெளிவான	-10.6696
▁அற்ற	-10.6696
▁மாலி	-10.6696
▁வாழ்நாள்	-10.6698
மற்றும்	-10.6702
▁வெளிவர	-10.6702
மெய்	-10.6702
ோருக்கு	-10.6706
▁இடங்களுக்கு	-10.6706
▁நிபந்தனை	-10.6712
▁வளைகுடா	-10.6712
▁கால்சியம்	-10.6714
▁திட்டமிடப்பட்ட	-10.6714
ani	-10.6715
▁1941	-10.6715
▁கோவில	-10.6723
ியுள்ளனர்	-10.6724
▁தனித்துவமான	-10.6725
றுப்பு	-10.6727
▁தமிழீழ	-10.6728
▁சுட்டிக்காட்ட	-10.6728
▁சிந்தி	-10.6729
▁மருத்துவமனையில்	-10.673
▁முன்னால்	-10.673
▁இங்கிலாந்தின்	-10.6731
▁அண்மை	-10.6731
▁வோல்	-10.6734
sa	-10.6739
▁நீண்டகால	-10.6739
▁ஜப்பான்	-10.6741
▁பெருநகர	-10.6743
▁இரும	-10.6743
▁ஆகையால்	-10.6744
▁படுக்கை	-10.6744
▁மாறுபட	-10.6744
▁அரசுக்கு	-10.6744
▁எகிப்திய	-10.6747
வார்ட்	-10.6748
IV	-10.6752
▁பாடியுள்ளார்	-10.6757
கட்	-10.6757
ிற்	-10.676
▁கருதப்படுகிறார்	-10.6768
▁படையெடுப்பு	-10.6771
▁இறைச்சி	-10.6772
யாலும்	-10.6772
நெல்	-10.6773
▁பிரிந்த	-10.6773
▁வன்னி	-10.6773
▁இயல்ப	-10.6776
த்தலைவர்	-10.6776
▁செயலாளராக	-10.6781
▁அணிந்த	-10.6782
▁இந்தோ	-10.6784
▁தெரியாத	-10.6785
▁இரவில்	-10.6789
▁கூடியது	-10.679
▁புரிய	-10.679
மூர்	-10.6792
▁திறக்க	-10.6792
▁அரசியலில்	-10.6793
▁பெருங்கடல்	-10.6795
▁ஃபே	-10.6796
▁தழுவி	-10.6799
ரியல்	-10.6799
▁கமல	-10.68
▁முறைகளை	-10.68
▁துல்லியமாக	-10.6806
▁சாப்பிட	-10.6807
▁எவ்வளவு	-10.6807
▁திட்டத்தில்	-10.6807
▁இப்படத்தில்	-10.6807
▁ஆட்சிக்கு	-10.6808
▁எளிமையான	-10.6809
▁1934	-10.681
▁ஏற்படுத்தியது	-10.6813
▁நகரமாகும்	-10.6816
ous	-10.6817
▁இடங்களிலும்	-10.6817
▁கூறியுள்ளார்	-10.6818
த்தில	-10.6818
வேலி	-10.6822
▁கடலோர	-10.6823
▁சீனிவாச	-10.6823
▁சினிமா	-10.6823
▁நியமித்த	-10.6825
பூண்டி	-10.6825
▁செறிவு	-10.6826
ond	-10.684
▁விண்கல	-10.684
▁படையெடுத்த	-10.684
▁சந்தித்து	-10.684
▁பாரத	-10.6841
வேலு	-10.6846
▁எகிப்து	-10.6847
▁ஆத்திரேலியா	-10.6849
▁மந்திரி	-10.685
▁இம்மாவட்டத்தில்	-10.6851
▁பின்புற	-10.6852
▁67	-10.6854
▁ஆயிரக்கணக்கான	-10.6855
▁பாலா	-10.6856
மெண்ட்	-10.6858
▁காஷ்மீர்	-10.6862
▁இறக்கை	-10.6864
ராயர்	-10.6864
▁பிரிவுகள்	-10.6867
புரோ	-10.6868
▁இலவச	-10.6869
▁படிப்பறிவு	-10.6871
▁கப்பல்கள்	-10.6876
ve	-10.6878
▁எல்லையில்	-10.6879
▁எல	-10.6882
▁லட்சம்	-10.6882
ore	-10.6886
▁சரணாலய	-10.6887
▁குறிப்பிடும்	-10.6887
▁பரவி	-10.6888
▁சட்டசபை	-10.689
▁முனி	-10.689
▁உணர்வ	-10.6891
▁பட்டமும்	-10.6895
▁மேற்கொண்டு	-10.6895
வராவார்	-10.6899
▁சிதைவ	-10.6901
ியதால்	-10.6905
▁கூட்டுறவு	-10.6905
▁ஆஞ்சநேயர்	-10.6908
▁படிநிலை	-10.6909
▁பார்க்	-10.6917
▁ஏல	-10.6918
▁ஏன்	-10.6922
▁இயக்கத்தின்	-10.6922
ோட்டம்	-10.6926
▁தேன்	-10.6926
▁கூறுகின்றன	-10.6927
▁சுதந்திரம்	-10.6928
▁முள்ள	-10.6929
▁பக்தர்கள்	-10.6931
▁பத்தாண்டு	-10.6935
▁விரிவாக	-10.6936
▁1938	-10.6938
▁ஏற்படலாம்	-10.694
▁வாழ்வில்	-10.694
யளித்த	-10.694
▁நகர்த்த	-10.6942
ச்சாலை	-10.6945
▁வலையமைப்பு	-10.6946
▁விருத	-10.6949
யென	-10.695
Mar	-10.6956
நைட்ர	-10.6956
▁ஏனென்றால்	-10.6967
க்கட்டி	-10.697
▁அதைத்	-10.697
▁வாட்	-10.6972
▁வரம்பு	-10.6973
வாய்ந்த	-10.6973
▁வடக்க	-10.6975
▁ஏற்பட்டு	-10.6976
▁யுத்த	-10.6976
▁பூனை	-10.6976
▁கூறுவர்	-10.6983
▁விதத்தில்	-10.6984
▁நிலநடுக்க	-10.6989
▁ஸ்டீ	-10.6991
▁மாணவர்களுக்கு	-10.6992
க்கொடி	-10.6995
▁ஆதரவாக	-10.6996
த்தின்படி	-10.6996
▁திருப்பி	-10.6998
▁தொடர்பில்	-10.6998
▁இப்பறவை	-10.6999
SO	-10.7
▁அடித்த	-10.7007
▁இழந்து	-10.7015
ிருப்பதால்	-10.7015
விளக்க	-10.7016
னீசிய	-10.7019
io	-10.702
பத்திர	-10.7021
வாழ்வு	-10.7024
▁நிலைத்த	-10.7027
டெக்	-10.703
மக்கள்	-10.7031
தீர்	-10.7035
▁ராயல்	-10.704
▁கதையை	-10.704
▁குறுக்கு	-10.704
▁வழு	-10.7041
▁இயற்கையாக	-10.7043
▁பேரின	-10.7044
ஃபெ	-10.7046
▁நிறுவனங்களின்	-10.7047
ke	-10.7048
▁எருசலேம	-10.7048
▁படப்பிடிப்பு	-10.7049
▁கிரிக்கெட்	-10.7051
▁சாம்ப	-10.7054
ca	-10.7056
▁கங்கா	-10.7058
▁இடத்தையும்	-10.7061
▁உறவினர்	-10.7066
ப்பெயர	-10.7066
▁மணல்	-10.7066
▁வணிகர்	-10.7067
ாக்கம்	-10.7069
▁ஆரம்பித்தார்	-10.707
த்துக்காக	-10.7073
யற்	-10.7076
டுப்பு	-10.7079
▁தூக்கி	-10.708
▁வடிவங்கள்	-10.7081
▁1943	-10.7084
▁ஈடுபட்டார்	-10.7087
திகார	-10.7087
▁நிகர	-10.7089
ரென்	-10.7091
▁குளிர	-10.7092
▁எனப்படுவது	-10.7092
▁செய்துள்ளார்	-10.7093
▁விடுமுறை	-10.7095
திரி	-10.7095
▁st	-10.7096
▁விட்டார்	-10.7096
▁மில்லி	-10.7097
▁கூடி	-10.7101
▁திங்கள்	-10.7103
▁இடம்பெற	-10.7111
▁நிறுவனத்தால்	-10.7111
▁மூடப்பட்ட	-10.7112
▁ஏவுகணை	-10.7113
▁காய்கறி	-10.7113
▁அத்தகைய	-10.7113
பர்ட்	-10.7118
▁ரக	-10.712
ீஸ்வர	-10.7121
▁கூற்று	-10.7124
ரீதியாக	-10.7128
▁தலைநகரமாக	-10.7129
pi	-10.7133
▁தங்கம்	-10.7137
டியோ	-10.7139
ரீதியான	-10.7141
▁வாய்ப்பாட்ட	-10.7143
ருள	-10.7146
ப்பேர	-10.715
ern	-10.7151
வாகவும்	-10.7151
▁முன்னேற	-10.7152
ருதி	-10.7154
▁மங்க	-10.7154
▁அணுக்கள்	-10.7156
▁குடிமக்கள்	-10.7158
▁போதை	-10.7159
▁வடிவமைக்க	-10.7159
▁வந்தவர்	-10.7165
▁சிறுகதைகள்	-10.7166
▁யோவான்	-10.7166
▁இரகசிய	-10.7169
▁வாழ்வு	-10.7172
▁நாட்காட்டி	-10.7172
தென	-10.7173
▁Mo	-10.7174
கோடு	-10.7174
▁ஆரம்பகால	-10.7174
பரா	-10.7176
▁இழைய	-10.7177
▁தேர்ச்சி	-10.7177
▁நிச்சய	-10.7179
▁கடத்தி	-10.7181
▁வெண்கல	-10.7181
▁சித்தர்	-10.7181
▁துவங்கி	-10.7182
▁1935	-10.7183
▁வெறும்	-10.7184
▁சிரம	-10.7189
▁தீபகற்ப	-10.7195
min	-10.7196
▁உயிரினங்கள்	-10.7197
▁பயின்ற	-10.7197
ராயன்	-10.7198
▁துருக்கிய	-10.7199
த்திற்குள்	-10.7199
▁பிரிவினை	-10.7201
▁மேலான	-10.7203
▁போட்டு	-10.7207
▁திசு	-10.7208
த்தாலும்	-10.7208
-4	-10.7209
றீ	-10.7212
ஜூ	-10.7218
▁பிரை	-10.722
யாவார்	-10.7222
▁மின்சாரம்	-10.7223
▁வைக்கப்பட்டது	-10.7223
▁கொல்லப்பட்டனர்	-10.7223
▁கலக்க	-10.7226
▁ஆற்றில்	-10.7228
▁எழ	-10.7231
▁1929	-10.7232
ஜென்	-10.7234
▁இப்பிரிவு	-10.7236
▁ஆதிக்கம்	-10.7244
▁எவ்வித	-10.7245
▁இயங்குதள	-10.7245
▁பிரச்சார	-10.7247
▁பிற்கால	-10.7247
நிகழ்	-10.7256
▁அடக்கம்	-10.7256
▁சம்பா	-10.7256
▁கூட்டம்	-10.7257
▁மார்க்க	-10.7259
▁தரும	-10.7264
▁78	-10.7267
ea	-10.7269
▁உருகு	-10.7271
gi	-10.7272
▁காப்பக	-10.7277
▁அறிவியலாளர்	-10.7277
▁மோகன்	-10.7278
▁தொலைநோக்கி	-10.7279
▁பரவலான	-10.728
▁org	-10.7281
▁வெல்	-10.7281
▁புறநகர்	-10.7283
குழல்	-10.7284
OH	-10.7287
▁புரிந்தார்	-10.729
▁ஃபார்	-10.7296
நெட்	-10.7296
▁சுவா	-10.7297
▁பாத்திரத்தில்	-10.7301
▁வெளியாக	-10.7301
▁பல்லவ	-10.7301
▁தேர்தல்களில்	-10.7302
og	-10.7303
▁விஸ்வநாத	-10.7305
▁இக்கல்லூரி	-10.7305
சொற்	-10.7305
▁பாரிய	-10.7307
IS	-10.7311
ாக்சி	-10.7313
▁58	-10.7318
mon	-10.7326
▁77	-10.7327
▁ஏற்பாட்ட	-10.7332
▁மாநாட்டில்	-10.7333
▁ரஷ்ய	-10.7336
▁திரைப்படத்	-10.7336
ாண்மை	-10.7338
▁தேக்க	-10.7339
▁மலாய்	-10.7339
▁கவர்ந்த	-10.734
▁பிரான்சின்	-10.7342
▁சரண	-10.7343
▁இயக்குநராக	-10.7343
▁ஜப்பானிய	-10.7345
▁ஐயர்	-10.7347
▁ஆயர்	-10.7347
▁தீவிரமாக	-10.7347
▁புலமை	-10.7348
▁பேசப்படுகிறது	-10.7354
▁சூடான	-10.7357
ிலிருந்தே	-10.7358
▁காப்பு	-10.7358
▁அதிகப்படியான	-10.7361
▁ஒட்டு	-10.7364
▁ஒருவரான	-10.7366
ருள்	-10.7369
பெண்	-10.7371
▁கணிசமான	-10.7378
▁மாணிக்க	-10.7379
▁குறைந்தபட்ச	-10.738
நாய்	-10.738
si	-10.7381
கையை	-10.7382
▁ஊற்ற	-10.7383
▁அசுர	-10.7385
▁இன்ப	-10.7385
▁உருளை	-10.7387
▁நியாய	-10.7387
▁கோயில	-10.7387
▁இந்நிறுவனம்	-10.7388
களின்படி	-10.7391
▁சிற்பங்கள்	-10.7396
னாய்	-10.7399
▁பொறுப்பேற்ற	-10.7401
▁பரத	-10.7406
யிலே	-10.7406
▁ஆண்களுக்கு	-10.7408
▁கிராமங்கள்	-10.741
▁இயற்பெயர்	-10.7412
▁பலவீன	-10.7412
▁சிறுநீரக	-10.7412
ப்படாமல்	-10.7415
லகு	-10.7416
வெட்டி	-10.7424
▁எதிர்த்த	-10.7426
▁வாசிக்க	-10.7428
▁மறுமலர்ச்சி	-10.7429
▁ஆதரித்த	-10.7429
▁கைப்பற்றிய	-10.743
லெட்	-10.7432
▁மீற	-10.7432
▁தெற்க	-10.744
பாணி	-10.7442
மாகிய	-10.7443
நாட்டின்	-10.7443
▁கண்காட்சி	-10.7447
▁தூது	-10.7447
▁முடிவடைந்த	-10.7449
▁எடுத்துக்கொண்ட	-10.7449
▁ஆகியோருடன்	-10.745
▁நிற்கும்	-10.7451
▁தூக்க	-10.7451
▁விளங்கும்	-10.7451
▁ஏற்படுத்திய	-10.7453
▁கருதப்பட்டது	-10.7458
▁நினைவக	-10.7459
▁பியூ	-10.7464
▁கிறிஸ்துவ	-10.747
▁கூரை	-10.747
▁நடனம்	-10.7471
▁நகரத்தை	-10.7472
▁நிறுவனங்களில்	-10.7474
வழக்க	-10.7475
▁வளைவு	-10.748
▁அணிந்து	-10.748
▁விடுவிக்க	-10.7481
ம்பட்டு	-10.7481
▁உரிமையாளர்	-10.7481
▁இருந்தே	-10.7483
▁இரயில்வே	-10.7488
பகுதியில்	-10.7491
▁50%	-10.7494
ப்பதை	-10.7496
▁சமன்பாட்ட	-10.7498
▁வெர்	-10.75
▁நீலகிரி	-10.7501
▁திரைப்படமான	-10.7504
▁பிணைப்ப	-10.7504
▁is	-10.7505
▁குழுவை	-10.7506
▁கார்ல்	-10.7506
▁செய்திகளை	-10.751
கோட்ட	-10.7511
ick	-10.7511
▁ஏதாவது	-10.7518
▁தோன்றினார்	-10.7521
▁ஷோ	-10.7523
குமார	-10.7523
ப்படுவதற்கு	-10.7527
யிலிருந்த	-10.7527
செய்து	-10.7529
ுறுப்பு	-10.753
அதாவது	-10.7532
▁மகனான	-10.7535
▁மீன்பிடி	-10.7539
▁படைப்புகள்	-10.7544
▁முரண்	-10.7546
▁செறிவ	-10.7547
▁கொலம்பியா	-10.7548
▁120	-10.7548
▁உறுப்பினர	-10.7551
▁மேய்	-10.7559
▁இங்கிருந்து	-10.7565
bi	-10.7566
ாற்றல்	-10.7568
_2	-10.7569
con	-10.7571
▁அடைந்தார்	-10.7572
ப்பிரிவு	-10.7574
த்தின்போது	-10.7576
▁அற்புத	-10.7582
▁அவ்வப்போது	-10.7582
▁மதிப்பீட்டின்	-10.7582
▁சிறி	-10.7583
▁தயாரிக்கும்	-10.7584
தொடர்பு	-10.7585
▁கருவ	-10.759
▁சூல	-10.7595
▁கலவர	-10.7597
▁வளம்	-10.7599
கோடி	-10.76
▁துண்ட	-10.7601
▁சிக்கல	-10.7602
போத	-10.7602
▁கூறியது	-10.7613
வசிக்கின்றார்கள்	-10.7616
▁சத்து	-10.7619
▁எல்லோர	-10.762
▁விளைவ	-10.7624
குறியீட்ட	-10.7624
▁செய்யுள்	-10.7625
▁இறைவி	-10.7628
▁கருதப்படுகின்றன	-10.763
▁பெல்ஜிய	-10.7634
▁மொத்தமாக	-10.7634
▁நமக்கு	-10.7637
▁டெஸ்	-10.764
▁போகும்	-10.764
தொழில	-10.7641
வராய	-10.7644
ae	-10.7646
▁தாங்கள்	-10.7647
▁போராளி	-10.7652
▁விருதினை	-10.7652
▁அதிலிருந்து	-10.7653
▁250	-10.7653
▁இணையாக	-10.7654
▁காசு	-10.7656
▁முக்கோணத்தின்	-10.7658
▁அழைப்பு	-10.766
▁காட்	-10.7661
▁தேர்வ	-10.7663
▁பின்னால்	-10.7664
▁வழிநடத்த	-10.7668
▁செயல்பாடுகள்	-10.7668
▁அப்பொழுது	-10.7669
▁போதனை	-10.7671
▁புற்றுநோய	-10.7671
▁ஓவியம்	-10.7672
▁தங்களுக்கு	-10.7672
ூடாக	-10.7674
▁சுமை	-10.7678
▁கொடுமை	-10.768
▁அப்பகுதி	-10.7682
▁சாளுக்கிய	-10.7685
▁விக்டோரியா	-10.7685
▁வைகுண்ட	-10.7685
யின்போது	-10.7686
▁கணிதத்தில்	-10.7691
▁கொம்பு	-10.7693
▁எடுத்துக்காட்ட	-10.7693
▁வளாகத்தில்	-10.7693
ட்டிற்கு	-10.7695
▁இருந்துள்ளார்	-10.7697
und	-10.7698
ிருப்பதை	-10.7702
த்தமிழ்	-10.7703
▁ஆறாவது	-10.7703
வியலாளர்	-10.7705
▁1931	-10.7706
ிப்பது	-10.7707
▁மறைந்து	-10.7709
▁கதிர்வீச்சு	-10.7712
▁விண்ணப்ப	-10.7712
சீர்	-10.7718
▁95	-10.7719
▁வைகாசி	-10.772
▁சமச்சீர	-10.772
▁கவனத்தை	-10.7724
ich	-10.7724
▁ஜன	-10.7726
▁உலகளவில்	-10.7727
வேர்	-10.7727
▁ஆட்டோ	-10.7736
குழந்தை	-10.7737
▁சிரி	-10.7738
▁அறிவுரை	-10.7739
▁பிரேசில்	-10.7739
▁அரியலூர்	-10.7739
▁ஆக்சி	-10.774
யுற்ற	-10.7741
▁வயதான	-10.7741
▁பிரான்ஸ்	-10.7744
மண்டப	-10.7744
▁வளி	-10.7746
▁ரஷ்யா	-10.7747
ene	-10.7747
▁குற்றவாளி	-10.7755
▁அகராதி	-10.7755
ப்புல	-10.7759
▁பாகு	-10.7759
▁அனைவர	-10.7761
▁இசையமைப்பாளர்	-10.7761
ங்கின்	-10.7761
▁பெற்றோர	-10.7763
யடைய	-10.7763
▁தெரியும்	-10.7764
▁பாட்டு	-10.7764
▁தெளிவு	-10.7766
ராவ்	-10.7767
கொள்கின்றனர்	-10.7768
▁ஆண்களும்	-10.7771
▁சிதம்பரம்	-10.778
▁இயங்குகிறது	-10.778
▁நிரல	-10.7781
▁ஆண்டிலிருந்து	-10.7782
▁ஒளிப்பதி	-10.7782
ுமாவார்	-10.779
▁விவரித்த	-10.7795
▁குடியேறிய	-10.7796
▁மலைத்தொடர்	-10.7797
▁வாங்கிய	-10.7798
▁ஆட்டத்தில்	-10.78
▁நந்த	-10.78
▁மட்டத்தில்	-10.7802
▁Na	-10.7807
▁இவ்வமைப்ப	-10.7808
▁டைம்ஸ்	-10.7809
▁pro	-10.7809
▁என்பதோடு	-10.781
ரெய்	-10.7811
▁வேறுபாட்ட	-10.7812
▁விழுந்த	-10.7812
வாக்கம்	-10.7813
▁செய்யப்பட்டன	-10.7817
▁சுல்தான	-10.7818
▁ஏற்றி	-10.7818
▁தாண்டவ	-10.7819
▁எண்ணிக்கையை	-10.7819
குழி	-10.782
▁பகா	-10.782
▁முதலியன	-10.7826
▁வெளிச்ச	-10.7827
▁வெண்மை	-10.7827
ga	-10.783
▁வெளிப்பாடு	-10.7832
▁கண்டது	-10.7832
ory	-10.7832
▁நாட்காட்டியில்	-10.7832
▁ஃபோ	-10.7835
▁வாலி	-10.7842
▁அறிவுறுத்த	-10.7843
கேட்	-10.7845
மிக	-10.7847
▁கதிர	-10.785
▁மீன்கள்	-10.7853
ூரி	-10.7853
பேட்	-10.7854
▁ஆகம	-10.7855
▁அழகான	-10.7858
▁மேளகர்த்தா	-10.786
▁ரிச்சர்ட்	-10.786
▁வகித்தார்	-10.7865
▁முடியாமல்	-10.7866
▁இணைக்கிறது	-10.7868
▁ஆழமான	-10.7871
▁அபிவிருத்தி	-10.7877
▁பற்ற	-10.7882
குவா	-10.7882
▁நாடுகளை	-10.7884
கதை	-10.7884
ப்படுகிற	-10.7885
பொரு	-10.7885
▁விரும்பிய	-10.7892
▁மரணம்	-10.7892
▁கறுப்பு	-10.7894
▁சுற்றுப்பயண	-10.7896
▁விளையாடும்	-10.7897
▁இவா்	-10.7898
▁வேற	-10.7899
▁கழித்த	-10.7899
சேகர	-10.79
ப்பதிவு	-10.7905
▁உந்த	-10.7906
▁கோயிலுக்கு	-10.7909
▁காற்பந்து	-10.7913
▁மொழிபெயர்க்க	-10.7914
▁அநேக	-10.7915
▁இந்தியாவை	-10.7915
▁கர்ப்ப	-10.7916
▁மின்காந்த	-10.7917
▁பிரிவுகளாக	-10.7917
▁இலா	-10.7918
▁தீவின்	-10.792
tor	-10.7923
▁இலி	-10.7926
▁சீதை	-10.7928
▁பொற்	-10.7933
van	-10.7933
▁உற்பத்தியில்	-10.7936
▁முயல்	-10.7941
▁பட்டியலிட	-10.7945
▁பிரான்சிசு	-10.7948
▁உணர்ந்து	-10.7949
▁கணபதி	-10.7954
பட்டது	-10.7957
வந்தார்	-10.7958
▁அமர்த்த	-10.7959
▁வளர்ச்சியை	-10.7963
▁வழக்கறிஞர்	-10.7966
▁தெற்காசிய	-10.7966
▁ஈராக்	-10.7967
▁இலக்குகளை	-10.7968
ப்பாய்	-10.797
▁தலைவரான	-10.7971
சவ்வ	-10.7972
▁ஊதிய	-10.7974
▁திருமலை	-10.7976
▁சென்றனர்	-10.7976
▁செயற்	-10.7977
ங்கில்	-10.7977
னாவின்	-10.7982
▁மாறிலி	-10.7983
▁நடக்கிறது	-10.7988
▁திரும்பினார்	-10.7989
▁பஞ்சா	-10.7993
மகா	-10.7995
▁மூடிய	-10.7995
▁கூத்த	-10.8001
▁பாரா	-10.8004
▁கிராமப்புற	-10.8008
▁சிறுநீர்	-10.8011
▁நடராஜ	-10.8011
கடல்	-10.8015
▁பொழுதுபோக்கு	-10.802
▁நியம	-10.8021
▁ஆராய்ச்சியாளர்	-10.8022
▁An	-10.8022
▁பக்த	-10.8023
றிஞர	-10.8031
ந்ந	-10.8032
ree	-10.8032
▁வெளிவரும்	-10.8033
▁குஞ்சு	-10.8035
▁சனிக்கிழமை	-10.8038
▁கஜ	-10.8038
பிளா	-10.8039
நூல	-10.8042
பாண்டிய	-10.8043
மந்த	-10.8043
உலக	-10.8045
▁கொள்கையை	-10.8048
வேறு	-10.805
றிதல்	-10.805
கென்	-10.8051
▁00	-10.8051
செட்	-10.8054
▁துவங்கியது	-10.8054
▁ஆழ்ந்த	-10.8055
▁அகவையில்	-10.8056
▁ஹார்ட்	-10.8057
▁பெயரும்	-10.8058
ஜே	-10.8058
சேவை	-10.8059
▁சமாதி	-10.806
▁பொருள்களை	-10.8068
போன்	-10.8073
▁சேகரிக்க	-10.8074
▁நெஞ்ச	-10.8074
▁காரணிகள்	-10.8077
▁அழிவு	-10.8077
▁அழைக்கின்றனர்	-10.8078
▁(17	-10.8081
▁கண்டறியப்பட்டது	-10.8084
▁நான்க	-10.8086
▁மலையாளம்	-10.8087
▁கட்சியில்	-10.8089
▁அறநிலைய	-10.8091
▁வல்லுநர்	-10.8091
▁திகழ்கிறது	-10.8092
▁மேம்பாடு	-10.8092
▁பிரான்சிஸ்	-10.8093
ாச்சாரி	-10.8093
மடைய	-10.8097
தாகவே	-10.8098
▁பேரில்	-10.8099
▁வெற்றிபெற்ற	-10.8101
▁அல்லாமல்	-10.8105
ப்பதில்	-10.8105
▁புனைவு	-10.8105
▁அப்போ	-10.8106
▁உண்டாகும்	-10.8107
த்திறன	-10.8108
▁ஜம்மு	-10.811
யிற்	-10.8112
லுக்கான	-10.8112
▁நீக்கி	-10.8115
▁மிகுதி	-10.8118
ja	-10.8119
▁பாளைய	-10.8121
▁மில்	-10.8122
▁வாக்குகள்	-10.8123
▁ஈரப்பத	-10.8123
யிலை	-10.8124
az	-10.8124
▁எச்சரிக்கை	-10.8128
கோவில	-10.8131
க்கிட	-10.8137
▁கரைசல்	-10.814
▁சிட்டி	-10.8141
▁தற்காலிக	-10.8142
ராய்டு	-10.8144
▁இராமாயண	-10.8146
▁வடிவத்தை	-10.8146
▁போனது	-10.8149
▁பெண்ணை	-10.815
▁பெயராக	-10.8151
நீதி	-10.8152
▁இலைகள்	-10.8152
▁இடைமுக	-10.8155
▁அளிக்கிறது	-10.8155
▁கவச	-10.8155
▁கிடைப்பத	-10.8158
▁சொல்லும்	-10.8159
▁கண்டறி	-10.816
▁அடியில்	-10.816
▁ஏமாற்ற	-10.8161
▁அதுவே	-10.8161
▁சிவா	-10.8162
குடும்ப	-10.8162
▁விடுத்த	-10.8163
▁மிதமான	-10.8163
▁துரை	-10.8163
▁அதன்படி	-10.8164
▁மயில	-10.8164
கணித	-10.8166
க்காட்சி	-10.8167
▁அலைவரிசை	-10.8167
கற்	-10.8167
▁மாதங்களுக்கு	-10.8168
▁முந்திய	-10.8168
▁அரசை	-10.8169
▁ஷே	-10.8169
▁சான்றிதழ்	-10.8172
க்கல்லூரி	-10.8172
▁மயக்க	-10.8174
▁சுருங்க	-10.8175
▁அனுப்பப்பட்ட	-10.8176
▁அவனுக்கு	-10.8179
▁செல்சியசு	-10.8182
▁இக்குழு	-10.8185
▁தலைப்ப	-10.8185
▁பொறுத்தவரை	-10.8185
விட்டனர்	-10.819
▁உள்நாட்டுப்	-10.8194
கூறு	-10.82
குறிச்சி	-10.8201
▁தாமஸ்	-10.8201
▁உண்ணும்	-10.8201
▁இக்காலத்தில்	-10.8206
▁சொல்லை	-10.8207
▁ஆத்திரேலிய	-10.8207
▁அவருடன்	-10.8208
▁குடும்பத்தின்	-10.821
▁பெயரிட	-10.821
போர்டு	-10.821
▁வளர்ச்சியடைந்த	-10.8211
ிக்கொள்ள	-10.8212
▁கொள்கைகளை	-10.8213
ith	-10.8216
▁பெண்மணி	-10.8217
▁பயன்படுத்துவது	-10.8217
▁நினைக்க	-10.8218
▁பாய்ம	-10.8218
ாததால்	-10.822
▁நடிகர	-10.8221
▁மையமாகக்	-10.8223
▁பன்றி	-10.8223
கொடு	-10.8225
▁நூலாக	-10.8225
ிறோம்	-10.8226
▁சுவிட்சர்லாந்த	-10.8237
▁மூலிகை	-10.8237
▁மைக்ரோ	-10.8237
▁இவ்வூரில்	-10.8237
ில்லாமல்	-10.8239
▁என்பவன்	-10.824
▁வெற்றிட	-10.8241
▁நண்பர	-10.8244
னேட்டு	-10.8244
ிருக்கின்றது	-10.8245
மாதிரி	-10.8246
க்கொள்வத	-10.8249
கரமான	-10.8249
▁ஒன்	-10.825
▁அக்கா	-10.825
▁முறைகளில்	-10.8252
▁மறைமாவட்ட	-10.8255
ில்லாத	-10.8255
▁சத்த	-10.8258
▁குறைவ	-10.8258
▁முன்வைத்த	-10.8259
▁பயன்படுத்தினார்	-10.8259
▁அடுத்தடுத்த	-10.8265
▁600	-10.8269
▁தங்களுடைய	-10.8274
▁கிருஷ்ணா	-10.8274
▁இயற்கையான	-10.8275
▁துர்க்கை	-10.8276
▁இசைக்கருவி	-10.8279
குளோர	-10.828
த்தொகுதி	-10.8281
▁தாய்லாந்து	-10.8282
▁தினமும்	-10.8282
▁செலுத்தும்	-10.8285
▁நகரமாக	-10.8286
aj	-10.8289
▁கத்தி	-10.829
▁படிவ	-10.829
▁அழைக்கப்படுகிறா	-10.8291
ாண்டில்	-10.8293
▁பூர்த்தி	-10.8293
▁கொண்டாட்ட	-10.8294
▁வருமானம்	-10.8295
▁1932	-10.8296
▁துரித	-10.8303
▁நிர்வாகத்	-10.8306
விடுகிறது	-10.8307
▁கிண்ண	-10.8309
▁பற்றாக்குறை	-10.831
▁கோபி	-10.831
St	-10.8311
▁விரிவுபடுத்த	-10.8312
nal	-10.8315
▁துறைமுகம்	-10.8315
▁தொடங்குகிறது	-10.8319
▁ஐதராக்சைடு	-10.8319
வோர்	-10.8327
▁ஒதுக்கப்பட்ட	-10.8327
▁மூடி	-10.8328
▁57	-10.8328
▁வினையூக்கி	-10.8329
▁பரிமாற	-10.833
▁நுண்ணுயிரி	-10.8332
கிருத	-10.834
ance	-10.8345
▁மாண்ட	-10.8348
uth	-10.835
புராண	-10.8352
ினதும்	-10.8353
▁பொருளில்	-10.8354
ett	-10.8357
▁ஆண்டுக்கான	-10.836
▁காவல	-10.8361
▁De	-10.8368
▁வெளியேறி	-10.8371
▁காப்பிய	-10.8374
q	-10.8377
▁ஜனாதிபதி	-10.8384
▁ஏழாம்	-10.8384
▁உடன	-10.8385
▁முறையும்	-10.8386
▁பரப்பளவைக்	-10.8386
க்கேற்ப	-10.8387
▁தனித்து	-10.8387
▁வேகத்தில்	-10.8389
ுபவை	-10.839
ப்பொருளாக	-10.8392
▁இயக்கியுள்ளார்	-10.8398
வதற்காக	-10.8398
▁எபிரேய	-10.8403
▁உலகக்கோப்பை	-10.8403
▁பொறுப்பை	-10.8403
மண்	-10.8411
▁நிகழ்ந்தது	-10.8413
amp	-10.8414
IC	-10.8418
▁ஹொ	-10.842
▁கைப்பற்றினார்	-10.8421
▁நெட்வொர்க்	-10.8421
▁அன்றாட	-10.8422
▁தலைவன	-10.8423
▁இசுரேல	-10.8424
Si	-10.8424
her	-10.8429
ank	-10.843
மெத்தில்	-10.843
▁வட்டி	-10.8431
▁அதிகாரபூர்வ	-10.8434
▁பாம்ப	-10.8435
கின்றார்	-10.8437
▁தலைமையக	-10.8438
▁குரல	-10.8439
▁நிலப்பரப்பு	-10.8439
▁கோதுமை	-10.8442
▁காளை	-10.8444
▁திட்டமிட	-10.8444
▁பாங்க	-10.8445
▁நிரலாக்க	-10.8446
ஸன்	-10.8447
▁மீதி	-10.8452
▁குஜராத்	-10.8453
ங்களி	-10.8456
▁விவசாயி	-10.8456
▁சொத்துக்கள	-10.8458
▁81	-10.8458
▁பரிணாம	-10.8459
▁வேற்றுமை	-10.8459
▁தொகுப்பில்	-10.846
நாராயண	-10.8461
ரத்தினம்	-10.8463
▁கிழமை	-10.8465
▁மலேசியாவின்	-10.8465
▁சந்திப்ப	-10.8465
க்கொண்டிருந்த	-10.8466
நாட்டில்	-10.8468
▁செயல்திறன	-10.8469
▁செலவில்	-10.8469
▁தனிமங்கள்	-10.8471
Per	-10.8471
▁சதி	-10.8472
▁பழங்குடியினர	-10.8473
▁ஆக்கிரமிப்ப	-10.8478
▁சமீபத்திய	-10.8478
▁முற்ற	-10.8479
▁விளங்குகின்றது	-10.848
தெய்வ	-10.8481
▁கூறுகள்	-10.8481
▁கனவு	-10.8486
செல்ல	-10.8487
▁தங்கியிருந்த	-10.8487
▁கூறப்படும்	-10.8489
ருமேனிய	-10.8489
ஸெ	-10.8491
▁88	-10.8492
ப்பாளர்	-10.8494
▁விவகார	-10.8497
▁ஆதாரமாக	-10.85
▁கனக	-10.8503
▁சித்தி	-10.8508
▁வருடங்கள்	-10.8512
வெர்	-10.8513
▁பாதிக்கப்பட	-10.8516
▁மலையின்	-10.8518
னியன்	-10.8519
▁கடன	-10.8519
▁நிகழ்கிறது	-10.8522
▁சகோதரர்கள்	-10.8522
▁ஒவ்வொன்றும்	-10.8524
▁விசாக	-10.8525
▁தமக்கு	-10.8525
ாளரான	-10.8528
▁சபையின்	-10.8533
▁விண்	-10.8533
▁மைக்ரோசாப்ட்	-10.8534
▁பள்ளத்தாக்க	-10.8535
▁இறுக்க	-10.8537
ook	-10.8538
ப்பதன்	-10.8539
▁குறைவாகவே	-10.854
▁நகரும்	-10.854
▁எண்ணை	-10.8541
▁சேர்ப்ப	-10.8543
க்கடை	-10.8548
▁வழிபாட்ட	-10.8549
▁உப்ப	-10.8549
▁பொறியாளர்	-10.855
▁(0	-10.8551
▁உயிரிழந்த	-10.8553
▁பிணைய	-10.8559
டெய்	-10.8562
பொழி	-10.8566
▁வானியலாளர்	-10.8566
▁நிர்ணய	-10.8567
▁குழந்தைகளின்	-10.8568
▁1900	-10.8569
ிலிருக்கும்	-10.8571
▁மகாராட்டிர	-10.8573
▁துருக்கி	-10.8573
▁ஊதா	-10.8574
னிலை	-10.8575
▁நுகர்வோர்	-10.8578
▁பக்தர்	-10.8578
▁கூலி	-10.8579
▁தயார்	-10.8579
▁நாடி	-10.8579
▁இந்நூலில்	-10.858
▁பெயரிடப்பட்டது	-10.858
▁up	-10.858
சாலி	-10.8581
▁பாக்டீரியா	-10.8584
▁இதழ்களில்	-10.8587
▁திட்டங்களை	-10.8588
▁கம்யூனிஸ்ட்	-10.8591
▁ஸ்டுடியோ	-10.8591
▁நுழைவாயில	-10.8593
▁ரோஜா	-10.8602
▁வாகை	-10.8602
▁சொற்களை	-10.8604
பிள	-10.8606
ப்படல	-10.8606
▁குறிப்பிட்டார்	-10.8609
▁சிவராத்திரி	-10.861
▁பிரீமியர்	-10.861
▁வைட்டமின்	-10.861
▁விரிகுடா	-10.861
▁இயற்கணித	-10.861
ava	-10.8616
▁புகார	-10.8619
▁பதிப்பகம்	-10.862
▁நொடி	-10.8621
ப்பட்டால்	-10.8622
▁கிரீன்	-10.8622
▁கட்டுரைகளை	-10.8622
▁பொதுநலவாய	-10.8629
▁61	-10.8629
களிலுள்ள	-10.8631
the	-10.8637
▁நடுவ	-10.8638
▁தொழிலாளர்கள்	-10.8639
▁வகுக்க	-10.8641
int	-10.8643
▁அச்சிட	-10.8645
▁தாவரவியல்	-10.8645
▁பாண்டவர்	-10.8646
▁குழல	-10.8646
▁ஈர்க்க	-10.8647
▁சான்ற	-10.8649
▁நேர்ந்த	-10.865
▁துவார	-10.8651
▁ஆதாரங்கள்	-10.8651
▁வீசி	-10.8654
▁கௌதம	-10.8654
▁ஜப்பான	-10.8657
த்திணை	-10.8657
▁நிகழ்ச்சிகளை	-10.8657
do	-10.8658
▁சிறிதளவு	-10.8659
▁அரபி	-10.8659
ோடி	-10.866
பூரில்	-10.8661
▁Sh	-10.8663
▁கொள்கின்றன	-10.8663
so	-10.8666
▁வாழ்கின்றன	-10.8666
▁நெகிழி	-10.8667
▁ஆரம்பித்து	-10.867
கட்டு	-10.8674
▁நெதர்லாந்து	-10.8676
ோரின்	-10.8679
▁எடுக்கும்	-10.8681
▁முயற்சியில்	-10.8682
John	-10.8686
▁இரத்தின	-10.869
▁செய்கின்றனர்	-10.8693
▁அம்ப	-10.8699
▁69	-10.8702
▁வருகின்ற	-10.8702
▁கிலோமீட்டர்கள்	-10.8705
▁ஆற்காடு	-10.8705
க்கென	-10.8706
▁வடமேற்க	-10.8707
▁குழாய	-10.8707
▁வாரிசு	-10.8708
▁பெரியார்	-10.871
▁பிரிவினர	-10.8712
கொள்வதற்கு	-10.8713
ச்செயல	-10.8713
▁செய்முறை	-10.8714
▁தெரிவிக்கின்றன	-10.8716
▁கிரெ	-10.8717
▁நடத்தப்பட்டது	-10.8717
▁கோவிலின்	-10.8719
ச்சொல்ல	-10.872
▁இருக்கும்போது	-10.8723
▁ஆகியவற்றுக்கு	-10.8723
▁அம்பு	-10.8723
▁அரக்கோணம்	-10.8724
▁கோலாலம்பூர	-10.8724
▁சாப	-10.8724
▁முதுகெலும்ப	-10.8724
▁சித்தாந்த	-10.8725
▁புதுப்பிக்க	-10.8725
▁உறுதியாக	-10.8726
எஃப்	-10.8726
▁திகழ	-10.8727
▁அமைப்பாகும்	-10.8728
▁பிரசுர	-10.8728
▁வினா	-10.8729
மொன்ற	-10.873
▁தொல்காப்பியம்	-10.8732
▁கருத்துக்கள்	-10.8736
▁உருவாக்கப்படும்	-10.874
▁டெர்	-10.8742
▁ஊட்டச்சத்து	-10.8744
▁74	-10.8746
▁முன்னேற்றம்	-10.8747
ருடைய	-10.8748
ிணைப்பு	-10.8749
மல்ல	-10.875
▁பிரித்தெடுக்க	-10.8751
ஹே	-10.876
▁அருட்	-10.8761
▁கூறுவது	-10.8761
▁கிறித்துவ	-10.8762
ென்ற	-10.8765
▁திருமால்	-10.8767
▁அமைந்திருந்தது	-10.8768
▁தோன்றுகிறது	-10.8772
▁விரல்	-10.8774
▁எழுதப்பட்டது	-10.8777
ice	-10.8777
▁திருத்தல	-10.8778
பீட	-10.8779
▁புத்தகங்கள்	-10.8779
த்திற்க	-10.8782
▁ஆலோசகர	-10.8782
▁ஆதரவை	-10.879
▁விநாயக	-10.8791
▁முகாம	-10.8798
ரெஸ்	-10.8799
▁யாரும்	-10.8801
▁அடங்குவர்	-10.8802
▁சங்கீத	-10.8803
ஷே	-10.8809
▁கிடைக்கவில்லை	-10.8809
ங்களுக்காக	-10.8809
ஸோ	-10.8813
ust	-10.8814
▁பல்லவர்	-10.8818
▁இன்றியமையாத	-10.8821
▁தினசரி	-10.8822
▁பகிர	-10.8823
▁கர்நாடகா	-10.8823
▁வெற்றிகரமான	-10.8824
ரணம்	-10.8824
▁மகேந்திர	-10.8825
ear	-10.8828
த்தோற்ற	-10.8828
தமிழ	-10.8831
ue	-10.8831
▁வடிவங்களில்	-10.8831
▁அனந்த	-10.8832
கொழு	-10.8832
▁ஐந்த	-10.8834
▁வழிகாட்டி	-10.8835
▁மெக்சிக்கோ	-10.884
▁யூனியன்	-10.8842
▁1928	-10.8845
▁முதுகு	-10.8846
▁படும்	-10.885
க்கோட்ட	-10.8852
ட்ரீ	-10.8856
▁இதழின்	-10.8857
▁போன்றோர்	-10.8858
▁ஞாயிற	-10.8858
▁வாக்காளர்	-10.886
▁குன்று	-10.8861
ாலான	-10.8864
▁விருதுநகர்	-10.8865
700	-10.8865
▁சக்கரத்தின்	-10.8866
▁சாட்சி	-10.8866
▁என்பவற்றை	-10.8869
▁ஆகியோரால்	-10.8871
▁பதக்கம்	-10.8874
ிருப்பு	-10.8875
▁எலிசபெத்	-10.8879
▁ஊக்குவிக்க	-10.8879
▁பதவியேற்ற	-10.8882
▁வெடிப்பு	-10.889
▁இடம்பெறும்	-10.8893
▁வகிக்க	-10.8893
▁என்னுமிடத்தில்	-10.8899
▁வான்படை	-10.89
▁நேர்மறை	-10.89
▁இத்திரு	-10.8902
க்காலத்தில்	-10.8903
ப்பொருட்கள்	-10.8907
▁எசுப்பானியா	-10.8907
▁தீர்ப்பு	-10.8909
iss	-10.891
▁co	-10.8914
ood	-10.8915
▁68	-10.8916
▁இலண்டன்	-10.8918
▁மட்டுமன்றி	-10.8918
▁மெய்யெண்	-10.8919
▁சேர்மங்கள	-10.8922
▁குறைய	-10.8925
lor	-10.8925
▁99	-10.8926
▁ஆபிரிக்க	-10.8927
▁US	-10.8933
▁நற்	-10.8936
▁அட்லாண்டிக்	-10.8938
▁நிரூபிக்க	-10.8938
▁பீரங்கி	-10.8938
▁வேண்டுகோள	-10.8938
▁நுண்ணுயிர்	-10.8938
▁இறகு	-10.8938
▁வயதிலேயே	-10.894
▁வைக்கும்	-10.894
▁எதிர்மின்	-10.8942
▁இனப்பெருக்கம்	-10.8942
▁இட்ட	-10.8944
ருத்தி	-10.8946
ty	-10.8949
▁அம்சங்களை	-10.8949
▁தேவைப்படுகிறது	-10.8951
வளைய	-10.8955
க்ளோ	-10.8956
▁காலத்துக்கு	-10.8957
▁பணியாற்றியவர்	-10.896
▁பிராட்	-10.8962
▁முடிவுகளை	-10.8965
▁படைத்துறை	-10.8966
▁பிரிவின்	-10.897
▁முழுதும்	-10.8971
▁மௌ	-10.8974
▁வாசித்த	-10.8975
▁பூஞ்சை	-10.8977
▁மனிதனின்	-10.8978
▁நிலப்பரப்ப	-10.8979
▁மைல்கள்	-10.898
▁1924	-10.8982
▁உறுதியான	-10.8985
▁உள்ளதால்	-10.8986
les	-10.8986
▁நடத்தும்	-10.8988
▁1919	-10.8988
▁அவசியமாக	-10.8989
▁சிலப்பதிகார	-10.8997
▁மும்பையில்	-10.9
▁தொழிலை	-10.9001
▁இடம்பெற்றது	-10.9002
மேடு	-10.9004
▁பின்வாங்க	-10.9005
ன்பட்டி	-10.9006
▁கனடிய	-10.9008
▁ஆல்பம்	-10.9008
தூதர்	-10.901
▁ஒருவரின்	-10.9011
▁வேளை	-10.9011
▁நுழைவு	-10.9014
▁விளக்குகிறது	-10.9015
▁நிகழ்வுகளை	-10.9015
▁பகுதிகளைக்	-10.9016
▁வயதுக்கு	-10.9017
▁முதலாளி	-10.9019
▁கொண்டுவரப்பட்ட	-10.9023
▁எண்ணற்ற	-10.9024
▁ஆகியவற்றுடன்	-10.9024
▁கலைஞர்கள்	-10.9025
▁73	-10.9028
eri	-10.9036
ிவிடும்	-10.9036
ng	-10.9039
▁அவசிய	-10.9039
▁காலனி	-10.904
▁1933	-10.904
ெறி	-10.9044
▁இப்பாடல	-10.9045
▁டிரி	-10.9045
பாலி	-10.905
நாட்	-10.9051
▁வேண்டுமென	-10.9051
▁கேரளத்தின்	-10.9055
▁நகர்வு	-10.9055
முதல	-10.9056
▁யெ	-10.9056
▁மாறுபாடு	-10.9058
▁இணைந்தார்	-10.9061
▁வயல்	-10.9064
▁71	-10.9067
▁சமயத்தை	-10.9069
▁காரிய	-10.907
▁ஆண்டிற்கு	-10.907
மதிப்பு	-10.9071
▁வித்யா	-10.9074
▁ஸ்டெ	-10.9074
▁பெங்களூர்	-10.9076
▁தழுவ	-10.9077
▁சிகர	-10.9079
▁ஜொ	-10.908
▁அறியப்பட்டது	-10.9084
▁குறிப்பிடுகின்ற	-10.9084
லத்தீன	-10.9085
▁அதன்பின்	-10.9086
▁கட்டமைப்பை	-10.909
▁எழுத்தாளர	-10.9091
▁அரண்	-10.9092
▁அறியலாம்	-10.9093
▁வேளைகளில்	-10.9096
▁வினைபுரிந்து	-10.9096
▁கணக்கெடுப்பு	-10.9096
▁பாதுகாக்கப்பட்ட	-10.91
ப்பெண்	-10.9101
▁நிர்ணயிக்க	-10.9101
▁இறங்கி	-10.9102
▁தொகுத்த	-10.9103
▁சந்தா	-10.9104
ங்களாகவும்	-10.9106
▁அருகாமையில்	-10.9106
ுவான்	-10.9116
▁மாபெரும்	-10.9116
▁என்னை	-10.9117
Man	-10.9119
▁ஆலி	-10.9123
▁சமூகத்தில்	-10.9123
மட்டத்திலிருந்து	-10.9126
▁புதுமை	-10.9126
களில	-10.9129
▁கூட்டி	-10.913
▁பராமரிப்பு	-10.9133
ஹீ	-10.9134
▁முழுவதிலும்	-10.9136
▁நன்கொடை	-10.9136
▁சற்றே	-10.9136
▁பாடல்களில்	-10.9138
▁செயல்பாட்டு	-10.9139
▁இந்நிலையில்	-10.914
▁செய்வதற்காக	-10.914
▁கன்ன	-10.9143
▁உரிமையை	-10.9145
▁தங்கை	-10.9145
▁இறைவனை	-10.9145
▁தொடர்ந்தார்	-10.9149
▁சேர்ந்தவர்கள்	-10.9149
▁விஷயங்கள	-10.9152
ப்படும்போது	-10.9153
▁மாரி	-10.9155
▁பிரகடன	-10.9156
▁அதிர்ச்சி	-10.9156
த்தொடங்க	-10.9157
நியூ	-10.9158
▁விளைபொருள	-10.9164
▁கழுத்து	-10.9164
▁அனைத்த	-10.9168
ிறக்க	-10.9168
▁சுருள்	-10.9169
▁அம்சங்கள்	-10.917
▁பர்மா	-10.917
pur	-10.917
▁சம்ப	-10.9173
▁மூவர	-10.9175
▁திமுக	-10.9175
▁வான்காணக	-10.9176
▁மட்டுமல்லாமல்	-10.9177
▁அதனுடைய	-10.9178
▁எண்ணிம	-10.918
▁1925	-10.9183
▁ஜோதி	-10.9189
▁முனிவர	-10.9192
பின்னர்	-10.9193
▁தொடரை	-10.9193
▁உருது	-10.9194
▁நடைமுறைப்படுத்த	-10.9195
▁அக்கறை	-10.9197
▁வெளிப்படையாக	-10.9197
▁புகையிலை	-10.9197
▁பதவியை	-10.9198
▁எம	-10.9199
▁அண்ணாமலை	-10.92
▁கொங்க	-10.9202
ஷ்டி	-10.9209
▁வழிவகுத்தது	-10.9212
▁ஹால்	-10.9214
ock	-10.9214
ப்பிற்கு	-10.9216
▁இந்நிகழ்வ	-10.9217
த்தன்மையை	-10.9217
▁புல்ல	-10.9217
▁கவர்ச்சி	-10.9217
▁செயற்பட்ட	-10.9218
▁பரிமாண	-10.9218
▁வணக்க	-10.9218
▁மக்களாட்சி	-10.9218
▁நுகர்வ	-10.9226
▁சட்டங்கள்	-10.9228
ாயினும்	-10.923
▁பாடினார்	-10.9231
▁Pro	-10.9233
▁பத்தாம்	-10.9238
▁பயணிக்க	-10.9238
▁பண்ண	-10.9239
▁கொள்வது	-10.9239
▁பூச்சிய	-10.9239
▁வீச்சு	-10.924
சமுத்திரம்	-10.9242
▁Li	-10.9243
த்தீவு	-10.9243
த்திலே	-10.9245
▁அளித்தது	-10.9249
அரச	-10.925
▁நேர்மின்	-10.9252
▁ஓவர்	-10.9253
▁தந்தையார்	-10.9254
▁தமிழ்நாட்டு	-10.9257
▁கண்காணிக்க	-10.9257
▁இளவரசி	-10.9257
யதுக்குட்பட்டோர்	-10.9258
எண்	-10.9258
▁பாண்ட	-10.9267
▁முதலியார்	-10.9268
sis	-10.9276
▁இப்படத்தின்	-10.9278
▁பெங்களூரு	-10.9278
மண்ட்	-10.928
▁எக்சு	-10.9281
ுமானால்	-10.9285
▁இருக்காது	-10.929
கார்ட்	-10.9297
▁காலப்போக்கில்	-10.9298
▁முதலமைச்சர்	-10.93
▁இருப்பார்	-10.9301
▁நிறமாலை	-10.9302
மில்லாத	-10.9305
▁விருத்த	-10.9305
பெரிய	-10.931
▁ஆத்ம	-10.9312
▁பேதுரு	-10.9318
AS	-10.9319
▁சம்பந்தப்பட்ட	-10.9319
▁விலங்குகளின்	-10.9319
பாடல்	-10.9323
▁நாட்டிய	-10.9323
▁பொங்கல்	-10.9324
▁தொட்ட	-10.9326
பேறு	-10.9328
ிருக்கின்றனர்	-10.933
▁ஹாரி	-10.9332
ங	-10.9333
▁கண்டறிந்தார்	-10.9334
▁சவால	-10.9336
che	-10.9336
▁செல்வாக்க	-10.9336
▁முனையில்	-10.9337
▁வேறொரு	-10.9339
▁காற்றில்	-10.934
▁நடுக்க	-10.9341
நிரல	-10.9345
▁மற்றொன்று	-10.9349
▁பவள	-10.935
▁தகடு	-10.935
▁மூன்றில்	-10.9355
▁அந்நாட்ட	-10.9356
டெல்	-10.9357
▁ஒடிசா	-10.9359
▁மீட்க	-10.9359
▁சேவையை	-10.936
ாயுத	-10.9363
gen	-10.9364
▁இம்மலை	-10.9365
▁நடைபெறுகின்றன	-10.9365
▁கைதி	-10.9367
▁செய்தவர்	-10.9368
▁இலட்சம்	-10.9369
நல	-10.9369
களானது	-10.9369
▁நடத்தப்படும்	-10.937
க்கொண்டே	-10.9373
வாதிகள்	-10.9375
▁செயல்பாடுகளை	-10.9376
▁மேற்பரப்பில்	-10.9376
▁கம்பனி	-10.9376
▁இருபதாம	-10.938
▁வெடித்த	-10.938
▁ஆசியாவில்	-10.9382
▁அமிலங்கள்	-10.9382
▁இதுவாகும்	-10.9383
▁அழித்த	-10.9383
▁1926	-10.9384
▁குடியரசின்	-10.9385
▁பூக்கள்	-10.9387
▁தள்ளி	-10.9388
யிலோ	-10.9391
▁நிலத்தை	-10.9392
▁வால	-10.9392
▁அறிவை	-10.9395
▁மலைத்தொடர	-10.9398
ology	-10.94
▁ஆப்பிள்	-10.9403
▁கலந்துகொண்ட	-10.9403
▁பூக்கும்	-10.9403
aya	-10.9405
▁சக்தியை	-10.9406
▁மிருக	-10.9408
▁இயல்பாக	-10.9408
▁வாயில	-10.9413
thi	-10.9414
▁விளக்கும்	-10.9416
▁நிமிடங்கள்	-10.9416
▁கபில	-10.9418
▁அரசர்கள்	-10.9419
▁மட்டுமின்றி	-10.942
▁கண்டார்	-10.9421
▁மகாத்மா	-10.9421
▁ஒன்றே	-10.9422
▁கருதுகோள	-10.9422
▁அதேவேளை	-10.9424
▁மாயா	-10.9426
▁அரசாங்கத்தின்	-10.9426
▁பாசன	-10.9429
▁திசையன்	-10.9429
▁அங்கமாக	-10.9433
▁சிக்கல்கள்	-10.9437
களாவன	-10.9438
த்தாள்	-10.9438
▁ஜெர்மனியின்	-10.9439
ack	-10.9441
▁பூமியில்	-10.9442
▁இப்பொழுது	-10.9444
▁தயாராக	-10.9444
▁மகாராஜ	-10.9445
▁கேட்ப	-10.9445
▁மாடி	-10.9446
▁1921	-10.9446
▁சிப்பாய்	-10.945
▁அளிக்கப்பட்ட	-10.9452
▁வரையப்பட்ட	-10.9456
▁நாடகங்கள்	-10.9457
▁இருத்தல்	-10.9457
▁காரணங்கள	-10.9458
▁புளோரைடு	-10.9458
app	-10.9458
▁இளவரசர்	-10.946
▁ஜெர்மானியப்	-10.9464
ச்செல்ல	-10.9465
▁யுனி	-10.9465
▁இணக்க	-10.9466
▁மேட்டு	-10.9466
▁உருவாக்குகின்றன	-10.9468
▁திருப்பதி	-10.9468
▁பரவியது	-10.9469
ச்சர	-10.9472
▁நூற்றாண்டுகளில்	-10.9472
என	-10.9473
300	-10.9475
ஃபர்	-10.948
ram	-10.9481
▁திருகோணமலை	-10.9482
▁பிடாரி	-10.9483
National	-10.9483
▁திபெத்திய	-10.9483
hu	-10.9484
▁இலக்கியத்தில்	-10.9486
▁அசாம்	-10.9487
▁76	-10.9488
tal	-10.9488
▁ஜீவ	-10.9489
▁குடும்பங்கள்	-10.9493
▁வெளிநாடு	-10.9493
▁லட்ச	-10.9495
▁ஓவியர்	-10.9496
chi	-10.9497
▁பிரிய	-10.9498
▁செருமானிய	-10.9503
▁மில்லியன	-10.9503
▁ஒப்பிடுகையில்	-10.9504
▁மென்மையான	-10.9504
கெல்	-10.9506
▁இந்நிலை	-10.9507
▁வினையில்	-10.9507
▁கிருமி	-10.9516
▁சாதனையை	-10.9517
▁துல்லியமான	-10.9518
மனித	-10.9519
ப்போட்டி	-10.952
▁கண்காணிப்ப	-10.9521
▁கல்வெட்ட	-10.9523
▁கட்சியைச்	-10.9527
▁ஸ்பெயின	-10.953
றுத்த	-10.9532
▁சொல்லுக்கு	-10.9532
பார்க்க	-10.9534
▁மராத்திய	-10.9534
▁துவங்கிய	-10.9535
▁அரசியலமைப்ப	-10.9538
▁செய்யவும்	-10.9538
▁பயன்படுத்தினர்	-10.9539
▁தொழிலில்	-10.954
▁புத்தகத்தில்	-10.9543
▁அதிரடி	-10.9545
▁குடியரச	-10.9545
▁மூலக்கூற	-10.9546
▁சத்திர	-10.9547
▁பட்டியலிடப்பட்ட	-10.9551
▁சாந்தி	-10.9553
யூட்டி	-10.9554
NO	-10.9554
▁பின்னரே	-10.9562
▁ஹோட்டல்	-10.9562
▁நார்வே	-10.9564
▁பூச்சிகள்	-10.9564
▁போற்றி	-10.9565
▁நாட்டைச்	-10.9566
▁சமாதான	-10.9566
▁போராட்டத்தில்	-10.9567
▁வகிக்கிறது	-10.9568
▁பயன்படுகின்றது	-10.9568
▁படங்களை	-10.9571
▁83	-10.9572
ுணர்ச்சி	-10.9574
▁கொண்டதாகும்	-10.9575
▁இன்னமும்	-10.9576
▁உருவாவத	-10.9577
▁இத்தொகுதி	-10.9579
▁பேரி	-10.958
▁தியோ	-10.9581
▁ஏஞ்சல	-10.9584
ட்டிங்	-10.9586
பிடிக்க	-10.9587
▁கலைஞர	-10.9591
▁இசையை	-10.9595
hal	-10.9596
▁நீளமும்	-10.9598
▁கூட்டத்தில்	-10.9599
▁திபெத்	-10.9602
▁சிரியா	-10.9606
▁இறக்குமதி	-10.9607
ளித்த	-10.9609
ுதலுக்கு	-10.961
▁படைப்பிரிவு	-10.9611
▁உருமாற்ற	-10.9611
▁திருமால	-10.9612
▁தரையில்	-10.9614
▁1927-	-10.9615
▁செய்கின்ற	-10.9615
▁நெருக்கமாக	-10.9618
▁டெட்ரா	-10.9618
ox	-10.962
▁தாள்	-10.9622
▁இதன்படி	-10.9624
▁சமகால	-10.9625
PA	-10.9625
▁சொல்லப்படுகிறது	-10.9626
▁ஆழ்வார்	-10.963
▁தகவலை	-10.9631
ரம்ப	-10.9636
▁1912	-10.9636
▁கடற்கரையில்	-10.9637
▁மேலதிக	-10.9637
இதழ்	-10.9638
▁நாடா	-10.964
▁கலக	-10.9643
▁சிங்கப்பூர	-10.9645
▁தாக்கிய	-10.9646
▁தேவைகளை	-10.9646
▁ஈடுபடுத்த	-10.9649
▁கல்கத்தா	-10.965
▁குரங்கு	-10.965
▁செவ்வாய்	-10.9652
▁மூழ்க	-10.9653
▁ரயில்வே	-10.9654
▁சட்டத்தை	-10.9656
▁கணவர்	-10.9657
▁கைவிடப்பட்ட	-10.9659
▁ஒழுங்குபடுத்த	-10.9662
▁மேலை	-10.9663
▁இச்சொல்	-10.9665
▁கட்சியை	-10.9665
▁பச்ச	-10.9666
▁காட்டுகின்றன	-10.9667
▁கருணாநிதி	-10.9671
▁யுக	-10.9671
ினையும்	-10.9673
go	-10.9674
▁தேய்	-10.9675
▁நீதிமன்றத்தில்	-10.9676
▁பெறுவதற்கு	-10.9679
▁இசுலாமியர்	-10.968
▁சிதம்பர	-10.9682
▁கிராமத்தின்	-10.9683
▁மங்கல	-10.9685
ப்பெற்றது	-10.9687
▁பெரிதாக	-10.9689
▁சுண்ணாம்பு	-10.9692
▁தேங்காய்	-10.9692
▁பிரபஞ்ச	-10.9692
▁முழுவதுமாக	-10.9692
▁இலக்கியங்கள்	-10.9695
▁கணிப்பு	-10.9698
▁குணப்படுத்த	-10.9699
ுயிரி	-10.9699
▁டவுன்	-10.9704
▁கோயிலை	-10.9705
குமாரி	-10.9705
▁அகன்ற	-10.9705
▁இருக்கிற	-10.9705
▁இனக்குழு	-10.9706
▁பாதுகாப்பான	-10.9706
▁பலமுறை	-10.9707
▁சங்கர்	-10.9708
வரே	-10.9712
▁சாம்பியன்	-10.9712
▁மகரந்த	-10.9713
ாமலும்	-10.9713
▁மீறி	-10.9713
▁தகவல	-10.9714
காய்	-10.9714
▁ரோமானிய	-10.9714
▁1922	-10.9718
▁ஸ்டே	-10.9719
ung	-10.972
▁திணை	-10.9722
ase	-10.9724
▁உரையாடல்	-10.9728
▁போராடி	-10.9728
▁ஆதரவாளர்	-10.9729
▁வியட்நாம்	-10.9731
▁தரமான	-10.9733
▁ஆகியவையும்	-10.9734
▁தணிக்கை	-10.9734
▁பகுதிகளும்	-10.9734
▁மறுத்து	-10.9735
ஃபே	-10.9737
யியலில்	-10.9737
ெண்ண	-10.9741
▁கொண்டவையாக	-10.9748
▁கருவிகளை	-10.9751
▁சிவலிங்க	-10.9753
▁தாமிர	-10.9753
▁பெறவில்லை	-10.9754
த்தினுள்	-10.9755
▁பொள்ளாச்சி	-10.9755
▁முஸ்லீம்	-10.9755
▁சப்பானிய	-10.9756
▁பூட்ட	-10.9756
▁வீட்டிற்கு	-10.9757
▁con	-10.9762
AD	-10.9762
ிதழ	-10.9766
▁கெய்	-10.9768
▁அடிப்படையான	-10.9769
▁பௌ	-10.9769
ica	-10.9769
Di	-10.9773
▁அன்றி	-10.9775
▁Jump	-10.9777
▁350	-10.9777
▁களி	-10.9778
▁எங்கும்	-10.9778
▁அனைவருக்கும்	-10.9778
▁காடுகளில்	-10.9781
▁பள்ளிவாசல்	-10.9783
▁நிறுவனமாக	-10.9786
ட்டூர்	-10.9787
▁ஆட்டக்காரர்	-10.979
▁முன்வைக்க	-10.9791
விட்டால்	-10.9791
▁அரசியல	-10.9791
are	-10.9792
▁இராணி	-10.9793
▁ஆகியவற்றால்	-10.9795
சியன்	-10.9795
▁வருகின்றார்	-10.9796
▁நிலத்தடி	-10.9798
▁பயிர	-10.98
▁புறா	-10.98
▁பேட்	-10.9802
காட்சி	-10.9804
▁உயர்நிலை	-10.9808
▁அன்னா	-10.981
▁எப்போது	-10.9814
▁கருத்துரு	-10.9815
கருதப்படுகின்றது	-10.9815
உரு	-10.9817
▁வணங்கி	-10.9818
▁வசிக்க	-10.9818
▁ஈய	-10.982
த்தொழில்	-10.982
lan	-10.9821
▁மொழிபெயர்த்த	-10.9821
▁தீவுகளில்	-10.9822
ினூடாக	-10.9823
வள்ளி	-10.9823
▁நகர்ப்புற	-10.9825
▁அப்படியே	-10.9829
▁வழிகளில்	-10.9835
▁குழுவினர்	-10.984
▁துத்தநாக	-10.9841
கடத்த	-10.9843
▁இக்கோவில்	-10.9844
▁பாராட்டி	-10.9846
ft	-10.9847
▁உலா	-10.9852
▁ஓலை	-10.9852
▁வருமாறு	-10.9858
▁வாசகர்	-10.9859
▁செப	-10.986
▁ஃப்ள	-10.986
▁அரேபிய	-10.9863
▁நிறமற்ற	-10.9863
▁கடினமாக	-10.9863
▁காரணமான	-10.9865
fer	-10.9868
▁வரம்ப	-10.9871
▁எழுத்தாளரும்	-10.9875
▁காவலர்	-10.9876
▁துடுப்ப	-10.9879
▁காலத்திலேயே	-10.9879
▁கோளாறு	-10.9886
▁பரந்து	-10.9888
▁கூற்ற	-10.9889
▁படையெடுப்ப	-10.989
unt	-10.9893
சயன	-10.9894
▁நேர்த்தி	-10.9895
▁ஊரின்	-10.9897
▁சீரான	-10.9898
▁கூறப்பட்டுள்ளது	-10.9898
▁அழைத்துச்	-10.9899
▁சந்தன	-10.9899
▁மேற்படி	-10.99
ிருக்கவில்லை	-10.9902
ஸ்ஸி	-10.9906
▁பண்டித	-10.9906
▁தொழிற்துறை	-10.9907
▁ரகசிய	-10.9913
HO	-10.9913
▁முடுக்க	-10.9915
▁வகையாக	-10.9918
▁வீரராக	-10.9922
▁நச்சுத்தன்மை	-10.9924
ost	-10.9925
▁செங்கிஸ்	-10.9928
▁விளிம்பு	-10.9929
▁எட்டாம்	-10.9929
▁புரிந்துகொள்ள	-10.993
▁79	-10.9931
▁வரதராஜப்பெருமாள	-10.9932
▁அதேபோல	-10.9933
▁தந்திர	-10.9933
நிறை	-10.9935
ata	-10.9937
▁1910	-10.9939
ுவதுடன்	-10.9942
▁ஓடும்	-10.9943
▁ஊரை	-10.9943
▁மெகா	-10.9943
▁அகதி	-10.9945
▁மிகச்சிறந்த	-10.9949
▁புல்வெளி	-10.9951
▁வேறுபடுத்தி	-10.9951
▁திசுக்கள	-10.9955
▁வடிகட்ட	-10.996
▁குமர	-10.9966
▁வார்டு	-10.9966
▁மாச	-10.9971
▁ரீதியில்	-10.9971
▁சாம்பியன்ஷிப்	-10.9972
▁கலிங்க	-10.9974
▁இணையதள	-10.9974
▁1923	-10.9976
▁பகுதியிலும்	-10.9977
▁மதிப்பெண்	-10.9978
▁காரணங்கள்	-10.9979
▁நண்பர்கள்	-10.998
▁கொள்கிறார்	-10.998
▁விஜயநகர	-10.9981
▁மனதில்	-10.9981
▁நினைத்து	-10.9982
▁விவேக	-10.9983
இலங்கை	-10.9984
▁ஆகியோரை	-10.9984
▁ஆலன்	-10.9984
▁அதிகாரத்தை	-10.9985
▁பெருமான	-10.9985
▁போட்டியின்	-10.9986
▁காட்சிப்படுத்த	-10.9987
▁ஊர்தி	-10.9987
▁செயலாற்ற	-10.9988
▁நூலாசிரியர	-10.999
nam	-10.9992
பயிற்சி	-10.9992
rin	-10.9994
▁அவ்விட	-10.9995
▁ராஜஸ்தான்	-10.9995
▁பயில	-10.9997
▁செலுத்திய	-10.9997
▁க்ள	-10.9999
வற்	-11.0001
நீக்க	-11.0011
we	-11.0012
▁ஆளும்	-11.0013
ல்லர்	-11.0014
▁இந்நோய்	-11.0014
▁முன்னோடியாக	-11.0014
▁கோடைக்கால	-11.002
▁நலன்	-11.0024
▁அழித்து	-11.0024
▁குழந்தைகளை	-11.0027
▁புழு	-11.0028
▁தாக்குதலை	-11.0033
▁கல்லீரல்	-11.0034
▁அழைக்கப்பட்டார்	-11.0036
▁எதிர்மின்னி	-11.0036
▁பங்கேற்ப	-11.0036
▁சனத்தொகை	-11.0036
▁வேப்ப	-11.0036
▁இதுபோன்ற	-11.0037
▁தீவிரவாத	-11.0039
▁சமையல்	-11.0039
▁பைசா	-11.0039
▁வளர்த்து	-11.0041
▁கரடி	-11.0041
▁அதிகரிக்கிறது	-11.0043
▁நோயை	-11.0047
கிழக்க	-11.0048
▁தமிழ்நாட்ட	-11.0049
▁இங்கிலாந்த	-11.0056
▁டபிள்யூ	-11.0058
▁குடியுரிமை	-11.0058
▁வளர்சிதை	-11.0058
▁இவர்களது	-11.0059
▁சதுப்பு	-11.0059
▁பழங்கள்	-11.0062
▁லூயி	-11.0063
▁நடுவே	-11.0064
▁ஆளுனர	-11.0065
ச்சேர்ம	-11.0067
▁இந்தியாவிற்கு	-11.007
▁எக்ஸ்பிரஸ்	-11.008
▁விளங்கி	-11.0081
▁வறண்ட	-11.0081
▁உதவியாக	-11.0083
▁துறந்த	-11.0086
▁வெறுப்ப	-11.0091
▁நாளாக	-11.0093
▁நிகழ்ச்சியை	-11.0094
▁சான்றாக	-11.0097
▁நரம்ப	-11.0097
கடவுள	-11.0099
▁மாற்றியமைக்க	-11.0102
தீஸ்வரர்	-11.0102
▁கல்வியறிவான	-11.0102
▁கவிஞர	-11.0103
தன்மை	-11.0105
oll	-11.0105
▁வாயுக்கள	-11.0107
▁மணிநேர	-11.0111
▁கூழ்	-11.0111
▁மண்டலத்தின்	-11.0113
▁நீடிக்க	-11.0118
▁அவரிடம்	-11.012
▁வீட்டை	-11.0123
▁மசூதி	-11.0124
▁செய்தியை	-11.0125
▁உவமை	-11.0127
▁செயல்படுகின்றன	-11.0131
▁1914	-11.0133
▁தீவிரமான	-11.0136
ham	-11.0137
Am	-11.0139
▁இயற்கையில்	-11.0141
▁விரட்ட	-11.0142
▁அறிவிப்ப	-11.0143
▁இந்துக்கள்	-11.0143
▁வேட்பாளர்	-11.0143
▁அட்டவணையில்	-11.0144
▁பழுத	-11.0146
▁கையொப்ப	-11.0146
▁கூற்றுப்படி	-11.0149
▁இறக்கும்	-11.015
▁தோன்றின	-11.0161
▁இலகு	-11.0162
▁போரை	-11.0162
▁இயற்பியல	-11.0164
▁இணையான	-11.0166
மருந்து	-11.0167
Mo	-11.0168
▁நாயுடு	-11.0169
▁கலாசார	-11.0169
▁விளையாட்டரங்க	-11.0172
▁அதிகாரியாக	-11.0173
▁நிறுவனத்திற்கு	-11.0178
▁சமீபத்தில்	-11.0181
த்தாள	-11.0183
▁வழங்குகின்றன	-11.0184
▁தொடர்பை	-11.0188
BC	-11.0194
தேசிய	-11.0197
▁பூரண	-11.0198
▁1911	-11.0198
▁துல்லிய	-11.0199
▁குறிக்கோள்	-11.0199
▁ஒவ்வொன்ற	-11.0204
யாக்கி	-11.0207
▁குழுவினர	-11.0208
▁வில்லி	-11.0211
▁நம்பிய	-11.0211
▁சஞ்சிகை	-11.0213
▁நூலாகும்	-11.0215
▁அரியானா	-11.0216
▁நுண்ணிய	-11.0216
▁அமர்ந்து	-11.0216
▁குற்றச்சாட்டு	-11.0218
▁திருக்குறள்	-11.022
▁அடர்ந்த	-11.0223
▁அம்பல	-11.0227
▁பலவகை	-11.0231
rit	-11.0231
யில்லாத	-11.0232
▁உண்ப	-11.0234
▁முசுலிம்	-11.0235
▁மீதமுள்ள	-11.0235
las	-11.0236
▁அகத்திய	-11.0237
▁குறைத்து	-11.0242
▁ஒருவருக்கு	-11.0243
▁பாரிஸ்	-11.0255
▁உலகிலேயே	-11.0257
▁பட்டய	-11.0257
▁அண்ணன்	-11.0258
பற்றி	-11.0267
▁கோடைகால	-11.0268
▁கட்டற்ற	-11.0268
▁மேற்பரப்ப	-11.027
▁கண்ணகி	-11.027
▁மாவட்டங்கள்	-11.0271
▁குவிய	-11.0271
ain	-11.0273
▁மூர்	-11.0274
▁கருதப்பட	-11.0274
▁தென்னிந்தியாவில	-11.0274
▁அவரால்	-11.0278
▁பாதுகாவல	-11.028
▁அமிர்த	-11.0281
▁அடையாளப்படுத்த	-11.0283
▁விரும்பும்	-11.0286
▁தந்து	-11.0288
ஃப்ட்	-11.0289
▁பெண்களை	-11.029
▁முதலை	-11.0294
▁குறிப்பிடலாம்	-11.0295
▁தீர	-11.0299
▁சமசுகிருத	-11.0303
▁பஞ்சாயத்து	-11.0303
ஜன்னிய	-11.0303
▁நிலைநிறுத்த	-11.0306
▁1500	-11.0308
▁நகை	-11.0308
▁இதழாகும்	-11.031
ுவதோடு	-11.0313
▁மாவட்டமும்	-11.0317
▁பொருளாகும்	-11.032
▁ஈழத்து	-11.0322
-10	-11.0324
ப்படுபவர்	-11.0325
▁மலேரியா	-11.0325
▁வாடகை	-11.0325
▁களிமண்	-11.0326
▁இருப்பதில்லை	-11.0328
▁அவரே	-11.0331
▁வலையமைப்ப	-11.0332
mal	-11.0336
▁கச்சேரி	-11.0336
apuram	-11.0339
பேரூராட்சி	-11.0339
▁தழுவிய	-11.034
▁கரிய	-11.0342
▁கருத்தியல	-11.0345
▁மூக்கு	-11.0345
▁நெருங்க	-11.035
▁தரவுகளை	-11.0351
-17	-11.0353
▁உண்ட	-11.0353
▁பொருந்தும்	-11.0354
▁ராமசாமி	-11.0358
▁நிலா	-11.0359
நீல	-11.0366
▁மண்ணில்	-11.0368
ிருத்தல்	-11.037
▁விழிப்புணர்வு	-11.037
▁இனத்தவர்	-11.0376
▁வேகத்தை	-11.0379
▁நாகர்	-11.0379
▁காரணங்களால்	-11.038
▁Con	-11.038
▁போர்த்துக்கேய	-11.0382
▁தானியங்கி	-11.0382
▁பத்தி	-11.0383
▁தேவா	-11.0383
ிதழ்	-11.0384
▁பிரசாத்	-11.0384
▁பறக்க	-11.0385
▁Ra	-11.0387
▁1927	-11.039
▁நிகழ்த்திய	-11.0394
▁நிக்கோ	-11.0394
▁தீங்கு	-11.0394
ராவார்	-11.0395
▁சோதிட	-11.0396
▁ஐதர	-11.0396
▁கொண்டிருந்தன	-11.0397
▁பில்லி	-11.0399
war	-11.0404
தல்ல	-11.0411
▁வல்லுனர்	-11.0412
வையாகவும்	-11.0413
▁கைப்பற்றியது	-11.0417
▁சார்லஸ்	-11.0417
▁அமைச்சரவை	-11.0422
▁புயல்	-11.0423
▁முதலீட்டு	-11.0425
▁பாராட்டு	-11.0428
▁தெரிவ	-11.0429
▁வெளியாகி	-11.043
▁மண்டபத்தில்	-11.0431
▁பெற்றுள்ள	-11.0435
▁இருபத்த	-11.0438
▁மாறுகிறது	-11.0441
▁வியட்நாம	-11.0442
▁நிர்வாகி	-11.0442
▁இனிப்பு	-11.0442
பொழுத	-11.0442
பாட்டில்	-11.0443
சக்கர	-11.0446
▁வைரஸ்	-11.0449
▁அதிகளவில்	-11.0449
▁அசல்	-11.045
யாட்ட	-11.0451
bo	-11.0456
▁மர்ம	-11.0456
▁புகுந்த	-11.0457
▁வாழ்வை	-11.0458
▁மலாக்கா	-11.0462
▁விரும்பினார்	-11.0462
▁வேதாந்த	-11.0463
▁அகழ்வ	-11.0465
பாட்டின்	-11.0466
▁அலுவலரால	-11.047
▁புண்	-11.047
ோரை	-11.0471
▁அழகி	-11.0472
▁சாத்திர	-11.0474
▁%)	-11.0476
▁இக்கோட்டை	-11.0477
▁தொகுக்க	-11.048
–19	-11.048
▁பொதுவுடமை	-11.0484
▁என்பவருக்கு	-11.0484
▁திரௌபதியம்மன்	-11.0485
▁முல்லை	-11.0485
▁நியூட்டன	-11.0486
▁உத்தம	-11.0486
▁சுவீடன	-11.0486
▁காட்டினார்	-11.0486
▁சங்ககாலப்	-11.0487
ப்பொருட்கள	-11.0489
▁ஸ்ரீதேவி	-11.0489
▁கருதினார்	-11.0491
▁எரு	-11.0491
log	-11.0494
▁உயர்வு	-11.0495
▁கதிரவ	-11.0495
▁பிடிப்ப	-11.0495
▁நகரத்திற்கு	-11.0495
▁இதன்மூலம்	-11.0496
▁மங்கோலியர்	-11.0498
▁முன்னேறி	-11.0501
▁பிரான்	-11.0503
▁பாக்ஸ்	-11.0504
▁பிரிவை	-11.0504
மலர்	-11.0505
▁பேசப்படும்	-11.0507
▁ஏகாதசி	-11.0507
▁சாதாரணமாக	-11.0509
▁ஊழல்	-11.0509
▁ராஜேந்திர	-11.0511
▁வெகுவாக	-11.0512
▁கனடாவில்	-11.0524
கொள்கிறார்	-11.0525
முழு	-11.0525
ொட்ட	-11.0526
▁இத்தொடர	-11.053
▁நறுமண	-11.053
▁இருந்தபோதிலும்	-11.0534
▁மரத்தின்	-11.0535
▁நகரியம்	-11.0542
▁Cl	-11.0546
▁டென்	-11.0548
▁தெலுங்க	-11.055
▁இலித்தியம்	-11.0553
ரெட்டி	-11.0557
iz	-11.0561
▁அதிகரித்தது	-11.0563
▁இணங்க	-11.0563
Co	-11.0565
▁பிராமண	-11.0565
▁வாசனை	-11.0565
▁கொடுக்கிறது	-11.0568
▁குன்ன	-11.0568
▁இயற்	-11.0571
▁வரதராஜ	-11.0572
ொன்றில்	-11.0573
▁போட்டியாளர்	-11.0573
▁வழிகாட்ட	-11.0575
▁சந்திரன்	-11.0575
▁ஆதலால்	-11.0576
▁கிணறு	-11.0576
▁சுற்றுப்பாதை	-11.0579
ிறாள்	-11.0579
▁நவாப்	-11.058
▁திரைப்படங்களை	-11.0582
▁தாயார	-11.0586
▁தொண்டு	-11.0587
▁உதவுகின்றன	-11.0588
▁அயர்லாந்து	-11.0595
Na	-11.0596
▁ஓய்வூதிய	-11.0599
▁மகாராஷ்டிரா	-11.06
▁ஆவணி	-11.0604
▁பதப்படுத்த	-11.0605
▁நகரமும்	-11.0607
▁அயன	-11.0608
▁எழுத்துக்களை	-11.0611
In	-11.0612
▁பேட்டி	-11.0613
▁நிக்கல்	-11.0619
▁தட்சிணாமூர்த்தி	-11.0623
ச்சேர்க்கை	-11.0623
▁ஒருவராவார்	-11.0624
▁கணிதவியலாளர்	-11.0624
▁சுரங்கள்	-11.0626
▁பேய்	-11.0627
▁பன்முக	-11.0629
▁அவன	-11.063
▁சூரியனை	-11.0631
▁திரையிட	-11.0632
▁He	-11.0633
▁Me	-11.0634
▁ஏதுவாக	-11.0634
▁வாழ்க்கையின்	-11.0635
▁அடர்	-11.0642
▁மிகப்பெரும்	-11.0644
▁தந்தது	-11.0645
கிரக	-11.0648
▁பகல்	-11.065
▁உளவு	-11.0651
▁கூறுகளை	-11.0651
▁விரிவுரை	-11.0654
கொள்கின்ற	-11.0655
வயல்	-11.0657
▁இத்துறை	-11.0659
▁விவசாயிகள்	-11.0665
▁ஆற்றிய	-11.0665
ாவத	-11.0665
▁தானுந்து	-11.0669
▁சேமித்து	-11.067
▁பனிக்கட்டி	-11.0671
▁கீழை	-11.0673
▁யாழ்ப்பாணத்தில்	-11.0674
▁லவ்	-11.0675
▁போக்குவரத்த	-11.0678
போலி	-11.0679
▁கொல்லப்பட்டார்	-11.0682
ச்சார	-11.0684
▁பிரிவுகளில்	-11.0686
▁ஏற்படுகின்றன	-11.0686
▁பிரதமராக	-11.0688
தொடர்	-11.0692
▁தென்காசி	-11.0693
▁நெடுஞ்சாலையில்	-11.0694
வெடி	-11.0695
ுதலில்	-11.0696
▁நுழைய	-11.0698
▁கோட்டையை	-11.0699
▁கழுவ	-11.0699
▁வொ	-11.0699
▁கார்பனேட்டு	-11.0699
▁இவ்வகையான	-11.0702
▁நிலையங்களில்	-11.0706
▁விழுந்து	-11.0711
▁ஆளுநராக	-11.0711
▁எழுதியவர்	-11.0712
▁மதத்தை	-11.0712
ுவதிலும்	-11.0713
செய்தி	-11.0713
▁அகாடமி	-11.0716
▁பூர்வீக	-11.0716
வெற்றி	-11.0723
▁ஜாவா	-11.0727
ஜ்ஜ	-11.0728
ிவிட்டது	-11.073
▁ஊக	-11.0733
▁வாய்ப்பை	-11.0734
▁விக்கிரம	-11.0737
▁பிரதிபலிக்க	-11.074
▁மொபைல்	-11.074
▁கடவு	-11.074
▁மிதி	-11.0744
கூட்ட	-11.0751
▁மகாதேவ	-11.0752
▁முடிவை	-11.0754
▁வளைந்த	-11.0757
▁பரோ	-11.0758
▁குவாண்டம்	-11.0763
▁அனுப்பினார்	-11.0766
▁முக்கியத்துவ	-11.0767
▁இக்கட்சி	-11.0769
▁சந்தித்தார்	-11.0769
▁தொடர்ந்தது	-11.0769
▁தனித்தன்மை	-11.0772
▁மரபியல்	-11.0772
▁உதவியது	-11.0775
வீரர்	-11.0776
▁செங்கு	-11.0784
2,000	-11.0785
▁சிவபெருமான	-11.0785
▁பகதூர்	-11.0787
▁சுற்றிலும்	-11.0787
▁எத்தனை	-11.0787
▁தந்தி	-11.0789
▁குருவி	-11.0791
▁சமி	-11.0794
▁பேசிய	-11.0795
▁வாழ்த்து	-11.0799
▁மலைப்பகுதி	-11.0801
ப்படுவார்	-11.0803
▁பேரரசை	-11.0805
▁சுதேச	-11.0808
ound	-11.081
▁களஞ்சிய	-11.0811
400	-11.0811
▁சிட்னி	-11.0811
▁காரணத்தினால்	-11.0813
▁பாதிக்கும்	-11.0816
▁இருக்கின்ற	-11.0816
▁டய	-11.0817
பிறழ்	-11.0818
▁பாபு	-11.0818
▁துடிப்ப	-11.082
சேரி	-11.0823
புளோரோ	-11.0824
ரௌ	-11.0824
ிழந்த	-11.0826
▁அங்கிருந்த	-11.0826
க்கணிப்ப	-11.0828
▁முழுக்க	-11.0829
▁யூரோ	-11.0836
என்ற	-11.0836
lic	-11.084
▁தடுக்கும்	-11.0841
▁1917	-11.0841
▁ஸ்மித்	-11.0843
600	-11.0843
AN	-11.0845
பட்ச	-11.0848
▁போன்றவற்றின்	-11.0854
yn	-11.0858
▁தளர்ச்சி	-11.0858
▁அப்பால்	-11.0858
▁இணைக்கப்பட்டது	-11.0862
▁பிரீ	-11.0862
adu	-11.0862
தொலை	-11.0863
ure	-11.0864
▁அங்கீகாரம்	-11.0865
▁புனிதர்	-11.0866
▁மொழியியல்	-11.0867
மின்ன	-11.0868
ங்களோடு	-11.087
▁மூக்க	-11.0872
▁கல்லூரியிலும்	-11.0872
▁சார்பின்	-11.0873
ோவிய	-11.0879
▁இஸ்லாம்	-11.0879
▁இனத்தைச்	-11.0879
cul	-11.0879
▁முதலீட்டாளர்	-11.0881
▁இழுத்து	-11.0883
▁இயலவில்லை	-11.0886
ST	-11.0886
De	-11.0886
க்காட்டு	-11.0887
▁எய்	-11.0887
ப்பயண	-11.0888
▁எரிபொருள	-11.0891
▁பெறலாம்	-11.0893
▁முகாம்	-11.0897
▁ஒட்டிய	-11.0897
-12	-11.0898
▁விசுவநாத	-11.0899
▁இதிலிருந்து	-11.0901
▁பரவல்	-11.0905
▁படிக்கும்	-11.0905
▁காரணங்களுக்காக	-11.0907
தாவது	-11.091
▁ஒலிபரப்ப	-11.0911
▁அதனுடன்	-11.0911
▁மார்ட்டின்	-11.0911
▁பால்வெளி	-11.0914
▁இத்தீவு	-11.0919
ave	-11.0921
▁நிழல்	-11.0928
▁அடைக்கப்பட்ட	-11.0928
old	-11.0929
val	-11.0929
▁நிதியுதவி	-11.0929
▁குடிபெயர்ந்த	-11.0929
▁செயின்ட்	-11.0931
▁வியாழன	-11.0931
▁ஒப்பிட்டு	-11.0933
▁உலகெங்கும்	-11.0933
ுவிட்டது	-11.0933
▁நுனி	-11.0935
ஞ்சேரி	-11.094
▁அயல்	-11.0942
▁140	-11.0943
▁நாட்டிற்கு	-11.0945
-11	-11.0948
▁நன்றி	-11.0949
Re	-11.0952
▁ரேடியோ	-11.0955
▁அம்பாள்	-11.0961
▁1918	-11.0962
▁பணியாற்றியுள்ளா	-11.0962
ame	-11.0962
▁எதிர்வினை	-11.0963
▁வெளிப்படுத்தும்	-11.0963
ளீ	-11.0965
▁முறி	-11.0968
▁விரிந்த	-11.0969
▁உபயோகிக்க	-11.0969
ப்படுகின்றார்	-11.097
▁மார்பக	-11.0971
▁ஆனை	-11.0972
▁பதிப்பக	-11.0973
ner	-11.0975
▁கண்டெடுக்க	-11.0975
ஷிய	-11.0977
▁ஏழாவது	-11.0977
▁திரையுலக	-11.0978
▁மன்னார்	-11.0978
▁பீகார்	-11.0981
▁அந்தமான்	-11.0983
▁தளி	-11.0983
▁1905	-11.0984
▁கொல்லி	-11.0984
வகையான	-11.0985
▁எதிர்கொள்ள	-11.0985
▁சரித்திர	-11.0988
▁செங்குத்து	-11.0991
▁பாலிவுட்	-11.0993
▁போட்டியை	-11.0994
▁கவனிப்ப	-11.0994
▁உடையவர்	-11.0995
hen	-11.0996
▁அமைப்பாக	-11.0996
▁பல்வகை	-11.0998
▁கணித்த	-11.0999
▁வீச்ச	-11.1
▁ஊருக்கு	-11.1001
▁நாளும்	-11.1002
▁சந்திரசேகர	-11.1003
▁கொச்சி	-11.1003
▁சுற்றுப்புற	-11.1005
ப்பீட	-11.1005
▁சந்தைப்படுத்த	-11.1006
2011	-11.1007
ாசிரியராக	-11.1007
▁ஓய்வ	-11.1007
▁யாவும்	-11.1008
▁கொள்கிறது	-11.1008
செட்டி	-11.1008
▁காலத்திலும்	-11.1009
▁அறிமுகமான	-11.1012
தூர	-11.1013
▁வருந்த	-11.1017
▁விதிக்கப்பட்ட	-11.1024
▁ஆப்கானிஸ்தான	-11.1026
▁சிறுமி	-11.1027
கேசரி	-11.1028
▁வெப்பமண்டல	-11.1031
▁பாய்கிறது	-11.1034
▁இயக்குனராக	-11.104
▁மாணவர்களின்	-11.1043
▁நூற்	-11.1045
▁விக்கிப்பீடியா	-11.105
▁மெக்சிகோ	-11.105
▁வாகனங்கள்	-11.105
-0	-11.105
பாறை	-11.1052
▁தாத்தா	-11.1052
▁பாகவத	-11.1055
▁அமுத	-11.1059
▁கற்பித்த	-11.1059
ிருக்கிற	-11.106
▁மல்லி	-11.1062
▁வஞ்சி	-11.1063
▁தனித்தனியாக	-11.1064
▁தொட்டு	-11.1066
ாவிட்டால்	-11.1067
▁தோற்றத்தை	-11.1069
விடுகிறார்	-11.1071
mer	-11.1073
▁சாவக	-11.1073
▁பேச்சுவார்த்தை	-11.1074
▁குடல்	-11.1075
▁டென்மார்க்	-11.1075
CC	-11.1076
▁கண்காணிப்பு	-11.1077
▁புளூ	-11.1084
udi	-11.1088
விளைவு	-11.1095
▁பெயருடன்	-11.1097
▁நூற்றுக்கணக்கான	-11.1098
▁ஆசிரம	-11.1098
▁நீர்த்தேக்க	-11.1099
▁இம்முறையில்	-11.1102
புத்தூர்	-11.1104
▁தோறும்	-11.1105
▁பீகார	-11.1105
▁ஊர்வல	-11.1109
▁சண்டிக	-11.1111
▁காலப்பகுதி	-11.1116
சோழ	-11.1117
▁நாயகி	-11.1123
▁பலவற்றை	-11.1126
▁பிராமணர்	-11.1127
▁இலவசமாக	-11.1127
பொது	-11.1128
▁பொறிக்கப்பட்ட	-11.1129
▁கிராண்ட்	-11.1132
▁தில்லியில்	-11.1133
வற்றின்	-11.1138
யெல்லாம்	-11.1138
▁காளியம்மன்	-11.1139
▁கொண்டதாகவும்	-11.1142
▁கிடக்க	-11.1142
படுத்தப்பட்ட	-11.1142
▁இடமாற்ற	-11.1142
ாழ்வார	-11.1143
▁பாக்கித்தான	-11.1145
க்கொண்டது	-11.1146
▁முதலாவதாக	-11.1147
▁இலத்திரன்	-11.1147
▁வழிவகுக்க	-11.1147
▁அருள்மிகு	-11.1148
▁தன்னார்வ	-11.1149
▁கபூர்	-11.1153
▁செய்வதன்	-11.1155
▁புளிய	-11.1155
NH	-11.1159
தாவர	-11.116
▁ஆறுமுக	-11.1163
▁உள்ளடக்கி	-11.1168
▁பண்டிகை	-11.1172
▁காவேரி	-11.1173
▁செட்டியார்	-11.1174
▁இவ்வாலய	-11.1176
கட்சி	-11.1178
▁ஃபோர்	-11.118
▁ரிஷி	-11.1181
▁1916	-11.1182
▁ஒலிபரப்பு	-11.1189
▁சிற்றின	-11.1195
ser	-11.1195
▁ஜெயலலிதா	-11.1196
▁பாதரச	-11.1199
ரத்தின	-11.12
▁திவ்ய	-11.1201
▁கோவிலுக்கு	-11.1203
▁உரையாட	-11.1206
▁கடலை	-11.1207
▁பாணியில்	-11.1208
▁நாட்டார்	-11.1208
▁பெரும்பான்மையாக	-11.1209
▁நூற்ற	-11.1214
▁பெறப்பட்டது	-11.1216
▁தூண்டுதல	-11.1216
▁இசுலாம்	-11.1216
▁காந்தாரம்	-11.1221
ெலும்பு	-11.1223
▁இயங்கிய	-11.1223
▁வாழிட	-11.1229
காளி	-11.123
▁மேலவை	-11.1237
ெங்கும்	-11.1238
▁சார்ந்தவர்	-11.1239
▁அருணாசல	-11.1246
▁உலகக்கிண்ண	-11.1246
▁ஒன்றுக்கொன்று	-11.1246
▁ஜேர்சி	-11.1246
▁கவுன்சில	-11.1246
▁பிரிவுகளைக்	-11.1247
செய்யும்	-11.1247
pro	-11.1247
▁நெல்லை	-11.1247
▁இராகங்களில்	-11.1248
gar	-11.1249
▁வெளியீட்டு	-11.125
▁இப்போர	-11.1259
▁விளைவை	-11.126
▁அளவிலும்	-11.126
▁Th	-11.1262
ங்காடு	-11.1263
▁ஒய்	-11.1266
▁சரஸ்வதி	-11.127
▁மல்யுத்த	-11.127
▁ஜெனரல்	-11.127
வாசக	-11.1271
▁மூலமாகவும்	-11.1276
▁பாதுகாத்து	-11.1282
▁வைத்திய	-11.1288
▁உறவை	-11.1288
net	-11.1289
மாதேவி	-11.129
▁மக்களில்	-11.1292
▁புலிகளின்	-11.1294
▁செய்யப்பட்டனர்	-11.1294
▁ப்ளூ	-11.1295
▁இருமுறை	-11.1299
land	-11.13
▁மனநிலை	-11.1303
▁கருணை	-11.1305
▁நீட்சி	-11.1305
நூற	-11.1305
▁திருப்பணி	-11.1305
▁1%	-11.1306
▁ஆசியாவின்	-11.1308
ட்மேன்	-11.131
▁ஆக்கங்கள்	-11.1313
கொண்டான்	-11.1319
▁சிற்றிலக்கிய	-11.132
▁ஆற்றங்கரை	-11.132
▁மாவட்டத்தை	-11.132
▁நாணயங்கள்	-11.1323
▁முரண்பாடு	-11.1323
▁கர்ணன	-11.1329
▁நடித்திருந்தார்	-11.1331
▁இப்போட்டி	-11.1333
▁நிறுவனங்களுக்கு	-11.1334
▁வகைப்பாடு	-11.1336
ந்தீ	-11.1337
ிழைய	-11.134
▁பெயர்பெற்ற	-11.1342
▁கடைப்பிடிக்க	-11.1345
▁ஒருங்கிணைக்க	-11.1346
தையடுத்து	-11.1347
▁மனை	-11.1347
▁அறிஞர	-11.1349
▁தமனி	-11.1349
▁மண்டை	-11.135
▁குசராத்	-11.1352
▁பறை	-11.1352
கொலம்ப	-11.1357
oph	-11.1358
▁தேவதை	-11.136
▁குடியிருப்ப	-11.1361
▁ஐரோப்பியர்	-11.1363
▁வீடுகளில்	-11.1363
Ne	-11.1365
▁படைத்தார்	-11.1367
▁அனுமதிக்கப்பட்ட	-11.137
▁நெகிழ்	-11.137
ருகே	-11.1372
red	-11.1374
eng	-11.1377
▁மதிக்க	-11.1377
▁சமஸ்தான	-11.1378
▁குடிமக்கள	-11.1381
▁வழமை	-11.1382
ley	-11.1385
▁வினாடி	-11.1385
▁இலக்கியங்களில்	-11.1387
▁கிரிஸ்	-11.1387
▁மாறுபடும்	-11.1389
▁சந்திக்கும்	-11.1391
களுக்கே	-11.1394
கூடிய	-11.1395
▁தோற்கடிக்க	-11.1395
▁ஓசோன்	-11.1395
▁வீழ்ந்த	-11.1396
▁தோல்வியுற்ற	-11.1396
▁கையெழுத்திட்ட	-11.1396
வியலின்	-11.1398
சைட்டு	-11.1399
Un	-11.1401
▁பரப்புரை	-11.1401
▁வாதிட	-11.1402
பொன்	-11.1403
▁வளரக்கூடிய	-11.1408
▁நெருக்கமான	-11.1409
▁விசுவாச	-11.1411
▁வல்லமை	-11.1413
▁செல்லும்போது	-11.1413
▁இரண்டையும்	-11.1413
▁பாய்ந்து	-11.1417
▁எய்த	-11.1417
▁மூழ்கி	-11.1417
▁அவ்வாறே	-11.142
▁திருவனந்தபுரம்	-11.142
▁தொலைத்தொடர்பு	-11.142
▁மறுபடியும்	-11.142
▁இராவணன	-11.1421
▁செய்பவர்	-11.1422
▁விருந்த	-11.1425
▁பேராசிரிய	-11.1425
▁ஆக்சைட	-11.1425
▁அனுப்பிய	-11.1427
ென்றால்	-11.1431
த்துடனும்	-11.1435
▁இடம்பெற்றுள்ளன	-11.1436
▁கரண	-11.1436
களுமே	-11.144
யன்று	-11.1441
▁ஐசோ	-11.1442
▁தலித்	-11.1442
▁நிறமி	-11.1442
▁கவனித்து	-11.1442
line	-11.1444
▁டிஜிட்டல்	-11.1445
▁நீதிக்கட்சி	-11.1445
▁இம்மர	-11.1446
▁மூங்கில்	-11.1447
▁மணந்தார்	-11.1449
ID	-11.145
▁ஆர்வலர்	-11.145
▁பண்டார	-11.1451
▁செதுக்க	-11.1451
நடு	-11.1452
su	-11.1454
vers	-11.1457
ெதிர்	-11.1457
வியலாளர	-11.1466
▁அதிர்வு	-11.1467
▁வறட்சி	-11.1471
▁அருச்சுனன	-11.1471
▁அவையாவன	-11.1471
▁கழுகு	-11.1471
▁நுணுக்க	-11.1471
▁இறால்	-11.1471
OS	-11.1471
▁இராகமாகிய	-11.1471
ated	-11.1472
▁இணையத்தள	-11.1475
▁தாண்ட	-11.1478
▁முடிவெடுத்த	-11.1479
▁ஈரான்	-11.1481
ந்தூர்	-11.1481
▁விவரங்கள்	-11.1482
பிரகாச	-11.1491
▁தரப்பட்டுள்ளன	-11.1493
▁விளையாட்டில்	-11.1495
▁நண்பன	-11.1496
▁நாடார்	-11.1498
▁கீழுள்ள	-11.1504
ப்பலகை	-11.1504
form	-11.1504
▁மேற்கிந்திய	-11.1509
▁கடக்க	-11.151
▁சுழி	-11.1511
▁ஒளியை	-11.1512
▁திருமுறை	-11.1513
க்குறிப்பு	-11.152
▁விற்ப	-11.1521
▁பொதுவுடைமை	-11.1521
▁நிவாரண	-11.1522
▁வனவிலங்கு	-11.1522
▁திணைக்கள	-11.1524
▁காயமடைந்த	-11.1524
ரீனா	-11.1526
▁பாடலில்	-11.1526
▁கொண்டிருந்தனர்	-11.1529
▁துயர	-11.153
▁இவ்வூர	-11.153
யமைப்பு	-11.1532
▁என்றழைக்கப்பட்ட	-11.1533
▁குளோரின்	-11.1534
ரத்ன	-11.1534
▁திறக்கப்பட்டது	-11.1534
my	-11.1535
▁பெருக்கல்	-11.154
சாய்	-11.1541
▁பரப்பி	-11.1541
▁புன்ன	-11.1543
▁திரிபு	-11.1544
▁பலவகையான	-11.1545
▁ஆக்சிசன	-11.1546
▁உறங்க	-11.1547
▁மூதாதை	-11.1547
▁பின்தங்கிய	-11.1547
▁முதன்முறையாக	-11.1547
▁வழிபட்டு	-11.1549
▁ஆரஞ்சு	-11.1549
▁ஐம்பது	-11.155
ஸ்ஸா	-11.1551
▁சிவாலய	-11.1552
▁1908	-11.1552
▁10,000	-11.1553
▁மக்களிடம்	-11.1554
ope	-11.1558
▁காற்றின்	-11.156
▁மாநிலத்திலுள்ள	-11.156
▁எடுக்கப்பட்டது	-11.1561
▁மாதிரியான	-11.1562
▁செய்வதில்	-11.1563
வரிடம்	-11.1564
Me	-11.1566
▁மூட்டு	-11.1567
ult	-11.1568
களினதும்	-11.1568
International	-11.1572
▁புள்ளிவிவர	-11.1572
▁பாக்கிஸ்தான	-11.1573
▁மதிய	-11.1575
▁be	-11.158
IN	-11.1586
▁இந்தியாவுக்கு	-11.1588
▁அடையாளமாக	-11.1591
▁இளநிலை	-11.1594
▁குறுக்கே	-11.1594
▁மலர	-11.1595
▁ஆல்ககால்	-11.1596
ாம்பிகை	-11.1596
▁பிலிப்பைன்	-11.1598
சாதன	-11.1598
▁உடற்பயிற்சி	-11.1598
▁சந்தர்ப்ப	-11.16
▁நாளிதழ்	-11.16
க்குழாய்	-11.16
▁எளிமையாக	-11.16
2008	-11.1602
எதிர்	-11.1603
க்கண்ண	-11.1606
யோட்ட	-11.1614
AM	-11.1614
▁மானிட	-11.1617
ெடுக்கப்பட்ட	-11.1618
▁அளிக்கப்படும்	-11.1618
▁நிகழ்வுகளில்	-11.1622
▁சொற்றொடர	-11.1624
▁பன்னிரண்டு	-11.1624
▁தாழ்த்தப்பட்ட	-11.1624
தாரர்	-11.1624
▁கொள	-11.1626
ஃபீல்ட	-11.1629
ங்களிலேயே	-11.1629
▁சம்மத	-11.1634
▁முகப்பு	-11.1638
▁பல்லி	-11.1638
▁ஒப்புதல்	-11.164
▁சதுக்க	-11.1641
▁அங்குலம்	-11.1642
rop	-11.1642
▁தென்னை	-11.1644
முயற்சி	-11.1647
▁எருமை	-11.1648
▁முற்பகுதியில்	-11.1649
▁வற்புறுத்த	-11.1649
▁செயிண்ட்	-11.1649
▁மாஸ்கோ	-11.1651
▁திடீர்	-11.1651
▁பவானி	-11.1652
▁நாளன்று	-11.1653
▁1913	-11.1658
▁மாகாணங்களில்	-11.166
நோக்கு	-11.166
▁இடைவெளியில்	-11.1666
▁நெட்ட	-11.1667
▁டிகிரி	-11.1667
வொரு	-11.1668
▁மங்கள	-11.1671
▁அனுராதபுர	-11.1675
▁வானியற்பியல	-11.1675
▁ஐந்தாண்டு	-11.1676
▁புரொ	-11.1679
▁மார்பு	-11.168
▁எண்ணிக்கையிலான	-11.168
பைரவ	-11.1684
▁அர்ச்ச	-11.1685
▁சாதனங்கள்	-11.1686
▁கொண்டுள்ளனர்	-11.1694
lam	-11.1697
gu	-11.1698
▁படுகின்றன	-11.17
▁என்பார்	-11.17
▁தானாகவே	-11.1701
▁கூடியதாக	-11.1702
▁விலகிய	-11.1704
▁புள்ளியியல்	-11.171
▁உருவாக்கினர்	-11.1714
▁நாராயணன்	-11.1714
▁ஸ்டேட்	-11.1721
க்காரணி	-11.1722
▁பிரிவாக	-11.1723
▁பட்டப்படிப்பு	-11.1727
▁விரத	-11.1727
▁அகமது	-11.1727
▁நடுவர்	-11.173
EC	-11.1732
கொண்டிருக்கின்றன	-11.1733
▁ஆவணங்கள்	-11.1734
களுக்காகவும்	-11.174
யினுள்	-11.1743
▁இணைத்த	-11.1745
▁வாழ்ந்தார்	-11.1748
திருத்த	-11.1752
▁சீதா	-11.1753
▁அதிசய	-11.1753
▁அந்தோனி	-11.1756
▁புலவர	-11.1757
▁நோயாளிகளுக்கு	-11.1758
▁அதிமுக	-11.176
IT	-11.176
▁இயக்கவியல்	-11.1767
▁செய்வதை	-11.1768
ப்புழு	-11.177
▁ஆப்பிரிக்காவில்	-11.1773
ச்சூழல	-11.1778
▁வேடத்தில்	-11.1779
▁எதிர்பார்ப்ப	-11.1781
▁தலைசிறந்த	-11.1781
▁கோட்பாட்டு	-11.1782
ake	-11.1782
▁மக்கா	-11.1786
▁குஜராத்தி	-11.1787
▁வருவாய	-11.1792
▁வைப்பு	-11.1796
ture	-11.18
பூர்வமான	-11.1803
▁மேளமாகிய	-11.1805
▁தைவதம்	-11.1805
▁மீற்றருக்கு	-11.1805
▁இற்கு	-11.1805
▁துணைக்கண்ட	-11.1805
▁நெசவு	-11.1805
▁சூடுபடுத்த	-11.1805
▁பட்டுக்கோட்டை	-11.1807
▁வம்சத்தின்	-11.1809
ஹைட்ர	-11.1809
▁தவிர்த்த	-11.1809
▁இச்சட்ட	-11.1811
▁பாடத்திட்ட	-11.1812
▁வேதியியல	-11.1812
▁போலந்து	-11.1813
▁சிற்றிதழ்	-11.1813
▁நிலையிலும்	-11.1816
திரைப்பட	-11.182
▁வினவ	-11.1823
ென்பது	-11.1823
▁வேதியியலில்	-11.1825
▁தவிர்ப்ப	-11.1826
▁நீரிணை	-11.1827
▁பிரிக்கலாம்	-11.1828
▁ஆன்மா	-11.1829
▁சாஸ்திரி	-11.1831
▁தியாகராஜ	-11.1833
▁ஆராய்ந்து	-11.1833
▁தீவிரவாதி	-11.1835
ுகிறேன்	-11.1837
▁நீர்நிலை	-11.1838
▁அழைத்தனர்	-11.1839
▁அனுமதிக்கிறது	-11.1841
▁தலைவரும்	-11.1841
▁கூடியதே	-11.1842
▁ஆளாக	-11.1849
AR	-11.185
ுணர்வ	-11.1855
ிருப்பார்	-11.1855
▁அழிக்கப்பட்ட	-11.1857
▁நீரோட்ட	-11.1857
▁பிறப்பிடமாகக்	-11.1857
▁படைகளுக்கு	-11.1858
▁அண்மைய	-11.1858
▁வரையறுத்த	-11.1859
▁ஒப்படைக்க	-11.186
▁கிழங்கு	-11.1863
▁1901	-11.1865
▁தொழிலாக	-11.1867
▁பேசுகின்றனர்	-11.187
▁திரள	-11.1872
▁மகனும்	-11.1873
▁வரலாற்றின்	-11.1874
▁அடைகிறது	-11.1876
▁தலைமையிடமாக	-11.1878
ப்படுபவை	-11.1882
▁தீட்ட	-11.1882
▁குலோத்துங்க	-11.1884
▁தியேட்டர	-11.1885
▁காய்ச்சல்	-11.1885
▁சிவபெருமானின்	-11.1887
▁ஐம்ப	-11.1889
▁சூழப்பட்ட	-11.189
ப்படுவர்	-11.1893
▁ஜீன்	-11.1894
▁தருண	-11.1895
த்துக்குரிய	-11.1896
▁புதர்	-11.1901
ப்புத்தக	-11.1902
▁சகல	-11.1903
▁கருத்துப்படி	-11.1903
த்திலான	-11.1904
▁கட்டினார்	-11.1906
போலவே	-11.1907
▁உயர்த்தி	-11.1909
▁கோட்பாட்டை	-11.191
▁மறுசீரமைப்ப	-11.191
▁மத்திமம்	-11.191
▁திறனாய்வு	-11.1913
▁கெட்டி	-11.1913
ET	-11.1916
▁நஞ்சு	-11.192
rea	-11.1935
▁முறியடித்த	-11.1937
மங்கல	-11.1937
▁ஒதுக்கீடு	-11.1938
களுடனான	-11.194
▁சிகாகோ	-11.194
க்கிளி	-11.1941
ப்பெறும்	-11.1942
▁அமுக்க	-11.1943
▁ஆகியவற்றிற்கு	-11.1944
வீட்ட	-11.1945
▁பிரஞ்சு	-11.1946
▁பங்கேற்றார்	-11.1948
▁காஷ்மீர	-11.195
kar	-11.195
▁கதவு	-11.1955
▁பணக்கார	-11.196
▁ஓசை	-11.1961
dia	-11.1962
▁எட்டாவது	-11.1964
▁பயன்பாட்டை	-11.1966
▁எட்டி	-11.1967
▁அயோத்தி	-11.1967
▁இவ்விழா	-11.1967
▁லூயிஸ்	-11.1968
▁விடுகிறது	-11.1968
▁ஆண்டளவில்	-11.1969
▁விவாதிக்க	-11.1971
வேண்டுமென்ற	-11.1973
வயது	-11.1974
▁இராமசாமி	-11.1977
▁தெருவில்	-11.1979
▁ஒருங்கிணைப்பு	-11.1981
நூறு	-11.1982
▁சீக்கியர்கள	-11.1984
▁ஆய்வின்	-11.1984
▁பயணத்தை	-11.1986
▁கண்டிப்பாக	-11.1992
▁பயனாக	-11.1992
▁குடிநீர்	-11.1996
▁அரியணை	-11.1997
ப்படுவதுண்டு	-11.2
▁பரப்பில்	-11.2001
த்துக்குள்	-11.2001
▁தஞ்சாவூர	-11.2004
▁குறையும்	-11.2004
▁சல்ப	-11.2005
றோ	-11.2006
Or	-11.2008
▁உடையார்	-11.2011
▁உள்ளீடு	-11.2011
▁உபயோகப்படுத்த	-11.2014
▁நிறுவனமாகும்	-11.2015
▁அசைவு	-11.2015
▁லண்டனில்	-11.2016
▁[1]	-11.2017
▁மட்டுமல்லாது	-11.2017
▁பிரதிநிதியாக	-11.2018
▁அழைத்த	-11.2022
▁கூட்டாளி	-11.2023
▁வயதிற்கு	-11.2024
▁முதுநிலை	-11.2025
ஸ்ட்ரோ	-11.2025
▁கையாண்ட	-11.2026
Ad	-11.2028
▁சூழலை	-11.2031
▁லூக்கா	-11.2032
▁பின்னரும்	-11.2032
நாடக	-11.2033
▁சல்பைடு	-11.2038
புதிய	-11.2038
▁உயரிய	-11.2039
ஷியா	-11.204
▁ஆரம்பித்தது	-11.2043
▁சனநாயக	-11.2043
▁நிற்ப	-11.2044
▁புரோமைடு	-11.2045
▁உயர்நிலைப்பள்ளி	-11.2045
▁நிறைவேற	-11.2046
tha	-11.2047
▁இவள	-11.2048
▁1907	-11.205
▁வாசக	-11.2053
bu	-11.2057
▁உபதேச	-11.2057
அறிவ	-11.206
▁சுப்ரமணிய	-11.2061
▁நிரம்பிய	-11.2061
▁புத்தகங்களை	-11.2065
▁தர்க்க	-11.207
▁சந்நிதி	-11.207
▁இரண்டாவதாக	-11.207
▁புத்தி	-11.2072
▁எழுத்துமுறை	-11.2072
▁கற்கால	-11.2078
▁திரட்டி	-11.208
▁உச்சியில்	-11.2081
சந்திர	-11.2086
த்தலைவராக	-11.2095
▁என்பதற்கான	-11.2097
▁மகிழ்வ	-11.2097
சிகிச்சை	-11.2099
▁இருக்கவில்லை	-11.2102
▁பிலிம்	-11.2103
SI	-11.2103
▁முன்னிலை	-11.2104
▁இயற்பியலாளர	-11.2107
▁நெல்லி	-11.2107
▁நடிப்பில்	-11.2118
▁மருந்தாக	-11.212
▁உறுப்பினர்களாக	-11.212
▁உண்மையை	-11.2121
▁இளவரசன	-11.2124
▁பருமன	-11.2125
ஃபோர்ட்	-11.2125
▁நஞ்ச	-11.2136
▁ஏற்படுத்துகிறது	-11.2148
▁தற்காப்பு	-11.2151
▁பிரகாஷ்	-11.2151
NS	-11.2151
▁சம்பள	-11.2155
▁108	-11.2156
▁அளிக்கப்பட்டது	-11.2157
ott	-11.2157
நாதசுவாமி	-11.2158
Par	-11.2167
▁முன்னோர்	-11.2167
▁ஹார்டி	-11.2172
▁எல்லையை	-11.2173
▁நேபாளத்தின்	-11.2177
கிளை	-11.2181
▁தற்காலிகமாக	-11.2183
▁கற்பித்தல்	-11.2183
anth	-11.2183
▁1,2	-11.2184
▁தூபி	-11.2185
▁ஆண்டிற்கான	-11.2187
▁உடலுக்கு	-11.2189
▁இயேசுவை	-11.2191
▁பெயரான	-11.2197
▁மணந்து	-11.2204
▁முப்பரிமாண	-11.2205
▁எஃகு	-11.2205
▁இல்லாததால்	-11.2206
▁காமிக்	-11.2206
▁பாடகர	-11.2206
▁யாதவ	-11.2207
▁பராமரிப்ப	-11.2209
ப்படக்கூடிய	-11.2217
▁உடைமை	-11.222
காரண	-11.2228
▁இக்கதை	-11.223
Kar	-11.223
▁சுழற்	-11.223
▁முற்போக்கு	-11.2232
▁அமாவாசை	-11.2232
▁அத்தியாயங்கள	-11.2232
விட்டதாக	-11.2233
▁துரத்த	-11.2234
படியான	-11.2237
க்கொடுத்த	-11.2238
▁800	-11.2242
▁இந்நிறுவன	-11.2245
▁உலாவி	-11.2246
ina	-11.2248
▁அலெக்சாண்டர்	-11.2253
வொர்	-11.2259
▁இயக்குனர	-11.2259
▁சோசலிச	-11.226
▁பெறுதல்	-11.226
▁மாணவி	-11.2262
டனில்	-11.2268
▁பொறியியல	-11.2276
▁தீர்மானித்த	-11.2277
▁பெயராலும்	-11.2279
▁இயற்பியலில்	-11.2283
▁நீர்வீழ்ச்சி	-11.2287
▁பின்வருவன	-11.2287
▁ஒத்துழைப்ப	-11.2287
எழு	-11.2288
▁ஆபத்தான	-11.2288
▁கண்ணோட்ட	-11.2289
▁உள்வாங்க	-11.229
வீச்ச	-11.229
▁சேர்மங்களை	-11.2292
▁இருக்கக்கூடும்	-11.2292
▁மீட்பு	-11.2298
▁விலகினார்	-11.23
▁பறப்ப	-11.2302
▁பேட்மேன	-11.2308
▁அறிவிப்பு	-11.231
▁காரைக்குடி	-11.2314
▁இருப்பவர்	-11.2314
உயிர	-11.2316
▁எதிர்பார்த்த	-11.2317
கௌ	-11.2322
▁பூர்வ	-11.2322
▁இராச்சியத்தில்	-11.2326
▁சிறுபான்மை	-11.2327
▁விருந்து	-11.2333
▁பரிசை	-11.2336
▁வடிவங்களை	-11.2337
▁இராசி	-11.2337
விளையாடியுள்ளார்	-11.2339
கிரீ	-11.2341
▁ஷட்ஜம்	-11.2342
tin	-11.2345
வளர்ச்சி	-11.2345
▁முப்பது	-11.2346
▁ஆற்றை	-11.2357
▁அமைத்தார்	-11.2359
க்குள்ளாக	-11.236
பூர்வமாக	-11.2362
▁1800	-11.2363
▁மின்னஞ்சல்	-11.237
▁குடைவரை	-11.237
▁இம்மாவட்ட	-11.2375
நடை	-11.2375
கருவி	-11.2376
▁நால்வர	-11.2376
▁வசித்த	-11.2377
▁ஆளுகை	-11.2378
யாளரான	-11.2381
dy	-11.2383
சதுர	-11.2396
▁ஒன்பதாம்	-11.2397
▁யுனைடெட்	-11.2397
▁அரேபியா	-11.2397
▁எட்வர்ட்	-11.2398
▁பீட்டா	-11.2399
மருத்துவ	-11.2401
முதன்மை	-11.2404
▁இசைக்குழுவின	-11.2414
▁பெருக்கி	-11.2414
▁முற்று	-11.2414
▁பெட்ரோ	-11.2418
▁குறிக்கோள	-11.2419
▁மோசமாக	-11.2422
▁முழங்க	-11.2423
▁கிருட்டிணகிரி	-11.2425
▁தரையிறங்க	-11.2425
▁தயாரிக்கப்படும்	-11.2425
▁அலைநீள	-11.2426
▁கருத்தாக்க	-11.2427
▁அலகுகளாக	-11.2428
▁வரும்போது	-11.2428
ளவிலான	-11.2428
▁குமரி	-11.243
▁160	-11.2437
▁கொழும்பில்	-11.2441
மில்லாமல்	-11.2447
▁கலைக்களஞ்சிய	-11.2453
▁பதினாறாம்	-11.2453
▁யுனெஸ்கோ	-11.2453
▁மேலாளர்	-11.2453
▁மேல்நிலைப்பள்ளி	-11.2453
▁சல்பேட்டு	-11.2454
▁காசுமீர	-11.2454
▁அமைச்சராகவும்	-11.2456
▁எந்தவித	-11.2462
தீவு	-11.2463
▁மாத்திரை	-11.2466
ull	-11.2467
▁இயக்குநர	-11.2474
▁India	-11.2474
▁ஆல்பா	-11.2475
▁உதவினார்	-11.2477
▁கனடாவின்	-11.2479
▁மக்னீசியம்	-11.2481
▁மாநிலங்களவை	-11.2481
▁இஸ்ரேல	-11.2481
▁கடைபிடிக்க	-11.2482
▁குழுவாக	-11.2485
▁மரபணுக்கள	-11.2486
▁சீர்தர	-11.2488
ப்பண்பு	-11.2489
▁ஏதோ	-11.2499
▁நீர்மூழ்கி	-11.2509
▁நோர்வே	-11.2509
▁பெருங்குடல	-11.251
▁பகவதி	-11.2512
▁திருப்பத்தூர்	-11.2513
▁1909	-11.2516
▁சீரமைப்ப	-11.2516
▁அழைக்கிறார்கள்	-11.2516
▁1906	-11.2516
▁வேறுபடுத்த	-11.2517
▁அதன்பிறகு	-11.252
▁இலகுவாக	-11.2522
▁திரைப்படத்துறை	-11.2524
cr	-11.2528
ிற்கே	-11.253
▁ரூபா	-11.2533
palayam	-11.2537
▁இளையராஜா	-11.2538
▁ஆதாய	-11.254
1,000	-11.2553
▁தனிப்பாடல	-11.2554
▁பேரியம்	-11.2555
▁திம்ம	-11.2556
கொடுக்க	-11.2557
▁சூரியனின்	-11.2557
▁பாண்டி	-11.2559
▁வேதிப்பொருள	-11.2563
▁மராட்டிய	-11.2565
▁இடம்பெயர்ந்த	-11.2565
Ac	-11.2566
▁கும்பகோணத்த	-11.2567
▁மென்பொருட்கள	-11.2567
லேண்ட்	-11.2568
▁முதலமைச்சராக	-11.257
▁வரவேற்பைப்	-11.2574
▁மேற்புற	-11.2575
▁வருடத்திற்கு	-11.2577
மாட்டார்	-11.258
▁வழிகாட்டுதல	-11.2582
▁நவராத்திரி	-11.2593
▁சாமுவேல்	-11.2593
கீழ	-11.2595
▁மெய்யியல	-11.2605
▁தெருக்கள	-11.2606
▁நெடுங்க	-11.2606
▁தாங்கிய	-11.2606
கொள்வதற்காக	-11.2608
ச்சென்ற	-11.2611
▁காணாமல்	-11.2611
▁பதிக	-11.2612
▁மொழிபெயர்ப்ப	-11.2614
▁கோவிலை	-11.2615
ங்கூர்	-11.2621
▁University	-11.2622
▁டேனியல்	-11.2622
▁பிரசித்தி	-11.2622
▁சாத்தியமான	-11.2623
tes	-11.2625
▁செல்கிறார்	-11.2628
▁சேமிப்ப	-11.263
▁மருவி	-11.2645
▁அம்மையார	-11.2645
▁அங்கேயே	-11.2646
▁பிரபந்த	-11.265
▁விகடன்	-11.2651
▁சரவண	-11.2652
▁படைவீரர்	-11.2653
▁குறிக்கின்றது	-11.2658
▁மெட்ரோ	-11.266
ash	-11.2669
▁வாக்கிய	-11.267
0°	-11.2673
▁பயிற்று	-11.2678
▁பதினான்கு	-11.2679
▁முடியாட்சி	-11.2683
▁விலங்க	-11.2685
▁பூமியை	-11.2691
▁அக்பர்	-11.2696
▁அலுவல்	-11.2699
வருட	-11.2701
▁மற்றைய	-11.2702
▁வாட்டர்	-11.2704
கொல்ல	-11.2705
▁துன்புறுத்த	-11.2707
ாவிட்டாலும்	-11.2708
▁அரவிந்த	-11.2708
AE	-11.2712
▁பஞ்சமம்	-11.2713
▁சிங்கப்பூரின்	-11.2715
▁ஈர்த்த	-11.2718
த்தொடர	-11.2722
பயண	-11.2727
குறைந்த	-11.2727
▁திருக்குறள	-11.2727
▁வேடங்களில்	-11.2728
▁பெர்லின	-11.2729
▁தனித்துவ	-11.2735
▁அயோடைடு	-11.2736
▁பிலிப்பீன்ச	-11.2736
▁நெப்போலியன	-11.2736
▁பட்டதாரி	-11.2736
▁ஒட்டுண்ணி	-11.2737
▁செய்தித்தாள்	-11.2738
யீட்டு	-11.2738
த்திலிருந்த	-11.2738
▁1898	-11.2741
▁பிரான்சிய	-11.2743
▁உண்மையாக	-11.2744
▁எண்ணெய	-11.2747
▁வருவதற்கு	-11.2748
வருமான	-11.2749
▁மகிழ்ந்த	-11.275
▁மதிப்பிடப்பட்ட	-11.2751
▁by	-11.2759
த்தொகுப்பு	-11.2759
▁ப்ரா	-11.2761
▁திருத்தூதர்	-11.2765
▁இழந்தார்	-11.2767
▁முதிர்ந்த	-11.2767
▁உற்பத்தியாளர்கள	-11.2774
▁உத்தரவிட்ட	-11.278
▁பகுப்பாய்வ	-11.278
மேற்கு	-11.2782
▁திரையரங்கு	-11.2786
▁பெருமையை	-11.279
▁Retrieved	-11.2793
▁கைலாசநாதர்	-11.2794
▁சொற்பொழிவு	-11.2795
▁1896	-11.2796
▁ஜூலி	-11.2797
விகித	-11.28
▁சரிவு	-11.2803
ாமலேயே	-11.2805
▁பிராமி	-11.2807
▁புவன	-11.2807
▁3000	-11.2807
Ko	-11.2822
▁வெள்ளிக்கிழமை	-11.2822
▁சந்ததி	-11.2827
▁புத்தாண்டு	-11.2827
▁தொகுப்பை	-11.2828
▁நிலவுகிறது	-11.2835
▁அறியப்படுகின்றன	-11.2836
▁முருகன	-11.2836
uv	-11.2842
▁செதுக்கப்பட்ட	-11.2845
▁சீராக	-11.2847
▁பொருத்தப்பட்ட	-11.2847
▁சேகரித்து	-11.2849
▁பீடபூமி	-11.2851
▁முன்னுரிமை	-11.2854
ச்செல்வ	-11.2854
▁நிகழ்வை	-11.2856
ஹள்ளி	-11.286
▁மௌரிய	-11.2865
ER	-11.2866
முன்ன	-11.287
▁தம்பதி	-11.2872
ster	-11.2878
▁வருண	-11.2878
▁கையகப்படுத்த	-11.288
▁கோதாவரி	-11.288
▁இரட்டையர்	-11.2882
▁உபநிடத	-11.2884
▁அமைச்சர	-11.2884
▁தொடர்புடையதாக	-11.2884
நிறுத்த	-11.2886
▁தெரிவித்தனர்	-11.2887
▁நூலான	-11.2894
▁அண்டை	-11.2898
▁அழுக	-11.2905
3,000	-11.2908
▁சிம்பாப்வே	-11.2909
▁வகைக்கெழு	-11.2909
டபிள்யு	-11.291
▁தட்பவெப்ப	-11.291
▁நியு	-11.291
▁நூலுக்கு	-11.2911
$	-11.2914
2007	-11.2918
▁நவக்கிரக	-11.2939
▁ஹாலிவுட்	-11.2939
▁நீர்ப்பாசன	-11.2939
▁நாகரீக	-11.2939
▁தொன்மையான	-11.2939
▁செயல்பாட்டை	-11.2944
▁தந்தார்	-11.2945
▁சிறுகோள்	-11.2946
▁வான்வழி	-11.295
▁இத்தலத்தில்	-11.2953
▁கணவர	-11.296
▁பொறுப்பேற்றார்	-11.2961
த்திலிருந்தே	-11.2964
▁கலப்பின	-11.2964
▁எதிர்பாராத	-11.2968
▁பெருமாள	-11.2969
▁நியமனம்	-11.297
▁இருவருக்கும்	-11.2972
▁ஒப்படைத்த	-11.2974
oor	-11.298
▁ஃபை	-11.298
புள்ளி	-11.2982
ள்ளேயே	-11.2993
▁உருவாக்குவதற்கு	-11.2994
▁கூகுள்	-11.2997
▁வேள்வி	-11.2998
▁விரிவடைந்த	-11.2998
▁பிலிம்பேர்	-11.2998
▁தொடராக	-11.2998
▁அதிகாலை	-11.2998
▁மன்னிப்பு	-11.2998
▁அமைச்சரவையில்	-11.2999
2010	-11.3001
▁யாத்திரை	-11.3001
▁டிரான்ஸ்	-11.3002
▁ஓராண்டு	-11.3002
▁வருத்த	-11.3011
கட்டமைப்ப	-11.3012
▁ஒளியியல்	-11.3016
இலிருந்து	-11.3016
கிழக்கு	-11.3021
ூறு	-11.3022
டைதல்	-11.3022
▁தொழிலதிபர	-11.3027
லாந்தில்	-11.3028
▁காப்பீட்டு	-11.3028
▁பாடலாக	-11.3028
▁அக்கட்சி	-11.3029
▁அடமான	-11.3029
▁உருண்டை	-11.3031
▁சீடர	-11.3032
▁நடராச	-11.3033
▁அம்மை	-11.3034
▁தண்ணீரில்	-11.3035
▁கோப்பையை	-11.3036
▁திட்டமிடல்	-11.3045
▁திரிபுரா	-11.3048
▁செல்வதற்கு	-11.3051
World	-11.3057
▁நாற்பது	-11.3057
▁அமீரக	-11.3059
பெண்ண	-11.3059
களுக்கிடையில்	-11.3061
▁புரிதல	-11.3061
▁1890	-11.3064
▁மார்ப	-11.307
que	-11.3072
▁சரணடைந்த	-11.3074
புகழ்	-11.3078
க்கொள்கை	-11.3079
▁கார்த்திக்	-11.3081
▁ஒப்புமை	-11.3085
Tamil	-11.3086
▁ஈரானிய	-11.3087
▁முதிர்ச்சி	-11.3091
ஃபீ	-11.3091
வேதியியல்	-11.3092
Indian	-11.3094
▁சித்தூர்	-11.3097
▁பறந்து	-11.3101
ரண்ய	-11.3103
▁எத்தனால	-11.311
▁பகல	-11.3114
▁செய்தான்	-11.3114
▁பாபநாசம்	-11.3116
▁மிகச்சிறிய	-11.3116
▁நடத்தினர்	-11.3116
▁உரைநடை	-11.3117
▁திசைவேக	-11.3119
மதிப்பீட்ட	-11.3121
▁நம்புகின்றனர்	-11.3126
▁கிடந்த	-11.3131
▁கல்கி	-11.3132
▁முதிர்	-11.3132
▁வளங்களை	-11.3133
▁ராணா	-11.3134
▁கல்லா	-11.3138
▁இதேபோல	-11.3138
▁ஜானகி	-11.3141
▁விளையும்	-11.3141
▁from	-11.3146
▁துறவற	-11.3146
▁நிஷாதம்	-11.3146
▁பன்னிரு	-11.3146
▁புழக்கத்தில	-11.3146
▁வால்வெள்ளி	-11.3146
▁வேகமான	-11.3147
▁கணக்கிட்ட	-11.315
▁தொப்பி	-11.3153
▁விளங்குகின்றன	-11.3153
▁போரிட	-11.3154
▁நிலைநாட்ட	-11.3159
▁தடிமன	-11.3159
நல்ல	-11.3161
மென்று	-11.3167
▁சைமன்	-11.317
▁ஈடுபட்டிருந்த	-11.3172
▁தாலுகா	-11.3176
கிரிகோரியன்	-11.3176
thumb	-11.3177
[[	-11.3177
▁முடக்க	-11.3177
▁உபகரணங்கள	-11.3178
▁ஸ்பை	-11.3179
▁முன்மாதிரி	-11.318
▁இரைப்பை	-11.3182
▁சாசன	-11.3183
பாக்கம்	-11.3183
▁அலகான	-11.3184
▁1904	-11.3184
▁விரிவு	-11.3184
▁கணவாய்	-11.3185
ினாள்	-11.3186
▁அனுமான	-11.3187
▁பிரித்தானியாவ	-11.3193
▁உடன்பாடு	-11.3196
▁அசிரிய	-11.3205
ூடக	-11.3205
▁மத்தேயு	-11.3206
▁நிலைப்புத்தன்மை	-11.3206
▁உக்ரைன	-11.3207
▁சம்பந்தர்	-11.3211
▁அம்சங்கள	-11.3212
▁காரணியாக	-11.3219
▁இந்தியாவிலும்	-11.3221
▁தேர்ந்த	-11.3224
▁மானிய	-11.3226
▁வேலைப்பாடு	-11.323
▁நீள்வட்ட	-11.3236
▁முன்மொழிந்த	-11.3237
car	-11.324
கிறேன்	-11.325
ஃபை	-11.3255
▁உண்டாக	-11.3263
▁செய்கை	-11.3266
▁பல்கலைகழக	-11.3266
▁இன்றளவும்	-11.3266
▁ஊக்குவிப்ப	-11.3266
▁ஒப்பீட்டளவில்	-11.3266
▁தொழு	-11.3267
▁தொற்ற	-11.327
கோபுர	-11.3274
▁வேறுபடுகின்றன	-11.3274
யொட்டி	-11.3278
▁அவதான	-11.3279
▁குறிஞ்சி	-11.3281
பழைய	-11.3294
▁நிர்வகித்த	-11.3296
▁திலக	-11.3296
▁அர்ப்பணிக்க	-11.3297
▁முக்தி	-11.3301
▁அபிஷேக	-11.3304
221	-11.3305
▁கலக்கிறது	-11.3307
மிருந்து	-11.331
▁விபத்தில்	-11.331
▁செய்வதாக	-11.3314
▁குறைகிறது	-11.3314
▁கணிதவியல்	-11.3314
▁தெய்வமாக	-11.3321
▁என்பவன	-11.3323
▁உருக	-11.3325
▁இக்கிராமத்தில்	-11.3327
▁ஏவூர்தி	-11.3327
▁கம்போடியா	-11.3327
▁மின்னூட்ட	-11.3331
ிராத	-11.3331
▁நீச்சல்	-11.3332
▁குறிப்பதாகும்	-11.3338
▁கதிர்வீச்ச	-11.3342
▁சோதிக்க	-11.3344
▁காணப்படுவது	-11.3344
கணினி	-11.3354
▁அஞ்சலி	-11.3355
▁சதுஸ்ர	-11.3357
▁திருமுழுக்கு	-11.3357
▁அந்நிய	-11.3358
மீத்தேன	-11.3358
▁கூறுவத	-11.3364
▁படுகை	-11.3364
மோகன்	-11.3369
▁1915	-11.3371
▁நியமிக்க	-11.3372
▁சக்ர	-11.3374
▁கதாநாயகனாக	-11.3379
▁இதழை	-11.3382
▁நெருப்பு	-11.3384
▁சிக்கலெண்	-11.3385
cent	-11.3385
▁மணிமேகலை	-11.3388
▁பதினாறு	-11.3388
▁செங்கோண	-11.3388
▁இருபத்தி	-11.3391
▁சிவபெருமானை	-11.3393
▁நல்க	-11.3395
RI	-11.3398
▁வெளியிட்டுள்ளார	-11.3398
▁உடம்ப	-11.3399
▁பள்ளிக்கூட	-11.34
▁பாஸ்கர	-11.3402
▁தடுத்த	-11.3406
▁இன்றுவரை	-11.3409
மளித்த	-11.3409
▁அதிபர	-11.341
▁பேராய	-11.3416
நுட்ப	-11.3418
ப்பெட்டி	-11.3421
▁சாகித்திய	-11.3424
ces	-11.3425
▁குருக்கள	-11.3427
▁சொல்வத	-11.3428
பிடிப்பு	-11.343
ங்களினால்	-11.3431
▁யோகா	-11.3434
▁தாய்மொழி	-11.3435
புளோரைடு	-11.3439
▁எதையும்	-11.3441
▁தாவரங்களின்	-11.3443
▁விண்மீன	-11.3445
▁சௌந்தர	-11.3445
▁இதிகாச	-11.3449
▁தொழிற்சங்க	-11.3451
தொகுதி	-11.3452
▁ஆயுள்	-11.3452
▁ஜெமினி	-11.3453
▁இதனுடன்	-11.3456
▁அரங்கேற்ற	-11.3461
port	-11.3464
tro	-11.3475
Pro	-11.3475
▁கருதிய	-11.3476
▁இலையுதிர்	-11.348
▁கூகிள்	-11.348
▁தடகள	-11.3482
▁பல்வேறுபட்ட	-11.3484
akka	-11.3486
மரபு	-11.349
▁எதிர்கொண்ட	-11.3494
▁உதாரணத்திற்கு	-11.3499
▁லாகூர	-11.3502
ப்பழக்க	-11.3511
▁தேர்தலுக்கு	-11.3511
▁எதிர்க்கட்சி	-11.3511
▁சக்கரவர்த்தி	-11.3511
▁என்பதனை	-11.3511
▁தெலுங்கானா	-11.3511
▁பாதிப்பை	-11.3512
▁யோசனை	-11.3513
▁காற்றை	-11.3515
▁நடிகராக	-11.3518
▁தெரிவிக்கிறது	-11.352
▁வாக்கில்	-11.3525
▁பெண்ணிய	-11.3525
வர்களாகவும்	-11.3527
▁அரிதான	-11.3527
▁உடனடி	-11.3529
out	-11.3533
▁அவற்றுக்கு	-11.3539
▁முயல	-11.3542
▁தென்கிழக்காசிய	-11.3542
▁கணக்கீட்ட	-11.3547
▁சாகச	-11.3549
▁1903	-11.3549
▁அமல	-11.3554
▁தயாரிக்கலாம்	-11.3556
▁செலவிட	-11.3557
▁மராத்தி	-11.3558
தற்கென	-11.3561
▁யப்பான	-11.3566
ரமண	-11.3567
▁சுற்றுச்சூழல	-11.3571
▁சமையல	-11.3573
▁ரிஷபம்	-11.3573
▁சனாதிபதி	-11.3573
▁ஒரேயொரு	-11.3573
▁இவரால்	-11.3574
▁நாடோடி	-11.3574
▁நன்னீர்	-11.3575
▁குலசேகர	-11.3575
ative	-11.3578
▁மூலவராக	-11.3587
▁திராட்சை	-11.3605
▁திருவிதாங்கூர	-11.3605
▁மேற்கூறிய	-11.3605
▁எரிவாயு	-11.3605
▁பிரதிபலிப்ப	-11.3605
▁அழைத்தார்	-11.3609
arch	-11.3614
▁எழுந்தருளி	-11.3615
ஐதராக்சி	-11.3616
▁என்கின்றனர்	-11.3617
▁நகரங்களுக்கு	-11.3629
பண்ப	-11.363
▁திறப்பு	-11.3631
291	-11.3633
▁பரிவர்த்தனை	-11.3636
▁அமோனியம்	-11.3636
▁நட்ப	-11.3636
▁ஒலிவாங்கி	-11.3636
▁இசைக்கலைஞர	-11.3636
▁தோல்வியை	-11.364
▁அவனுடைய	-11.3641
▁குழம்ப	-11.3641
▁செயல்பட்டார்	-11.3642
நம்பிக்கை	-11.3645
▁வருவதாக	-11.3653
▁நுண்ணறிவு	-11.3668
▁சார்பற்ற	-11.3669
கஞ்ச்	-11.367
▁செய்வதற்கான	-11.3672
▁உயிரை	-11.3677
▁தலமாக	-11.368
▁தெய்வானை	-11.3699
▁கயிறு	-11.3699
▁திகில்	-11.37
ந்தோறும்	-11.3703
▁விவரிப்ப	-11.3707
▁பிற்பகுதி	-11.3707
▁பங்களித்த	-11.3709
▁நீரினால	-11.3712
▁கூறப்படுகின்றது	-11.3719
▁ஆவியாக	-11.3725
▁வெளியேறிய	-11.3726
▁எனுமிடத்தில்	-11.3731
▁இடைவினை	-11.3739
Fe	-11.374
831	-11.374
▁பாதுகாப்பாக	-11.3747
▁வகையிலான	-11.375
▁ஸ்காட்	-11.3753
▁அடையலாம்	-11.3755
▁வருபவர்	-11.3755
▁பரப்பளவ	-11.3757
▁புலனாய்வு	-11.3762
▁பாவனை	-11.3766
▁என்பனவாகும்	-11.3766
▁பவுல	-11.377
சிறந்த	-11.3771
▁மேற்பகுதி	-11.3772
▁குளிர்ந்த	-11.3773
▁வீரபாண்டி	-11.3774
▁இல்லாமல	-11.3775
▁முற்காலத்தில்	-11.3779
சூரிய	-11.3785
▁ப்ரோ	-11.3787
ுகிறோம்	-11.3788
FA	-11.3789
வகுப்ப	-11.3794
▁சீர்காழி	-11.3794
▁பவுண்டு	-11.3794
நாயக்கன்பட்டி	-11.3795
▁பதிப்பித்த	-11.3795
▁இலக்காக	-11.3798
▁உயர்தர	-11.3798
▁சடங்க	-11.3804
▁வெங்கடேச	-11.381
▁துவங்கினார்	-11.3812
IA	-11.3815
▁இடுப்பு	-11.3818
ator	-11.3823
▁சாதியினர	-11.3825
▁நிலப்பரப்பில்	-11.3825
▁உலர்ந்த	-11.3825
▁வருடாந்திர	-11.3826
▁வெளியுறவு	-11.3826
▁பதினைந்து	-11.3826
▁அடித்தார்	-11.3826
▁சலுகை	-11.3829
▁தூங்க	-11.383
ாம்பாள்	-11.3832
way	-11.3834
▁இருக்கவேண்டும்	-11.384
▁விவரிக்கப்படும்	-11.3843
வாழ்க்கை	-11.3844
▁ஏற்படக்கூடிய	-11.3847
▁நாளிதழ	-11.3857
▁மரணமடைந்தார்	-11.3858
▁இப்பூங்கா	-11.3858
▁முழுவதையும்	-11.3858
▁ஆபிரகாம	-11.3858
குர்ஆன	-11.3859
▁ஒப்புக்கொண்ட	-11.3864
▁ஏற்றவாறு	-11.3865
▁கட்டமைக்கப்பட்ட	-11.3868
க்குள்ளான	-11.3871
▁தேவையற்ற	-11.3875
▁மார்க்சிய	-11.3879
ுருவாக்க	-11.3882
▁கடவுளை	-11.3882
▁பரவியுள்ளது	-11.3883
▁இழுக்க	-11.3885
▁வைத்திருப்பத	-11.3886
William	-11.389
▁நைட்ரேட்டு	-11.389
▁அடுத்தபடியாக	-11.389
கோபால	-11.3893
▁ஆவணப்படுத்த	-11.3894
▁அனைவரையும்	-11.3896
▁விமர்சிக்க	-11.3898
▁தன்மையுடைய	-11.3899
▁1895	-11.3919
▁சந்தர்ப்பங்களில	-11.392
aram	-11.3921
▁காலக்கட்டத்தில்	-11.3923
▁தேவையில்லை	-11.3923
▁காளான்	-11.3923
ிழப்ப	-11.3929
▁மலையக	-11.393
▁வருவதை	-11.3936
▁நடாத்த	-11.3943
▁உள்ளடக்கியதாக	-11.3944
சமூக	-11.3944
▁கிடைக்கப்பெற	-11.3946
குறியீட	-11.3949
▁அளவாக	-11.3949
▁பயன்பாட்டிற்கு	-11.3953
▁அனைத்திந்திய	-11.3955
▁இந்தோனேசிய	-11.3956
▁அடிப்பகுதி	-11.396
2009	-11.3961
▁ஆளுநர	-11.3961
Ag	-11.3965
▁விமர்சனங்களை	-11.3967
Kal	-11.3969
vel	-11.3972
சென்னை	-11.3974
▁கொழும்ப	-11.3983
▁பௌர்ணமி	-11.3987
▁முன்னுரை	-11.3988
▁மன்னார்குடி	-11.3988
▁1902	-11.3995
▁சுயம்பு	-11.3998
▁ஆவணப்பட	-11.3999
ெல்லை	-11.4004
தோஷ	-11.4011
தென்று	-11.4011
▁எளிமை	-11.4014
▁இயக்குநீர்	-11.402
▁வாழ்விட	-11.4021
▁சிறைச்சாலை	-11.4021
களாய்	-11.4024
▁பேராலய	-11.4025
▁திருப்தி	-11.4027
▁போர்க்கள	-11.4031
ிரண்டு	-11.4032
▁கூம்பு	-11.4038
உள்ள	-11.404
▁உக்கிர	-11.4042
▁சமுத்திர	-11.4044
800	-11.4044
▁அம்சமாக	-11.4048
▁படமாக்க	-11.405
▁வலைப்பின்னல	-11.4053
ுறிப்பிடத்தகுந்த	-11.4053
▁புண்ணிய	-11.4053
▁உருவகப்படுத்த	-11.4054
▁ஜூலியன்	-11.4056
▁தரைப்படை	-11.4058
ிணைய	-11.4061
▁விவரிக்கிறது	-11.4064
▁கிளப்ப	-11.4074
Comp	-11.4079
▁இந்நூலை	-11.4087
▁செங்குத்தாக	-11.4087
▁ஆகாய	-11.4087
▁நிரந்தரமாக	-11.41
▁போர்த்துக்கேயர	-11.4101
▁பூங்காக்கள	-11.4106
▁பெண்ணாக	-11.4107
▁கூறுகின்றது	-11.4108
▁ஒன்பதாவது	-11.4118
▁பெருங்கோவில்	-11.4118
▁புணர	-11.4118
▁ஆர்க்டிக்	-11.4119
▁ஈஸ்வர	-11.413
▁புஷ்ப	-11.4132
▁கொழுப்ப	-11.4134
▁தூய்மையான	-11.4135
▁அவசியமான	-11.4139
▁செழிப்ப	-11.4142
▁இப்பெயர	-11.4144
▁தூள	-11.4147
▁திகழ்ந்தார்	-11.415
▁சட்டப்பேரவை	-11.4151
▁நிரூபித்த	-11.4151
▁அமோனியா	-11.4151
▁விளைச்சல	-11.4152
▁தரப்பினர	-11.4155
▁வேங்கட	-11.4158
▁மெட்ரிக்	-11.4162
▁ஆல்பர்ட்	-11.4164
▁மும்ம	-11.4165
▁ஆந்திரா	-11.4171
ங்களுக்கிடையே	-11.4173
க்கொண்டிருக்கும்	-11.4177
▁புனைப்பெயர	-11.418
▁என்னவென்றால்	-11.4184
▁நீரிழிவு	-11.4184
▁பொருண்மை	-11.4184
▁திருவையாறு	-11.4184
▁ஆராய்ந்த	-11.4185
▁இடதுசாரி	-11.4186
▁அடைவத	-11.4187
col	-11.4188
▁பாக்கித்தானிய	-11.4198
▁புழுக்கள	-11.4203
▁நேர்மை	-11.4209
▁காவல்துறையினர	-11.4215
▁விளிம்ப	-11.4217
▁மாரடைப்ப	-11.4218
▁ஆதீன	-11.4218
▁யுரேனியம்	-11.4218
▁புதுப்பித்த	-11.4224
▁தட்ப	-11.423
நொ	-11.4233
முக்கிய	-11.4241
▁சாட்டப்பட்ட	-11.4243
▁மீடியா	-11.4243
போதிலும்	-11.4244
▁திருமதி	-11.4246
▁லிமிடெட்	-11.4251
▁சுழலும்	-11.4251
▁மறுநாள்	-11.4259
ப்படவேண்டும்	-11.4262
▁செய்துகொள்ள	-11.4274
▁உட்கரு	-11.4277
செயல	-11.4283
▁மதுராந்தக	-11.4284
▁வாசிங்டன்	-11.4284
▁ஊக்குவித்த	-11.4285
▁திடீரென	-11.4285
▁தொல்பொருள்	-11.4287
▁ஹியூ	-11.4301
▁செயற்படுத்த	-11.4318
▁இதற்கிடையில்	-11.4318
▁மாதவிடாய்	-11.4318
▁சார்லசு	-11.4318
▁மெட்டல்	-11.4318
▁டிஸ்னி	-11.4319
▁காஞ்சிபுரத்த	-11.432
▁கோபால்ட்	-11.4324
▁பிரயோக	-11.4325
▁வாய்வழி	-11.4328
▁900	-11.433
▁லிட்டர்	-11.4331
▁வெடிக்க	-11.4332
▁கிளார்க்	-11.4335
able	-11.4339
மங்கை	-11.4351
▁ஐதரசன	-11.4352
▁டென்னிஸ்	-11.4352
emb	-11.4353
குறிப்பாக	-11.4354
▁மரியோ	-11.4373
ஆங்கில	-11.4378
▁சுரக்க	-11.4385
▁வேணுகோபால	-11.4385
▁இவருடன்	-11.4386
▁பலதரப்பட்ட	-11.4386
▁அதிவேக	-11.4388
540	-11.4395
கல்ல	-11.4397
▁உச்சரிப்ப	-11.4397
▁நடிகைக்கான	-11.4407
▁தேசிக	-11.441
▁தென்பகுதி	-11.4417
▁பதினேழாம்	-11.4419
▁எப்பொழுதும்	-11.4419
▁வெண்ணிற	-11.4419
▁தெய்வீக	-11.4419
▁விரைவான	-11.442
மாரியம்மன்	-11.4421
▁கால்பந்தாட்ட	-11.4422
▁வகுப்பறை	-11.4427
▁வரிசைப்படுத்த	-11.4431
▁Ex	-11.4437
▁குறைக்கிறது	-11.4437
▁இறந்துவிட்ட	-11.4438
▁பெட்ரோலிய	-11.4439
▁முதலே	-11.4446
▁ஸ்டூடியோ	-11.4453
▁இடப்பெயர்ச்சி	-11.4453
▁முன்மொழியப்பட்ட	-11.4453
▁வாக்களிக்க	-11.4453
▁சமாளிக்க	-11.4454
▁உட்பகுதி	-11.4457
press	-11.4464
▁லேசர்	-11.4466
▁போன்றோர	-11.4467
ுறுதி	-11.4468
▁கதாபாத்திரங்கள	-11.4469
▁வாதிட்ட	-11.4469
▁உயிருடன்	-11.447
▁எலும்ப	-11.448
▁நீதிபதியாக	-11.4484
▁கவுன்டியில	-11.4488
▁குரோமியம்	-11.4488
▁புஷ்கர	-11.4488
ப்பொருட்களை	-11.449
▁இலண்டனில்	-11.4497
▁தெரியாமல்	-11.45
▁சிதைந்த	-11.4506
▁இந்நோய	-11.4506
▁வீச்சாளர	-11.4509
தமிழ்நாட்டிலுள்ள	-11.4515
▁பம்பாய்	-11.4522
▁நிலத்தினால	-11.4531
▁பங்குபற்ற	-11.4535
▁நிழல	-11.4535
▁ஈர்ப்ப	-11.4538
▁பாவிக்க	-11.454
▁ஒவ்வோர	-11.4546
▁கிடைத்துள்ளன	-11.4548
▁வலதுகை	-11.4556
▁முதலியவற்றை	-11.4556
▁சுற்றுவட்ட	-11.4561
▁இயங்குகின்றன	-11.4563
▁பார்ப்பதற்கு	-11.4573
▁கம்பளி	-11.4583
▁அச்சுப்பொறி	-11.4591
▁தூதரக	-11.4591
▁ஒரிசா	-11.4591
▁அங்காடி	-11.4591
▁ராமகிருஷ்ண	-11.4595
▁விமர்சித்த	-11.4598
▁என்பதிலிருந்து	-11.46
▁வேறுபடுகிறது	-11.4602
▁ஓப்பன்	-11.4604
கொண்டிருந்த	-11.4605
▁https	-11.4607
▁விலங்கின	-11.4609
▁கிடைக்கக்கூடிய	-11.4619
▁தன்னுடன்	-11.4623
▁உற்சாக	-11.4625
▁சாதகமான	-11.4625
▁ஒப்பிடும்போது	-11.463
▁அதிபராக	-11.4632
குளோரைடு	-11.4641
▁எடுத்துரைக்க	-11.4649
▁பொம்ம	-11.465
oth	-11.4652
▁ISBN	-11.466
▁கணக்கெடுப்பில்	-11.466
▁வைகானசம்	-11.466
▁ஏப்பிரல்	-11.466
▁நெடுங்கால	-11.4664
▁அடங்குகின்றன	-11.4664
▁நடுப்பகுதியில்	-11.4667
▁அனேக	-11.4667
▁இராஜராஜ	-11.467
▁தொடர்புபடுத்த	-11.4674
▁கருத்தரங்க	-11.4675
▁உடனான	-11.4675
▁ஒழுங்குமுறை	-11.4677
▁வெளியேறினார்	-11.4682
▁1857	-11.4684
▁சூடாக்க	-11.4685
டவுன்	-11.469
▁அளவான	-11.4693
▁தடுப்பூசி	-11.4695
▁பழிவாங்க	-11.4695
▁வடகிழக்கில்	-11.4695
▁அடிவாரத்தில்	-11.4695
▁ஒவ்வாமை	-11.4695
▁ஐப்பசி	-11.4695
▁கள்ளக்குறிச்சி	-11.4695
▁சார்ல்ஸ்	-11.4696
▁சாஸ்தா	-11.4696
▁திணிவு	-11.4698
பென்சீன்	-11.4699
▁சுமத்த	-11.4701
▁நீளமுள்ள	-11.4704
▁நெருக்க	-11.4705
▁திருவரங்க	-11.4706
▁நெதர்லாந்த	-11.4713
ிறேன்	-11.4719
ose	-11.4725
▁குறும்பட	-11.473
▁புலம்பெயர்ந்த	-11.473
▁பெறுமதி	-11.473
▁தொழிலாளி	-11.4733
▁மனநல	-11.4733
▁சுமேரிய	-11.4734
▁இடம்பெறுகின்ற	-11.4746
▁நெற்றி	-11.4747
▁சமத்துவ	-11.4748
நுண்	-11.4756
▁என்பதாக	-11.4758
▁உபகரண	-11.4762
▁பெற்றுக்கொண்ட	-11.4763
▁அசாதாரண	-11.4765
▁கிராஃபிட்டி	-11.4765
▁புறக்கணிக்க	-11.4765
▁வேண்டாம்	-11.4766
▁நிருப	-11.4768
▁வகிக்கின்றன	-11.4768
▁சுயாட்சி	-11.4771
▁மீட்ப	-11.4772
▁விழுங்க	-11.4774
▁மட்டுப்படுத்த	-11.4775
▁முடிச்சு	-11.4781
formula	-11.4781
▁தோன்றுகின்றன	-11.4787
▁லலித	-11.4796
▁சிலிக்கான்	-11.48
▁லத்தீன்	-11.4801
▁with	-11.4801
row	-11.4803
▁ஹிந்தி	-11.4815
▁வேண்டியிருந்தது	-11.4818
▁செய்யுள	-11.4818
▁பிரதமர	-11.482
▁மீனவர்	-11.4821
▁முதலீட்ட	-11.4824
▁நற்கருணை	-11.4835
▁சீர்குலை	-11.4835
outh	-11.4836
▁அணிகலன்	-11.4836
▁மியான்மர	-11.4836
விலங்கு	-11.484
▁கூட்டாட்சி	-11.4851
ப்படுகிறான்	-11.4852
▁சஞ்சீவ	-11.4871
▁ஞாயிற்றுக்கிழமை	-11.4871
▁வம்சாவளி	-11.4871
▁நேர்மாறு	-11.4871
▁எசுத்தர்	-11.4873
▁இன்ஃபோ	-11.4878
▁அவதானிக்க	-11.4879
▁பரிசாக	-11.4882
▁வெளிப்பாட்ட	-11.4883
▁நியூசிலாந்த	-11.4885
▁தடித்த	-11.4889
▁இனத்தவர	-11.4891
▁அச்சிடப்பட்ட	-11.4903
▁அக்டோபரில்	-11.4906
▁நாளடைவில்	-11.4906
▁செல்சியஸ்	-11.4906
▁இக்கட்டுரை	-11.4906
▁கடம்ப	-11.4916
▁குளித்த	-11.4919
▁விரும்பவில்லை	-11.4926
iva	-11.4929
மீட்டர	-11.4932
▁ஃவுளூரைட	-11.4942
▁கடல்மட்டத்தில்	-11.4942
▁வெளிப்படையான	-11.4942
▁பிரிட்டானிய	-11.4942
▁பிரமிடு	-11.4943
▁வாய்பாடு	-11.4947
▁பிட்காயின	-11.4949
ோருக்கான	-11.4951
ூரிலிருந்து	-11.4952
▁செயற்குழு	-11.4954
▁பகிர்வ	-11.4972
▁முற்றிலுமாக	-11.4978
▁மெய்யெழுத்து	-11.4978
▁பொன்னம்பல	-11.4978
இயக்க	-11.499
▁குறியீடாக	-11.4994
ாதிபதி	-11.5
▁கிளம்ப	-11.5002
▁சிறப்பித்த	-11.5006
▁ஆட்சிக்காலத்தில	-11.5011
▁போர்த்துகீசிய	-11.5014
▁Division	-11.5014
▁இசுரயேல	-11.5014
▁கிரிக்இன்ஃபோவில	-11.5014
▁பூச்சிக்கொல்லி	-11.5014
▁சிறப்பிக்க	-11.5015
▁ஆன்மிக	-11.5016
ேஷ்வர	-11.502
▁மேற்கண்ட	-11.5022
▁தேனீ	-11.5026
omb	-11.5027
▁கிறிஸ்தவர்கள	-11.5028
ஸ்டைன்	-11.503
▁திறம்பட	-11.5034
▁வாணிக	-11.5035
▁தனிமனித	-11.5038
▁ஆயுதங்களை	-11.5044
▁மறுத்துவிட்ட	-11.5045
▁சாதகமாக	-11.505
ிருப்பினும்	-11.5057
▁முழக்க	-11.5058
ode	-11.5059
▁முற்றாக	-11.506
▁முறிவு	-11.5062
▁ஹோட்டல	-11.5063
4,000	-11.5065
▁வென்றுள்ளார்	-11.5067
த்தூண்	-11.5073
▁லடாக்	-11.5073
▁அதற்க	-11.5082
▁உயர்நீதிமன்ற	-11.5086
▁விசேட	-11.5087
▁இடையூறு	-11.5087
kulam	-11.5087
▁இவ்விரண்டு	-11.5088
ஸீ	-11.5092
▁செல்லியம்மன்	-11.5095
▁கணேச	-11.5096
▁அலுமினிய	-11.5098
இடம்பெற்றிருந்தன	-11.5103
▁அறுதியிட	-11.5104
▁பதிப்பிக்க	-11.5105
▁புளோரின	-11.5106
▁உழைத்த	-11.511
▁கலைஞராக	-11.5113
▁ஸ்டீபன்	-11.5124
வள்ளுவ	-11.5125
▁பிராங்க்	-11.5129
புலியூர்	-11.5132
▁தாக்குதலுக்கு	-11.5135
ஃபோர்டு	-11.5136
ப்போராட்ட	-11.5145
umb	-11.5145
▁அலுவலர	-11.5153
▁புறநானூற்ற	-11.5159
▁நிராகரித்த	-11.5159
▁விரைவுவண்டி	-11.5159
▁காரணாகம	-11.5159
▁வயிற்றில	-11.5159
▁பத்தாவது	-11.5159
▁விவேகானந்தர	-11.5159
▁பாகுபாடு	-11.5161
▁கிறித்து	-11.5161
▁கணக்கீடு	-11.5162
▁தொலைவிலுள்ள	-11.5163
ாமலே	-11.5167
And	-11.518
▁கட்டமைக்க	-11.5193
பிடிப்ப	-11.5195
▁உயர்கல்வி	-11.5196
▁அராபிய	-11.5197
▁அலகாபாத்	-11.5199
▁இப்பிரதேச	-11.5199
▁சரும	-11.52
▁உள்வட்ட	-11.5201
▁இரண்டிற்கும்	-11.5202
▁வேதிவினை	-11.5202
▁வைத்தியநாத	-11.5213
▁மோதல	-11.5217
▁வசிப்ப	-11.5223
▁பருவகால	-11.5228
▁மட்பாண்ட	-11.5233
▁பதினெட்டு	-11.5233
▁வவுனியா	-11.5233
▁அடைவதற்கு	-11.5242
▁வர்மா	-11.5254
அதிகாரப்பூர்வமாக	-11.5257
▁நூற்பா	-11.5269
▁சட்டவிரோத	-11.5269
▁வாசுதேவ	-11.5269
▁மணியளவில்	-11.5269
▁நம்பகத்தன்மை	-11.527
▁அர்ஜுன	-11.527
▁திருமேனி	-11.5271
▁தொலைதூர	-11.5271
▁புரோட்டான்	-11.5272
▁யுரேன	-11.5274
▁வந்தவாசி	-11.5284
▁அழிப்ப	-11.5289
நீள	-11.5294
▁தளவாட	-11.5296
▁புரோமின	-11.5297
ல்லுறுப்புக்கோவை	-11.5306
▁கதாநாயகியாக	-11.5306
▁தாலுக்காவில்	-11.5306
▁எறும்பு	-11.5307
▁பேரழிவு	-11.5307
▁நாகர்கோவில்	-11.5307
▁கொள்கலன	-11.5309
▁உண்டாகிறது	-11.5309
ove	-11.5311
▁மேலோட்ட	-11.5315
▁49%	-11.5318
▁ஓசூர்	-11.5319
▁குளோரைட	-11.533
▁உயிரியல	-11.5333
▁வருங்கால	-11.5344
▁காந்தியடிகள	-11.5347
▁கழிமுக	-11.5349
▁வேண்டுமென்று	-11.535
6,000	-11.5351
▁ஆராய்வ	-11.536
▁வழமையான	-11.5363
▁பங்குபெற	-11.5379
▁அவுஸ்திரேலிய	-11.5381
▁இந்நிகழ்ச்சி	-11.5381
▁கணிப்பொறி	-11.5381
▁விவாகரத்து	-11.5381
▁மாணாக்கர	-11.5381
▁துறையினர	-11.5382
▁நைட்ரஜன	-11.5382
▁வியப்ப	-11.5385
▁இராபர்ட்	-11.5385
low	-11.5387
▁வடிநில	-11.5387
▁நிகழ்பட	-11.539
▁கட்டாயப்படுத்த	-11.5398
▁உணவகங்கள	-11.5409
▁கால்வாய	-11.5412
▁நோய்த்தொற்று	-11.5418
▁மனப்பான்மை	-11.5418
▁என்பதற்காக	-11.5418
▁[2]	-11.5419
▁எவ்வாற	-11.5419
▁இராஜேந்திர	-11.5421
▁வடிவமைப்பாளர	-11.5424
ரிட்ஜ்	-11.5426
comp	-11.5426
▁நீராடி	-11.5427
▁அமெரிக்காவிலும்	-11.5429
▁அரவான	-11.5433
▁நுகர	-11.5438
▁வடுக	-11.5442
▁நிரம்ப	-11.5445
▁அகமதாபாத்	-11.5456
▁இப்பாடசாலை	-11.5456
▁குடமுழுக்கு	-11.5456
▁ராஜகோபுரம்	-11.5456
▁பராமரித்த	-11.5456
▁தட்டையான	-11.5458
▁கட்டடக்கலை	-11.5459
▁கணேஷ்	-11.5461
தற்போது	-11.5464
▁ஸ்டீவ்	-11.5465
▁பெற்றுக்கொள்ள	-11.5469
ுவோம்	-11.5482
▁இசையமைப்ப	-11.5489
▁செலவின	-11.5489
▁வேதிப்பொருட்கள	-11.5492
▁பழைமையான	-11.5494
▁நினைவுகூர	-11.5494
▁பாலசுப்பிரமணிய	-11.5495
▁பாடலாசிரியர்	-11.5495
Ind	-11.5496
▁ஐரோப்பாவின	-11.5496
▁பகிர்ந்த	-11.5497
▁ப்ளா	-11.5501
▁அயர்லாந்த	-11.5502
ஞ்ஞா	-11.5506
▁சுழலி	-11.5516
வெள்ளீய	-11.5522
களாலான	-11.5524
புதினம்	-11.5528
▁Nobel	-11.5532
▁அம்பேத்கர	-11.5532
▁மான்செஸ்டர்	-11.5532
▁வாக்குரிமை	-11.5532
▁சதுர்த்தி	-11.5532
▁தாமசு	-11.5533
▁அடைமொழி	-11.5548
▁பாதுகாத்த	-11.5552
▁மாணவராக	-11.5553
▁பிணைக்கப்பட்ட	-11.5569
▁முடிசூட்ட	-11.557
▁சென்றாய	-11.5576
▁வரலாற்றாளர்	-11.559
▁விளங்கின	-11.5604
George	-11.5608
▁ஆக்கிரமித்த	-11.5608
▁ஒரத்தநாடு	-11.5608
▁நாயனார்	-11.5608
▁அசிட்டிக்	-11.5614
over	-11.5616
▁51%	-11.5621
▁ஆஸ்திரியா	-11.5622
ராட்டிர	-11.5624
விடுதி	-11.5638
▁நீரிலி	-11.564
▁தம்பதியர	-11.5642
▁ஆடித்திருவிழா	-11.5646
▁சிந்தாமணி	-11.5646
▁சேதுபதி	-11.5646
▁தோழர்	-11.5647
▁நாட்டிலுள்ள	-11.5655
▁குறள	-11.5656
trans	-11.5661
▁ஈர்க்கப்பட்ட	-11.5666
▁நிகழ்தகவு	-11.5685
▁மாங்கனீசு	-11.5685
▁முற்றொருமை	-11.5685
▁இருபுறமும்	-11.5685
▁இராமானுச	-11.5685
▁காரைக்கால்	-11.5685
▁பினாங்கு	-11.5685
▁அங்கத்தினர்	-11.5688
▁பொருளியல	-11.5718
▁அண்டர்டேக்கர	-11.5723
▁வியாழக்கிழமை	-11.5723
▁வாழ்கிறார்கள்	-11.5723
▁செயல்திட்ட	-11.5723
▁விலங்கியல்	-11.5727
▁பின்தொடர	-11.5727
2012	-11.5729
▁புரட்சிகர	-11.5733
▁கவுண்டி	-11.5735
▁பிரசன்ன	-11.575
▁எத்தியோப்பிய	-11.5762
▁வத்திக்கான்	-11.5762
ுத்தீன்	-11.5771
▁சொல்கிறார்	-11.5773
emp	-11.5789
▁பதினாறாவத	-11.5801
▁நிராகரிக்க	-11.5801
▁தீநுண்ம	-11.5801
▁ரகுமான்	-11.5801
▁அம்பிகை	-11.5801
▁நேசநாட்டு	-11.5804
▁சிவஞான	-11.5808
▁சமயத்தவர	-11.5813
▁பாபிலோனிய	-11.5817
▁கிடைக்காத	-11.5824
▁ஃபியட்	-11.5829
▁சிலவேளைகளில்	-11.584
▁மொழிக்குடும்ப	-11.584
▁தேர்ந்தெடுப்ப	-11.584
▁தருமபுரி	-11.5842
▁பிளாஸ்டிக்	-11.5842
அதிக	-11.5845
▁கைலாச	-11.5847
▁சமீப	-11.5856
kka	-11.5857
▁சிறுபான்மையினர	-11.5861
ஹங்கேரி	-11.587
▁சமூகத்தினர	-11.5874
▁நாச்சியார்	-11.5879
▁குறைபாட்ட	-11.5883
▁உண்டான	-11.5885
▁வடிவிலான	-11.5886
▁சூழலியல்	-11.5887
▁வினைத்திறன	-11.5902
திருத்தந்தை	-11.5906
▁பிரத்யேக	-11.5919
▁திருச்சுற்றில்	-11.5919
▁பிடாரியம்மன்	-11.592
▁காலனித்துவ	-11.5921
ிருக்கக்கூடும்	-11.5927
▁இளையோர்	-11.593
▁தொழுகை	-11.5942
ுபவராக	-11.5945
4475	-11.5949
▁திருவிடைமருதூர்	-11.5958
▁jpg	-11.5958
▁ஆவாா்	-11.5958
▁வெட்டப்பட்ட	-11.5965
▁ஆய்வாளர	-11.5976
பீனைல்	-11.5981
▁சுத்திகரிப்பு	-11.5998
▁வீழ்படிவ	-11.5998
▁சுனாமி	-11.5998
▁தேநீர்	-11.6006
▁தம்பதியினர	-11.6033
▁இவ்வுலக	-11.6038
▁விரிவுரையாளராக	-11.6039
▁பரமக்குடி	-11.604
▁பங்குதாரர்	-11.6041
▁பிரசவ	-11.6041
▁கருதுகிறார்கள்	-11.6046
▁தமிழிசை	-11.6047
பொதுவாக	-11.6067
▁பளபள	-11.6078
▁சகாப்த	-11.6078
▁விழுக்காட்ட	-11.6078
▁கொதிநிலை	-11.6078
Thiru	-11.6082
▁தாகூர	-11.6083
▁விடுவித்த	-11.6089
▁மட்டையாளர	-11.6092
ampatti	-11.6109
▁அனுபவித்த	-11.6113
▁பதிவிறக்க	-11.6118
▁எட்வர்டு	-11.6118
▁சித்திரவதை	-11.612
▁மாகாணசபை	-11.6121
▁முழுஎண்	-11.6122
▁நடனமாட	-11.6125
▁இராணுவத்தினர	-11.6142
▁பதின்ம	-11.6157
▁அருணாச்சல	-11.6158
▁நினைவுச்சின்ன	-11.6158
▁சேகரித்த	-11.6163
▁கன்னிமார்	-11.6164
▁புளோ	-11.6173
மதுரை	-11.6177
களிடத்தில்	-11.6178
பீல்ட்	-11.6184
▁சிலநேரங்களில்	-11.6199
▁போலன்றி	-11.6199
▁உட்கொண்ட	-11.6199
▁சண்டிகேஸ்வரர்	-11.62
த்தெரு	-11.62
▁ஆங்காங்கே	-11.62
▁விசாரிக்க	-11.6201
▁கூட்டுத்தொகை	-11.6203
▁இன்டெல்	-11.6204
▁டாலர	-11.622
ுவேன்	-11.6237
▁ஹைட்ரஜன்	-11.6239
▁விரைவிலேயே	-11.6239
▁பிளாட்டினம்	-11.624
ச்சரிவு	-11.6242
▁உள்துறை	-11.6243
▁நுரையீரல	-11.6255
▁தென்னிந்தியாவின	-11.6257
▁முன்னெடுத்த	-11.6279
▁District	-11.628
▁வேர்ல்ட்	-11.6283
▁நுண்ணோக்கி	-11.6283
ச்சுற்றி	-11.6285
▁தக்கவைத்துக்	-11.6286
▁மணிப்பூர	-11.6314
வெள்ளி	-11.6315
▁இட்லர	-11.632
▁இளைஞன	-11.6321
▁பந்துவீச்சில்	-11.6321
▁வழக்கறிஞராக	-11.6321
▁விரைந்து	-11.6321
▁அபராத	-11.6322
▁சைபீரிய	-11.6322
▁முன்பிருந்த	-11.6322
▁எதிரொலி	-11.6322
▁பல்துறை	-11.6326
▁குறியீட்டை	-11.6326
▁அலங்கரிக்க	-11.6327
▁பயங்கர	-11.6328
▁கண்ணீர்	-11.6329
▁செலீன	-11.6331
▁அகச்சிவப்பு	-11.6362
▁அங்கீகரித்த	-11.6362
▁திமிங்கில	-11.6362
▁நவம்பரில்	-11.6362
▁மற்றுமொரு	-11.6362
▁மானாமதுரை	-11.6362
▁பண்டைக்கால	-11.6362
▁பாடுபட்ட	-11.6365
▁கூறுகையில்	-11.637
▁விஸ்வ	-11.6372
▁உருவெடுத்த	-11.6387
▁நிசாம	-11.639
▁வீட்டில	-11.6393
▁தொழினுட்ப	-11.6403
▁குறுந்தொகை	-11.6403
▁திங்கட்கிழமை	-11.6403
▁தென்னாபிரிக்க	-11.6403
▁மிதிவண்டி	-11.6403
▁மில்லியனுக்கும்	-11.6406
▁இவ்விதழ்	-11.6407
▁சுமந்து	-11.6421
ோதய	-11.6423
▁முற்கால	-11.6424
▁வேதியியலாளர்	-11.6425
சிற்றிதழ்	-11.6433
mangalam	-11.6445
▁உத்திரமேரூர்	-11.6445
▁செப்டம்பரில்	-11.6445
▁நாயன்மார்	-11.6445
▁ஆப்கானிய	-11.6445
work	-11.6445
▁கனசதுர	-11.6446
▁நடிகருக்கான	-11.6447
▁என்கிறோம்	-11.6448
மடங்காக	-11.6448
▁நெருப்ப	-11.6454
புளோர	-11.6455
▁பூர்ண	-11.6459
▁சரிசெய்ய	-11.646
kudi	-11.6475
▁அத்தியாவசிய	-11.6487
▁அறந்தாங்கி	-11.6487
▁கணிசமாக	-11.6487
▁குளுக்கோச	-11.6487
▁பரஸ்பர	-11.6487
▁கொடூர	-11.6487
▁திருக்கோவில்	-11.6487
▁குத்தகை	-11.6488
▁அரக்கன	-11.6517
▁சுரேஷ்	-11.6517
▁பயங்கரவாத	-11.6523
▁Institute	-11.6528
▁Secretariat	-11.6528
▁தற்சமயம்	-11.6528
▁திருவள்ளுவர்	-11.6528
ization	-11.6531
▁புயல	-11.6539
▁பாக்டீரியாக்கள	-11.6543
ப்ளோ	-11.6549
▁காற்பந்தாட்ட	-11.657
▁உச்சநீதிமன்ற	-11.657
▁வாஷிங்டன்	-11.657
▁ராஜீவ்	-11.657
▁பளிங்கு	-11.6571
▁மிளகு	-11.6571
▁துளசி	-11.6571
▁மாற்றியமைத்த	-11.6574
▁அண்மைக்கால	-11.6592
▁வாய்ப்பாட்டால	-11.6594
▁ஆணையிட்ட	-11.6598
▁விசுவ	-11.6602
▁வசூலிக்க	-11.6611
களிலோ	-11.6612
▁வயதிற்குட்பட்ட	-11.6613
▁செங்கல்பட்டு	-11.6613
▁தென்கிழக்கில்	-11.6613
▁நிலவரப்படி	-11.6613
▁சேதமடைந்த	-11.6616
▁ஸ்ரீராம	-11.6626
8,000	-11.6642
▁கிளிநொச்சி	-11.6655
▁கிலோகிராம்	-11.6655
▁codic	-11.6656
▁ஹென்ரி	-11.6656
▁சர்ச்சைக்குரிய	-11.6657
▁கிருஷ்ணமூர்த்தி	-11.6658
அகநானூற	-11.666
▁கருத்தரிப்ப	-11.6663
▁அங்கீகார	-11.6685
ிணைப்ப	-11.6687
புனித	-11.6694
▁வாழ்நாளில்	-11.6698
▁மியூசிக்	-11.6698
hydr	-11.6698
காண்க	-11.6699
▁தெரியவருகிறது	-11.6699
▁முன்னெடுக்க	-11.67
▁குடிமகன	-11.6702
▁பேச்சாளர்	-11.6717
▁இசையமைத்திருந்த	-11.6722
▁ஸ்காட்லாந்த	-11.6739
▁கஸ்தூரி	-11.674
▁ஜெர்ரி	-11.6741
▁சொர்க்க	-11.6742
க்கொள்கிறது	-11.6744
▁பிரபலமடைந்த	-11.6744
▁படைத்தலைவர்	-11.6748
▁அலுவல்முறை	-11.6752
▁மெய்நிகர்	-11.6783
▁பெங்களூரில்	-11.6783
▁சூதாட்ட	-11.6783
▁சௌராட்டிர	-11.6784
▁கேப்டன்	-11.6785
▁நரம்பியல்	-11.6788
▁முத்தையா	-11.679
நாராயணப்பெருமாள்	-11.6791
▁பத்மநாப	-11.6796
▁நடைப்பெற்ற	-11.6797
▁நோயெதிர்ப்பு	-11.6826
▁ஜார்க்கண்ட	-11.6826
▁பிரார்த்தனை	-11.6826
▁புராதன	-11.6826
▁புகலிட	-11.6827
▁ஆர்சனிக்	-11.6832
▁உரிமையாளர	-11.6835
▁மரபினர	-11.6841
ொழுக்க	-11.6841
▁அணைக்கட்டு	-11.6849
நவீன	-11.6861
▁பட்டாம்பூச்சி	-11.687
▁ஃபிளாஷ்	-11.687
▁குத்துச்சண்டை	-11.687
▁ஏர்லைன்ஸ்	-11.687
▁ஆடம்பர	-11.6872
▁நோக்கங்களுக்காக	-11.6873
▁அயல	-11.6886
▁உளவியல	-11.6893
▁பேசுவோர	-11.6898
matic	-11.6902
“	-11.6903
other	-11.6909
Robert	-11.6913
▁மன்ஹாட்டன	-11.6913
▁கூட்டிணைவு	-11.6914
▁அரைக்கோள	-11.6917
▁இல்லாமை	-11.6924
▁முத்துமாரியம்மன	-11.693
▁கணைய	-11.694
பண்ணை	-11.6954
graph	-11.6957
▁இளஞ்சிவப்பு	-11.6957
▁வரைவிலக்கண	-11.6957
▁சிறப்பியல்பு	-11.6957
▁நாற்காலி	-11.6957
▁கோழிக்கோடு	-11.6958
▁ராஜகோபால	-11.6959
▁நவநீத	-11.697
ாற்றின்	-11.6971
▁விரோத	-11.6984
ால்டிகைடு	-11.7
▁உள்ளூராட்சி	-11.7001
▁தள்ளுபடி	-11.7001
▁கேம்பிரி	-11.7002
▁காந்தப்புல	-11.7003
▁நிக்கோபார்	-11.7003
▁முதலியவற்ற	-11.7009
▁புதல்வர	-11.7028
ஐரோப்பிய	-11.7035
தொழில்நுட்ப	-11.7041
▁உரையாசிரியர்	-11.7045
▁இவ்வாறாக	-11.7045
▁முறியடிக்க	-11.7045
▁மாமல்லபுர	-11.7045
▁பதார்த்த	-11.7045
▁ஆச்சரிய	-11.7045
▁மாம்பழ	-11.7045
▁நிர்வாண	-11.7045
▁முரளி	-11.7045
▁கரையக்கூடிய	-11.7046
▁வன்பொருள்	-11.7047
குதிரை	-11.7049
▁தைட்டானியம்	-11.7089
ாபிஷேகம்	-11.7089
▁wikipedia	-11.7089
▁கலந்துரையாட	-11.7089
▁தமிழறிஞர்	-11.7089
▁அர்ஜூன	-11.7089
James	-11.7089
▁மடோனா	-11.7091
▁பாதாள	-11.7095
ுடனேயே	-11.7095
▁உச்சரிக்க	-11.7097
gram	-11.7102
▁அதீத	-11.7102
▁செர்பிய	-11.7107
▁கூடைப்பந்து	-11.7133
▁கார்பாக்சில	-11.7133
▁வேலைவாய்ப்பு	-11.7133
▁மொராக்கோ	-11.7133
▁மவுண்ட்	-11.7134
▁பாண்டிச்சேரி	-11.7134
▁காங்கேய	-11.7134
▁விக்டர்	-11.7135
▁ப்ளே	-11.7136
▁சூர்யா	-11.7138
▁அசுவ	-11.7144
▁கந்தர்வ	-11.7145
▁அறிவாற்றல	-11.7153
▁கேம்பிரிட்ஜ்	-11.7178
▁துரியோதனன	-11.7178
▁காட்மியம்	-11.7178
▁மசோதா	-11.7178
▁இப்பல்கலைக்கழக	-11.7179
▁புனைகதை	-11.7179
▁மணமகன	-11.7183
▁தாதுக்கள	-11.7199
▁மைசூர	-11.7206
▁ஒப்பீட்ட	-11.7219
▁அத்தியாயத்த	-11.7223
▁சிவகாமி	-11.7224
▁அளவீட்டு	-11.7225
Inter	-11.7236
File	-11.7245
இசையமைத்துள்ளார்	-11.7247
கொள்கிறான்	-11.7248
கொள்வதற்கான	-11.7254
tain	-11.7255
plan	-11.7266
▁வித்தியாலயம்	-11.7268
▁அலெக்ஸாண்டர	-11.7268
▁டென்னிசு	-11.7268
▁உள்கட்டமைப்பு	-11.7268
▁மரபார்ந்த	-11.7268
wiki	-11.7269
▁பயிற்றுவிக்க	-11.7269
MDC	-11.7271
▁மின்தடை	-11.7272
746	-11.7279
பெங்களூர	-11.7282
▁ஆபிரிக்காவ	-11.7296
▁பூக்கள	-11.7303
தெற்கு	-11.7309
▁எதிர்நோக்க	-11.7311
செலுத்த	-11.7312
▁ஆப்கானித்தான்	-11.7313
▁மிசௌரி	-11.7313
▁நீரூற்று	-11.7313
▁நெரிசல	-11.7315
▁ஆணைக்குழு	-11.7315
▁விருந்தினர்	-11.7316
▁கருவுற்ற	-11.7318
▁புகுத்த	-11.7336
குறிப்பிட்ட	-11.7351
▁பரதநாட்டிய	-11.7359
▁வெவ்வேறான	-11.7359
▁பிக்சர்ஸ்	-11.7359
▁வாக்கெடுப்பு	-11.7359
David	-11.7359
▁மலிவான	-11.736
▁நரேந்திர	-11.7361
▁அமலாக்க	-11.7366
ஃபார்ம	-11.7402
▁அருகில	-11.7403
▁விசையியக்கக்	-11.7404
▁acid	-11.7404
▁பிரேசிலின்	-11.7404
▁வாக்களித்த	-11.7404
▁பட்டியலின்படி	-11.7406
விஜய	-11.7418
புரோமைட	-11.7419
▁முற்றுகையிட்ட	-11.7431
ெண்ணெய	-11.7435
▁வருடாந்த	-11.7446
லுமின	-11.7448
▁ஐதரைடு	-11.745
▁வயிறு	-11.745
▁திருவாங்கூர்	-11.7451
▁கரிபிய	-11.7451
▁உட்செலுத்த	-11.7451
▁வழிவகுத்த	-11.7461
idae	-11.7465
▁வசிப்பிட	-11.7472
கொள்வோம்	-11.7475
தொலைக்காட்சி	-11.7489
▁நற்றிணை	-11.7496
▁கீட்டோன்	-11.7496
▁வாம்பயர்	-11.7496
▁போர்முனையில்	-11.7496
▁ஈருறுப்பு	-11.7498
▁ஆதரவளிக்க	-11.75
▁கண்டறிவத	-11.7507
▁அஜித்	-11.7512
▁முடிவெடுக்க	-11.7524
▁சமைக்க	-11.7525
▁சிசிலி	-11.7528
▁எலுமிச்சை	-11.7543
▁ஐசோடோப்பு	-11.7543
▁சர்வாதிகார	-11.7543
▁காமராசர்	-11.7543
▁அர்ப்பணித்த	-11.7544
▁மழைக்காடுகள	-11.755
மஞ்சள்	-11.7554
▁சான்றிதழ	-11.757
ுடனோ	-11.7587
▁சிவத்தலமாகும்	-11.7589
▁தன்னகத்தே	-11.7589
▁புதன்கிழமை	-11.7589
▁வாரணாசி	-11.7589
▁குத்தூசி	-11.7589
▁சதாசிவ	-11.7589
[...]
