<unk>	0
<s>	0
</s>	0
.	-2.99398
,	-3.68193
亇	-4.43168
▁	-4.66203
五	-4.91878
令	-4.94752
仠	-4.97828
亢	-5.10783
亖	-5.15601
伺	-5.16237
予亐	-5.32335
)	-5.38075
▁(	-5.40026
▁云互亇	-5.42814
亟	-5.44531
▁仈亭	-5.48465
▁亓	-5.57084
予	-5.67768
于	-5.72772
▁"	-5.73606
伧亖	-5.75052
"	-5.7845
▁价	-5.83267
仇	-5.83968
仡	-5.84252
▁价佛	-5.84825
了	-5.88268
仌亖	-5.90947
▁仦	-5.92135
亳	-5.93232
仜	-5.96325
些	-5.97236
亾	-5.98349
亃	-6.01694
▁予	-6.05218
亏亐	-6.06881
-	-6.07231
▁亅	-6.12695
伧五	-6.14864
▁亷	-6.17055
云	-6.18009
▁倧仱俔	-6.18396
▁价于	-6.19588
仉	-6.22676
会	-6.25059
仅	-6.26117
仱	-6.26955
▁仦仾	-6.29098
亝	-6.29905
亣	-6.30584
仄	-6.32229
▁二亼	-6.32499
亊	-6.32579
人	-6.32596
亭	-6.32725
伈	-6.33269
▁二	-6.33335
▁井	-6.33394
:	-6.335
仕亇	-6.33934
▁付	-6.34088
亜	-6.35026
▁仦亪亇	-6.35313
亙	-6.35511
▁井产	-6.37857
▁伇	-6.38102
仌五	-6.40851
仓	-6.41289
今	-6.4147
仮	-6.42175
亅	-6.42554
佘	-6.43386
▁仦亇	-6.4433
▁仉	-6.44925
伂	-6.46382
予亚	-6.46462
仯	-6.48709
事	-6.48962
伇	-6.4962
▁亃	-6.49752
佃	-6.50689
亷	-6.52292
亗	-6.53689
▁二亍于	-6.54
亥	-6.54108
亿亐	-6.54863
▁亂	-6.54984
亴	-6.55138
▁云	-6.55167
伧	-6.55763
佛	-6.57337
▁亅仄	-6.58202
予什亖	-6.58307
仡亇	-6.58811
▁仧	-6.59041
亱	-6.59057
亹	-6.59996
▁亓仹于	-6.60167
▁亞	-6.6042
▁亴	-6.60813
仮予	-6.61673
介	-6.62909
▁井产于	-6.64769
侫	-6.65447
▁价些伺	-6.66069
亻	-6.66245
交	-6.6786
▁今	-6.68294
仳	-6.68754
▁云了亐	-6.69538
▁二仿	-6.71133
亪	-6.7121
▁价亭伟	-6.71236
争	-6.71629
▁仮	-6.71987
仂	-6.75659
▁伲	-6.76052
仮仇	-6.76059
仌	-6.76062
▁价佇亟	-6.76847
▁仁	-6.77857
伟	-6.77954
伂亇	-6.79531
▁亽	-6.79598
仦亇	-6.79729
仅予	-6.80381
些伺	-6.80406
▁("	-6.81969
亘	-6.82193
▁亂亃亖	-6.82328
付	-6.82579
仆	-6.8306
亨	-6.83305
傱	-6.84933
▁二仇	-6.85936
伡	-6.85962
仏	-6.86877
▁价亭	-6.87045
亐	-6.88593
佶	-6.88766
仧	-6.89199
▁侍	-6.9057
什	-6.91845
亩	-6.92047
▁佖	-6.92404
份	-6.94636
▁亪	-6.94756
仉亖	-6.95654
▁二伖亇	-6.96853
仉五	-6.98385
▁伲亼	-6.98505
予什五	-6.98526
▁7	-6.99148
▁亻	-7.00252
▁仢	-7.00267
亏什亖	-7.0035
▁亩	-7.01338
▁侫	-7.02641
亏	-7.03576
仁	-7.03788
仇伺	-7.04307
亰亇	-7.04354
伮	-7.04618
▁亴仄	-7.04917
▁侍伧亖	-7.04953
仅仇	-7.06931
▁亮	-7.07153
▁些介	-7.07851
▁仵伎	-7.08247
▁亓亘伟产	-7.08272
伨	-7.08519
▁些	-7.08746
▁仢亰亇	-7.08973
s	-7.09754
▁仍	-7.12445
享	-7.12553
▁伕	-7.13395
亏亚	-7.14433
仺	-7.14454
▁任伿	-7.15039
▁亣	-7.15533
▁-	-7.16878
e	-7.16981
▁亓些伺	-7.17815
伄	-7.18132
▁18	-7.18332
▁价亖	-7.1843
互	-7.19104
亸	-7.19236
仒	-7.19544
些于	-7.21165
伡伺	-7.21385
仌侀	-7.25238
亾五	-7.25617
亂亇	-7.25647
伿	-7.26274
伵	-7.2665
▁仈	-7.28009
仛	-7.28186
▁仦仼亖	-7.28845
亹亗	-7.29393
;	-7.29912
▁佢	-7.30165
▁伃	-7.30619
▁交	-7.30666
▁任	-7.31065
亩予	-7.32258
▁亓亘伟产于	-7.32806
伆	-7.33919
佥	-7.34102
),	-7.34267
▁任仾	-7.34377
▁井产仇	-7.34569
▁住优	-7.34673
▁价俌伧亖	-7.34947
优	-7.35094
予伽亇	-7.35562
仞	-7.35944
▁云亼	-7.36053
仢	-7.36262
▁价亃五	-7.36465
伎	-7.36944
佦	-7.37085
亻仏于	-7.3743
▁仧亵伺	-7.37575
位	-7.38818
伅	-7.39087
众	-7.39136
作	-7.39708
倿	-7.39939
▁于	-7.40155
▁亜	-7.40451
▁亓佛	-7.41526
▁亣亭	-7.42076
亓	-7.42604
▁价亭仡亇	-7.43343
仯五	-7.43664
▁19	-7.43954
▁仐事	-7.44096
▁仦亻亟	-7.44232
▁仃仄亇	-7.44473
仼	-7.45069
使	-7.45437
▁价亳仾	-7.45577
仾	-7.45695
亭亇	-7.45857
亦	-7.46298
▁1	-7.46597
仕	-7.46848
侐	-7.46979
o	-7.47094
亂	-7.47342
▁2	-7.47454
侍	-7.47558
▁仮些亗亇	-7.47581
▁仵亪亣仡亇	-7.47776
亊五	-7.47828
▁仦伡亖	-7.48488
▁佰亭亇	-7.4877
仭	-7.48843
")	-7.49288
▁亅亪亣	-7.49531
▁亷仄	-7.50334
亚	-7.50534
▁侼	-7.50691
▁亃仇于	-7.50733
伉	-7.50909
▁伲于	-7.51343
▁亂亨亟	-7.51686
予伽仡	-7.52873
S	-7.531
▁仮些亗仌亖	-7.53104
▁侲	-7.53231
亾亟	-7.53374
亡	-7.53394
佉	-7.53529
▁亂亡	-7.53867
▁2011	-7.54239
侪	-7.54294
▁倧	-7.5459
▁佽	-7.55046
▁亓亃五	-7.55047
▁些仆侕	-7.55153
亹亗于	-7.5618
价	-7.56269
▁3	-7.56995
▁佭	-7.57455
▁佡	-7.58155
a	-7.58193
n	-7.58265
侘	-7.58319
▁亅亜	-7.58442
亰	-7.59981
▁份	-7.60735
仱予	-7.61429
亹人亇	-7.61569
产	-7.61592
仓亖	-7.61628
▁价伟	-7.61777
▁仐	-7.61854
▁些伎	-7.62061
y	-7.62131
伅伺	-7.63014
▁任仾产于	-7.63727
▁价亊	-7.64138
▁价亭佛	-7.6418
'	-7.64894
▁5	-7.652
▁亃交僴人	-7.66137
了亐	-7.66311
▁仦今伺	-7.66795
%	-7.67732
▁价佃	-7.67738
▁价俌伧仓亖	-7.67912
▁佂什	-7.6792
▁予亭	-7.68003
▁侈	-7.68068
亹亥	-7.68185
亻亼仇	-7.68188
▁佰	-7.68336
▁仫	-7.68435
▁住亝	-7.6944
▁于人伨亗令	-7.69621
▁修	-7.69987
亃亖	-7.69998
▁亓于	-7.70264
似	-7.70272
佇	-7.71574
▁仧仏	-7.72245
▁亮侻亐	-7.72273
伡亖	-7.72288
t	-7.72294
▁亅众	-7.72736
▁亮亾亟	-7.72938
▁二仿亇	-7.73184
亏什五	-7.73249
▁侈亴亟	-7.73385
▁亃交侃	-7.73443
▁仧亾	-7.73479
▁亓些亳于	-7.7412
▁佂	-7.74158
二	-7.74242
仟	-7.74311
C	-7.74383
▁4	-7.74492
伦	-7.74675
▁仈仿	-7.7481
▁亂亃佁	-7.75053
伥	-7.75101
▁京	-7.75244
al	-7.75373
i	-7.75832
A	-7.76189
(	-7.76394
仮亪亇	-7.77709
▁交予	-7.78007
▁仱	-7.78237
▁伎	-7.78375
仓五	-7.78612
亹人亻仏于	-7.78718
▁仸	-7.78879
▁6	-7.79158
▁伇亗云亼亢	-7.79168
便	-7.79214
伫	-7.79378
▁亓亳侫	-7.79675
▁份仾亇	-7.79788
▁交予伂亇	-7.79966
▁亅享	-7.80273
▁亓众	-7.8039
▁价佉	-7.80822
亨仏于	-7.80995
▁仵	-7.81048
▁仃仿	-7.81136
▁价伥	-7.81279
亽	-7.81297
▁井产仇伺	-7.8159
侸	-7.82023
亭仡	-7.82927
▁亞侶	-7.83322
亱亇	-7.8335
▁亞伤	-7.83469
俄	-7.83869
亵	-7.83926
▁佡伥	-7.84688
价亖	-7.84956
仅亪亇	-7.85376
伕	-7.85424
▁仵亪亣	-7.85924
▁予侚	-7.86229
些亿亐	-7.8635
▁亣介亹亊	-7.86615
▁10	-7.86634
偞	-7.86775
佬	-7.87119
P	-7.87442
仍	-7.87494
▁亓亣予	-7.87561
ar	-7.87767
亿什五	-7.878
▁亅争亟亖	-7.88743
仦	-7.88811
▁佞	-7.89603
▁侩	-7.89805
▁云仯亃	-7.89855
▁亓亜	-7.90011
▁亃交僴争亖	-7.90187
er	-7.90316
▁亮亭	-7.90592
▁云了仆佃亢	-7.90836
M	-7.90893
▁伱	-7.90935
亟亇	-7.90968
▁亓侲亾了	-7.90969
▁仧亳	-7.91451
▁二伐亇	-7.92124
an	-7.9216
▁亓佃	-7.92374
2	-7.92383
予亚仕亇	-7.92426
▁仦俔	-7.92595
u	-7.92718
俌	-7.92739
▁亮仒	-7.93196
▁倧亾亖	-7.93199
伊	-7.93244
▁2015	-7.9328
▁亃予些亖	-7.93307
▁佂伫	-7.93503
伵予	-7.93604
▁伏	-7.93717
▁仦侻亐	-7.93841
c	-7.94067
▁予仄伟	-7.94125
▁价亭佛于	-7.94181
仓亭伟	-7.94189
俔	-7.94233
▁予亊	-7.94913
佋亐	-7.94986
伵仇	-7.95052
伔	-7.95389
▁仐仄	-7.95391
亟于	-7.95455
侀	-7.95685
g	-7.96247
伧亰亇	-7.9632
/	-7.96487
▁伋	-7.96573
▁亃交僴争五	-7.96877
予亚仠	-7.96896
亩亖	-7.97378
▁佳	-7.97592
了亹亗	-7.97622
▁价些伫亖	-7.97656
亼	-7.97663
▁价亣亖	-7.97806
▁佃	-7.97848
▁17	-7.97942
▁佤	-7.98403
▁仃	-7.98625
▁'	-7.98651
亾亖	-7.98753
倀	-7.98795
亹亊	-7.98907
▁价倖	-7.99191
▁15	-7.99267
▁伕亣亟	-7.99279
▁仮亃亇	-7.99573
▁亅传仺	-8.00055
▁予亸偼人伮亍亜	-8.00277
▁住亝亇	-8.0038
予亶予	-8.00386
▁亓些	-8.00433
▁些优	-8.00552
▁亂亜	-8.00825
侈	-8.00861
▁12	-8.00966
▁亃仯	-8.01574
亏伽亇	-8.01713
▁京于	-8.01876
▁京于今予	-8.01943
▁仫们	-8.0195
▁仦仺	-8.01999
▁仐仺些仇	-8.02146
▁亓亘	-8.02202
俟	-8.02205
亞	-8.02388
侖	-8.02437
▁云事	-8.02528
▁亮亟伺	-8.02675
倖	-8.02735
",	-8.02785
▁亳	-8.02995
侜	-8.03254
些亃侀	-8.03306
亟亖	-8.03333
▁予亥伨争亖	-8.03475
k	-8.03639
▁8	-8.03819
▁亅亣	-8.03863
▁仝	-8.03896
仙	-8.04581
仱仇	-8.04623
▁仍予亳	-8.04739
仿	-8.05139
▁仫们于	-8.05271
3	-8.0529
亏伽仡	-8.05687
▁些佛	-8.05833
▁亓亘亙	-8.05848
以	-8.05866
倐	-8.05951
▁16	-8.06345
佝	-8.06384
亟伺	-8.06404
▁价些亿什亖	-8.06437
▁侍伧亱亪亇	-8.06445
p	-8.0646
▁付亊	-8.06508
伀	-8.06571
"),	-8.06653
了亇	-8.06696
▁亃亳	-8.06761
亹亥产于	-8.06908
▁佧	-8.07054
▁偓	-8.07734
▁仨仩仪仜	-8.07819
亾仅	-8.08055
余亜亟	-8.08286
予亇	-8.08316
伲	-8.08563
▁S	-8.0871
亂亡	-8.08916
r	-8.09133
▁俍	-8.09224
▁井仄予	-8.09383
▁些伎伨争亖	-8.09754
亹人亻亼仇	-8.09759
▁于亡伧五	-8.0998
▁仐們亻了亹人亻仏于	-8.10001
亳亇	-8.10066
d	-8.10829
会仡	-8.10985
▁亓仆伂	-8.11049
am	-8.11238
▁亓亳伇	-8.11268
伴	-8.11318
侰	-8.11589
佂	-8.11634
▁价些亳于	-8.11686
▁亃五	-8.11719
伈仠	-8.11732
▁亓仏仐事亟会亡伧	-8.11902
▁亓仿	-8.11957
▁仈什	-8.12252
▁仮仐仄	-8.12319
▁侼伺	-8.12339
▁仈亭亷仄	-8.12395
俧	-8.1246
▁仧仏亪	-8.12943
亶	-8.13042
▁侬	-8.13254
▁井仺伮仇亿亚	-8.1371
俽	-8.13759
▁亅侏	-8.13823
▁9	-8.13978
▁亓些亿亐	-8.14028
▁俸	-8.14082
▁侬侃	-8.14083
▁俖	-8.14146
▁亣亭俌伧亖	-8.14162
伐	-8.14439
▁侈俕	-8.14562
▁亅亊	-8.14732
▁价仄偢	-8.15119
▁仵亊	-8.15138
仅仇于	-8.15327
仐事	-8.15393
or	-8.15408
▁仦倌	-8.15514
亰仡	-8.15709
今予	-8.15972
▁亓予	-8.15993
▁些亭	-8.16122
仯亟	-8.16165
▁仵亊侑	-8.16229
▁侬僑伿	-8.16237
亮	-8.16245
▁亅亪亣伧亖	-8.16272
▁云亳	-8.16575
▁倧亳予	-8.16594
▁伇亗	-8.16641
▁亻仱云	-8.16713
仹	-8.16868
▁些仆	-8.16932
D	-8.16965
▁云亭会些	-8.17091
了亹亗于	-8.1744
▁C	-8.17525
▁伇仃予	-8.17848
▁亮亟	-8.17941
仌亳	-8.17978
▁亪亡	-8.18328
▁亪伄	-8.18683
O	-8.18732
仌亟	-8.18787
▁仵亪了亹亥产于	-8.18959
▁亷亳亸仮予	-8.18971
侲	-8.19372
E	-8.19374
I	-8.19506
仕亊五	-8.19508
▁Gram	-8.19578
▁侈僧人亨亼仇伺	-8.19615
m	-8.19772
l	-8.19777
▁Panchayat	-8.1986
▁亴副亿什	-8.19884
▁价仇	-8.19937
▁价佇仅仉五	-8.20059
傊	-8.20087
▁亃亳仉亍亜	-8.20131
▁倧仱俔伧亖	-8.20304
00	-8.20605
▁云仒	-8.2081
▁亷仄仌亖	-8.20883
促	-8.21025
▁仵亪亣予亚	-8.21227
▁价佇仅	-8.21254
▁予事	-8.2146
▁仈伭亭	-8.21638
仅亖	-8.21692
▁仸仺	-8.21974
伧仓亭伟	-8.22044
佚	-8.22086
▁于倖	-8.22135
伓亗亩亪亇	-8.22289
▁些作亳仌亖	-8.22353
▁亃事	-8.23296
b	-8.23321
1	-8.23365
▁亩五	-8.23383
仌亰亇	-8.23499
亪亇	-8.23563
▁井仙仌	-8.23571
▁亪仛	-8.23579
▁亽倈	-8.23868
▁亓仂会	-8.24086
▁亴仺	-8.24141
▁仉亊	-8.2484
▁亅亳侐介	-8.24847
▁二人会	-8.25094
▁些亊	-8.25142
▁仍亊亨亼于	-8.25198
T	-8.25208
▁予亦	-8.25391
▁仐仏	-8.25791
▁側	-8.25881
in	-8.25929
値	-8.2595
4	-8.26289
伈令	-8.26604
▁伃于	-8.26663
佮	-8.26758
▁仧五	-8.26819
▁伲争	-8.2683
▁11	-8.26991
▁亅伫	-8.27063
N	-8.27223
▁亓亭	-8.27273
▁云亥仢	-8.27501
▁亞偮	-8.27615
伃	-8.27712
▁20	-8.27779
▁A	-8.28067
佽	-8.28289
亿亚	-8.28352
▁伇云	-8.28626
▁侺	-8.28719
▁亴仏佛	-8.28813
們	-8.28818
▁亅佼亍亩亇	-8.29047
亻亼于	-8.29586
亹人	-8.29643
▁些亳	-8.29705
▁14	-8.29854
亯	-8.29903
▁亓伔亃	-8.29937
亝亖	-8.3019
▁二仳	-8.30208
▁P	-8.30273
伐亇	-8.30442
R	-8.31117
俸	-8.31179
▁井亊	-8.3118
▁二亍亦	-8.31309
亝于	-8.31319
▁价亟了	-8.31575
側	-8.31584
仮仇于	-8.31816
仄亇	-8.31828
仇于	-8.31983
B	-8.32013
▁信	-8.32158
▁亪仞倾	-8.32182
▁M	-8.32245
们	-8.32754
▁侈佃	-8.32863
h	-8.32894
仉佴	-8.3293
伝	-8.32964
亊亇	-8.33146
▁予俔	-8.33159
▁仁们	-8.3325
▁价亃伡亖	-8.33774
▁13	-8.33936
偓	-8.34094
些亳	-8.34257
▁亽亐	-8.34514
▁云仺	-8.34644
▁仅	-8.34769
偃	-8.34851
享亟	-8.34921
▁仃仄	-8.35153
▁亴伄亟	-8.35189
▁些亜些	-8.35504
▁亅亗	-8.35543
▁仫佃	-8.35653
亍	-8.35923
▁予亗	-8.36192
]]	-8.36265
▁份事	-8.36265
▁偫	-8.36428
▁伃仾亇	-8.36772
些五	-8.37006
仅伺	-8.37067
▁价仄亨亟	-8.37299
仐	-8.37323
en	-8.37359
▁仉仂	-8.37398
H	-8.37418
▁亮仩伺	-8.37451
债	-8.37718
亹于	-8.37784
▁仉亭于	-8.37851
▁价亭伮伐亇	-8.37903
▁亓亣	-8.38167
仌仓亭伟	-8.38205
▁佤亳	-8.38515
on	-8.38784
▁佂什些佛	-8.38797
予亚令	-8.38845
▁亓伪	-8.38914
▁亅伫亟	-8.39036
仯亖	-8.39076
▁亞亟	-8.39247
▁仢侀	-8.39326
▁亃倾	-8.39409
▁亓享	-8.3943
▁价亦	-8.39525
▁佭亨亟	-8.39625
▁亴些	-8.39765
伅亖	-8.40065
▁仮仒	-8.40071
井	-8.40104
伐仡	-8.40275
▁亅佉	-8.404
▁仈侘	-8.40423
▁亱	-8.40496
亩亪亇	-8.40523
▁儝	-8.4061
佝伺	-8.40644
估亐	-8.40771
伊伆	-8.40836
亹亜	-8.40837
▁亓亘伨亖	-8.40933
▁京亭	-8.4096
俬	-8.40961
兹	-8.41136
伈仕亇	-8.4114
▁些众予	-8.41181
係	-8.41558
亩予伂亇	-8.41753
仇亇	-8.41983
仉亊	-8.42056
▁些亭亇	-8.42308
▁亓仏似些仄伺	-8.42423
▁仮些亗	-8.42436
▁佂亹	-8.42566
▁亽人	-8.42972
▁井亃仉	-8.43025
▁伲争予什亖	-8.43059
佐	-8.43161
▁井亭今了	-8.43198
,000	-8.43229
仉亟	-8.4341
▁亅亟亍人亝	-8.43482
▁亻仞仡	-8.43751
仉亟亖	-8.43853
▁云亷	-8.43892
▁[[	-8.43939
俜	-8.44039
▁予仄	-8.44262
▁亣亗	-8.44274
倫	-8.44309
伮亖	-8.44336
20	-8.44465
亟五	-8.44522
伇五	-8.44639
▁仨	-8.44699
了亚	-8.448
ur	-8.44997
▁仧仏亙	-8.45039
▁仸亜亟	-8.45089
▁云众	-8.45117
佰	-8.45163
▁于亡	-8.45335
▁井亭	-8.45345
佘仕亇	-8.45382
▁仍享亮仺亻仏于	-8.45697
▁价佴	-8.45889
▁B	-8.45891
会亊五	-8.45926
▁亷亸	-8.45967
▁亴仏亙	-8.46022
些亭亇	-8.46125
傒	-8.46166
▁亓侈	-8.4632
▁云仇	-8.46322
▁二亣	-8.46367
▁井亸	-8.46416
▁仈仓	-8.46446
▁亞佩	-8.46452
仱亖	-8.46721
▁伇亏	-8.4712
▁二亍些伺	-8.4714
▁亓佉	-8.47141
▁仮亃	-8.47341
▁亅亟亍人仌	-8.47471
伽	-8.47669
仫	-8.47679
re	-8.47736
仓亟	-8.47749
▁亞伾	-8.47925
▁亂仛	-8.47968
F	-8.48477
▁伕仏	-8.48592
f	-8.48598
▁价亃仂	-8.48665
▁仍予	-8.48916
伕亳亇	-8.49002
▁亪亜	-8.49166
▁亘亟	-8.49325
侃	-8.49351
▁价亳倐亇	-8.49374
亹人亝	-8.49392
▁位	-8.49438
▁份仺	-8.4947
予什亰亇	-8.49588
偛	-8.49784
些介	-8.49963
佘仠	-8.4998
▁云仌亟	-8.50189
卢	-8.50191
了亹亥	-8.50211
▁亮互	-8.50217
亲	-8.50551
▁亃代于	-8.50772
倨	-8.50916
▁井亸伂	-8.50941
产于	-8.51016
▁侳	-8.51438
5	-8.51672
亴亟	-8.51715
▁予亭会	-8.51773
▁予僂亾	-8.51888
▁仦亻亟佃	-8.5189
▁保	-8.52036
L	-8.52067
倰	-8.52087
円	-8.52516
俞	-8.52619
做	-8.52654
▁亷亸亹人亇	-8.52667
偁	-8.52761
ic	-8.52897
▁伇云亟	-8.52937
0	-8.53065
伬于	-8.53238
侏	-8.53424
人亇	-8.5344
▁亓伄仉亟亖	-8.53464
▁京亭亐	-8.53531
▁佔	-8.53689
▁仐予僭	-8.54261
▁亪亭	-8.54385
▁井亾亘	-8.54441
▁亓优	-8.54452
佷	-8.54624
▁of	-8.54644
伵仄	-8.54789
▁价仄	-8.54897
▁亂亜仕亇	-8.55157
ri	-8.55225
▁偃	-8.55311
仉侀	-8.55361
任	-8.55433
▁任产	-8.5545
▁仧亾伂	-8.56189
佋亚	-8.56211
▁二佴	-8.56323
▁亂亜伂	-8.56376
▁亃仆	-8.56406
亿伽仡	-8.56412
▁井伧	-8.56431
▁仓	-8.56573
▁亓仆仉亖	-8.56616
▁亻俄	-8.56654
▁亓亦	-8.5673
亻佬伺	-8.56737
僜	-8.56781
侂	-8.56849
▁予介	-8.56874
俎	-8.56962
▁价倖伟	-8.57018
佋	-8.5751
▁亓健亅伺	-8.5756
▁仉亚仅亥	-8.57674
▁价亳	-8.5776
予什	-8.57827
▁二仛	-8.57884
予亶亖	-8.58081
▁云亡	-8.58223
x	-8.58379
▁仄	-8.59033
▁仐事伧亖	-8.59046
佈	-8.59218
▁伲仄	-8.59373
▁亮仏	-8.59401
▁亮亭亇	-8.59437
▁任伿于	-8.59495
▁亮亭亯亰亇	-8.59584
伞	-8.59618
▁仵优	-8.59631
▁佭伟	-8.5974
▁价亟侽	-8.60077
▁傱	-8.60216
争亖	-8.60282
倇	-8.60352
亜亟	-8.60406
▁侫仮伺	-8.60467
亹争	-8.60476
▁价亭亨仏于	-8.60587
▁亓亳	-8.60688
仁交	-8.60718
亹人亻亼于	-8.60805
▁仝亾亟	-8.60825
▁仈佚亪亇	-8.60851
▁亓亜亹享伧亖	-8.60928
▁亽亥	-8.61022
▁亪伄伮亗	-8.61028
亻亼仇伺	-8.61162
▁亓俤五	-8.61241
▁亂亃俶亳	-8.61259
es	-8.61269
▁二個伴	-8.61343
▁亽争五	-8.61644
▁亞仿	-8.61693
▁仐仺些仇亇	-8.61722
伂仡	-8.61807
▁亅了	-8.6184
▁二佛	-8.61864
▁亂亃仓亖	-8.61889
伓	-8.62041
佤	-8.62166
▁价亃侀	-8.62231
儀	-8.62278
亿伽亇	-8.62508
▁亓亳亴亟亖	-8.62781
▁二仇份	-8.63006
▁仉亣	-8.63029
▁二亇	-8.63136
伲于	-8.63279
_	-8.63435
▁井仾	-8.63496
侣	-8.63524
6	-8.63609
▁亪人侐	-8.6361
▁仐事亟	-8.63617
ch	-8.63634
▁亊	-8.63696
as	-8.63739
亏亚仕亇	-8.63746
▁亂亟侇	-8.63834
▁仍些侐伺	-8.63907
▁仧亳侈伇	-8.64171
亃亇	-8.64281
▁伏亨	-8.64307
些伫	-8.64455
仸	-8.6466
会些	-8.64788
些亦	-8.64927
▁亷亳亸	-8.64943
▁亅亳	-8.64948
亏亶予	-8.64977
亃亳	-8.6508
▁仦予	-8.65317
修	-8.65351
▁二仇亹人亇	-8.65477
▁仵亊伛	-8.65901
▁30	-8.65996
at	-8.66113
▁亅亃仉	-8.66202
▁剏	-8.66255
亏什亰亇	-8.663
佴	-8.66311
佇亳	-8.66313
亨亼仇	-8.66357
▁佢伺	-8.66361
▁倬	-8.66363
▁亷俔	-8.66455
亭仡亇	-8.66466
▁任人	-8.66487
仩	-8.66521
▁价佇仅仉亖	-8.66629
▁仐予	-8.66818
▁卡	-8.66855
▁25	-8.66921
佘令	-8.66926
▁仭	-8.6693
会亡	-8.6693
▁仍亊佛	-8.6693
▁佃会	-8.67042
▁亓亃侀	-8.67174
▁二仛会	-8.67203
亿什亖	-8.67261
▁价亊亇	-8.67383
伡予	-8.6762
K	-8.67737
▁伇佇	-8.68021
亂予	-8.68251
▁仦仾予什亖	-8.68417
仡令	-8.68492
仝	-8.68519
▁亓众伧五	-8.6866
予亳	-8.68894
▁)	-8.68979
▁云伿仄	-8.69148
仌亭	-8.69267
仯仅	-8.69311
▁仦伺	-8.69419
▁仍人	-8.69443
佛于	-8.69479
侻	-8.69582
▁亓什	-8.69617
▁云亸	-8.69717
▁仍亊些亜伴	-8.69829
▁些伟	-8.69832
▁任僰	-8.69854
伈亢	-8.69917
le	-8.70078
傈	-8.70197
個	-8.70319
▁二仯伐亇	-8.70334
依	-8.70396
▁I	-8.7044
刻	-8.70468
▁侰	-8.70586
▁价亭佝伺	-8.70653
▁亂予	-8.70697
予伽亊五	-8.70845
▁他	-8.70857
▁价亃	-8.70862
▁亪仺	-8.70866
▁亪伄伮亊	-8.70913
is	-8.70966
ing	-8.70993
佺	-8.71034
|	-8.71056
▁D	-8.71091
▁云于介	-8.71279
仆亇	-8.71281
予伺	-8.71295
▁亽亊予	-8.71349
亱予	-8.71382
▁今儘	-8.71405
▁亓伄亟	-8.71452
▁云亃	-8.7152
▁二伔	-8.71551
▁仕	-8.71604
▁井仺亣	-8.71716
▁偠	-8.71782
▁价倕	-8.71831
▁些亭亻仏于	-8.71858
▁仸亊	-8.71869
▁仉仮仇	-8.71896
伮五	-8.72027
▁亂亡伧亖	-8.72052
亏亚仠	-8.72128
▁亮仒于	-8.72158
▁价仱	-8.72209
)"	-8.72237
▁亅债亥	-8.7226
▁仢亖	-8.72268
▁亩些亳	-8.72268
▁亓亣亖	-8.72361
亱仇	-8.72521
亹亥产仇	-8.72527
▁价仺亣	-8.72692
▁亃仅亾	-8.72693
▁亷仄亇	-8.72931
▁H	-8.72949
ol	-8.73142
us	-8.73194
▁伕仯亃	-8.73279
▁亪亡佛	-8.73386
争五	-8.73485
佁	-8.73509
▁亅仞	-8.73686
伪	-8.73802
▁仨亖	-8.74119
▁亅亾	-8.74152
▁亣仏	-8.74167
俤	-8.74187
▁伃亗伺	-8.74217
▁仵优伙伓	-8.74223
什五	-8.74254
▁亃佁	-8.74316
▁付于亷亙	-8.7432
G	-8.74488
▁伇于亳	-8.74494
亰产	-8.75013
▁亴亻偿	-8.75056
▁价佛令	-8.75095
▁仐倹予	-8.75138
▁伕侏	-8.75195
俥伺	-8.75231
▁2008	-8.75239
伧仇	-8.75351
▁仉人	-8.75423
▁予伿	-8.7552
▁亓人亝	-8.75614
▁仦伉仄	-8.7568
▁N	-8.75781
▁亂亃	-8.75806
▁伲争伧亖	-8.75884
▁二五	-8.76095
▁亪伄伨予	-8.76107
亻亟	-8.76112
▁仐侰	-8.76114
▁二仇伂亇	-8.76168
仆伂	-8.76245
▁予亥	-8.76456
亿	-8.767
▁价些	-8.76748
偳	-8.76823
估	-8.76919
亹亪亣	-8.76923
▁亓亜亹享	-8.76944
僣	-8.76971
8	-8.76983
▁些优仅予	-8.7702
侢	-8.77126
倾	-8.776
些亩予	-8.77603
倱	-8.77621
▁价亳倐些于	-8.77646
▁仦仱俵	-8.77766
云事	-8.77864
▁亞仹	-8.77868
▁仧仱	-8.77882
ed	-8.7789
▁亣亭仉做今予	-8.78143
▁亮値	-8.78371
▁亞儼侐伺	-8.78545
▁"(	-8.78648
▁仐亣	-8.78689
▁仍享亂亡	-8.78749
仅仆	-8.78905
▁仧亾伅仯亟	-8.7899
倻	-8.79088
仅予伂亇	-8.79218
▁价伉亱伟	-8.79244
▁些伎伧亖	-8.79263
▁亮亭亯亱仇	-8.79266
▁仐事亟亇	-8.79365
亄	-8.79415
▁俲	-8.79436
▁亓伄仉	-8.79436
価	-8.79594
▁云予	-8.79661
▁侭	-8.7978
▁亅亪亣予什亖	-8.79876
亃五	-8.79967
▁俸仞	-8.80051
▁京亭亶亩亳	-8.80207
▁二仛亣亟	-8.80229
▁亅亟	-8.8026
▁仮亷亸	-8.80355
10	-8.80408
侕	-8.80467
▁仃仄仮予	-8.80476
▁价享	-8.80516
▁亞俀亇	-8.8068
▁亃事亘	-8.80699
▁伇亗云亼	-8.80767
你	-8.80788
▁亂亨亟仮仇	-8.80814
侩	-8.80826
▁僵	-8.80827
了亹人亇	-8.80907
亿亶亖	-8.8106
偢	-8.81226
▁佖仙人亇	-8.81272
▁(19	-8.81523
▁亷亥	-8.81533
▁亽人予什亖	-8.81537
un	-8.81695
亷仄	-8.8172
▁亾	-8.81843
▁于人伨亗	-8.81928
些伎	-8.81944
▁任仾俥伺	-8.81988
伸	-8.82003
▁亅伧侇	-8.82054
▁云亥亇	-8.82146
▁付于亷	-8.82187
侑	-8.82424
倹	-8.82488
▁仉人亃事	-8.82499
▁些亊仡	-8.82549
▁仍亊	-8.8272
▁仦亻亟些仔	-8.82727
▁价亭了	-8.82779
佳	-8.82835
▁价仏	-8.82878
亅亣	-8.82925
亝佁	-8.82998
伈仜	-8.83118
▁仧仏佛	-8.83139
▁仵事伵俔	-8.8315
el	-8.83238
▁伲亼佃	-8.83345
▁价亊仌亖	-8.83354
佘仜	-8.83398
佭	-8.83549
▁仦亻佦伺	-8.8356
亗亇	-8.83579
▁亞佺亇	-8.83581
▁予亭仉	-8.83704
佔	-8.83731
▁仉做	-8.83864
佡	-8.83877
V	-8.83927
▁T	-8.8395
仚	-8.83957
▁些仞亏	-8.83964
▁仉仆了	-8.84189
▁仍予亳亇	-8.84278
▁亮仺	-8.84332
▁亷亸亹人亻仏于	-8.84369
傠	-8.84436
▁云亵	-8.84439
▁付仄	-8.84462
▁亅亭些	-8.84472
7	-8.84519
亭亊五	-8.84527
亹人仌	-8.8472
▁些亗	-8.84767
亶予	-8.84785
th	-8.84915
▁予亊亖	-8.84965
偈	-8.85049
伱	-8.85101
▁伕于	-8.85285
仮予伂亇	-8.85344
▁井亟	-8.85355
些仱予	-8.85457
▁R	-8.85656
▁L	-8.85673
侦	-8.85746
▁些亳亱互	-8.85796
俆	-8.85825
▁佖偷亖	-8.85841
▁于人伨亗伵亳伺	-8.86088
z	-8.86137
▁交偞亟五	-8.86138
亹享	-8.86239
▁仧仏佝伺	-8.86275
]	-8.86405
▁予争亊	-8.86435
仪	-8.86516
▁仦仼五	-8.86579
亨佬伺	-8.86683
▁亘	-8.86728
了亹人亻仏于	-8.8678
伧亭	-8.86893
來	-8.86923
il	-8.86944
▁伕仄	-8.87023
亝仇伺	-8.87062
伽仡	-8.87124
佢	-8.87165
伽亇	-8.87171
▁仮伄	-8.87179
▁仨仩仾	-8.87214
儣	-8.87227
▁0	-8.87378
于亇	-8.87402
▁G	-8.8742
▁亃交兕	-8.87422
佅	-8.87596
▁井仺伮仇仱予	-8.87746
▁仍享亮仒	-8.87792
▁些伇亣	-8.87794
ra	-8.88023
亹亃侀	-8.88182
▁予亭亃	-8.88286
亅亜	-8.88345
亟俤五	-8.88404
▁侍佥	-8.88443
亃侀	-8.88745
▁伕亝予	-8.88788
刷伺	-8.88808
▁价享伆	-8.88955
▁二仇仠	-8.89037
▁21	-8.89048
伨予	-8.89147
19	-8.89157
仕产	-8.89334
俻	-8.8938
▁亅以亟	-8.89454
凖	-8.89664
▁仈亭些伺	-8.89714
▁亣予亣	-8.89738
▁些佛于	-8.89868
俕	-8.89878
▁亅亟亍人会	-8.89881
▁伲伺	-8.89906
▁2009	-8.89917
▁仵亊了	-8.9009
今仇	-8.90157
▁仦亗	-8.90249
▁仨仩仼亖	-8.90362
▁价倖亟	-8.90383
▁仸亗	-8.90388
▁亓伄	-8.90578
▁仉亥	-8.90605
佑	-8.90633
亨亟	-8.90639
ul	-8.9066
▁24	-8.90712
it	-8.90718
亹人会	-8.90777
▁亓伄亂予	-8.90974
▁亅伧	-8.91023
伳	-8.91065
作伺	-8.91089
▁亓伐云亣	-8.91095
▁亓亣予仮予	-8.91312
▁伇儋	-8.91394
▁伕仉	-8.91451
▁伇偠	-8.91465
▁亞伤亹亗	-8.91466
▁亷亸亹人亻亼仇	-8.91692
▁付亣	-8.91973
僛	-8.91981
▁享	-8.92039
▁亞倰	-8.92062
▁侍仉	-8.9211
▁2010	-8.92325
▁亃亏亐	-8.92587
亸亇	-8.92663
伧亟亖	-8.92716
▁F	-8.92721
▁亃亭	-8.92743
▁亃交仞予	-8.92844
▁亣介亹亊亇	-8.92853
▁亓亭亻亖	-8.92856
▁典	-8.92902
▁井亟伺	-8.92929
▁予亸	-8.93111
▁佰伺	-8.93182
亹亗仇	-8.93317
▁侈些	-8.93353
▁亓些亭享亟	-8.93377
些亭	-8.93411
et	-8.93447
▁些仞伉	-8.93457
▁伲争予什亰亇	-8.93555
▁修伂	-8.93608
▁22	-8.93769
▁亓亊	-8.93828
▁些亭亊	-8.93991
▁亃交	-8.94065
▁亓云	-8.94166
▁亅亣伂	-8.94192
▁仵亊伉	-8.94257
▁侫伫	-8.94276
▁价亟	-8.94341
▁2007	-8.94397
ro	-8.94465
▁=	-8.94495
佖	-8.94608
▁亃云于	-8.94609
▁二仛亣	-8.94639
▁些仞仡	-8.94655
亩五	-8.94763
▁亞亼	-8.94789
▁亩了	-8.94798
▁住	-8.949
亊亖	-8.9499
▁二値	-8.9505
▁二亾	-8.95075
▁予众仯	-8.95128
▁价亡	-8.95236
亃佱予	-8.95358
▁E	-8.95439
▁价五	-8.9548
▁亂亡亹亜	-8.95491
▁予争	-8.95562
▁亮亟亾亖	-8.95758
▁俖亳	-8.95784
▁亂五	-8.95852
仃	-8.96021
伵亳	-8.96107
▁亓交仄	-8.96161
傅	-8.96227
▁井介	-8.96287
▁亣伥	-8.96316
亹伺	-8.96364
倬	-8.96381
ad	-8.96526
儝	-8.96664
▁侈亣	-8.96679
▁亓些亭仡	-8.96713
▁亓侲亾伵	-8.96795
▁亃享	-8.96923
50	-8.97064
偋	-8.97303
▁亂仂	-8.97441
▁佐	-8.97458
▁侫互	-8.97496
▁仁事	-8.97549
▁仫侑	-8.97575
▁二佛刞亭	-8.97675
仮仺	-8.9771
▁亻仱	-8.97989
佋什亖	-8.98137
▁亴亵	-8.9833
▁亓以	-8.98396
st	-8.98411
仱亟	-8.98413
了亱亇	-8.98435
▁仫俞	-8.9845
▁亪伄仡亇	-8.98604
▁予仇	-8.98643
▁亞偄伺	-8.98652
▁些亾伥	-8.98734
▁伏倿	-8.98748
▁亪伄会	-8.9883
▁亮亭仮亐	-8.98916
偼	-8.9904
▁仐予俱	-8.99052
▁伥	-8.99195
傫	-8.99248
▁仍予亾亖	-8.99308
俍	-8.99379
信	-8.99381
▁侩仇	-8.99469
▁2006	-8.99532
云亖	-8.99543
▁价些亿亐	-8.99632
▁井享亟	-8.99786
▁佖亾	-8.99797
亣亖	-8.99811
▁佳侀	-8.99901
伂亊五	-8.99933
▁云亣亙	-8.99972
亻佬亿亐	-8.99978
▁仧冃	-9.00057
▁些亾	-9.00123
▁伏了	-9.00198
▁价些亭仡	-9.00204
▁亓些介	-9.00245
▁井亊亖	-9.00285
▁仈佚予	-9.00346
om	-9.00362
▁亓亩些于	-9.00573
▁亓亘佛	-9.00604
▁亃事些	-9.00709
▁佖仙亗	-9.00754
▁些亜	-9.00781
▁予亭亃亹人亻仏于	-9.00788
▁仵优亖	-9.00836
▁仸仏	-9.00875
▁亂仛些于亇	-9.0098
▁仵事仉亖	-9.01011
▁云仂仉	-9.01036
▁俸亃仂	-9.01102
▁仮仐仄仌亖	-9.0116
亹作伺	-9.01206
▁仍仹	-9.01324
▁23	-9.01532
▁伇仱伇亾	-9.01579
▁价佻仺	-9.02046
▁仮仺	-9.02231
▁井侏亗	-9.024
▁云亭	-9.02436
▁价亊亏什亖	-9.02456
▁二亍些	-9.0256
伖	-9.02626
侾	-9.0263
▁伲争伧亰亇	-9.0268
▁付亊亖	-9.02731
▁亓以了亹人亻仏于	-9.02742
▁云了什五	-9.02825
▁价仱伪些	-9.02874
仱云	-9.02988
▁formula	-9.03086
▁予亣	-9.03132
▁些亳亱仺	-9.03252
僫	-9.03449
▁予享亴仅予	-9.03566
▁侼仉亟	-9.03664
▁井仄亻五	-9.03713
▁亓事	-9.03902
倛	-9.04034
▁亃仉亳	-9.04127
▁伇倾	-9.04152
些亣	-9.04953
▁[	-9.0496
俥	-9.05027
▁予众	-9.05037
▁仅儤亸	-9.05081
僾	-9.05136
▁些伉	-9.05171
▁佳亾仉	-9.05187
▁仮亸些	-9.05233
▁佭仭伮亟	-9.05246
▁仉亭	-9.05258
▁亻亾	-9.05272
▁些亟于	-9.05279
俩	-9.0529
云五	-9.05373
▁亓亳仁亏	-9.05398
余	-9.05403
▁亓亣亷亳	-9.05405
▁仍亜	-9.05411
▁佢伿	-9.05436
侀亇	-9.05682
▁价佛仠	-9.05711
予五	-9.05744
▁予众亃	-9.05758
ir	-9.05863
仴	-9.05991
傘	-9.06006
了什五	-9.0623
仕产于	-9.06236
云众	-9.06392
仑	-9.06565
▁些亜些亘	-9.06609
▁亓俽于	-9.06611
▁仫偋	-9.06658
▁仢仙亗	-9.06804
▁亅亟亍人亝亹人亻仏于	-9.06994
▁侍仉亖	-9.07085
▁亃仄	-9.07113
今伺	-9.07192
▁仦仾予亐	-9.07243
亃佱仇	-9.07261
▁二亣仱予	-9.07339
亴仅	-9.07348
冫亳伺	-9.07502
▁亓亃仂	-9.07533
会仠	-9.07627
▁价仆	-9.07982
停	-9.08016
仄予	-9.08126
仵	-9.08139
▁伲仱亗	-9.08251
倘	-9.08311
▁仮亣亾	-9.08319
▁the	-9.08405
▁仦亜	-9.08416
▁亓些伫五	-9.08448
▁佳五	-9.08506
▁亃事些伺	-9.08514
▁仍俟伴	-9.0857
▁云傞亭	-9.08614
予伽仡亇	-9.0863
偞亟	-9.08667
▁仮互	-9.08729
仮予仠	-9.0874
券	-9.089
▁儣	-9.08941
▁亅佉任倐伺	-9.09215
争亟	-9.09296
▁仮仐仄仌五	-9.09335
▁云仄	-9.09385
▁伋佛	-9.09411
▁伇亾	-9.09636
仡亐	-9.09761
▁偽	-9.09863
ation	-9.0996
la	-9.10141
亻亼	-9.1015
▁仉事	-9.10154
▁仮偪	-9.10299
偗	-9.10341
▁亞俙	-9.10559
▁仵亪亙	-9.10604
倉	-9.10661
▁免	-9.10664
▁二亍	-9.10717
▁亃亏	-9.1074
产仇	-9.10753
侳	-9.10775
▁仮伫	-9.10816
了什亖	-9.10828
▁亅佋事了仞予	-9.10852
▁亪什	-9.10853
▁亣亭云亸亇	-9.10999
▁亓亾	-9.11072
▁仱側	-9.11096
佘亢	-9.11133
▁井享	-9.11189
▁井亭些	-9.11429
▁K	-9.11514
▁亓仆	-9.11577
w	-9.11639
▁亻亚	-9.11673
▁些仞佉	-9.11684
▁仈亹佛	-9.11687
▁修仉亳	-9.11954
▁付侂亹亗	-9.1198
了亖	-9.11998
▁今債	-9.12071
▁价仄偢伧五	-9.12075
▁仐亳	-9.12077
倵	-9.12129
▁予仉亦	-9.1225
人予亐	-9.1229
▁亽位伽云亼	-9.12306
▁价仏亙	-9.12485
▁亪伄亝	-9.12561
僤	-9.12587
侚	-9.12597
▁亽人予亐	-9.12606
亩仇	-9.12658
今亃	-9.12711
▁仦仾予伽仡	-9.12857
▁价佲	-9.12907
▁亓亳亴五	-9.13018
▁仉亚	-9.1309
▁傃	-9.13102
亏亚令	-9.13121
▁偁	-9.13122
▁仸伄	-9.13173
▁价了	-9.13173
仌仂	-9.13199
伧仂	-9.13248
▁亪仒	-9.13295
▁亅亗亇	-9.13352
▁2001	-9.13374
亹侏	-9.13398
▁50	-9.13437
▁仵事	-9.13543
些亩亖	-9.13725
亹人些于	-9.13804
▁价亳亝	-9.13907
▁亂债亐	-9.13919
▁亅亟众	-9.1392
▁偁仧	-9.14105
▁亓伄伂	-9.14108
▁亣亭仉做	-9.14215
▁二仛亃	-9.14314
侰伺	-9.14501
▁价侫	-9.14673
亳亸	-9.14731
京	-9.14876
▁倱	-9.14944
▁份予	-9.15021
▁亅亸	-9.15031
仩伺	-9.15185
▁仉亚仅亥佤亳	-9.152
12	-9.15235
▁2014	-9.15486
▁仦亳侐	-9.1549
▁仧亜	-9.15553
▁亣介亹亊仮亪亇	-9.15556
▁云亭伟	-9.15677
▁仉仙仂	-9.15772
▁仉亅亳仡伄亙	-9.15925
▁仉亾	-9.16031
▁26	-9.1612
今五	-9.16156
▁1,	-9.16312
些亿伽仡	-9.16403
仔	-9.16436
▁仦仒亖	-9.16448
▁佰亳	-9.16516
亍亜	-9.16556
位予	-9.16606
11	-9.1665
▁井仄	-9.16672
凇	-9.16695
▁住优伧亖	-9.16706
▁你	-9.16881
▁佂冃	-9.16932
吮	-9.1713
▁27	-9.17148
▁今亳	-9.17237
▁仦仼	-9.17294
伏	-9.17349
▁亓些亿什五	-9.17408
▁仦亳俟	-9.17412
亽亟予	-9.1744
仱側	-9.17544
今亣	-9.17677
▁亓亃伡亖	-9.17682
▁100	-9.17715
仅仆伺	-9.17719
▁仵亊伍仇	-9.17722
v	-9.1774
▁亣亗仌五	-9.17754
亶亖	-9.17876
▁侫亃佇亳	-9.17879
▁亓人会	-9.179
▁任产仉佴	-9.17987
亪亣	-9.18022
侦亟	-9.18036
亩予仠	-9.18213
俼	-9.18255
些优	-9.18292
▁亴了	-9.18327
▁侍伧	-9.18346
▁井俄予	-9.18403
▁些伎仅仇	-9.18424
些亃佱予	-9.18451
9	-9.18468
亴亾亟	-9.18529
亳侫	-9.18531
仱予伂亇	-9.18539
▁亻侘了	-9.18737
仐仄	-9.18795
▁价亭亹亩亖	-9.18869
▁亃人	-9.18914
▁些亟	-9.18975
佮仾	-9.18998
亊伐亇	-9.19021
伅五	-9.19137
▁亻享	-9.19193
17	-9.19316
▁佷	-9.19517
今亪亇	-9.19559
▁佃了	-9.19647
▁任倐伺	-9.19667
▁云以	-9.19678
▁予仆	-9.19702
▁亴些五	-9.19714
些仔	-9.19771
▁侫今交	-9.19781
▁佳亾	-9.19792
予亚亢	-9.19799
▁价仿	-9.19875
些仄	-9.2017
▁28	-9.20282
▁佖仛	-9.20353
▁付亦	-9.20441
▁仸亥	-9.20459
▁今仛亇	-9.2049
伍	-9.20651
▁亂僃	-9.20694
佟	-9.20866
偁令	-9.21028
▁仈侅	-9.2103
▁伱仒	-9.21085
伄亟	-9.21115
▁任仹	-9.2112
些仇	-9.21158
um	-9.21398
▁付亳侐亾亟	-9.21448
份仾亇	-9.21476
?	-9.21481
伇亖	-9.21953
亾亊亇	-9.21988
伎伧亖	-9.22004
仉仂	-9.22097
▁侈倘仓亖	-9.22121
▁亜伇侐伺	-9.22165
▁仵亊伺	-9.22178
▁些亻	-9.22181
兒于	-9.22267
亹亥产	-9.2232
li	-9.22336
▁予亥介	-9.2244
侯	-9.22492
▁仉伥	-9.22529
▁份亣	-9.22566
▁交予侦亾亟	-9.22624
▁井倐	-9.22667
▁仧僃	-9.22676
儒	-9.22778
▁仍亊仌	-9.22801
▁仦仄亟	-9.22805
▁2012	-9.22816
▁价伔亃	-9.22827
▁仦伿	-9.22891
▁付仌亳	-9.22899
偭	-9.22919
▁伇仇些亾	-9.2292
兽	-9.22952
▁亻伄亝些	-9.2296
亹亊仉佴	-9.23038
仆仉亖	-9.23068
▁p	-9.23108
▁仍佤仇	-9.23118
倲	-9.2315
▁亓亣亷亾	-9.23152
▁仫侂	-9.23174
创	-9.23249
▁份仼亟	-9.23298
▁亴亡	-9.23363
U	-9.23437
偮	-9.23482
▁些佝伺	-9.2364
▁井俥伺	-9.23686
▁c	-9.23795
▁云亳伕	-9.23868
▁佖仒	-9.23877
亳众	-9.23932
▁佂亹仐事	-9.23958
▁W	-9.23981
▁二仇令	-9.24029
▁仈伀亟	-9.24042
什亖	-9.24045
些亃佱仇	-9.24125
▁亃倚冚伺	-9.24154
▁今佌僸	-9.24279
亭伟	-9.24363
▁价亟了仌亖	-9.24365
偘	-9.24395
▁仍亊亝	-9.24396
▁俖亳仌亖	-9.2441
仌佱仇	-9.24559
▁2005	-9.24611
▁佡似	-9.24651
▁佤人	-9.24789
▁今僇	-9.24811
▁云予五	-9.24816
亿亶予	-9.24887
伌	-9.24945
些亗	-9.25028
▁价仱云	-9.25054
▁亪伄伮亊亝了	-9.25072
15	-9.25092
▁价亭佛仇	-9.2511
▁伇們侈伇	-9.25117
▁京于今仇	-9.25127
佄	-9.25166
▁仉仆仡	-9.25195
▁亅人	-9.2521
予亶仇	-9.25366
▁伎亹伫	-9.25401
▁价亭亨亼仇	-9.25405
亅亗	-9.25413
▁佧人倚事	-9.2542
▁些亪	-9.25617
▁付仼亟	-9.25678
人会	-9.25737
▁仃佚亇	-9.25794
▁亣介	-9.25844
些亖	-9.2585
▁仐亡	-9.25985
▁亅予	-9.26054
▁价伆侫	-9.26074
▁亓亣予仮仇	-9.26237
了亹亥产于	-9.26278
▁伕仓	-9.26342
▁:	-9.26397
▁价亭了亱亇	-9.26399
▁予亊伝介	-9.26405
仉亰亇	-9.26501
▁井伩	-9.26507
佌伺	-9.2654
仈	-9.26561
亃事	-9.2663
亴五	-9.26671
▁井亭今亨	-9.26697
▁仐仂	-9.26698
伧仇伺	-9.26729
▁s	-9.26755
▁仉仄佉	-9.26877
▁亂亵伺	-9.26902
▁亪亸	-9.26943
▁仨仩仼五	-9.26966
仮五	-9.27172
▁井仺亙	-9.27181
俒	-9.27226
佄亐	-9.27252
▁佂什伆	-9.27256
估亚	-9.27318
!	-9.27398
▁亽予	-9.27409
▁伋亖	-9.27431
佇亟	-9.27466
▁亅亪亣予亐	-9.27582
▁今倜	-9.277
▁份亣伧亟亖	-9.27785
ha	-9.27923
▁b	-9.27981
亱仆	-9.28058
云亳	-9.28061
佉亇	-9.28251
亣亭	-9.28268
▁佂亜	-9.28409
▁井伧亾仇	-9.28707
▁亪亡今仇	-9.28743
▁亓亃	-9.28765
▁伇佇亳	-9.28796
▁仦些亸	-9.28799
亅亳	-9.28819
伐亊五	-9.28861
仡仛	-9.28974
▁仦亴亾亟伺	-9.29119
16	-9.2912
偕	-9.29135
▁井亭今仡	-9.29251
▁伲亖	-9.29324
倚	-9.29344
伶	-9.29381
傣	-9.29486
仉亥	-9.29494
▁亷佇	-9.29579
亏什	-9.29651
▁侈倘亖	-9.29783
▁价事	-9.29802
▁2004	-9.29807
▁价些亾五	-9.2982
▁二亣仱仇	-9.29846
▁佦	-9.30163
▁亓倖	-9.30294
亨亼于	-9.30362
▁伇亗亇	-9.30364
▁亅佋事了仞予仌亖	-9.3038
▁亻亭冊	-9.30508
▁亅侠	-9.30512
僸	-9.30583
▁仦亩亳	-9.30584
ter	-9.30599
▁2013	-9.30605
云亏仄亇	-9.30663
▁佡交	-9.30681
▁亃伖享亟	-9.30796
▁亓亳亴	-9.30818
▁仮些亗仌五	-9.30841
侐争	-9.30858
▁二亍仇	-9.30969
▁亃事些仱予	-9.3097
亹人亝亹亗	-9.31026
30	-9.31072
▁仝仞	-9.31106
di	-9.31273
▁付亊佋亐	-9.31277
ia	-9.31297
▁伕亾	-9.31338
亨亖	-9.31411
佮产	-9.31427
伣	-9.31431
▁2000	-9.31438
仕俥伺	-9.31508
▁亪亜亟亳侫	-9.31583
刡	-9.31624
▁佔五	-9.31664
▁亓些仔	-9.31832
侉	-9.32004
仓仅	-9.32023
▁亅亳些亱予	-9.32026
▁伇亳	-9.32147
▁价億	-9.32159
▁任仼亭仡亇	-9.32187
▁亅亟仴人	-9.32196
侠	-9.32288
▁亃亳伂	-9.32303
▁佢亣云亼	-9.32304
偆	-9.3234
▁仱云	-9.32364
▁价亟仡	-9.32547
伧亊	-9.32744
ce	-9.32782
伇亇	-9.32919
▁亅亾伟介	-9.32958
▁29	-9.33033
▁予仾仧亜	-9.3304
▁价亟佇亳	-9.33059
侵	-9.33066
亻亾	-9.33164
▁井亭今了亹亗	-9.33185
▁付俹	-9.3332
▁价仺亣伧亖	-9.33395
▁伇仪	-9.33412
但	-9.3343
伨仇	-9.33485
億	-9.33487
儅	-9.33542
▁些俧予	-9.33544
仯亟亇	-9.33745
▁亽争亖	-9.33777
▁亅仯	-9.33826
▁仍亜亝	-9.3391
▁亓介	-9.33912
▁亣亭俟	-9.33941
▁仧亶	-9.34028
▁亓伄伴	-9.3403
值	-9.34056
▁价亝伎亟	-9.34092
伒	-9.34129
▁亃交优亖	-9.34155
亷亳	-9.34192
▁任仼亭	-9.34259
俱	-9.3426
▁仁亩亳亸	-9.34388
▁仉仛	-9.34388
▁亂亃仓亟	-9.34422
▁仈亭伉倖	-9.34499
▁亓享仅仆	-9.34503
亘亙	-9.34511
▁伋仹	-9.34536
▁亅仏佃	-9.3459
伮亳	-9.34647
▁佡使	-9.34652
侄	-9.34741
40	-9.3482
▁亓会亊五	-9.34864
▁亓侲亾伵仉亖	-9.34899
▁京亭侵亐	-9.34918
亂产	-9.34953
▁亣亭亝倾	-9.34991
些亾五	-9.35016
▁伱侚	-9.35026
▁仵亊伛享亟	-9.35031
W	-9.35089
亶仇	-9.35106
亳伇	-9.35118
件	-9.35209
予伽伵仇	-9.35252
▁予亾云	-9.35255
▁亦	-9.3527
傋	-9.35282
佻	-9.35287
▁亴亝	-9.35337
j	-9.3546
偠	-9.35532
▁亂亃亱亇	-9.35693
▁予仾	-9.35756
▁今予仇	-9.35962
▁价仞	-9.36035
▁劃	-9.36056
▁亃偮	-9.36083
▁二人	-9.36089
仮仒	-9.36162
▁2016	-9.36204
-19	-9.36214
仌伡亖	-9.36239
从	-9.3631
▁仧仱俆	-9.3639
伢	-9.36486
▁佢仆	-9.36529
▁份仾	-9.36576
▁亅众仅伫伡伺	-9.36592
伧亰产	-9.36623
▁伇侍亃亳	-9.36629
id	-9.36669
▁仧亳亅仄	-9.36685
▁亃会些	-9.36761
25	-9.36813
▁云亣	-9.36852
佇亭	-9.3686
亳亏	-9.36874
14	-9.37025
亙仏	-9.37035
▁二亥	-9.37039
▁伕予	-9.37108
▁依	-9.37109
俯	-9.37116
▁些亚	-9.3712
▁亓以了亹人亇	-9.37142
亭些	-9.37164
▁侈佃仅仇	-9.37207
▁亓亘了	-9.37225
云仒	-9.37225
▁仦伴	-9.37291
俙	-9.37328
亜仅	-9.37374
os	-9.37375
▁亓伐	-9.37445
伨仆	-9.37541
內	-9.37552
亭佛	-9.37837
偔	-9.37895
▁任仼亭佛	-9.37917
▁亣亭伦偠	-9.37921
▁亷争	-9.37942
▁价亳佥	-9.37955
▁仐仂伂	-9.37965
▁予伿伄亟	-9.38008
仌侀亇	-9.38171
▁亣仇	-9.38173
▁40	-9.38251
些仱	-9.38282
伡亰亇	-9.3832
▁价于份	-9.38379
▁伲仿	-9.38472
亏伽亊五	-9.3851
伱人	-9.38652
侫今交	-9.3869
亽亃	-9.38696
▁他以	-9.38717
仺亇	-9.3873
伩	-9.38793
▁亪仄	-9.38795
▁侬僿	-9.38809
▁亅亟亸	-9.38845
侤	-9.38882
▁仉亃	-9.38911
▁云了倪伎	-9.38921
今亖	-9.3894
亂亜	-9.39016
▁伲仡些亳会	-9.3906
▁仍俯	-9.39119
▁任倐	-9.39168
▁伱伀	-9.39259
侄伺	-9.39308
偿	-9.39401
▁亓亡	-9.3945
▁交亪佛	-9.39504
伇伺	-9.39515
▁价享伧亖	-9.3954
▁亻伃	-9.3955
仅仆亿亐	-9.39597
佮伿	-9.39601
▁佂傦仺	-9.39619
▁些事	-9.39758
▁亂侞仒	-9.39892
▁云伊亴仅	-9.40087
▁交予令	-9.40096
冚	-9.40263
od	-9.40316
仌仇	-9.4039
▁仧偷些亾	-9.4044
偁仧	-9.40442
▁予僂亾伧亖	-9.40466
住优	-9.40514
伡五	-9.40565
▁予亳	-9.40585
▁亓亣予亇	-9.40632
=	-9.40647
伇仇	-9.40703
▁仝事	-9.40714
仛会	-9.40758
▁亞伤亹亗于	-9.40772
▁亅亪亣仅予	-9.40796
亊交亭伟	-9.40838
▁侩伡	-9.40873
▁亞亟但人	-9.40912
▁予亊伂	-9.41141
▁仍亅	-9.41217
ay	-9.41449
伨人	-9.41641
▁伕亝	-9.41684
侐亜	-9.4173
▁亓亰些仄予	-9.41753
▁亓仄亪	-9.41755
傱亓	-9.41837
▁伕予侃	-9.41885
▁佖互	-9.41891
▁二享	-9.41916
▁仮亾亟俤五	-9.4193
▁仵亪亣伧亖	-9.41948
▁交五	-9.41975
▁仍仄	-9.42022
▁仵亊亭伟	-9.42059
▁亷亳众	-9.42071
▁仍亜伎	-9.42073
侔	-9.42103
俹	-9.42126
▁俠亝	-9.42142
▁亷亳亸亇	-9.42265
▁仦亣	-9.42276
▁佳俙	-9.42297
ot	-9.42308
吵	-9.42421
ai	-9.42431
▁付侂	-9.42516
▁亓仆仉	-9.42567
僽	-9.42742
▁and	-9.42814
▁仧亵	-9.42905
佛仇伺	-9.42972
▁亃些	-9.43054
18	-9.43088
仆伺	-9.43091
刄	-9.43157
▁伊	-9.43215
▁二亣从	-9.43248
▁些仓	-9.43289
亟仒	-9.43294
▁O	-9.43443
▁亅亟亍人亻仏于	-9.43467
仡仜	-9.4359
▁亅会	-9.43721
▁佰仱	-9.4376
▁亅亾侫	-9.43777
亥亇	-9.43818
▁V	-9.43862
▁亅元	-9.43903
些亿亚	-9.43954
▁价亊倗仒	-9.43954
ent	-9.44074
▁亓仄	-9.44074
亳予	-9.44091
▁仦亴仅	-9.44106
▁亅仪亟	-9.44159
▁价佛亢	-9.44178
▁仦些于	-9.44192
佱予	-9.44282
▁仐仺些仇仌五	-9.44348
▁亃事仍予亳	-9.44421
▁亷互	-9.44468
予亚仜	-9.44483
▁于些了	-9.4451
▁倧亊予	-9.44572
▁亓佊	-9.44589
▁亃佱仄	-9.44619
予伽	-9.44646
伨亊	-9.44646
▁亮亟介	-9.44732
吞	-9.44975
▁仍亜伅伺	-9.45006
▁俖亳亇	-9.45057
▁仨佋亐	-9.45071
云享	-9.45074
▁亃仯云	-9.45082
▁井亊五	-9.45253
▁亂亵众	-9.45288
▁亃亊	-9.45333
伉亟	-9.45365
▁in	-9.45401
倗	-9.4555
▁伕亾伟	-9.45556
俌佥	-9.4566
▁价侈	-9.4573
了亹人亻亼仇	-9.4585
▁亅仌亾伎	-9.45883
▁些亭亻亼仇	-9.45937
lo	-9.45992
▁1990	-9.46012
▁些似仆	-9.46045
佃仅予	-9.46066
▁井伦	-9.46068
▁价仱使亟	-9.46092
▁仉些仁亟	-9.46173
仧仏亙	-9.46241
13	-9.46293
▁仃佚些于	-9.46298
▁价伖亇	-9.46303
▁亞亟亠亡	-9.46306
01	-9.46329
▁云亊	-9.46394
仂令	-9.46476
▁亃介	-9.46536
偸	-9.46536
▁予享	-9.46543
亩亳	-9.46561
▁亣亭云亸	-9.46575
产仇伺	-9.46602
▁侍侎人	-9.46673
亳亴	-9.46683
▁亓亊倫	-9.46712
▁亃仅亾了	-9.46818
佧	-9.46827
▁京仺	-9.46873
▁价伥亟亘	-9.46888
▁亂倾亟	-9.46925
▁予仯云	-9.46986
借	-9.47007
The	-9.47019
▁仸伄伡伺	-9.47029
仌佱予	-9.47075
▁二個	-9.47104
▁亓些五	-9.47118
伐享亟	-9.47124
▁价佇	-9.47238
▁二侢	-9.47318
▁亻亭	-9.47331
▁31	-9.47368
▁价仏佛	-9.4738
▁仦偁令	-9.47398
▁仁亃仂	-9.47412
▁仉亽亟予伺	-9.47513
▁亪亡今予	-9.47533
▁井伓亊	-9.47554
傱价	-9.47558
▁仦仇于	-9.47582
▁佖仙人	-9.47672
▁亅佋事了仞予亇	-9.477
▁伇亃佤亃	-9.47764
▁伱亗	-9.47766
▁仍亊仇	-9.47798
▁側仇些亾	-9.47807
▁伕仱亸	-9.47903
仂仠	-9.4793
▁京亭亝	-9.47933
▁亣亭些侾云事	-9.48018
佱仇	-9.48025
倌	-9.48037
▁价仌介亹亊仌亖	-9.48058
▁些亟亣亖	-9.48079
▁伱伀亟	-9.48138
▁亃代亦亟	-9.48187
▁仝五	-9.48229
▁佃仌亭	-9.48299
▁云亳亸	-9.48305
▁亃亪亣	-9.48351
伧伡亖	-9.48407
▁亓仛亝	-9.48414
▁佂什仅仇	-9.48457
▁亓傒	-9.48467
▁m	-9.48525
▁伕亳俔	-9.48699
亝事	-9.48744
▁侘	-9.48753
▁云亗	-9.48838
▁佰伇	-9.4886
倸	-9.48865
▁亃交仞	-9.48931
仡亢	-9.48943
▁伕予傧仒	-9.48954
些亣佴	-9.48966
▁侫互亱	-9.49017
侼	-9.49086
▁亅亟亍	-9.49088
劃	-9.49091
佱	-9.49181
仡亜	-9.49253
▁亪伄僤人	-9.49256
ta	-9.49324
兑	-9.49382
▁亓以了	-9.4945
仚亭	-9.49497
▁仈仔	-9.49606
仓亏	-9.49642
▁亓亊佉亇	-9.4979
仅予仠	-9.49902
▁仐仺些仇亏亐	-9.4991
ap	-9.49976
亚亟	-9.50017
▁亅享亙	-9.50067
刻五	-9.50157
▁京仛于	-9.50202
伧伊伆	-9.50274
伔亃	-9.50285
▁价俌	-9.50303
▁亅亣亙	-9.50355
▁亩仡亃	-9.50357
▁仦伉伊亟	-9.5046
些亣亖	-9.50556
▁亮侓	-9.50561
侬	-9.50568
▁今亴	-9.50576
▁亞亟伸人	-9.50601
▁仉亚伂	-9.50678
▁伇亵亣	-9.50688
▁今仕	-9.50699
▁仉仆侐亳	-9.50764
em	-9.50801
▁亣仏五	-9.5085
亹亩予	-9.5091
▁价佇亟亢	-9.50981
▁J	-9.51013
亹亗仇伺	-9.51083
佛伺	-9.5111
▁予伿伄	-9.51117
ag	-9.5114
予什仓亭伟	-9.5116
▁井亝亳	-9.51261
▁亴事	-9.51271
▁亽人予什五	-9.51304
▁亓亣予亾	-9.51348
▁伕仭	-9.5136
▁些仄	-9.51391
些仆	-9.51485
会俥伺	-9.51583
▁亻仞	-9.51636
▁仦予伂亇	-9.51663
倅	-9.5168
儃	-9.51726
仌亰产	-9.51734
se	-9.51785
▁亂会	-9.518
▁份仼	-9.51848
僀	-9.51858
ak	-9.51881
▁侄	-9.5194
▁云于	-9.51978
▁仉些亾	-9.51996
▁予仑仓了	-9.52078
予亶亪亇	-9.52102
僡	-9.52122
伕亳	-9.52155
▁佽亳仆	-9.5217
▁二仛伅仆	-9.52174
伧亱仇	-9.52196
▁俄	-9.52213
亻佬五	-9.52351
俁	-9.52387
▁仉亻亃亇	-9.52476
▁份仺付人	-9.52494
倅亇	-9.52611
60	-9.52625
了什	-9.52673
ang	-9.52705
亃仂	-9.52763
冝五	-9.52836
▁价亃亟	-9.52842
▁亅亪亣予亚	-9.52853
▁予傷亥	-9.52875
▁亂亃亱些于	-9.53008
▁井亟们	-9.53014
▁亓仹	-9.53027
21	-9.53069
▁二佚亖	-9.53101
▁仦仕亃	-9.53106
▁仃仄余仺	-9.5311
▁价俽于	-9.53153
倄	-9.53186
▁仦亻亟些伫五	-9.53187
▁井亭今	-9.53192
▁亴侪	-9.532
▁价些介	-9.53248
▁仮仒亇	-9.53418
▁价俤	-9.53424
▁亣偞	-9.53449
▁予享亴	-9.53476
▁仈亙	-9.53487
▁仦仄	-9.53492
仌伊伆	-9.53535
▁予俔伧五	-9.53548
▁亂儓	-9.5357
了亹亗仇	-9.53573
些亾	-9.53621
▁亣介亹亊仌亖	-9.53632
▁予仞予	-9.53633
亅亊	-9.53682
亏亶亖	-9.53683
▁1980	-9.53733
亨亼仇伺	-9.53744
and	-9.5378
▁井产亊亨亟	-9.53807
▁二仛亃亹亗	-9.53836
▁些亴	-9.53867
▁侫亭	-9.54092
▁亓亭佽	-9.54129
▁亪伄伮人	-9.54145
▁仈亭亽亐	-9.54259
佀	-9.54309
▁伋偞	-9.54319
亿伽亊五	-9.54357
▁仉亦	-9.54427
凹	-9.54484
伤	-9.54499
些亃五	-9.54579
佱仄	-9.54591
▁予亊佛	-9.54602
▁U	-9.54682
亹位亃	-9.54718
▁亻仱云亇	-9.54774
▁亻享仡亇	-9.54779
僙	-9.54799
儚	-9.54804
▁二仛伅仆伺	-9.54842
▁予侚亟伄伂	-9.54849
▁亣亭佧传仓	-9.54849
39	-9.54892
▁仦値	-9.54901
▁于亡亂予	-9.54902
▁价仄偢伧亖	-9.54959
▁井仏伂	-9.55133
▁亃伉	-9.55149
▁仉亻亃	-9.55266
▁佂侏	-9.55287
傍	-9.55373
48	-9.55415
▁亞亟侽	-9.55447
▁仵亊伉亟于	-9.55471
亹亪亣伧亖	-9.55476
伧亭佛	-9.55492
亿亶	-9.55525
侈仉	-9.55559
了亹亥产仇	-9.55568
▁仦仇	-9.55573
傏	-9.55623
99	-9.55628
46	-9.55633
傾	-9.55668
▁仧佐佑	-9.55675
▁仦亴亾亟	-9.55704
▁付亡	-9.55709
▁任俩	-9.55779
▁价亭佝亰亇	-9.55818
偀	-9.55851
▁价伔云亖	-9.55865
▁仉亗	-9.5588
▁他伓	-9.55894
▁伥些	-9.55905
▁亷僜伕亳亇	-9.55907
亹亃佱予	-9.56014
▁亓侲亾伵仉五	-9.56114
▁些亭亻佬伺	-9.56158
▁仸人	-9.56195
37	-9.56258
▁亴仏伨予	-9.56321
▁侫亟	-9.56328
▁任亜	-9.56368
▁伲亾亖	-9.56431
僕	-9.56488
住	-9.56511
op	-9.56527
▁亂俌亸	-9.56588
▁佖仙	-9.56644
▁2003	-9.56676
▁亓仆佃	-9.56723
凬	-9.56725
▁亃仅亾亙	-9.56743
些亭仡	-9.56825
▁亽亸亟	-9.56828
倔	-9.56863
▁京伄	-9.56893
冩	-9.5691
▁价些亭享亟	-9.56918
▁佰亳亳侫	-9.56972
▁亓什了	-9.57041
ac	-9.57102
te	-9.57302
▁仁亣	-9.57394
▁价佲伎	-9.57452
▁亅亳亙	-9.57459
俓	-9.57465
▁佖值仯亖	-9.57467
仉亗于	-9.57474
▁予仼	-9.57573
▁亅仏	-9.57591
▁价亊佘	-9.57613
▁佖仏伅仞	-9.57653
▁亓亟仯	-9.57662
▁二亍亩亖	-9.57662
▁佖仙人会	-9.57673
▁仐仺亝	-9.57747
▁仦亻亟仇	-9.57947
05	-9.58017
倈	-9.58021
仉人	-9.58082
事仠	-9.58162
二仳	-9.58176
卫	-9.58261
▁亅亳仉	-9.58337
▁亣亗亇	-9.58503
na	-9.58516
▁傴五	-9.58565
▁亃亇	-9.58584
▁些仞亏亹亗于	-9.58706
仒亖	-9.58713
09	-9.58802
▁仧倔亭仮仺	-9.58825
▁仵优亱仆	-9.58852
侴	-9.58864
▁仦予会	-9.58885
J	-9.58886
ate	-9.58903
▁京亭侵亚	-9.58977
▁仦些伺	-9.59004
兇	-9.59061
▁佂什伧亊亹亗于	-9.59104
▁亓些亿仆于	-9.59108
▁价亭些亭亇	-9.59247
▁俖付仆	-9.59252
co	-9.59252
▁些亪亙	-9.59265
▁佧人	-9.59281
▁井亟亳	-9.5932
▁亓亏	-9.59333
▁亪亣介	-9.59351
▁井亭今了亹亗于	-9.59403
▁亅享予亐	-9.59501
亗伺	-9.5955
▁亮亾	-9.59579
▁仍倈	-9.59617
伔云亖	-9.59622
▁仉亚今予	-9.59629
凟	-9.59859
▁侫仞侇	-9.59954
-1	-9.60065
▁付仓	-9.60165
▁亅亣亱予	-9.60189
伉亖	-9.60192
▁亻俄伃亗伺	-9.60306
儇	-9.60344
仄儯交	-9.60348
▁仨仄予	-9.60367
▁仍亣	-9.60413
些互	-9.60422
亃伺	-9.60451
65	-9.60489
▁仢亱伩	-9.60489
凩	-9.60537
▁亂仯	-9.60562
佃仕亇	-9.60566
06	-9.60576
07	-9.60584
▁任仾产仇	-9.60596
仺亙	-9.606
▁伇亂亩亟	-9.60633
▁亓亘亣	-9.60694
▁二仛于	-9.60757
▁交了	-9.60773
▁价侫亱交亟	-9.60777
▁亽侵亐	-9.60846
▁仧仓	-9.60905
仡亾亟	-9.60905
冫亳	-9.60925
▁仉仆佉	-9.60962
侦亭	-9.60981
▁仍亜予伺	-9.61006
▁f	-9.61047
80	-9.61057
▁侫仞	-9.6108
▁二人会伵作予	-9.61115
▁亂亃五	-9.61123
▁任人了	-9.61195
▁倧伺	-9.61199
▁仉亭亹	-9.61242
▁60	-9.61297
▁价些伫五	-9.61314
交亟	-9.61317
▁价仄仡	-9.61355
交了	-9.61363
▁亅亟亍人亝亹人亇	-9.61373
▁亓享佛	-9.61374
▁付亖	-9.61494
亝仇	-9.61499
▁亷亟	-9.61605
im	-9.6161
倕	-9.61647
▁亴仙	-9.61669
▁仍享	-9.61759
伽亊五	-9.61769
人亝	-9.61776
云亣	-9.61802
08	-9.61887
tion	-9.61899
▁亣亭亹	-9.6195
49	-9.61985
▁仅仂	-9.61993
▁云亵伺	-9.62004
▁傴事	-9.62015
▁亪仆	-9.62035
ut	-9.6207
▁付予	-9.62071
▁云伿亅	-9.62087
▁予亹	-9.62089
▁2002	-9.62095
亨佬亿亐	-9.62139
▁佰亭伟	-9.62305
▁仁仌亟	-9.62433
▁仉亭俟	-9.62437
▁井亙	-9.62449
ma	-9.62528
▁亓亘仕亇	-9.62564
争侀	-9.62572
▁今儾	-9.62579
▁佂亼	-9.62593
▁仮事	-9.62677
▁予优	-9.62725
▁亅亟仇	-9.62921
偵	-9.62965
仉仓亭伟	-9.63005
▁井俥	-9.63076
▁亅促	-9.63076
▁仦亻佦	-9.63104
些亿亶予	-9.63112
▁今供仓	-9.63113
些佛	-9.63122
▁仧倖	-9.63127
▁亪仞倾予亐	-9.63141
▁仦們	-9.63147
▁亅亪亣伈	-9.6319
享伆	-9.63256
伡亿亐	-9.63312
▁佰侫	-9.63346
▁佂什伧亊	-9.63378
会产于	-9.63382
38	-9.63389
▁价些仔	-9.6339
▁仦伸	-9.63414
▁于些伉	-9.63468
▁俖亳亜仅予	-9.63516
倠	-9.63518
▁亣仱仉亊	-9.63557
▁亓伐伮	-9.63567
▁仵亊伉伡伺	-9.63656
▁井仄亻亖	-9.63657
介仕亇	-9.63658
佋伽亇	-9.6374
▁侺亳	-9.63742
▁亃仯亹亗	-9.63754
▁井仄予令	-9.63764
▁亅仄亭亇	-9.63846
亂亃	-9.63888
▁亪伄了	-9.63892
▁井伧亳伪	-9.63903
▁伏仅什	-9.63904
▁付亜	-9.63939
▁价亭亹于	-9.63986
▁佢仆亇	-9.64094
▁亷亗	-9.64133
亻佚伺	-9.64155
▁仉側亟	-9.64257
▁亣亾	-9.64395
▁亞伾于	-9.64403
▁亣仏亘	-9.64406
▁亽五	-9.64414
侨	-9.6445
仈亭	-9.64511
亽人	-9.64534
伬	-9.64536
▁予事仰	-9.64556
▁今仡	-9.64568
55	-9.64703
▁些侢	-9.64767
▁亂亡仅予	-9.64777
95	-9.64815
今倿	-9.64835
佪	-9.6485
▁仵亊佉	-9.64859
64	-9.64894
ne	-9.64918
伫亭	-9.65004
▁侰亃	-9.65009
34	-9.65013
▁予侐	-9.65016
▁仧亳亅仄仮仇	-9.65029
▁亅众伕亾	-9.65067
▁云亻	-9.65094
▁伕亳亃	-9.65124
▁亓些亴亟	-9.65169
▁仍享亮仺亇	-9.65303
仃倫	-9.65361
予仄	-9.65378
▁予仞予亇	-9.65424
▁京伄伧亟亖	-9.65428
仧五	-9.65439
偽	-9.65479
ow	-9.65552
▁井亭今亨亟	-9.65582
佼亊	-9.656
亅人亝	-9.65605
▁佤亥	-9.65659
31	-9.65695
偌	-9.65706
亹众	-9.65806
▁些亗亇	-9.65958
亹亊亱亇	-9.65981
▁仁伛	-9.66018
▁井伓亗	-9.66019
亣仓亭伟	-9.66047
伐亐	-9.66064
X	-9.66092
▁付亳亣	-9.66124
僋	-9.6616
hi	-9.6619
▁亷亸亱亇	-9.66201
▁予仇位	-9.66238
傁	-9.66263
▁亞亰会	-9.66267
24	-9.66456
▁佳亰佉	-9.66466
▁价倖亙	-9.66619
些亜	-9.66632
▁亅仄伺	-9.66639
▁仧亳亩仇	-9.66735
亹人会亇	-9.6678
me	-9.66799
予伽伵予	-9.66818
僉	-9.66823
▁亣伇侐伺	-9.66823
▁亅偿	-9.66854
▁佖仙亗于	-9.66855
28	-9.66864
▁任事	-9.66883
▁仉亚仅亜	-9.6706
ath	-9.67088
佝亖	-9.67123
▁云亭会些云仂	-9.67132
予伽亐	-9.67157
亅争	-9.67168
▁仧亳亣	-9.67181
▁些佊	-9.67206
▁侈仉	-9.67233
70	-9.67238
▁亣亳	-9.67301
▁亩倿	-9.67342
▁云了伽仡	-9.67357
▁井傩伺	-9.67387
▁些优亂亡	-9.67447
▁亃交仞伺	-9.67504
▁京亭什	-9.67538
98	-9.67561
85	-9.67564
▁亅亟亍人亇	-9.67566
亭了	-9.67566
亹亦	-9.67578
▁仍亜予	-9.67611
▁价亳伂	-9.67642
▁亅亥	-9.67644
▁侼亗	-9.67663
▁保俞仯	-9.6785
倞	-9.67857
▁1970	-9.67858
▁予亗亘亙	-9.67884
▁剛	-9.67894
+	-9.67899
▁仐予債	-9.67916
▁亓亭似俔亟予	-9.67953
▁于众	-9.67965
亿什	-9.68004
▁佖仂亟	-9.68013
仍僂伺	-9.68064
▁伲亼些仔	-9.68104
▁价亟佉	-9.68144
▁仧倔亭亇	-9.6816
▁+	-9.68163
了仉佴	-9.68218
-20	-9.68218
▁二亖	-9.68225
仏于	-9.68231
亿伽	-9.68256
些亿什亖	-9.68279
ti	-9.68292
吹	-9.68316
伫亟	-9.68385
78	-9.68508
侻亚	-9.68515
▁予亭亣	-9.68537
▁云亳亅伪	-9.68575
▁僕仇	-9.68582
▁亮亭亘	-9.68587
▁亓些亿伽仡	-9.68595
▁价享佂什	-9.68642
▁价亭佝亖	-9.68684
▁亓亘佛于	-9.68693
▁亅亊仌亖	-9.68709
32	-9.68715
▁仦仞	-9.6877
all	-9.68799
▁佧亖	-9.68842
▁付亊佋亚	-9.68934
▁亻享了	-9.68939
▁些仹	-9.68959
22	-9.68982
佋伽仡	-9.69012
▁仧亳使仂	-9.69045
仡伬于	-9.69048
▁亓亘伟产仇	-9.69057
▁伇了亳	-9.69147
仱刄	-9.69237
▁亂亜仅于	-9.6931
04	-9.69326
佦人	-9.69347
▁亓侠	-9.69433
僙五	-9.69521
▁些亜些亇	-9.69563
▁亓侾	-9.6957
ine	-9.69573
▁亂亡亘	-9.69579
俑	-9.69586
仕享亟	-9.69615
▁亣亭亝	-9.69653
▁侫佛亳	-9.69656
仧亳	-9.69671
▁交傌亳	-9.69674
俤五	-9.6971
仱伇	-9.69771
亹争亭仡亇	-9.6978
▁仐亟交	-9.69796
侺	-9.69803
42	-9.69916
67	-9.69963
伛	-9.70004
▁亅仱云亾	-9.70043
▁仦亴亟	-9.7006
ig	-9.70069
了伽亇	-9.70073
了伂亇	-9.70083
▁份仺亅人	-9.70121
▁予俈	-9.70166
ab	-9.70261
▁予亱亲亳	-9.70306
▁亅亊亇	-9.70341
亶亪亇	-9.70419
今仺	-9.70452
▁亴些予偢	-9.70465
92	-9.70506
▁二佚亰亇	-9.70518
▁价仄了亸	-9.70535
冐	-9.70571
兺	-9.70624
▁佞仱	-9.70708
26	-9.70763
亝了	-9.70828
▁于亡伧亖	-9.70838
96	-9.70877
up	-9.70877
90	-9.70878
▁仈亝	-9.70882
▁云事仅仆	-9.70925
儯	-9.7094
▁井仺伮仇	-9.70958
仉人亇	-9.71034
咈	-9.71049
91	-9.71084
▁佖仙人仌	-9.71087
51	-9.71111
▁价以	-9.71113
▁井仺伮仇伺	-9.71135
▁仉亳	-9.71148
亅亪亙	-9.71152
俖	-9.71207
▁仉儽什	-9.71209
仂仕亇	-9.71227
▁佳什	-9.71237
▁1960	-9.71334
仍予伺	-9.71339
000	-9.71399
▁些仞佉亇	-9.71422
▁亻伄	-9.71433
佂什	-9.71462
▁伷	-9.71481
▁仦亻亟些伫亖	-9.71531
▁今伉	-9.71561
偫	-9.71561
▁侍亸	-9.71613
僃	-9.71622
▁亓伥	-9.71625
▁/	-9.71628
▁亷人	-9.71659
亅亥	-9.71672
▁佽佾	-9.71713
▁佢仄	-9.71755
刷	-9.71765
傍亐	-9.71828
▁仸仏亹人亻仏于	-9.7183
▁亪亭亣	-9.71862
▁仦佇亳	-9.71862
▁佞仞	-9.7192
▁些亭今倿	-9.72023
▁亓亜亹享仅予仠	-9.72035
▁伲仄份	-9.72046
▁今偙	-9.72117
▁井亡	-9.72119
付仄	-9.72224
些亿什五	-9.72234
倒	-9.72282
儜	-9.72283
▁亓亳亴亟伳亣	-9.7232
俢	-9.72335
88	-9.72336
▁价佉产	-9.72347
▁予侢	-9.72352
倁	-9.72377
23	-9.72452
▁二人会伵亥	-9.72499
▁亂佥	-9.7252
▁亓亘仟	-9.72571
亱亪亇	-9.72603
伮侀	-9.72641
▁亣亳些	-9.7272
嬮	-9.72769
▁仫予亾	-9.72779
▁佢亣	-9.72783
▁伕亣仇	-9.72896
俈	-9.72914
侻亐	-9.72962
▁仐事伈	-9.72972
▁今倽	-9.73097
佝五	-9.73105
sh	-9.73141
偷	-9.73149
佢伺	-9.73184
▁亽争	-9.73284
ph	-9.73328
▁亪伄亙	-9.73328
▁二亵	-9.7333
▁亴仄伺	-9.73416
▁仝俐事	-9.73422
▁侹	-9.73423
▁价亭亹亩予	-9.7347
▁亪伄伮亊亝了于	-9.73515
▁呒	-9.73573
▁亓些亿亚	-9.73597
56	-9.7361
▁付众	-9.73617
▁償	-9.73672
▁伇云亟亇	-9.73711
▁些仇	-9.73776
▁a	-9.73874
▁亓人仡	-9.73874
交五	-9.73942
亨亳	-9.73953
▁仍倨仌亳	-9.74024
▁予仄佃	-9.74055
仉仄	-9.74072
▁倠	-9.74122
儓	-9.74156
58	-9.74171
京亭侵	-9.74187
刞	-9.74189
▁亞伤亹亥	-9.74216
▁亅享伞人	-9.74245
仅亃	-9.74263
亿亚仕亇	-9.7431
▁予仛	-9.74375
亮亭	-9.74397
▁保亟	-9.74432
偍	-9.74519
假	-9.74575
▁亓亘伦	-9.74627
仌亗	-9.74632
▁二仛亣仕俥伺	-9.7465
▁仫仄亇	-9.74784
▁交亃	-9.74784
▁仈伀	-9.74785
▁侍仟	-9.7482
▁价亹	-9.74962
了事	-9.74996
▁二亰便	-9.75018
▁仦伫五	-9.75031
▁仍伎傒佃	-9.75073
▁井伧伺	-9.75124
▁亓伄亪伄	-9.75138
▁仐仺些	-9.75202
▁亂亨亟会些亇	-9.75241
▁井傤亥	-9.75295
劧	-9.75295
▁二佪仏	-9.75351
▁亓交仄亇	-9.75401
▁亴仺些	-9.75431
▁价伦	-9.75475
vi	-9.75494
02	-9.75543
冱	-9.75573
仁伺	-9.75825
▁二亍些仱亖	-9.75898
仓亭佛	-9.759
▁亻亗亝亗	-9.75908
▁亓伄伟	-9.75935
▁价亭佛仇伺	-9.76007
▁予亩付仌亳	-9.7602
▁仃仄余互	-9.7602
▁d	-9.76039
▁云促亐	-9.76077
今仇于	-9.76216
▁仦予僫	-9.76227
偁亅	-9.76274
▁伕仂	-9.7628
付亚亟亇	-9.76327
▁亮亟亾	-9.76363
兠	-9.76413
予亶	-9.76495
▁侫亳	-9.76545
▁仢俰产	-9.76598
亞伤	-9.76761
▁仉些亳	-9.76863
作亖	-9.76996
▁仫亳	-9.77014
▁亣介亹亊亏什亖	-9.77018
Y	-9.77033
▁付亊仁事	-9.77091
82	-9.77096
作五	-9.77096
▁价亟了亇	-9.77118
▁仉偞亟亇	-9.77151
仉亗	-9.77165
▁亅亳亹仆伂	-9.77203
▁亻亾了佶	-9.77204
▁亅亃	-9.77258
印	-9.7726
▁亓亳仗仂	-9.7726
200	-9.77269
▁亅亟亸亇	-9.77278
冎	-9.77374
▁仍予仱俔	-9.77431
▁予伂	-9.77431
▁伕于俌佥	-9.77451
倮事	-9.77508
佌	-9.77592
亊伡仇	-9.77635
▁亘亟仮予	-9.77718
▁仨佋亚	-9.77787
仌介	-9.77833
▁价仹	-9.77845
▁亅伟	-9.77865
俖亳	-9.7789
▁些亜仉亖	-9.77928
仡伄	-9.77932
▁二仛亣伡伺	-9.77943
▁侈僧人了亹作伺	-9.77956
▁仉仄亻	-9.77982
▁亞佚伺	-9.78004
▁份亃	-9.78009
▁亓伄亟亹亗	-9.78204
▁亓仂会亇	-9.78238
仱佔	-9.78274
▁亞亰亝	-9.78347
▁亴亏	-9.78369
仍予亳	-9.78428
亿什亊亇	-9.78429
▁予互	-9.78441
佊	-9.78455
偑	-9.78458
66	-9.78511
▁佂什伧亗	-9.78525
▁些亜些亘亙	-9.78563
▁亪伄亨仏于	-9.78601
▁伇亾仅仇	-9.78646
52	-9.78719
▁侍亜	-9.7883
▁仦人	-9.78903
▁侺会仡亜	-9.78918
▁价亹亪亣	-9.78951
▁仮亃仌亖	-9.79014
佋什五	-9.79059
余人亇	-9.79135
▁亷亳	-9.79136
佃仜	-9.79208
▁些亚亟	-9.79219
仌仇伺	-9.79222
仌亾	-9.79438
▁亓亰些	-9.79448
▁(1	-9.79458
▁云了亚	-9.79471
偂伺	-9.79474
57	-9.79536
亅人	-9.79577
89	-9.79704
▁2017	-9.79775
▁仵优傹事	-9.79787
▁仦体仆	-9.79846
▁予仓	-9.79865
亏伽	-9.79866
▁二人了	-9.79877
▁亅亟仴争	-9.79905
43	-9.79915
▁仉仆佉亻仏于	-9.7992
▁傴	-9.79938
▁亃予些	-9.79959
伧亊亇	-9.79973
亽亟了	-9.79983
▁w	-9.80051
侫些亳伺	-9.80056
75	-9.80085
倆	-9.80104
▁亂仂些伺	-9.80106
▁价僐	-9.80206
侺伺	-9.80225
▁仁亃仇	-9.80281
▁亓伦	-9.80281
▁价倖了	-9.80403
▁亴亏仆	-9.80449
亘亟	-9.80453
▁予些仯	-9.80509
▁佳亭	-9.80545
仅云亖	-9.80604
▁亴亦	-9.80635
▁1999	-9.80679
保	-9.80727
86	-9.8074
佤亳	-9.80752
03	-9.80773
亅人仌	-9.80862
▁仍予亾五	-9.80882
68	-9.80902
些仞	-9.80939
▁价亭便	-9.80973
▁份亶伩	-9.81015
亦仕亇	-9.81031
▁亮亾于亇	-9.81038
▁亂亭予五	-9.81093
▁仍侐	-9.81101
▁些亶予	-9.81182
▁价亳倐	-9.81229
▁佂仺	-9.81302
▁仃亝	-9.81338
伡仇	-9.81346
▁任侔亇	-9.81388
▁亪仉	-9.81395
付人	-9.81397
▁井仺伮仇亿亐	-9.81409
体	-9.81605
僞	-9.81606
傱仦	-9.81626
▁仍予伺	-9.81633
▁亓享仅仆亇	-9.81724
▁予亗亹亗	-9.8174
▁些亳亱伫亖	-9.81752
▁兼	-9.8176
▁亷亃亖	-9.81806
冹	-9.81962
傠伺	-9.81968
▁仦倆	-9.81995
▁仍亊会	-9.82015
▁俖伇	-9.82025
伧互	-9.82031
亏伽仡亇	-9.82065
▁亅侏伧亖	-9.82068
傔	-9.8214
▁保俻仯亟	-9.822
▁价亟俦	-9.82212
仅仆仱予	-9.82217
▁予亭于	-9.82237
72	-9.82285
▁亴仺予亦	-9.8232
▁任仾产	-9.82323
▁仍享亮仒于	-9.82324
仯亊亇	-9.82344
▁亷云	-9.82345
▁俖亳亏什亖	-9.82358
▁亓亗些倖	-9.82379
冈	-9.82379
76	-9.82537
仦伉仄亇	-9.82646
▁井亾亟	-9.82671
了伽仡	-9.82694
▁亅亳些	-9.82718
偸亾	-9.82739
▁亴伄于	-9.82745
▁亅侫	-9.82783
87	-9.82788
▁侫些	-9.82905
▁亷事	-9.82911
77	-9.82915
▁二佻仺	-9.82918
33	-9.82932
伮亾伂	-9.83
▁仧侘	-9.83025
亹争亭佛	-9.83048
▁佃亳	-9.83101
▁仍亜会俥伺	-9.83127
▁俖亳亜	-9.83137
ist	-9.83194
▁伇侐佛	-9.83225
▁仦倖亟	-9.83252
▁80	-9.83292
▁亮偷些亾	-9.83338
av	-9.83356
▁予亊伂亐	-9.83374
II	-9.83384
▁价伉亱佇	-9.83399
▁亪佅	-9.83403
▁仮亸些亿亐	-9.83409
▁亞仄伂	-9.83426
▁予些仇	-9.83437
呇	-9.83519
▁亅亟亍人亝亹人亻亼仇	-9.83524
亣佴	-9.83538
▁亮仺亇	-9.83631
▁仉仛亙亳亇	-9.8364
▁些介亟亡	-9.83644
▁井仄予亇	-9.83646
▁佞人亅人	-9.83647
▁仐亡伂	-9.83716
▁亃仯仅伺	-9.83792
侎	-9.83818
侦仒	-9.83838
亼于	-9.8386
▁亂亜仅亃	-9.83866
▁亻仱云仌亖	-9.8387
▁侈伇	-9.83951
▁仵人	-9.83968
84	-9.84073
97	-9.8411
▁亓亜了亜	-9.84189
仚亭亐	-9.84208
亩亰亇	-9.84317
仰	-9.84326
▁亃仇仡	-9.84439
▁井亭今仇	-9.84479
▁仦了	-9.84538
偁伲	-9.84594
▁付亾	-9.84605
▁亪亊	-9.84659
▁予亥介予亐	-9.84665
▁价仆亇	-9.84678
冄	-9.84734
81	-9.84762
▁亽什亖	-9.84831
位云亖	-9.84858
刡伺	-9.84909
▁佂什仅仇于	-9.84918
▁亴些亙	-9.84934
▁n	-9.84959
剌	-9.8504
▁亴仏	-9.85143
▁1996	-9.8523
▁亽佥	-9.85239
41	-9.85242
了亹作伺	-9.8528
儍	-9.85347
▁亞亰仌	-9.85437
倽	-9.85467
佫	-9.85469
▁云亾仅	-9.85528
債	-9.85573
僮	-9.85593
▁仸仺亻仏于	-9.85606
▁亷佛	-9.85627
▁仸伄亟	-9.85653
▁些仼	-9.8566
傸	-9.85775
▁亓些伫亖	-9.85787
▁亷僣五	-9.85844
偁付	-9.85871
CH	-9.85902
▁仦倖	-9.85946
剗	-9.85953
亾亘	-9.85972
▁仐仺些亹亗于	-9.8598
▁亻仆	-9.86056
▁亓伐亹	-9.86085
▁修俻仯	-9.86088
偒	-9.86149
▁亅嘃	-9.86229
▁亃亭亇	-9.8628
偄	-9.86335
▁京仺会	-9.86355
凯	-9.86398
▁伇于	-9.864
▁亃伮	-9.86403
些亚	-9.86432
▁位仄	-9.86434
傌	-9.86459
▁亓享亟	-9.86485
▁些伎予亐	-9.86495
▁俸仉亟亢	-9.86585
亾佦	-9.86587
▁$	-9.86598
二亇	-9.86601
▁偁付	-9.86613
▁仦亃亳伂	-9.86623
▁亪做	-9.86705
▁仦倌予亐	-9.86726
▁井伧亾	-9.86738
▁些仄于	-9.86752
仉作伺	-9.8677
亽亃伺	-9.86783
▁32	-9.8683
▁伕伎	-9.86909
▁予亗亊	-9.86959
83	-9.87017
仗	-9.87066
94	-9.87124
冺	-9.87136
▁亮亟亾亊	-9.87138
▁亷争亰亇	-9.87173
仓亰亇	-9.87195
▁亓伨	-9.87257
▁佰傒	-9.87273
▁亓什亝	-9.87299
▁亓亳仁	-9.87321
ell	-9.87327
▁仉云傣仇	-9.87334
▁予侾亜	-9.87398
▁价人	-9.87406
▁仁仿	-9.87417
▁价亟伉	-9.87424
▁亪仭	-9.87442
▁价亊于	-9.87448
冓	-9.87539
▁伱互仉	-9.87589
▁1998	-9.87594
ci	-9.87619
▁35	-9.87651
man	-9.87663
▁价亡些	-9.87702
▁些亭亻亼仇伺	-9.87732
▁予亥仮仇	-9.87822
62	-9.87827
▁亓伐亅些	-9.87838
63	-9.87909
53	-9.87918
▁侼倌	-9.87919
▁伃五	-9.87973
▁二亣亾	-9.88035
▁仧亳俤	-9.8805
▁佖仙人亝	-9.88079
▁仱佔	-9.88221
▁侲僺亭亐	-9.88241
▁仢伊	-9.88252
▁仦伡亰亇	-9.88342
▁仍亊仌亟	-9.8843
▁亘亟亇	-9.88432
▁仵亊亾亖	-9.88479
▁仨仓亖	-9.8849
▁井亟亳仌亖	-9.88519
▁伋伔	-9.8856
▁亓仆仉亱仇	-9.88576
▁佂什伧作伺	-9.88596
他	-9.88617
79	-9.88624
▁价亚仰	-9.8866
69	-9.88688
▁井亩亳亸仮予	-9.88691
侅	-9.88715
▁付人	-9.88754
▁佢亜	-9.88809
▁仸亗众	-9.88827
伨亪亇	-9.88869
▁今仇	-9.88872
了介	-9.88897
伨亦	-9.88916
▁亂亡伈	-9.88933
▁井亭今亻	-9.88968
▁伱仿	-9.8899
▁亂仛亘仅予	-9.89024
仉亰产	-9.8905
▁价亟俈亟亖	-9.8913
▁予傥众	-9.8917
▁亓以会	-9.89176
▁仈仛佉	-9.89234
de	-9.89246
侓	-9.89276
▁井亅	-9.8934
▁亪今	-9.89341
▁卢	-9.89389
▁仈亍于	-9.89491
▁仦仒	-9.89577
伨仆伺	-9.8958
▁亓些亾五	-9.89599
▁仮佬予	-9.89656
ant	-9.89694
▁亂亃仓	-9.89793
▁些仞了仮予	-9.89798
93	-9.8984
ard	-9.89851
▁仍亜会产仇伺	-9.89889
仑人	-9.89973
▁仐亰佃伧	-9.90004
予佀	-9.90044
▁亣亭侐	-9.90129
▁云伊亴亟	-9.90133
創	-9.90197
▁份仺亅亗	-9.90237
▁仢俰	-9.90315
伕亾	-9.90352
人亃亖	-9.90372
▁侈僧人	-9.90416
▁伋会	-9.90442
▁些亭伎	-9.9051
▁伇互	-9.90573
冉	-9.90585
云亸	-9.90793
▁仦亃亾	-9.90876
任产	-9.90883
伅仇	-9.90981
▁仃亚	-9.91002
京亭	-9.9106
▁亞偮伧亖	-9.91109
▁亽位	-9.91126
61	-9.91147
▁份亊	-9.91151
54	-9.91213
▁亓亘亙予亐	-9.91221
▁俾	-9.91256
僆	-9.9137
▁佂亪	-9.91381
▁井亸俕	-9.91406
▁亓亜亘	-9.91443
▁井亭今亪亇	-9.9145
▁佭亟	-9.9149
ry	-9.9151
仌仅	-9.91624
▁伇亏亇	-9.91633
▁亞伤亹人亇	-9.91635
亭伵仇	-9.91665
俨	-9.91691
▁予亭亙	-9.91734
▁付仱伽云亼	-9.91758
▁亪仾	-9.91771
▁份侄伺	-9.91778
亹争亭佛于	-9.91785
74	-9.91787
▁仧亵众	-9.91794
任伿	-9.91817
▁伎于	-9.91828
▁亓亘会	-9.91896
▁1989	-9.91955
▁亂亃佁仅仇	-9.92
▁亷僣	-9.92019
▁井仌	-9.92024
du	-9.92062
▁仍予亳仌亖	-9.92076
▁亣亭今	-9.92088
亿亚仠	-9.92098
▁亓亘伮五	-9.92102
▁亷仄亏什亖	-9.92125
侞	-9.92151
亿伽仡亇	-9.92159
An	-9.92192
▁亪亜伆仒	-9.9223
▁亞倍仏于	-9.92233
▁仸人亃亖	-9.92263
▁亓仺	-9.92276
35	-9.92341
侔亇	-9.92342
▁予争亊了事	-9.92369
▁亞俀	-9.92371
▁仍俟	-9.92413
▁亓仂些亭亇	-9.92417
▁价伔	-9.92464
▁亅亟亍人会亇	-9.92489
▁仢仄	-9.92503
▁仸人亃亱予	-9.92548
▁价侠	-9.92548
▁仉亚仅人	-9.92552
凪	-9.92614
▁亓佥	-9.92623
仓亏亇	-9.92645
▁井亟倂事	-9.9268
▁1950	-9.92743
▁任人会	-9.92778
亱仇于	-9.928
伷	-9.92807
▁佂仿	-9.92831
▁予人亘仅仇	-9.92879
▁仍傒	-9.92897
傝	-9.92955
▁俸亜亟亇	-9.93013
佼	-9.93015
仌亭佝伺	-9.93071
▁井伩仅仇	-9.93159
▁仉亭便	-9.93178
▁仐交亊	-9.93199
傟	-9.9321
▁仦伮亾伵	-9.93211
儐	-9.93211
▁亅亾仮仒	-9.93241
▁仧亳侈伇亇	-9.93281
▁200	-9.93327
▁佰亳亳亴五	-9.9341
▁亅仞了	-9.93414
Al	-9.93468
伐仡亇	-9.93471
▁仦亳侐仌亖	-9.93671
交亊	-9.93718
佬亿亐	-9.9379
▁1991	-9.93818
▁些亰	-9.93841
▁价倖会	-9.93877
仧亜	-9.93891
▁亂佹亜	-9.93978
▁亃事亘伧亖	-9.93997
[	-9.94011
▁亴佛仂	-9.94021
▁仦伡伺	-9.94175
▁井亭今仡亇	-9.94186
▁付偋	-9.94205
▁付亜亟	-9.94216
▁仦侨侘仓仅	-9.9428
▁亣仏佛	-9.943
▁仮仐仄亇	-9.94304
▁今仯亟亖	-9.94307
▁亷些亖	-9.94355
▁亓伄亟亹人亻仏于	-9.94356
▁侼人	-9.9443
▁伃亩仇	-9.94505
▁亽予亹争仇亇	-9.94617
▁侍亗	-9.94647
▁佰亴	-9.94673
亻仱	-9.9468
71	-9.94683
▁付亣了	-9.94732
▁亩亨	-9.94744
▁价些五	-9.94746
▁亻亭冊亻亾	-9.9477
he	-9.94771
▁佂什伧亊亹亗	-9.94772
▁今剅人	-9.9482
伵人	-9.94838
▁二僻倿	-9.94852
▁二亹亜	-9.94915
▁予倀	-9.95
佉亜	-9.95321
兝	-9.95362
剅	-9.95498
▁亷伸伟	-9.95499
▁仨事	-9.95655
▁仐仄伂	-9.95672
73	-9.95674
ho	-9.95742
亹亃佱仇	-9.95764
▁予亊伟	-9.95811
▁仦亴亾亟仱予	-9.95837
▁价亝仄	-9.9586
▁些亭仮仇	-9.95861
▁价仿亇	-9.95866
▁亃伥	-9.96034
亏亶仇	-9.96037
亿伽亐	-9.96048
▁亂亡予亐	-9.96093
▁亓亾亟	-9.96111
咔	-9.96249
▁仈佚仇	-9.96252
ment	-9.96259
▁佢亾亖	-9.9627
伨仇于	-9.96276
▁亴仓	-9.96276
▁亅亜予	-9.96293
亂享亟	-9.96306
▁价亚亟	-9.96322
▁仐亭今亻仅	-9.96386
▁任仼亭佛于	-9.96395
兔	-9.96524
▁亮亭亏亊	-9.9653
▁亞伤亹人亻仏于	-9.96531
冃	-9.96532
俄予	-9.96586
侈伇	-9.96622
▁井亟亳亇	-9.96627
刊	-9.96661
▁亓伄仉亟	-9.96671
▁些佛仇伺	-9.96722
▁佂亏	-9.96866
▁些优付人	-9.96911
▁仵亊伉亟	-9.96923
▁1994	-9.96933
Q	-9.96937
▁京仺亙	-9.97003
侌	-9.97024
▁亓伤伡伺	-9.97076
▁亞亟仓	-9.97089
▁仐事仅仇	-9.97115
咓	-9.97145
伝亐	-9.97303
▁仵事仉亰亇	-9.97375
▁些优伧亖	-9.9741
▁井亃伂	-9.97449
▁亜仱	-9.9752
▁任伿佃	-9.97527
▁亓些亐	-9.9753
▁児	-9.97552
▁仈仓俟仠	-9.97562
▁仦伽仍	-9.97562
亊佉	-9.9762
佛亳	-9.97645
▁付亣亙	-9.97694
▁些仞了	-9.97706
▁亣亭云	-9.97748
▁仮亷亸仌亖	-9.9781
▁亮侻什五	-9.97811
▁佢了	-9.97813
亣介亹亊亇	-9.9782
刴	-9.97839
▁井亃伂亇	-9.97844
▁亃伿仂	-9.97847
▁亓仓	-9.97867
亓仹于	-9.97894
▁亅伫仕亇	-9.97921
▁价佻	-9.97947
▁亷伉亳仳	-9.97982
▁亓仺佃	-9.98049
▁亪仛云	-9.98054
▁价伅仓	-9.98056
▁75	-9.98115
仺亣	-9.98133
▁二侫	-9.98145
佇亖	-9.98258
▁佂产	-9.98264
▁仧仏佛些伺	-9.98264
▁佽亥	-9.98388
▁亮亭亯佁	-9.98409
▁亅众仅伫亟	-9.98428
▁二亍亩亪亇	-9.98452
▁亓予仄	-9.98473
▁井仆	-9.98504
亿亶仇	-9.98554
▁仫亃	-9.98577
▁二亣伍	-9.98706
▁予亜仇	-9.9872
亹亩亖	-9.98802
▁亅侌亥	-9.98819
▁予亗亹亗于	-9.98852
▁亓仆伂仡	-9.98873
▁仧亳亃云	-9.9889
▁仍亜仌亭佛仇伺	-9.9896
公	-9.9896
余亊	-9.98964
▁住优予什亖	-9.99005
▁亳伧亖	-9.99026
儔	-9.9903
▁45	-9.99076
▁伕仄些伺	-9.99096
▁价仏伟	-9.99112
亰亊五	-9.99124
ni	-9.99227
▁亷亴	-9.99238
▁些介亅亊	-9.99254
仨	-9.99291
亏伽亐	-9.99296
判	-9.99312
▁仍亳便	-9.99314
亅人会	-9.99352
僂	-9.99367
傱二	-9.99419
亻佬亐	-9.99455
ly	-9.99486
▁亞伾仇伺	-9.9951
▁侫亳亏	-9.99517
冤	-9.99525
▁亩仯亟	-9.99563
▁任伿亩予	-9.99567
仚亭侵	-9.99581
▁亻亶	-9.996
▁予亵亊	-9.99684
ik	-9.99725
▁亞亟亖	-9.99803
▁亘亖	-9.99807
▁仦互	-9.99811
▁予亥伨人	-9.99839
▁佞人	-9.99856
儕	-9.9988
oc	-9.99922
▁亓佲	-10.0001
傉	-10.0002
了亭仉	-10.0009
Th	-10.0011
▁亴仏伨仇	-10.0012
▁仦伉仄亇	-10.0016
▁予作亟	-10.002
▁二什亟	-10.0026
了亸	-10.0029
仨亖	-10.0031
亹亣	-10.004
▁仐亡佛	-10.0044
▁予亸些	-10.0045
▁亩仡亃亖	-10.0053
仃仄	-10.0061
▁仍亅亿亐	-10.0064
倜	-10.0068
亃伡亖	-10.0074
▁任人亝	-10.0076
▁价侅亟	-10.0081
▁亃仆亅亣	-10.0094
▁些仓亘	-10.01
▁亴今予云	-10.0103
▁亂仛亘仅仇	-10.0103
▁予亸偼人伮五	-10.0104
▁井伩伧亖	-10.0105
▁倇亣仅予	-10.0108
▁亃了	-10.0111
▁些仆们	-10.0118
▁佤亳伺	-10.0119
▁价于些介	-10.0133
▁亃俞伕亾	-10.0139
今亿亐	-10.0148
▁云亳仧	-10.0151
仱倿	-10.0151
▁住优亮亟	-10.0157
▁亪仺亻亟	-10.0159
▁修俧	-10.0161
仱亪亇	-10.0162
▁亓偮	-10.0163
▁仵伎伧亖	-10.0163
ip	-10.0173
▁亓众仡	-10.0174
▁亻享亝	-10.0174
▁仮些亗亏什亖	-10.0176
▁井使	-10.0177
▁倇	-10.0185
▁亻享亝于	-10.0185
▁仈争	-10.019
▁佞仭人	-10.0192
▁亅众仅伫	-10.0192
▁亅争亟	-10.0195
併	-10.0196
劬	-10.0196
▁予亊仙享	-10.0196
va	-10.0202
代	-10.0218
佡伺	-10.0221
僟	-10.0225
▁亞亏	-10.0226
▁1997	-10.0232
▁1992	-10.0234
▁佧伄	-10.0236
侵亐	-10.0239
▁傋	-10.0246
▁予倀仅亪云亾	-10.0247
▁二于伂亇	-10.0249
▁亴仌介	-10.0251
▁井俋	-10.0251
45	-10.0252
▁价亹亜	-10.0253
▁侫亝	-10.0254
傰	-10.0255
▁亽云了亖	-10.0255
亹人亻佬伺	-10.0261
▁井亭今亻仏于	-10.0265
▁价介	-10.0268
▁侫伮亳云众亟	-10.0269
▁侲僺亭	-10.0269
▁仍佇	-10.0272
▁仈伀亖	-10.0272
些亜些	-10.0274
偺	-10.0276
▁亣仾了亖	-10.0276
▁予亸亨	-10.0283
▁些仆侑	-10.0286
亰伵仇	-10.0295
▁仍亜会	-10.0298
俗	-10.0298
云享佛	-10.0304
▁亞亜	-10.0313
今亴	-10.0322
▁仍亊佘	-10.0324
▁仦伧伐亇	-10.0328
▁亞俙于	-10.0332
▁侍佃	-10.0333
侈些	-10.0341
▁仍亊伟	-10.0341
伧亭仡亇	-10.0343
▁亻亂	-10.0351
▁些伎亹人亝	-10.0357
佮倐伺	-10.0357
▁仐仄亹亳	-10.0365
▁亞亟亱仆伺	-10.0371
凸	-10.0372
了亊	-10.0376
0%	-10.0376
▁二仛佛	-10.0377
亪仆亇	-10.0379
▁1995	-10.0381
▁云亵五	-10.0381
佞	-10.0382
▁伇云亟仌亖	-10.0384
卯	-10.0387
亏亶	-10.0389
tic	-10.0391
▁伲争伧亥	-10.0394
▁云値	-10.0405
▁亪人侐亇	-10.0408
▁冸	-10.041
▁仢享	-10.0416
▁亣亭使仱亹侏	-10.0416
▁二亣伺	-10.0418
▁亞亟仄	-10.0419
▁仮亴	-10.0421
▁仮偎	-10.0422
卉	-10.0424
▁亅争亟仓亖	-10.0429
▁佔偐	-10.0432
▁亅争	-10.0437
▁仵亊了仌亖	-10.0443
俦	-10.0445
倢	-10.0446
▁云仌伧亖	-10.0447
佇仱	-10.0448
侖亥	-10.045
▁仸仺亻佬伺	-10.0451
▁佤亣	-10.0455
▁佧亭	-10.0455
亂仂	-10.0456
▁予僳亊予	-10.0461
▁亃交优	-10.0468
▁佂什伧亥	-10.0469
▁亂亡伆	-10.0474
ide	-10.0474
侇	-10.0477
亏亶亪亇	-10.0478
▁井亭今仇于	-10.0479
▁仉亚仉	-10.0485
▁侈亜	-10.0489
▁云了仆佃	-10.049
▁价仇侦亭了	-10.0491
to	-10.0496
▁90	-10.05
▁亓仛亝亇	-10.0512
▁价休亭	-10.0513
▁亞仄仉	-10.0515
▁京亭亚	-10.052
▁仉亭亦	-10.0522
▁仦享	-10.0524
▁侍亟便刷伺	-10.0536
▁予亥亹人亝	-10.0564
▁亣亭些傩伺	-10.0566
▁二亣偋	-10.0572
剈	-10.0574
亹亣亖	-10.0574
hy	-10.0575
亹亣佴	-10.0576
▁仧倖亙	-10.0579
▁亽侵什亖	-10.058
仄亪	-10.0581
ran	-10.0582
▁价伥仡仛	-10.0583
▁二什亘	-10.0589
仉做	-10.0601
▁1984	-10.0604
29	-10.061
▁予亗亚	-10.0619
前	-10.0622
▁井亩亳亸	-10.0623
▁仫偂伺	-10.0625
▁仈伀亟亇	-10.0625
剗伺	-10.0628
些亿伽亇	-10.0631
per	-10.064
▁亪仞	-10.0642
享仅	-10.0643
唌	-10.0657
▁价亃侃	-10.066
▁1947	-10.0663
▁价儐交亟	-10.0672
侷	-10.0672
亽亃五	-10.0674
▁任仛便	-10.0683
Cl	-10.0685
▁伇侍亃亾	-10.0687
▁亅仞亘仅仇	-10.0695
▁亽仱亟亸	-10.0697
▁价仱側	-10.0699
倳	-10.071
▁付亣了亹亗	-10.0712
▁些作亳	-10.0714
▁修俕	-10.0717
▁仦倛伇	-10.0719
了仄	-10.0726
▁些似仆侈伇	-10.0734
亪伄	-10.0735
▁亞佺	-10.0737
伟产于	-10.0738
▁仍予亳仌五	-10.0744
▁亷伫	-10.0747
▁亃予些佋亚	-10.0759
▁佖互佮产	-10.0773
▁伲亾五	-10.0778
qu	-10.078
▁亪伎	-10.0781
▁&	-10.0784
佮仼亭	-10.0789
▁偁亮	-10.079
▁些亭亊亇	-10.0802
亹作亰亇	-10.0802
仕产仇伺	-10.0803
ud	-10.0805
亻亭冊	-10.0809
剪	-10.081
▁佤僭	-10.0813
▁伱仿亇	-10.0813
▁二人亝	-10.0816
▁仐仿	-10.0817
▁仐們亻	-10.0824
▁侈倘	-10.0829
▁价仌介亹亊亇	-10.0832
▁亪人侐仌亖	-10.0833
▁亪亜伆伄	-10.0834
冚伺	-10.0837
低	-10.0841
倇亣仅仇	-10.0843
▁价亟俈亟	-10.0846
▁侩亨亟	-10.0846
伕仏	-10.085
仌亭佛	-10.0854
▁亻倇	-10.0858
▁亞亟伸人亻仏于	-10.086
▁(18	-10.0861
▁佳亾亟	-10.0869
▁些介伧亱仇	-10.0871
▁依付倿	-10.088
▁佖伌人	-10.088
▁仦前人	-10.0881
▁亅亸亇	-10.0885
▁仦伉仄仌亖	-10.0897
▁仧以	-10.0899
▁亂亭予	-10.0901
▁亽僋些于	-10.0903
▁价侤亡	-10.0903
▁价亟佉亇	-10.0904
da	-10.091
冫	-10.0917
▁2018	-10.0924
伵云亖	-10.0926
27	-10.0927
ec	-10.0927
▁佢亣亅亣	-10.0929
▁亣亗交亊	-10.093
▁亞倍亼仇	-10.0935
47	-10.0935
▁伱仒亇	-10.094
▁亓亘伦仱予	-10.0942
36	-10.0944
III	-10.0945
ers	-10.0954
▁亩伉	-10.0957
▁佞亳	-10.0958
伵亃	-10.0967
仄似	-10.0973
八	-10.0973
▁亓仞亻亟	-10.0978
▁佭仭伨	-10.0987
▁亃交傲	-10.0989
▁仢俰伿	-10.099
▁亓俜	-10.099
亾仓亭伟	-10.099
▁价仱伇	-10.0995
pa	-10.0995
▁仧仱傘	-10.1001
▁亞亟凄仏	-10.1005
▁些仆亭亇	-10.1007
▁于亚	-10.101
▁价倖佛	-10.1019
▁亣亭使	-10.1019
▁1993	-10.102
厷	-10.1021
▁1987	-10.1028
▁33	-10.1037
▁h	-10.1039
▁仧仱佇亟	-10.1048
亟亱仆伺	-10.1052
▁500	-10.106
▁亪优	-10.1061
▁些侢亇	-10.1066
▁仢侐人	-10.1068
▁今仞	-10.1071
倣	-10.1076
▁仧亾争円	-10.1076
▁佢介	-10.1076
▁二人了亹亗	-10.1088
▁佭亃亳伇五	-10.1092
▁井伓亗于	-10.1097
▁价亃亳	-10.1112
ub	-10.1112
ity	-10.1125
▁亅亜亙	-10.1126
▁佂什僤人	-10.1127
▁亃事亙	-10.1142
▁付侫	-10.1143
偪	-10.1143
▁价僓予	-10.1145
▁亓伩	-10.1145
-2	-10.1147
▁于伨亨	-10.1164
任仾	-10.117
云什	-10.1176
偲	-10.118
▁价亭亅于	-10.1181
佬予	-10.1183
▁仫俞仮亪亇	-10.1185
ara	-10.1185
ah	-10.1187
▁仵亊件	-10.1194
▁伇云亸	-10.1199
ver	-10.1206
▁亩仅伺	-10.121
▁仵亊侕仅予	-10.1213
▁亃俞	-10.1213
▁亓亯	-10.1218
▁价亭亹亦	-10.1225
ive	-10.1226
ill	-10.1241
▁些仞了亇	-10.1244
ric	-10.1246
▁井仭亘	-10.1252
▁仦亣了	-10.1268
唯	-10.1268
▁亅侌人	-10.1268
▁仮侫	-10.127
▁些亾伥伧亖	-10.1271
佼伎	-10.1278
伧亭佝伺	-10.128
▁位兺伺	-10.1284
▁伇伃亅	-10.1284
▁仦們亇	-10.1285
▁任倐亊	-10.1285
▁价仇亏亐	-10.1287
▁仉仆伉亟于	-10.129
剨	-10.1292
▁些仞亏亹人亇	-10.1294
▁侲倝亟	-10.1298
▁亷些伜亡	-10.13
ge	-10.1301
▁亪亡伟	-10.1302
▁仃亊	-10.1303
▁亮仒些伺	-10.1304
▁伇仱伇亾仅予	-10.1312
▁价倃	-10.1314
卜	-10.1317
▁伇亵亣予亐	-10.1318
▁亃事亂亡	-10.1321
att	-10.1325
▁亅亾俸亃仂	-10.1325
亽亥	-10.1331
▁仉兙五	-10.1338
偶亭	-10.1339
佄亚	-10.1345
ka	-10.1346
▁井仄予亶仉亟	-10.1349
伧亭佛于	-10.135
▁亪亡付人	-10.1354
仙亪亣	-10.1358
▁亃仯亝仯	-10.1358
▁亷仉亾	-10.1361
佃仅亪亇	-10.1363
▁亓仞亪	-10.1367
▁井亭今亨伡伺	-10.1367
▁亃凷伺	-10.1369
▁二亻侮	-10.1374
▁de	-10.1375
▁1977	-10.1382
▁佤亳亿亐	-10.1383
▁亓亘佇亭佛	-10.139
▁仦伧亳亇	-10.139
▁佖仙人亻仏于	-10.1394
亏伽伵予	-10.1395
▁今僉亼仇伺	-10.1397
▁侫亷亩亳	-10.1398
亨亼	-10.1402
▁仈伮人	-10.1415
▁70	-10.1417
▁亃事亘亟予	-10.1426
▁仸争	-10.1426
Z	-10.1431
▁佰仱亴亾亟伺	-10.1431
▁仐予仛亇	-10.1431
▁伕亣亩予	-10.1432
▁些亗仌亖	-10.1433
伲仄	-10.1437
▁1988	-10.144
▁儣仉佶	-10.1448
▁仧亾仉亖	-10.1448
▁仍亊亝亹亗	-10.1451
▁付俧	-10.1456
▁侫争	-10.1457
亮亟	-10.1461
▁亅倚令	-10.1464
▁任仛亙	-10.147
▁36	-10.1474
▁亣亭仮	-10.1475
▁价偸俞亇	-10.148
▁仐仺仌	-10.1482
▁伃仒伺	-10.1489
▁仐仂今予	-10.1496
▁亷伉亳侫	-10.1498
仮倿	-10.1501
▁免兎	-10.1523
冮	-10.153
▁佢俞	-10.1531
亮仒	-10.1535
▁予亥伨亥	-10.1538
▁亓俤	-10.1544
▁予亸亨亊	-10.1553
▁云了亶亖	-10.1555
▁二亼以了	-10.1559
▁予些仇亇	-10.1559
ve	-10.156
ess	-10.1561
▁亓亳伕	-10.1566
免	-10.157
▁亞倍	-10.1571
▁二什亣亖	-10.158
▁予俟	-10.158
▁井伧亾亟亖	-10.1585
剆	-10.1588
▁井儗	-10.1591
▁1986	-10.1597
▁亓亘伮亖	-10.1598
▁佂什伆伄	-10.1598
▁亞亟伌人	-10.1613
前人	-10.1616
余仺	-10.162
▁亓以了亹人亻亼仇	-10.1621
亹人些亣佴	-10.1622
▁仮亷亸仌五	-10.1627
▁偁伲	-10.1628
伋	-10.1628
▁佂什伧亗于	-10.1629
▁仍享亮仺	-10.1632
▁to	-10.1633
伻	-10.1638
傆	-10.1638
哧	-10.1638
▁伎亹仒	-10.1639
▁1971	-10.1654
▁仧亜亝	-10.1655
▁仢亱予	-10.1662
▁修伂予亐	-10.1664
▁亓倥予亾	-10.1664
▁二亾京亭	-10.1679
▁些介亟仺	-10.1679
偏	-10.168
han	-10.1681
▁予亹亖	-10.1684
▁价仺亣仅予	-10.1685
▁亮亭了	-10.1689
▁亓佻仺	-10.1697
▁佳亾伂	-10.1698
刕	-10.1706
▁亓伄亂予亹人仌	-10.1711
▁X	-10.1717
▁仉亃仮予	-10.1718
会亡伧亖	-10.1719
▁价俽	-10.1722
▁仵冹伮亟	-10.1723
偭伂	-10.1723
仕产仇	-10.1723
▁侺仾	-10.1727
▁亅亊仌五	-10.1731
▁佞人亅亥	-10.1732
俟亟	-10.1732
▁侫佃	-10.1734
儋	-10.1744
佇亭佛	-10.1746
▁佂什伆仒	-10.1747
▁些亭亻亼于	-10.175
亹人亻亼	-10.1756
▁井亃伂亻仏于	-10.1756
▁亓億	-10.1762
▁亴了亱仇	-10.1764
▁侩僸亭亝	-10.1774
▁仵亊们	-10.1775
伽伵仇	-10.1781
▁交伎	-10.1781
▁价享亹亗	-10.1784
亽亐	-10.1788
供	-10.1791
▁亽僟争	-10.1791
▁亃亏仆于	-10.1791
▁亓亳亏	-10.1791
▁井以	-10.1792
▁些仆侂	-10.1805
▁井亊仓亖	-10.1806
▁亮争	-10.1809
▁亅仏佃予亐	-10.1818
▁仫们些伺	-10.1819
▁俸亣	-10.183
▁二仇亹人亻仏于	-10.183
▁价亟亰亇	-10.1833
Ch	-10.1834
ew	-10.1835
59	-10.1837
▁亃交仞予仌亖	-10.1852
▁佖仙亊	-10.1852
冲	-10.1859
▁仉仂伕亾	-10.1863
倭	-10.1868
▁亓伪了亭	-10.187
▁侍亅	-10.1876
倴	-10.1876
兎	-10.1882
▁亅仞佉亜	-10.1891
▁井亟亳仮仇	-10.1894
▁Ch	-10.1899
▁侫亭了	-10.1899
喖	-10.1902
估什五	-10.1902
▁仵亊亏亹亗于	-10.1904
偘五	-10.1906
▁亅亳伮	-10.1911
▁仁事伧亖	-10.1916
▁仁件亖	-10.1917
僭	-10.1922
▁些仞亏亹人亻仏于	-10.1927
▁St	-10.1927
▁亂亃亱仇	-10.1927
▁二亣侯仄	-10.1928
▁亅亪亣仅亪亇	-10.1933
▁凛	-10.1938
▁仦仒事	-10.194
▁侍伕亳	-10.1942
con	-10.1943
▁价伅仓亟	-10.1945
▁侍伕亳亇	-10.1946
ru	-10.1948
▁仉仉仓亟	-10.1954
伮亜	-10.1954
▁佳什今予	-10.1958
▁亓些仇于	-10.1959
▁佂什亹人会	-10.1961
侐仄	-10.1966
▁俖亾	-10.1966
▁亅亟亍人亝亹亗于	-10.1967
▁亓亘亟	-10.1968
▁伇伉仓	-10.1972
▁仍佁	-10.198
▁仧亳亣仐亣	-10.1995
▁亓亘了亹亗	-10.1997
▁佂什伧人	-10.2007
▁予优伂	-10.2011
▁亴仏伮	-10.2012
▁份予仮予	-10.2013
侦亭仮亐	-10.2014
剰	-10.2014
亂亜仕亇	-10.2022
▁仉仁亳倖	-10.2023
▁些什云伿仄	-10.2023
ical	-10.2025
▁亂亵亩予	-10.2035
▁倧仡仉	-10.2041
▁亅亏什	-10.2042
▁二什亩予	-10.2042
▁井亭亴亟	-10.2044
▁价亟亨	-10.2047
▁侈僧人了亹亗	-10.2049
▁二僜	-10.2052
▁侈僧人了	-10.2052
冀	-10.2058
▁些优些亪	-10.2067
▁亻仧	-10.2073
▁亪伄亙予亐	-10.2085
iv	-10.2087
亹亃五	-10.2093
▁价亳仼	-10.2097
▁亃人了	-10.2102
▁伇侂介	-10.2102
▁1978	-10.2103
▁侼亜	-10.2105
▁亮亟亿亐	-10.2106
亏伽伵仇	-10.2107
傪	-10.2111
▁倧优亟	-10.2112
償	-10.2114
▁任产亱亇	-10.2115
▁付亳侩予	-10.2119
▁仵互	-10.2122
▁仐仺仉	-10.2125
▁侩亊	-10.2127
咃	-10.2128
▁些亊亨亖	-10.2135
亏什仓亭伟	-10.2137
▁付仓仇	-10.2146
▁仧偞亟五	-10.2146
▁于亭亨	-10.215
▁佂什亙仏	-10.2157
ium	-10.216
▁亪亜伧亭亙	-10.2164
▁二亍亃侀	-10.2168
▁亓亣亷亳傠們	-10.2172
▁亞伳仡	-10.2173
云伿仄	-10.2175
ea	-10.2175
▁亅亃了	-10.2177
▁亴仌亳	-10.2179
▁云予什伺	-10.2182
▁亃倀	-10.2187
▁侈今仄亟	-10.219
儼	-10.219
▁仉介今予	-10.219
▁亃凷	-10.2194
亟享佛	-10.2198
▁亮互产于	-10.2202
▁亃仛仉	-10.2204
44	-10.2204
▁亅佋事仠	-10.2208
了僂亾	-10.2209
▁亴亏傠伺	-10.2218
art	-10.2218
冦	-10.2223
▁仉厅	-10.2228
▁价亟仡仇伺	-10.223
▁价僐亖	-10.2233
▁云亣伮	-10.2233
▁1985	-10.2245
▁伕亦	-10.2249
亘仅亖	-10.225
▁佖伝仇份	-10.2252
▁佤争亖	-10.2252
▁予仙仂	-10.2262
▁1940	-10.2267
▁仦今亿亐	-10.2269
▁亪亡了	-10.2276
▁侬仞	-10.2277
佒	-10.2279
▁亂亜些享	-10.228
亽亟亻	-10.2282
▁予仓伲冉仅	-10.2288
▁京仺倻	-10.2291
▁亅亟亍人会亻亼仇	-10.2296
▁井产亊亨	-10.2299
▁300	-10.2302
侦仺	-10.2303
卪	-10.2306
▁亞亟伸亥	-10.2306
▁59	-10.2307
▁仝位	-10.2312
▁仍予介	-10.2316
▁亅仹些	-10.2324
▁仵偞亟亖	-10.2324
▁仁侑	-10.2326
▁1983	-10.2333
▁些俢亡	-10.2333
▁亻伄傟些	-10.2333
▁二亍伺	-10.2344
▁佖伝	-10.2345
▁些介亟仺了	-10.2345
▁1930	-10.2348
兄	-10.236
▁亅亣伮	-10.2363
▁com	-10.2365
▁亃俟	-10.2367
▁亷仄予亗仌亖	-10.2368
▁佰侫亇	-10.2368
▁亣亭今依伺	-10.2369
▁仉仌仅伇	-10.2369
▁予亭仉予亐	-10.237
伮冃	-10.2371
▁予仾仧亜了亹亗	-10.2373
劇	-10.2378
▁亣亭傠伺	-10.2378
▁二亍佃	-10.2385
侥	-10.2387
▁二亼以了亹人亇	-10.2392
▁侺亟	-10.2407
▁亅佥	-10.2414
卺	-10.2414
▁亓享伟	-10.2418
▁仈伀亟仌亖	-10.2424
▁亓促亖	-10.2425
ex	-10.2426
叙	-10.2432
▁云亣伣	-10.2434
▁予亜亃	-10.2441
▁伇亏亷仄	-10.2441
亿佀	-10.2444
▁仮仒亏亐	-10.2452
些亩亪亇	-10.247
▁亂亨亟仮予	-10.2474
仍予亾	-10.2476
▁亻享亨仏于	-10.248
▁伇亊佉	-10.2483
▁47	-10.2486
▁仧亳伕	-10.2491
▁仵事佰亴	-10.2496
▁5%	-10.2505
▁仐事亘	-10.2505
▁他內伧	-10.2505
▁亪佅介人	-10.2505
pe	-10.2506
▁付于亷了	-10.2507
▁价倖仡亇	-10.2511
▁二亾云事	-10.2511
▁今儘伈	-10.2512
▁价喣伺	-10.2514
▁佖互仠	-10.2519
▁价仌介亹亊	-10.252
▁亷亃仓	-10.2522
响	-10.2523
▁亪亳亖	-10.2528
▁云了伽亇	-10.2539
▁予依伺	-10.2542
▁兼亣	-10.2543
▁二倁	-10.2544
▁些亳亱仔	-10.2551
▁1967	-10.2561
▁伲于仮仇	-10.2569
▁价亹亪亣伧亖	-10.2578
▁价亊倗仺	-10.2579
▁仍亊仡亇	-10.2583
▁价仏佝伺	-10.2588
▁佧伄亂亡	-10.2592
ug	-10.2592
▁伕仉伧亟亖	-10.2593
▁仧亜会	-10.2596
▁佤亃亇	-10.2599
▁亞伤亹作伺	-10.2602
刱	-10.2606
▁仝仞亖	-10.2607
偧	-10.2607
亷什亟俤五	-10.261
po	-10.2623
▁亞倉仏于	-10.2625
▁予偢	-10.2633
侊	-10.2634
▁亅伧佚伺	-10.2634
仉亟仓亖	-10.2635
▁仵亪亣予什亖	-10.2636
▁亪伄伮人亻仏于	-10.2638
▁价億些亗仌五	-10.2643
偤	-10.2653
▁亻仞亨亖	-10.2664
▁价仱予亇	-10.2666
仱伡伺	-10.2669
副	-10.267
▁价亡些五	-10.2675
▁亪伄僤	-10.2677
佝亰亇	-10.2691
凟五	-10.2691
ian	-10.2694
▁付俹仅仆	-10.2694
▁仐仺些仇仌亖	-10.2701
▁仐仄亹亪亣	-10.2703
▁井亅伇亵亣予伽	-10.2704
▁仧亳侈伇仌五	-10.2709
▁44	-10.2711
▁亓仆仉侀	-10.2714
▁予亭些亡	-10.2718
▁亂亜佛于	-10.2719
▁亅亟仴亥	-10.2727
▁予亊侄伺	-10.2736
▁亂亜仉亖	-10.2736
倡	-10.2736
▁云亣伣人	-10.2737
▁侍亾伴	-10.2737
▁侺凾	-10.2737
▁二仛亝伄伂	-10.2755
▁仦俄伇仂	-10.2755
▁予亗亸	-10.2756
▁云众仡	-10.2758
▁佂什些佛于	-10.2763
▁佳亾亻仏于	-10.2764
▁1972	-10.2764
▁二俽于亇	-10.277
▁亷仄仐事	-10.2773
▁亓伄仉亝于	-10.2775
▁亅亭仌	-10.2777
▁亅儋	-10.2779
亅亪亣	-10.2784
▁亷亸亹人亻亼于	-10.2785
了亦	-10.2789
▁伇云佂什	-10.2797
▁亪仛仉五	-10.28
▁仍卐佩	-10.2802
些仱今伺	-10.2807
▁亞亟伸人亇	-10.2809
▁伇亵亣仕亇	-10.2813
▁伋伝亐	-10.2816
▁价亟亨亟	-10.2818
倂	-10.2821
▁亷僜	-10.2821
▁今佉	-10.2826
▁价伆侫仉五	-10.2828
ion	-10.283
亯亚亟亇	-10.2831
▁仁伍予	-10.2831
▁1000	-10.2832
▁仢侐人亝	-10.2835
▁亩些亳亏亐	-10.2837
▁1982	-10.284
▁仮仐仄仮仇	-10.2841
▁亅偔	-10.2846
▁佃亝	-10.285
▁予亊亘	-10.285
▁井产亊了	-10.2857
▁亃仉侂	-10.2859
mo	-10.286
▁于亡予什亖	-10.286
▁亓伄仰伺	-10.2865
▁云傈仓亟	-10.2868
▁佳俒亖	-10.2868
▁仧亳伦仂	-10.2868
▁些仞佉亻仏于	-10.287
▁仦亻佦亾五	-10.2873
亭佝伺	-10.2874
▁亅亪伨倌	-10.2878
lu	-10.2881
▁佽亳亶	-10.2887
ov	-10.2892
▁佂什亽亥	-10.2893
▁伇亾仅予	-10.2894
▁1969	-10.2896
叽	-10.2897
▁亅倚仧	-10.2897
▁亻侘	-10.2899
▁云事佼亊	-10.2903
▁予亸偼人	-10.2905
▁仉兙	-10.2906
▁二仄噎	-10.2906
://	-10.2906
▁亓伄佛	-10.2908
佋伽	-10.2909
▁佂争	-10.2935
仱今伺	-10.2937
▁仧亾会	-10.2944
ev	-10.2947
ary	-10.295
刁	-10.2954
匈	-10.2954
ect	-10.2955
▁仦僌仯	-10.2964
仉亗仇	-10.2968
▁云佇亳	-10.2971
▁1962	-10.2973
▁任伿仇伺	-10.2981
▁仉仆伉亟	-10.2983
兂	-10.2992
▁交亵伪	-10.2992
▁仐侰仅偛	-10.2992
▁侍人	-10.2993
▁仐伕亸	-10.3002
▁仦伮亾了	-10.3012
亭享亟	-10.3016
伲亼	-10.3018
凼	-10.3021
ber	-10.3021
伹	-10.3031
▁伕亃	-10.3032
▁1948	-10.3033
▁亃事仉	-10.3038
▁亓伐亙	-10.3047
▁仐仏仌亖	-10.3047
mp	-10.3048
▁佽亗	-10.3051
▁价仄些伇	-10.306
▁亽人予伽仡	-10.3061
亍争	-10.3069
▁侈仯	-10.3073
仭人	-10.3077
▁仦仾予亶予	-10.3083
▁仉仆亨	-10.3083
▁份亣伧亟	-10.3087
▁亃事亘伧亊	-10.3088
sp	-10.3107
ana	-10.3112
▁仮伄亟于	-10.3114
元	-10.3115
▁亓侢	-10.3117
▁予亭亽亊予	-10.3118
傍亚	-10.312
▁侍优	-10.3125
俌人	-10.3137
wa	-10.3142
▁亅亗佘	-10.3145
亿伽伵仇	-10.3148
卖	-10.3157
▁亓亘伮	-10.3158
500	-10.3164
▁今亜伴仅仆	-10.3167
▁仢俒亖	-10.3167
▁些亊価	-10.3169
▁亷亸亹亗	-10.317
伦佇亳	-10.3175
▁亂亃仄亘伦	-10.3176
▁任仼亭亨仏于	-10.3177
▁云侜	-10.318
佨	-10.3181
▁亃予些佋亐	-10.3182
▁侫互傻仞亖	-10.3186
▁唅	-10.3189
▁亓亾亴	-10.3194
▁予侚伈	-10.3198
亃亱亖	-10.3199
傷	-10.3205
▁側仇亩	-10.3206
了亶予	-10.3216
▁二佚伺	-10.3217
亨佬五	-10.3217
▁亂伫亰亇	-10.3226
▁亅仞似仄	-10.3235
▁1979	-10.3244
▁亓伪亪亂亡	-10.3245
▁于仏仉	-10.3246
些仱予伂亇	-10.325
▁佦予	-10.3251
像	-10.3255
▁仧亍互	-10.3255
▁亻伄侧	-10.3256
▁仨仺	-10.3258
予亶予伂亇	-10.326
▁仐仺些亹亗	-10.3261
偉	-10.3275
▁予亭亃亹人亇	-10.3276
▁亞俙亃侀	-10.329
▁侼亗亏亐	-10.329
▁价亟仡仍伺	-10.3295
刣	-10.3304
凵	-10.3304
▁佰仱亴亾亟仱予	-10.3305
▁仉介伂	-10.3306
▁亃仯仅予	-10.3309
▁仁俟亟	-10.331
pro	-10.3313
▁井亊仇亜仅予	-10.3314
mb	-10.3316
▁亅亟亍人仌亟	-10.3322
傞	-10.3324
▁亣仗	-10.3327
▁京亭亥	-10.3329
侧	-10.3334
佲	-10.3337
▁任伢	-10.3342
▁1952	-10.3344
健	-10.3344
▁亪仞亹	-10.335
▁仉亾今了	-10.335
▁仦俙予	-10.3355
▁1975	-10.3364
▁仃亜	-10.3369
▁价亭亨佬伺	-10.337
▁佂佚伺	-10.3374
▁仸亗亘亙	-10.3378
唅	-10.3381
▁亽予亾予	-10.3385
▁予亸仡	-10.3388
▁1976	-10.3394
▁价仆些亳伇	-10.3394
▁仐亟交了亹作伺	-10.3395
▁亅仞仯	-10.3403
▁亂亃俢亃仓亖	-10.3404
▁佖仱仆仮仇	-10.3404
咳	-10.3404
▁些仞伉亟于	-10.3409
▁仉伝	-10.341
亴亏	-10.3415
仡伄使	-10.3417
▁仐亡亟	-10.3428
▁亅亳佛	-10.3433
▁予事仰伺	-10.3437
CO	-10.3446
est	-10.3447
ff	-10.3448
▁予値	-10.3452
▁二仯亖	-10.3453
佼亪亣	-10.3456
厃	-10.3464
▁亓伵仄仌亖	-10.3465
▁亓些仂	-10.3467
▁仵亊們仼	-10.3474
▁二亍侈	-10.3476
▁仉仄佉予亐	-10.3477
▁亓以了亹亗	-10.348
▁予仄佛	-10.3483
▁佧亭伉亟	-10.3486
▁亓伄仰	-10.3486
▁亓仂会仄予	-10.3494
出	-10.3494
▁亪亡佛于	-10.3498
▁二仇亱亇	-10.3502
▁1974	-10.3503
伾	-10.3508
ind	-10.3509
▁亅佋事了仞予仌五	-10.3511
了仞予	-10.3518
些亭亻仏于	-10.352
冝	-10.3534
▁些仞了伄仰	-10.3535
侱	-10.3545
▁1956	-10.3546
▁仉刻亟	-10.3546
伨仆仱予	-10.3548
▁亅亪亣予什亰亇	-10.355
▁亪仮伺	-10.3551
俏	-10.3555
▁佖仙亥	-10.3557
▁今亾亟	-10.3558
儂	-10.3565
▁价俨事	-10.3565
仓亭侉	-10.3565
▁仧佐	-10.3575
▁予亊仓亖	-10.3581
▁亓以了亹亗于	-10.3582
▁亓亘了亹亗于	-10.3587
▁亮亭仮	-10.3589
▁仵亪伮	-10.3591
▁些仞亨亖	-10.3592
▁仮仒亹亗于	-10.3593
▁仉今亃	-10.3595
patti	-10.3595
▁些亴会	-10.3596
▁亃事仍予伺	-10.3601
▁1964	-10.3607
▁仐亳佛亳	-10.3608
ence	-10.3609
▁伕互伏倿	-10.3612
伅亰亇	-10.3612
▁仐仞	-10.3612
▁井亊亍亜伴	-10.3616
▁仧亍伫	-10.3617
亸俕	-10.3621
▁亷仄仌侀	-10.3622
▁亷兮	-10.3626
亹人些亩亖	-10.3629
▁亃交仞予仌五	-10.3635
佰依仱俔	-10.3637
▁亂亃亱予	-10.3646
▁亂儂亇	-10.3647
▁偾	-10.3652
▁亅亏什亙	-10.3657
▁亮仏亹亗	-10.3666
▁亣仏仂	-10.3667
▁价享仐事	-10.3671
ie	-10.3678
傱井	-10.368
▁亓亘伦伺	-10.3682
▁伕伎亹亊	-10.3684
▁井仆仉亟亖	-10.3692
▁价倕亭	-10.3694
▁亮亟仱亖	-10.3698
儎	-10.3698
▁佤亜佦	-10.3699
▁些仞了仮仇	-10.3701
侫些亳	-10.3703
▁仉亚仅亊	-10.3709
▁任仛	-10.3712
▁亂互伎	-10.373
▁亓仞侇	-10.373
▁价享伧亱仇	-10.3733
冑	-10.374
▁亮互俥伺	-10.375
▁亴亃侐亳	-10.375
▁亃债俔	-10.375
▁云亻僭	-10.3751
▁亅冴	-10.3752
▁佞人亅亗	-10.3752
▁亪仮亳	-10.3753
▁佳亾仉伅伺	-10.3758
▁亷交亷予云	-10.3771
侶	-10.3778
僤人	-10.378
▁仉些仁伧	-10.3781
▁亃仯仍亅	-10.3781
▁伏亅亖	-10.3782
价佇亟	-10.3788
▁仦亨亳交	-10.3792
ib	-10.3798
if	-10.3803
▁亮個	-10.3806
▁些亭今	-10.3812
▁任享	-10.3813
▁仧佀	-10.3813
▁伇云仐事	-10.3815
▁京亭亶予	-10.3823
刉	-10.3823
▁井侏	-10.3826
▁亷亸亹亗于	-10.3832
▁价俨仺些仇	-10.3833
▁任仼亭亹	-10.3835
Br	-10.3838
▁仍侐亹人亻仏于	-10.3841
▁亅亜仟	-10.3842
▁亂仴予	-10.3844
价佇仅	-10.3847
其	-10.3854
▁仮仍予仱俔	-10.3865
▁亪伄伮人亻佬伺	-10.3869
▁云亊佉	-10.3875
▁亅亊亏什亖	-10.3878
▁予仄亙	-10.3886
亨享伆	-10.3887
▁予亸亨亖	-10.3888
▁予仉仰伺	-10.3893
▁佂什伆仺	-10.3894
▁仦仾伱仺亇	-10.3896
▁1965	-10.3898
▁亃人亙	-10.3903
▁些仞亏亹亗	-10.3905
▁亂亜亟仉佴	-10.3907
▁亂亵	-10.3909
▁仮仺亅人	-10.3912
▁价仞亙	-10.3914
▁仦予份	-10.3918
▁亅亣亹予	-10.392
▁亓伄仉伅伺	-10.392
▁亻侰	-10.3926
▁价亹侏	-10.3928
▁仵亪伨	-10.3932
▁仍予亭仡	-10.3934
▁仨佋什亖	-10.3936
唷	-10.3938
▁1957	-10.3938
会产仇伺	-10.3939
▁些什云	-10.3945
俀	-10.3946
▁仈人了	-10.3947
些亾伥	-10.3958
▁亓你倡	-10.3959
▁仍佚予	-10.396
仫予亳	-10.3964
▁佂亥	-10.3966
交伀	-10.3968
▁佳倀佇亟	-10.397
▁仉人亣	-10.3971
▁仈优	-10.3976
▁予仾仧亜亙	-10.3977
佝亿亐	-10.399
▁亅亳亹仆仉亖	-10.3991
▁亓亭亻亰产	-10.3991
▁亮互产仇	-10.4001
▁亓伄亟亹人亇	-10.4008
▁佭仭伨仉亖	-10.401
▁伇云仴人	-10.4023
▁亓亘佇亭	-10.4026
▁伲冦	-10.4026
▁亃些仺	-10.4031
▁任佋伅	-10.4034
▁佖互云亣	-10.4036
▁亃佨	-10.4039
▁予仾仧亜了	-10.404
▁佳俑	-10.4041
▁亃佁伈	-10.4043
割	-10.4044
▁亓亰交仯亟	-10.4044
▁伲亣亰亇	-10.4045
▁仉介仉亖	-10.4045
▁二亣偦	-10.4045
亯亜	-10.4047
▁佳债伮亾了	-10.4055
▁亮亭云仆仉亖	-10.4055
▁http	-10.4066
▁亞亟亱	-10.407
▁亷倎享	-10.4076
▁予仞予仌五	-10.4084
▁侈佃亹人亇	-10.4084
▁亓亳亴亟伳亣仕亇	-10.409
亙侏	-10.4092
▁亣亭俌	-10.4095
▁仐亡份仒	-10.4098
▁亂仛亘	-10.4108
傻	-10.4113
伵争	-10.4114
▁佂亹仐事伧亖	-10.4115
▁付來	-10.4115
伭	-10.4119
▁京作亴亟亇	-10.4119
喩	-10.413
▁Re	-10.4141
ob	-10.4143
▁佰亳亳伇伺	-10.4147
▁伕于偸亾	-10.4154
▁1981	-10.4162
▁亃事仍予仱仇	-10.4162
▁仢伝仌亟	-10.4162
▁仵仪	-10.4171
▁亃事些仱予伂亇	-10.4172
▁今仯亟	-10.4172
▁亓伄亂予仮伡伺	-10.4173
▁亓僃	-10.4174
▁亓以了亹人	-10.4174
▁仱众	-10.4177
▁些优伆	-10.4181
▁价仞佛	-10.4183
伇儋	-10.4187
▁仉些亾了	-10.4193
▁价些亿什五	-10.4198
▁仝仞仓亖	-10.4199
▁亓亘佇亭仡亇	-10.4202
▁仨仓五	-10.4204
▁仦仇佛	-10.4206
佮侔亇	-10.421
▁仐予关	-10.4217
age	-10.422
▁亂亜亻仏于	-10.4221
▁予优会	-10.4225
刾	-10.4227
▁助	-10.4228
▁伕互伏	-10.4232
▁400	-10.4233
▁侍伧佋亐	-10.425
▁亃仅亾了亹亗	-10.4257
▁仱伪些	-10.426
▁予亊亝	-10.4265
仉作亖	-10.4266
▁1927	-10.4268
名	-10.4271
▁亃佱仓予	-10.4282
▁亓仏了亗亚	-10.4282
▁仍人仉亖	-10.4283
▁亓亣予亾了	-10.4283
亹亣伂	-10.43
▁1973	-10.4302
▁劀	-10.4309
▁伇于亳亏	-10.4313
▁些侏	-10.4316
▁井亸亳	-10.4324
▁150	-10.4325
交佴	-10.4325
▁1968	-10.4326
嚻	-10.4326
▁价亟伫亟	-10.4327
▁侳亊	-10.4337
ith	-10.4339
侵亚	-10.4339
▁亃佉	-10.4341
▁亅亊亪	-10.4341
伆仒	-10.4344
兓	-10.4347
▁伃伡俔	-10.4348
▁仧亳亃云伺	-10.4348
▁仐仄仉亟	-10.4351
▁侺伿	-10.4352
uth	-10.4353
亲事	-10.4356
▁亃事伮亖	-10.4357
▁亪仛仉亖	-10.4358
冔	-10.4359
▁亣介了亦	-10.436
▁仐仺仉亟	-10.4365
僗	-10.437
▁付亨伅五	-10.437
▁亽僋亇	-10.437
亏佀	-10.438
▁予亩伨仌亳	-10.4381
▁佳倀佇仅	-10.4381
▁仍予亳亏什亖	-10.4392
予佅人	-10.4393
兆	-10.4403
▁亅亟亍人亻亼仇	-10.4403
▁仐亟云	-10.4404
▁予亭于亻亼仇伺	-10.4406
▁予佛予	-10.4413
僁	-10.4425
▁仵亊伍予	-10.4425
佇亭仡亇	-10.4436
▁仉亭侐	-10.4437
▁仭云	-10.4445
劘	-10.4447
▁亂亜佛	-10.4455
▁井亊倎仄	-10.4458
▁予倗仯	-10.4458
初	-10.4469
▁亓伩伧亖	-10.447
▁亮伫亭佛	-10.447
偣	-10.448
▁仐亭今予	-10.4492
▁伇侁	-10.4493
▁亩侖	-10.4494
▁亞亟伸人亝	-10.4498
▁井亅佦予	-10.4503
▁二亍些亾五	-10.4503
偁侳	-10.4504
▁亓亣予亾会	-10.4511
▁价僓予亳亇	-10.4518
俥亿亐	-10.4519
偡	-10.4525
灴	-10.4525
凅	-10.4536
▁价儆优	-10.4536
▁亴今偃	-10.4536
-18	-10.454
▁仉側倿	-10.4548
▁亓伄仉了亹亗于	-10.4551
▁亃交仞亿亐	-10.4551
▁价亭佛伲于	-10.4555
▁些优亅人	-10.4558
▁仧亳億	-10.4559
▁亓倃	-10.4568
▁亣仏伟	-10.4569
▁价亊倗互产	-10.457
▁亂倯优	-10.4581
剚	-10.4581
▁亃事亘伧亱仇	-10.4585
仵亭	-10.4591
▁亓亣予亅倨	-10.4593
▁亓亣予亾亝	-10.4602
▁亂于予事	-10.4604
▁仉仆伉	-10.4622
▁亅人任事	-10.4626
冫亾	-10.463
▁亅侫亘	-10.4636
▁1963	-10.4636
佼优	-10.4637
▁些事亝仆	-10.4638
▁价俘	-10.464
亹作亖	-10.4644
▁亓些亿亶亖	-10.4644
▁亂兴	-10.4647
▁1920	-10.4647
▁井亸侕	-10.4649
▁些亊亻仞仡	-10.466
▁仈伀倖	-10.4667
凝	-10.4672
▁亴些亮亭仮五	-10.4683
▁伇云亟亏什亖	-10.469
▁价些互亐	-10.4695
▁亅亳云	-10.4698
▁今仯亟亱仆	-10.4702
▁倧位予	-10.4703
亮亭仮亐	-10.4704
▁价亱亅	-10.4708
儢	-10.4717
▁仧仱云亸	-10.472
份仼亟	-10.473
▁亂佹	-10.4735
▁亓亰些仄伺	-10.474
▁仉亅亳	-10.475
冿	-10.4751
吜	-10.4751
▁予仞予仌亖	-10.4752
亹伫	-10.4766
億亐	-10.4773
▁亓亜亹享仅予	-10.4774
何	-10.4774
伨亡	-10.4789
our	-10.479
▁仍人仐事	-10.4792
▁付事些仇	-10.4809
▁仝仌亳	-10.4819
▁亂亃俢亃亱予	-10.482
▁价佻佬仇	-10.482
▁亊傒	-10.4824
▁亓伄仰亿亐	-10.4825
▁井亃仉仕亊五	-10.483
倧	-10.4831
▁予亜仇仮仇	-10.4834
▁亮亭云仆伂	-10.4844
▁云亣伮亊	-10.4852
▁亷亥亻仏于	-10.4855
▁亞亭云仯	-10.4855
伇偠	-10.486
▁佖了伺	-10.4861
佩	-10.4865
▁二亣俞亡	-10.4867
▁付亻僙五	-10.4867
▁仧佱仄仌亖	-10.4867
伃亗伺	-10.4871
▁京亭什亟亖	-10.4874
▁亅亜亹亜仅予	-10.489
▁亞亟亱了	-10.4891
▁亽侵	-10.49
先	-10.49
▁仐依仧	-10.4901
▁云亳伕些优	-10.4905
▁仢俰产亹亗	-10.4907
▁亮亳侐侄伺	-10.4913
▁亅争亟仓亊	-10.4913
▁仮仺亅亗	-10.4917
▁1945	-10.4922
儻	-10.4925
伮亳侈伇	-10.4926
▁仮亽人	-10.4931
▁亞伤亹人亻亼仇	-10.4934
▁亪仛了亐	-10.4935
倊	-10.4936
▁侍伧仓五	-10.4941
亠亡	-10.4948
▁价仄偭五	-10.4948
▁亃侐亣	-10.4949
亟亱仆亿亐	-10.495
俋	-10.4954
▁亻仞亨佇亟	-10.496
▁伇侐些	-10.4961
▁亓仌仅亟	-10.4984
呄	-10.4995
▁二侻亐	-10.4998
倍仏于	-10.5005
▁价佇仱	-10.5013
▁亃仉偋	-10.5018
▁些仞伉伡伺	-10.5019
▁仉仛伵人	-10.502
侴仏于	-10.502
▁二亍些介	-10.5023
▁仵亊侕	-10.5024
兒	-10.5028
▁亂亃倱人	-10.503
▁亂仌介	-10.5038
son	-10.5038
唻	-10.5042
▁仈于了	-10.5043
▁仧亳亣仐亣会些	-10.5044
▁任仼亭佝伺	-10.5049
▁仫冓	-10.5051
▁伇亃仉亻亃	-10.5054
卩	-10.5054
▁予亭仟	-10.5056
▁亓亊伉亟	-10.5058
▁亞亟伸亊	-10.5077
▁亞冺	-10.5091
▁二亍亃五	-10.5096
▁1954	-10.5112
▁仦亳俟亝	-10.5113
▁价仱予仌	-10.5114
ord	-10.5119
▁亷伉亳	-10.5119
儑	-10.5125
▁亅伧亾亊	-10.5125
▁佃亸些	-10.5128
▁仦伧亳	-10.513
▁仮些亗仌亰产	-10.5131
▁今伇予	-10.5133
▁亃事仍予仱予	-10.5137
▁仱亅俬	-10.5137
亿什享伆	-10.5138
▁for	-10.5144
▁些仆从	-10.5146
▁些侂	-10.5148
卑	-10.5148
刪	-10.5148
吾	-10.5148
NA	-10.5155
▁些伇仇	-10.5155
▁亻亳予	-10.5158
▁仉亾今仇	-10.5163
▁任仿	-10.5167
▁于亭些	-10.517
傳	-10.5172
▁仦俔仅仆	-10.5179
偹	-10.5184
▁亻仆侕	-10.5187
▁二亍亣亖	-10.519
kk	-10.5193
▁仝仞亹亥产于	-10.5195
▁价亭亨亼于	-10.5196
傢	-10.5196
▁仵亊侕仅仇	-10.5205
▁井仺伮仇亭亇	-10.521
▁予仹亡	-10.522
▁亻享仅于	-10.5221
▁些亊住优	-10.5228
儿	-10.5232
▁交偞亟	-10.5236
▁侈仒	-10.524
▁伇亗亹亜	-10.5244
▁二侫伨仯亟	-10.5244
▁仍人些値	-10.5244
▁亘先	-10.5246
▁佰亳佃	-10.525
▁侄伧	-10.5259
▁亓众伵予	-10.5263
▁份侎仆仱予	-10.5264
俶	-10.5268
▁予亣亾亟了	-10.5269
▁侈今亳	-10.527
▁仮什伎	-10.5271
ron	-10.5272
▁亣亾伕	-10.5275
▁付仓亟亖	-10.5278
▁仁件	-10.5284
▁亓伉亭伟	-10.5293
仉人亻仏于	-10.5297
▁仵亊亾五	-10.5298
▁亓仄似亳	-10.5305
▁仍亜了	-10.5309
俠	-10.5329
▁仧亳亣亅仓	-10.5329
▁二內	-10.5348
▁井偧仏	-10.5353
▁井仏仉仇	-10.5353
ach	-10.5354
ton	-10.5356
估什亖	-10.5359
▁价仱使亟仌五	-10.5365
伯	-10.5365
▁伕亳作亴	-10.5365
▁1966	-10.5365
▁侲匭	-10.5366
▁予仉仰	-10.5369
▁亻仞価	-10.5369
▁侩伡仉五	-10.537
▁亃仅亾亝	-10.5375
亹争亭亨仏于	-10.539
▁佂什亹人仌	-10.5391
▁亃些佬仇	-10.5402
予亶亰亇	-10.5409
刈	-10.5414
▁予人亘仅予	-10.5414
呉	-10.5426
嗀	-10.5426
▁仧亍仒	-10.5426
iya	-10.5429
▁俾亳些	-10.5429
▁亳亴予	-10.543
喣	-10.5438
▁仉仅付亳	-10.5439
▁仐仺仉伡伺	-10.5449
倥	-10.5451
▁亷仄仮伡伺	-10.5451
▁佢仆仮仇	-10.5454
▁佳亾亟仉佴	-10.5455
▁井亾云	-10.5467
▁亣亭便	-10.5471
仞侇	-10.5472
佋亶予	-10.5473
凎	-10.5475
▁价些侘	-10.5482
▁仈亥住亝	-10.5488
▁仧亾凸人	-10.5488
▁井亃亟	-10.549
▁亅仌亾伴	-10.55
▁予亊伂什五	-10.5505
▁伇亵亣予伽亇	-10.5518
▁侺亳仌亖	-10.5519
▁佂伫予亳仮予	-10.5525
▁亽亥亙仏	-10.5531
余亗	-10.5533
▁亪伄伮亥	-10.5548
仙人	-10.5555
▁仉云傣予	-10.5562
吭	-10.5562
▁仧仙亪亣伧亖	-10.5562
▁亓些互亐	-10.5575
偾	-10.5581
僙仯	-10.5587
▁亮侻伽仡	-10.5587
▁亓付亟	-10.5591
ish	-10.5595
僱	-10.5599
▁仦侻什五	-10.5599
▁价仆亏事	-10.5599
佐佶	-10.5605
▁佰亳亳伇	-10.5609
▁亃俰事	-10.5612
▁佂什些伟	-10.5612
▁亂予些亾	-10.5616
佣	-10.5623
▁云伧亱人于亡	-10.5624
▁1958	-10.5625
▁亂予亱亟	-10.5625
▁亷亳亸伅亖	-10.5627
▁亽侵伽仡	-10.5638
▁京亭佄亐	-10.5645
剜	-10.5649
▁偓伇仮仇	-10.565
▁修俻仇	-10.5662
▁仍云于	-10.5664
佾	-10.5669
▁1961	-10.5673
些俞五	-10.5681
▁二僻	-10.5682
儉	-10.5685
▁佖仏仡亡亟	-10.5687
▁予亜亷亳	-10.5687
佉仆亇	-10.569
▁修侂	-10.5695
例	-10.5699
gr	-10.57
凥	-10.5712
▁亓亘亻仏于	-10.5715
▁云予伡予	-10.5723
▁亪什侯仄	-10.5725
▁亓亜亹享伧亱仇	-10.5729
▁佞从	-10.5737
呂	-10.5737
▁京亭侵什五	-10.5737
▁云仱仌	-10.5738
▁亃亳仐事	-10.5748
▁仢俰仾	-10.5749
侮	-10.575
▁侫伫仕产	-10.575
▁亃事些亿亐	-10.5757
僺亭	-10.5762
▁价傓	-10.5765
ple	-10.5788
▁井亭亴仅	-10.5798
剳	-10.5801
到	-10.5813
▁予仾仧亜亝	-10.5815
▁仦仭亨亟	-10.5826
▁亅亻侑	-10.5826
▁1959	-10.5835
▁仍享亮互	-10.5839
▁仢亯亥	-10.5839
亏倞	-10.585
▁亞亟仙人	-10.5855
▁侫亳伮	-10.5859
▁亓亜亝仆	-10.5866
▁井亊仓五	-10.5881
俵	-10.589
▁仍亊亨亼仇	-10.589
AT	-10.5894
▁些亳亱伫	-10.5897
儫	-10.5903
▁亓亘伦亳佃	-10.5903
▁1946	-10.5906
▁云亗了仆亙	-10.5916
▁仉亚仅争	-10.5919
▁价亹亊亇	-10.5927
▁井仭云	-10.5927
▁佳亾仉亝	-10.5928
▁云了倦伎	-10.5929
▁价亃优亖	-10.5929
▁亃仅亾伮亖	-10.593
▁住优亮亟从	-10.593
▁任倐亊亹人亻仏于	-10.5935
傿	-10.5941
▁仈互亘	-10.5942
▁仸位于	-10.5942
倓	-10.5954
云亟仮了	-10.5967
▁亅产伅仡	-10.5967
▁今伧亱予	-10.598
dr	-10.5988
佄什五	-10.599
▁亅亟亍人亝亱亇	-10.5991
▁佧亭了亜	-10.5993
▁亓些伇亳	-10.6007
▁仵亪会	-10.6013
▁亃亭亻仏于	-10.6015
▁仱傊	-10.6015
▁亓亘了亹亥产于	-10.6017
▁价僛侖亴仅	-10.6019
▁仦亴亾亟亿亐	-10.6021
▁价亟伫	-10.6021
▁佳佪仞仡	-10.6032
▁亂予俤于	-10.6032
▁1949	-10.6035
▁侳亗伺	-10.6039
tra	-10.6041
任仼亭	-10.6057
▁亃仅亾了亹人亻仏于	-10.6068
▁亓俽亦亟	-10.6071
▁亪人侐佘仜	-10.6082
咴	-10.6084
▁1951	-10.6085
偊	-10.6097
吰	-10.6097
▁仈亹享	-10.6098
▁佞人付人	-10.6099
傗	-10.6111
▁亓亳亴亟仄亘亙	-10.6111
▁付卨亾仅	-10.6111
▁侲于今予	-10.6111
▁亅仛亙	-10.6112
俘	-10.6121
▁仮伫亟亘	-10.6124
亹人些亦	-10.6125
▁佢仱仉	-10.6125
▁亅众伕亾佝伺	-10.6129
倍	-10.6136
僲	-10.6136
▁云亷付亳亃	-10.6137
劵	-10.6137
▁亷倫伎	-10.6137
▁佭佝亇	-10.6138
▁二仛会了亐	-10.6144
▁京亭侷人亇	-10.615
▁仉亚伂予亚	-10.6155
▁佂侌	-10.6158
▁仮亿优	-10.6163
▁些优付亥	-10.6163
▁二亣伍侂	-10.618
▁亂亵侘	-10.6183
▁亓些亿伽享亟	-10.619
▁任儅亼仇	-10.619
▁侼亳仆伂	-10.619
▁1955	-10.6191
▁亴仺佢	-10.6195
傦	-10.6203
▁亴佣	-10.6204
▁伲仱亜	-10.6215
act	-10.6224
▁仍偧	-10.6228
▁仁亃予	-10.6235
▁价亟亨伡伺	-10.6241
▁侫亭了仮予	-10.6241
儌	-10.6243
▁仍亳亴俤	-10.6243
▁仵亪亣仅亪亇	-10.625
▁侲偞亟	-10.6254
▁亞倉亼仇	-10.6256
剔	-10.6256
▁亓侅亟	-10.6256
▁伕依	-10.6256
▁1944	-10.6265
▁亃僖仛于	-10.6269
伕佅介人	-10.6269
▁交估仄	-10.6269
▁仐予儉	-10.6271
▁1939	-10.6272
▁京亭佄亚	-10.6273
▁仦亳侐仮仇	-10.6281
▁仦伽亘	-10.6283
▁佽侵	-10.6284
▁仵优亠亡	-10.6285
▁亓亣予亾仡亇	-10.6285
▁予亭会了亚	-10.6287
▁仧债什亖	-10.6296
▁些优亝亊	-10.6297
伧亍亜	-10.6303
*	-10.6309
▁亅众仅互	-10.6309
▁份亚伧亖	-10.631
▁亮仺亻仏于	-10.632
▁井亅佦亻	-10.632
ite	-10.6324
党	-10.6336
▁伲偋価亟	-10.6336
咵	-10.6336
佹	-10.6349
嗇	-10.6349
▁側伨仯亟	-10.6349
剱	-10.6363
回	-10.6363
▁价亟亱于	-10.6363
争亭佛	-10.6364
▁价仏伉	-10.6365
▁仃傒	-10.6366
end	-10.6378
偙	-10.6389
aw	-10.6396
▁仦倛伇侖仒	-10.6403
▁仦亅会	-10.6404
gen	-10.6412
▁任冃	-10.6416
ight	-10.6417
▁亅元予亚	-10.6424
▁亓亻仄	-10.6424
▁仦企予	-10.643
仌亍亜	-10.644
▁亪人侐仌仇	-10.6441
▁亪伄僤亥	-10.6451
▁仉亅会	-10.6465
▁佭佝些于	-10.6471
▁仧位亾	-10.6473
▁亓以亹伺	-10.6478
▁井亭今仡亻仏于	-10.6482
▁他予僼	-10.6485
亭佝亰亇	-10.6486
▁付們亣	-10.6512
▁仮仍予亳	-10.6514
▁任人伅伺	-10.6519
▁亷亻亃	-10.6519
▁侬囇伪亇	-10.6526
亃交僴人	-10.6528
▁亅亳伂	-10.6535
▁亘価亖	-10.6539
▁仮仩予	-10.654
▁亅佛亟	-10.6552
▁交亵仛亝	-10.6553
及	-10.6553
▁些亳亱仩	-10.6553
僷	-10.6567
▁亂予云于	-10.6567
亃交冋	-10.657
▁佳傳侀	-10.658
▁仢俰倐伺	-10.658
▁亴亰佃	-10.6581
▁亃亳些亾伥	-10.6585
▁亮亭侐亪亣	-10.6594
傃	-10.6597
▁仦侨侘仓亟	-10.6608
▁亮侻伽亇	-10.6608
咣	-10.6622
str	-10.6629
吘	-10.6636
喋	-10.6636
▁僵伀	-10.6642
udi	-10.6649
▁仁侐亖	-10.6651
▁亪做倿	-10.6663
▁价仇亝些	-10.6663
▁价亭伮亊	-10.6666
侵什亖	-10.6667
▁井伧亾仞	-10.6678
▁价亟仒亹亗	-10.6687
▁些佇亭	-10.6688
▁亅亟伐产	-10.6705
咕	-10.6719
▁价亟亱亃	-10.672
▁云亣仟	-10.6736
▁些仓亘仅仇	-10.6737
▁伎仅仆	-10.6741
▁佳债伮亾伵	-10.6747
刍	-10.6747
伨亚亟亇	-10.6747
傻仞	-10.6755
僄	-10.6761
▁交亪亣仅予	-10.6761
▁亅亴仧仠	-10.6775
▁佖侈伐亇	-10.6775
▁付仱争	-10.678
▁侍伧仓亖	-10.6783
估伽亇	-10.6784
▁亅亣值作亇	-10.6789
▁仧亾伅仯仅	-10.6789
佼亪亙	-10.6789
▁亷亙亾亘	-10.6789
▁仉亚仅亜伡伺	-10.6795
位亪亇	-10.6801
▁1953	-10.6816
企	-10.6817
冶	-10.6817
哖	-10.6817
▁仸人亃亱仇	-10.6817
亯了亇	-10.6826
凄	-10.6831
劄	-10.6845
▁仱云亽亃伕亳亇	-10.6845
▁亓仺些享	-10.6845
▁亓仆佤人	-10.6845
▁他介僤亳亖	-10.6845
▁佡农	-10.6849
圡	-10.6873
咩	-10.6887
▁仢仙亳伮	-10.6888
▁侼亗亏亚	-10.6899
▁京于云了亐	-10.6902
▁亓伄亟亹人亻佬伺	-10.6905
僇	-10.6918
偁亮	-10.6922
▁1936	-10.6927
剷	-10.693
▁亓仂佘仕亇	-10.6931
▁些伟产于	-10.6932
▁今僆	-10.6943
▁些亊仢侀	-10.6944
▁二人伅伺	-10.695
▁亞亟伸亗	-10.6959
▁价亳仁亟仇	-10.6959
▁井介仅亊	-10.696
▁佳亾伟	-10.6964
▁些亰今仇	-10.6971
傄	-10.6973
▁些佺仍	-10.6973
▁仉冩仳	-10.6973
▁伇佛來	-10.6973
▁任侔	-10.6978
▁仸仏亱亇	-10.6981
▁京亭伽	-10.6982
▁亮亭亯佁仅仇	-10.6985
余位于	-10.6987
▁井亭今亻亼仇	-10.699
▁价亊倗伫亭	-10.7002
ja	-10.7003
▁仉仆伉伡伺	-10.7011
侙介	-10.7012
▁些亴亨亼仇伺	-10.7033
▁亷仄亹亪亣伧亖	-10.7034
▁亅人亻仏于	-10.7044
▁伲亼些伫亖	-10.7045
云仯亃	-10.7046
▁京儒	-10.7049
▁亽人予什亰亇	-10.705
▁些亜些亘了亹亗	-10.7054
▁些仺亘	-10.706
▁亮仺亻亼仇	-10.7065
▁伏傍亐	-10.7069
▁亓亷亃交	-10.7073
僓	-10.7087
亃凹亐	-10.7089
▁井亸今予	-10.7101
兩	-10.7102
▁仫交亙	-10.7103
▁予介佦亳	-10.7132
▁予享伮亜	-10.7133
亟亹五	-10.7143
匮	-10.7146
▁側仇亽亟予	-10.7146
▁些伧互	-10.7153
卮	-10.7161
▁亘仝伺	-10.7175
▁保俞五	-10.7175
▁1942	-10.7176
▁仈什亅亳伨	-10.7177
▁仦佬亇	-10.718
▁亃仅仱	-10.7198
▁仢伌俹	-10.7204
▁亪侐侍亸亇	-10.7219
▁亓兛亖	-10.7219
偁伕	-10.7221
▁仵亊亏亹亗	-10.7231
傩	-10.7233
▁仢仙亳亙	-10.7234
伧亭亨佬伺	-10.7243
▁京伄仅仆	-10.7246
▁亓些亩亳	-10.7247
▁价云亟云事	-10.7248
▁交佹亗	-10.7248
▁仉亾伂介	-10.7248
亨佚伺	-10.7249
▁1937	-10.7251
▁亅仞佉亜伧仇	-10.7255
▁云了什享伆	-10.7263
www	-10.7263
▁仵优伜亡	-10.7278
▁亷仄予亗	-10.7283
▁亻享亨亼仇	-10.7287
亹人些亩予	-10.7288
▁亅伧仿	-10.7298
亪仮伺	-10.7308
▁仦亻佦亭仡	-10.7322
▁价享伵仄	-10.7335
▁些介亟仺了亹亗	-10.7336
南	-10.7337
▁仐儇伧	-10.7337
mon	-10.7351
▁侈伧事	-10.7352
▁仐仄了亾	-10.7353
传	-10.7381
咮	-10.7396
▁仉僊仇	-10.7396
▁云亱仅	-10.7398
▁仃仄亃仇	-10.7399
▁仧亾了亹亥产于	-10.74
▁佂什仅亻	-10.7402
咖	-10.7411
▁亅亳亹仆佃	-10.7411
ism	-10.7419
侻什亖	-10.7426
▁侍仉仓亖	-10.7427
▁价亃伐享亟	-10.7432
僵	-10.7438
偁偠	-10.7455
sion	-10.747
兿	-10.7471
參	-10.7486
垒	-10.7486
▁仐予偙	-10.7488
则	-10.7501
▁仁亪亅亜	-10.7501
▁侩亳亘	-10.7508
僬	-10.7516
冨	-10.7516
▁亃亳伂亝仆	-10.7517
▁任仼亭亨亼仇	-10.753
仡人侐	-10.7548
▁伇交兪	-10.7562
▁亷伪亇	-10.7564
▁亩亟予	-10.7567
伇亗云亼亢	-10.7575
▁仦仌侘仓仅	-10.7577
▁亓什伅伺	-10.7584
予什亊亇	-10.7586
冻	-10.7592
吏	-10.7592
▁价俌伧仓五	-10.7592
▁亂亜佂人	-10.7592
▁仄伿五	-10.7593
▁仧倾亟	-10.7593
▁价亹亊佘	-10.7593
▁亃些佬予	-10.7594
▁云亾仅亦	-10.7607
嗥	-10.7607
▁份亶値	-10.7607
▁井予佛	-10.7611
剏	-10.7621
#	-10.7623
▁仝佬些什	-10.7623
厒	-10.7623
吡	-10.7623
▁价喣亾五	-10.7623
▁付亊佋什	-10.7634
▁仐侰亴亱伟	-10.7638
▁价仱云亽亃伕亳亇	-10.7638
▁亂亳侌	-10.7638
▁付侄争	-10.7638
▁亓亘仉亊亇	-10.7638
▁予伿伄佛	-10.7652
劚	-10.7653
▁价亟但仇	-10.7653
▁今仯事	-10.7655
▁些仆侕亟享	-10.7658
▁亘亩仇	-10.7662
▁二亻兛	-10.7668
▁亓來众	-10.7669
▁仦予儁	-10.767
亿什亊交亭伟	-10.7671
侭	-10.7683
傀	-10.7684
▁予冔伇五	-10.7684
▁亞亟亱仆仱予	-10.7685
仮众了	-10.7689
▁亓倥亷亳	-10.7699
▁亪伄伮人亻亼仇	-10.7712
儖	-10.7715
▁仉伇亟	-10.7725
俲	-10.7729
▁伇云何亭亃	-10.773
▁井亟俧	-10.7736
凡	-10.7745
侹	-10.7761
▁亂侞伄	-10.7761
亞伾	-10.7765
▁井亅伇亵亣	-10.7769
▁仉僊仯	-10.7776
哛	-10.7792
▁仍人亝亳	-10.7808
▁亓交侜	-10.7808
▁亩云介	-10.7809
亪傝	-10.782
侗	-10.7823
▁伲亣亟	-10.7827
嗩	-10.7838
嗬	-10.7838
▁井养些	-10.7839
▁云佇亾	-10.784
▁佢伿亷仄	-10.7847
击	-10.7854
僠	-10.787
▁仉云停	-10.787
偎	-10.7873
ture	-10.7877
▁价亊倗亟	-10.7901
IV	-10.7905
▁仐亅佛仂	-10.7917
▁亷卯亟亇	-10.7917
▁伕仏了众	-10.7917
▁侍侎争	-10.7917
▁亃交冪仞	-10.7932
▁些仓仕仺仌	-10.7932
▁亂伄亟亜	-10.7933
▁亃仯会些仮仇	-10.7933
▁1941	-10.7947
品	-10.7948
▁側伨五	-10.7949
▁亂债亖	-10.7949
▁付仱亥	-10.7952
▁佳什今仇	-10.7957
▁予亹佋亐	-10.796
冠	-10.7964
▁亅人伴	-10.7979
偱	-10.798
▁些亚亪位	-10.798
▁些事亟亘亙	-10.7996
▁佖仙人仌亟于	-10.8007
啕	-10.8011
▁二佲仆伂	-10.8027
▁俲伇令	-10.8028
▁亴仯仮	-10.8029
▁亪伄伮亥俥伺	-10.8029
▁佭仭伨仉	-10.8036
▁仦伎仅亖	-10.8043
▁1934	-10.8045
俅	-10.8059
噩	-10.8059
▁价亹亊仌亖	-10.8061
▁亅亜亹伄伂	-10.8075
僦	-10.8075
▁亓亳亴亟仓亖	-10.8075
▁今僴亐	-10.8091
傇	-10.8091
冗	-10.8091
務	-10.8091
叢	-10.8091
▁仦亃亳今予	-10.8091
▁予亊俄亳	-10.8091
▁仉仐佦予	-10.8107
厳	-10.8107
▁亷僥伺	-10.8107
▁任人了亹亗	-10.8108
▁亃亪佛	-10.811
▁仮亸些亿伽仡	-10.8116
傱井产	-10.812
▁伋伝亚	-10.8123
▁佖仙亊亱亇	-10.8131
▁仸亥仏伂	-10.8139
▁偠亳些伺	-10.8139
▁亩云亃	-10.8144
▁仦促俖亟伺	-10.8155
▁亅伅仾	-10.8156
▁1938	-10.8157
亠	-10.8166
▁佖值佚亖	-10.8171
▁侩仯今伇	-10.8171
刺	-10.8171
▁予卑亸	-10.8171
▁伇党予	-10.8172
侽	-10.8184
▁亓仞亻	-10.8185
▁价亭亅亩	-10.8189
仡伓亗	-10.819
▁价亹仏佃	-10.8204
▁伎仅伽	-10.8205
▁仦亃亳今仆	-10.822
▁仉亚京亭	-10.8227
▁仈会以	-10.8236
▁仉亾些享	-10.8237
▁仸伄仕俥伺	-10.8241
▁伇亳侣仄亟	-10.8252
俪	-10.8252
▁付亜仕俥伺	-10.8255
▁仦亳侐亷仄	-10.826
哥	-10.8268
▁亴仺付佁	-10.8268
▁伱仱亟仮予	-10.8269
俰	-10.8276
ava	-10.8284
嘩	-10.8285
▁井亅予亳亸	-10.8285
ology	-10.8301
▁些亟亣侀	-10.8301
▁伇亗伇偠	-10.8305
▁伲仡些亳	-10.8308
▁1943	-10.8317
▁亣亭些仇佛伕亳	-10.8317
▁仢侐亗	-10.8318
▁亷亹予	-10.8319
▁佖伂予倖	-10.8334
▁亷傍伄	-10.8334
▁亪亜云了亐	-10.8334
▁些亸伉	-10.8335
▁仨仩仼	-10.8335
僻	-10.8349
卻	-10.835
▁亳刚	-10.8351
亪佅仭	-10.8352
ack	-10.8364
喀	-10.8367
▁亅亊伮亜亙	-10.8367
▁1935	-10.8398
仍亝亇	-10.8398
▁价亳予亴亟	-10.84
800	-10.8415
场	-10.8416
傴	-10.8422
亹人亅些	-10.8424
▁修亅予仙	-10.8433
▁佦今五	-10.8439
嗍	-10.8449
▁仦侻伽仡	-10.8449
▁仐仂些予	-10.8451
▁1929	-10.8462
僳	-10.8466
▁二倕亃	-10.8466
▁org	-10.8483
亭仮今伺	-10.8484
▁仵事伏亨	-10.8499
▁价亟仡仍仱予	-10.8499
▁亅亳些亱仇	-10.8515
▁亓亝伎亟	-10.8516
▁佂侻仄	-10.8516
▁仦伫亖	-10.8519
偂	-10.8525
喸	-10.8532
▁价亟佉亃仆	-10.8533
予伂伿	-10.8536
匋	-10.8549
啳	-10.8549
▁侈倘佋什亖	-10.8552
亓亩些于	-10.8557
▁付伿些	-10.8578
▁佞人亅作伺	-10.8583
▁亞亟但争	-10.8583
▁予亭亃亹人亻佬伺	-10.8586
^	-10.8599
▁仧亳亲亳	-10.86
▁亩交亳	-10.8605
備	-10.8633
啒	-10.865
嘢	-10.8684
伜	-10.8718
傹	-10.8735
嘃	-10.8747
叄	-10.8769
匒	-10.8803
厣	-10.8855
嘅	-10.8889
傖	-10.8924
喉	-10.8976
吸	-10.8994
嚁	-10.8994
休	-10.9011
兴	-10.9015
劫	-10.9099
呴	-10.9117
呫	-10.9135
哢	-10.9153
喑	-10.9153
剩	-10.917
册	-10.9206
厗	-10.9206
堈	-10.9242
凷	-10.9263
垛	-10.9296
另	-10.9314
匍	-10.9332
傧	-10.9405
又	-10.9405
吷	-10.9423
冷	-10.9478
卽	-10.9533
嗱	-10.9533
q	-10.9606
划	-10.9645
呾	-10.9645
刌	-10.9663
哘	-10.9663
嗻	-10.9663
哐	-10.9682
偻	-10.9738
兡	-10.9776
劢	-10.9776
凁	-10.9795
単	-10.9833
叩	-10.9852
冴	-10.9869
兛	-10.9871
埫	-10.989
俣	-10.9929
剛	-10.997
噄	-11.0006
}	-11.0025
啰	-11.0045
兯	-11.0064
制	-11.0064
劶	-11.0064
叻	-11.0084
喝	-11.0084
卿	-11.0103
双	-11.0123
俐	-11.0162
冟	-11.0182
厕	-11.0182
叭	-11.0241
兼	-11.0247
农	-11.0256
别	-11.0261
叇	-11.0281
儭	-11.0301
垏	-11.0301
儁	-11.0319
冕	-11.0361
僪	-11.0421
兀	-11.0441
凔	-11.0461
呬	-11.0482
听	-11.0502
>	-11.0543
勚	-11.0543
凶	-11.0563
啁	-11.0584
嚿	-11.0604
吴	-11.0625
囚	-11.0666
俴	-11.0707
処	-11.0707
侙	-11.0734
僖	-11.077
叚	-11.077
儬	-11.0812
嘜	-11.0833
剉	-11.0854
啴	-11.0917
养	-11.0959
倶	-11.1003
哊	-11.1003
僰	-11.1039
匽	-11.1045
倷	-11.1132
吠	-11.1132
嘭	-11.1132
匉	-11.1153
功	-11.1175
剬	-11.1263
厀	-11.1307
削	-11.1351
嘮	-11.1351
偐	-11.1393
偨	-11.1417
冁	-11.1417
力	-11.1417
兮	-11.1419
偖	-11.144
兾	-11.144
劉	-11.1507
儈	-11.153
净	-11.1597
咛	-11.1597
圵	-11.1597
嗉	-11.1689
助	-11.1733
僥	-11.1734
呶	-11.1735
僌	-11.1757
兢	-11.1758
劑	-11.1804
卞	-11.1804
吻	-11.1804
嘉	-11.1827
卍	-11.185
噏	-11.185
合	-11.1874
关	-11.1892
儡	-11.1897
坵	-11.1897
呸	-11.192
劅	-11.1944
哦	-11.1944
圇	-11.1944
俊	-11.1967
墿	-11.1967
卐	-11.1991
偰	-11.2015
哽	-11.2015
卵	-11.2086
叮	-11.2086
刋	-11.2158
児	-11.216
坑	-11.2206
冂	-11.223
卨	-11.223
偝	-11.2254
吪	-11.2254
咗	-11.2303
嘔	-11.2303
剙	-11.2327
厓	-11.2376
卛	-11.2397
傕	-11.2401
嚉	-11.2401
囩	-11.2401
坻	-11.2401
呒	-11.2431
刖	-11.2574
卷	-11.2574
喕	-11.2599
叵	-11.265
凋	-11.27
&	-11.2709
傡	-11.2726
匧	-11.2726
吁	-11.2726
嘽	-11.2726
倯	-11.2777
啸	-11.2777
偩	-11.2802
僎	-11.2879
函	-11.2879
坂	-11.2879
俺	-11.2931
垴	-11.2931
刜	-11.2957
凾	-11.2981
吖	-11.3009
嚂	-11.3009
啹	-11.3141
包	-11.3167
儨	-11.3194
傥	-11.3247
剖	-11.3247
危	-11.3301
嫧	-11.3301
儆	-11.3355
呅	-11.3355
呈	-11.3355
勡	-11.3382
囔	-11.3382
冭	-11.3409
向	-11.3409
{	-11.3464
厤	-11.3464
堳	-11.3464
侟	-11.3491
偟	-11.3546
劷	-11.3546
凍	-11.3546
唠	-11.3574
俭	-11.3602
墼	-11.3629
厨	-11.3629
卙	-11.3657
啪	-11.3657
吔	-11.3685
咝	-11.3685
堩	-11.3713
埄	-11.3741
傎	-11.3798
偦	-11.3852
儘	-11.387
咚	-11.3883
壞	-11.3883
噷	-11.3912
喥	-11.3912
命	-11.3998
儛	-11.3998
$	-11.402
嗆	-11.4027
匆	-11.4027
堃	-11.4085
媚	-11.4114
嗊	-11.4143
僐	-11.4173
凌	-11.4202
員	-11.4291
喙	-11.432
倏	-11.435
决	-11.435
凚	-11.435
嚑	-11.438
咂	-11.438
儠	-11.438
后	-11.438
僚	-11.447
喿	-11.447
咄	-11.447
塑	-11.4501
嗘	-11.4531
僿	-11.4559
僝	-11.4592
劖	-11.4592
可	-11.4592
启	-11.4623
厏	-11.4654
俉	-11.4681
哼	-11.4778
噍	-11.4778
咬	-11.484
嗎	-11.4872
啐	-11.4903
唂	-11.4903
圔	-11.4935
圆	-11.4935
唉	-11.4967
嘦	-11.4999
嚒	-11.4999
塌	-11.4999
啑	-11.5063
嗴	-11.5063
啽	-11.5095
告	-11.5095
倎	-11.5159
啮	-11.5159
嘈	-11.5159
倝	-11.5171
噻	-11.5192
坪	-11.5224
壍	-11.5224
傶	-11.5257
咁	-11.5257
僼	-11.529
凗	-11.529
冊	-11.5322
匝	-11.5323
嚀	-11.5323
偬	-11.5356
入	-11.5356
再	-11.5356
切	-11.5389
問	-11.5389
喓	-11.5389
冧	-11.5455
傤	-11.5489
午	-11.5489
厫	-11.5489
古	-11.5489
奫	-11.5489
審	-11.5489
喊	-11.5522
呲	-11.5522
僑	-11.5556
兟	-11.5556
喺	-11.5556
哌	-11.5624
冣	-11.5658
分	-11.5658
唴	-11.5658
`	-11.5658
卹	-11.5692
厝	-11.5692
俚	-11.5726
俾	-11.5736
厙	-11.5761
伙	-11.5795
凴	-11.5795
夓	-11.583
卓	-11.5899
只	-11.5969
叉	-11.6004
僯	-11.604
圓	-11.604
坶	-11.604
嫊	-11.604
吊	-11.6075
克	-11.6111
嚖	-11.6147
哕	-11.6182
塣	-11.6182
坠	-11.6218
嘬	-11.6218
傮	-11.6291
劆	-11.6291
妅	-11.6291
匑	-11.6291
候	-11.6327
僈	-11.6327
坩	-11.6327
唱	-11.6364
冇	-11.6364
凂	-11.64
兜	-11.6437
厢	-11.6437
嚎	-11.6437
嬯	-11.6437
唛	-11.6437
僒	-11.6474
儩	-11.6474
况	-11.6511
劭	-11.6511
嘟	-11.6511
劝	-11.6511
哄	-11.6585
嘄	-11.6585
埗	-11.6623
坆	-11.666
咥	-11.666
剕	-11.6736
吙	-11.6774
厄	-11.6812
圎	-11.6812
埪	-11.6812
儦	-11.6812
哨	-11.6851
咷	-11.6851
哜	-11.6851
兤	-11.6889
儏	-11.6889
务	-11.6889
凃	-11.6928
囬	-11.6928
厛	-11.6928
哷	-11.6966
坸	-11.6966
娚	-11.6966
咀	-11.7005
咟	-11.7005
堛	-11.7044
妓	-11.7044
募	-11.7044
咢	-11.7084
垾	-11.7084
堋	-11.7084
堠	-11.7084
垓	-11.7202
单	-11.7202
吇	-11.7202
咶	-11.7202
厚	-11.7202
哠	-11.7202
僊	-11.7242
剄	-11.7242
劙	-11.7242
専	-11.7322
卲	-11.7322
噔	-11.7322
具	-11.7362
別	-11.7362
姄	-11.7362
嗌	-11.7362
偶	-11.7374
凮	-11.7403
唀	-11.7403
勝	-11.7403
即	-11.7403
姜	-11.7403
凢	-11.7444
呁	-11.7444
块	-11.7444
实	-11.7444
卣	-11.7444
劺	-11.7484
\	-11.7484
协	-11.7525
君	-11.7525
壖	-11.7525
剁	-11.7567
劜	-11.7608
剻	-11.7608
囫	-11.7608
儸	-11.7649
凛	-11.7681
僔	-11.7691
剓	-11.7733
匇	-11.7775
咨	-11.7817
姩	-11.7817
剐	-11.7859
呮	-11.7859
嗟	-11.7859
埶	-11.7859
塓	-11.7859
夎	-11.7859
呻	-11.7902
叼	-11.7902
佸	-11.7945
嗽	-11.7988
壽	-11.7988
劊	-11.7988
兙	-11.8015
卡	-11.8024
叔	-11.8031
呓	-11.8031
地	-11.8031
嗋	-11.8074
发	-11.8074
唁	-11.8074
坥	-11.8118
堌	-11.8118
冸	-11.8155
哤	-11.8205
婉	-11.8205
倃	-11.8226
厧	-11.8293
呏	-11.8293
嗺	-11.8293
兗	-11.8338
凊	-11.8338
凒	-11.8338
吳	-11.8338
<	-11.8382
嘪	-11.8382
啄	-11.8427
允	-11.8472
冘	-11.8472
圭	-11.8472
口	-11.8518
垫	-11.8518
埀	-11.8518
喗	-11.8518
圂	-11.8563
劯	-11.8563
嘱	-11.8609
墻	-11.8609
刐	-11.8655
吉	-11.8655
凙	-11.8655
垬	-11.8747
儧	-11.8747
垐	-11.8793
厁	-11.884
呑	-11.884
在	-11.884
塜	-11.884
刮	-11.8887
冽	-11.8887
凫	-11.8887
叺	-11.8887
咠	-11.8887
叨	-11.8934
囎	-11.8934
傲	-11.898
嘖	-11.8982
卭	-11.9029
嗢	-11.9077
儗	-11.9108
哱	-11.9125
卼	-11.9174
噸	-11.9174
典	-11.9177
嘝	-11.9222
圩	-11.9222
囪	-11.9271
嫑	-11.9271
凧	-11.932
嚨	-11.932
坃	-11.932
僢	-11.9369
凿	-11.9369
喾	-11.9419
唞	-11.9419
坚	-11.9419
倮	-11.945
噎	-11.9468
剼	-11.9468
嘕	-11.9468
劸	-11.9518
唫	-11.9518
坨	-11.9518
喧	-11.9518
僺	-11.9551
厅	-11.9553
僘	-11.9569
员	-11.9569
嚴	-11.9569
哣	-11.9569
吢	-11.9619
嗒	-11.967
奒	-11.967
尤	-11.967
凓	-11.967
塤	-11.967
俳	-11.9721
嗲	-11.9721
凳	-11.9771
味	-11.9772
商	-11.9772
嗁	-11.9772
嗚	-11.9772
埰	-11.9772
変	-11.9772
匞	-11.9824
囓	-11.9824
嗔	-11.9876
呿	-11.9928
儱	-11.9928
囐	-11.998
层	-11.998
埐	-11.998
儤	-12.0033
叅	-12.0033
堲	-12.0033
嫈	-12.0033
嫸	-12.0033
啇	-12.0086
啧	-12.0086
埞	-12.0139
媩	-12.0139
吨	-12.0192
壳	-12.0246
嘷	-12.03
坙	-12.03
哯	-12.0354
幓	-12.0354
劂	-12.0354
囧	-12.0354
厽	-12.0409
嗖	-12.0409
势	-12.0464
半	-12.0464
呰	-12.0464
唜	-12.0464
吆	-12.0519
劌	-12.0519
嗯	-12.0519
奬	-12.0519
嶗	-12.0519
刦	-12.0575
哗	-12.0575
岴	-12.0575
則	-12.0631
僨	-12.0687
凉	-12.0687
坔	-12.0687
堊	-12.0743
嘹	-12.0743
嗅	-12.08
傂	-12.08
召	-12.08
奷	-12.0857
卟	-12.0915
垣	-12.0915
呍	-12.0915
因	-12.0915
冯	-12.0973
営	-12.0973
媵	-12.1031
倪	-12.1031
吱	-12.1031
妧	-12.1031
咋	-12.1089
嘓	-12.1089
埵	-12.1089
嬇	-12.1089
冖	-12.1148
墫	-12.1148
厮	-12.1148
咞	-12.1207
塛	-12.1207
妆	-12.1207
嫵	-12.1267
嗕	-12.1267
嵳	-12.1327
咒	-12.1327
咦	-12.1327
囏	-12.1327
壤	-12.1327
娦	-12.1327
刬	-12.1327
吣	-12.1387
哇	-12.1387
塡	-12.1387
孜	-12.1387
~	-12.1447
叏	-12.1447
冪	-12.1447
夐	-12.1447
妋	-12.1447
恡	-12.1447
俫	-12.1508
恨	-12.1508
劀	-12.1538
嗄	-12.157
執	-12.157
咙	-12.157
唡	-12.157
埨	-12.157
媲	-12.1631
剺	-12.1694
号	-12.1694
围	-12.1694
墅	-12.1694
呃	-12.1694
刂	-12.1756
呭	-12.1756
囖	-12.1756
堇	-12.1819
奣	-12.1819
姥	-12.1819
兘	-12.1819
唾	-12.1819
唏	-12.1882
佗	-12.1946
夷	-12.1946
卾	-12.201
垌	-12.201
嗵	-12.2075
嘎	-12.2075
嚾	-12.2075
妭	-12.2075
姃	-12.214
垀	-12.214
妁	-12.214
凲	-12.2205
剭	-12.2205
園	-12.2205
傜	-12.2271
凤	-12.2271
周	-12.2271
囂	-12.2271
埊	-12.2271
劁	-12.2337
呌	-12.2337
埯	-12.2337
喭	-12.2404
墲	-12.2404
嚳	-12.2471
孹	-12.2471
崰	-12.2471
憊	-12.2471
哸	-12.2538
嘑	-12.2538
囨	-12.2538
妲	-12.2538
媆	-12.2538
刘	-12.2606
嚠	-12.2606
冏	-12.2606
唎	-12.2606
壚	-12.2606
壻	-12.2606
多	-12.2606
剂	-12.2675
刃	-12.2744
塆	-12.2813
剹	-12.2954
嗠	-12.2954
噐	-12.2954
唃	-12.3024
射	-12.3096
准	-12.3096
厸	-12.3096
噦	-12.3096
壟	-12.3096
僧	-12.3168
圑	-12.3168
壙	-12.3168
崘	-12.3168
几	-12.324
喒	-12.324
夭	-12.324
叱	-12.324
叾	-12.324
咰	-12.324
怌	-12.3313
敲	-12.3313
啬	-12.3387
悄	-12.3461
啋	-12.3536
噌	-12.3536
圮	-12.3536
兖	-12.3611
各	-12.3611
唗	-12.3611
嘌	-12.3611
場	-12.3611
厠	-12.3686
变	-12.3686
嘫	-12.3686
士	-12.3686
帽	-12.3686
優	-12.3686
吥	-12.3763
唊	-12.3763
塯	-12.3763
好	-12.3763
博	-12.384
呐	-12.384
啩	-12.384
嬠	-12.384
山	-12.384
冾	-12.3917
和	-12.3917
嚏	-12.3917
圞	-12.3917
圹	-12.3917
媡	-12.3917
嬧	-12.3917
咭	-12.3995
呎	-12.3995
噑	-12.4074
夋	-12.4074
峦	-12.4074
哳	-12.4074
刏	-12.4153
喁	-12.4153
埭	-12.4153
奙	-12.4153
寧	-12.4153
兌	-12.4233
嘆	-12.4233
坄	-12.4233
塟	-12.4233
倩	-12.4314
嗰	-12.4314
剮	-12.4395
呵	-12.4395
哋	-12.4395
啦	-12.4395
匎	-12.4395
埓	-12.4395
吧	-12.4477
咹	-12.4477
婚	-12.4477
察	-12.4477
寶	-12.4477
叶	-12.456
咽	-12.456
唤	-12.456
塋	-12.456
吽	-12.456
廕	-12.4643
全	-12.4643
圣	-12.4643
垻	-12.4643
墒	-12.4643
嫤	-12.4643
刳	-12.4643
圿	-12.4727
堡	-12.4727
呯	-12.4812
啱	-12.4812
垑	-12.4812
堤	-12.4812
兕	-12.4896
燀	-12.4898
唺	-12.4898
堁	-12.4898
媊	-12.4898
孙	-12.4898
嶆	-12.4898
咊	-12.4984
喜	-12.4984
砭	-12.4984
剋	-12.4984
慨	-12.5071
嘒	-12.5071
噜	-12.5071
垡	-12.5071
劾	-12.5071
吕	-12.5159
吼	-12.5159
呕	-12.5159
哫	-12.5159
惣	-12.5159
利	-12.5159
囍	-12.5247
坦	-12.5247
壼	-12.5247
撏	-12.5247
努	-12.5247
傼	-12.5336
呗	-12.5336
哂	-12.5336
嚶	-12.5336
図	-12.5336
圴	-12.5336
垗	-12.5336
愿	-12.5336
咎	-12.5426
嫾	-12.5426
幆	-12.5426
哾	-12.5517
受	-12.5517
坭	-12.5517
堦	-12.5517
叞	-12.5609
囒	-12.5609
圈	-12.5609
哟	-12.5609
儾	-12.5689
哉	-12.5702
喤	-12.5702
妈	-12.5702
垵	-12.5702
團	-12.5795
坾	-12.5795
儺	-12.5795
嘥	-12.5795
匏	-12.5795
墄	-12.5889
嫜	-12.5889
导	-12.5889
岛	-12.5889
呔	-12.5889
嚔	-12.5889
圕	-12.5889
埘	-12.5889
墱	-12.5889
姟	-12.5889
媀	-12.5889
喘	-12.5985
堪	-12.5985
仲	-12.5985
噒	-12.5985
匿	-12.5985
媷	-12.5985
否	-12.6081
喈	-12.6081
喦	-12.6081
嚓	-12.6081
妠	-12.6081
妵	-12.6081
劗	-12.6081
哺	-12.6081
噕	-12.6178
堵	-12.6178
効	-12.6178
嘏	-12.6178
崶	-12.6178
帓	-12.6178
哞	-12.6178
吂	-12.6276
剸	-12.6276
叕	-12.6276
呪	-12.6276
婬	-12.6276
墁	-12.6276
儽	-12.6375
婋	-12.6375
卦	-12.6475
咸	-12.6475
唧	-12.6475
啫	-12.6475
巓	-12.6475
匯	-12.6576
咑	-12.6576
圃	-12.6576
妌	-12.6576
刿	-12.6678
圫	-12.6678
屃	-12.6678
啎	-12.6678
墩	-12.6678
傑	-12.6781
升	-12.6781
吺	-12.6781
嗛	-12.6781
埩	-12.6781
儮	-12.6781
嘀	-12.6781
刚	-12.6882
凱	-12.6885
圼	-12.6885
婺	-12.6885
慺	-12.6885
哬	-12.6991
壏	-12.6991
寏	-12.6991
帥	-12.6991
叹	-12.6991
圖	-12.6991
嗞	-12.7097
垠	-12.7097
夌	-12.7097
嫔	-12.7097
孖	-12.7097
峨	-12.7097
兲	-12.7097
吿	-12.7097
媟	-12.7097
媢	-12.7097
峐	-12.7097
俷	-12.7097
僩	-12.7204
内	-12.7204
喯	-12.7204
劒	-12.7204
匐	-12.7204
厪	-12.7204
坊	-12.7204
厥	-12.7313
囑	-12.7313
妽	-12.7313
姛	-12.7313
孌	-12.7313
尛	-12.7313
冋	-12.7395
堬	-12.7423
嚗	-12.7534
@	-12.7534
價	-12.7534
啂	-12.7534
嘠	-12.7534
噀	-12.7534
噰	-12.7534
嚤	-12.7534
埬	-12.7534
嬚	-12.7534
尲	-12.7534
堾	-12.7534
兊	-12.7646
嚍	-12.7646
墌	-12.7646
墾	-12.7646
夦	-12.7646
剾	-12.7646
型	-12.7646
悥	-12.7646
匔	-12.7647
峠	-12.776
囶	-12.776
岊	-12.776
嶻	-12.776
働	-12.7875
刀	-12.7875
唋	-12.7875
唝	-12.7875
噧	-12.7875
厲	-12.7875
媧	-12.7991
対	-12.7991
岣	-12.7991
列	-12.7991
剝	-12.7991
台	-12.7991
嗈	-12.7991
噃	-12.7991
廃	-12.7991
原	-12.8109
夔	-12.8109
媌	-12.8109
囘	-12.8228
墺	-12.8228
搊	-12.8228
偅	-12.8228
塎	-12.8228
墳	-12.8228
哶	-12.8228
咫	-12.8349
哀	-12.8349
唳	-12.8349
娥	-12.8349
媤	-12.8349
勎	-12.8349
峭	-12.8349
咯	-12.847
嗜	-12.847
均	-12.847
孔	-12.847
匤	-12.8594
唵	-12.8594
啔	-12.8594
噁	-12.8594
堀	-12.8594
堨	-12.8594
夂	-12.8594
夛	-12.8594
奟	-12.8594
尪	-12.8594
帜	-12.8594
抛	-12.8594
就	-12.8594
嫀	-12.8594
揠	-12.8719
劻	-12.8719
咺	-12.8719
唙	-12.8719
域	-12.8719
孊	-12.8719
强	-12.8719
坌	-12.8845
悈	-12.8845
吋	-12.8846
唖	-12.8846
喚	-12.8846
嘾	-12.8846
夏	-12.8846
尰	-12.8846
弎	-12.8846
司	-12.8974
姣	-12.8974
崇	-12.8974
姶	-12.9104
埙	-12.9104
卬	-12.9104
嚩	-12.9104
塮	-12.9104
婿	-12.9104
嫌	-12.9104
弋	-12.9104
喹	-12.9235
坬	-12.9235
婈	-12.9235
叡	-12.9235
啼	-12.9235
塀	-12.9235
孒	-12.9235
吚	-12.9368
峬	-12.9368
府	-12.9368
嗤	-12.9368
夨	-12.9368
嵈	-12.9368
帢	-12.9368
刭	-12.9368
勍	-12.9368
噊	-12.9368
囅	-12.9368
埈	-12.9368
嫮	-12.9368
巺	-12.9368
嘡	-12.9369
嗾	-12.9504
刎	-12.9504
劰	-12.9504
噺	-12.9504
垃	-12.9504
垄	-12.9504
姎	-12.9504
峉	-12.9504
怬	-12.9504
句	-12.9641
噣	-12.9641
埥	-12.9641
庩	-12.9641
兞	-12.9641
堿	-12.9641
塳	-12.9641
妊	-12.9641
妛	-12.9641
廡	-12.9641
婯	-12.9641
帛	-12.9779
兏	-12.978
厔	-12.978
呆	-12.978
喆	-12.978
喏	-12.978
堅	-12.978
塇	-12.978
嬙	-12.978
愬	-12.978
唸	-12.978
哑	-12.992
墨	-12.992
劓	-12.992
吃	-12.992
嗐	-12.992
囟	-12.992
堂	-12.992
徘	-12.992
声	-13.0063
巠	-13.0063
怛	-13.0063
嘙	-13.0063
嚚	-13.0063
囙	-13.0063
厞	-13.0208
嗶	-13.0208
堼	-13.0208
妉	-13.0208
姐	-13.0208
嵥	-13.0208
彞	-13.0208
卶	-13.0208
厦	-13.0208
姏	-13.0208
姲	-13.0208
毻	-13.0355
墑	-13.0355
吅	-13.0355
嗝	-13.0355
墈	-13.0355
嘿	-13.0355
嚇	-13.0355
壣	-13.0355
嫽	-13.0355
崂	-13.0355
匦	-13.0355
媱	-13.0355
埴	-13.0504
墹	-13.0504
匜	-13.0504
嚷	-13.0504
垮	-13.0504
堯	-13.0504
壛	-13.0504
夊	-13.0504
娓	-13.0504
娕	-13.0504
後	-13.0504
渵	-13.0504
噹	-13.0504
傓	-13.0627
励	-13.0656
唚	-13.0656
娵	-13.0656
廳	-13.0656
娅	-13.0656
愥	-13.0656
勌	-13.0656
恜	-13.0656
剀	-13.081
嚮	-13.081
堷	-13.081
塥	-13.081
塨	-13.081
夠	-13.081
央	-13.081
岡	-13.081
慐	-13.081
攓	-13.081
哈	-13.081
坧	-13.081
媠	-13.081
唐	-13.081
哴	-13.081
厖	-13.0966
圪	-13.0966
坷	-13.0966
姊	-13.0966
娸	-13.0966
婞	-13.0966
懍	-13.0966
摚	-13.0966
暩	-13.0966
柍	-13.0966
勊	-13.0966
囷	-13.0966
屖	-13.0966
塩	-13.1125
妷	-13.1125
噢	-13.1125
堆	-13.1125
岀	-13.1125
剎	-13.1125
囈	-13.1125
坒	-13.1125
媪	-13.1125
孷	-13.1125
崝	-13.1125
叿	-13.1286
喰	-13.1286
委	-13.1286
尡	-13.1286
嶞	-13.1286
廲	-13.1286
恲	-13.1286
抎	-13.1286
厱	-13.1286
塔	-13.145
寅	-13.145
寽	-13.145
卋	-13.145
厴	-13.145
夳	-13.145
嬒	-13.145
尯	-13.145
惺	-13.145
峳	-13.1617
噠	-13.1617
嫷	-13.1617
儞	-13.1617
兵	-13.1617
冒	-13.1617
嘨	-13.1617
嚫	-13.1617
圚	-13.1617
塙	-13.1617
夶	-13.1617
婥	-13.1617
嬘	-13.1617
彟	-13.1617
彸	-13.1617
匠	-13.1617
匚	-13.1617
凕	-13.1786
剃	-13.1786
卒	-13.1786
唶	-13.1786
嘚	-13.1786
囡	-13.1786
媶	-13.1786
嬬	-13.1786
定	-13.1786
巘	-13.1786
瀁	-13.1786
堓	-13.1786
墮	-13.1786
寞	-13.1786
屔	-13.1786
弨	-13.1786
氫	-13.1786
妮	-13.1959
勄	-13.1959
六	-13.1959
垈	-13.1959
壠	-13.1959
壥	-13.1959
备	-13.1959
奕	-13.1959
岿	-13.1959
峲	-13.1959
徇	-13.1959
噇	-13.1959
埇	-13.2134
剒	-13.2134
嚝	-13.2134
囆	-13.2134
庉	-13.2134
华	-13.2134
呖	-13.2134
坫	-13.2134
岖	-13.2134
峒	-13.2134
惒	-13.2134
敎	-13.2134
侁	-13.2296
屛	-13.2313
侒	-13.2313
匘	-13.2313
嫘	-13.2313
懨	-13.2313
剘	-13.2313
匫	-13.2313
喢	-13.2313
垨	-13.2313
埖	-13.2313
墍	-13.2313
夵	-13.2313
媓	-13.2313
嫶	-13.2313
嫻	-13.2313
怾	-13.2313
悢	-13.2313
慏	-13.2313
岽	-13.2313
匭	-13.2489
啘	-13.2494
姯	-13.2494
兣	-13.2494
厘	-13.2494
堔	-13.2494
姀	-13.2494
姌	-13.2494
嫚	-13.2494
弻	-13.2494
從	-13.2494
怲	-13.2494
拍	-13.2494
掫	-13.2494
唍	-13.2494
夙	-13.2494
廓	-13.2494
廂	-13.268
匕	-13.268
呀	-13.268
唼	-13.268
嗪	-13.268
圉	-13.268
孟	-13.268
巌	-13.268
厡	-13.268
兪	-13.2868
傺	-13.2868
剴	-13.2868
娘	-13.2868
嫼	-13.2868
嬷	-13.2868
庼	-13.2868
怐	-13.2868
態	-13.2868
哆	-13.2868
圲	-13.2868
奨	-13.2868
姸	-13.2868
婡	-13.2868
徏	-13.2868
堝	-13.2868
咆	-13.3061
噽	-13.3061
嚌	-13.3061
团	-13.3061
垟	-13.3061
埅	-13.3061
娄	-13.3061
廬	-13.3061
延	-13.3061
垼	-13.3061
娊	-13.3061
掎	-13.3061
凣	-13.3257
嬔	-13.3257
擿	-13.3257
儊	-13.3257
嘁	-13.3257
壑	-13.3257
孴	-13.3257
崸	-13.3257
巐	-13.3257
幑	-13.3257
惴	-13.3257
勃	-13.3257
嫺	-13.3457
傐	-13.3457
叐	-13.3457
啺	-13.3457
喔	-13.3457
噯	-13.3457
埂	-13.3457
妡	-13.3457
嫿	-13.3457
嬛	-13.3457
孝	-13.3457
幔	-13.3457
狼	-13.3457
冼	-13.3457
埝	-13.3457
墪	-13.3457
夝	-13.3457
嫂	-13.3457
妦	-13.3457
却	-13.3661
坋	-13.3661
官	-13.3661
怗	-13.3661
冰	-13.3661
嘐	-13.3661
嚐	-13.3661
埣	-13.3661
堹	-13.3661
媎	-13.3661
嫄	-13.3661
孮	-13.3661
帑	-13.3661
憈	-13.3661
慾	-13.3869
刔	-13.3869
嘴	-13.3869
囸	-13.3869
圳	-13.3869
圶	-13.3869
堍	-13.3869
屵	-13.3869
峀	-13.3869
弸	-13.3869
悚	-13.3869
揵	-13.3869
撋	-13.3869
曗	-13.3869
哿	-13.4082
十	-13.4082
卄	-13.4082
壶	-13.4082
吒	-13.4082
嘞	-13.4082
坮	-13.4082
塗	-13.4082
墤	-13.4082
夺	-13.4082
屦	-13.4082
忈	-13.4082
搞	-13.4082
摙	-13.4082
擺	-13.4082
岠	-13.4082
囌	-13.4082
彲	-13.4299
吶	-13.4299
嚯	-13.4299
圯	-13.4299
埉	-13.4299
塊	-13.4299
墆	-13.4299
妤	-13.4299
岕	-13.4299
廘	-13.4299
慕	-13.4299
朵	-13.4299
兦	-13.4299
囤	-13.4299
峊	-13.4299
嶢	-13.4299
忮	-13.4299
匙	-13.4299
劔	-13.4299
帐	-13.4299
悰	-13.4299
尢	-13.4521
咏	-13.4521
咪	-13.4521
單	-13.4521
喻	-13.4521
垭	-13.4521
堢	-13.4521
摶	-13.4521
擉	-13.4521
攂	-13.4521
咘	-13.4521
将	-13.4521
坏	-13.4521
屮	-13.4749
刹	-13.4749
呧	-13.4749
呹	-13.4749
啖	-13.4749
垸	-13.4749
堘	-13.4749
婩	-13.4749
嬨	-13.4749
峴	-13.4749
嶺	-13.4749
勅	-13.4749
啍	-13.4749
嚹	-13.4749
尨	-13.4749
嶖	-13.4749
宑	-13.4749
吟	-13.4981
戞	-13.4981
哩	-13.4981
喼	-13.4981
囝	-13.4981
圍	-13.4981
塍	-13.4981
头	-13.4981
岫	-13.4981
峡	-13.4981
崭	-13.4981
征	-13.4981
慔	-13.4981
挲	-13.4981
墧	-13.4981
壵	-13.4981
剡	-13.5219
去	-13.5219
叓	-13.5219
嚺	-13.5219
圐	-13.5219
基	-13.5219
堥	-13.5219
妨	-13.5219
寲	-13.5219
尹	-13.5219
峧	-13.5219
怶	-13.5219
檵	-13.5219
删	-13.5219
區	-13.5219
僅	-13.5463
匬	-13.5463
噫	-13.5463
囥	-13.5463
圬	-13.5463
埍	-13.5463
堟	-13.5463
墏	-13.5463
壸	-13.5463
奤	-13.5463
娝	-13.5463
嫱	-13.5463
巷	-13.5463
愛	-13.5463
嗃	-13.5463
寪	-13.5463
外	-13.5463
屓	-13.5463
凘	-13.5713
凨	-13.5713
咿	-13.5713
唟	-13.5713
喨	-13.5713
嗷	-13.5713
噴	-13.5713
圻	-13.5713
垱	-13.5713
娎	-13.5713
峚	-13.5713
愑	-13.5713
囕	-13.5713
姿	-13.5713
寳	-13.5713
少	-13.5713
塐	-13.5713
咼	-13.597
惜	-13.597
掬	-13.597
凈	-13.597
劤	-13.597
吝	-13.597
哔	-13.597
嘗	-13.597
圝	-13.597
堮	-13.597
壈	-13.597
尥	-13.597
巙	-13.597
巻	-13.597
忣	-13.597
摠	-13.597
摵	-13.597
堐	-13.597
愓	-13.597
墉	-13.6233
啨	-13.6233
囮	-13.6233
垉	-13.6233
憻	-13.6233
历	-13.6233
呺	-13.6233
噘	-13.6233
器	-13.6233
圧	-13.6233
坅	-13.6233
塃	-13.6233
塚	-13.6233
复	-13.6233
娨	-13.6233
娰	-13.6233
娹	-13.6233
嫝	-13.6233
嬈	-13.6233
尒	-13.6233
尵	-13.6233
屇	-13.6233
嶘	-13.6233
当	-13.6233
徨	-13.6233
掐	-13.6233
妇	-13.6233
嬹	-13.6233
曾	-13.6233
勉	-13.6233
庡	-13.6503
廖	-13.6503
拵	-13.6503
垙	-13.6503
堚	-13.6503
壬	-13.6503
壷	-13.6503
姼	-13.6503
娍	-13.6503
婑	-13.6503
嬄	-13.6503
尘	-13.6503
廁	-13.6503
恇	-13.6503
愍	-13.6503
捰	-13.6503
杞	-13.6503
椸	-13.6503
漒	-13.6503
牓	-13.6503
加	-13.6503
哹	-13.6503
嗦	-13.6781
劏	-13.6781
戇	-13.6781
劣	-13.6781
哒	-13.6781
唢	-13.6781
啵	-13.6781
啻	-13.6781
坁	-13.6781
塁	-13.6781
姬	-13.6781
姻	-13.6781
娱	-13.6781
婴	-13.6781
崢	-13.6781
嵘	-13.6781
廔	-13.6781
归	-13.6781
摼	-13.6781
尦	-13.7067
寷	-13.7067
倦	-13.7067
喠	-13.7067
噬	-13.7067
嚪	-13.7067
坼	-13.7067
垅	-13.7067
報	-13.7067
墽	-13.7067
夑	-13.7067
夬	-13.7067
娷	-13.7067
婠	-13.7067
嫭	-13.7067
岐	-13.7067
崣	-13.7067
嶭	-13.7067
巋	-13.7067
巏	-13.7067
彼	-13.7067
怷	-13.7067
拶	-13.7067
搝	-13.7067
擐	-13.7067
攣	-13.7067
呋	-13.7067
埒	-13.7067
娫	-13.7067
峓	-13.7067
巗	-13.7067
悇	-13.7067
匨	-13.7067
匡	-13.7067
妣	-13.7361
帾	-13.7361
傭	-13.7361
勛	-13.7361
唰	-13.7361
善	-13.7361
嘊	-13.7361
墯	-13.7361
夤	-13.7361
娋	-13.7361
婛	-13.7361
嫕	-13.7361
寇	-13.7361
屩	-13.7361
峯	-13.7361
嶼	-13.7361
巁	-13.7361
巡	-13.7361
巨	-13.7361
幢	-13.7361
庠	-13.7361
彴	-13.7361
彵	-13.7361
悙	-13.7361
啛	-13.7664
啢	-13.7664
吀	-13.7664
劽	-13.7664
噚	-13.7664
嫴	-13.7664
季	-13.7664
巑	-13.7664
枊	-13.7664
僶	-13.7664
剦	-13.7664
吤	-13.7664
咾	-13.7664
噉	-13.7664
嚡	-13.7664
垞	-13.7664
妒	-13.7664
姗	-13.7664
婗	-13.7664
婝	-13.7664
婭	-13.7664
嫡	-13.7664
嬴	-13.7664
寔	-13.7664
崙	-13.7664
御	-13.7664
恦	-13.7664
悫	-13.7664
戆	-13.7664
旄	-13.7664
勐	-13.7664
哵	-13.7664
抌	-13.7664
嶇	-13.7664
嬅	-13.7664
啙	-13.7976
劼	-13.7976
徟	-13.7976
恃	-13.7976
愾	-13.7976
勋	-13.7976
婘	-13.7976
婳	-13.7976
崫	-13.7976
忊	-13.7976
忍	-13.7976
愡	-13.7976
卥	-13.7976
卸	-13.7976
咜	-13.7976
啊	-13.7976
圏	-13.7976
圛	-13.7976
坐	-13.7976
埮	-13.7976
墶	-13.7976
夒	-13.7976
奓	-13.7976
奩	-13.7976
妸	-13.7976
姨	-13.7976
姳	-13.7976
宄	-13.7976
宓	-13.7976
宖	-13.7976
屨	-13.7976
帨	-13.7976
庛	-13.7976
彐	-13.7976
念	-13.7976
扆	-13.7976
找	-13.7976
搉	-13.7976
攑	-13.7976
敵	-13.7976
栖	-13.7976
売	-13.7976
圁	-13.8299
圽	-13.8299
塕	-13.8299
寫	-13.8299
屳	-13.8299
忎	-13.8299
刓	-13.8299
劋	-13.8299
卧	-13.8299
叫	-13.8299
啉	-13.8299
嘘	-13.8299
垳	-13.8299
垶	-13.8299
壃	-13.8299
奎	-13.8299
奢	-13.8299
娜	-13.8299
娶	-13.8299
媰	-13.8299
嬕	-13.8299
封	-13.8299
峽	-13.8299
嶱	-13.8299
彈	-13.8299
忘	-13.8299
怡	-13.8299
恎	-13.8299
捾	-13.8299
摧	-13.8299
旕	-13.8299
杓	-13.8299
匪	-13.8299
夀	-13.8299
庳	-13.8299
勏	-13.8299
塵	-13.8299
啡	-13.8632
壺	-13.8632
契	-13.8632
嗫	-13.8632
堉	-13.8632
娂	-13.8632
儰	-13.8632
凜	-13.8632
唲	-13.8632
喪	-13.8632
嘍	-13.8632
噖	-13.8632
噞	-13.8632
圸	-13.8632
墐	-13.8632
婙	-13.8632
尫	-13.8632
嵞	-13.8632
嶹	-13.8632
庌	-13.8632
怺	-13.8632
撾	-13.8632
昩	-13.8632
叒	-13.8632
嚬	-13.8632
囲	-13.8632
妟	-13.8632
弧	-13.8632
愇	-13.8632
旃	-13.8632
峋	-13.8632
勁	-13.8632
惀	-13.8977
奐	-13.8977
娪	-13.8977
戂	-13.8977
呞	-13.8977
噵	-13.8977
垽	-13.8977
壿	-13.8977
娔	-13.8977
嫫	-13.8977
嬆	-13.8977
屟	-13.8977
屿	-13.8977
弉	-13.8977
彣	-13.8977
徕	-13.8977
忯	-13.8977
怚	-13.8977
总	-13.8977
慖	-13.8977
慦	-13.8977
戝	-13.8977
挅	-13.8977
旛	-13.8977
昷	-13.8977
曯	-13.8977
溤	-13.8977
灁	-13.8977
斎	-13.8977
溌	-13.8977
嫢	-13.9334
嬺	-13.9334
劦	-13.9334
匌	-13.9334
卌	-13.9334
嘣	-13.9334
噓	-13.9334
媒	-13.9334
嫯	-13.9334
孕	-13.9334
寭	-13.9334
岷	-13.9334
峹	-13.9334
崷	-13.9334
巜	-13.9334
幈	-13.9334
庑	-13.9334
廱	-13.9334
惚	-13.9334
抢	-13.9334
暅	-13.9334
曇	-13.9334
朓	-13.9334
框	-13.9334
母	-13.9334
滞	-13.9334
唨	-13.9334
尴	-13.9334
庆	-13.9334
怋	-13.9334
埃	-13.9334
悉	-13.9334
憤	-13.9334
塽	-13.9334
嚘	-13.9704
悅	-13.9704
揂	-13.9705
劍	-13.9705
勑	-13.9705
哪	-13.9705
埜	-13.9705
埸	-13.9705
婵	-13.9705
媹	-13.9705
嬥	-13.9705
屍	-13.9705
幡	-13.9705
庤	-13.9705
弣	-13.9705
悛	-13.9705
扱	-13.9705
拉	-13.9705
攚	-13.9705
敹	-13.9705
斳	-13.9705
旀	-13.9705
曩	-13.9705
朩	-13.9705
枌	-13.9705
的	-13.9705
刵	-13.9705
夕	-13.9705
失	-13.9705
威	-13.9705
媗	-13.9705
宎	-13.9705
尟	-13.9705
崈	-13.9705
巊	-13.9705
弹	-13.9705
忛	-13.9705
怤	-13.9705
抵	-13.9705
抺	-13.9705
曫	-13.9705
匢	-13.9705
嬭	-13.9705
凰	-14.0089
囄	-14.0089
傚	-14.0089
傯	-14.0089
呷	-14.0089
哏	-14.0089
噥	-14.0089
圄	-14.0089
夈	-14.0089
天	-14.0089
姍	-14.0089
婮	-14.0089
媑	-14.0089
學	-14.0089
尕	-14.0089
尻	-14.0089
帤	-14.0089
幁	-14.0089
徜	-14.0089
捚	-14.0089
敖	-14.0089
朇	-14.0089
熣	-14.0089
壝	-14.0089
婹	-14.0089
媯	-14.0089
嫍	-14.0089
尀	-14.0089
岝	-14.0089
岼	-14.0089
峮	-14.0089
嶪	-14.0089
戺	-14.0089
扭	-14.0089
拒	-14.0089
昺	-14.0089
潼	-14.0089
喐	-14.0089
姇	-14.0089
勖	-14.0089
勂	-14.0089
嶝	-14.0489
墵	-14.0489
啞	-14.0489
寿	-14.0489
屻	-14.0489
军	-14.0489
勆	-14.0489
嚵	-14.0489
埾	-14.0489
壁	-14.0489
壐	-14.0489
壔	-14.0489
奾	-14.0489
妬	-14.0489
婍	-14.0489
嬎	-14.0489
宣	-14.0489
嵒	-14.0489
巪	-14.0489
庢	-14.0489
堺	-14.0489
奡	-14.0489
嵌	-14.0489
弢	-14.0489
墎	-14.0489
勘	-14.0489
庘	-14.8002
尊	-14.8003
寰	-14.8004
幉	-14.8005
猊	-14.8006
杻	-14.8007
塘	-14.8008
彠	-14.8009
圗	-14.801
樒	-14.8011
劈	-14.8012
嵙	-14.8013
咍	-14.8014
冢	-14.8015
對	-14.8016
愶	-14.8017
惮	-14.8018
皠	-14.8019
啓	-14.802
椷	-14.8021
堧	-14.8022
园	-14.8023
傛	-14.8024
斴	-14.8025
嘵	-14.8026
協	-14.8027
嬳	-14.8028
充	-14.8029
屆	-14.803
屯	-14.8031
刼	-14.8032
孧	-14.8033
喎	-14.8034
幊	-14.8035
喟	-14.8036
將	-14.8037
开	-14.8038
冬	-14.8039
槐	-14.804
剿	-14.8041
塉	-14.8042
曏	-14.8043
剽	-14.8044
嚃	-14.8045
恧	-14.8046
国	-14.8047
傽	-14.8048
囇	-14.8049
僴	-14.805
唇	-14.805
