<unk>	0
<s>	0
</s>	0
.	-2.91338
,	-3.60594
ம்	-4.58975
க்	-4.80921
ப்	-4.84653
கள்	-4.961
்	-5.06733
▁	-5.21277
த்	-5.31231
▁மற்றும்	-5.33127
▁ஒரு	-5.33806
▁(	-5.34447
)	-5.42609
▁"	-5.63499
ு	-5.64384
ன்	-5.68274
ல்	-5.69113
"	-5.69998
ும்	-5.7062
▁இந்த	-5.7534
து	-5.78116
ர்	-5.85833
ச்	-5.87258
ின்	-5.93593
ஸ்	-5.9502
ய	-5.95675
யில்	-5.95747
-	-5.99635
த்தில்	-6.07348
க்கு	-6.07815
▁இது	-6.1322
களில்	-6.14527
களை	-6.15614
ட்	-6.16964
▁என்ற	-6.18788
ன	-6.19394
யின்	-6.20624
க	-6.20951
▁உள்ள	-6.22412
ங்கள்	-6.22424
ில்	-6.22652
▁ஊராட்சி	-6.23051
:	-6.24738
▁ஆகும்	-6.25435
▁ஆம்	-6.31504
▁அ	-6.32862
▁ஆண்டு	-6.35226
ி	-6.36483
ை	-6.38348
▁க	-6.38406
யை	-6.40572
களின்	-6.406
ம	-6.43959
▁என்பது	-6.46265
த்தின்	-6.46984
வ	-6.47523
▁பல	-6.47904
▁இவர்	-6.49022
சு	-6.50523
▁அல்லது	-6.50631
த்தை	-6.54535
▁உள்ளது	-6.54841
வை	-6.5905
ரி	-6.59132
▁மக்கள்	-6.59839
யும்	-6.61316
ப	-6.61546
டி	-6.6178
▁என்று	-6.62542
த	-6.63352
ார்	-6.63991
ர	-6.64372
த்த	-6.64711
▁இருந்து	-6.65194
வர்	-6.65619
ா	-6.66394
▁முதல்	-6.66706
▁இ	-6.67518
க்க	-6.68868
சி	-6.69934
▁இந்திய	-6.7006
ஆம்	-6.70696
▁("	-6.726
மாக	-6.73178
களும்	-6.73788
வு	-6.74083
தி	-6.75343
▁என	-6.76078
ந்த	-6.78169
ப்படுகிறது	-6.79133
னி	-6.80175
மா	-6.80407
லி	-6.83304
கா	-6.84375
த்து	-6.84506
ிய	-6.84711
வி	-6.85213
ரா	-6.86044
மான	-6.86056
▁கோயில்	-6.8668
▁என்னும்	-6.87368
வும்	-6.8798
டு	-6.894
ட	-6.89942
லா	-6.90089
▁சில	-6.91347
▁பி	-6.9161
ச	-6.91649
▁7	-6.92137
▁போன்ற	-6.93057
ப்பு	-6.93119
ப்ப	-6.93984
▁அவர்	-6.94921
மை	-6.95147
யாக	-6.96608
▁கொண்ட	-6.96836
ுள்ளது	-6.98014
வா	-6.98171
▁அமைந்துள்ள	-6.98826
▁வி	-6.98968
▁தொகை	-6.98987
▁மேலும்	-6.99552
▁சி	-6.99715
ல	-7.00865
▁ப	-7.01083
▁த	-7.01354
▁ச	-7.02079
ப்பட்ட	-7.02617
▁இல்	-7.03834
யா	-7.04572
▁-	-7.0597
னர்	-7.06604
களுக்கு	-7.06928
னா	-7.07685
ாக	-7.0785
▁18	-7.08913
ங்களில்	-7.09159
பா	-7.13569
கு	-7.1378
▁எ	-7.15001
▁கா	-7.1512
வின்	-7.15294
▁வரை	-7.16025
மி	-7.18101
s	-7.19063
▁கி	-7.19199
ரை	-7.19214
▁ஆண்டில்	-7.19228
பி	-7.19568
லை	-7.19658
ங்	-7.19729
கி	-7.20533
▁மு	-7.2125
▁பயன்படுத்த	-7.21545
வே	-7.21595
▁ம	-7.22406
தா	-7.22803
க்கும்	-7.23023
▁அமைந்துள்ளது	-7.23026
▁இதன்	-7.24678
▁மா	-7.2477
▁உள்ளன	-7.25004
▁இக்கோயில்	-7.25482
;	-7.26005
),	-7.265
▁உ	-7.26756
த்திற்கு	-7.26796
▁பின்னர்	-7.27821
சா	-7.283
▁ஆ	-7.28368
னை	-7.28903
ப்பட்டது	-7.30327
ால்	-7.30932
▁ஏ	-7.31099
தாக	-7.31666
▁இருக்கும்	-7.31765
மும்	-7.31776
ங்களை	-7.31857
▁சா	-7.32287
யான	-7.34138
▁கு	-7.34526
▁மூலம்	-7.34618
▁இரு	-7.35218
ான	-7.36357
ப்படும்	-7.3736
▁கொண்டு	-7.37746
▁மாவட்டம்	-7.37906
▁தொகுதிக்கும்	-7.38542
▁ஆனால்	-7.38981
▁பேரும்	-7.3899
ட்டு	-7.3902
▁பா	-7.3932
")	-7.39923
▁தனது	-7.41185
ந்து	-7.41253
ே	-7.41953
ள	-7.42316
▁ஆகிய	-7.43138
▁அந்த	-7.4315
▁அதன்	-7.43175
▁இரண்டு	-7.43179
▁மாவட்டத்தில்	-7.43215
களையும்	-7.43376
ங்க	-7.43869
▁டி	-7.44016
▁முக்கிய	-7.44397
▁2011	-7.45016
த்தி	-7.45051
வில்	-7.45214
அ	-7.45761
யே	-7.45911
▁தமிழ்	-7.46417
றி	-7.46481
ுக்கு	-7.46942
▁தா	-7.47744
▁சு	-7.47945
ட்ட	-7.48088
ரோ	-7.48251
▁ந	-7.48502
▁வளர்ச்சி	-7.48641
▁போது	-7.50033
ரு	-7.50528
▁2	-7.50644
ற்ற	-7.5107
▁மொழி	-7.5139
e	-7.51487
▁செ	-7.5181
டை	-7.53137
▁கொண்டுள்ளது	-7.54498
▁பெரிய	-7.55295
▁ஆவார்	-7.56148
▁இருந்த	-7.56163
'	-7.56173
▁தமிழ்நாடு	-7.56358
▁பெயர்	-7.56792
மே	-7.57172
கோ	-7.57438
▁இவை	-7.57716
களைக்	-7.57906
▁தி	-7.58022
▁மே	-7.58174
▁நிலை	-7.58233
▁முறை	-7.58348
▁இக்கோயிலில்	-7.58683
ட்டி	-7.59544
யோ	-7.5967
ளி	-7.60311
ோ	-7.60577
▁துடுப்பாட்டப்	-7.60631
▁வ	-7.60857
கை	-7.60893
ச்சி	-7.61459
).	-7.61666
ப்படுகின்றன	-7.6222
▁கே	-7.6224
▁இந்து	-7.62523
▁கோ	-7.62774
▁பெண்கள்	-7.62795
லாம்	-7.62823
ரின்	-7.62961
ண	-7.63156
▁அது	-7.63236
▁தேசிய	-7.6368
▁மொத்த	-7.63797
டா	-7.64476
▁திரு	-7.64651
▁என்றும்	-7.64654
▁அவரது	-7.6473
ற	-7.6481
▁ஐ	-7.65617
களால்	-7.65988
▁ஒன்று	-7.66163
▁கால	-7.66219
▁3	-7.67275
▁தேர்ந்தெடுக்க	-7.67342
▁5	-7.67442
▁1	-7.67456
டன்	-7.6797
ழ	-7.68202
▁மீ	-7.68229
▁சட்டமன்றத்	-7.68599
y	-7.68709
று	-7.69285
பு	-7.69337
களாக	-7.69851
▁வேண்டும்	-7.69939
a	-7.6996
தை	-7.70205
▁மிகவும்	-7.70449
%	-7.70786
▁நா	-7.71213
▁வகை	-7.71311
▁உள்ளனர்	-7.71402
▁இங்கு	-7.71595
▁மூன்று	-7.71707
(	-7.71793
C	-7.71914
▁பெற்ற	-7.72223
னின்	-7.72497
▁அரசு	-7.72607
▁கீழ்	-7.72804
▁பகுதி	-7.72811
▁பிற	-7.73412
▁4	-7.7371
ங்களின்	-7.73917
ணி	-7.74095
▁தர	-7.74153
▁தகவல்	-7.74298
S	-7.74334
இல்	-7.74802
▁பூசை	-7.75446
மு	-7.75978
▁10	-7.7668
▁கல்வி	-7.76808
▁செய்ய	-7.77165
▁பட்டியல்	-7.77635
▁வந்த	-7.77789
ப்பட்டு	-7.77885
யர்	-7.78605
ினார்	-7.78758
▁பு	-7.79078
ய்	-7.80099
▁தமிழ்நாட்டில்	-7.80834
ுதல்	-7.80971
▁அமெரிக்க	-7.80978
▁மன்ற	-7.81126
▁தன்	-7.81199
ண்ட	-7.81504
▁மக்களவைத்	-7.81533
▁,	-7.81756
சன்	-7.82022
▁அவை	-7.82077
▁6	-7.82486
வ்	-7.82806
▁எனும்	-7.8281
ப்பட	-7.83024
▁ஆர்	-7.83038
▁ஊரில்	-7.83861
▁2015	-7.83985
▁ஆண்கள்	-7.8428
▁இருந்தது	-7.84691
n	-7.85169
▁பின்	-7.85226
▁கொ	-7.85525
o	-7.85569
al	-7.85859
ிலும்	-7.86291
▁தமிழ்நாட்டின்	-7.87426
ின்றனர்	-7.87443
/	-7.87731
P	-7.87792
▁17	-7.88167
▁விட	-7.88235
▁இதில்	-7.88239
▁இவற்றில்	-7.8845
▁அதிக	-7.88576
▁'	-7.88766
▁நகர	-7.89513
▁மாதம்	-7.89628
▁புதிய	-7.89701
▁ஓ	-7.89867
▁வா	-7.90472
▁பல்வேறு	-7.90524
க்கி	-7.90702
▁மொத்தம்	-7.90776
க்கா	-7.90875
▁கை	-7.90969
▁பூ	-7.9147
ரே	-7.91607
▁அடி	-7.91643
வோ	-7.91929
▁பொதுவாக	-7.9229
▁கலந்து	-7.92611
▁நிர்வகிக்க	-7.9268
▁15	-7.92716
▁சேர்ந்த	-7.92813
▁செய்து	-7.93065
M	-7.93179
ணக்கெடுப்பின்படி	-7.93231
யாகும்	-7.93356
▁அணி	-7.93508
▁8	-7.93589
சை	-7.94158
▁கட்டுப்பாட்டில்	-7.94233
▁போர்	-7.94246
தால்	-7.94519
▁12	-7.94702
ான்	-7.9478
▁மிக	-7.94916
",	-7.95231
▁உலக	-7.95279
லோ	-7.95885
▁ஆறு	-7.95916
▁சேர்ந்தது	-7.96004
▁16	-7.96145
மாகும்	-7.96261
ண்	-7.96797
ங்களும்	-7.96851
▁இட	-7.97193
▁கோயிலாகும்	-7.97201
▁அமைப்பு	-7.97458
ச்ச	-7.97579
"),	-7.97853
களைப்	-7.98062
▁இவர்களில்	-7.98066
▁போ	-7.98073
▁ஓர்	-7.98222
▁படி	-7.98235
▁இசை	-7.98345
▁9	-7.98345
▁நூற்றாண்டைச்	-7.98513
போது	-7.99103
▁காரணமாக	-7.99115
▁வர	-7.99471
▁என்	-7.99596
கம்	-7.99638
காலப்	-7.99831
ுள்ள	-8.00281
▁வகைப்பாட்டில்	-8.0052
▁துறையின்	-8.00648
வது	-8.01007
ar	-8.01255
▁அன்று	-8.01819
A	-8.02332
▁இவரது	-8.02386
▁பட	-8.0247
▁ஒ	-8.02503
▁அறநிலையத்துறைய	-8.02646
▁ஸ்	-8.029
போ	-8.02961
ிற்கு	-8.03152
▁அளவு	-8.03164
▁பிறகு	-8.03295
களுடன்	-8.03504
வர	-8.03535
▁நீர்	-8.03647
▁உருவாக்க	-8.03763
▁திருக்கோயில்	-8.04253
இ	-8.04301
▁தீ	-8.04336
லே	-8.04473
ற்று	-8.04555
க்கள்	-8.04816
றை	-8.05103
ள்	-8.05465
▁தொகுக்கப்பட்ட	-8.05563
வன்	-8.05645
▁அவர்கள்	-8.05823
r	-8.05987
னோ	-8.06079
▁பகுதியில்	-8.06114
2	-8.06222
க்கான	-8.06326
ுடன்	-8.06695
ண்டு	-8.06758
▁கீழ்க்கண்ட	-8.06991
ந	-8.07061
▁தொடர்ந்து	-8.07202
▁வெற்றி	-8.07238
▁ஊரக	-8.07353
▁மி	-8.07462
யு	-8.07699
டோ	-8.07949
▁மாற்ற	-8.07954
▁மெ	-8.07985
▁தான்	-8.08215
▁நில	-8.08262
▁சமூக	-8.08276
▁ஆய்வு	-8.08489
▁பெற	-8.08499
ஷ்	-8.08518
ுகிறது	-8.08661
விட	-8.08668
ாத	-8.08691
▁முதன்மைத்	-8.08781
▁தொகுதிகளைக்	-8.08999
ையும்	-8.09368
▁எஸ்	-8.09406
an	-8.09423
யி	-8.09431
ிலிருந்து	-8.09501
▁அரச	-8.09577
▁சிற்றூர்கள	-8.09764
▁மன்றத்	-8.09783
களிலும்	-8.09831
ாகும்	-8.10006
▁இந்தியாவின்	-8.10159
▁மலை	-8.10176
▁Gram	-8.10357
▁ஊராட்சியில்	-8.10378
ழி	-8.10394
ானது	-8.10498
▁காலத்தில்	-8.10515
வர்கள்	-8.10519
i	-8.10609
▁சார்ந்த	-8.10621
▁Panchayat	-8.10636
▁பணி	-8.10682
▁பெ	-8.10882
▁தரவின்படி	-8.10907
▁தொகுதி	-8.11113
▁உறுப்பினர்களைத	-8.11185
ற்	-8.11242
▁உட்பட்டதாக	-8.11329
p	-8.11528
ஞ்ச	-8.11545
▁பள்ளி	-8.11779
நிலை	-8.1197
▁துடுப்பாட்ட	-8.12145
▁ஒவ்வொரு	-8.12152
▁கலை	-8.12261
▁ஆண்டுத்	-8.12482
▁து	-8.12603
ஜி	-8.12654
▁திரைப்பட	-8.1268
▁சிறு	-8.12857
▁நி	-8.12863
▁வட்டாரத்தில்	-8.13051
▁ஈ	-8.13141
ங்கு	-8.13156
▁சிறந்த	-8.1317
▁வெளி	-8.13341
யுடன்	-8.13773
ண்டி	-8.13883
யால்	-8.13931
E	-8.13971
▁ஊராட்சித்	-8.14121
ைக்	-8.14236
ரிய	-8.14261
முறை	-8.1432
ர்கள்	-8.14425
▁நான்கு	-8.14539
▁வெ	-8.14633
▁மற்ற	-8.1481
யானது	-8.14858
▁அனைத்து	-8.14984
▁சட்ட	-8.15113
▁நோய்	-8.15167
ாமல்	-8.15249
ப்பட்டுள்ளது	-8.15584
▁மாநில	-8.15622
▁பரம்பரை	-8.15623
er	-8.1574
▁இயக்க	-8.15878
▁தென்	-8.15885
▁நாள்	-8.15931
யிலிருந்து	-8.15937
▁11	-8.15969
▁நடக்கின்றது	-8.15971
ிருந்த	-8.15993
சோ	-8.16073
ுகின்றன	-8.16317
ட்டா	-8.16483
▁S	-8.16796
▁மீது	-8.16927
யைக்	-8.17013
▁துணை	-8.17141
கே	-8.17156
▁வெளிவந்த	-8.17518
3	-8.17639
▁அல்லாத	-8.17694
ூர்	-8.17719
▁சென்னை	-8.17807
யிலும்	-8.17831
▁சோ	-8.17968
▁மட்டுமே	-8.18075
த்திலும்	-8.18149
த்துக்கு	-8.18206
ியல்	-8.18237
▁பொருள்	-8.18366
▁உற்பத்தி	-8.18483
▁ஆட்சி	-8.18495
க்கோ	-8.18606
▁இலங்கை	-8.19132
▁20	-8.19141
▁ஒளி	-8.19346
▁பிர	-8.19411
▁ர	-8.1949
▁பெண்	-8.1953
▁முன்	-8.19625
▁பொது	-8.19661
b	-8.19775
▁பத்தொன்பதாம்	-8.1981
▁பற்றி	-8.19893
ப்பி	-8.19984
t	-8.20152
கர்	-8.20186
▁வட	-8.20948
▁ஜ	-8.21035
தே	-8.21395
▁சே	-8.21629
தான்	-8.21845
4	-8.21935
▁இன்	-8.22434
▁மேல்	-8.22457
▁வினை	-8.22624
▁14	-8.22763
ியது	-8.23177
▁வழி	-8.23303
▁குறிப்பிட்ட	-8.23316
வில்லை	-8.23352
த்தா	-8.23435
▁13	-8.23442
▁ரா	-8.23461
▁செய்த	-8.23464
▁இதனால்	-8.23801
▁படை	-8.24398
க்கூடிய	-8.24417
▁கரு	-8.24457
ஆ	-8.24644
▁கொள்ள	-8.24738
மோ	-8.24748
▁பட்ட	-8.24918
▁வரும்	-8.24919
B	-8.25028
யூ	-8.25065
▁அறங்காவலர்	-8.251
▁சிறிய	-8.25214
▁மனித	-8.2524
▁பல்கலைக்கழக	-8.25871
ம்ப	-8.26077
m	-8.26082
▁தலை	-8.262
ுவது	-8.2664
▁பற்றிய	-8.26772
▁தனி	-8.26786
1	-8.26892
ூ	-8.26932
▁பெற்றார்	-8.26993
▁வழங்க	-8.2717
▁எம்	-8.27191
▁இன	-8.27199
▁மீண்டும்	-8.27255
▁உயர்	-8.27325
▁எண்	-8.2776
T	-8.27973
]]	-8.27985
யன்	-8.28112
▁கண்ட	-8.28339
ப்பா	-8.28355
▁பே	-8.28385
u	-8.28426
▁இருப்பினும்	-8.28595
▁பெரும்	-8.28611
▁சீ	-8.2873
மன்	-8.28853
லின்	-8.28901
ட்டை	-8.29042
▁நூல்	-8.29127
▁ஹ	-8.29163
ங்களுக்கு	-8.29553
▁மேற்கு	-8.29702
வரை	-8.29824
▁இதை	-8.29934
ுள்ளார்	-8.30023
▁ஐக்கிய	-8.30089
▁C	-8.30249
D	-8.30606
தன்	-8.30701
▁இந்தியா	-8.30825
எ	-8.30899
▁ஒரே	-8.30919
ள்ள	-8.30944
▁என்பவர்	-8.31072
ராக	-8.31625
▁அமைப்பால்	-8.3174
மானது	-8.31779
▁கட்சி	-8.31944
▁குழந்தை	-8.32
ண்ட்	-8.32462
▁வே	-8.32482
னார்	-8.32935
▁மாவட்ட	-8.33124
▁கார்	-8.33281
c	-8.33341
யைப்	-8.33664
▁போட்டிகளில்	-8.33743
▁மர	-8.34052
▁M	-8.34071
ிருக்கும்	-8.34183
▁கிழக்கு	-8.34202
ோர்	-8.34646
▁வேலை	-8.34744
▁B	-8.34906
R	-8.35056
▁[[	-8.35208
▁செல்ல	-8.35564
▁தேவை	-8.35626
▁பிறப்பு	-8.35828
னே	-8.35841
ரும்	-8.36091
▁நடைபெறுகிறது	-8.36438
▁குறிப்பிட	-8.3658
▁இரண்டாம்	-8.36615
டர்	-8.36767
5	-8.36858
படி	-8.37198
த்துடன்	-8.37387
யம்	-8.37389
வியல்	-8.37496
▁சிறப்பு	-8.37571
ங்கா	-8.37639
▁கதை	-8.37704
▁மின்	-8.37747
ைப்	-8.37834
ந்தி	-8.38157
த்திலிருந்து	-8.38161
ுள்ளன	-8.38239
▁சொல்ல	-8.38281
ாலும்	-8.38289
d	-8.38349
l	-8.38622
ங்கி	-8.3879
யையும்	-8.388
ீ	-8.38825
in	-8.3889
▁இதனை	-8.39186
h	-8.39273
▁இல்லை	-8.39322
▁வடிவ	-8.39726
▁புற	-8.3998
▁துறை	-8.40035
▁P	-8.40174
ின	-8.40272
▁நிற	-8.40403
▁வணிக	-8.4043
▁கூட	-8.40571
▁காண	-8.40708
▁நாடு	-8.40767
▁பாட	-8.40942
▁அறிவியல்	-8.41017
▁மருத்துவ	-8.41025
▁டெ	-8.41222
▁தற்போது	-8.41314
”	-8.41399
▁மறு	-8.41408
▁ஊ	-8.41581
▁உணவு	-8.4159
O	-8.41745
ஜ	-8.42045
▁கெ	-8.42281
க்காக	-8.4229
செ	-8.42308
▁ஆகியவை	-8.42311
▁போல	-8.42589
▁கூட்ட	-8.42644
▁தொடர்	-8.42695
▁கூடிய	-8.42756
▁பாடல்	-8.42918
▁கிராம	-8.4294
ிறது	-8.43036
▁காணப்படும்	-8.43051
தாகவும்	-8.43184
கிறது	-8.43262
F	-8.43474
ழு	-8.43593
▁உதவி	-8.43865
N	-8.43885
▁இலக்கிய	-8.43901
▁சிவ	-8.44252
▁பொ	-8.44402
L	-8.44416
களுக்கும்	-8.44633
▁முடியும்	-8.44862
▁A	-8.44872
▁of	-8.45401
▁அதே	-8.45488
ணை	-8.4557
▁கடல்	-8.45768
or	-8.45901
ுவதற்கு	-8.45952
▁அளவில்	-8.46188
▁)	-8.46244
லில்	-8.46383
▁ஆக	-8.46459
6	-8.46728
த்தால்	-8.47153
▁அதை	-8.47332
’	-8.47376
▁பங்கு	-8.4739
en	-8.47515
ருக்கு	-8.47582
▁மோ	-8.47626
த்தையும்	-8.47911
▁அக்டோபர்	-8.47975
▁இடம்	-8.4803
டைய	-8.48045
லு	-8.48142
▁விளையாட்டு	-8.48172
ur	-8.48381
▁தேர்வுத்	-8.48491
▁கட்ட	-8.48619
▁நிலையில்	-8.48742
▁குறை	-8.48778
▁விளக்க	-8.48865
▁மீட்டர்	-8.48868
▁என்பதை	-8.4894
னிய	-8.48992
▁தோ	-8.49041
▁தந்தை	-8.49113
▁மூல	-8.49128
நா	-8.49183
ிக்க	-8.49196
▁மத்திய	-8.49413
▁சேவை	-8.49466
g	-8.49608
▁ஜி	-8.49621
▁கல்லூரி	-8.49673
▁குரு	-8.49945
▁அம்மன்	-8.49966
▁பெரும்பாலும்	-8.50012
k	-8.50042
▁ஐந்து	-8.50103
ஹ	-8.50378
▁கொண்டது	-8.50449
▁நிறுவனம்	-8.50574
▁சுமார்	-8.50658
▁நோ	-8.50702
▁சம	-8.50736
ரியா	-8.50869
▁இருக்கிறது	-8.51041
▁அடிப்படையில்	-8.5113
H	-8.51173
▁அரசியல்	-8.51346
▁ஒன்றாகும்	-8.51538
ெ	-8.51547
▁முக	-8.51568
▁இணைந்து	-8.51588
தாகும்	-8.51638
▁எழுதிய	-8.5166
▁நாட்டின்	-8.51723
▁மைய	-8.51891
சே	-8.51988
▁முதலில்	-8.52098
புரம்	-8.52131
▁மணி	-8.52142
▁முதல்தர	-8.52162
▁கல	-8.52281
▁பால	-8.52579
▁இதற்கு	-8.52654
▁அழைக்க	-8.52693
▁19	-8.5291
▁சங்க	-8.52971
▁பெற்று	-8.53211
னால்	-8.53301
▁எனவே	-8.53614
▁உண்டு	-8.53634
▁வெப்ப	-8.53856
▁பெரு	-8.53986
▁போட்டி	-8.54091
▁இருக்க	-8.5412
தர	-8.54153
▁நவம்பர்	-8.54303
▁அங்கு	-8.54432
▁உயிர்	-8.54446
▁ஒலி	-8.54466
▁முயற்சி	-8.54504
▁–	-8.5454
▁குறைந்த	-8.54856
am	-8.55244
f	-8.55256
வாக	-8.55309
▁மகா	-8.55556
▁ஊர்	-8.55576
▁பிரிவு	-8.55834
▁சென்று	-8.55838
▁எனப்படும்	-8.55859
▁நேர	-8.56019
ரீ	-8.56054
▁இந்தியாவில்	-8.56083
0	-8.56246
▁எந்த	-8.5625
ஸ	-8.56342
▁காட்சி	-8.56357
▁குழு	-8.56788
▁சமய	-8.56842
▁பதி	-8.56993
▁லா	-8.57025
உ	-8.57157
த்தைக்	-8.57228
▁இருந்தார்	-8.57242
வரும்	-8.57266
பே	-8.57284
▁“	-8.57596
களான	-8.57626
▁விமான	-8.57679
ினால்	-8.5777
▁அக	-8.57925
▁அதற்கு	-8.57955
▁30	-8.57985
ச்சு	-8.58122
க்காரர்	-8.58257
சிய	-8.58268
ப்படுகின்றது	-8.58306
வெ	-8.58376
▁ஆங்கில	-8.58379
▁பேர்	-8.58399
▁வேறு	-8.58747
த்திர	-8.58832
▁தொழில்	-8.58845
டே	-8.58858
டெ	-8.59165
ப்படுத்த	-8.59172
▁அணியின்	-8.5923
▁தொடர்பு	-8.59387
▁ஆண்டுகளில்	-8.59478
ப்பை	-8.59537
ஸ்ட்	-8.59771
▁பிரி	-8.59797
le	-8.60022
00	-8.60063
ங்களையும்	-8.601
I	-8.60291
K	-8.60502
▁காலம்	-8.60548
▁நிலைய	-8.60608
க்கப்பட்ட	-8.60702
ம்பு	-8.60741
ஷ	-8.60823
▁எனினும்	-8.61033
▁முழு	-8.61098
▁சதுர	-8.61167
கன்	-8.61487
▁வீர	-8.61553
▁ஆண்ட	-8.6171
▁உருவாக்கப்பட்ட	-8.61782
▁விருது	-8.61784
▁மதுரை	-8.61827
▁அதில்	-8.61879
▁முறையில்	-8.62015
▁வருகிறது	-8.62127
▁தங்க	-8.6227
▁நெ	-8.62332
on	-8.62402
▁25	-8.62423
▁மன	-8.62626
ாய்	-8.62653
▁இவ்வ	-8.63032
▁பெற்றது	-8.63128
▁நடந்த	-8.63342
▁H	-8.63387
▁இறுதி	-8.63465
)"	-8.63474
▁புனித	-8.63488
ப்பட்டுள்ளன	-8.6359
ினை	-8.63668
ுள்ளனர்	-8.64017
ப்பட்டன	-8.64065
▁கோவில்	-8.64264
தில்	-8.64675
ற்ப	-8.64835
▁பெரும்பாலான	-8.64919
▁வழியாக	-8.64964
▁குடும்ப	-8.65063
வன	-8.65115
▁நல்ல	-8.65322
▁மாத	-8.65472
▁சிகிச்சை	-8.65793
ளை	-8.65888
▁கிலோ	-8.65968
▁போட்டியில்	-8.66005
▁இந்தப்	-8.66012
▁2008	-8.66055
களுக்கான	-8.66108
க்ஸ்	-8.66154
ப்பட்டார்	-8.66267
▁குறிப்பாக	-8.66321
▁எனவும்	-8.66433
G	-8.66494
ுகிறார்	-8.66567
ிக்	-8.66707
▁D	-8.66715
பெ	-8.67263
த்திய	-8.67324
சாமி	-8.67324
பர்	-8.674
▁குறிப்பிடத்தக்க	-8.67572
▁செய்யும்	-8.67613
தல்	-8.6762
ிட	-8.67893
வகை	-8.67973
▁திருவிழாவாக	-8.68023
▁பிறந்த	-8.68081
▁இரண்டாவது	-8.68126
சர்	-8.68184
▁செய்யப்பட்ட	-8.6828
▁கருத்து	-8.68288
சீ	-8.68419
த்துறை	-8.68544
▁நாட்டு	-8.68609
தர்	-8.68619
▁எழுத	-8.68653
▁யா	-8.68742
▁ஏற்படும்	-8.6879
▁அதிகமாக	-8.68905
▁அமைந்த	-8.68948
▁செப்டம்பர்	-8.69025
▁பிரதேச	-8.6905
▁நிலையம்	-8.69114
ரம்	-8.69117
▁வகையில்	-8.69373
▁"(	-8.69386
விற்கு	-8.69421
▁ஏற்பட்ட	-8.69546
ப்போ	-8.69553
பூ	-8.69593
வழி	-8.69666
மெ	-8.6971
▁உடல்	-8.69788
▁நடு	-8.69831
▁சொல்	-8.69882
▁மூலமாக	-8.69944
▁இங்கிலாந்து	-8.7015
ing	-8.70153
▁பகுதிகளில்	-8.7027
பட்ட	-8.7033
8	-8.70377
▁பயன்படுத்தி	-8.70451
▁பொருளாதார	-8.70597
கர	-8.70619
▁நிர்வாக	-8.70769
▁மட்டும்	-8.70969
ாவின்	-8.70972
▁எதிர்	-8.70994
▁ட	-8.71049
▁முக்கியமான	-8.7107
at	-8.71203
▁தலைமை	-8.71306
▁ஆகியோர்	-8.71322
▁ஸ்ரீ	-8.71417
பூர்	-8.71489
▁லி	-8.71531
களைத்	-8.71551
மொழி	-8.71645
▁டா	-8.71676
▁பக்க	-8.71737
ங்களிலும்	-8.71777
▁எல்லை	-8.7178
▁(19	-8.71908
▁கொண்டுள்ளார்	-8.71956
▁தலைவர்	-8.72009
ஜ்	-8.72081
▁நாடுகளில்	-8.72097
▁மில்லியன்	-8.72123
முக	-8.72158
▁தன்மை	-8.72248
▁செல்லும்	-8.72375
▁0	-8.724
▁இடத்தில்	-8.72687
▁பயிற்சி	-8.72728
▁வடக்கு	-8.7278
▁சட்டமன்ற	-8.72913
ாளர்	-8.7293
▁மத	-8.72976
ாகவும்	-8.73005
தோ	-8.73075
▁பீ	-8.73204
யைத்	-8.73303
▁இயற்கை	-8.73423
▁தாவர	-8.73667
▁அறிய	-8.73709
▁காட்ட	-8.73744
க்கை	-8.73778
▁நடைபெற்ற	-8.7378
▁ரோ	-8.73791
▁போன்றவை	-8.73817
▁தொலைக்காட்சி	-8.73862
▁புள்ளி	-8.73983
த்தைப்	-8.73994
ினர்	-8.74063
▁கருவி	-8.74309
ங்களைக்	-8.74349
▁நகரம்	-8.74413
ுகின்றது	-8.74422
▁தமிழ்த்	-8.74559
▁காணப்படுகிறது	-8.7467
னும்	-8.74753
▁கூற	-8.7478
ழை	-8.74887
க்குப்	-8.74898
சின்	-8.74965
▁இணை	-8.75079
▁பிரித்தானிய	-8.7511
▁வட்ட	-8.75214
V	-8.75298
வான்	-8.75591
▁நாடக	-8.7565
▁பிறந்தார்	-8.75674
ொ	-8.7574
20	-8.75934
▁கூ	-8.75971
▁தே	-8.76016
7	-8.76211
▁ஏப்ரல்	-8.76255
▁சென்ற	-8.76313
▁பார்	-8.76371
▁ஆண்டின்	-8.76417
▁ஜெ	-8.76426
▁எனக்	-8.76439
வான	-8.76476
னுக்கு	-8.7682
▁G	-8.76835
▁சூரிய	-8.77058
▁உரு	-8.77108
▁வரலாற்று	-8.77315
வுக்கு	-8.77324
ளா	-8.77441
▁அடுத்த	-8.7776
▁தமிழ	-8.77869
▁ஜா	-8.78088
▁பழைய	-8.78093
▁நூற்றாண்டு	-8.78244
ஃப்	-8.78285
த்தல்	-8.78352
▁விதி	-8.78401
ப்படி	-8.78624
▁நோக்க	-8.78853
▁மறை	-8.78892
▁வந்து	-8.78918
▁21	-8.78952
னில்	-8.79021
▁வாழ்க்கை	-8.79032
▁நிறுவன	-8.79092
▁வீ	-8.79343
▁கோட்டை	-8.7956
▁பை	-8.79578
▁நீ	-8.79623
▁அடிப்படை	-8.79671
ிடம்	-8.79942
ed	-8.79987
x	-8.79996
ும்போது	-8.80034
யின	-8.80043
பட	-8.80171
▁ஒருவர்	-8.80175
▁செலுத்த	-8.80369
▁நூற்றாண்டில்	-8.80412
▁சின்ன	-8.80426
▁வந்தது	-8.80503
▁2009	-8.80564
▁திகதி	-8.80607
ோடு	-8.80629
▁ஆராய்ச்சி	-8.80668
த்தார்	-8.80728
கல்	-8.80793
ைத்	-8.80884
▁விட்டு	-8.8089
னு	-8.81023
▁பாதுகாப்பு	-8.81042
▁பதவி	-8.81051
▁டை	-8.8117
▁24	-8.81187
▁R	-8.81213
▁நடத்த	-8.81277
▁=	-8.81367
▁உறுப்பினர்	-8.81385
▁எண்ண	-8.81455
▁பேர	-8.8146
▁தங்கள்	-8.81525
▁வாழ்ந்த	-8.8168
▁எல்லா	-8.81692
▁வைத்து	-8.81695
▁திரைப்படம்	-8.8173
▁தள	-8.81813
ாட்சி	-8.81814
▁அல்	-8.81912
▁N	-8.8208
▁காணப்படுகின்றன	-8.82231
▁தெ	-8.82257
▁அருகில்	-8.82312
▁உட்	-8.82442
▁சீன	-8.82543
ஞ்சி	-8.82854
▁தொழில்நுட்ப	-8.82982
▁யூ	-8.83014
▁2010	-8.83048
▁தமிழக	-8.83173
▁மூ	-8.83174
ங்களாக	-8.83278
▁நீண்ட	-8.83355
▁22	-8.83512
▁‘	-8.8361
▁மண	-8.8363
▁அணு	-8.83696
யாகவும்	-8.83748
▁தீவு	-8.83816
ch	-8.83845
▁F	-8.83866
▁போட்டிகளிலும்	-8.83868
▁அவருடைய	-8.83904
▁வை	-8.83918
களுள்	-8.83996
il	-8.84069
|	-8.84086
ிருந்தது	-8.8418
▁நிதி	-8.84291
▁கொள்கை	-8.84297
▁உரிமை	-8.84377
▁T	-8.84419
▁தேவ	-8.84555
▁நிகழ்ச்சி	-8.84556
▁பதிவு	-8.84567
ஐ	-8.84604
மலை	-8.84623
▁ஆண்	-8.84776
▁செய்தார்	-8.84841
▁பழ	-8.8489
▁உள்ளிட்ட	-8.8507
▁பெர்	-8.85166
▁2007	-8.8519
▁தமது	-8.85306
▁தாக்க	-8.85503
ுகின்றனர்	-8.85542
▁செல்வ	-8.85582
▁கணினி	-8.85648
ic	-8.85708
நி	-8.85742
▁பெயரில்	-8.8576
தம்	-8.85808
▁வழக்கு	-8.85866
சார்	-8.85918
▁அமில	-8.86088
மாகவும்	-8.86114
▁முறைப்படி	-8.86181
கள	-8.86208
ரெ	-8.86627
us	-8.8664
பை	-8.86685
▁ஒன்றாக	-8.86701
▁L	-8.86826
▁தேதி	-8.86934
▁அவருக்கு	-8.87029
ாள	-8.87039
வீ	-8.87114
▁தடை	-8.87143
_	-8.87175
▁பால்	-8.8725
▁சாலை	-8.87282
▁பெருமாள்	-8.87398
]	-8.87634
el	-8.87925
▁இணைய	-8.8798
▁முதன்மை	-8.88137
▁வேண்டிய	-8.88175
ண்டா	-8.88236
▁அமெரிக்கா	-8.88238
▁எண்ணிக்கை	-8.88362
re	-8.88372
▁எந்தவொரு	-8.88375
கால	-8.88515
▁குறிக்கும்	-8.88574
▁நோக்கி	-8.88575
▁தவிர	-8.88581
▁குறித்த	-8.88629
▁இக்	-8.8878
மீ	-8.88983
▁எரி	-8.88996
▁வரிசை	-8.89034
சூ	-8.89237
யார்	-8.89255
தற்கு	-8.89531
▁தயாரிக்க	-8.89561
ட்ஸ்	-8.89584
▁ஏரி	-8.89707
▁தாய்	-8.89843
▁வள	-8.8987
டிய	-8.89892
▁மாநிலத்தில்	-8.90017
ra	-8.90059
▁நகரில்	-8.90072
▁தெற்கு	-8.90247
▁2006	-8.90331
ப்பகுதி	-8.90468
▁அவரை	-8.90556
▁தொலைவில்	-8.90556
▁இவருக்கு	-8.90559
பதி	-8.90787
▁வரி	-8.9104
▁அலை	-8.91045
▁செய்தி	-8.91069
▁அதாவது	-8.91076
பின்	-8.91149
▁கருதப்படுகிறது	-8.91204
it	-8.91266
▁ஹா	-8.91409
▁23	-8.91498
▁மனைவி	-8.91545
▁மேல	-8.91635
▁முழுவதும்	-8.91649
▁சோதனை	-8.91738
▁E	-8.91863
வுடன்	-8.91953
▁மேற்பட்ட	-8.92009
ிலுள்ள	-8.92216
▁சேர்ந்து	-8.92262
▁பருவ	-8.92282
▁உருவ	-8.92404
▁மகன்	-8.92501
த்துவ	-8.92588
▁இடங்களில்	-8.92609
▁இவ்வாறு	-8.92768
▁சராசரி	-8.9283
▁ரி	-8.92845
கொண்ட	-8.92953
▁செயல்	-8.92973
▁formula	-8.93181
▁ஆகியவற்றை	-8.93219
▁மக்களின்	-8.93278
▁போட்டியிலும்	-8.93423
▁இராணுவ	-8.93435
▁குடி	-8.93473
▁விழா	-8.93779
▁இடம்பெற்ற	-8.93859
க்கம்	-8.93888
வந்த	-8.93911
▁வரலாறு	-8.94018
▁கள	-8.94024
▁நகர்	-8.94037
கார்	-8.94218
ஹா	-8.94296
▁உறுப்பினராக	-8.94361
▁மாகாண	-8.94376
▁தோற்ற	-8.94382
▁சக்தி	-8.94391
▁ஐரோப்பிய	-8.94496
▁கடைசியாக	-8.94497
▁குறித்து	-8.94727
▁ஏற்ற	-8.9475
ிருந்தார்	-8.94948
▁கருத	-8.95009
▁நியூ	-8.95028
▁உலகின்	-8.95072
▁மதிப்பு	-8.9521
பீ	-8.95263
ol	-8.95483
es	-8.95489
▁திட்ட	-8.95649
▁வங்கி	-8.95718
▁முடிவு	-8.95959
as	-8.95995
▁ஆற்றல்	-8.96059
▁உரை	-8.96167
▁ஆட்ட	-8.96202
▁மார்ச்	-8.96232
▁ஆசிரியர்	-8.96253
▁நேர்	-8.96467
ஏ	-8.96471
▁இடையே	-8.96533
ரான	-8.96534
▁சை	-8.96587
▁வைக்க	-8.9676
ளவு	-8.9696
▁எதிராக	-8.97198
▁இவர்கள்	-8.97202
▁அப்போது	-8.97331
யைச்	-8.97416
ன்ஸ்	-8.97502
▁ஜான்	-8.97521
ுக்கும்	-8.97659
▁பெயர	-8.97682
லும்	-8.97706
▁தொ	-8.97774
▁அதனை	-8.97874
▁நடவடிக்கை	-8.98031
▁தூ	-8.98052
▁அடை	-8.98074
கொ	-8.98133
▁வார	-8.98209
டின்	-8.98224
மணி	-8.98225
மர	-8.98396
ந்தா	-8.98457
▁அவற்றின்	-8.9851
▁இந்தக்	-8.98572
▁இப்	-8.98762
த்தைச்	-8.98962
நில	-8.98978
▁கண்	-8.99004
▁மக	-8.99037
▁மற்றொரு	-8.99096
▁ஆண்டுகள்	-8.99144
▁நம்பிக்கை	-8.99216
▁கண	-8.99216
▁the	-8.99278
மான்	-8.99279
னியா	-8.99284
லம்	-8.99292
▁மாநிலத்தின்	-8.99322
▁மார்	-8.99361
ல்லா	-8.99364
▁இத்திரைப்படத்த	-8.99448
ad	-8.99501
▁சேர்த்து	-8.99546
வராக	-8.99621
10	-8.99712
▁சூ	-8.99835
▁பங்குகொண்டார்	-8.99963
ரண	-8.99984
▁செல்	-9.00038
▁பிரா	-9.00112
▁கரை	-9.00196
க்கல்	-9.00216
▁வசதி	-9.0023
▁சுற்றி	-9.00245
▁இல்லாத	-9.00492
யாளர்	-9.00622
வால்	-9.0063
ட்டோ	-9.00828
ைச்	-9.00901
கார	-9.0103
சியா	-9.0109
▁சபை	-9.01174
▁புது	-9.01191
▁ஆரம்ப	-9.01229
▁ராஜ	-9.0123
▁திருமணம்	-9.01326
▁இரத்த	-9.01331
ரால்	-9.01373
கின்றன	-9.01393
▁போல்	-9.01434
ுக்கான	-9.01572
▁கிளை	-9.01626
▁பார்க்கப்பட்ட	-9.0172
▁மொ	-9.01757
▁பட்டம்	-9.01811
▁எழுத்தாளர்	-9.0184
▁உடன்	-9.01972
ாது	-9.02029
▁நடைமுறை	-9.0204
▁எழுத்து	-9.02064
▁நாக	-9.0226
9	-9.02276
▁மண்டல	-9.02325
▁கண்ண	-9.02433
ஜா	-9.02462
▁அரசின்	-9.02474
▁1.	-9.02532
▁இலங்கையின்	-9.02576
▁நீர	-9.02678
▁1,	-9.02736
ிருக்க	-9.0286
▁முன்னாள்	-9.02886
▁தம்	-9.02898
ிருக்கிறது	-9.02915
–	-9.02937
னெ	-9.02968
லெ	-9.02991
▁உள்ளார்	-9.03127
கிரி	-9.03131
களே	-9.0315
▁நாடுகள்	-9.03204
▁2001	-9.03246
▁நடித்த	-9.03475
▁ஒத்த	-9.03682
ணா	-9.03701
▁இறப்பு	-9.03794
▁தொடக்க	-9.03845
▁p	-9.03892
▁உடைய	-9.03976
ம்பி	-9.04052
th	-9.041
ழ்	-9.04223
தீ	-9.0429
▁புகழ்	-9.04398
▁பல்	-9.04463
▁நெல்	-9.04495
ation	-9.04506
த்தூர்	-9.04557
▁வைத்த	-9.04587
▁விலை	-9.04658
▁பார்க்க	-9.05018
ாவில்	-9.05075
ுவதை	-9.0521
யுள்ள	-9.05239
▁தேர்தல்	-9.05278
▁யு	-9.05316
et	-9.05535
▁எல்	-9.05659
த்தினை	-9.0567
னம்	-9.05727
▁திரைப்படமாகும்	-9.05843
▁2014	-9.05954
வாய்	-9.05997
▁திருவிழா	-9.06009
▁K	-9.06038
ின்றன	-9.06102
▁வாழ்	-9.06116
▁திட்டத்தின்	-9.06135
▁இர	-9.06163
▁26	-9.06181
▁ஆடி	-9.06185
▁விற்பனை	-9.06242
▁விளையாட்டுவீரர்	-9.06334
▁அதனால்	-9.06341
▁கால்	-9.06401
க்குள்	-9.06409
▁ஆல்	-9.06418
▁நீக்க	-9.06432
▁மொழியில்	-9.06455
மார்	-9.0647
▁விபரக்குறிப்பு	-9.06702
▁சிவன்	-9.06706
ண்ண	-9.06713
வல்	-9.06742
▁கொண்டார்	-9.06878
▁சுதந்திர	-9.06947
பார்	-9.06997
▁விடுதலை	-9.07102
▁கீ	-9.07157
▁ஆண்டுகளுக்கு	-9.072
விய	-9.07363
▁முன்ன	-9.07372
▁27	-9.07421
▁ஜோ	-9.07427
ri	-9.07486
▁பர	-9.07593
▁[	-9.07804
▁I	-9.07885
பட்டி	-9.07891
▁முனை	-9.07918
▁கணித	-9.07922
▁கான்	-9.08005
▁வெள்ளை	-9.08125
▁அமைப்ப	-9.08286
சல்	-9.08336
▁உலோக	-9.08383
▁தொடர்பான	-9.08473
▁வகையான	-9.08494
ுடைய	-9.08531
▁உள்	-9.08676
▁கொள்ளவில்லை	-9.08779
ir	-9.08813
▁வந்தார்	-9.08873
▁:	-9.08893
▁மாற	-9.08909
▁அவர்களின்	-9.09177
யிட	-9.09208
▁இருப்பதால்	-9.09289
▁பிள்ளை	-9.0945
ைய	-9.09473
▁குறி	-9.09561
ட்டில்	-9.09649
▁தல	-9.09726
▁வாழும்	-9.09863
▁ஏற்பட	-9.09885
▁அதிகமான	-9.09979
▁மன்னர்	-9.10049
▁தேர்வு	-9.10145
▁புவி	-9.1016
▁சுவாமி	-9.10172
றிய	-9.10225
▁அவ்வ	-9.10226
▁ஏழு	-9.10441
யினை	-9.10476
சம்	-9.10512
▁வருட	-9.10581
▁இன்று	-9.10646
▁சரி	-9.10666
▁மாதிரி	-9.10695
▁28	-9.10819
களாகும்	-9.10881
லர்	-9.10915
▁ஓட்ட	-9.10972
ித்த	-9.10984
ரன்	-9.11009
ணம்	-9.11114
ுக்	-9.1124
▁பேச	-9.11259
▁குறிக்க	-9.11299
19	-9.11337
▁மீன்	-9.11362
▁நவீன	-9.11427
▁வீரர்	-9.11447
ப்பட்டி	-9.11562
மின்	-9.11577
▁பாரம்பரிய	-9.11739
▁தேர்தலில்	-9.11772
▁வயது	-9.11981
?	-9.12225
களிலிருந்து	-9.12243
▁எனப்	-9.12703
▁ல	-9.12709
▁டிசம்பர்	-9.12746
▁கட்டுரை	-9.12791
▁பன்னாட்டு	-9.12854
▁மை	-9.12974
க்கிய	-9.13039
▁உறுதி	-9.13039
▁மிகப்பெரிய	-9.13041
படுத்த	-9.13064
ங்கை	-9.13092
ுவதாக	-9.13116
ro	-9.1314
வேண்டும்	-9.13191
▁தஞ்சாவூர்	-9.13209
னாக	-9.13229
▁ஒன்றை	-9.13265
▁சனவரி	-9.13302
லீ	-9.13491
▁கிறித்தவ	-9.13533
▁2012	-9.13556
▁முன்பு	-9.13563
▁ஓவிய	-9.13585
▁அவ	-9.13736
▁டே	-9.13815
▁அமைக்கப்பட்ட	-9.13898
ுமாறு	-9.14105
பால	-9.14149
▁கிரேக்க	-9.14365
▁கொண்டாட	-9.14451
▁நேரத்தில்	-9.1454
▁வெப்பநிலை	-9.14688
▁இயக்கத்தில்	-9.1471
▁வானூர்தி	-9.14756
புர	-9.14765
டல்	-9.14765
▁ஆவண	-9.14821
ித்து	-9.14853
ங்களைப்	-9.14857
▁இராம	-9.14904
▁c	-9.14971
களைச்	-9.15049
▁மிகப்	-9.15059
▁இருந்தன	-9.15138
▁மூன்றாம்	-9.15156
▁சர்வதேச	-9.15157
▁திறன்	-9.15166
ன்ன	-9.15186
▁2005	-9.15217
▁அறிமுகப்படுத்த	-9.15219
▁அடுத்து	-9.15274
ந்தை	-9.15317
▁பொதுவான	-9.1554
ப்பர்	-9.15611
▁ஆக்க	-9.15747
▁100	-9.15762
▁நெடுஞ்சாலை	-9.15793
▁நிறுத்த	-9.158
▁கட்டிட	-9.15879
▁வெளியிட்ட	-9.16103
தும்	-9.16148
0,000	-9.16174
களுக்காக	-9.16175
பகுதி	-9.16206
லுக்கு	-9.16338
▁ஹெ	-9.1635
த்திற்கான	-9.16449
▁பரவலாக	-9.16599
▁லெ	-9.16745
▁இடை	-9.16793
▁முன்னர்	-9.1684
▁நான்	-9.16863
▁இயேசு	-9.16864
▁இருக்கலாம்	-9.16866
50	-9.16926
um	-9.17017
லிய	-9.17108
ul	-9.17117
▁நூற்றாண்டின்	-9.17161
▁இருக்கின்றன	-9.17192
ரில்	-9.17241
ப்படவில்லை	-9.17273
▁ல்	-9.17352
▁வாய்ந்த	-9.17379
னூர்	-9.17459
பொ	-9.17523
U	-9.17659
is	-9.17816
தாகக்	-9.17983
▁வேதியியல்	-9.18015
▁உயர்ந்த	-9.18064
ச்சா	-9.18088
▁மிகுந்த	-9.18159
▁அக்	-9.18169
!	-9.18175
▁பகுதிகள்	-9.18183
▁b	-9.18207
▁கீழ	-9.18217
▁உண்மை	-9.18256
▁விரும்ப	-9.18411
மங்கலம்	-9.18549
▁வெளியிட	-9.18629
▁தமிழர்	-9.18649
▁குறைவான	-9.18709
ப்பின்	-9.18783
▁உறுப்பு	-9.18841
▁ஏற்படுத்த	-9.19016
▁முடி	-9.19032
டம்	-9.19122
▁சட்டம்	-9.19176
▁எழுதி	-9.19204
விட்டு	-9.19286
த்தைத்	-9.19333
▁நல	-9.19438
ப்பள்ளி	-9.19462
15	-9.19568
ப்படை	-9.19595
▁அணை	-9.19624
தற்காக	-9.19665
▁தலைவராக	-9.19805
▁s	-9.19936
ாள்	-9.19998
▁இவரின்	-9.20053
▁கூறு	-9.20079
ந்தர்	-9.20149
ுவதற்காக	-9.20164
▁எதிரான	-9.20189
▁விசை	-9.2029
▁இறந்த	-9.20383
▁மரபு	-9.20428
▁2004	-9.20437
▁கட்டுப்படுத்த	-9.20477
▁சொ	-9.20511
ிகள்	-9.20594
▁மாவட்டத்தின்	-9.206
▁கொண்டிருக்கும்	-9.20639
ணு	-9.20763
க்கொண்ட	-9.20879
▁நடிகர்	-9.21042
▁2013	-9.21307
z	-9.21394
▁குள	-9.21439
லூர்	-9.21443
▁யாழ்ப்பாண	-9.21445
▁சர்	-9.21448
▁தன்னுடைய	-9.21456
▁இரண்ட	-9.21525
▁கிமீ	-9.21534
ந்திர	-9.2156
▁W	-9.21666
▁கல்	-9.21825
▁போராட்ட	-9.2185
த்துக்	-9.21866
▁மட	-9.21883
▁சொந்த	-9.21978
ட்டர்	-9.22015
கெ	-9.22141
▁பனி	-9.22148
▁2000	-9.22333
▁அச்ச	-9.22361
▁50	-9.22413
ரூ	-9.22497
▁கட	-9.22498
மர்	-9.22504
▁தத்துவ	-9.22646
▁பயன்பாடு	-9.22835
▁ரெ	-9.22852
▁அவற்றை	-9.22923
▁சோழ	-9.22939
கல	-9.23001
▁அமைக்க	-9.23051
▁தரவு	-9.23076
▁பார்வை	-9.23098
▁ஜே	-9.23102
▁பாடல்கள்	-9.23171
ற்கு	-9.23178
▁29	-9.23178
▁உயர	-9.23213
▁நாட்டில்	-9.23277
றா	-9.23296
▁கூட்டு	-9.23297
▁கட்டி	-9.23298
▁இயந்திர	-9.23335
▁கடற்கரை	-9.23445
▁டோ	-9.23458
ஸி	-9.23498
ா்	-9.23502
ங்கோ	-9.23624
▁குல	-9.23663
▁கொண்டிருந்த	-9.23693
வற்றை	-9.23699
▁இத்தகைய	-9.23734
▁இறுதியில்	-9.23771
சன	-9.23788
▁வர்த்தக	-9.23848
▁சந்திர	-9.23882
மாகக்	-9.23889
▁சண்டை	-9.23895
▁தொகுப்பு	-9.23993
un	-9.2408
விலும்	-9.24142
▁பறவை	-9.24206
▁கிலோமீட்டர்	-9.24287
▁அறிக்கை	-9.24502
▁தமிழில்	-9.24561
▁கொடுக்க	-9.24663
யியல்	-9.24701
▁இல	-9.24715
▁உட்பட	-9.24765
ட்டின்	-9.24777
▁சிங்	-9.24899
▁அத்துடன்	-9.24962
▁கரிம	-9.25051
▁பூங்கா	-9.25096
▁சுந்தர	-9.25097
▁குண	-9.25122
▁தொடர்புடைய	-9.25394
▁அமெரிக்காவில்	-9.2541
▁வாகன	-9.25506
▁பொருட்கள்	-9.25583
▁பயண	-9.25607
▁நாடாளுமன்ற	-9.2571
▁மேற்	-9.25748
▁திருத்தந்தை	-9.25764
▁பகுதியாக	-9.25766
வற்ற	-9.25771
த்தான்	-9.25847
▁முதலாம்	-9.2587
▁நீள	-9.25945
▁அல்ல	-9.26218
▁செய்	-9.26313
ிருக்கிறார்	-9.26358
களிடம்	-9.26384
▁பணியாற்றினார்	-9.26418
▁காந்தி	-9.26547
▁2016	-9.26714
▁வாய்ப்பு	-9.26783
▁தேவையான	-9.26906
த்தன்மை	-9.26925
▁மாறி	-9.26976
▁உடை	-9.26997
12	-9.27024
▁கன	-9.27056
▁பொருத்த	-9.2712
ல்லி	-9.27247
▁இரா	-9.27252
▁அழைக்கப்படும்	-9.27278
om	-9.2738
▁ஆல	-9.27388
▁ஆக்கைவ	-9.27395
▁வெளிப்படுத்த	-9.27428
-19	-9.27429
▁வழக்க	-9.27521
பிறப்பு	-9.27538
▁எட்டு	-9.27667
▁பண	-9.27885
▁தன்னை	-9.27902
▁ஷா	-9.2795
▁அரை	-9.28018
▁அழுத்த	-9.28104
▁இலை	-9.28138
ார்கள்	-9.28191
எஸ்	-9.28199
▁இரட்டை	-9.28234
▁புகழ்பெற்ற	-9.28323
▁இதுவே	-9.2836
ிலேயே	-9.28367
ர்களின்	-9.28437
▁எடுத்து	-9.28465
ிருப்ப	-9.28471
▁சந்தை	-9.28642
▁கட்டப்பட்ட	-9.28683
▁அறை	-9.28699
▁கண்டுபிடிக்க	-9.28776
பால்	-9.28813
திரு	-9.28835
▁மழை	-9.28935
▁புல	-9.29134
▁கீழே	-9.29379
▁இக்க	-9.29405
அழைக்கப்படுகிறது	-9.29407
▁இடையில்	-9.29429
30	-9.29462
▁மக்கள்தொகை	-9.29466
ௌ	-9.29477
▁அதிகம்	-9.29583
வினை	-9.29626
▁வருகிறார்	-9.29682
▁போக்குவரத்து	-9.29731
▁கோட்ட	-9.29772
▁தெய்வ	-9.29773
வார்	-9.29784
▁பத்து	-9.29943
▁மாணவர்	-9.3
▁வெவ்வேறு	-9.30007
▁இந்தத்	-9.302
▁செயல	-9.30231
▁காரணம்	-9.30406
▁தொகுதியில்	-9.30433
யற்ற	-9.30448
▁ஹோ	-9.30478
▁சூலை	-9.3049
▁சேர	-9.30564
▁புத்த	-9.30633
கின்றது	-9.30759
▁கல்லூரியில்	-9.30783
▁பிப்ரவரி	-9.30785
▁ராம	-9.30876
▁கவிதை	-9.30931
ai	-9.31064
▁ஆஃப்	-9.31098
▁தொடர	-9.31195
வாத	-9.31266
▁40	-9.31288
▁லே	-9.31437
ஒ	-9.31512
▁செய்யப்பட்டது	-9.31517
▁திரும்ப	-9.31582
▁அர	-9.31608
▁கிரி	-9.31693
000	-9.31734
க்கே	-9.31824
ஷி	-9.31889
▁மாரியம்மன்	-9.3191
▁நாட்ட	-9.31936
ப்பெற்ற	-9.32013
யல்	-9.32234
▁ஹி	-9.32298
▁பங்க	-9.32346
▁தொடருந்து	-9.3244
த்தது	-9.32454
▁என்பன	-9.32489
டீ	-9.32563
▁தோட்ட	-9.32589
▁அவன்	-9.32618
▁காட்டு	-9.32683
▁நடிகை	-9.32719
ாளி	-9.32772
ரான்	-9.32774
ன்று	-9.32787
▁ஆவது	-9.32796
▁மருந்து	-9.32837
▁எடை	-9.32843
ல்ல	-9.33003
▁வங்காள	-9.33004
ப்பில்	-9.33197
▁விட்ட	-9.33238
▁and	-9.33257
ுவதால்	-9.33259
▁எழுதப்பட்ட	-9.33309
▁காரணி	-9.334
▁V	-9.33456
பர	-9.33475
த்தோ	-9.33483
ங்கள	-9.33502
தான	-9.33517
▁பயன்படுகிறது	-9.3353
▁ஃபி	-9.33531
பாடு	-9.33726
த்தே	-9.33766
ரங்க	-9.33768
▁அளிக்க	-9.3377
▁சூன்	-9.33832
W	-9.33856
▁பாதை	-9.33876
▁கர	-9.33917
முனை	-9.33934
▁ஆதி	-9.34065
▁நிறுவனத்தின்	-9.3429
▁சுர	-9.34394
▁நடித்தார்	-9.34487
ட்ச	-9.3452
▁கூறினார்	-9.34543
▁பொருட்	-9.3456
▁பண்டைய	-9.34575
▁பாத்திர	-9.34638
ங்களுடன்	-9.34675
▁m	-9.34738
ப்பதற்கு	-9.348
▁திருமண	-9.34893
▁அரி	-9.34904
கில்	-9.34905
த்திற்கும்	-9.34927
ுவதற்கான	-9.34997
▁ஊடக	-9.35058
▁அனு	-9.35081
▁இதழ்	-9.35118
யிலுள்ள	-9.35135
க்கப்பட்டது	-9.35277
ரசு	-9.35318
▁பர்	-9.35385
▁தந்த	-9.3551
▁எதிர்ப்பு	-9.35546
▁காற்று	-9.35596
வள	-9.35598
▁நேரம்	-9.35686
▁பாக	-9.35698
கண்ட	-9.35704
▁பரிசு	-9.35759
▁கோல்	-9.35771
ter	-9.35781
▁பூச்சி	-9.3582
▁முன்னணி	-9.35974
▁கனிம	-9.35993
▁பின்ன	-9.36001
ுகின்ற	-9.3607
புரி	-9.36128
▁வலி	-9.36238
▁வருகின்றன	-9.36257
▁வான்	-9.36303
▁விலங்கு	-9.36321
▁முதலிய	-9.36329
▁கிள	-9.3633
பாளையம்	-9.36418
யெ	-9.36423
ற்றி	-9.36473
▁1990	-9.36509
▁பத்திரிகை	-9.36535
▁கண்டு	-9.3655
▁போன்று	-9.36597
▁இன்னும்	-9.36608
ிறார்	-9.36687
▁ரே	-9.36712
▁நிகழ்வு	-9.36825
▁ஆனது	-9.36876
▁நூல்கள்	-9.36898
▁மூன்றாவது	-9.36909
▁அங்க	-9.36924
▁செயல்முறை	-9.36961
▁31	-9.36968
ஷா	-9.37014
ag	-9.37065
▁விநாயகர்	-9.371
னல்	-9.37144
முள்ள	-9.3717
▁திசை	-9.37206
▁வாங்க	-9.37223
▁கடந்த	-9.37305
▁கோட்பாடு	-9.37324
▁முந்தைய	-9.37325
▁அடர்த்தி	-9.37408
மிக்க	-9.37432
திய	-9.37549
▁தொலை	-9.37641
▁பரவ	-9.37831
▁குறு	-9.37846
ுகிறார்கள்	-9.37902
சுவாமி	-9.37905
▁கிராமம்	-9.37907
வதற்கு	-9.37944
=	-9.37949
▁பெயரை	-9.3795
ம்பட்டி	-9.3804
▁வெளியான	-9.38129
▁தற்போதைய	-9.38159
▁உட்பட்ட	-9.38179
▁வயதில்	-9.38244
க்களை	-9.38258
▁ஞான	-9.38315
▁தேர்	-9.38323
▁திருவண்ணாமலை	-9.3833
▁ரூ	-9.38334
▁ஜனவரி	-9.38372
▁குட	-9.38375
▁அழி	-9.38462
மற்ற	-9.38591
▁கிடைத்த	-9.38618
வரின்	-9.38679
▁விருப்ப	-9.3869
ையில்	-9.38692
▁தகுதி	-9.38712
▁மெய்	-9.38812
▁இந்தியத்	-9.38814
▁தின	-9.38825
▁பின்பு	-9.38854
▁சிறப்பாக	-9.38903
▁பௌத்த	-9.38904
மிய	-9.3896
▁in	-9.39143
க்கொண்டு	-9.39155
▁குறியீடு	-9.39309
ia	-9.39315
▁ஆவர்	-9.39344
ரச	-9.39556
▁குற்ற	-9.39577
▁நம்ப	-9.39694
▁வாய்	-9.39732
பிர	-9.39759
▁பல்கலைக்கழகம்	-9.3983
▁ஒற்றை	-9.39836
த்திற்காக	-9.39904
▁நிகழ்	-9.39931
ேன்	-9.40025
▁பொருள	-9.40027
▁அடங்கும்	-9.40041
▁நிறுவனங்கள்	-9.40075
முடி	-9.40145
▁நேபாள	-9.40332
▁வெள்ள	-9.40368
▁சிற்ற	-9.40422
16	-9.40484
வெளி	-9.40497
ப்பொருள்	-9.40532
▁பொழுது	-9.40595
▁உலகப்	-9.40615
▁ஈர	-9.40616
▁O	-9.40642
ப்படாத	-9.40645
▁இதய	-9.40823
▁பக	-9.41056
ராய்	-9.41077
▁கதிர்	-9.41095
▁நீல	-9.41187
▁சன்னதி	-9.41235
மைய	-9.41291
டிக்	-9.41296
▁விளம்பர	-9.41367
▁நை	-9.41374
ுவர்	-9.41379
li	-9.41477
▁வீடு	-9.41568
▁துவக்க	-9.41595
ட்சி	-9.41692
▁கார	-9.41696
▁அதிகார	-9.41703
▁சுற்று	-9.41704
▁நாடுகளின்	-9.41778
▁மரண	-9.41891
▁மண்	-9.4205
▁பரப்ப	-9.42059
▁சுற்றுலா	-9.4208
▁முதன்	-9.42121
▁வருவாய்	-9.42136
▁தாக்குதல்	-9.4214
▁விகிதம்	-9.42162
▁அனுப்ப	-9.42184
▁தை	-9.42218
▁ஆப்	-9.42238
▁விகித	-9.42242
▁வேத	-9.42267
▁புலவர்	-9.42285
▁ஆன்	-9.42291
▁ஆகவும்	-9.42296
▁இல்ல	-9.42317
▁விவரிக்க	-9.42351
▁நாள	-9.42377
▁தொடங்கி	-9.424
▁வான	-9.42439
க்குச்	-9.42443
and	-9.42458
▁கத்தோலிக்க	-9.42459
▁சாதாரண	-9.42467
▁அரு	-9.42694
▁என்ன	-9.42737
▁உயிர	-9.42798
▁இவரை	-9.42902
▁ஒப்பந்த	-9.42962
▁ஆகியவற்றின்	-9.42999
▁தூண்ட	-9.43029
▁மாற்றம்	-9.43053
▁மிக்க	-9.43057
▁கட்சியின்	-9.43118
▁தில்லி	-9.43137
கூ	-9.43162
▁மைல்	-9.43162
▁விண்மீன்	-9.43167
id	-9.43332
▁அதி	-9.43399
▁கொடுத்த	-9.4341
▁ஒன்றிய	-9.43459
▁கிடைக்கும்	-9.43474
▁ஆயுத	-9.43484
ot	-9.43508
▁திரைப்படத்தில்	-9.4353
ற்க	-9.4356
▁முதலாவது	-9.43565
ஃ	-9.43579
▁இப்போது	-9.43594
ின்றது	-9.43624
▁கல்வெட்டு	-9.43691
▁கடைசி	-9.43692
டியா	-9.43705
க்குத்	-9.4379
▁மூலக்கூறு	-9.43797
ent	-9.4384
▁வல்ல	-9.43848
ொரு	-9.4385
▁மேம்படுத்த	-9.4397
▁அருகே	-9.43979
▁நிறுவ	-9.44066
கொள்ள	-9.44106
w	-9.44126
▁1980	-9.44293
▁கழக	-9.44358
வாதி	-9.4441
ளு	-9.44437
▁திரை	-9.44461
▁மாற்றி	-9.4457
▁ஒருநாள்	-9.44668
▁எழு	-9.44712
▁வண்ண	-9.44747
▁வேதி	-9.44799
▁விதை	-9.44807
▁இம்	-9.44825
களாகவும்	-9.4485
யினால்	-9.44898
11	-9.44972
நாத	-9.44975
▁தனிம	-9.45075
▁இலங்கையில்	-9.45141
தில்லை	-9.45177
ஸ்ட	-9.45255
▁ஃப	-9.45268
▁என்றால்	-9.45275
v	-9.4535
▁திருநெல்வேலி	-9.45354
▁பாறை	-9.45382
▁கல்வியறிவு	-9.454
▁துறைமுக	-9.45403
▁அனுமதி	-9.45508
▁கொடி	-9.4551
▁புத்தக	-9.45547
▁பகுதிகளை	-9.45553
▁நுட்ப	-9.45578
▁கம்ப	-9.45634
ம்பா	-9.45646
▁புரட்சி	-9.45729
த்தன	-9.45735
▁பெண்ண	-9.45735
க்குரிய	-9.45811
யிலேயே	-9.4587
▁இருந்தாலும்	-9.45915
▁தொடங்கியது	-9.45985
வல	-9.46019
▁பென்	-9.46044
▁இல்லாமல்	-9.46203
ஸின்	-9.46207
▁காஞ்சிபுரம்	-9.46224
▁உச்ச	-9.4623
▁சுய	-9.46263
▁பிரெஞ்சு	-9.46311
▁ஆக்	-9.46323
▁முடிவ	-9.46405
▁போரில்	-9.46449
▁சிலை	-9.465
▁வென்ற	-9.4655
▁ய	-9.46575
▁கலைஞர்	-9.46583
▁அமெரிக்காவின்	-9.46627
▁இளம்	-9.46663
▁ஏற்ப	-9.46709
▁உறவு	-9.46712
▁மாற்று	-9.46736
▁இணைந்த	-9.46743
▁திட்டம்	-9.46769
லாக	-9.46865
▁விளைவாக	-9.46955
▁நாணய	-9.47134
▁பதிப்பு	-9.47196
▁முத்து	-9.47215
▁அனுபவ	-9.47414
தார	-9.4747
▁2003	-9.4749
▁இவருடைய	-9.47502
60	-9.4757
▁பதிப்ப	-9.47647
மம்	-9.47666
▁J	-9.47749
▁ஆகியன	-9.47784
▁நடன	-9.47885
99	-9.47949
▁படம்	-9.47971
▁ஆன	-9.47987
▁பஞ்ச	-9.48047
▁ஜூன்	-9.4806
▁என்பதால்	-9.48068
▁தொடங்கினார்	-9.48083
▁உள்ளூர்	-9.48084
▁தயாரிப்பு	-9.4809
▁ஏனெனில்	-9.4815
▁வெள்ளி	-9.48176
▁கிருஷ்ண	-9.48239
▁ஆட	-9.4824
▁ஏறத்தாழ	-9.4829
ப்பகுதியில்	-9.4829
▁அயனி	-9.48302
▁புலி	-9.48431
▁வழங்கி	-9.48493
▁அலகு	-9.48541
▁தட	-9.48568
▁அரங்க	-9.48637
▁வம்ச	-9.4872
▁சைவ	-9.48726
காண	-9.48765
▁மேற்கொள்ள	-9.48786
ாக்க	-9.48789
▁அளவை	-9.48804
▁அறிவு	-9.48845
▁ஆகத்து	-9.48885
ப்பான	-9.48952
ுக்காக	-9.48989
ஸ்டர்	-9.49008
▁நதி	-9.49032
▁தடுக்க	-9.49033
▁உள்ளடக்கிய	-9.49097
▁வழங்கப்பட்டது	-9.49215
▁வில்	-9.49244
▁உப்பு	-9.49254
▁குதிரை	-9.49345
மைப்பு	-9.49393
▁பின்வருமாறு	-9.49413
கான்	-9.49428
▁கிடைக்க	-9.4945
os	-9.49471
லன்	-9.49503
▁வெளியிடப்பட்டது	-9.49527
▁அரசர்	-9.49556
கொள்	-9.49625
ையா	-9.49631
▁படைகள்	-9.49674
ராஜ	-9.4976
▁கூறி	-9.49816
▁நன்கு	-9.4984
▁அவர்களது	-9.49885
ூட்ட	-9.49901
▁இருவரும்	-9.49953
ேஷ்	-9.50033
j	-9.50075
▁இதே	-9.50166
யூர்	-9.50239
▁அரசாங்க	-9.5032
▁பகுதியை	-9.50351
▁அமையும்	-9.50408
▁நினைவு	-9.50469
ந்	-9.50473
▁அமைதி	-9.50481
▁வகுப்பு	-9.50482
▁பதிலாக	-9.50519
▁கட்டு	-9.50571
▁லீ	-9.50572
▁பலர்	-9.50589
எடுத்துக்காட்டாக	-9.50624
தலை	-9.50651
▁பார்த்த	-9.50656
▁சுழற்சி	-9.50659
கிழ	-9.50666
▁பிரபலமான	-9.50796
▁இள	-9.50797
▁ஆல்ப	-9.51067
▁பேரரசு	-9.51074
ீடு	-9.51108
▁மேலாண்மை	-9.51174
னீ	-9.51239
-1	-9.51245
▁நாட்கள்	-9.51249
▁சமுதாய	-9.51266
▁கடை	-9.51287
▁தோன்றிய	-9.51295
▁விளையாட	-9.51315
▁என்கிற	-9.51316
ஃபி	-9.5135
▁இணைக்கப்பட்ட	-9.51365
▁இருப்ப	-9.5138
ிருக்கலாம்	-9.51439
▁இவற்றின்	-9.51613
▁மாலை	-9.51619
▁எடுக்க	-9.5162
ப்படுவது	-9.51621
▁சேர்க்க	-9.5168
▁ஏனைய	-9.51805
▁திராவிட	-9.51844
▁காம	-9.51868
▁தொழிலாளர்	-9.51907
14	-9.51921
என்	-9.51981
▁படுத்த	-9.52087
▁பேருந்து	-9.52133
▁திரி	-9.52152
▁காய	-9.52176
▁யானை	-9.52186
17	-9.52232
திர்	-9.52309
குடி	-9.52329
▁சாத்திய	-9.52357
ஹ்	-9.5236
▁காற்ற	-9.52369
▁ஜூலை	-9.52474
▁வார்த்தை	-9.52769
▁2002	-9.52779
▁செய்வ	-9.52824
▁சொற்	-9.5283
ெழு	-9.52988
ஹி	-9.53055
▁அடைந்த	-9.53093
ிசை	-9.53123
▁பெருக்க	-9.53159
▁இப்ப	-9.53196
▁நீளம்	-9.53228
40	-9.53251
ியா	-9.53336
ஓ	-9.53339
வையாக	-9.53352
▁அமைத்த	-9.53369
▁தனிப்பட்ட	-9.53453
▁மனிதர்	-9.53543
▁குழந்தைகள்	-9.53551
▁மது	-9.53581
▁பலரும்	-9.53621
▁இச்ச	-9.53674
▁வில்லியம்	-9.53705
தோடு	-9.53741
▁கிராமக்	-9.53748
▁வானொலி	-9.53797
▁அளவ	-9.5391
▁நேரடியாக	-9.53958
▁பிரபல	-9.53997
சில்	-9.54014
▁ஆய்வ	-9.54061
▁அறியப்பட்ட	-9.54075
ேட்டு	-9.54146
▁வன	-9.54173
▁பாதிக்கப்பட்ட	-9.54203
▁முறையாக	-9.5433
▁ஜெய	-9.54477
▁பிரதான	-9.54486
▁பரி	-9.54487
▁திரவ	-9.54552
▁நடைபெறும்	-9.5456
போர்	-9.54581
▁பயிர்	-9.54675
▁இவற்றை	-9.54705
▁அண்ட	-9.54739
த்தக்க	-9.54768
▁ஆலய	-9.548
ுவதன்	-9.54914
கிறார்	-9.54951
▁பயன்	-9.54981
ீர்	-9.5504
க்கால	-9.55054
▁கோண	-9.55083
▁+	-9.55138
▁உலகில்	-9.55163
▁புரத	-9.55172
80	-9.5528
▁வளர்ந்த	-9.55281
▁தேச	-9.55296
la	-9.5531
▁குறைவாக	-9.55343
▁வட்டம்	-9.55349
▁கழகம்	-9.55414
க்கொள்ள	-9.55441
தெ	-9.55613
ுவதில்	-9.55623
▁திறமை	-9.55632
▁பொறியியல்	-9.55652
யாக்க	-9.5576
ராய	-9.5577
ள்ளி	-9.55871
க்குடி	-9.55879
▁எடுத்துக்	-9.5588
▁வீட்டு	-9.55966
▁செய்தது	-9.56022
▁பல்ல	-9.56058
▁பொருட்களை	-9.56089
ுபவர்	-9.56186
விலிருந்து	-9.56213
ப்பிர	-9.56225
பெரு	-9.5624
▁பின்பற்ற	-9.56245
▁கொலை	-9.56293
▁பன்னாட்டுத்	-9.56365
▁வேறுபட்ட	-9.56399
்க	-9.56545
▁ஆசிய	-9.56681
ay	-9.56773
▁காணலாம்	-9.56793
ளம்	-9.56856
▁மண்ண	-9.56919
▁திசம்பர்	-9.56938
நீர்	-9.56967
▁நாம்	-9.56989
▁தெலுங்கு	-9.56996
பிரி	-9.57012
யிர்	-9.57031
ப்பூ	-9.5706
ணர்	-9.57084
▁மலையாள	-9.57109
18	-9.57133
▁புரோ	-9.57134
▁முன்னேற்ற	-9.57142
▁பச்சை	-9.57162
▁இராச	-9.57273
▁தொகுப்ப	-9.57276
25	-9.57334
▁கப்பல்	-9.57335
களாலும்	-9.57346
▁சார்	-9.57367
X	-9.57408
பெர்	-9.57413
▁கொண்டுள்ளன	-9.57431
▁வால்	-9.57488
▁ஏற்பட்டது	-9.57535
▁இரவு	-9.57557
ிற்கும்	-9.57618
▁நடத்தி	-9.57638
▁பயன்படும்	-9.57736
▁யூத	-9.57736
முடைய	-9.57769
▁எடுத்த	-9.57828
மதி	-9.57904
▁சென்	-9.57937
im	-9.57942
▁வழிமுறை	-9.57948
▁இணைப்பு	-9.57958
ேந்திர	-9.57991
▁காரண	-9.58
od	-9.58014
▁வடிவம்	-9.58041
வம்	-9.58078
95	-9.58086
▁அடைய	-9.58104
▁வெளியே	-9.5814
▁தேவி	-9.58198
ate	-9.58207
▁துணி	-9.58209
ரக	-9.58251
வருக்கு	-9.58262
எம்	-9.58265
▁பின்வரும்	-9.58273
▁மக்களுக்கு	-9.58298
த்தினால்	-9.58334
ிருந்து	-9.5836
▁60	-9.58399
▁கேரள	-9.58416
▁செயற்கை	-9.58436
▁இருப்பது	-9.58437
▁இருந்தால்	-9.5847
பகுப்பு	-9.58523
▁கடவுள்	-9.58523
▁படத்தில்	-9.58597
▁அமைந்துள்ளன	-9.58622
ிடமிருந்து	-9.58704
▁1970	-9.5875
ந்தது	-9.58763
▁நடை	-9.58823
ாண்டு	-9.58847
ீட்டு	-9.58955
▁சிக்கல்	-9.58962
ig	-9.59002
ியம்	-9.59032
ab	-9.59301
▁இடைவெளி	-9.59313
ஃப	-9.5937
▁இங்குள்ள	-9.59385
ாா்	-9.59465
▁சீர	-9.59468
▁திருச்சபை	-9.59502
நூல்	-9.59506
▁விஜய	-9.59572
▁வல	-9.59591
▁படைத்த	-9.5961
▁பிரச்சினை	-9.59612
ார	-9.5962
வதி	-9.59661
▁இசு	-9.59662
▁அங்கே	-9.59664
▁சிங்க	-9.59665
▁/	-9.59701
▁வலை	-9.59714
ூரில்	-9.5973
கிராம	-9.59741
▁கர்	-9.59809
▁அமைந்தது	-9.59827
▁குறிப்ப	-9.59926
▁பாதி	-9.59939
98	-9.59953
▁வழங்கும்	-9.59983
ிற்காக	-9.6005
▁சிலர்	-9.60065
▁நிறைவேற்ற	-9.60192
▁அடிப்படையாகக்	-9.60203
▁சிறை	-9.60205
▁பெருமை	-9.60288
▁உருவாக்கிய	-9.6033
▁காந்த	-9.60377
ஞ்சு	-9.60382
70	-9.60396
▁கட்டமைப்பு	-9.60413
▁போன்றவற்றை	-9.60433
st	-9.60458
▁எண்ணெய்	-9.60524
13	-9.6058
▁அம்ம	-9.60678
90	-9.60687
▁ஷ	-9.60689
▁சாதனை	-9.60711
▁சார்பு	-9.60724
▁துறையில்	-9.60738
▁கலாச்சார	-9.60766
கின்	-9.60797
த்தலை	-9.60849
▁முடியாது	-9.60938
ோட்ட	-9.60944
நாடு	-9.60948
▁பொறி	-9.60962
▁செயல்பட	-9.60986
▁பயணி	-9.61019
▁வாயு	-9.61046
▁அழக	-9.61083
வரி	-9.61128
▁சிவகங்கை	-9.61136
▁என்றாலும்	-9.61151
▁ஓர	-9.61158
ha	-9.61169
ரல்	-9.61177
J	-9.61223
▁இலக்கண	-9.61251
ிற்கான	-9.61283
▁நடித்துள்ளார்	-9.61286
▁ரயில்	-9.61303
▁அச்சு	-9.61345
▁முறைமை	-9.61427
▁லோ	-9.61432
▁பாடிய	-9.61464
ஜெ	-9.61481
▁உள்ளடக்க	-9.6159
▁தெரிவித்த	-9.61618
க்கலை	-9.61678
▁விண்வெளி	-9.61719
▁பாவ	-9.61739
▁முட்டை	-9.6174
▁அரசியல்வாதி	-9.61768
▁ஏற்க	-9.6177
ப்பணி	-9.61788
▁அசை	-9.61791
மையான	-9.61803
▁குளிர்	-9.61811
▁பிரம்ம	-9.61836
▁பெற்றவர்	-9.61845
▁மையமாக	-9.61867
▁நிறைந்த	-9.61883
▁ஆகியவற்றில்	-9.6189
▁a	-9.61922
ப்புற	-9.61937
▁பிடித்த	-9.61952
▁தோன்ற	-9.62002
▁1960	-9.62009
யோடு	-9.62071
ண்டர்	-9.62165
வடிவ	-9.62187
▁அவர்களுக்கு	-9.62196
▁கேள்வி	-9.62253
▁வளைய	-9.62287
▁வகைப்படுத்த	-9.62331
▁நே	-9.62355
▁()	-9.62514
▁கூறப்படுகிறது	-9.62523
புற	-9.62529
▁சீனா	-9.62534
ang	-9.62542
+	-9.62563
▁யோ	-9.62577
▁போலவே	-9.62609
▁பாதுகாப்ப	-9.62659
▁பய	-9.62664
▁குருதி	-9.62722
▁நிகழ்ந்த	-9.62731
▁சமயம்	-9.6274
▁நேச	-9.62781
▁தவ	-9.62806
ஞ்	-9.62865
ion	-9.62889
ath	-9.62992
க்கரை	-9.6301
▁நீதி	-9.63013
▁பாணி	-9.63057
நல்லூர்	-9.63098
ரிக்	-9.63133
▁புதின	-9.63207
▁அடையாள	-9.63253
▁கைப்பற்ற	-9.63291
▁மஞ்சள்	-9.63354
யினர்	-9.6341
வையும்	-9.63477
▁குறைக்க	-9.63485
­	-9.63546
▁சேர்	-9.63576
மாற்ற	-9.63673
▁தெரிய	-9.63694
▁அளித்த	-9.63737
▁சென்றார்	-9.63739
▁பிரதி	-9.63759
▁மதிப்ப	-9.63762
▁மக்	-9.6378
em	-9.63793
ப்பூர்	-9.63808
▁கடவுள	-9.63829
▁நிலையை	-9.63835
96	-9.63847
நகர	-9.63881
91	-9.63897
▁சாதி	-9.63915
▁இலக்க	-9.63925
▁சூழ்நிலை	-9.63927
▁டொ	-9.63938
▁காதல்	-9.63941
▁கலவை	-9.63981
▁வெளியிடப்பட்ட	-9.64027
யில	-9.64128
▁நட்சத்திர	-9.64144
▁வெளியேற்ற	-9.64214
▁எழுதியுள்ளார்	-9.64237
▁சேர்ந்தவர்	-9.64287
▁f	-9.64289
▁அதிகாரி	-9.64319
மண	-9.64413
ட்ரா	-9.64424
▁அறிந்த	-9.64468
▁ஆகஸ்ட்	-9.64582
▁டீ	-9.6469
யாகக்	-9.64691
▁கோப்பை	-9.64728
▁திருத்த	-9.64764
▁கொல்ல	-9.64781
க்கார	-9.64813
ாகப்	-9.64832
▁புதுக்கோட்டை	-9.64867
▁உருவாக்கி	-9.64891
▁சேலம்	-9.64912
நேர	-9.64962
▁இருப்பதாக	-9.64964
▁முக்கியத்துவம்	-9.65022
01	-9.65114
ஸா	-9.65116
▁ஒலிம்பிக்	-9.65157
▁ஆற்றின்	-9.65226
▁என்பத	-9.65291
▁அமிலம்	-9.65336
▁அடுக்கு	-9.65362
வரு	-9.6546
ராச	-9.65499
ma	-9.65543
க்கூட	-9.6557
ப்படலாம்	-9.65574
▁இருந்தனர்	-9.65583
88	-9.65595
ak	-9.65623
▁ஆதார	-9.65624
▁நகைச்சுவை	-9.65683
▁விவர	-9.65708
லியா	-9.65738
▁குறிப்பு	-9.65748
▁வைர	-9.65755
▁திறந்த	-9.65758
னிக்	-9.65809
▁உர	-9.65835
▁பாய்	-9.65853
▁எலும்பு	-9.65879
▁என்பவரால்	-9.65952
▁உள்நாட்டு	-9.6597
ow	-9.66105
▁எழுதினார்	-9.6611
▁லூ	-9.66117
சென்	-9.66123
▁மட்ட	-9.66156
பன்	-9.66207
▁எடுத்துக்காட்டு	-9.66263
மூ	-9.66376
▁தனியார்	-9.6641
▁மலர்	-9.66554
▁கதாபாத்திர	-9.66573
all	-9.66599
▁கிட்டத்தட்ட	-9.66629
▁பயணம்	-9.66722
▁மூலக்கூற்று	-9.66741
பொருள்	-9.66747
▁கூறிய	-9.66764
வித	-9.66839
ினாலும்	-9.66846
வாக்க	-9.66952
▁இயக்கம்	-9.66958
▁ஆய	-9.67009
▁ஆள	-9.67085
ist	-9.67164
ாளர்கள்	-9.6717
ீஸ்வரர்	-9.67346
▁இந்நகர	-9.67364
▁செயல்படுத்த	-9.67386
கூட	-9.67391
▁கோடி	-9.67401
▁திரைப்படங்களில்	-9.67469
வர்களுக்கு	-9.67483
லால்	-9.67505
பிய	-9.67506
தற்கான	-9.67531
▁பத	-9.67552
▁அமைப்பை	-9.67571
▁அரண்மனை	-9.67585
▁வாழ	-9.67614
யிலான	-9.67689
▁கார்பன்	-9.67724
கலை	-9.67773
se	-9.67808
▁நடத்திய	-9.67873
▁பாடசாலை	-9.67881
▁அன்	-9.67899
▁நகராட்சி	-9.67954
▁கிரிக்கட்	-9.67982
த்திலேயே	-9.67996
▁வெடி	-9.68077
▁பெறும்	-9.68091
▁சாதன	-9.68091
▁இறை	-9.68096
வடி	-9.68172
க்களின்	-9.68174
▁அனைத்தும்	-9.6818
▁பரிமாற்ற	-9.68189
▁முடியாத	-9.68205
மடைந்த	-9.68207
▁சோவியத்	-9.68227
▁முனைவர்	-9.68259
▁மூத்த	-9.68337
▁பாதுகாக்க	-9.68377
▁இவ்வி	-9.68397
▁வெளியேற	-9.68424
▁மாதத்தில்	-9.68577
ராஜ்	-9.68582
▁இப்பகுதி	-9.68585
▁குறிக்கிறது	-9.68713
▁சரியான	-9.68741
▁விளை	-9.68784
க்கப்பட்டு	-9.6883
▁பிரிக்க	-9.68841
▁ஒன்ற	-9.68902
▁பசு	-9.68905
▁வடிவில்	-9.68925
▁சிற்ப	-9.68926
▁அந்	-9.68945
▁முதல	-9.68974
ாகக்	-9.68975
▁கடத்த	-9.69004
▁தற்கால	-9.69024
▁சிங்கள	-9.69031
தூ	-9.69048
▁விரி	-9.69055
▁செங்க	-9.69055
க்குழு	-9.6916
▁வாழ்ந்து	-9.69175
த்திலுள்ள	-9.69262
▁சக	-9.69271
▁புராண	-9.69306
ap	-9.6932
ஷன்	-9.69361
▁பரப்பளவு	-9.69393
களுக்குப்	-9.69402
ாதி	-9.6941
▁மும்பை	-9.69426
▁படைப்பு	-9.69495
▁தூத்துக்குடி	-9.69522
லக	-9.69667
▁2017	-9.6967
▁ஈடுபட	-9.69742
02	-9.69799
▁பண்பு	-9.69819
ியுள்ளார்	-9.69846
க்கிறது	-9.69864
▁கொள்ளும்	-9.69869
ன்ற	-9.69885
▁உடல	-9.69906
▁தயாரிப்ப	-9.69932
▁தொடங்கிய	-9.70125
▁திருவ	-9.70132
▁முருகன்	-9.70201
▁அடையாளம்	-9.70265
▁தொழிற்சாலை	-9.70276
▁கடன்	-9.70392
▁விளங்குகிறது	-9.70407
▁விவசாய	-9.70415
▁கவன	-9.70419
▁இவ்வகை	-9.70464
▁புரிந்து	-9.70485
▁மென்பொருள்	-9.70589
▁கிரா	-9.70627
நோ	-9.70653
▁2,	-9.70687
ப்படுகிறார்	-9.70761
▁கொண்டுள்ள	-9.70826
▁வடிவமைப்பு	-9.70843
ut	-9.70848
▁அறிந்து	-9.70866
▁இரும்பு	-9.70938
▁உரிய	-9.70941
க்கில்	-9.70942
▁அல	-9.70946
▁உறை	-9.70977
▁வடி	-9.70983
லாந்து	-9.7102
▁உருவான	-9.71046
ட்டம்	-9.71135
▁1999	-9.71172
ப்பட்டுள்ள	-9.71181
▁சகோதரர்	-9.712
▁உதவ	-9.71242
▁ஒளிபரப்ப	-9.71249
▁காவல்	-9.71292
ப்பது	-9.71347
னியம்	-9.71358
▁கற்	-9.7151
▁பெரிதும்	-9.71624
82	-9.71625
ne	-9.71625
▁உலகம்	-9.71658
▁வேளாண்மை	-9.71663
ேற்ற	-9.71748
டுகள்	-9.71828
▁பள்ளியில்	-9.71959
விட்ட	-9.71959
▁அப்ப	-9.72013
▁இச்	-9.72024
▁நியமிக்கப்பட்ட	-9.72029
ta	-9.72075
▁உதாரணமாக	-9.72085
▁இந்தி	-9.72103
▁வேக	-9.72127
▁ஜெர்மானிய	-9.72146
ங்க்	-9.72164
▁வரலாற்றில்	-9.72164
▁கடல	-9.72384
▁தரும்	-9.72385
op	-9.72484
ச்செ	-9.72488
89	-9.72526
▁கொள்	-9.72534
▁நகரின்	-9.72553
▁கேட்ட	-9.72565
▁கிராமத்தில்	-9.72576
▁பொருந்த	-9.72645
°	-9.72736
▁நடைபெற்றது	-9.72785
▁பன்	-9.72832
▁நேரங்களில்	-9.72888
பாய்	-9.72922
▁குவி	-9.72957
te	-9.73018
▁இத்தாலிய	-9.73083
▁பாடல	-9.731
▁இத்	-9.73138
▁இராஜ	-9.73223
ங்களால்	-9.7325
▁சிறிது	-9.73404
ும	-9.73404
மாக்க	-9.73453
லூ	-9.73465
▁அமைச்ச	-9.73478
▁மல	-9.73504
▁தேட	-9.73537
▁உறுப்பினர்கள்	-9.73541
▁சூழல்	-9.73549
பெற்ற	-9.73549
ுவ	-9.73556
▁வேட	-9.73617
▁பெப்ரவரி	-9.73634
ப்பாக	-9.73702
▁எவ்வாறு	-9.73756
▁சித்த	-9.73801
▁எச்	-9.73818
▁நைட்	-9.7388
▁ராஜ்	-9.73888
▁U	-9.73938
▁வரையறை	-9.73952
▁வரலாற்ற	-9.73957
▁பிரிக்கப்பட்ட	-9.73992
▁விழுப்புரம்	-9.73995
▁நேரடி	-9.74052
▁தீர்த்த	-9.74062
▁நிறைவு	-9.74078
கிறான்	-9.74108
ஆங்கிலம்	-9.74169
னுடன்	-9.74222
92	-9.74267
வாறு	-9.7427
த்தினர்	-9.74279
ஸில்	-9.74308
▁நுண்	-9.7433
களோடு	-9.74419
▁மாணவர்கள்	-9.74514
▁பிறந்தவர்	-9.74523
▁தென்னாப்பிரிக்க	-9.74538
▁கணக்கெடுப்பின்	-9.74543
▁பாடல்களை	-9.7459
86	-9.74606
ப்பட்டனர்	-9.74621
▁அறிஞர்	-9.74655
ேஸ்வரர்	-9.74658
▁மேற்கொண்ட	-9.74685
75	-9.74685
68	-9.74714
ிருக்கின்றன	-9.74765
▁முஸ்லிம்	-9.7478
▁அடிக்கடி	-9.74781
▁நாளில்	-9.74817
▁சிவப்பு	-9.74871
▁ஐரோப்பா	-9.74911
▁(1	-9.74956
ர்ஸ்	-9.75004
▁வண்டி	-9.75067
▁கட்டட	-9.75073
▁32	-9.75121
▁வெளியானது	-9.75186
நீ	-9.75194
▁நிறை	-9.75343
சர	-9.75353
வதை	-9.75377
▁நோயாளி	-9.75387
கின்றனர்	-9.75394
▁நாராயண	-9.75502
87	-9.75612
க்கூ	-9.75613
▁உள	-9.7569
▁1996	-9.75716
வைக்	-9.75756
வீர	-9.75763
▁இந்	-9.75763
▁நபர்	-9.75768
▁மரியா	-9.75771
இன்	-9.75777
▁கூறுகிறது	-9.75878
▁செலவு	-9.75943
▁கட்டுரைகள்	-9.75971
▁பூமி	-9.75973
ுகிறான்	-9.76058
na	-9.76137
ிருந்தனர்	-9.76191
▁நிறுவப்பட்டது	-9.76207
▁கல்ல	-9.76246
▁இசுலாமிய	-9.76247
▁காலை	-9.76262
▁சேத	-9.76268
▁மாநிலம்	-9.7627
▁நாட்	-9.76287
யிடம்	-9.76362
▁போன்றவற்ற	-9.76401
ந்திய	-9.76425
ுதல	-9.76434
▁வழக்கமாக	-9.76435
▁இயல்பு	-9.76478
▁கணக்கிட	-9.76503
▁கண்டறிய	-9.76553
97	-9.76556
▁தயாரித்த	-9.76566
▁கையாள	-9.76569
▁ஆடு	-9.76616
▁அவற்றில்	-9.7664
க்கோட்டை	-9.76649
தொ	-9.76701
▁முக்கோண	-9.76711
ருக்கும்	-9.76719
▁முழுமையாக	-9.76803
▁தனக்கு	-9.76828
ாய்வு	-9.76887
▁அலுவலக	-9.76963
யம்மன்	-9.76992
ாய	-9.77052
▁மின்ன	-9.77065
▁நிகழ்வ	-9.77132
▁$	-9.77167
வட்ட	-9.77176
▁முறையை	-9.77249
▁வெளியிட்டார்	-9.77285
▁மக்களை	-9.7734
▁ஆனார்	-9.77341
▁வலது	-9.77362
▁இயற்பியல்	-9.7738
ப்படுத்தி	-9.7753
▁விமர்சன	-9.77548
▁காட்டிலும்	-9.77605
செய்	-9.77613
மீன்	-9.77626
ிட்ட	-9.77669
▁தப்பி	-9.77684
▁வருகின்றனர்	-9.77718
▁வகைகள்	-9.7778
ாளராக	-9.77797
▁80	-9.77811
பேட்டை	-9.7786
▁அறிவ	-9.77872
▁மையம்	-9.77877
▁ஆய்வுகள்	-9.77926
ell	-9.77989
84	-9.78047
வார	-9.78077
▁கட்டுமான	-9.78087
▁தோல்வி	-9.78092
▁கண்ணாடி	-9.78112
▁நவ	-9.78132
▁கூடுதலாக	-9.78175
▁1998	-9.78197
குறி	-9.78201
▁மேலே	-9.78232
க்கல	-9.78252
▁மாறாக	-9.78319
▁பொறுப்ப	-9.78336
▁பகு	-9.78382
▁”	-9.78445
▁பயன	-9.78452
யான்	-9.78456
▁உணவ	-9.78471
▁எடுக்கப்பட்ட	-9.78514
▁ஆனாலும்	-9.7852
▁பொறுத்து	-9.78563
▁அகல	-9.78574
▁உயரத்தில்	-9.78575
ெல்லாம்	-9.78576
▁ஓய்வு	-9.78586
செய்ய	-9.78592
களி	-9.78595
▁ஆர	-9.78602
▁நூலில்	-9.78627
▁குழாய்	-9.78633
▁நு	-9.78661
83	-9.78684
▁சார்ப	-9.78716
▁அளவிலான	-9.78729
▁சற்று	-9.78877
▁காய்	-9.78894
குளம்	-9.78901
▁ஆர்வ	-9.78918
▁தொடரில்	-9.7894
சார	-9.78957
தன	-9.7896
செல்	-9.78976
▁கோட்பாட்ட	-9.79009
ரிடம்	-9.79034
▁போரின்	-9.79034
▁அறிவிக்கப்பட்ட	-9.79049
▁குடியரசு	-9.7908
▁வேறுபாடு	-9.79179
94	-9.79202
76	-9.79299
▁பாலி	-9.79329
▁d	-9.79345
கட	-9.79347
▁அட்டை	-9.79354
▁கூட்டணி	-9.79355
ியின்	-9.79378
▁தொடு	-9.79405
▁ஈடுபட்ட	-9.79438
▁மரபணு	-9.79443
ப்பெரு	-9.79493
▁அவரின்	-9.79507
▁இவ்	-9.7963
▁செய்யப்பட்டு	-9.7964
▁சுத்த	-9.7966
ுள்	-9.79672
▁முதன்மையான	-9.79677
▁இளைய	-9.79687
யிர	-9.79705
சம	-9.79713
▁பேச்சு	-9.79848
துடன்	-9.79937
▁ஒன்பது	-9.79946
▁அழைத்து	-9.79972
▁பரிந்துரை	-9.80013
▁எதிரி	-9.80058
▁உருவாகும்	-9.80063
ங்கிய	-9.80085
▁குடியேற்ற	-9.80113
ஸ்டி	-9.80117
▁வருகை	-9.80154
▁அடங்கிய	-9.802
▁விளையாட்ட	-9.80212
ெடுத்த	-9.80212
▁கூறுகிறார்	-9.80287
ஞ	-9.80319
தல	-9.80354
▁சங்கம்	-9.80358
பல	-9.80383
▁விளைவு	-9.80406
▁செய்யப்படும்	-9.80417
▁யோக	-9.8045
▁சேர்ம	-9.80456
▁நடித்துள்ளனர்	-9.80497
▁மலேசிய	-9.80507
▁வேலூர்	-9.80521
▁அலி	-9.80651
யீ	-9.80661
க்கின்	-9.80667
▁ராஜா	-9.80675
கட்ட	-9.80695
ுவார்	-9.80701
▁ஒப்பு	-9.80705
லிங்க	-9.80838
குல	-9.8084
▁நண்பர்	-9.80874
▁பாராளுமன்ற	-9.80909
▁நிலுவையில	-9.80912
▁கவு	-9.80946
▁சென்னையில்	-9.81009
▁n	-9.81012
▁மூளை	-9.81021
கின்ற	-9.81024
▁வார்	-9.81037
லிங்	-9.81078
வியல	-9.81079
sh	-9.81092
ட்ரோ	-9.81162
co	-9.8118
▁அமைப்பின்	-9.81253
▁பெற்றோர்	-9.81289
க்கட	-9.8129
யுடைய	-9.81331
▁ஆவி	-9.81351
திரைப்படம்	-9.81382
▁பாண்டிய	-9.81383
ருக்க	-9.81387
துறை	-9.81485
▁கருப்பு	-9.81508
▁வழங்கிய	-9.8151
▁கனடா	-9.81591
▁குண்டு	-9.817
▁ஹார்	-9.81703
▁கைது	-9.8172
▁இவன்	-9.81732
▁சன்	-9.81751
ine	-9.8178
▁அமைய	-9.81798
▁கலந்த	-9.81815
▁கழி	-9.81827
க்கர்	-9.81914
▁யார்	-9.81938
▁நகரத்தில்	-9.8196
▁நம்	-9.81984
▁ஹை	-9.82112
த்தோடு	-9.82137
ோன்	-9.8215
93	-9.82161
▁பொன்ன	-9.82178
▁சக்கர	-9.82223
06	-9.82232
▁கூடுதல்	-9.82255
▁காலங்களில்	-9.8228
▁பரந்த	-9.82323
hi	-9.82372
ங்கல்	-9.82375
▁கோள	-9.82376
▁இணைத்து	-9.82393
69	-9.82399
▁பின்னணி	-9.82408
▁மாணவ	-9.82467
▁கேட்க	-9.82496
▁பயன்படுத்தும்	-9.82501
▁ஆசியா	-9.82556
மய	-9.82582
▁1989	-9.82622
▁பிரதேசம்	-9.82622
ுரு	-9.82629
▁தக்க	-9.82629
▁செய்கிறது	-9.82638
▁உண்மையான	-9.82651
விலுள்ள	-9.82733
▁பரிச	-9.82764
▁இங்கே	-9.82843
▁3.	-9.82845
▁இழந்த	-9.82867
▁சோடியம்	-9.82883
▁அமைப்புகள்	-9.82884
ப்பான்	-9.8289
▁அனைவரும்	-9.82924
▁எழுந்த	-9.82983
▁வளை	-9.82987
▁கடுமையான	-9.82998
டும்	-9.83099
நே	-9.83146
கீ	-9.83153
▁1950	-9.83165
ென்று	-9.8317
▁உருவாக்கும்	-9.83202
பத	-9.83233
▁மித	-9.83296
▁பேரரசின்	-9.83311
▁அவர்களை	-9.83318
ியம்மன்	-9.83322
ட்சு	-9.83323
▁வானியல்	-9.83327
ெடுக்க	-9.8334
▁35	-9.83346
ண்டோ	-9.83441
ac	-9.83447
▁சௌ	-9.83526
▁சர	-9.83585
▁ஏற்றுக்கொள்ள	-9.83633
▁அப்பா	-9.83678
ண்டை	-9.83699
▁அடிமை	-9.83707
▁ஆழ	-9.83728
▁வேர்	-9.83806
▁தீவிர	-9.83846
▁நிகழ்த்த	-9.83848
நாதர்	-9.83916
ுவதில்லை	-9.83923
கால்	-9.83969
▁வரையறுக்க	-9.83996
▁வழியில்	-9.83997
▁மிகச்	-9.84
▁புகை	-9.84056
▁தலைமையில்	-9.84057
ப்பே	-9.84062
மாய்	-9.84133
▁அர்	-9.84209
05	-9.84221
▁இலக்கு	-9.84327
▁சுருக்க	-9.8434
▁ஆரம்பத்தில்	-9.84383
ப்பன்	-9.84422
பாட	-9.84458
▁ஆனந்த	-9.8446
79	-9.84555
▁இத்த	-9.8459
▁1991	-9.84612
▁மீதான	-9.84631
ில	-9.84658
▁அறியப்படுகிறது	-9.84661
▁ஏர்	-9.84664
▁தன்ன	-9.84666
▁மகள்	-9.84682
61	-9.8469
தையும்	-9.84693
▁பாராட்ட	-9.84723
▁சிந்தனை	-9.84724
ிற	-9.84738
மூர்த்தி	-9.84793
▁படிக	-9.84886
man	-9.84887
▁உணர்வு	-9.84892
▁நாகப்பட்டினம்	-9.84923
▁ஆசிரியராக	-9.8494
▁இந்தச்	-9.85009
▁வாய்ப்பாடு	-9.85068
▁கண்டுபிடித்த	-9.8508
▁கரி	-9.85123
▁உயரம்	-9.85131
▁எப்படி	-9.85185
▁சிறப்ப	-9.85251
▁ஆதரவ	-9.8526
▁இன்றும்	-9.85279
▁இத்தல	-9.85303
▁வருமான	-9.85322
களினால்	-9.85395
பக்க	-9.85452
▁நீதிமன்ற	-9.85499
46	-9.85515
▁கன்னி	-9.85536
▁கண்டி	-9.8554
▁கிருஷ்ணகிரி	-9.85546
▁செயல்பாடு	-9.85588
ிருந்தன	-9.85669
▁அய்யனார்	-9.85682
▁பாக்	-9.85693
▁மரப	-9.85709
வில	-9.85726
நாட்டு	-9.85745
வெல்	-9.85795
ும்படி	-9.85822
▁பங்கேற்ற	-9.85881
▁வளர்க்க	-9.85886
▁இராச்சிய	-9.85909
ாண்ட	-9.85982
▁தசை	-9.86022
ங்குடி	-9.86052
▁அகற்ற	-9.86061
▁கால்பந்து	-9.86071
▁பந்து	-9.86087
▁குழும	-9.86105
ஸ்டா	-9.86118
▁உதவும்	-9.86125
▁உயிரின	-9.86262
சில	-9.86289
35	-9.86289
▁நீரில்	-9.8641
▁காங்கிரஸ்	-9.8649
ளே	-9.86501
▁தொடங்க	-9.86572
ti	-9.866
▁தோல்	-9.86639
▁வழங்கப்பட்ட	-9.86639
▁அந்தப்	-9.86662
▁எழுப்ப	-9.86699
▁அம்ச	-9.86701
ிடையே	-9.86714
யேற்ற	-9.86737
▁தாம்	-9.8681
▁பார	-9.86881
ந்தார்	-9.86971
▁இவன	-9.86999
▁கன்னட	-9.87083
▁ஒன்றான	-9.87086
▁ஒடுக்க	-9.87174
▁உத்தர	-9.87223
▁நிருவாகியா	-9.87223
களிடையே	-9.87251
▁அவள்	-9.87285
▁தூர	-9.8731
▁மாகாணத்தில்	-9.87336
▁ஜெர்மனி	-9.87373
க்கப்படும்	-9.87381
▁ஆதரவு	-9.8739
▁நூலை	-9.87433
▁வந்தனர்	-9.87433
▁கொண்டிருந்தது	-9.87437
▁திருப்ப	-9.87484
▁செய்யப்படுகிறது	-9.87485
▁கலி	-9.87495
▁நிலையான	-9.87509
▁தொலைவிலும்	-9.87523
▁ஐய	-9.87614
▁1994	-9.87667
▁வழிபாடு	-9.87695
▁இதழ	-9.87698
▁ரூபாய்	-9.87724
▁நடிக்க	-9.87772
▁பழக்க	-9.87813
▁முறைகள்	-9.87924
ப்பெயர்	-9.87927
ொலி	-9.87987
த்தான	-9.88032
▁இறக்க	-9.88085
ச்சை	-9.88161
▁இவற்ற	-9.88161
▁கணக்க	-9.88182
ருடன்	-9.88207
▁நார்	-9.88217
ப்படுத்தப்பட்ட	-9.88225
▁வைக்கப்பட்ட	-9.88259
▁பிளா	-9.88351
காலத்தில்	-9.88354
ின்படி	-9.88418
▁அறுவை	-9.88439
▁கடந்து	-9.88455
▁வின்	-9.88525
▁ஆஸ்திரேலியா	-9.88559
▁தண்டனை	-9.88578
▁போதும்	-9.88584
▁தரை	-9.88599
▁பார்த்து	-9.88669
▁கோர	-9.88715
▁பாதிக்க	-9.88724
▁காணப்பட்ட	-9.88765
வாகும்	-9.8882
▁ஒருங்கிணை	-9.8886
▁அறிவித்த	-9.88884
னிடம்	-9.88894
▁அளவுக்கு	-9.88897
ருக	-9.88903
▁பேரரச	-9.88937
ங்களுக்கும்	-9.88973
ப்பொ	-9.88992
▁என்பதாகும்	-9.89003
▁திண்டுக்கல்	-9.89034
▁ஹே	-9.89067
▁ஒப்ப	-9.89084
▁45	-9.89086
▁எளிய	-9.89112
ec	-9.8912
▁சார	-9.89161
▁நூல்களை	-9.89232
▁பெண்களின்	-9.89237
▁பிரே	-9.89265
▁திற	-9.89324
த்திரி	-9.8938
வானது	-9.894
ப்பாடு	-9.89416
▁மேடை	-9.89487
▁கொண்டதாக	-9.89509
▁குறுகிய	-9.89527
▁உணர	-9.89542
▁கட்டப்பட்டது	-9.89566
vi	-9.89584
பிள்	-9.89611
நகர்	-9.89643
▁சுற்ற	-9.89643
ஒரு	-9.89647
த்தனர்	-9.89702
▁நடித்திருந்தனர்	-9.8975
▁பயனர்	-9.89771
▁வரைபட	-9.89802
▁வாழ்வ	-9.89858
▁பற்றியும்	-9.89876
▁மொழிகளில்	-9.89881
The	-9.9
▁ஆங்கிலம்	-9.90005
▁உண்மையில்	-9.90082
▁செய்தனர்	-9.90123
கையில்	-9.9024
▁கர்நாடக	-9.90252
▁செடி	-9.90257
▁குழுக்கள	-9.90269
பரி	-9.90283
▁200	-9.90347
▁அணிக்கு	-9.90365
வைச்	-9.90367
களா	-9.90382
வாரி	-9.90416
▁நரம்பு	-9.90419
▁ஆஸ்	-9.90439
▁கட்டுப்பாடு	-9.90459
▁தொகையில்	-9.90484
▁அவற்ற	-9.90521
நாள்	-9.90522
▁கட்டாய	-9.9055
▁அவள	-9.90555
ங்களுள்	-9.90567
மென்	-9.90609
ட்டான்	-9.90611
▁அற	-9.9075
மேன்	-9.90833
▁ப்ர	-9.90859
வர்களாக	-9.90861
73	-9.90877
▁அமைச்சர்	-9.9089
▁சிறப்பான	-9.90906
▁பண்பாட்டு	-9.9095
▁அதிகரித்த	-9.90973
04	-9.90973
▁நாமக்கல்	-9.91013
▁அண்ட்	-9.91022
▁செயலாளர்	-9.91064
▁மருத்துவர்	-9.91082
▁முருக	-9.91103
▁முழுமையான	-9.91165
▁லை	-9.91281
▁இன்றைய	-9.91299
ேஸ்வர	-9.91329
▁ரீ	-9.91387
09	-9.91411
▁தளபதி	-9.91411
டில்	-9.91483
▁இம்ம	-9.91546
மட்ட	-9.91562
க்காடு	-9.91581
மையை	-9.91631
ly	-9.9164
▁உயிரி	-9.91655
▁ரீதியாக	-9.91684
▁கேட்டு	-9.9169
னான்	-9.91742
▁சிவாகம	-9.91801
▁கோவை	-9.91823
பியா	-9.91837
▁நபர்கள்	-9.91838
யாளராக	-9.91896
▁போற்ற	-9.919
▁ஜூ	-9.91927
▁வலிமை	-9.91929
போல்	-9.9194
▁அன்னை	-9.91943
நாயக்க	-9.91944
ட்டிய	-9.91965
வர்களின்	-9.91977
▁ஆற்ற	-9.91978
▁ஈழ	-9.91986
▁ரொ	-9.92008
▁இதுவரை	-9.9205
▁மன்னன்	-9.92076
▁வளர்	-9.92098
▁உச்சி	-9.92124
▁தர்மபுரி	-9.92169
▁அமைத்து	-9.92198
▁மாவட்டங்களில்	-9.92208
த்தினர	-9.92216
▁நியூயார்க்	-9.92243
▁ஆடை	-9.92249
39	-9.92266
▁இப்படி	-9.92341
▁பாதிப்பு	-9.92387
▁ஈரோடு	-9.92403
▁கடற்படை	-9.92453
de	-9.925
▁கிடைத்தது	-9.92521
▁ஜீ	-9.92527
▁சேர்க்கப்பட்ட	-9.92529
▁நிறுவப்பட்ட	-9.92539
ொன்று	-9.92596
▁ஆணைய	-9.92607
▁நந்தி	-9.92657
▁மான்	-9.92658
▁ஜார்ஜ்	-9.92667
▁ஒன்றில்	-9.92673
▁கொடுத்து	-9.92677
▁வது	-9.92688
▁முடிய	-9.9269
▁காசி	-9.92739
▁சுப்பிரமணிய	-9.9274
ிருச்சிராப்பள்ளி	-9.9275
ப்படு	-9.92754
ரியோ	-9.92762
▁கன்னியாகுமரி	-9.92812
▁படிக்க	-9.92837
த்ரா	-9.92937
ிக்கும்	-9.92945
▁1992	-9.92982
▁மரம்	-9.93015
▁உருவாகிறது	-9.93048
▁நூலக	-9.93052
▁1997	-9.93054
▁எதுவும்	-9.93094
ண்ணி	-9.93113
▁நெறி	-9.93144
▁ஆயினும்	-9.93177
▁h	-9.93185
▁சமயத்தில்	-9.93208
▁மாசி	-9.93216
▁குளோ	-9.93272
ஷ்ட	-9.93339
▁குடும்பம்	-9.93369
ஸ்த	-9.93375
▁மென்	-9.93382
▁(200	-9.93395
ுவத	-9.93425
▁அழைக்கப்பட்ட	-9.93438
▁சித்திரை	-9.93449
▁மக்களவை	-9.93573
க்கூடும்	-9.93611
ங்களான	-9.9363
▁மலேசியா	-9.93683
▁தக	-9.93749
சங்க	-9.93752
▁இராக	-9.93756
▁கிமு	-9.93782
▁உண்டாக்க	-9.93793
▁தெளிவாக	-9.93809
ினான்	-9.93888
▁தர்ம	-9.93955
▁ஆலை	-9.94043
▁போக	-9.94097
▁செய்வது	-9.94123
க்குறி	-9.94126
ட்டன்	-9.94168
▁1995	-9.9423
▁மற	-9.94298
ந்த்	-9.94357
24	-9.94368
85	-9.94439
▁இனப்பெருக்க	-9.94498
▁கண்டறிந்த	-9.94514
▁ஆங்கிலேய	-9.94526
▁ஆகியவற்ற	-9.94549
▁பிடிக்க	-9.94594
▁தொடக்கத்தில்	-9.94626
ட்ரி	-9.94638
▁வலியுறுத்த	-9.94645
▁அருள்	-9.94651
க்கிர	-9.94651
▁நடத்தை	-9.94658
▁பொருளாக	-9.94676
▁அழகிய	-9.9471
21	-9.94735
▁இருக்கிறார்	-9.94743
▁வீதி	-9.94849
28	-9.94872
▁எளிதாக	-9.94903
▁உப	-9.94911
▁குரல்	-9.9492
▁விளக்கு	-9.94932
▁ஒட்டி	-9.94936
▁பட்டியலில்	-9.94952
▁போட்டியிட்டு	-9.94953
க்கின்றன	-9.95007
தேவி	-9.95145
▁கோர்	-9.95157
▁முடிந்த	-9.95232
45	-9.95244
▁முறையே	-9.95263
ீர	-9.95267
▁மார்ச்சு	-9.95281
னுடைய	-9.95318
▁அழுத்தம்	-9.9537
லோக	-9.95375
▁உருவானது	-9.95403
▁பேராசிரியர்	-9.95473
07	-9.9555
▁பொறுப்பு	-9.95552
▁சேர்ந்தார்	-9.9569
ho	-9.95697
▁ஒன்றியம்	-9.95712
▁மத்தியில்	-9.95724
▁தாழ்	-9.95728
▁மிகக்	-9.95767
ங்கே	-9.95792
எல்	-9.95825
Cl	-9.95878
65	-9.95894
த்தொகை	-9.95904
▁இன்னொரு	-9.95916
▁கோயம்புத்தூர்	-9.95918
ங்களைத்	-9.95975
▁ரு	-9.95987
▁அதிகரிக்க	-9.96048
▁அமைச்சராக	-9.96115
▁டாலர்	-9.96147
▁உருவாக்கினார்	-9.96155
▁தோன்றும்	-9.96158
▁வருடம்	-9.96201
யாகப்	-9.96207
▁திருவள்ளூர்	-9.96211
ment	-9.96214
▁அமை	-9.96241
▁தண்ணீர்	-9.96244
▁பணம்	-9.96246
▁பரப்பு	-9.96249
▁கட்டளை	-9.96289
▁டேவிட்	-9.96313
78	-9.96387
▁அஞ்சல்	-9.96415
▁திரும	-9.96447
மன	-9.96448
ிலான	-9.96452
ொன்ற	-9.96454
▁விருதை	-9.96469
▁பரம	-9.965
விளை	-9.96519
நாதன்	-9.9652
ஆர்	-9.9652
சூர்	-9.96521
▁நாட்களில்	-9.96554
▁நீர்ம	-9.9659
தனை	-9.96596
பல்	-9.96608
▁1984	-9.96612
▁இந்தியப்	-9.96733
க்கரு	-9.96829
▁°	-9.96832
ஃபா	-9.96888
di	-9.9689
றும்	-9.96899
▁கட்டிடக்கலை	-9.96943
▁புற்றுநோய்	-9.96945
▁தொடர்ந்த	-9.96997
▁இயங்க	-9.97046
▁t	-9.97052
ud	-9.97098
▁மருத்துவமனை	-9.97102
▁வட்டார	-9.97138
▁வழிபட	-9.97158
▁கடற்	-9.97218
ித்தார்	-9.97259
ராம	-9.97286
▁கோள்	-9.97291
▁பழங்குடி	-9.97356
▁1947	-9.97364
▁சூட்ட	-9.97392
▁சுவர்	-9.97412
கொண்டு	-9.97414
▁தண்ட	-9.97503
தற்	-9.97514
▁நகரத்தின்	-9.97522
67	-9.97556
▁பிணைப்பு	-9.97565
▁தீர்வு	-9.97582
ெய்	-9.97605
▁இயங்கும்	-9.97616
ளவில்	-9.97735
▁வேண்ட	-9.97739
▁விடுதலைப்	-9.97751
▁ஓட	-9.97758
▁பழமையான	-9.97787
-20	-9.97801
▁இடது	-9.9782
▁குரோ	-9.97832
▁நட	-9.97835
▁நடிப்ப	-9.97873
தைக்	-9.9788
▁வங்காளதேச	-9.97884
▁இத்திரைப்படம்	-9.97886
▁செர்	-9.97893
▁உள்ளே	-9.97915
ீஸ்	-9.97915
▁தெரிவிக்க	-9.97929
▁மின்சார	-9.97993
▁குகை	-9.98073
குமார்	-9.981
▁கொழும்பு	-9.98193
31	-9.98196
▁சகோதரி	-9.98255
▁வடிவமைக்கப்பட்ட	-9.98257
▁எதிர்த்து	-9.98277
▁கோப	-9.983
அல்லது	-9.98405
22	-9.98452
▁தோற்றம்	-9.98455
ாமை	-9.98468
▁தலைநகர	-9.98484
யாளர	-9.98487
கோண	-9.98537
விடும்	-9.98559
பில்	-9.98599
▁குடும்பத்தில்	-9.98678
23	-9.98701
▁நெடு	-9.98702
▁திரும்பி	-9.98703
▁சதவீத	-9.98719
▁வீழ்ச்சி	-9.98723
க்கண	-9.98726
▁வரையிலான	-9.98756
▁கிரு	-9.98832
▁வளரும்	-9.98834
▁ஃபெ	-9.98849
▁முதலான	-9.98858
qu	-9.9887
▁வித	-9.98879
▁பிள	-9.98902
▁சூழல	-9.9893
▁செயல்படுகிறது	-9.9893
▁விரிவாக்க	-9.98986
▁ஆங்கிலத்தில்	-9.99047
%)	-9.99048
▁பிழை	-9.99062
▁33	-9.99113
▁ஆக்சைடு	-9.9912
ிதழ	-9.99145
▁இழை	-9.99146
▁சுரங்க	-9.99187
▁துவங்க	-9.99193
மிட	-9.99196
▁ஆற்று	-9.9921
▁தொல்	-9.99263
னன்	-9.99293
சொ	-9.99294
▁(18	-9.99299
பெற	-9.99318
▁உண்ண	-9.99341
ஜீ	-9.99343
▁ஐதரசன்	-9.99346
▁ஏற்பாடு	-9.99348
▁நீதிபதி	-9.99361
32	-9.99374
lo	-9.99392
ேரி	-9.99393
-2	-9.99403
▁நான்காவது	-9.99498
ுமான	-9.99522
▁இதர	-9.99529
▁தேடி	-9.99532
29	-9.99676
▁தன	-9.99773
▁அணுக	-9.99778
த்தர	-9.99814
ப்பதற்காக	-9.99842
▁துளை	-9.99851
▁நின்று	-9.99871
▁பிரிட்டிஷ்	-9.99886
▁2018	-9.99928
ஈ	-9.99961
சிங்க	-9.9997
▁பஞ்சாப்	-9.99974
▁கவிஞர்	-10.0003
▁மீற்றர்	-10.0004
▁திருச்சி	-10.0009
03	-10.0011
▁செலவ	-10.0012
▁குழி	-10.0014
▁சித்திர	-10.002
▁இயக்குனர்	-10.0022
▁90	-10.0024
▁ஏற்றுக்	-10.0025
டையும்	-10.0027
வதாக	-10.0029
48	-10.003
ற்றை	-10.0035
▁சான்	-10.0039
த்தல	-10.0039
▁தொழிற்	-10.0042
▁இந்ந	-10.0043
ect	-10.0045
▁தொடர்ச்சியாக	-10.0045
கத்தில்	-10.0045
ினுள்	-10.005
▁இம்முறை	-10.0052
▁பிராந்திய	-10.0053
▁பொருளை	-10.0053
▁1993	-10.0054
▁தவிர்க்க	-10.0054
▁அன்ன	-10.0055
ால	-10.0057
▁வண்ணம்	-10.0072
ry	-10.0073
26	-10.0075
▁இடத்தை	-10.0079
▁மீட்ட	-10.0081
▁1987	-10.0085
III	-10.0104
▁பேரா	-10.0105
▁டாக்டர்	-10.0106
▁தேவர்	-10.0114
▁36	-10.0115
தின்	-10.0124
▁வழக்கம்	-10.0142
▁உட்பட்டது	-10.0142
களாகப்	-10.0144
▁சராசரியாக	-10.015
▁கவி	-10.015
▁ஆர்வம்	-10.0154
▁தாயார்	-10.0162
▁குமார	-10.0163
▁நிகழும்	-10.0166
பொருள	-10.0166
▁டு	-10.0167
▁மாசு	-10.0172
▁விழ	-10.0172
டாக	-10.0174
ோம்	-10.0177
per	-10.0185
55	-10.0188
58	-10.0189
▁ஒழுங்க	-10.0189
ியாக	-10.0191
▁வெளியீடு	-10.0195
▁அந்தக்	-10.02
▁அண்மை	-10.0201
▁துப்பாக்கி	-10.0201
47	-10.0201
▁உருசிய	-10.0203
திலும்	-10.0203
▁உயர்த்த	-10.0215
ity	-10.0216
▁வெண்	-10.0218
பார	-10.0227
புல	-10.023
▁நடைபெற	-10.0231
ர்ஜி	-10.0233
▁என்பவர	-10.0233
▁வழங்கப்படும்	-10.0236
▁தாங்க	-10.0238
37	-10.0245
▁படிப்பு	-10.0245
▁கன்	-10.0247
▁நீரை	-10.0248
▁இருபது	-10.025
64	-10.0251
ியக்க	-10.0251
▁சேர்மமாகும்	-10.0254
டைந்த	-10.0256
மறை	-10.0259
▁பொன்	-10.0268
▁இனங்கள்	-10.0269
▁இணைக்க	-10.0274
▁சோழர்	-10.0274
▁வரிசையில்	-10.029
▁தலைப்பு	-10.0304
லிருந்து	-10.0304
ப்பாட்ட	-10.0305
ni	-10.0315
ளிக்க	-10.0315
▁கோல	-10.0324
▁சிறுவர்	-10.0329
▁வட்டத்தில்	-10.0333
▁விலகி	-10.0336
▁பாஸ்	-10.0337
கிருஷ்ண	-10.0338
▁ஆந்திர	-10.0339
72	-10.0343
▁வருவ	-10.0343
56	-10.0343
ிப்பு	-10.0344
▁பண்பாடு	-10.0346
▁ஆயிரம்	-10.0347
▁முயன்ற	-10.0349
36	-10.035
sp	-10.0351
ub	-10.0355
மொ	-10.0359
▁சமண	-10.0361
▁பிரிவில்	-10.0367
▁அண்ணா	-10.0367
▁பயன்படுத்திய	-10.0369
▁பரிசோதனை	-10.0378
ill	-10.0378
ஸை	-10.038
▁விளங்கியது	-10.0381
▁ஜேம்ஸ்	-10.0387
▁தலைமுறை	-10.039
27	-10.0392
ச்சேரி	-10.0393
▁நடந்து	-10.0398
▁நிறைய	-10.0402
▁காவிரி	-10.0403
▁நிலைக்கு	-10.0406
▁குறைபாடு	-10.0408
ஸ்தான	-10.041
▁இளைஞர்	-10.0411
▁சீர்திருத்த	-10.0411
▁மன்னர	-10.0412
வூர்	-10.0413
▁வாழ்கின்றனர்	-10.0416
னையும்	-10.0418
▁உலகளாவிய	-10.0419
வக	-10.042
▁சன்னதிகள்	-10.042
▁1977	-10.0421
▁பிரான்சு	-10.0423
▁ஏற்படுகிறது	-10.0427
08	-10.0434
நாயகி	-10.0434
மூல	-10.0436
▁இயக்குநர்	-10.0439
▁காலப்	-10.0441
▁திறன	-10.0441
▁சுகாதார	-10.0443
57	-10.0444
▁வாரிய	-10.0447
▁புதிதாக	-10.0452
ide	-10.0452
▁உயிரியல்	-10.0455
▁வளர்ந்து	-10.0456
▁அட்டவணை	-10.0458
ட்ரிக்	-10.0465
▁வடிவமைப்ப	-10.047
▁அரசன்	-10.0471
லான	-10.0475
▁75	-10.0476
▁பண்ப	-10.0476
▁உரோமை	-10.0478
ின்ற	-10.0481
▁பல்கலைக்	-10.0484
tic	-10.0485
▁1988	-10.0487
வரிசை	-10.0488
▁பாத	-10.0491
▁தமிழ்ப்	-10.0498
▁காப்பாற்ற	-10.0501
▁ஆட்	-10.0503
▁பரு	-10.0509
▁இயக்கிய	-10.0511
▁கவனம்	-10.0514
▁இருப்பதை	-10.0516
தள	-10.0522
நாயக	-10.0525
▁கூறும்	-10.0525
மையால்	-10.0528
▁கற்ப	-10.0531
யர்கள்	-10.0532
▁இந்நூல்	-10.0532
▁இச்சேர்மம்	-10.0533
▁வீரர்கள்	-10.0536
▁மாநகர	-10.0538
கத்தின்	-10.0542
▁அள	-10.0543
க்கள	-10.0548
ுக்குப்	-10.0548
ழா	-10.0551
▁w	-10.0552
38	-10.0559
▁g	-10.056
▁கொழுப்பு	-10.0562
he	-10.0564
▁வெளியீட்ட	-10.0568
ஞான	-10.0569
▁கைப்பற்றி	-10.0571
▁நினைவாக	-10.0572
▁சுவை	-10.0573
▁புர	-10.0574
▁எளிதில்	-10.0575
குரு	-10.0575
▁சம்	-10.0583
▁விற்க	-10.0584
நாட்ட	-10.0586
க்கொ	-10.0591
▁பணியாற்றி	-10.0596
▁பெட்டி	-10.06
▁உதாரண	-10.0605
ப்பொருள	-10.0605
▁அரபு	-10.0612
▁மக்களால்	-10.0621
▁70	-10.0621
▁மொழிகள்	-10.0626
▁அமைப்பில்	-10.0627
▁போராட	-10.0629
கரு	-10.0629
▁லீக்	-10.0632
me	-10.0634
சக்தி	-10.0635
▁மாகாணத்தின்	-10.0639
லிங்கம்	-10.0641
ah	-10.0641
▁பில்லியன்	-10.0642
▁இந்துக்	-10.0645
▁விதமாக	-10.0645
▁பீட	-10.0647
▁துகள்	-10.0648
av	-10.0651
▁வித்தியாச	-10.0652
ென	-10.0652
▁சம்பந்த	-10.0653
ிலி	-10.0657
▁படத்தின்	-10.0657
ெழுத்து	-10.0659
வைத்	-10.0663
▁இயற்றிய	-10.0668
▁1986	-10.0669
▁இஸ்லாமிய	-10.0671
ங்களாகும்	-10.0674
▁மேலாக	-10.0674
▁வன்	-10.0679
▁குடியரசுத்	-10.068
▁de	-10.068
▁அரிய	-10.068
ep	-10.0682
▁செயற்பாடு	-10.0683
▁கொண்டவர்	-10.0685
ரெட்	-10.0685
மில்	-10.0685
▁கிரக	-10.0689
ருவி	-10.0689
▁குற்றம்	-10.0691
▁பாலின	-10.0696
வளை	-10.0701
▁X	-10.0706
▁கற்ற	-10.0712
ாளரும்	-10.0717
▁1971	-10.0718
ுவார்கள்	-10.0722
▁இறுதியாக	-10.0728
▁கம்பி	-10.0731
▁இரண்டும்	-10.0732
▁பரிந்துரைக்க	-10.0741
ப்பெற	-10.0742
▁வெளியிட்டது	-10.0744
▁வேண்டி	-10.0745
லட்சுமி	-10.0747
▁தெரிவு	-10.0749
வாசி	-10.0751
▁அனுமதிக்க	-10.0755
▁மண்டலம்	-10.0755
களுக்கிடையே	-10.0756
▁இடைப்பட்ட	-10.0756
▁தூய	-10.0763
செய்த	-10.0765
▁500	-10.0768
▁ஆணை	-10.0776
▁அவ்வாறு	-10.0776
42	-10.0779
ாம	-10.078
நீர	-10.0781
▁தீவுகள்	-10.0782
யாளர்கள்	-10.0785
ராகவும்	-10.0786
▁உதவுகிறது	-10.0788
▁இயலும்	-10.0791
▁தொல்காப்பிய	-10.0792
ப்பாதை	-10.0793
▁பற்	-10.0794
▁கோடு	-10.0795
▁கௌரவ	-10.0796
▁சிக்கலான	-10.0806
▁St	-10.0807
▁காங்கிரசு	-10.0809
▁அலுவலர்	-10.0815
க்கிறார்	-10.0818
▁வரையில்	-10.0822
நிற	-10.0822
க்கோள	-10.0826
▁சந்திக்க	-10.083
ப்பிரி	-10.0836
▁விஷ	-10.0836
▁குவா	-10.0838
▁கருத்த	-10.0838
▁ஒட்ட	-10.084
சல	-10.0841
ex	-10.0841
▁புகழ	-10.0842
▁அபி	-10.0842
▁வருகின்றது	-10.0845
▁அறு	-10.0846
க்கட்டு	-10.0848
▁வேகமாக	-10.0848
▁சொல்லி	-10.0854
▁சாலையில்	-10.0862
▁உடலில்	-10.0863
ாலய	-10.0865
▁பேசும்	-10.0866
▁காட்டி	-10.0868
▁தங்களது	-10.0868
▁பறவைகள்	-10.087
ிலிருந்த	-10.0876
▁பதக்க	-10.088
▁உயரமான	-10.0882
▁தென்னிந்திய	-10.0883
▁எசு	-10.0885
▁மகளிர்	-10.0887
▁தயாரிக்கப்பட்ட	-10.0887
▁தமிழகத்தில்	-10.0892
ெடுப்ப	-10.0895
▁க்கும்	-10.0902
சிங்	-10.0903
கிரா	-10.0908
▁அணுக்கரு	-10.0915
49	-10.092
77	-10.0921
▁விபர	-10.0921
ியுள்ளது	-10.0923
▁கோபுரம்	-10.0924
81	-10.0925
▁காப்ப	-10.0927
▁சார்பில்	-10.0929
▁ஊர	-10.0933
▁Ch	-10.0938
▁ரை	-10.0947
தமிழ்	-10.0948
▁மந்திர	-10.095
க்கூறு	-10.0951
▁நியம	-10.0952
க்கீ	-10.0955
▁பகுதியாகும்	-10.0959
▁கொண்டவை	-10.096
▁குழப்ப	-10.0971
▁ஒன்றியத்தில்	-10.0973
▁வைப்ப	-10.0975
▁வழங்கப்படுகிறது	-10.0981
யிட்ட	-10.0983
▁தொடங்கப்பட்டது	-10.0985
▁பணியாளர்	-10.0989
74	-10.0996
▁அச	-10.0998
▁கோபுர	-10.0999
▁விவாத	-10.0999
▁அருக	-10.0999
▁டன்	-10.1
ிறார்கள்	-10.1004
▁பணியாற்றிய	-10.1005
▁to	-10.1007
▁சங்கிலி	-10.1008
▁அவனது	-10.1014
▁நன்மை	-10.1016
▁இலட்ச	-10.1017
▁செயலி	-10.1017
▁பட்டு	-10.1022
▁விவிலிய	-10.1023
ப்படுவதில்லை	-10.1024
டார்	-10.1024
ard	-10.1027
▁கிபி	-10.1028
▁திட்டமிட்ட	-10.1028
ரிக்க	-10.1033
த்திட்ட	-10.1033
ண்டே	-10.1034
கண	-10.1034
ொளி	-10.1038
ப்பெருமாள்	-10.1044
ப்படுகின்ற	-10.1044
▁வளிமண்டல	-10.1049
▁முக்கியமாக	-10.105
சான்	-10.1051
▁உடன	-10.1058
பொருட்	-10.1061
பட்டு	-10.1062
▁அடக்க	-10.1067
ாகிய	-10.1068
▁கொடுக்கப்பட்ட	-10.1071
▁பாதிப்ப	-10.1072
ட்டுகள்	-10.1072
▁நெய்	-10.1072
குப்பம்	-10.1074
▁எனப்படுகிறது	-10.1074
நெ	-10.1075
களிடமிருந்து	-10.108
ant	-10.1082
▁விசாரணை	-10.1083
விழா	-10.1084
யளிக்க	-10.1085
▁கழிவு	-10.109
▁ஒப்பந்தம்	-10.1101
▁தொன்ம	-10.1103
▁சிங்கப்பூர்	-10.1104
▁பிடி	-10.1105
▁பிரான்ச	-10.1108
▁ஆண்டி	-10.1119
▁கந்த	-10.1126
ச்சல்	-10.1127
▁செயல்பட்ட	-10.1128
பெயர்	-10.1128
▁தொற்று	-10.1129
▁முன்னதாக	-10.1131
ம்பர	-10.1133
முடியும்	-10.1135
han	-10.1137
oc	-10.1141
ரஸ்	-10.1141
66	-10.1144
தாலும்	-10.1158
ாலேயே	-10.1159
▁அறிவியல	-10.116
ச்சந்திர	-10.1161
▁விரைவாக	-10.1164
▁சர்க்கரை	-10.1164
▁1978	-10.1164
59	-10.1164
▁புரிந்த	-10.1166
Ch	-10.1167
▁வடக்கில்	-10.1168
▁என்பர்	-10.1168
▁குறிப்புகள்	-10.1168
▁இவ்வூர்	-10.117
▁வாங்கி	-10.1174
▁வெளிப்புற	-10.1176
▁எக்ஸ்	-10.1186
ip	-10.1188
▁ஆரம்பித்த	-10.1189
மியா	-10.1193
71	-10.1194
▁கொள்ளலாம்	-10.1194
▁பாரசீக	-10.1197
▁புதை	-10.1201
ேஷன்	-10.1206
34	-10.1208
▁கிங்	-10.121
▁சிவபெருமான	-10.1213
▁திருவா	-10.1219
ுகின்றார்	-10.1221
▁கட்டுப்பாட்டு	-10.1221
▁பயிரிட	-10.1223
▁எதிர்கால	-10.1226
லங்கா	-10.1227
▁ஆற்றலை	-10.1229
▁என்பதற்கு	-10.1234
த்துக்கும்	-10.1236
தாய்	-10.124
▁வீட்டில்	-10.1242
▁இம்மா	-10.1247
▁குடியிருப்பு	-10.1251
▁தேவாலய	-10.1252
சாலை	-10.1253
த்திரு	-10.1256
▁பெற்றுள்ளது	-10.1256
▁ஓடு	-10.1258
▁தொல்லியல்	-10.1259
வூ	-10.1259
▁வகுப்ப	-10.126
▁மிகை	-10.1266
▁வளாக	-10.1267
▁என்பவை	-10.1268
▁வழிபட்ட	-10.1273
ரொ	-10.1273
▁நடக்கும்	-10.1278
0%	-10.1278
▁போன	-10.1279
▁59	-10.1281
▁புவியியல்	-10.1288
லாந்த	-10.1293
▁திருவாரூர்	-10.1294
கிறாள்	-10.1295
▁விஷ்ணு	-10.1303
தேவ	-10.1305
முற்ற	-10.1309
▁புரி	-10.131
▁பேரரசர்	-10.1312
▁வியாபார	-10.1313
▁1985	-10.1315
▁டிரா	-10.1315
52	-10.1317
▁எழுத்த	-10.1319
▁தம்பி	-10.1323
▁நாட்டை	-10.1323
▁1940	-10.1325
▁காலகட்டத்தில்	-10.1326
▁கலிபோர்னியா	-10.133
▁ஏற்கனவே	-10.133
▁கற்பனை	-10.1333
ஸ்தான்	-10.1338
▁எதிர	-10.1342
போல	-10.1344
▁மருத்துவம்	-10.1347
▁வன்முறை	-10.1347
▁இணைக்கும்	-10.1355
▁செயல்படும்	-10.1358
▁மன்னன	-10.1358
லான்	-10.1361
முன்	-10.1364
▁இதுவும்	-10.1369
▁அருள	-10.1372
▁கடித	-10.1374
யாற்ற	-10.1378
▁இறந்தார்	-10.1379
▁எட்	-10.1382
▁எண்ணி	-10.1384
▁சீர்	-10.139
▁நடிகர	-10.1392
▁அழகு	-10.1395
▁1983	-10.1404
▁1930	-10.1406
▁சுட	-10.1407
▁சபா	-10.1414
ge	-10.1417
பொழுது	-10.142
▁அளிப்ப	-10.1424
த்துக்கான	-10.1428
▁காண்ப	-10.1433
▁விளங்கிய	-10.1435
▁அம்மா	-10.1436
▁சாய்	-10.1438
மாலை	-10.144
▁திருப்பூர்	-10.144
▁இயங்கி	-10.1441
ப்பிள்ளை	-10.1442
▁உரோம	-10.1442
த்தூ	-10.1443
▁சார்பாக	-10.1444
மேல்	-10.1445
▁com	-10.1447
க்கட்ட	-10.1448
▁வாக்கு	-10.145
62	-10.1453
ுடனும்	-10.1459
ப்படுகின்றனர்	-10.1472
▁முடிவில்	-10.1475
தவி	-10.1476
▁மாற்றங்கள்	-10.1477
▁இலங்கைத்	-10.1479
▁வெகு	-10.148
▁கிறிஸ்	-10.1481
வையாகும்	-10.1486
▁47	-10.1488
ங்களுக்கான	-10.149
▁சத	-10.1499
ுடனான	-10.1502
▁இப்பகுதியில்	-10.1503
▁அறிகுறி	-10.1503
▁தாங்கி	-10.1504
▁கிடைக்கிறது	-10.1505
▁கருவிகள்	-10.1505
யாவின்	-10.1506
▁சரியாக	-10.1511
ற்கா	-10.1511
▁கற்று	-10.1513
ew	-10.1516
▁காடு	-10.1516
44	-10.152
▁வாழ்க்கையை	-10.1521
▁சடங்கு	-10.1521
art	-10.1525
▁பண்ட	-10.1525
▁பிரபு	-10.1527
▁மீள	-10.1528
ரையும்	-10.1532
▁இனம்	-10.1536
▁இறைவன்	-10.1536
▁லிங்க	-10.1537
▁இரை	-10.1537
up	-10.1539
▁தாள	-10.1542
▁உழ	-10.1544
ஜர்	-10.1547
▁மாறுபட்ட	-10.1559
▁செய்யப்பட்டார்	-10.156
▁கரூர்	-10.1562
▁தொலைபேசி	-10.1565
ce	-10.1566
▁பூச	-10.1567
ச்சர்	-10.1581
▁சத்திய	-10.1584
▁போதுமான	-10.1585
▁தொடர்ப	-10.1585
▁அறிமுக	-10.1587
▁l	-10.1587
ுவதும்	-10.1588
▁மக்களும்	-10.1589
▁நிறுவனத்தில்	-10.1592
▁1967	-10.1594
▁பயின்றார்	-10.16
▁5%	-10.1609
▁குளோரைடு	-10.1609
ம்மன்	-10.161
▁நொதி	-10.1614
த்தேர்	-10.1615
▁ஆப்பிரிக்க	-10.1618
ik	-10.1621
33	-10.1624
▁கங்கை	-10.1624
▁செல்கிறது	-10.1627
▁தெளி	-10.1627
▁காணப்பட	-10.1629
ந்தன்	-10.1638
மீது	-10.1642
டைகிறது	-10.1646
ங்களிலிருந்து	-10.1647
ராஜா	-10.1648
▁போர	-10.1656
53	-10.1656
ஆக	-10.1658
த்தாக்க	-10.166
▁44	-10.1664
▁நெறிமுறை	-10.1665
▁செயல்பட்டு	-10.1673
வாடி	-10.1675
▁எரிமலை	-10.168
▁உத்தி	-10.1687
▁34	-10.1692
▁தடுப்ப	-10.1692
▁நிறுவிய	-10.1693
▁அழிக்க	-10.1694
▁தொகுதிகளில்	-10.1695
ers	-10.1697
த்துறையில்	-10.17
▁கட்டண	-10.1706
▁ஏற்று	-10.1708
▁காலி	-10.1709
▁குறிப்பிடுகிறது	-10.1712
▁ஊக்க	-10.1717
▁வீதம்	-10.1718
▁கிழக்கில்	-10.1718
▁எழுத்தறிவு	-10.1721
யர	-10.1722
ழுத்த	-10.1723
▁அஞ்ச	-10.1726
▁இம்மாவட்டத்தின்	-10.1726
▁எலி	-10.1727
▁ரோம	-10.1732
▁மணிக்கு	-10.1733
▁ஆப்பிரிக்கா	-10.1734
த்தீ	-10.1735
▁அளவிற்கு	-10.1737
▁ஒழுங்கு	-10.1737
▁எதிர்ப்ப	-10.1738
▁தானிய	-10.1741
தொகு	-10.1746
▁கிளா	-10.1748
▁உருவாக	-10.1751
▁நிலப்பகுதி	-10.1754
▁விலக்க	-10.1759
▁மதிப்பீடு	-10.1759
▁மெக்	-10.1762
▁செல்வாக்கு	-10.1763
▁கடலூர்	-10.1765
▁எப்போதும்	-10.1765
▁கோரிக்கை	-10.1768
▁விலங்க	-10.1768
ாகவே	-10.1769
▁பிரதேசத்தின்	-10.1771
டங்க	-10.1774
51	-10.1776
▁சதவீதம்	-10.1779
▁இடமாக	-10.1779
காளியம்மன்	-10.1781
▁தூய்மை	-10.1789
▁இருந்தவர்	-10.179
▁முடிந்தது	-10.1794
▁கருவறை	-10.1795
▁குழுவின்	-10.1798
43	-10.1798
▁இணைப்ப	-10.1802
ium	-10.1807
▁திண்ம	-10.1809
▁சமவெளி	-10.1809
▁பகுதியின்	-10.1812
▁தெரிகிறது	-10.1814
est	-10.1816
▁1972	-10.1816
▁உணர்	-10.1817
▁பாடி	-10.1817
ary	-10.1818
▁சிறுகதை	-10.1819
▁முதற்	-10.1821
▁மாநிலமான	-10.1823
▁ஆலோசனை	-10.1823
▁போட	-10.1832
▁பக்தி	-10.1833
▁பத்ம	-10.1833
▁விளக்கம்	-10.1834
சனம்	-10.1839
▁பட்டை	-10.1841
ஜன்	-10.1842
▁இலக்கியம்	-10.1844
லியம்	-10.185
▁காலநிலை	-10.1851
▁தாவரங்கள்	-10.1852
▁தொண்ட	-10.1854
▁நிலைமை	-10.1854
▁நாயக	-10.1856
▁வெளிவந்தது	-10.1856
க்கூட்ட	-10.1859
ம்பூர்	-10.1861
▁இராகம்	-10.1861
ஸ்கோ	-10.1862
▁காணப்படுகின்றது	-10.1864
▁அணுக்	-10.1865
ுகிறாள்	-10.1867
கூர்	-10.1869
▁கருதி	-10.187
▁37	-10.1873
▁கடமை	-10.1873
▁போட்டிகள்	-10.1877
▁;	-10.1879
▁நற்செய்தி	-10.188
▁சன்னதியும்	-10.1881
▁இயேசுவின்	-10.1883
த்தவர்	-10.1883
▁பருத்தி	-10.1889
▁ஒருவராக	-10.1891
▁ஆலயம்	-10.1891
பள்ளி	-10.1891
க்கால்	-10.1895
▁ஆந்திரப்	-10.1895
ாயிற்று	-10.19
▁தெற்கில்	-10.19
▁இந்நூல	-10.1901
போதும்	-10.1902
▁1982	-10.1902
▁அறிவித்தது	-10.1903
▁பண்ணை	-10.1903
வராவார்	-10.1908
▁1000	-10.1912
▁நர	-10.1913
▁கற்க	-10.1913
▁தேனி	-10.1913
▁வழங்குகிறது	-10.192
▁ஒன்றி	-10.1926
▁பிரச்சனை	-10.1927
ாறு	-10.1934
▁இறந்து	-10.1938
ரியன்	-10.194
▁ஆகியோரின்	-10.194
வாழ்	-10.1943
▁நீடித்த	-10.1944
ச்சல	-10.1945
▁கோழி	-10.1948
▁ஆண்டுகளாக	-10.1952
▁குறைந்து	-10.1953
▁செம்ப	-10.1954
க்கதை	-10.196
ரியம்	-10.1964
▁என்றே	-10.1966
▁கருப்ப	-10.1968
▁சொற்கள்	-10.1969
▁பகுப்பாய்வு	-10.1969
▁வெளிநாட்டு	-10.1969
▁அசிட்ட	-10.197
▁சுட்ட	-10.197
▁துறைகளில்	-10.1971
▁சவு	-10.1972
▁1969	-10.1977
ம்பை	-10.1981
▁பெயர்கள்	-10.1983
த்திறன்	-10.1984
://	-10.1984
▁தீர்மானிக்க	-10.1985
▁எர்	-10.1994
வியா	-10.1995
▁சங்கர	-10.1999
▁நிறத்தில்	-10.2
▁தரம்	-10.2002
▁அதிகரிப்ப	-10.2004
▁இழு	-10.2007
▁காளி	-10.2009
▁சுற்றுச்சூழல்	-10.2013
▁செயல்பாட்ட	-10.2013
▁அட்	-10.2015
▁பணியாற்ற	-10.2029
▁பஞ்சாபி	-10.203
▁ஓரி	-10.2032
வியலில்	-10.2033
▁1962	-10.2034
டியம்	-10.2038
▁கருநாடக	-10.2042
II	-10.2043
▁லு	-10.2043
▁அய்ய	-10.2043
▁தொடக்கம்	-10.2043
▁செவ்வ	-10.205
▁நினைவ	-10.2051
63	-10.2052
▁மின்னணு	-10.2052
ஞ்சா	-10.2054
▁அரசாங்கம்	-10.2055
ara	-10.2056
ுகிற	-10.2058
▁கொண்டனர்	-10.206
▁முன்னோடி	-10.2066
▁சாரா	-10.2069
▁தலைவி	-10.207
▁பார்வையாளர்	-10.2078
த்திற்	-10.2082
▁பீட்டர்	-10.2084
▁பாரதிய	-10.2085
▁ஏராளமான	-10.2089
த்ரி	-10.2091
வள்	-10.2093
ுமே	-10.2093
வண	-10.2096
▁மாறுபட	-10.2096
▁அளவிட	-10.2096
▁1948	-10.2101
▁நாவல	-10.2108
▁பணிபுரி	-10.2108
▁எட்ட	-10.2108
ாக்சைடு	-10.2109
▁re	-10.2114
▁அர்த்த	-10.2114
ளின்	-10.2122
ிருந்தாலும்	-10.2125
▁மேரி	-10.2126
ண்ணா	-10.2131
ஹெ	-10.2132
▁வரலாற்றை	-10.2136
பென்	-10.2137
▁300	-10.2151
▁நச்சு	-10.2155
ுரிமை	-10.2157
▁பாசு	-10.2162
▁மேற்கொள்ளப்பட்ட	-10.2162
வெண்	-10.2166
▁நூல	-10.2175
▁ஜனதா	-10.2176
ந்தோ	-10.2179
▁நிலம்	-10.2179
▁ஆற்றல	-10.2181
▁தூண்	-10.2186
▁சூழ	-10.2186
▁சகோதர	-10.2188
▁பெல்	-10.2191
▁விழி	-10.2192
▁சிந்து	-10.2198
▁மாறியது	-10.2198
41	-10.2198
ஹோ	-10.2199
▁வகித்த	-10.2199
▁அவனை	-10.2201
▁கிரே	-10.2201
ங்கர்	-10.2204
▁சொத்து	-10.2205
▁வென்றார்	-10.2209
ாரா	-10.2209
▁அரிசி	-10.2211
▁வெட்ட	-10.2215
▁வடக்கே	-10.2216
மானி	-10.2217
▁(2	-10.2219
பிரதேச	-10.2222
சபை	-10.2223
வட	-10.2223
மயமாக்க	-10.2224
டிங்	-10.2228
▁நிமிட	-10.2229
▁ஆங்கிலேயர்	-10.2233
▁உலர்	-10.2237
▁மேற்கில்	-10.2237
▁கூர்	-10.2237
▁வச	-10.224
▁அனுப்பி	-10.224
▁கொண்டிருப்ப	-10.2246
வேண்டிய	-10.2251
ாயிரம்	-10.2255
▁கல்வியை	-10.226
▁ஆவார்கள்	-10.2264
▁பழங்கால	-10.2264
தார்	-10.2265
▁தகவல்களை	-10.2269
▁நூறு	-10.2269
திறன்	-10.2271
மண்டல	-10.2272
நாத்	-10.2276
▁மார்க்	-10.2277
▁பரவிய	-10.2277
▁கொண்டிருக்கிறது	-10.2278
Y	-10.2278
ுகையில்	-10.2278
▁தீர்க்க	-10.228
▁பொருட்டு	-10.2284
▁முற்றிலும்	-10.2284
▁உயிரணுக்கள	-10.2286
மிழ்	-10.2288
▁காத்த	-10.2297
▁துறவி	-10.2303
▁பணியில்	-10.2304
▁மனோ	-10.2306
▁1979	-10.2306
▁நிறம்	-10.2307
▁பிரித்து	-10.2308
▁முப்ப	-10.2311
பிரா	-10.2314
▁ஓட்டங்கள்	-10.2315
▁பட்டத்தை	-10.2318
▁அணுகுமுறை	-10.2323
▁என்றழைக்கப்படும	-10.2326
▁தண்ணீர	-10.2328
▁தனியாக	-10.2329
▁கருதப்படும்	-10.2329
▁நெருங்கிய	-10.2341
▁செய்வதற்கு	-10.2345
▁வசூல	-10.2348
ஃபோ	-10.2349
▁நுண்ண	-10.2351
▁நடத்தப்பட்ட	-10.2355
54	-10.2356
▁நடித்து	-10.2358
▁பேராசிரியராக	-10.2364
▁நாடுகளுக்கு	-10.2368
▁ஒதுக்க	-10.2371
▁உடனடியாக	-10.2382
▁செய்தல்	-10.2383
▁விண்ண	-10.2388
கரை	-10.2388
▁வணங்க	-10.2392
னூ	-10.2393
▁பிடித்து	-10.2396
ஸ்டன்	-10.24
▁48	-10.2405
▁1952	-10.2414
▁உட்படுத்த	-10.2417
▁முதன்முதலில்	-10.2422
▁1975	-10.2425
▁உளவியல்	-10.2426
▁நாகரிக	-10.2426
▁கௌ	-10.2435
▁படிப்ப	-10.2442
▁தெரு	-10.2447
▁வேதியியல	-10.2455
▁அனைத்துலக	-10.2455
▁1976	-10.2455
▁கோவில	-10.2457
▁பேண	-10.2459
▁தொடர்வண்டி	-10.2462
▁பழனி	-10.2462
ப்படுத்தும்	-10.2464
▁தீர்மான	-10.2467
▁அருங்காட்சியக	-10.2469
▁வாய்ப்ப	-10.2469
▁ஏற்படுத்தி	-10.2479
னியர்	-10.248
▁வென்று	-10.2483
▁நாய்	-10.2485
டென்	-10.2486
▁இறைவன	-10.2491
to	-10.2498
▁என்பதைக்	-10.2501
▁பெறப்பட்ட	-10.2514
ci	-10.2517
▁உயிரணு	-10.2522
▁வழங்கியது	-10.2522
▁கணக்கு	-10.2525
விர	-10.2534
▁தலைநகர்	-10.2538
▁மருந்த	-10.2539
மாற	-10.2541
▁விலங்குகள்	-10.2542
ian	-10.2546
▁சங்ககால	-10.2547
▁பயன்பாட்டு	-10.2548
▁வேல	-10.2551
▁என்பதே	-10.2553
▁1974	-10.2554
▁எனலாம்	-10.2555
த்தள	-10.2557
▁முனிவர்	-10.2558
த்தொ	-10.2559
▁51	-10.2561
▁முதலாக	-10.2562
▁or	-10.2562
▁காதலி	-10.2562
▁அக்காலத்தில்	-10.2564
▁நிரல்	-10.2565
சார்ந்த	-10.2566
வரம்	-10.2567
▁கொடை	-10.2569
க்கோடு	-10.2571
▁உறுதிப்படுத்த	-10.2571
▁அப்துல்	-10.2573
▁குறைந்தது	-10.2575
▁காதல	-10.2579
▁கடலில்	-10.2582
▁கூட்டமைப்பு	-10.2583
▁டூ	-10.2593
▁குமார்	-10.2597
▁பட்டியல	-10.2603
▁பிரித்த	-10.2612
▁மாற்றப்பட்டது	-10.2612
▁விளங்க	-10.2613
▁திட	-10.2614
▁1956	-10.2615
களு	-10.262
▁பகுதிகளிலும்	-10.2621
பீட	-10.2624
▁திகழ்ந்த	-10.2624
▁’	-10.2626
விட்டார்	-10.2628
▁கட்டுப்பாட்ட	-10.2629
▁நிகழ்வுகள்	-10.2632
▁வாச	-10.2633
▁பிரதம	-10.2635
▁மாகாணம்	-10.2638
▁செய்திகள்	-10.2639
▁ராம்	-10.264
▁கதைகள்	-10.264
▁வசித்து	-10.264
▁அழைக்கப்பட்டது	-10.2649
க்கெட்	-10.265
▁நிரந்தர	-10.2653
▁பெற்றுள்ளார்	-10.2654
▁பலி	-10.2655
▁1964	-10.2656
க்கொண்டார்	-10.2658
patti	-10.2665
தனால்	-10.2666
கோட்	-10.2667
▁வயத	-10.2668
▁அமைக்கப்பட்டது	-10.2669
▁பேச்ச	-10.2672
▁வாத	-10.2674
▁ஆய்வக	-10.2681
▁உடன்படிக்கை	-10.2684
▁இவ்விரு	-10.2684
▁நிரப்ப	-10.2685
▁கொண்டே	-10.2686
iv	-10.2692
▁வழக்கில்	-10.2697
டுப்பாட்டக்காரர்	-10.2698
பெருமாள்	-10.2698
▁தமிழகத்தின்	-10.27
▁வெட்டி	-10.2704
▁The	-10.2709
வதில்லை	-10.2711
▁பெரும்பான்மை	-10.2716
▁நோபல்	-10.2718
ka	-10.2724
பேர்	-10.2725
▁புகைப்பட	-10.2728
▁நாடா	-10.2728
▁தெரிவித்தார்	-10.2733
▁இடைநிலை	-10.2733
▁கணக்கில்	-10.2745
ாங்க	-10.275
▁முற்றுகை	-10.2756
▁பணிகள்	-10.2756
▁இனி	-10.2758
பாட்டை	-10.2759
▁வழக்கமான	-10.2762
▁ஆட்சியின்	-10.2765
▁வீடியோ	-10.2766
▁இசைக்குழு	-10.2769
▁பெயரால்	-10.277
திர	-10.2774
▁இடையிலான	-10.2778
▁ராபர்ட்	-10.2779
▁அழற்சி	-10.278
▁நொ	-10.2786
▁விநியோக	-10.2786
▁சல்ப	-10.2791
CO	-10.2792
▁கோப்பு	-10.2799
▁தொட	-10.2805
▁தவற	-10.2806
▁சூரியன்	-10.2808
▁தன்னாட்சி	-10.2809
ப்பர	-10.2815
பியன்	-10.2817
▁மகிழ்ச்சி	-10.2817
▁திறனை	-10.283
▁நடந்தது	-10.2837
▁முன்பாக	-10.2842
▁மாட	-10.2842
னுக்கும்	-10.2843
▁பிணை	-10.2843
▁பதில்	-10.2846
வாதம்	-10.2847
▁காமிகாகம	-10.2849
▁k	-10.285
வினால்	-10.2851
▁ஆரம்பிக்கப்பட்ட	-10.2858
▁நாடாக	-10.286
▁அறிவித்தார்	-10.2862
▁சோம	-10.2863
An	-10.2866
▁என்றார்	-10.2866
▁அறிவிக்க	-10.2868
_1	-10.2869
▁பந்த	-10.287
▁விஜய்	-10.2871
▁தேவைப்படும்	-10.2876
▁நம்பப்படுகிறது	-10.2876
▁செயலாக்க	-10.2876
Th	-10.2879
▁பிளே	-10.2881
▁முளை	-10.2888
செயல்	-10.2889
▁புனை	-10.2897
▁படங்களில்	-10.2898
ம்பாளையம்	-10.2899
▁கலப்பு	-10.2902
ப்புள்ளி	-10.2903
▁|	-10.2905
▁கடின	-10.2908
சனின்	-10.291
▁ஒழி	-10.2913
▁தாக்குதல	-10.2916
▁வீச	-10.2919
▁மடங்கு	-10.292
▁மாநகராட்சி	-10.2923
▁ஏக்கர்	-10.2924
▁காலத்திற்கு	-10.2924
▁என்றழைக்க	-10.2926
▁பிரதமர்	-10.2927
▁நோக்கம்	-10.2929
▁இப்பள்ளி	-10.2931
▁இசையில்	-10.2932
▁ஆண்டுதோறும்	-10.2932
▁காணப்பட்டது	-10.2933
முதல்	-10.2935
▁இருப்பு	-10.2935
▁ஆற	-10.2936
▁அடைந்து	-10.2938
▁குன்ற	-10.2941
▁ஏற	-10.2941
Al	-10.2942
▁விவசாயி	-10.2943
▁இயற்ற	-10.2943
▁அஸ்	-10.2945
▁மற்றவர்	-10.2946
▁பட்டி	-10.2946
▁விடுதி	-10.2948
▁பணிபுரிந்த	-10.2949
ாசிரியர்	-10.2949
மின்றி	-10.2952
▁நாவல்	-10.2954
▁1965	-10.2956
ிருப்பது	-10.2957
▁போதிலும்	-10.2961
▁சியா	-10.2964
▁அழைப்ப	-10.2966
▁முடியவில்லை	-10.2967
▁பெரி	-10.2967
▁ஆராய	-10.2969
▁கியூ	-10.2975
▁தன்மையை	-10.2976
▁படிப்பை	-10.298
▁சிலி	-10.2987
▁1957	-10.2987
ேற்றம்	-10.2993
▁அன்ப	-10.2993
ிழை	-10.2996
▁வளிம	-10.2999
▁பங்களிப்பு	-10.2999
▁பரப்பளவில்	-10.3003
▁தடுப்பு	-10.3003
▁ஐரோப்பாவில்	-10.3005
▁ஆகவே	-10.3006
▁அருகிலுள்ள	-10.3007
▁விடய	-10.3008
▁அருங்காட்சியகம்	-10.3008
மினி	-10.3014
▁மக்கள	-10.3014
ov	-10.3015
▁சமநிலை	-10.3016
▁நன்றாக	-10.3016
ப்பாட	-10.3017
▁38	-10.3017
▁நிருவாக	-10.3017
▁உபசன்னதி	-10.3017
▁உறிஞ்ச	-10.3018
▁வந்தன	-10.3019
▁நின்ற	-10.3027
மனை	-10.3032
▁பொதுச்	-10.3035
▁அறியப்படும்	-10.3038
▁அடங்க	-10.3046
▁காவல்துறை	-10.3047
ிலிருந்தே	-10.3048
▁ஏற்றுமதி	-10.3049
▁கல்யாண	-10.3049
ff	-10.3057
▁பெற்றிருந்த	-10.3061
▁முடிவுக்கு	-10.3062
▁அரசியல்வாதியும்	-10.3064
ாசி	-10.3064
ினைக்	-10.3067
▁தகவல்கள்	-10.3068
ூன்	-10.3068
ங்களைச்	-10.3071
▁நூலின்	-10.3072
▁எனில்	-10.3073
▁பொய்	-10.3074
ல்லாத	-10.3075
▁கழகத்தின்	-10.3076
▁கிளி	-10.3076
▁கொல்கத்தா	-10.3079
▁விரைவில்	-10.308
▁பெருமளவில்	-10.308
▁தஞ்சை	-10.308
ச்சே	-10.308
▁கட்டிய	-10.3085
▁முடிவுகள்	-10.3085
▁சமன்பாடு	-10.309
▁மூட	-10.3091
கிற	-10.3094
படும்	-10.3094
▁திரைப்படங்கள்	-10.3096
ical	-10.3096
▁கால்நடை	-10.3101
ம்பாடி	-10.3101
யாய்	-10.3104
▁போக்க	-10.3106
▁தெற்கே	-10.3108
ாக்கி	-10.3108
▁டிரை	-10.3112
▁மடி	-10.3113
யடைந்த	-10.3115
▁ஆக்சிசனேற்ற	-10.3116
▁http	-10.3118
▁இயல்	-10.3118
ெடுத்து	-10.312
ுதலை	-10.312
▁இறப்ப	-10.3123
▁நூல்களில்	-10.3124
▁இலிருந்து	-10.3129
▁பாட்ட	-10.3131
▁அடுக்க	-10.3132
▁வெப்பநிலையில்	-10.3133
▁பொட்டாசியம்	-10.3133
▁ஜெய்	-10.3134
▁கும்ப	-10.3136
▁மூன்ற	-10.3139
▁பொறுப்பேற்ற	-10.3145
▁தொழில	-10.3146
▁அறிமுகமானார்	-10.315
▁49	-10.315
▁மொழியை	-10.3161
மல	-10.3172
eg	-10.3172
▁ராணி	-10.3176
▁அகில	-10.3177
ப்பற்றி	-10.3178
▁எசுப்பானிய	-10.318
▁படைப்ப	-10.3183
▁மேற்கத்திய	-10.3186
▁இராச்சியம்	-10.3186
▁நிறுத்தி	-10.3187
▁இழப்பு	-10.3195
▁ஹரி	-10.3197
வல்ல	-10.3197
▁மறைந்த	-10.3198
▁கண்டுபிடிப்பு	-10.3198
▁அமைந்திருக்கும்	-10.3198
▁புதுச்சேரி	-10.3199
▁முது	-10.3199
▁ஒருமுறை	-10.3204
▁கந்தக	-10.3205
ானார்	-10.3206
▁நடவடிக்கைகள்	-10.3207
▁போய்	-10.3209
▁தலைவராகவும்	-10.321
▁வழியே	-10.3212
சிஸ்	-10.3212
▁ஏற்படுத்தும்	-10.3214
▁1981	-10.3221
▁பொருளின்	-10.3225
▁முடிகிறது	-10.3225
க்கழக	-10.3226
னான	-10.3228
நாள	-10.3229
திற	-10.324
ராஜன்	-10.324
▁அணியில்	-10.3243
▁இடங்கள்	-10.3245
▁சான்று	-10.3246
▁தலைநகரான	-10.325
▁வெப்பம்	-10.3255
▁சதுரங்க	-10.3258
▁சூழலில்	-10.3259
▁மொழியாக	-10.3259
▁எச்ச	-10.3263
▁நகரை	-10.3266
▁நடுவில்	-10.327
▁நுழைந்த	-10.3271
▁செம்ம	-10.3273
▁துன்ப	-10.3275
வராகவும்	-10.3277
▁தொண்டை	-10.3278
▁ராணுவ	-10.3283
மில்லை	-10.3285
▁42	-10.3285
ப்பாடல்	-10.3286
▁கட்டத்தில்	-10.3289
▁ஸ்டா	-10.3293
▁தோன்றி	-10.3294
▁நான்காம்	-10.3295
ப்பிய	-10.3295
▁கோவா	-10.3298
வுட்	-10.3302
▁64	-10.3305
▁சீக்கிய	-10.3306
நிலையில்	-10.3313
▁ஃபா	-10.3316
▁நபர	-10.3321
▁திட்டமிட	-10.3321
ந்தே	-10.3327
▁இத்தாலி	-10.333
க்குறை	-10.333
ev	-10.3332
ast	-10.3334
▁ஹீ	-10.3334
பாட்டு	-10.3335
ட்டே	-10.3336
▁கேரளா	-10.3339
கரி	-10.334
ாடு	-10.3342
▁முகாம	-10.3342
▁துருவ	-10.3342
▁பெருந்த	-10.3343
ேசுவரர்	-10.3343
▁அறக்கட்டளை	-10.3349
▁கழித்து	-10.3349
▁குழுவில்	-10.335
▁தொகுதியின்	-10.3351
ம்பர்	-10.3354
▁மருத	-10.3356
▁சுல்தான்	-10.3357
விடம்	-10.3358
ுமிட	-10.3363
▁சித்தரிக்க	-10.3363
மிழ	-10.3365
தைத்	-10.3371
▁குழுவினர	-10.3373
▁1973	-10.3373
வருகிறது	-10.3374
▁தலைநகராக	-10.3377
▁வகுத்த	-10.3378
▁பிரெ	-10.3379
பட்டினம்	-10.3381
ana	-10.3384
நோக்கி	-10.3385
▁படகு	-10.3387
▁e	-10.3389
க்காட்ட	-10.3389
▁தலைப்பில்	-10.339
▁1968	-10.3396
▁அலுவலகம்	-10.3397
ind	-10.3397
ில்லாமல்	-10.3399
ம்மாள்	-10.3399
▁பிறப்ப	-10.3403
▁மீனாட்சி	-10.3403
▁திரைக்கதை	-10.3404
▁கொடுப்ப	-10.3408
▁நகரங்களில்	-10.3412
▁எஞ்சிய	-10.3416
▁தலைநகரம்	-10.3417
▁சொன்ன	-10.3418
▁ஷெ	-10.3418
▁எடுத்துச்	-10.3423
▁வடிவமைத்த	-10.3423
▁நன்ன	-10.3427
▁அண்மையில்	-10.3428
▁அதிகாரம்	-10.3429
ாவது	-10.343
முடியாத	-10.343
▁பாக்கித்தான்	-10.3431
கோவில்	-10.3433
▁கதாப்பாத்திர	-10.3436
▁எதிர்பார்க்க	-10.3438
▁எல்லாம்	-10.3439
மடை	-10.3445
இர	-10.345
▁இத்திட்ட	-10.3454
▁நகருக்கு	-10.3458
வென்	-10.3458
▁உடல்நல	-10.3459
▁பயன்படுகின்றன	-10.3461
▁செய்யப்பட	-10.3462
▁கருதுகின்றனர்	-10.3464
த்தர்	-10.3465
▁கொன்ற	-10.3465
▁கடும்	-10.3469
▁குடியேற	-10.3474
▁ஊழியர்	-10.348
▁இசைக்	-10.3481
▁செரு	-10.3483
▁ஆகியோர	-10.3484
▁பயணிகள்	-10.3486
கோட்டை	-10.3487
ப்படுவதால்	-10.3488
களுடனும்	-10.3491
▁திரைப்படத்தின்	-10.3491
▁கொண்டிருக்க	-10.3492
▁அரசி	-10.3492
▁அடிப்படையாக	-10.3492
▁ஓடி	-10.3501
▁கம்பெனி	-10.3503
▁பில்	-10.3507
▁தொடர்பாக	-10.3507
ப்பெயர	-10.3512
பெல்	-10.3519
றிந்த	-10.3521
▁டிவி	-10.3529
▁லட்சுமி	-10.3531
வதால்	-10.3531
ப்பட்டிருக்கும்	-10.3533
▁சர்ச்சை	-10.3549
வெப்ப	-10.3557
▁கொண்டிருந்தார்	-10.356
▁என்பவரின்	-10.3562
கோள்	-10.3562
ib	-10.3568
▁தானே	-10.3569
▁v	-10.3569
▁கிழக்கிந்திய	-10.3569
▁இயல	-10.3572
▁நூற்றாண்ட	-10.3578
uc	-10.3579
▁மாடு	-10.3591
▁சிவாஜி	-10.3592
▁முதுகலை	-10.3592
▁தயாரிப்பாளர்	-10.3594
500	-10.3597
▁குளம்	-10.3598
பேசி	-10.3599
வதற்கான	-10.3607
▁ஒருங்கிணைந்த	-10.3608
▁கணிக்க	-10.361
டோன்	-10.3611
▁கண்காணிப்ப	-10.3614
▁தலைமையிலான	-10.3617
▁இம்மொழி	-10.3619
▁ஜு	-10.3622
▁பயன்பட்ட	-10.3623
▁கில்	-10.3623
தொரு	-10.3627
▁அதிகபட்ச	-10.3627
ுவதற்கும்	-10.3628
பாட்ட	-10.3633
க்கன்	-10.3635
▁ஆட்சியில்	-10.3641
▁இலாப	-10.3641
▁வங்க	-10.3644
▁பாகை	-10.3648
▁என்பதுடன்	-10.365
-18	-10.365
▁ஆப	-10.365
▁வைத்திருந்த	-10.3651
ru	-10.3653
▁வழங்கினார்	-10.3654
சேர்	-10.3655
சாரி	-10.3656
யிட்டு	-10.3659
சுந்தர	-10.3662
ுக்குள்	-10.3669
▁சம்பவ	-10.3671
வற்றில்	-10.3674
▁சூப்பர்	-10.3675
ாளராகவும்	-10.3678
▁1920	-10.3691
▁படுகொலை	-10.3693
▁மனிதன்	-10.3693
▁வலைத்தள	-10.3694
▁1963	-10.3695
▁பொருளியல்	-10.3696
▁அக்கால	-10.3701
▁உடு	-10.3701
▁ஸ்டீ	-10.3702
ப்பாறை	-10.3708
▁கிரிக்க	-10.3709
▁வர்க்க	-10.3709
▁என்பதில்	-10.3712
▁வடகிழக்கு	-10.3715
▁தேற்ற	-10.3716
▁அறிமுகம்	-10.3717
▁மரங்கள்	-10.3722
▁நிறுவனங்கள	-10.3724
▁முன்பே	-10.3729
▁இவற்றுள்	-10.3731
▁சமயங்களில்	-10.3732
▁உணர்ச்சி	-10.3733
▁வரையறுக்கப்பட்ட	-10.3737
▁பகுதியான	-10.3738
▁கூடும்	-10.3741
▁அருவி	-10.3744
▁முழுமை	-10.3746
வரான	-10.3748
ய்யா	-10.3753
▁உரிமைகள்	-10.3756
▁ஈட்ட	-10.376
▁ஊடாக	-10.3765
▁பக்கம்	-10.3766
▁வள்ளி	-10.377
▁இந்நகரம்	-10.3773
▁மஞ்ச	-10.3774
▁சிவபெருமான்	-10.3774
if	-10.3774
▁மதிப்பிட	-10.3779
காலம்	-10.3781
▁அதிகாரப்பூர்வ	-10.3786
▁இருவர	-10.3788
▁சூத்திர	-10.3791
▁தெரிந்த	-10.3791
▁கழகத்தில்	-10.3797
▁சாமி	-10.3801
▁தமிழர்கள்	-10.3802
ாளரான	-10.3803
▁கிராம்	-10.3804
▁அவர்களால்	-10.3804
▁கடினமான	-10.3814
▁அங்கீகரிக்க	-10.3818
யொ	-10.3819
▁பாலைவன	-10.382
▁தாக்கம்	-10.383
▁முத்த	-10.3832
▁எழுத்துக்	-10.3833
ப்பார்	-10.3839
ப்பிட	-10.3844
▁சேவைகள்	-10.3845
▁நடுநிலை	-10.3845
her	-10.3847
▁முதன்முதலாக	-10.3852
▁அவர	-10.3853
▁தனித்த	-10.3854
▁இவ்வாறான	-10.3864
▁இருந்தபோது	-10.3865
வச	-10.3866
att	-10.3866
மேற்	-10.3871
▁மண்டபம்	-10.3871
▁முறையான	-10.3872
▁பணியை	-10.3881
▁டச்சு	-10.3882
போன்ற	-10.3882
▁விளைவிக்க	-10.3883
▁உதவியுடன்	-10.3884
▁உணர்ந்த	-10.3886
▁காட்டுகிறது	-10.3886
▁39	-10.3888
ட்டீ	-10.3895
▁வெங்கட	-10.39
tion	-10.3904
▁செருமனி	-10.391
தென்	-10.391
க்கருவி	-10.3911
▁கரையில்	-10.3914
▁தொடங்கப்பட்ட	-10.3914
▁பெருமளவு	-10.3922
▁திறந்து	-10.3923
ob	-10.3932
▁பங்கேற்க	-10.3933
ாவை	-10.3933
▁வளர	-10.3935
▁பிற்காலத்தில்	-10.3937
▁உடற்	-10.394
▁படிப்படியாக	-10.3944
▁எதிர்மறை	-10.3947
▁தோற்றுவிக்க	-10.3956
▁மரபுவழி	-10.3961
ிடை	-10.3962
▁பெரம்பலூர்	-10.3967
▁தரும	-10.3973
▁சதவிகித	-10.398
வலி	-10.398
▁1945	-10.3982
▁பாகிஸ்தான்	-10.3985
ction	-10.3987
▁இடி	-10.3988
▁இலத்தீன்	-10.3991
▁உபயோக	-10.3993
▁பிட்	-10.3995
▁வரையான	-10.3999
mo	-10.4
▁விழுக்காடு	-10.4002
முத்து	-10.4005
▁எலக்ட்ரான்	-10.4005
▁மாநாடு	-10.4007
-3	-10.4007
▁மரு	-10.4008
போர்ட்	-10.4008
▁கோயிலின்	-10.4009
▁அறிஞர்கள்	-10.4009
da	-10.4012
▁ஏழை	-10.4015
கீழ்	-10.4017
மூர்	-10.4017
▁மகனாக	-10.402
▁பசுமை	-10.4024
விற்கும்	-10.4025
▁ஆசிரிய	-10.4029
ரூப	-10.4033
▁Re	-10.4034
▁மீள்	-10.4034
▁தீர்ப்ப	-10.4037
கரம்	-10.4037
▁கப்பல	-10.404
▁பகுதிக்கு	-10.4042
▁இந்திர	-10.4042
▁தொகுதிகள்	-10.4042
Br	-10.4052
▁65	-10.4052
மாகவே	-10.4054
ுள்ளதாக	-10.4054
▁சுரு	-10.4054
▁ஷி	-10.4054
▁தவிர்த்து	-10.4059
▁குழுக்கள்	-10.406
▁பிரதிநிதித்துவ	-10.4062
▁ஃபோ	-10.4062
▁நிலவிய	-10.4063
▁முத்திரை	-10.4069
▁நிலவ	-10.4071
▁உறுப்பினரும்	-10.4072
▁வீழ்த்த	-10.4073
பிள்ளை	-10.4077
▁தாண்டி	-10.408
▁தட்டு	-10.4081
▁பாலியல்	-10.4081
▁உடையது	-10.4082
▁வேட்டையாட	-10.4085
ியற்	-10.4087
▁for	-10.4087
லஸ்	-10.409
▁வேட்பாளராக	-10.4091
▁அனி	-10.4106
ேசுவர	-10.4109
▁முதலீடு	-10.4109
▁அம்பா	-10.4109
ug	-10.4112
த்தியா	-10.4115
▁இந்திரா	-10.4119
▁இவ்வா	-10.4121
▁சனி	-10.4123
ram	-10.4124
▁மாவட்டத்திலுள்ள	-10.4124
▁வசதிகள்	-10.4136
ive	-10.4138
வாச	-10.414
ுணர்வு	-10.4141
▁52	-10.4142
யாத	-10.4143
our	-10.4148
▁55	-10.4153
▁Co	-10.4154
▁என்பவரை	-10.4157
▁என்பதன்	-10.4157
▁புவியின்	-10.416
▁மறுத்த	-10.4161
▁வைணவ	-10.4163
▁மைக்கேல்	-10.4167
▁முடித்த	-10.4167
▁நீதிமன்றம்	-10.4168
▁கிறிஸ்தவ	-10.4168
ாபுரம்	-10.4171
▁400	-10.4172
▁வரைய	-10.4172
▁1954	-10.4173
▁தேர	-10.4175
▁மென்பொருள	-10.4175
யாள	-10.4177
▁புல்	-10.4177
▁நிறுவினார்	-10.418
ran	-10.4184
▁பெற்றுள்ளன	-10.4191
▁வானியல	-10.4191
▁அமைவ	-10.4196
▁நாற்	-10.4198
காந்த	-10.4199
2)	-10.42
ாி	-10.4204
▁விரிவான	-10.4205
son	-10.4205
▁தங்கி	-10.4207
▁மனம்	-10.4216
CH	-10.4217
▁தொட்டி	-10.422
▁கடு	-10.4222
▁தொடரின்	-10.4222
▁அலங்கார	-10.4226
▁கால்வாய்	-10.4227
▁மேன்	-10.4228
ொழி	-10.4231
▁வேறுபட	-10.4236
▁கருப்பை	-10.4242
▁மாறிய	-10.4242
▁நடுவண்	-10.4244
▁காரணங்கள	-10.4245
▁சூழப்பட்டுள்ளது	-10.4246
▁அன்பு	-10.4247
▁இருக்கின்றது	-10.4247
▁இயற்பியல	-10.4248
▁தனிநபர்	-10.425
▁In	-10.4251
பிற	-10.4252
▁நிறுவனத்தை	-10.4253
▁சட்டத்தின்	-10.4255
▁சோழன்	-10.4255
▁தொடர்ச்சியான	-10.4257
ராமன்	-10.4257
ின்றார்	-10.4259
▁150	-10.4261
▁கிளர்ச்சி	-10.4262
▁உணர்த்த	-10.4267
▁போலி	-10.4267
ach	-10.4268
▁கடுமையாக	-10.4274
ிறான்	-10.4276
▁வாழை	-10.428
▁விருதுகள்	-10.4284
age	-10.4284
▁கிடையாது	-10.4286
▁சேர்க்கை	-10.4289
▁தேவார	-10.4291
▁நீட்டி	-10.4292
▁கல்லறை	-10.4292
▁பிரிந்து	-10.4292
தீன்	-10.4297
▁சிறையில்	-10.4298
ாவார்	-10.4298
▁கதிரியக்க	-10.4298
▁மாளிகை	-10.4298
▁சட்டப்படி	-10.4301
▁போட்டியிட்ட	-10.4302
▁லூயி	-10.4308
லொ	-10.4309
▁கோவிந்த	-10.4312
▁ஒப்பிட	-10.4312
▁வடமொழி	-10.4313
ப்படுத்திய	-10.4315
▁நிலப்பரப்ப	-10.4327
▁சுவாச	-10.4329
▁குறிப்பிடப்பட்ட	-10.4337
ாபாத்	-10.4338
▁உயிரினங்கள	-10.4343
▁கிழக்க	-10.4343
மல்ல	-10.4344
▁வில்ல	-10.4345
ala	-10.4347
டைந்து	-10.435
நோய்	-10.4351
படுத்தி	-10.4353
▁பத்திர	-10.4355
க்காகவும்	-10.436
ாகி	-10.4361
▁இராச்சியத்தின்	-10.4363
▁மாறு	-10.4365
▁பேரவை	-10.4371
▁43	-10.4373
▁உன்	-10.4375
றே	-10.438
▁சிங்கப்பூர	-10.438
▁முடிக்க	-10.4382
▁காலமானார்	-10.4383
▁உரிம	-10.4388
▁மனிதர்கள்	-10.4389
ee	-10.439
▁வளர்ப்பு	-10.4392
ari	-10.4393
▁கவிதைகள்	-10.4394
▁சீனாவின்	-10.4396
▁காண்க	-10.4399
▁நாட்டுப்	-10.4402
▁அங்கிருந்து	-10.4404
▁தொடர்ச்சி	-10.4411
டூ	-10.4415
▁தொழில்நுட்பம்	-10.4419
மட	-10.442
▁கூடு	-10.4421
▁எஃப்	-10.4422
▁சுட்டு	-10.4422
▁அவசிய	-10.4428
▁அணிக்காக	-10.4433
▁சேமிக்க	-10.4433
▁1966	-10.4433
▁பாண்டியன்	-10.4434
▁உட்புற	-10.4434
▁துண்டு	-10.4437
ber	-10.4439
வனை	-10.444
▁தண்டு	-10.4441
▁புரட்டாசி	-10.4443
வாசல்	-10.4447
▁கொன்று	-10.4448
▁கிழக்கே	-10.445
▁யாழ்ப்பாணம்	-10.445
சியம்	-10.4452
▁நடைமுறையில்	-10.4454
▁பாடகர்	-10.4457
▁சிக்கி	-10.446
▁வசன	-10.4462
களுக்க	-10.4463
▁ஒத்து	-10.4469
▁தொகுதிக்கு	-10.4471
மத	-10.4472
▁தலைவன்	-10.4477
▁வாடிக்கையாளர்	-10.4483
▁கட்டமைப்ப	-10.4484
ட்டெ	-10.4488
லியன்	-10.449
▁வைத்துக்	-10.449
▁நடப்ப	-10.4497
இரு	-10.4498
ுறுப்பு	-10.4501
ங்களே	-10.4503
க்கூடியது	-10.4504
▁46	-10.4506
கினி	-10.4508
▁நீளமான	-10.4513
▁படையினர	-10.4514
▁பத்திரிக்கை	-10.4516
▁இவரே	-10.4517
ுறவு	-10.4518
ுருவ	-10.4522
▁தெரியவில்லை	-10.4522
▁பயன்பாட்டில்	-10.4523
po	-10.4525
▁ஒட்டுமொத்த	-10.4528
▁தனித்தனி	-10.4529
▁இதற்கான	-10.4531
▁தூரத்தில்	-10.4533
▁தவறான	-10.4536
ப்பாட்டு	-10.454
▁திரிபு	-10.4542
▁எண்கள்	-10.4546
இந்த	-10.455
ானந்த	-10.4552
▁இளங்கலை	-10.4553
▁வெற்றிகரமாக	-10.4553
▁உதய	-10.4553
▁விரும்பி	-10.4556
த்திரை	-10.456
▁ஒலிபரப்ப	-10.4564
க்கல்வி	-10.4568
ிருப்பதாக	-10.4569
▁பனை	-10.4577
காம	-10.4578
▁அப்படி	-10.4581
▁நாட்டுப்புற	-10.4582
▁கோடை	-10.4583
▁கரைசல	-10.4584
ழற்சி	-10.4592
▁குறிக்கோள	-10.4594
▁அவற்றுள்	-10.4599
▁சன்னதிகளும்	-10.4599
▁காக்க	-10.4601
▁தமிழ்ச்	-10.4606
▁காரணத்தால்	-10.4608
த்தில	-10.4608
▁பிற்பகுதியில்	-10.4613
▁அச்சிட	-10.4613
நிலைய	-10.4614
ஆவது	-10.4615
▁அறிவிப்ப	-10.4615
டொ	-10.4623
▁கருத்தை	-10.4625
வுக்கும்	-10.4625
வேக	-10.4627
▁குறுக்க	-10.4635
▁குறைவு	-10.4637
▁கடவுளின்	-10.4639
▁உணவாக	-10.4639
va	-10.4639
▁இரயில்	-10.464
▁தற்கொலை	-10.464
▁முகலாய	-10.4642
▁ஆள்	-10.4644
▁ஒர்	-10.4647
▁மன்ன	-10.465
ப்பாக்கம்	-10.4651
▁அபாய	-10.4656
▁நிகழ	-10.4656
▁என்பதையும்	-10.4658
▁ஆரணி	-10.4661
லாய்	-10.4665
▁மேற்கோள்	-10.4666
ஸ்திர	-10.4666
▁வசந்த	-10.4668
▁சேர்மங்கள்	-10.468
▁அமைகிறது	-10.4681
ப்பாடி	-10.4682
▁மதம்	-10.4688
▁மயிலாடுதுறை	-10.4689
▁சேர்த்த	-10.469
▁மெல்ல	-10.4691
▁ஏற்றுக்கொண்ட	-10.4691
மாற்றம்	-10.4696
▁காட்டும்	-10.4697
▁வகையைச்	-10.4698
▁மோசமான	-10.4702
▁1958	-10.4705
▁முகவரி	-10.4705
▁சுற்றியுள்ள	-10.4709
▁ஈடு	-10.4712
▁கடிகார	-10.4714
▁பாம்பு	-10.4717
ப்புல	-10.4723
▁ட்ர	-10.4725
ங்குளம்	-10.4728
▁சிதற	-10.473
▁படித்து	-10.473
தேச	-10.473
▁1961	-10.4731
▁திட்டத்தை	-10.4731
▁ஆயிர	-10.4738
கொடு	-10.4739
▁திருக்குறள	-10.4739
▁நமது	-10.474
ess	-10.4741
▁போக்கு	-10.4741
▁இறங்க	-10.4744
ve	-10.4745
▁உத்தரப்	-10.4746
▁சந்தித்த	-10.4748
ord	-10.4751
செய்யப்பட்ட	-10.4751
▁ஏறக்குறைய	-10.4752
▁என்பவற்ற	-10.4752
வியலாளர்	-10.4752
▁உள்ளடக்கியது	-10.4758
ேசன்	-10.4759
அள்ளி	-10.4759
மீட்டர்	-10.476
▁ஆண்களின்	-10.4761
▁ராவ்	-10.4767
▁ஆகியவற்றைக்	-10.4776
நூற	-10.4776
ae	-10.4777
▁பொருட்களின்	-10.4778
▁ராய்	-10.4785
ஊ	-10.4785
ஷன	-10.4793
▁அமர்	-10.4794
▁இச்சி	-10.4794
மாண	-10.4794
▁தோற்கடித்த	-10.4802
▁சுழல்	-10.4803
▁நாயக்கர்	-10.4804
வர்மன்	-10.4805
குள	-10.4809
▁கிழ	-10.481
▁பெருங்கடல	-10.4816
▁ஈடுபட்டு	-10.4816
▁அடிப்படையிலான	-10.4818
காட்டி	-10.4819
▁ஒன்றியத்தின்	-10.4824
▁வென்றது	-10.4825
ass	-10.4836
வலை	-10.4839
▁குறிப்பிடுகிறார	-10.4841
▁(3	-10.4849
▁நிலவு	-10.4849
சஸ்	-10.4856
▁மூலவர்	-10.4856
▁படித்த	-10.4858
▁மெதுவாக	-10.4859
▁நுரையீரல்	-10.486
▁மதி	-10.486
▁மண்டலத்தில்	-10.4864
▁தேர்ந்தெடுத்த	-10.4866
கூற	-10.4866
▁மாறும்	-10.4869
▁உடலின்	-10.4873
இந்திய	-10.4875
▁தோன்றியது	-10.4877
▁ஆரோக்கிய	-10.4878
▁போருக்கு	-10.4878
▁நிற்க	-10.488
▁அதிகரிக்கும்	-10.488
ினைப்	-10.4883
▁தரநிலை	-10.4884
▁பிரதிநிதி	-10.4885
▁ஈர்ப்பு	-10.4891
▁சுருக்கமாக	-10.4892
▁வாழ்க்கையில்	-10.4893
▁சுரப்பி	-10.4897
▁குடும்பத்தைச்	-10.4899
▁பேசி	-10.4899
▁கற்பித்த	-10.4901
▁தியாக	-10.4902
ெண்	-10.4903
5,000	-10.4905
▁கார்பன	-10.4906
▁1959	-10.4907
லீன்	-10.4907
▁ஈர்க்க	-10.4911
▁எடுப்ப	-10.4913
▁மேம்பாட்டு	-10.4917
▁ஸ	-10.4923
த்தீவு	-10.4925
▁வீத	-10.4925
▁ஆஸ்திரேலிய	-10.4927
▁கோபால	-10.4929
▁இப்படம்	-10.4934
▁தூரம்	-10.4935
ங்களுக்காக	-10.494
▁அடித்தள	-10.4942
▁வேகம்	-10.4943
பாடாக	-10.4943
▁பொருள்படும்	-10.4946
ச்சொல்	-10.4947
▁நிகழ்ச்சியில்	-10.4949
▁வைத்தார்	-10.495
▁கருத்தில்	-10.4951
▁புற்று	-10.4952
▁தாக்கி	-10.4953
பழ	-10.4953
▁நிலையத்தில்	-10.4954
▁அமைச்சரவை	-10.4955
▁சம்பா	-10.4958
▁பீகார	-10.4959
▁குளிர்கால	-10.4959
▁நடக்கின்றன	-10.4961
யூட்ட	-10.4962
▁நாட்களுக்கு	-10.4963
▁வடிவத்தில்	-10.4964
களிலேயே	-10.497
▁1946	-10.4971
▁வெல்ல	-10.4973
▁உறுப்பினராகவும்	-10.498
▁பெண்களுக்கு	-10.498
▁மகாபாரத	-10.4984
▁கிட்ட	-10.4985
▁தனித்து	-10.4988
ரம்ப	-10.4991
படுகிறது	-10.4991
▁இதழில்	-10.4992
ish	-10.4993
▁ஊடுருவ	-10.4994
sc	-10.4995
▁பார்ப்ப	-10.4998
▁தயாரிப்பில்	-10.4999
▁படிம	-10.5001
▁கூடாது	-10.5004
▁மட்டக்களப்பு	-10.5004
▁தருகிறது	-10.5004
▁லக்	-10.5005
▁மக்கட்தொகை	-10.5006
ீசுவரர்	-10.5006
▁ஒற்றுமை	-10.5006
ral	-10.5009
▁சமையல	-10.5009
▁வாயில்	-10.5016
▁பவுல்	-10.502
க்காட்சி	-10.5023
▁ரீதியான	-10.5024
நாக	-10.5025
▁பட்ச	-10.5026
yl	-10.5027
▁அசோக	-10.5031
செயல	-10.5031
▁நரசிம்ம	-10.5032
▁மூவ	-10.5032
uth	-10.5035
▁இசையமைத்த	-10.504
▁அவளை	-10.5042
▁ரவி	-10.5043
கோல்	-10.505
▁வாயிலாக	-10.5051
னவாக	-10.5051
ுவதாகும்	-10.5051
▁அரசால்	-10.5056
▁நெருக்கடி	-10.5058
▁அவசர	-10.506
▁மத்தியப்	-10.5068
▁வள்ள	-10.5071
▁அப்போதைய	-10.5071
▁தென்கிழக்கு	-10.5071
▁1949	-10.5074
▁பிலிப்	-10.5076
▁இரக	-10.5077
▁விலக	-10.5079
▁ஃப்ர	-10.5081
▁உபசன்னதிகள	-10.5082
▁மோதி	-10.5083
பெயர	-10.5083
▁சாம்பல்	-10.5085
▁சந்தேக	-10.5085
▁உத்திர	-10.5093
▁திரும்பிய	-10.5094
▁மொழிபெயர்ப்பு	-10.5096
▁முகம்மது	-10.5097
▁காஞ்சி	-10.5098
lu	-10.5098
▁தீவில்	-10.5101
▁வலு	-10.5105
▁பொதுத்	-10.5105
▁நோக்கிய	-10.5105
▁இயலாத	-10.5108
ric	-10.5109
▁இவர்களுக்கு	-10.511
▁ஐந்தாம்	-10.511
▁பணிபுரிந்தார்	-10.5115
▁ஆசிரியர	-10.5117
▁இவ்வினை	-10.5118
க்காலம்	-10.5118
தலின்	-10.512
▁திருப்பு	-10.5122
▁பழுப்பு	-10.5123
▁துவக்கத்தில்	-10.5127
▁பயன்படுத்தலாம்	-10.5127
▁பாடலை	-10.513
▁பான	-10.513
▁தலைவர்கள்	-10.5131
▁பிரம்மா	-10.5132
▁மாதங்கள்	-10.5134
▁ஈடுபாடு	-10.5137
▁லியோ	-10.5137
களுடைய	-10.514
▁கிரீ	-10.5144
▁பருவத்தில்	-10.5145
▁டார்	-10.5146
ரியல்	-10.5149
▁பராமரிக்க	-10.5149
▁1951	-10.5152
▁உருவாகி	-10.5158
▁63	-10.5158
▁செயற்பாட்ட	-10.516
வளி	-10.5164
▁பெரும	-10.5164
▁பயன்பாட்ட	-10.5172
▁எது	-10.5173
▁மேக	-10.5175
ence	-10.5176
▁கொடுத்தார்	-10.5178
யீடு	-10.5182
விசை	-10.5183
இது	-10.5183
▁பொலி	-10.5184
▁மங்கோலிய	-10.5185
▁செய்கின்றன	-10.5185
AT	-10.5188
▁விடும்	-10.5191
▁அழிந்து	-10.5194
iya	-10.5196
▁நீராவி	-10.5202
ண்டெ	-10.5202
▁புத்தகம்	-10.5207
▁தீய	-10.521
▁பள்ளத்தாக்கு	-10.5211
▁கார்த்திகை	-10.5214
▁செவி	-10.5216
▁எழுத்துக்கள்	-10.522
▁விசய	-10.5226
▁வெண்பா	-10.5228
aw	-10.5228
▁நேரு	-10.5231
ப்பட்டிருந்தது	-10.5232
▁அவர்களுடைய	-10.5237
▁இருபத்த	-10.5238
▁உள்ளடங்க	-10.5239
▁மார்கழி	-10.5241
ராஷ்டிர	-10.5241
▁ஆதரிக்க	-10.5241
▁தளம்	-10.5244
▁1955	-10.5244
▁அரசியலமைப்பு	-10.5245
▁ஆண	-10.5251
▁பெயரிட்ட	-10.5252
▁மெல்லிய	-10.5252
வண்ண	-10.5256
▁ஓரளவு	-10.5257
யியல	-10.5259
▁வேல்	-10.526
▁சிறீ	-10.5262
▁கூறுகின்றனர்	-10.5262
▁இம்மாவட்டம்	-10.5263
▁எண்ணிக்கையில்	-10.5269
▁முன்னரே	-10.527
போத	-10.527
▁வீடுகள்	-10.5273
யாகவே	-10.5274
▁பங்குனி	-10.5276
▁பயன்பட	-10.5277
▁சீடர்	-10.5279
▁ஊட்ட	-10.528
▁கட்டிடம்	-10.5286
▁இயக்கினார்	-10.5287
▁விளைவுகளை	-10.5291
▁புரூ	-10.5292
▁பெரும்பான்மையான	-10.5295
▁தொகுதியாகும்	-10.5295
▁திசையில்	-10.5297
▁இருந்ததால்	-10.5297
▁கலைஞர	-10.5298
▁வேளையில்	-10.5298
த்தொடர்	-10.5299
▁கரும்பு	-10.53
adi	-10.53
நெறி	-10.5301
▁இயங்கு	-10.5302
▁மருந்துகள்	-10.5302
பரப்ப	-10.5303
▁தோழி	-10.5304
▁மின்கல	-10.5306
▁அன்றைய	-10.5307
▁வழித்தட	-10.5307
▁தோல	-10.5316
விடுகிறது	-10.5318
▁தற்பொழுது	-10.5321
▁1944	-10.5323
▁1939	-10.5324
▁மண்டப	-10.5326
▁நாடகம்	-10.5332
▁அதிர்வெண்	-10.5334
▁திட்டங்கள்	-10.5337
▁விழாவில்	-10.5338
ory	-10.534
▁கற்றார்	-10.5343
▁தாக்கத்தை	-10.5345
▁அதன	-10.5346
▁ஆளுமை	-10.5347
▁அருந்த	-10.535
ுவோர்	-10.5351
▁பொருள்கள்	-10.5353
▁சான்ற	-10.5361
▁ஆரிய	-10.5365
ப்பட்டாலும்	-10.5366
▁பெறுகிறது	-10.5369
▁சத்ய	-10.5373
▁இழப்ப	-10.5373
▁பின்னாளில்	-10.5374
▁கருத்துக்களை	-10.5374
▁பாரதி	-10.5376
ாலோ	-10.5377
▁பகை	-10.5377
end	-10.5381
▁ஆசிரியர்கள்	-10.5382
▁ஆரம்பமான	-10.5384
▁பசிபிக்	-10.5388
▁41	-10.539
ப்பிடி	-10.539
▁தொழில்முறை	-10.5391
நு	-10.5392
▁x	-10.5392
▁Y	-10.5395
▁உந்து	-10.5396
னாய்	-10.5397
மிகு	-10.5398
ial	-10.54
▁பொறுத்த	-10.5401
▁மின்னழுத்த	-10.5401
ப்பேட்டை	-10.5404
▁அடித்த	-10.5407
ப்பதற்கான	-10.541
▁மூச்சு	-10.5412
▁இந்நோய	-10.5413
▁கொண்டுவர	-10.5415
▁காலத்தை	-10.5415
▁இடத்திற்கு	-10.5419
▁விளைவுகள்	-10.5427
▁CH	-10.5428
▁இந்தோனேசியா	-10.5429
மூன்ற	-10.5431
ton	-10.5431
க்குட்பட்ட	-10.5434
▁வெட்டு	-10.5435
பரப்பு	-10.5436
ron	-10.5439
▁பகிர்ந்து	-10.544
▁ரசிகர்	-10.5441
▁அதிகாரிகள்	-10.5442
▁வகைகளில்	-10.5442
▁நிர்வாகம்	-10.5443
▁நிலையங்கள்	-10.5444
ுபவர்கள்	-10.5444
▁மலையில்	-10.5446
நான்	-10.5448
▁தலங்களில்	-10.5449
னிலை	-10.545
லியோ	-10.5451
ace	-10.5454
▁நம்பி	-10.5456
▁வேளாண்	-10.5457
▁ஆணையம்	-10.546
▁சில்ல	-10.5462
▁அமைந்திருந்த	-10.5468
▁அடையும்	-10.547
▁நுழை	-10.5471
இந்தியா	-10.5474
ோட்டம்	-10.5477
▁குடும்பத்தினர	-10.5477
▁பிளவு	-10.5477
ஜு	-10.5478
▁வழிபாட்டு	-10.5483
▁இயற்றப்பட்ட	-10.5484
▁விபத்து	-10.5485
ஜோ	-10.5487
ிடமும்	-10.549
பணி	-10.549
▁கொள்வத	-10.5492
▁விளையாடி	-10.5493
ight	-10.5495
நத்தம்	-10.5495
▁ஒளிப்பட	-10.5495
▁விரைவு	-10.5496
▁பழம்	-10.5496
மனித	-10.5498
▁ஃ	-10.5498
▁கூட்டமைப்ப	-10.5503
▁உருவாக்குகிறது	-10.5506
▁ஆட்சியாளர்	-10.5507
▁ஐந்தாவது	-10.5508
act	-10.5508
▁நிறுவி	-10.5509
▁இயலாது	-10.5509
▁காகித	-10.5514
▁சந்தி	-10.5515
▁மேற்கொண்டார்	-10.5515
▁ஆன்மீக	-10.5522
▁அத்தி	-10.5524
▁மூர்த்தி	-10.5524
▁அறியப்படுகிறார்	-10.5525
▁கிருஷ்ணன்	-10.5526
▁கவலை	-10.5527
மிட்ட	-10.553
ens	-10.5534
▁ஸ்டார்	-10.5538
▁மிகுதியாக	-10.554
▁இட்டு	-10.5541
▁இடைய	-10.5541
▁ஆபத்து	-10.5541
▁வெளியில்	-10.5542
har	-10.5545
▁இடங்களை	-10.5551
▁குறியீட்டு	-10.5551
▁சந்திப்பு	-10.5552
▁இக்கால	-10.5553
▁தற்	-10.5566
முறையில்	-10.5567
ுவதே	-10.557
▁பிறந்து	-10.5571
▁மாநிலங்களில்	-10.5573
▁கீழ்க்காணும்	-10.5576
▁பரா	-10.5577
▁அழைப்பர்	-10.5586
▁இங்கிலாந்தில்	-10.5588
[	-10.559
▁பார்வதி	-10.5594
▁நடிப்பு	-10.56
▁கையில்	-10.5603
▁நீங்க	-10.5607
▁அமைந்து	-10.5608
▁நிர்	-10.561
▁தென்மேற்கு	-10.5617
▁அலெக்	-10.562
▁கண்டறியப்பட்ட	-10.5622
▁முகமது	-10.5631
▁செல்கின்றன	-10.5633
ாற்றல்	-10.5634
▁விட்டது	-10.5636
▁கொண்டுவந்த	-10.5638
▁தரவரிசை	-10.5638
▁பண்புகளை	-10.5639
▁இன்ன	-10.5647
▁கொட்ட	-10.5651
int	-10.5658
ப்பொருட்கள	-10.5661
▁போராட்டம்	-10.5661
▁எகிப்த	-10.5662
▁சிலுவை	-10.5662
▁உடலை	-10.5664
▁பந்தய	-10.5666
▁தளத்தில்	-10.5668
▁பெரும்பகுதி	-10.5668
▁பின்பற்றி	-10.5671
▁விளையாடினார்	-10.5673
▁ஆய்வாளர்	-10.5683
▁தள்ள	-10.5684
au	-10.5685
▁ஹென்றி	-10.5686
▁அளிக்கும்	-10.5687
▁அதிகரித்து	-10.569
mm	-10.5691
▁அளிக்கப்பட்ட	-10.5691
du	-10.5691
▁விளங்கினார்	-10.5694
▁மில்லியன	-10.5696
▁நகரங்கள்	-10.5697
▁மனு	-10.5697
▁செலுத்தி	-10.5698
▁தூக்கி	-10.5711
▁பட்டது	-10.5712
பாக	-10.5713
▁விமர்சகர்	-10.5713
▁கூடுதலான	-10.5713
▁மையத்தில்	-10.5714
▁நீரின்	-10.5715
க்கூடியதாக	-10.5716
▁சத்த	-10.5719
▁78	-10.5719
▁கற்பிக்க	-10.5719
▁நீங்கள்	-10.5723
▁பாரத	-10.5724
▁குண்ட	-10.5725
▁பெண்களும்	-10.5731
ண்டின்	-10.5734
படை	-10.5734
▁மெர்	-10.5734
▁பதினெட்டாம்	-10.5741
▁வலிமையான	-10.5745
▁ரெட்டி	-10.5749
▁பெய்	-10.5749
▁இதற்காக	-10.5749
ையூர்	-10.5751
▁வட்டத்தின்	-10.5752
▁சார்ந்து	-10.5753
▁வெளியேறி	-10.5763
▁விளையாடிய	-10.5768
▁சுவர	-10.5783
▁வளர்ப்ப	-10.5785
▁ஒழுக்க	-10.5787
▁மைசூர்	-10.5791
▁முனைய	-10.5794
அமெரிக்க	-10.5797
▁இருப்பிட	-10.58
▁பகுதிகளுக்கு	-10.5803
ஞர்	-10.5806
▁பொதுமக்கள	-10.5806
▁முடித்து	-10.5818
▁படைகளை	-10.5823
▁ஏதேனும்	-10.5824
▁கோயிலில்	-10.5827
▁ஒன்றின்	-10.5827
▁இயக்கி	-10.5828
▁விவசாயம்	-10.5832
ox	-10.5834
▁ஆக்சிசன்	-10.5835
▁வர்ண	-10.5835
▁லாஸ்	-10.5837
▁ஹொங்கொங்	-10.5838
▁காப்புரிமை	-10.5839
▁விக்கி	-10.584
▁என்கிறார்	-10.584
▁பெயரிடப்பட்ட	-10.5847
▁இறைய	-10.5848
ப்படுவதாக	-10.5849
வுள்ள	-10.5849
▁மஹா	-10.5851
▁சேர்மம்	-10.5851
▁கொரியா	-10.5858
களோ	-10.5859
▁உமிழ்	-10.5862
▁செய்யலாம்	-10.5865
இல	-10.5869
குப்த	-10.5869
▁1953	-10.5869
ark	-10.587
▁மாற்றாக	-10.5872
▁பாக்கித்தான	-10.5873
▁எடுத்தார்	-10.588
▁உருவாகிய	-10.588
▁பிரதேசத்தில்	-10.588
ங்களாகப்	-10.5881
▁படங்கள்	-10.5886
கதிர்	-10.5888
▁உணவை	-10.5888
▁பிரிட்டன	-10.589
▁செயற்கைக்கோள்	-10.5895
▁ஹூ	-10.59
▁புலிகள்	-10.5901
க்குளம்	-10.5901
▁பூத	-10.5902
திலிருந்து	-10.5904
யின்றி	-10.5907
▁செய்துகொண்ட	-10.5907
ite	-10.591
க்குறிச்சி	-10.591
ப்படுவதை	-10.5913
▁நூலகம்	-10.5913
▁அடைந்தது	-10.5914
▁ராமநாதபுரம்	-10.5923
▁அறுவடை	-10.5923
▁பூஜை	-10.5923
▁தற்காலத்தில்	-10.5924
▁துரு	-10.5924
ுநர்	-10.5927
▁நிழல	-10.5929
▁இதன	-10.5931
▁படித்தார்	-10.5937
யின்படி	-10.594
▁நூற்	-10.5944
▁இடர்	-10.5946
தற்கும்	-10.5948
னொ	-10.5951
▁இரசாயன	-10.5951
▁விதமான	-10.5953
▁நூ	-10.5954
▁பாகிஸ்தான	-10.5958
▁முதன்மையாக	-10.5963
▁அவதார	-10.5964
மளிக்க	-10.5966
▁அளவீடு	-10.5972
வேளை	-10.5972
▁பொதுமக்கள்	-10.5973
▁காலத்தின்	-10.5973
ப்பாளையம்	-10.5973
▁தந்தையின்	-10.5976
▁பக்கத்தில்	-10.5977
▁சூழ்ந்த	-10.5984
▁பூமியின்	-10.5984
▁வரையிலும்	-10.5987
uk	-10.5987
▁டெல்லி	-10.5987
ம்பாக்கம்	-10.5991
▁நிறுவனமாக	-10.5991
▁பள்ள	-10.5995
ொன்றை	-10.5995
▁1936	-10.5997
▁தொடங்கும்	-10.6001
▁அலக	-10.6004
▁விண்டோஸ்	-10.6008
▁நாளிதழ	-10.6009
▁கூறலாம்	-10.6011
▁சாகி	-10.6011
▁வலுவான	-10.6013
▁உருவாகின்றன	-10.6014
பூண்டி	-10.6015
▁அறிகுறிகள்	-10.6018
ுமாவார்	-10.6019
▁ஆளுநர்	-10.6022
▁தோல்வியடைந்த	-10.6023
▁அனைத்தையும்	-10.6024
▁தொகுதியிலும்	-10.6028
▁இரும	-10.603
▁வடமேற்கு	-10.603
▁தொலைவு	-10.6032
▁தயாரித்து	-10.6034
▁மூலமும்	-10.6035
▁ஆறாம்	-10.6037
▁பண்பாட்ட	-10.6038
நாராயண	-10.6039
▁பொருத்தமான	-10.6039
▁சூர	-10.604
▁ரங்க	-10.6046
▁சரக்கு	-10.6047
▁தொகுத்து	-10.6047
▁எடுத்துக்கொள்ள	-10.6048
▁இருக்கை	-10.6055
▁தேன்	-10.6062
▁டான்	-10.6067
▁வெற்றியை	-10.6067
▁சொந்தமான	-10.6068
க்கூடாது	-10.6068
▁சாய	-10.6072
▁பெற்றனர்	-10.6074
▁ஆய்வில்	-10.608
Ar	-10.6081
▁எந்திர	-10.6084
▁பொம்மை	-10.6084
மோர்	-10.6086
▁ஆரம்பிக்க	-10.6089
▁நாளை	-10.6092
▁வசிக்கின்றனர்	-10.6094
▁ஜனநாயக	-10.6094
▁மீற	-10.6096
NA	-10.6098
▁இழக்க	-10.6101
▁கொடுக்கும்	-10.6101
களுக்குள்	-10.6102
▁அழைத்த	-10.6102
▁தாயக	-10.6106
▁அமர்ந்த	-10.6106
▁ஆசை	-10.6108
▁மேம்பட்ட	-10.6109
▁வந்துள்ளது	-10.6109
▁காலப்பகுதியில்	-10.6109
றுக்க	-10.611
க்ஸி	-10.6112
▁பார்க்கும்	-10.6113
▁ஓட்டங்களை	-10.6119
▁நாடுகளிலும்	-10.6121
▁திருச்சபையின்	-10.6124
ிருந்தால்	-10.6127
வல்லி	-10.6129
▁மொழியின்	-10.6132
ளூர்	-10.6135
கூறு	-10.6137
▁எல்லைகளாக	-10.6137
▁வறுமை	-10.6138
▁கற்றல்	-10.6138
res	-10.615
▁உகந்த	-10.6151
▁அகாதமி	-10.6151
▁ஜெர்மன்	-10.6151
▁பொதி	-10.6159
▁கரையோர	-10.6166
▁குரூ	-10.6166
▁கணவன	-10.6167
ாண்மை	-10.6167
▁அமர	-10.6168
▁நாடாளுமன்றத்	-10.6169
கோவில	-10.6171
▁இளமை	-10.6176
▁போன்றவற்றில்	-10.6181
▁திரைப்படத்தை	-10.6182
▁ஹெர்	-10.6185
▁தலைமையகம்	-10.6187
▁இன்றி	-10.6189
▁படுகிறது	-10.6197
udi	-10.6198
க்கொள்ளும்	-10.6199
▁சங்கத்தின்	-10.62
▁நரம்ப	-10.6212
▁காட்டிய	-10.6214
▁An	-10.6216
▁உழைப்ப	-10.6218
பெண்	-10.6218
▁வளர்த்த	-10.622
▁கும்பகோணம்	-10.6224
விட்டது	-10.6224
ுவதாகவும்	-10.6227
▁ஐதரோ	-10.6227
▁தவறாக	-10.6233
▁மாற்றிய	-10.6239
▁தெரிந்து	-10.6244
▁அளித்தார்	-10.6244
▁பெருங்க	-10.6244
▁அவசியம்	-10.6245
▁பயனுள்ள	-10.6246
▁தியான	-10.6246
▁போட்டியிட	-10.6247
▁விஞ்ஞான	-10.6247
▁இருப்பத	-10.625
▁செய்யப்பட்டன	-10.625
▁வயிற்று	-10.6253
▁ஓவியங்கள்	-10.6253
▁நடவடிக்கைகளை	-10.6253
▁திரட்ட	-10.6255
▁1942	-10.6256
▁தகுந்த	-10.6256
▁கருதப்பட்ட	-10.6257
▁அச்சுறுத்த	-10.6268
▁வேறுபாடுகள்	-10.6268
▁அதிபர்	-10.6272
tor	-10.6273
ட்ரீ	-10.6275
ஃபெ	-10.6276
▁சேகரிப்ப	-10.6276
▁இடைக்கால	-10.6278
▁புனே	-10.6278
▁நடக்க	-10.6282
பேர	-10.6282
▁மேற்பார்வை	-10.6282
▁அகர	-10.6282
▁சேமிப்பு	-10.6285
▁ஆதிக்க	-10.6285
▁பாசி	-10.6288
▁ஏஞ்சல	-10.629
▁ஆராய்ந்த	-10.6293
▁மின்னோட்ட	-10.6296
▁இனத்தவர	-10.6297
▁பலகை	-10.6305
ern	-10.6306
▁உடனே	-10.6307
▁உருசியா	-10.6308
▁இமயமலை	-10.6311
▁முன்னேற்றக்	-10.6313
▁புலம்	-10.6314
▁1937	-10.6315
▁கொல்லப்பட்ட	-10.6318
▁இவ்விட	-10.632
கோள	-10.6321
▁இவரும்	-10.6322
▁பழமை	-10.6324
▁மக்களிடையே	-10.6328
நிறுவன	-10.633
▁பணிகளை	-10.6331
ராணி	-10.6336
▁ரத்த	-10.6337
▁கிடைக்கின்றன	-10.6338
ிருப்பதால்	-10.634
www	-10.6341
ank	-10.6341
▁வில்லை	-10.6342
விட்டன	-10.6342
▁காணும்	-10.6345
போர்டு	-10.6347
one	-10.6352
amb	-10.6354
போதே	-10.6358
▁தொழில்துறை	-10.636
▁பாதுகாப்புச்	-10.636
▁எரிபொருள்	-10.6369
▁பட்டா	-10.637
▁ஒல்லாந்த	-10.6371
▁செய்கிறார்	-10.6373
▁நடத்தினார்	-10.6374
▁இடையேயான	-10.6381
▁வாசிப்ப	-10.6383
▁கர்தினால்	-10.6385
▁ஆய்வாளர்கள்	-10.6388
▁di	-10.6389
no	-10.639
iz	-10.639
▁ஆகியோருக்கு	-10.6392
ப்படுவத	-10.6392
▁உறவ	-10.6393
▁அமைகின்றன	-10.6393
▁66	-10.6398
▁காங்கிரச	-10.6399
▁எழுச்சி	-10.6401
▁நிகழ்ச்சிகள்	-10.6405
▁72	-10.6405
▁செயல்திறன்	-10.6407
▁வகையாகும்	-10.6408
▁துவங்கி	-10.6415
▁கோவிலில்	-10.6415
▁நிதிய	-10.6415
▁ஆட்சியை	-10.6419
▁சமமாக	-10.642
பயண	-10.6425
▁பிரபலமாக	-10.6428
▁கட்டிடங்கள்	-10.6428
▁நிலக்கரி	-10.643
▁மோட்டார்	-10.643
த்திறன	-10.6432
ரிங்	-10.6432
▁கொங்கு	-10.6433
▁காடுகள்	-10.6433
▁செயலக	-10.6433
ந்துறை	-10.6434
der	-10.6437
▁யாழ்	-10.6438
▁தவறு	-10.6442
றிதல்	-10.6442
▁உலை	-10.6443
▁பாரிச	-10.6444
▁ஹில்	-10.6444
▁இசைத்தொகுப்ப	-10.6444
▁இப்பெயர்	-10.6444
▁தேயிலை	-10.6446
▁காலகட்ட	-10.6448
str	-10.6449
▁நாசி	-10.645
▁மாற்றங்களை	-10.6452
நிதி	-10.6453
மூலம்	-10.6454
▁கணிப்ப	-10.6456
▁கொழும்ப	-10.6458
▁பதவியில்	-10.6458
ism	-10.646
▁மூலதன	-10.6465
▁56	-10.647
ியலில்	-10.6471
▁வைத்திருக்க	-10.6473
▁தடவை	-10.6475
வனாக	-10.6475
▁மலாயா	-10.6475
▁லோக	-10.6476
▁பாயும்	-10.6477
▁பாலை	-10.6482
புதூர்	-10.6483
▁பிளாக்	-10.6484
200	-10.6486
▁காண்பிக்க	-10.6486
▁ஹு	-10.6489
▁இதனுடைய	-10.649
▁உறுப்ப	-10.6491
▁படல	-10.6492
புத்திர	-10.6495
▁நிக்கோ	-10.6495
▁விருதுகளை	-10.6496
பந்தாட்ட	-10.6501
▁மோர்	-10.6504
▁விடுத்த	-10.651
கிருத	-10.6513
▁புத்தர்	-10.6514
▁85	-10.6518
▁தாமத	-10.6519
சவ்வ	-10.6519
▁வசிக்கும்	-10.652
▁தொடங்கினர்	-10.652
▁நினைத்த	-10.6523
▁உயர்நிலைப்	-10.6525
▁மேற்பரப்பு	-10.6525
▁பாதையில்	-10.6527
▁இருந்ததாக	-10.6529
▁வேட்டை	-10.653
▁மைதான	-10.6532
▁நிறுவனமான	-10.6534
லுடன்	-10.6534
hy	-10.6537
▁வருவது	-10.6538
லானது	-10.654
▁தொகுப்புக்	-10.6543
பர்ட்	-10.6543
▁மதிப்பை	-10.6544
ong	-10.6544
▁முடித்தார்	-10.6544
▁பண்புகள்	-10.6551
கென்	-10.6558
திகார	-10.6559
ிப்பது	-10.6565
▁அரிதாக	-10.6565
▁ஜோசப்	-10.6565
▁தொடங்கின	-10.6569
மன்ற	-10.6572
ெண்ண	-10.6573
▁மேற்கே	-10.6575
▁அலுமினியம்	-10.6576
▁தம்மை	-10.6578
▁சாகுபடி	-10.6579
▁தரவுத்தள	-10.6581
▁சூட	-10.6581
▁சென்றது	-10.6581
▁போரிட்ட	-10.6584
▁தங்களை	-10.6587
▁குட்டி	-10.6588
▁Al	-10.6594
▁விருத்தி	-10.6596
▁ஊசி	-10.6597
▁அளக்க	-10.6598
▁உருவாக்கியது	-10.6601
▁சான்றுகள்	-10.6602
▁வலுவ	-10.6603
▁காலமாக	-10.6603
▁புராணம்	-10.6605
ராயர்	-10.6609
▁சமிக்ஞை	-10.6609
▁முறையாகும்	-10.661
குமார	-10.6613
pe	-10.6613
▁வியா	-10.6614
▁ஆழ்	-10.6615
▁கண்டுபிடிப்ப	-10.6616
▁சண்முக	-10.6624
▁லண்டன்	-10.6624
▁II	-10.6626
▁கொரிய	-10.6628
ஸ்ரீ	-10.6629
▁கவனிக்க	-10.6632
ore	-10.6634
▁இராமநாதபுரம்	-10.6639
▁பிந்தைய	-10.664
▁தங்கிய	-10.664
mi	-10.664
tu	-10.6642
▁நிபுணர்	-10.6643
▁கொத்த	-10.6645
▁சமமான	-10.6645
▁ஜோடி	-10.6648
▁சீனாவில்	-10.6648
குளோரோ	-10.665
pp	-10.665
tra	-10.6653
▁குழந்தைகளுக்கு	-10.6654
▁கற்றுக்	-10.6655
▁விளங்கி	-10.6658
சட்டமன்றத்	-10.6658
▁ஏறி	-10.6662
▁பிரகாச	-10.6665
▁கமல	-10.6668
▁மலேசியாவில்	-10.667
▁பாலூட்டி	-10.667
▁மோதல்	-10.667
▁இப்படத்தை	-10.667
▁பங்காற்ற	-10.6672
▁ராதா	-10.6674
தமிழ்நாடு	-10.6677
▁மரியாதை	-10.6678
▁நட்பு	-10.6682
▁சூறாவளி	-10.6685
சிறு	-10.6686
▁இக்கோயில	-10.6687
▁கொள்ளை	-10.6689
▁53	-10.6692
▁இக்கோயிலின்	-10.6696
▁அங்கீகார	-10.67
▁சமஸ்கிருத	-10.67
▁தோற்றுவித்த	-10.67
▁இவ்வூரின்	-10.6701
ட்டிற்கு	-10.6701
▁மாதங்களில்	-10.6703
ie	-10.6703
▁நடுத்தர	-10.6704
▁பேரூராட்சி	-10.6707
▁54	-10.6712
og	-10.6713
▁சிதைவு	-10.6713
▁நோக்கில்	-10.6716
▁அமைவிடம்	-10.6718
களில	-10.6726
யப்பன்	-10.6726
▁போதிய	-10.6727
▁ஆகஸ்டு	-10.6731
▁டெல்	-10.6731
▁வானிலை	-10.6735
▁குறைப்ப	-10.6736
▁பிள்ளையார்	-10.6738
சமய	-10.6739
▁ஏதும்	-10.6741
▁பங்களிப்ப	-10.6742
▁இயல்பான	-10.6745
▁பெறப்படும்	-10.6745
▁நடைபெற்று	-10.6746
▁பாட்டி	-10.6746
▁கையெழுத்த	-10.6749
▁திகழ	-10.6751
▁போதி	-10.6752
▁அதற்கான	-10.6754
ோருக்கு	-10.6754
ப்பதை	-10.6756
வாள்	-10.676
▁பெறுகின்றன	-10.676
▁கணேசன்	-10.6762
▁சப்த	-10.6765
▁அங்குள்ள	-10.6768
▁மெய்யியல்	-10.6769
▁நியூசிலாந்து	-10.677
▁விதிமுறை	-10.6773
சனை	-10.6776
▁பிரித்தானியர்	-10.6779
▁உட்கொள்ள	-10.6782
▁சேவைகளை	-10.6782
▁தங்களின்	-10.6783
▁செட்டி	-10.6786
ts	-10.6794
▁வலய	-10.6795
▁படத்தை	-10.6799
▁அளித்து	-10.6802
▁விடை	-10.6805
▁புரு	-10.6809
▁தலைமையிட	-10.6813
▁சல	-10.6815
▁பறக்கும்	-10.6816
▁காவிய	-10.6818
▁ஐதராபாத்	-10.6823
▁மீட்ப	-10.6823
▁முற்பட்ட	-10.6824
▁பாண்டியர்	-10.6832
க்காய்	-10.6834
ond	-10.6845
யிட்	-10.6845
▁சந்தையில்	-10.6851
ous	-10.6853
▁செயற்பட	-10.6855
tri	-10.6856
▁அளவி	-10.6861
▁பணத்தை	-10.6863
ியலாளர்	-10.6864
▁பெற்றன	-10.6865
▁அமினோ	-10.687
▁பைரவர்	-10.687
▁தாமரை	-10.687
▁மகிழ	-10.6872
▁Ar	-10.6873
▁கண்டுபிடித்தார்	-10.688
க்கட்டி	-10.6883
▁பற்று	-10.6884
ப்படுகிற	-10.6888
▁62	-10.6891
▁வருடங்களுக்கு	-10.6897
பிறகு	-10.6898
ome	-10.6898
▁உற்சவ	-10.6901
▁இடத்தைப்	-10.6903
▁நபி	-10.6908
▁துர்	-10.691
▁பகுதிகளாக	-10.6912
▁முன்னிலையில்	-10.6916
▁தோராயமாக	-10.6916
▁விஞ்ஞானி	-10.6922
▁சிக்கல	-10.6922
டியன்	-10.6923
▁பின்புற	-10.693
கோட்ட	-10.6945
▁பயின்று	-10.695
▁இயக்கத்தை	-10.695
▁புரிய	-10.6954
னிங்	-10.6956
▁தடுத்து	-10.6962
கார்பன	-10.6964
▁நிலத்தில்	-10.6966
▁மன்னர்கள்	-10.6969
களாவர்	-10.6971
யுடனும்	-10.6973
▁நேரத்தை	-10.6973
▁போன்றே	-10.6973
▁அடித்து	-10.6974
மெய்	-10.6976
பருவ	-10.6976
▁தெளிவான	-10.6977
▁தனித்துவமான	-10.6979
▁வாழ்நாள்	-10.6981
▁போத	-10.6982
▁இடங்களுக்கு	-10.6986
மற்றும்	-10.6987
▁வரவேற்ப	-10.6992
விலேயே	-10.6993
ேஸ்வரி	-10.6993
▁நிபந்தனை	-10.6994
▁வளைகுடா	-10.6994
▁செயலாளராக	-10.6995
▁உணர்வ	-10.6995
▁கால்சியம்	-10.6996
lan	-10.6997
▁1941	-10.6998
தொலை	-10.7004
▁தமிழீழ	-10.701
▁சுட்டிக்காட்ட	-10.701
▁இங்கிலாந்தின்	-10.7013
▁வோல்	-10.7014
▁மருத்துவமனையில்	-10.7017
▁எகிப்திய	-10.7017
▁மல்ல	-10.7022
▁ஜப்பான்	-10.7022
▁முன்னால்	-10.7022
▁நீண்டகால	-10.7023
▁பாலா	-10.7026
▁ஆகையால்	-10.7026
▁படுக்கை	-10.7026
▁பெருநகர	-10.7028
▁பாடியுள்ளார்	-10.704
ies	-10.7041
IV	-10.7041
▁கருதப்படுகிறார்	-10.7045
▁படையெடுப்பு	-10.7047
▁இறைச்சி	-10.7056
யாறு	-10.7067
நெல்	-10.7072
▁சிந்தி	-10.7072
▁இரவில்	-10.7073
▁பெருங்கடல்	-10.7075
▁ஆட்சிக்கு	-10.7075
▁அரசியலில்	-10.7075
▁நகரமாகும்	-10.7084
▁இயல்ப	-10.7086
▁ஷே	-10.7087
ver	-10.7088
▁எளிமையான	-10.7088
▁எவ்வளவு	-10.7089
▁விண்கல	-10.709
▁இப்படத்தில்	-10.709
மூட்ட	-10.709
▁துல்லியமாக	-10.7092
▁1934	-10.7093
▁அமீ	-10.7093
▁திட்டத்தில்	-10.7096
▁செறிவு	-10.7097
▁ஏற்படுத்தியது	-10.7097
▁தழுவி	-10.7098
▁இடங்களிலும்	-10.7099
▁கூறியுள்ளார்	-10.7101
கவுண்ட	-10.7101
▁கடலோர	-10.7105
▁சீனிவாச	-10.7105
▁சினிமா	-10.7106
வார்ட்	-10.7107
க்கென	-10.711
▁தொங்க	-10.7116
வாகவும்	-10.7118
▁சந்தித்து	-10.7121
▁படையெடுத்த	-10.7123
▁சர்வ	-10.7124
ani	-10.7125
▁கூடியது	-10.7126
▁அணிந்த	-10.7128
▁st	-10.7129
ture	-10.7133
▁இம்மாவட்டத்தில்	-10.7134
▁எகிப்து	-10.7135
▁மாலி	-10.7136
▁ஆயிரக்கணக்கான	-10.7137
யாலும்	-10.7137
▁பசி	-10.714
▁கூறப்பட்ட	-10.714
▁காஷ்மீர்	-10.7143
▁மந்திரி	-10.7148
மெண்ட்	-10.7148
▁இலவச	-10.7149
▁படிப்பறிவு	-10.7153
▁67	-10.7154
▁தெரியாத	-10.7154
புரோ	-10.7156
த்தின்படி	-10.7165
▁கப்பல்கள்	-10.7166
▁லட்சம்	-10.7167
▁சரணாலய	-10.7169
▁சட்டசபை	-10.7173
▁ஃபே	-10.7177
▁இத்திரு	-10.7179
▁வன்னி	-10.7179
▁மேற்கொண்டு	-10.7182
▁பிரிந்த	-10.7183
▁பட்டமும்	-10.7185
SO	-10.7186
▁வெளிவர	-10.7187
▁காண்ட	-10.7188
▁கூட்டுறவு	-10.7188
த்திற்குள்	-10.7188
▁ஆஞ்சநேயர்	-10.7191
▁சிதைவ	-10.7194
▁எல்லையில்	-10.7194
▁படிநிலை	-10.7196
▁இறக்கை	-10.7197
so	-10.7198
யளித்த	-10.7198
சிற்றிதழ்	-10.7202
▁சிரம	-10.7202
ச்சாலை	-10.7203
▁விருத	-10.7205
ராயன்	-10.7207
த்தாலும்	-10.7207
▁கூறுகின்றன	-10.7214
▁பக்தர்கள்	-10.7215
▁பத்தாண்டு	-10.7217
▁ஆத்திரேலியா	-10.7217
▁முல்லை	-10.7218
▁இயக்கத்தின்	-10.7219
▁1938	-10.7221
▁ஏற்படலாம்	-10.7226
▁விரிவாக	-10.7226
ப்பாளர்	-10.7227
▁பாச	-10.7228
▁வலையமைப்பு	-10.7229
▁வாழ்வில்	-10.7235
amp	-10.724
ear	-10.7245
▁ஏனென்றால்	-10.7249
▁வாய்ப்பாட்ட	-10.7249
▁வரம்பு	-10.7252
▁முதுகு	-10.7252
ந்ந	-10.7252
யிலே	-10.726
வாழ்வு	-10.7262
▁நிலநடுக்க	-10.7265
▁விதத்தில்	-10.7267
▁ஏற்பட்டு	-10.7268
யென	-10.7269
▁முறைகளை	-10.7269
▁தொடர்பில்	-10.7271
பத்திர	-10.7271
▁பூனை	-10.7274
▁நியமித்த	-10.7276
வாய்ந்த	-10.728
▁இப்பறவை	-10.7281
க்கொடி	-10.7282
▁மூடப்பட்ட	-10.7284
ack	-10.7288
▁மாணவர்களுக்கு	-10.7291
▁கூறுவர்	-10.7298
▁போதை	-10.73
▁யுத்த	-10.73
றுப்பு	-10.7301
▁குறுக்கு	-10.7303
▁பேரின	-10.7311
▁அதிபர	-10.7312
ஜ்ஜ	-10.7312
▁நகர்த்த	-10.7315
▁Mo	-10.7319
▁வடக்க	-10.7322
▁ஏல	-10.7324
▁வந்தவர்	-10.7325
▁ராயல்	-10.7326
▁எருசலேம	-10.733
▁படப்பிடிப்பு	-10.7331
▁திருப்பி	-10.7333
▁கிரிக்கெட்	-10.7333
▁நிறுவனங்களின்	-10.7337
▁மில்லி	-10.7341
▁இடத்தையும்	-10.7343
▁உறவினர்	-10.7348
▁இழந்து	-10.7349
▁இயற்கையாக	-10.7349
▁வழு	-10.7352
▁விடுமுறை	-10.7363
▁ஆரம்பித்தார்	-10.7366
▁1943	-10.7366
வேலு	-10.7367
100	-10.7367
ப்பதிவு	-10.7368
▁ஈடுபட்டார்	-10.7374
▁எனப்படுவது	-10.7376
▁செய்துள்ளார்	-10.7377
▁பௌ	-10.7378
றீ	-10.7379
▁கதையை	-10.7379
▁சாப்பிட	-10.738
▁குளிர	-10.7382
wa	-10.7382
▁ஆதரவாக	-10.7384
▁விட்டார்	-10.7388
ஹீ	-10.7392
▁இடம்பெற	-10.7394
▁நிறுவனத்தால்	-10.7394
▁அத்தகைய	-10.7395
▁ஏவுகணை	-10.7395
▁காய்கறி	-10.7395
த்துக்காக	-10.74
▁வடிவங்கள்	-10.7406
▁கூற்று	-10.7409
ரீதியாக	-10.7411
விளக்க	-10.7418
▁தலைநகரமாக	-10.7422
ரீதியான	-10.7422
குழல்	-10.7423
ப்பேர	-10.7423
▁மணல்	-10.7424
ிறக்க	-10.7427
▁விஸ்வநாத	-10.7428
▁கள்ள	-10.7431
▁இழைய	-10.7431
▁கங்கா	-10.7432
ீஸ்வர	-10.7434
▁குடிமக்கள்	-10.7437
▁அணுக்கள்	-10.7445
▁யோவான்	-10.7449
▁இரகசிய	-10.745
▁நாட்காட்டி	-10.7452
▁சிறுகதைகள்	-10.7452
▁நிச்சய	-10.7461
▁தேர்ச்சி	-10.7464
▁வெண்கல	-10.7464
▁கடத்தி	-10.7465
▁1935	-10.7465
ஜூ	-10.7467
▁வெறும்	-10.7468
னீசிய	-10.747
▁தீபகற்ப	-10.7477
▁பயின்ற	-10.7478
ரென்	-10.748
▁பிரிவினை	-10.7485
▁வடிவமைக்க	-10.7486
▁நிலைத்த	-10.7488
▁துருக்கிய	-10.7491
நைட்ர	-10.7493
▁உயிரினங்கள்	-10.7495
சதுர	-10.7505
▁கொல்லப்பட்டனர்	-10.7505
▁இப்பிரிவு	-10.7506
▁நிகர	-10.751
▁மோகன்	-10.7512
▁வைக்கப்பட்டது	-10.7514
▁போட்டு	-10.7514
▁1929	-10.7514
▁மின்சாரம்	-10.7515
▁சாம்ப	-10.7519
▁ரஷ்ய	-10.7519
▁கூடி	-10.7521
▁உண்டாக	-10.7523
▁ஆற்றில்	-10.7523
ாததால்	-10.7524
▁எவ்வித	-10.7527
▁இயங்குதள	-10.7527
▁பிரச்சார	-10.7527
▁பிற்கால	-10.7528
ிறேன்	-10.7532
▁ஆதிக்கம்	-10.7532
▁ஆரம்பகால	-10.7532
நிகழ்	-10.7538
▁பெற்றோர	-10.7538
▁அடக்கம்	-10.7546
▁ஏற்படுத்திய	-10.7546
▁மேலான	-10.755
▁77	-10.7554
OH	-10.7556
▁திறக்க	-10.756
▁தொலைநோக்கி	-10.7561
▁துவார	-10.7563
▁org	-10.7563
▁கைப்பற்றிய	-10.7563
▁அறிவியலாளர்	-10.7565
▁புறநகர்	-10.7565
▁பரவலான	-10.7566
ப்படுவதற்கு	-10.7567
▁ஜப்பானிய	-10.7574
▁புரிந்தார்	-10.7576
▁பிரை	-10.7581
▁முள்ள	-10.7581
▁முன்னேற	-10.7582
▁பரவி	-10.7584
▁பியூ	-10.7584
▁இக்கல்லூரி	-10.7588
▁பாத்திரத்தில்	-10.7588
▁சூடான	-10.7591
▁தேர்தல்களில்	-10.7595
▁ஃபார்	-10.7603
▁58	-10.7608
▁வாழ்வு	-10.7612
▁ஏற்பாட்ட	-10.7615
▁மாநாட்டில்	-10.7616
▁வெளியாகி	-10.7617
▁இயக்குநராக	-10.7623
▁எடுத்துக்கொண்ட	-10.7624
▁மலாய்	-10.7625
▁பல்லவ	-10.7627
சொற்	-10.7627
ருள்	-10.7631
▁தீவிரமாக	-10.7631
▁புலமை	-10.7634
▁பேசப்படுகிறது	-10.7635
கோடு	-10.7637
▁பாரிய	-10.7641
களின்படி	-10.7642
▁சித்தர்	-10.7643
▁அதிகப்படியான	-10.7643
▁பிரான்சின்	-10.7644
ப்படாமல்	-10.7645
▁கவர்ந்த	-10.7647
▁ஒருவரான	-10.765
▁மாணிக்க	-10.7651
▁அசுர	-10.7654
ம்பட்டு	-10.7658
▁கணிசமான	-10.766
▁குறைந்தபட்ச	-10.7662
▁ஐயர்	-10.7663
யாவார்	-10.7669
▁காப்பக	-10.7669
IS	-10.7669
▁நியாய	-10.767
▁இந்நிறுவனம்	-10.7672
▁உருளை	-10.7673
▁ஆண்களுக்கு	-10.7682
▁வணிகர்	-10.7683
▁சிற்பங்கள்	-10.7685
குறியீட்ட	-10.7686
mon	-10.7686
ஜென்	-10.7689
▁இயற்பெயர்	-10.7694
▁பலவீன	-10.7694
▁சிறுநீரக	-10.7695
eri	-10.7704
▁எதிர்த்த	-10.7709
▁மறுமலர்ச்சி	-10.7711
▁தெரிவ	-10.7711
▁ஆதரித்த	-10.7712
▁சேகரித்த	-10.7713
▁ஆயர்	-10.7722
und	-10.7722
▁கண்காட்சி	-10.7728
▁ஒட்டு	-10.7731
ூடாக	-10.7732
▁கிராமங்கள்	-10.7732
▁ஆகியோருடன்	-10.7732
▁திட்டமிடப்பட்ட	-10.7733
▁வாசிக்க	-10.7735
▁இருந்தே	-10.7738
▁முடிவடைந்த	-10.7739
▁உரிமையாளர்	-10.7739
▁நிற்கும்	-10.7743
நாட்டின்	-10.7745
▁விளங்கும்	-10.7749
ாண்டில்	-10.775
▁கிறிஸ்துவ	-10.775
▁கருதப்பட்டது	-10.775
▁தெற்க	-10.7752
▁தாண்டவ	-10.776
▁விடுவிக்க	-10.7762
▁வாலி	-10.7762
▁வளைவு	-10.7765
▁கொடுமை	-10.7766
▁நிறுவனங்களில்	-10.7767
நாய்	-10.777
▁இரயில்வே	-10.7772
▁கூரை	-10.7772
▁அணிந்து	-10.7778
▁50%	-10.778
▁சமன்பாட்ட	-10.7781
▁நீலகிரி	-10.7783
▁நினைவக	-10.7785
தீர்	-10.7786
▁இன்ப	-10.7787
ett	-10.779
வெட்டி	-10.7792
▁தூது	-10.7795
▁ஏதாவது	-10.7796
பாணி	-10.7798
▁கதிர	-10.7803
▁ஷோ	-10.7805
aj	-10.7807
▁தோன்றினார்	-10.7808
▁குழுவை	-10.7809
அதாவது	-10.7809
bi	-10.7814
▁மகனான	-10.7817
▁மார்க்க	-10.7818
▁எடுத்துக்காட்ட	-10.7819
az	-10.7823
யிலை	-10.7825
செய்து	-10.7827
▁முரண்	-10.7828
▁மீன்பிடி	-10.7828
▁திரைப்படமான	-10.7829
▁கொலம்பியா	-10.783
▁கோயில	-10.783
▁உறுப்பினர	-10.7831
லெட்	-10.7833
▁படைப்புகள்	-10.7834
ick	-10.784
▁சரண	-10.7844
▁இங்கிருந்து	-10.7847
▁செறிவ	-10.7849
▁தொழு	-10.7856
▁வெளிச்ச	-10.7857
தொழில	-10.7858
ருள	-10.7861
▁அடைந்தார்	-10.7862
▁அற்புத	-10.7864
▁அலுவல்	-10.7864
▁அவ்வப்போது	-10.7864
▁மதிப்பீட்டின்	-10.7865
▁மேய்	-10.7865
▁is	-10.7866
_2	-10.7867
ப்பிரிவு	-10.7868
▁120	-10.7874
▁கருதப்படுகின்றன	-10.7879
▁250	-10.7879
தொடர்பு	-10.7893
வசிக்கின்றார்கள்	-10.7898
▁எல்லோர	-10.7902
▁குடியேறிய	-10.7905
▁கூறியது	-10.7905
▁செய்யுள்	-10.7906
▁கலவர	-10.7907
லகு	-10.7908
▁இறைவி	-10.791
▁விருதினை	-10.7914
▁பெல்ஜிய	-10.7915
▁சூல	-10.7919
▁நமக்கு	-10.7921
▁போகும்	-10.7921
▁வாங்கிய	-10.7923
▁மொத்தமாக	-10.7925
▁தயாரிக்கும்	-10.7926
▁அப்போ	-10.7929
▁போராளி	-10.7934
ுயிரி	-10.7937
த்தின்போது	-10.7939
▁அதிலிருந்து	-10.7939
▁புயல	-10.794
▁அழைப்பு	-10.7941
▁முக்கோணத்தின்	-10.7942
▁பின்னால்	-10.7948
ich	-10.7948
▁வழிநடத்த	-10.795
▁அப்பொழுது	-10.795
ராவ்	-10.7954
▁பரத	-10.7954
▁போதனை	-10.7955
▁புற்றுநோய	-10.7956
▁செயல்பாடுகள்	-10.7957
▁செய்திகளை	-10.7966
▁சாளுக்கிய	-10.7967
▁விக்டோரியா	-10.7967
▁வைகுண்ட	-10.7967
▁இணையாக	-10.7969
▁சிறி	-10.7971
▁தங்களுக்கு	-10.7972
ிருப்பதை	-10.7975
▁வளாகத்தில்	-10.7978
▁இருந்துள்ளார்	-10.7979
▁ஆறாவது	-10.7985
▁கொம்பு	-10.7988
▁கதிர்வீச்சு	-10.7988
▁1931	-10.7989
▁கணிதத்தில்	-10.7992
▁பிணைப்ப	-10.7994
▁pro	-10.7994
ாக்சி	-10.7995
▁மறைந்து	-10.7997
▁விண்ணப்ப	-10.7998
▁வைகாசி	-10.8002
▁சமச்சீர	-10.8003
▁உலகளவில்	-10.801
▁பிரான்ஸ்	-10.801
குழந்தை	-10.8019
▁ஆக்சி	-10.8019
▁பிரேசில்	-10.8021
▁அரியலூர்	-10.8021
▁அறிவுரை	-10.8023
▁வயதான	-10.8024
தென	-10.8025
▁ஆட்டோ	-10.8035
மண்டப	-10.8036
▁தேக்க	-10.8036
▁நிரல	-10.8036
▁குற்றவாளி	-10.8037
gen	-10.8037
▁அகராதி	-10.8038
ke	-10.8042
▁இசையமைப்பாளர்	-10.8042
▁பாரா	-10.8044
மாதிரி	-10.8045
▁அனைவர	-10.8047
▁ஆண்களும்	-10.8051
▁தெளிவு	-10.8052
min	-10.8053
▁சுமை	-10.806
▁சிதம்பரம்	-10.8064
▁இயங்குகிறது	-10.8064
▁ஆண்டிலிருந்து	-10.8065
▁மலைத்தொடர்	-10.8077
con	-10.8079
▁நகரத்தை	-10.8087
▁டைம்ஸ்	-10.8091
▁சுல்தான	-10.8091
▁விழுந்த	-10.8092
▁தேர்வ	-10.8092
▁மட்டத்தில்	-10.8094
▁என்பதோடு	-10.8094
▁வேறுபாட்ட	-10.8096
யிலிருந்த	-10.8097
▁ஒளிப்பதி	-10.8099
ust	-10.8103
கின்றார்	-10.8105
▁பாகு	-10.8112
▁ஆட்டத்தில்	-10.8114
▁வெளிப்பாடு	-10.8114
நெட்	-10.8117
▁நாட்காட்டியில்	-10.8117
▁அறிவுறுத்த	-10.8125
▁ஏற்றி	-10.8125
▁எண்ணிக்கையை	-10.813
▁பாட்டு	-10.813
▁ரஷ்யா	-10.8133
▁அனுப்பப்பட்ட	-10.8134
யுற்ற	-10.8137
▁கவனத்தை	-10.8141
▁மேளகர்த்தா	-10.8142
▁ரிச்சர்ட்	-10.8142
▁விரும்பிய	-10.8146
▁முதலியன	-10.8148
▁முடியாமல்	-10.8149
▁நெருப்ப	-10.815
▁வகித்தார்	-10.815
▁இணைக்கிறது	-10.8152
ஜே	-10.8153
▁ஆழமான	-10.8153
▁தலைப்ப	-10.8153
மொன்ற	-10.8155
▁தெரியும்	-10.8155
▁ஆகம	-10.8157
▁அழகான	-10.8158
▁அபிவிருத்தி	-10.8159
▁விளையாடும்	-10.8176
▁சுற்றுப்பயண	-10.8177
பிளா	-10.8178
▁கறுப்பு	-10.8178
▁வெண்மை	-10.8181
▁இவா்	-10.8181
கொள்கின்றனர்	-10.8181
னேட்டு	-10.8182
St	-10.8187
▁கோயிலுக்கு	-10.8191
ாழ்வார	-10.8195
▁காற்பந்து	-10.8195
▁பஞ்சா	-10.8195
▁மொழிபெயர்க்க	-10.8196
▁அநேக	-10.8197
▁கர்ப்ப	-10.8198
▁மின்காந்த	-10.8199
▁விவரித்த	-10.8205
யிற்	-10.8212
▁தீவின்	-10.8216
வாசக	-10.8227
▁அழைக்கப்படுகிறா	-10.8227
▁பிரான்சிசு	-10.823
குளோர	-10.8233
▁மூடிய	-10.8233
▁Na	-10.8233
▁முயல்	-10.8234
▁உணர்ந்து	-10.8235
ப்பெண்	-10.8237
▁பட்டியலிட	-10.8237
▁கணபதி	-10.8239
ue	-10.8241
▁நாடுகளை	-10.8244
▁இவ்வமைப்ப	-10.8245
▁வழக்கறிஞர்	-10.8248
சீர்	-10.8248
▁தெற்காசிய	-10.8248
▁வளி	-10.8249
▁செயற்	-10.8252
▁சீதை	-10.8252
▁தலைவரான	-10.8253
ாச்சாரி	-10.8255
ிலிருக்கும்	-10.8257
▁தூக்க	-10.8258
▁ஊதிய	-10.826
▁வேற	-10.8261
▁சென்றனர்	-10.8263
▁இலக்குகளை	-10.8265
▁திருமலை	-10.8265
▁இந்தியாவை	-10.8267
▁நடக்கிறது	-10.827
▁திரும்பினார்	-10.8273
▁பற்ற	-10.8273
▁மாறிலி	-10.8275
IC	-10.8278
▁ஆராய்ச்சியாளர்	-10.829
▁கிராமப்புற	-10.8291
▁நடராஜ	-10.8294
▁சிறுநீர்	-10.8294
▁பொழுதுபோக்கு	-10.8302
▁பிரிவுகளாக	-10.8306
ருடைய	-10.8314
▁அப்பகுதி	-10.8317
▁அமர்த்த	-10.8318
▁வெளிவரும்	-10.8318
▁சனிக்கிழமை	-10.832
▁துண்ட	-10.8322
▁பாளைய	-10.8323
▁குஞ்சு	-10.8324
▁(17	-10.8328
உலக	-10.833
நூல	-10.8331
▁அகவையில்	-10.8338
▁துவங்கியது	-10.8338
▁ஆழ்ந்த	-10.8345
▁பக்த	-10.8345
▁சமாதி	-10.8346
▁கொள்கையை	-10.8353
வந்தார்	-10.8354
▁சேகரிக்க	-10.8356
▁அழைக்கின்றனர்	-10.8358
▁பொற்	-10.836
▁ஊற்ற	-10.8363
▁கண்டறியப்பட்டது	-10.8368
▁நீக்கி	-10.8369
▁வல்லுநர்	-10.8373
▁அறநிலைய	-10.8373
▁பொருள்களை	-10.8374
▁திகழ்கிறது	-10.8374
▁மேம்பாடு	-10.8374
▁பிரான்சிஸ்	-10.8374
▁பேரில்	-10.8376
த்தொகுதி	-10.8381
▁வெற்றிபெற்ற	-10.8383
▁பெயரும்	-10.8385
▁அல்லாமல்	-10.8388
▁ஆத்திரேலிய	-10.8391
▁சொற்பொழிவ	-10.8392
▁ஜம்மு	-10.8392
▁ஈரப்பத	-10.8397
ith	-10.84
▁மிகுதி	-10.8401
சேகர	-10.8406
▁பயன்படுத்துவது	-10.8406
▁வாக்குகள்	-10.8409
▁எச்சரிக்கை	-10.841
▁உண்டாகும்	-10.841
▁வளர்ச்சியை	-10.8415
▁புனைவு	-10.8417
பாண்டிய	-10.842
▁கரைசல்	-10.842
▁கிடைப்பத	-10.8422
லுக்கான	-10.8422
▁நூலாக	-10.8424
▁தற்காலிக	-10.8425
▁சான்றிதழ்	-10.8428
▁இராமாயண	-10.8428
▁அழிவு	-10.8429
▁போனது	-10.8431
வழக்க	-10.8437
▁இடைமுக	-10.8437
▁அளிக்கிறது	-10.8438
ரெய்	-10.8441
குறிச்சி	-10.8442
▁கவச	-10.8443
▁அவனுக்கு	-10.8444
▁அதன்படி	-10.8445
▁மாதங்களுக்கு	-10.8449
▁ஏமாற்ற	-10.8449
▁அலைவரிசை	-10.8449
நீதி	-10.845
க்கல்லூரி	-10.8452
கணித	-10.8452
▁மிதமான	-10.8452
குடும்ப	-10.8454
▁முந்திய	-10.8456
▁இக்குழு	-10.846
▁துரை	-10.846
▁57	-10.846
van	-10.8463
▁600	-10.8463
▁செல்சியசு	-10.8464
▁பொறுத்தவரை	-10.8468
▁அதுவே	-10.8468
றிஞர	-10.8469
▁மயக்க	-10.847
pi	-10.8471
சேவை	-10.8474
▁உண்ணும்	-10.8481
▁இக்காலத்தில்	-10.8481
▁தாமஸ்	-10.8484
▁பாய்ம	-10.8485
▁பெயரிட	-10.8487
▁சிட்டி	-10.8488
ிருக்கின்றது	-10.849
▁அவருடன்	-10.8491
▁ஈராக்	-10.8492
▁சந்தா	-10.8492
வேறு	-10.8493
▁வளர்ச்சியடைந்த	-10.8493
▁பெண்மணி	-10.85
▁நினைக்க	-10.8506
▁பன்றி	-10.8511
▁ஹார்ட்	-10.8511
▁குடும்பத்தின்	-10.8513
விட்டனர்	-10.8516
▁கொள்கைகளை	-10.8517
▁சுவிட்சர்லாந்த	-10.8519
▁மூலிகை	-10.8519
▁மைக்ரோ	-10.8519
▁என்பவன்	-10.852
▁இவ்வூரில்	-10.8521
▁சுருங்க	-10.8526
▁நண்பர	-10.8529
ிறோம்	-10.8533
▁வடிவத்தை	-10.8533
▁மறைமாவட்ட	-10.8537
▁அரசை	-10.8539
▁வெற்றிட	-10.8542
▁முன்வைத்த	-10.8543
க்கொள்வத	-10.8544
▁அடுத்தடுத்த	-10.8551
▁பயன்படுத்தினார்	-10.8552
▁தங்களுடைய	-10.8556
ja	-10.8557
▁துர்க்கை	-10.8558
▁இசைக்கருவி	-10.8561
▁இயற்கையான	-10.8565
▁தாய்லாந்து	-10.8566
▁தினமும்	-10.8567
▁விரிவுபடுத்த	-10.8574
▁கொண்டாட்ட	-10.8576
▁பூர்த்தி	-10.8576
▁1932	-10.8579
▁சேர்ப்ப	-10.8584
▁துரித	-10.8587
செட்	-10.8589
▁பற்றாக்குறை	-10.8592
iss	-10.8598
▁தொடங்குகிறது	-10.8601
▁கிண்ண	-10.8601
▁ஐதராக்சைடு	-10.8604
800	-10.8606
ில்லாத	-10.8607
▁நான்க	-10.8608
ft	-10.861
▁வினையூக்கி	-10.8611
▁கோபி	-10.8612
q	-10.8613
▁பரிமாற	-10.8613
▁நெஞ்ச	-10.8614
▁நுண்ணுயிரி	-10.8615
▁கிருஷ்ணா	-10.8616
▁கழித்த	-10.8618
nam	-10.8621
▁பெண்ணை	-10.8632
▁பொருளில்	-10.8641
புராண	-10.8642
புளோரைட	-10.8651
▁காவல	-10.8658
ப்பொருளாக	-10.8659
ினதும்	-10.866
▁ஜனாதிபதி	-10.8666
▁ஏழாம்	-10.8667
ree	-10.8668
▁பரப்பளவைக்	-10.8668
▁தலைவன	-10.8681
▁இயக்கியுள்ளார்	-10.8681
▁அதிகாரபூர்வ	-10.8682
▁காப்பிய	-10.8683
▁எபிரேய	-10.8685
▁உலகக்கோப்பை	-10.8685
க்ளோ	-10.869
▁வேகத்தில்	-10.869
▁நிகழ்ந்தது	-10.8703
▁அன்றாட	-10.8704
▁நெட்வொர்க்	-10.8704
▁கைப்பற்றினார்	-10.8705
▁இசுரேல	-10.8707
▁பாண்டவர்	-10.8707
▁மூடி	-10.8708
▁ஹொ	-10.8708
▁தலைமையக	-10.8715
▁பொறுப்பை	-10.8718
▁நிரலாக்க	-10.8724
▁கோதுமை	-10.8724
நாட்டில்	-10.8726
ரத்தினம்	-10.8735
▁குரல	-10.8737
ாலான	-10.8739
▁காளை	-10.874
▁பரிணாம	-10.8741
▁வேற்றுமை	-10.8741
▁குஜராத்	-10.8744
▁மலேசியாவின்	-10.8747
▁செயல்திறன	-10.8753
Si	-10.8757
▁கிழமை	-10.8757
▁தொகுப்பில்	-10.8757
▁ஆக்கிரமிப்ப	-10.876
▁சமீபத்திய	-10.876
▁பழங்குடியினர	-10.8761
▁விளங்குகின்றது	-10.8763
▁தங்கியிருந்த	-10.8763
▁திரையரங்க	-10.8764
▁செலவில்	-10.8764
▁தனிமங்கள்	-10.8767
ுபவை	-10.8772
▁காலத்துக்கு	-10.8773
தெய்வ	-10.8773
ance	-10.8775
▁81	-10.8777
▁விவகார	-10.8779
▁கூறப்படும்	-10.8781
▁ஆதாரமாக	-10.8783
▁வட்டி	-10.8791
ஸெ	-10.8795
▁ஒதுக்கப்பட்ட	-10.8796
▁கிரெ	-10.88
▁கூறுவது	-10.8803
ook	-10.8803
▁கனவு	-10.8804
ருமேனிய	-10.8805
▁நிகழ்கிறது	-10.8807
▁ஒவ்வொன்றும்	-10.8807
▁சொல்லை	-10.8816
▁மைக்ரோசாப்ட்	-10.8816
▁சபையின்	-10.8816
▁விசாக	-10.882
▁வருடங்கள்	-10.882
▁தமக்கு	-10.8821
▁இறுக்க	-10.8822
▁பள்ளத்தாக்க	-10.8822
▁மயில	-10.8823
▁சந்திப்ப	-10.8825
▁குறைவாகவே	-10.8825
▁பொறியாளர்	-10.8828
▁பதிப்பகம்	-10.883
முதல	-10.8831
▁பாக்டீரியா	-10.8833
▁உயிரிழந்த	-10.8836
▁சொத்துக்கள	-10.8836
மடைய	-10.884
▁வீசி	-10.8841
▁துருக்கி	-10.8844
வதற்காக	-10.8844
▁கொள்கின்றன	-10.8845
▁நிர்ணய	-10.8846
▁வானியலாளர்	-10.8851
▁வழிபாட்ட	-10.8852
க்கேற்ப	-10.8855
▁மகாராட்டிர	-10.8856
▁1900	-10.8858
▁நுகர்வோர்	-10.886
▁விளைவ	-10.8865
▁பெயரிடப்பட்டது	-10.8865
▁தயார்	-10.8867
▁கம்யூனிஸ்ட்	-10.8873
▁ஸ்டுடியோ	-10.8873
▁up	-10.8873
▁இந்நூலில்	-10.8875
▁நுழைவாயில	-10.8876
▁இதழ்களில்	-10.8878
▁பக்தர்	-10.8882
▁திட்டங்களை	-10.8883
▁ரோஜா	-10.8884
▁சொற்களை	-10.8886
▁அம்பு	-10.8889
▁பிரீமியர்	-10.8892
▁சிவராத்திரி	-10.8892
▁விரிகுடா	-10.8892
▁வைட்டமின்	-10.8892
▁இயற்கணித	-10.8892
▁எண்ணை	-10.8892
ென்ற	-10.8893
க்கொண்டிருந்த	-10.8898
வராய	-10.89
▁கனக	-10.8902
செல்ல	-10.8902
▁ஊதா	-10.8903
▁கிரீன்	-10.8904
In	-10.8908
▁பொதுநலவாய	-10.8911
▁நொடி	-10.8911
oll	-10.8911
▁கூலி	-10.8915
▁குறிப்பிட்டார்	-10.8917
▁வாகை	-10.892
▁தெரிவிக்கின்றன	-10.8921
▁ஸ்டெ	-10.8921
▁நிலப்பரப்பு	-10.8922
▁தாவரவியல்	-10.8931
▁வகுக்க	-10.8934
▁Sh	-10.8939
▁ஆதாரங்கள்	-10.8941
▁கௌதம	-10.8941
வீச்ச	-10.8942
▁சிறிதளவு	-10.8945
▁முனிவர	-10.8946
▁வாழ்கின்றன	-10.8947
▁ஜப்பான	-10.8948
ஷே	-10.8948
▁ஓவர்	-10.8949
▁நெகிழி	-10.8949
த்திணை	-10.895
▁அரபி	-10.8957
▁நெதர்லாந்து	-10.8957
▁பண்டார	-10.8965
▁வழிகாட்டி	-10.8968
John	-10.8968
▁எடுக்கும்	-10.8972
▁பாம்ப	-10.8975
▁வருகின்ற	-10.8979
▁குழல	-10.8982
▁செய்கின்றனர்	-10.8982
▁அமைப்பாகும்	-10.8987
▁ஆற்காடு	-10.8987
▁இரத்தின	-10.8988
ிக்கொள்ள	-10.8989
▁வாரிசு	-10.899
▁குழாய	-10.8994
▁கிறித்துவ	-10.8994
▁பிரிவினர	-10.8996
▁வடமேற்க	-10.8997
▁ஆரம்பித்து	-10.9002
▁எழுத்தாளர	-10.9006
ஹே	-10.9006
▁அரக்கோணம்	-10.9006
▁கோலாலம்பூர	-10.9006
▁முதுகெலும்ப	-10.9006
▁சித்தாந்த	-10.9007
▁புதுப்பிக்க	-10.9008
▁நடத்தப்பட்டது	-10.901
▁ஆகியவற்றுக்கு	-10.901
மலர்	-10.901
எஃப்	-10.9011
▁74	-10.9011
▁பிரசுர	-10.9012
▁செய்முறை	-10.9012
▁இருக்கும்போது	-10.9013
▁உறுதியாக	-10.9018
▁கோவிலின்	-10.902
▁கருத்துக்கள்	-10.9022
ava	-10.9024
Per	-10.9025
▁ஊட்டச்சத்து	-10.9026
▁உருவாக்கப்படும்	-10.9026
▁பிணைய	-10.9028
ிணைப்பு	-10.903
▁அனந்த	-10.9035
▁பிரித்தெடுக்க	-10.904
▁விரல்	-10.9043
▁திருமால்	-10.9044
ெடுக்கப்பட்ட	-10.9047
AS	-10.9048
களிலுள்ள	-10.905
ச்சொல்ல	-10.9054
▁அமைந்திருந்தது	-10.9054
▁தோன்றுகிறது	-10.9056
ஆக்சைட	-10.9056
▁நிகழ்ச்சிகளை	-10.9056
பொரு	-10.9057
▁ஞாயிற	-10.9061
▁ஆலோசகர	-10.9064
▁எழுதப்பட்டது	-10.9067
▁திருத்தல	-10.9069
▁புத்தகங்கள்	-10.9072
▁விநாயக	-10.9073
▁அருட்	-10.9083
▁அடங்குவர்	-10.9085
▁சங்கீத	-10.9086
▁யாரும்	-10.9087
▁கிடைக்கவில்லை	-10.9094
▁இன்றியமையாத	-10.9103
▁வெற்றிகரமான	-10.9103
▁தினசரி	-10.9103
▁மகேந்திர	-10.9108
த்தோற்ற	-10.9116
▁மெக்சிக்கோ	-10.9122
▁யூனியன்	-10.9122
▁1928	-10.9127
▁வடிவங்களில்	-10.9129
பூரில்	-10.9129
ஸோ	-10.9134
▁குன்று	-10.9134
▁பகிர	-10.9139
ung	-10.9139
▁வாக்காளர்	-10.9143
▁வீச்சு	-10.9144
ுதலுக்கு	-10.9146
▁விருதுநகர்	-10.9147
▁மங்கல	-10.9148
▁சக்கரத்தின்	-10.9149
▁ஆகியோரால்	-10.9154
▁பல்லவர்	-10.9157
▁போன்றோர்	-10.9159
▁எலிசபெத்	-10.9161
▁ஊக்குவிக்க	-10.9161
▁கொண்டுவரப்பட்ட	-10.9164
▁ஆபிரிக்க	-10.9168
▁இதழின்	-10.9171
ice	-10.9171
▁இடம்பெறும்	-10.9176
les	-10.9177
▁என்னுமிடத்தில்	-10.9181
▁இலண்டன்	-10.9181
▁என்பவற்றை	-10.9181
▁வான்படை	-10.9182
▁வெடிப்பு	-10.9185
ood	-10.9186
▁தீர்ப்பு	-10.9187
▁எதிர்மின்	-10.919
▁சாட்சி	-10.9192
▁மட்டுமன்றி	-10.92
▁மெய்யெண்	-10.9201
கொள்வதற்கு	-10.9201
▁நேர்ந்த	-10.9213
ப்பொருட்கள்	-10.9215
▁US	-10.9219
▁வகிக்க	-10.922
▁அட்லாண்டிக்	-10.922
▁நிரூபிக்க	-10.922
▁நுண்ணுயிர்	-10.922
▁பீரங்கி	-10.922
▁வேண்டுகோள	-10.922
▁இறகு	-10.922
▁வயதிலேயே	-10.9222
ச்செல்ல	-10.9223
▁கர்நாடகா	-10.9234
▁பணியாற்றியவர்	-10.9241
▁தேவைப்படுகிறது	-10.9249
▁உறுதியான	-10.925
▁முழுதும்	-10.9254
▁முடிவுகளை	-10.9254
▁பூஞ்சை	-10.926
▁பிரிவின்	-10.9263
▁படைத்துறை	-10.9264
▁1924	-10.9265
▁மனிதனின்	-10.9265
▁மௌ	-10.9266
▁அம்சங்களை	-10.9266
▁1919	-10.9271
▁வயல்	-10.9273
தமிழ	-10.9277
▁சிலப்பதிகார	-10.9279
▁ஆண்டிற்கு	-10.9284
▁பின்வாங்க	-10.9288
▁மும்பையில்	-10.9289
▁வயதுக்கு	-10.9291
▁வேளை	-10.9293
▁மூக்க	-10.9295
▁கனடிய	-10.9295
app	-10.9297
▁நுழைவு	-10.9298
▁விளக்குகிறது	-10.9301
▁முதலாளி	-10.9302
▁ஆகியவற்றுடன்	-10.9307
▁எண்ணற்ற	-10.9313
▁தொழிலை	-10.9321
▁1933	-10.9323
▁ஹாரி	-10.9326
▁அதன்பின்	-10.9337
▁கேரளத்தின்	-10.9339
▁மாறுபாடு	-10.934
▁சிகர	-10.9342
▁நகர்வு	-10.935
▁இணைந்தார்	-10.9351
▁என்னை	-10.9353
▁அரண்	-10.9355
ிவிடும்	-10.9357
▁தழுவ	-10.9358
▁பெங்களூர்	-10.9358
▁வித்யா	-10.9359
▁Pro	-10.937
▁சமயத்தை	-10.937
▁அதற்க	-10.9371
▁வாசித்த	-10.9373
ங்களாகவும்	-10.9375
▁71	-10.9376
▁தாக்கிய	-10.9377
▁அறியப்பட்டது	-10.9378
▁அருகாமையில்	-10.9378
▁வினைபுரிந்து	-10.9378
▁கணக்கெடுப்பு	-10.9378
▁வேண்டுமென	-10.9379
▁வேளைகளில்	-10.938
▁அறியலாம்	-10.9383
▁கொண்டவையாக	-10.9384
வளைய	-10.9386
▁நிர்ணயிக்க	-10.9387
▁தொகுத்த	-10.9389
மதிப்பு	-10.9392
▁தந்திர	-10.9393
▁கட்டமைப்பை	-10.9395
▁கடன	-10.9397
▁மாபெரும்	-10.9398
▁ஆதரவை	-10.9409
▁எசுப்பானியா	-10.941
▁பிராமண	-10.9413
▁ஜொ	-10.9414
▁பராமரிப்பு	-10.9415
▁விருத்த	-10.9416
லத்தீன	-10.9416
▁நன்கொடை	-10.9418
▁முழுவதிலும்	-10.9418
▁சற்றே	-10.9418
▁செய்வதற்காக	-10.9423
▁இந்நிலையில்	-10.9424
▁விஷயங்கள	-10.9428
▁அம்சங்கள்	-10.9436
▁பிரகடன	-10.9438
▁அதிர்ச்சி	-10.9438
த்தொடங்க	-10.9439
▁இறைவனை	-10.9442
நியூ	-10.9443
▁காரிய	-10.9445
▁கழுத்து	-10.9445
ப்படும்போது	-10.9446
ிருக்கின்றனர்	-10.9447
▁தொடர்ந்தார்	-10.9448
▁சுருள்	-10.9454
மட்டத்திலிருந்து	-10.9456
▁பர்மா	-10.9457
▁மட்டுமல்லாமல்	-10.9458
▁வான்காணக	-10.9458
▁பாதுகாக்கப்பட்ட	-10.9458
▁அதனுடைய	-10.946
▁திமுக	-10.9466
▁1925	-10.9466
▁எண்ணிம	-10.947
▁வெளிப்படையாக	-10.9479
▁அக்கறை	-10.9479
▁புகையிலை	-10.9479
ock	-10.9481
▁அண்ணாமலை	-10.9482
▁விளைபொருள	-10.9489
▁செயற்பட்ட	-10.949
▁வழிவகுத்தது	-10.9495
▁இறங்கி	-10.9496
▁நிகழ்வுகளை	-10.9498
▁அவசியமாக	-10.9499
சுப்ரமணிய	-10.9499
▁இந்நிகழ்வ	-10.9499
▁கவர்ச்சி	-10.9499
▁பரிமாண	-10.95
▁நடைமுறைப்படுத்த	-10.95
▁வணக்க	-10.9501
▁மக்களாட்சி	-10.9501
▁உரிமையை	-10.9503
▁நேர்மின்	-10.9507
ராட்டிர	-10.9511
தூதர்	-10.9511
▁பாடினார்	-10.9517
த்தன்மையை	-10.9519
▁பத்தாம்	-10.952
▁கொள்வது	-10.9525
▁நுகர்வ	-10.9526
த்திலே	-10.9528
▁தமிழ்நாட்டு	-10.9531
▁தந்தையார்	-10.9536
பின்னர்	-10.9537
▁அளித்தது	-10.9538
▁செய்தவர்	-10.9539
▁கண்காணிக்க	-10.9539
▁இளவரசி	-10.9539
யதுக்குட்பட்டோர்	-10.954
சமுத்திரம்	-10.9543
▁இப்படத்தின்	-10.956
▁பெங்களூரு	-10.956
▁தொடரை	-10.9561
▁எக்சு	-10.9565
▁புல்ல	-10.9568
களாவன	-10.9571
ாயினும்	-10.9572
▁முதலியார்	-10.9573
▁ஜோதி	-10.9573
▁இருக்காது	-10.9574
ுமானால்	-10.9578
த்தாள்	-10.9578
pur	-10.9579
▁காலப்போக்கில்	-10.958
▁முதலமைச்சர்	-10.9582
▁நிறமாலை	-10.9585
மில்லாத	-10.9589
▁அனைத்த	-10.9596
▁பாதிக்கப்பட	-10.9597
▁விலங்குகளின்	-10.96
▁பேதுரு	-10.96
▁செயல்பாட்டு	-10.9601
▁இப்பாடல	-10.9603
▁பொங்கல்	-10.9607
▁கலந்துகொண்ட	-10.9608
▁பதவியை	-10.9615
ங	-10.9618
பாடல்	-10.9618
▁மேற்கிந்திய	-10.962
▁வேறொரு	-10.9621
▁கண்டறிந்தார்	-10.9624
அரச	-10.9625
▁மற்றொன்று	-10.9632
NO	-10.9635
▁நாட்டிய	-10.9637
▁மூன்றில்	-10.9638
▁இயல்பாக	-10.9639
▁ஒடிசா	-10.9641
▁சேர்மங்கள	-10.9642
▁செல்வாக்க	-10.9643
▁பவள	-10.9646
பெரிய	-10.9648
▁நடைபெறுகின்றன	-10.9648
▁இம்மலை	-10.9649
▁வசிப்ப	-10.965
▁தள்ளி	-10.9651
▁புகார	-10.9651
▁இருப்பார்	-10.9654
▁மீட்க	-10.9654
▁பூக்கள்	-10.9658
▁ஆத்ம	-10.9658
▁தகடு	-10.9659
▁மேற்பரப்பில்	-10.9659
கீழ	-10.966
▁நடத்தப்படும்	-10.9661
▁இருபதாம	-10.9662
▁காற்றில்	-10.9663
▁ஆசியாவில்	-10.9664
▁செயல்பாடுகளை	-10.9665
▁இதுவாகும்	-10.9665
▁1926	-10.9666
▁குடியரசின்	-10.9667
▁அந்நாட்ட	-10.967
க்கொண்டே	-10.9671
▁சம்பந்தப்பட்ட	-10.9674
யிலோ	-10.9681
akka	-10.9682
ology	-10.9682
▁மலைத்தொடர	-10.9682
▁ஆப்பிள்	-10.9684
▁புதுமை	-10.9685
▁மிருக	-10.9696
▁கம்பனி	-10.9697
ாயுத	-10.97
▁மட்டுமின்றி	-10.9702
▁மகாத்மா	-10.9703
▁நிமிடங்கள்	-10.9703
▁ஒன்றே	-10.9704
▁கருதுகோள	-10.9705
▁புளோரைடு	-10.9705
▁அதேவேளை	-10.9706
▁அரசாங்கத்தின்	-10.971
▁அறிவை	-10.971
▁சக்தியை	-10.9713
▁திசையன்	-10.9715
▁போற்றி	-10.9715
▁ஜெர்மனியின்	-10.9722
▁சிப்பாய்	-10.9723
▁இப்பொழுது	-10.9726
▁தயாராக	-10.9727
▁1921	-10.9729
▁கேட்ப	-10.9734
▁உருவாக்குகின்றன	-10.9734
▁சந்தன	-10.9735
▁வரையப்பட்ட	-10.9739
▁இளவரசர்	-10.9741
▁இருத்தல்	-10.9742
▁பூமியில்	-10.9749
▁இணக்க	-10.975
▁யுனி	-10.9752
▁திருப்பதி	-10.9759
▁நற்	-10.976
▁துவங்கிய	-10.9762
▁திருகோணமலை	-10.9764
▁பயங்கர	-10.9765
National	-10.9765
▁பிடாரி	-10.9765
▁இந்நிலை	-10.9765
▁திபெத்திய	-10.9766
▁கபில	-10.9768
▁லட்ச	-10.9772
ost	-10.9775
▁வெளிநாடு	-10.9776
▁பாசன	-10.9777
▁பரவியது	-10.9781
▁கட்சியைச்	-10.9783
▁செருமானிய	-10.9785
▁அலெக்சாண்டர	-10.9785
▁ஒப்பிடுகையில்	-10.9786
▁மென்மையான	-10.9787
oph	-10.9787
▁கல்வெட்ட	-10.9796
▁கிருமி	-10.9799
▁அங்கமாக	-10.9799
▁துல்லியமான	-10.9799
ப்போட்டி	-10.98
▁சாதனையை	-10.9805
யூட்டி	-10.9809
▁ஸ்பெயின	-10.9813
▁மராத்திய	-10.9816
ase	-10.9816
▁குடியரச	-10.9821
▁அரசியலமைப்ப	-10.9821
▁வாயில	-10.9823
▁தொழிலில்	-10.9824
▁சிரியா	-10.9826
▁நெருக்கமாக	-10.9827
▁அதிரடி	-10.9827
▁நாட்டைச்	-10.9831
▁புத்தகத்தில்	-10.9832
▁மூலக்கூற	-10.9833
▁பயன்படுத்தினர்	-10.9834
பொழி	-10.9837
▁ஹோட்டல்	-10.9843
கொழு	-10.9845
▁பின்னரே	-10.9845
▁சமாதான	-10.9848
▁நார்வே	-10.985
▁வகிக்கிறது	-10.985
▁பயன்படுகின்றது	-10.985
▁சொல்லுக்கு	-10.9855
▁இன்னமும்	-10.9858
ுணர்ச்சி	-10.9861
▁இத்தொகுதி	-10.9862
Am	-10.9865
▁தொட்ட	-10.9866
▁கொண்டதாகும்	-10.9873
ham	-10.988
▁இதன்படி	-10.9884
▁நீளமும்	-10.9885
யியலில்	-10.9886
▁இறக்குமதி	-10.989
▁சாந்தி	-10.989
▁படைப்பிரிவு	-10.9893
sis	-10.9894
▁1927-	-10.9898
▁திசுக்கள	-10.9902
▁காட்டுகின்றன	-10.9904
▁தரையில்	-10.9908
▁ஆழ்வார்	-10.9912
▁திருமால	-10.9914
நல	-10.9915
▁உருமாற்ற	-10.9918
இதழ்	-10.9919
▁மூழ்க	-10.9921
▁1912	-10.9922
▁ஈடுபடுத்த	-10.9922
▁திபெத்	-10.9924
▁கணவர்	-10.9925
▁ஒழுங்குபடுத்த	-10.9926
▁டெட்ரா	-10.9931
▁தகவலை	-10.9932
▁கல்கத்தா	-10.9932
PA	-10.9932
▁குரங்கு	-10.9932
▁செவ்வாய்	-10.9936
▁ரயில்வே	-10.994
▁கைவிடப்பட்ட	-10.9941
▁உருவாவத	-10.9942
பாட்டின்	-10.9943
Man	-10.9946
▁துடுப்ப	-10.9949
hal	-10.9951
▁கருணாநிதி	-10.9953
ப்படுபவர்	-10.9958
▁இச்சொல்	-10.996
▁நீதிமன்றத்தில்	-10.9962
▁சிதம்பர	-10.9962
▁இனக்குழு	-10.9963
chi	-10.9965
ica	-10.9967
AD	-10.997
▁தேய்	-10.9971
ராவார்	-10.9972
▁குறிப்பிடுகின்ற	-10.9973
▁சுண்ணாம்பு	-10.9974
▁தேங்காய்	-10.9974
▁பிரபஞ்ச	-10.9974
▁முழுவதுமாக	-10.9974
▁பெறுவதற்கு	-10.9977
▁குணப்படுத்த	-10.9979
▁தகவல	-10.9981
▁கணிப்பு	-10.9982
lic	-10.9983
▁அழித்த	-10.9986
war	-10.9987
▁டவுன்	-10.9987
▁சாம்பியன்	-10.9995
▁மகரந்த	-10.9995
▁ரோமானிய	-10.9996
▁1922	-11.0001
ஃபே	-11.0003
▁உரையாடல்	-11.0003
▁கோயிலை	-11.0006
ாமலும்	-11.0008
▁பெரிதாக	-11.0009
▁ஸ்டே	-11.0011
▁வியட்நாம்	-11.0012
▁350	-11.0013
▁திணை	-11.0013
▁தணிக்கை	-11.0016
▁வணங்கி	-11.002
▁பட்டியலிடப்பட்ட	-11.002
▁பண்ண	-11.0022
▁அடிப்படையான	-11.0026
▁பாதுகாப்பான	-11.0033
த்தினுள்	-11.0034
பிடிக்க	-11.0036
▁பொள்ளாச்சி	-11.0038
▁முஸ்லீம்	-11.0038
▁தாமிர	-11.0038
▁சப்பானிய	-11.0038
▁வீட்டிற்கு	-11.004
▁பெறவில்லை	-11.0044
▁வாசகர்	-11.0045
▁ஆதரவாளர்	-11.0047
குமாரி	-11.0049
▁con	-11.0052
▁சமகால	-11.0055
▁முன்வைக்க	-11.0057
▁சிவலிங்க	-11.0058
▁இசுலாமியர்	-11.0059
▁Jump	-11.0059
▁பயிர	-11.0059
▁ஃப்ள	-11.0059
▁அனைவருக்கும்	-11.0061
▁எங்கும்	-11.0061
▁அகன்ற	-11.0063
▁அரசியல	-11.0063
▁பள்ளிவாசல்	-11.0065
▁அரேபிய	-11.0066
▁காடுகளில்	-11.0068
▁செலுத்திய	-11.0072
HO	-11.0073
▁ஆட்டக்காரர்	-11.0074
▁கெய்	-11.0077
▁ஆகியவற்றால்	-11.0078
las	-11.0079
▁நிலத்தடி	-11.0081
▁இராணி	-11.0081
▁வருகின்றார்	-11.0082
▁அன்னா	-11.0083
விட்டால்	-11.0086
▁எப்போது	-11.0087
ினூடாக	-11.0098
▁உயர்நிலை	-11.0101
த்தொழில்	-11.0102
▁மொழிபெயர்த்த	-11.0103
▁அன்றி	-11.0105
▁நகர்ப்புற	-11.0107
▁வெடித்த	-11.0109
▁அப்படியே	-11.0112
உரு	-11.0112
▁துத்தநாக	-11.0123
▁கருத்துரு	-11.0125
▁இக்கோவில்	-11.0126
▁முடுக்க	-11.0128
▁செய்கின்ற	-11.0141
▁வருமாறு	-11.0145
▁நிறமற்ற	-11.0149
▁காரணமான	-11.0151
ng	-11.0151
வள்ளி	-11.0154
▁எழுத்தாளரும்	-11.0162
▁கடினமாக	-11.0163
▁காலத்திலேயே	-11.0163
▁கோளாறு	-11.0167
ata	-11.0169
▁பயணிக்க	-11.0178
▁படையெடுப்ப	-11.018
▁மேற்படி	-11.018
▁சவால	-11.0182
▁காவலர்	-11.0182
▁விளிம்பு	-11.0184
▁கூறப்பட்டுள்ளது	-11.0185
▁ரகசிய	-11.0188
▁தொழிற்துறை	-11.0189
▁சத்திர	-11.0191
▁ஊரின்	-11.0192
▁வேறுபடுத்தி	-11.0193
▁பண்டித	-11.0194
▁நேர்த்தி	-11.0199
▁சீரான	-11.0204
▁அம்பல	-11.0206
▁நச்சுத்தன்மை	-11.0206
▁செங்கிஸ்	-11.021
▁எட்டாம்	-11.0211
▁புரிந்துகொள்ள	-11.0212
பார்க்க	-11.0213
▁அதேபோல	-11.0215
▁வீரராக	-11.022
▁1910	-11.0225
▁வரதராஜப்பெருமாள	-11.0227
▁வில்லி	-11.0229
▁மிகச்சிறந்த	-11.0231
▁புல்வெளி	-11.0233
▁வடிகட்ட	-11.0242
▁நம்பிய	-11.0246
▁குமர	-11.0247
▁அவ்விட	-11.0247
▁ரீதியில்	-11.0253
▁சாம்பியன்ஷிப்	-11.0254
▁போர்த்துக்கேய	-11.0256
▁இணையதள	-11.0257
▁வார்டு	-11.0257
▁அதிகாரத்தை	-11.0258
▁1923	-11.0258
▁நினைத்து	-11.026
▁விஜயநகர	-11.0263
▁பகுதியிலும்	-11.0264
▁கொள்கிறார்	-11.0264
இலங்கை	-11.0265
▁வரம்ப	-11.0267
▁மனதில்	-11.027
▁நூலாசிரியர	-11.0273
▁செயலாற்ற	-11.0274
▁கூற்ற	-11.0274
பயிற்சி	-11.0275
▁புழு	-11.0276
▁ராஜஸ்தான்	-11.0278
▁கோடைக்கால	-11.0279
▁மதிப்பெண்	-11.0279
▁ஊரை	-11.0282
▁மேலதிக	-11.0288
▁பாராட்டி	-11.0293
▁கல்லீரல்	-11.0296
hu	-11.0304
▁ஆகியோரை	-11.0304
▁முன்னோடியாக	-11.0306
▁இருக்கிற	-11.0313
▁தீவிரவாத	-11.0314
▁அழித்து	-11.0315
▁பைசா	-11.0316
▁இதுபோன்ற	-11.0317
fer	-11.0317
▁பங்கேற்ப	-11.0318
▁சனத்தொகை	-11.0318
▁எதிர்மின்னி	-11.032
▁கலிங்க	-11.0321
▁அழைக்கப்பட்டார்	-11.0323
▁காட்சிப்படுத்த	-11.0325
▁அதிகரிக்கிறது	-11.0325
தாவர	-11.0329
ிருக்கவில்லை	-11.033
▁இங்கிலாந்த	-11.0337
▁தமிழ்நாட்ட	-11.034
▁விவேக	-11.034
▁டபிள்யூ	-11.034
▁குடியுரிமை	-11.034
▁வளர்சிதை	-11.034
▁இவர்களது	-11.0341
▁சதுப்பு	-11.0342
ப்படுவார்	-11.0346
ச்சேர்ம	-11.0348
▁வளர்த்து	-11.0348
▁இந்தியாவிற்கு	-11.035
▁ஆளுனர	-11.035
▁கரடி	-11.0354
▁எக்ஸ்பிரஸ்	-11.0362
▁வறண்ட	-11.0364
▁வாட்டர்	-11.0364
▁நிகழ்த்திய	-11.0365
▁துறந்த	-11.0369
▁வழங்குகின்றன	-11.037
▁நடுவே	-11.0373
ிற்கே	-11.0378
▁மாற்றியமைக்க	-11.0384
▁கல்வியறிவான	-11.0384
▁செயல்படுகின்றன	-11.0386
▁கவிஞர	-11.0387
▁மூவர	-11.0388
▁அவரிடம்	-11.0391
▁மணிநேர	-11.0392
கடவுள	-11.0394
▁கூழ்	-11.0396
▁பெருமான	-11.0404
▁நீடிக்க	-11.0405
▁குற்றச்சாட்டு	-11.0406
▁மசூதி	-11.0406
▁வீட்டை	-11.0409
▁அடர்ந்த	-11.0409
▁உவமை	-11.041
▁1914	-11.0416
▁தீவிரமான	-11.0417
▁இலகு	-11.0417
▁வெறுப்ப	-11.042
▁ஜீவ	-11.042
▁வேட்பாளர்	-11.0425
▁கையொப்ப	-11.0428
▁கூற்றுப்படி	-11.0431
▁அட்டவணையில்	-11.0432
▁தாக்குதலை	-11.0442
▁கலாசார	-11.0451
▁நாயுடு	-11.0451
▁இணையான	-11.0451
▁விரட்ட	-11.0453
▁விளையாட்டரங்க	-11.046
மருந்து	-11.0463
▁சமீபத்தில்	-11.0464
▁நிறுவனத்திற்கு	-11.0465
ுவதோடு	-11.0468
▁சான்றாக	-11.0475
▁துல்லிய	-11.0476
▁பூரண	-11.0479
▁1911	-11.0483
▁ஒவ்வொன்ற	-11.0484
▁அதிகாரியாக	-11.0485
▁சஞ்சிகை	-11.0495
▁அரியானா	-11.0498
▁நூலாகும்	-11.0499
▁அமர்ந்து	-11.05
▁பழுத	-11.0502
▁வாயுக்கள	-11.0513
▁தொடர்பை	-11.0515
▁முசுலிம்	-11.0517
▁மீதமுள்ள	-11.0517
▁உண்ப	-11.0519
▁அகத்திய	-11.0522
▁நுண்ணிய	-11.0525
the	-11.0526
▁பாரிஸ்	-11.053
தேசிய	-11.0533
▁மேற்பரப்ப	-11.0537
▁உலகிலேயே	-11.0538
▁அண்ணன்	-11.054
ப்படுகின்றார்	-11.0542
▁கண்ணகி	-11.0557
▁பாதுகாவல	-11.0562
▁அவரால்	-11.0562
▁அமிர்த	-11.0564
rin	-11.0565
▁கட்டற்ற	-11.0567
▁நாளாக	-11.0568
aya	-11.0569
▁பயில	-11.0571
▁அடையாளப்படுத்த	-11.0572
யில்லாத	-11.0572
▁1500	-11.0575
▁தோன்றின	-11.0579
▁முன்னேறி	-11.0581
▁சமசுகிருத	-11.0585
▁பஞ்சாயத்து	-11.0585
▁நிலைநிறுத்த	-11.0589
▁குறிப்பிடலாம்	-11.0591
ஜன்னிய	-11.0594
▁இதழாகும்	-11.0595
▁தழுவிய	-11.0601
▁களிமண்	-11.0602
▁ஈழத்து	-11.0604
▁அவரே	-11.0604
▁மலேரியா	-11.0607
▁வாடகை	-11.0607
கருதப்படுகின்றது	-11.061
▁இருப்பதில்லை	-11.0611
▁கோடைகால	-11.0611
▁வலையமைப்ப	-11.0612
ிருத்தல்	-11.0617
பேரூராட்சி	-11.062
▁தென்னிந்தியாவில	-11.062
apuram	-11.0623
▁பாபிலோன	-11.063
▁கச்சேரி	-11.0632
▁நெருங்க	-11.0637
▁தொகுக்க	-11.064
▁ராமசாமி	-11.064
நீக்க	-11.065
▁முதலை	-11.0652
▁விழிப்புணர்வு	-11.0652
log	-11.0656
▁பில்லி	-11.0659
▁தானியங்கி	-11.0665
thi	-11.0665
▁காரணங்களால்	-11.0668
▁1927	-11.0672
▁வல்லுனர்	-11.0675
▁சோதிட	-11.0678
▁பறக்க	-11.0681
▁பிரசாத்	-11.0682
செலுத்த	-11.0685
▁கருத்தியல	-11.0688
▁தீங்கு	-11.069
▁சார்லஸ்	-11.0699
▁கைப்பற்றியது	-11.0702
▁முதலீட்டு	-11.0709
adu	-11.0709
rit	-11.071
▁இயற்	-11.0713
▁மண்டபத்தில்	-11.0715
சயன	-11.0717
▁Con	-11.0722
▁மாறுகிறது	-11.0725
பற்றி	-11.0726
▁வியட்நாம	-11.0726
▁இனிப்பு	-11.0729
▁பணியாற்றியுள்ளா	-11.0729
▁அதிகளவில்	-11.0732
▁மலாக்கா	-11.0744
▁புகுந்த	-11.0745
▁மர்ம	-11.0746
▁வேதாந்த	-11.0746
▁அகழ்வ	-11.0747
▁விரும்பினார்	-11.0753
▁வேகத்தை	-11.0757
–19	-11.0761
▁பொதுவுடமை	-11.0766
▁திரௌபதியம்மன்	-11.0767
▁சுவீடன	-11.0769
▁என்பவருக்கு	-11.0769
▁இக்கோட்டை	-11.077
▁காட்டினார்	-11.0771
▁ஸ்ரீதேவி	-11.0771
▁பேட்டி	-11.0777
▁இதன்மூலம்	-11.0778
தல்ல	-11.0779
▁நியூட்டன	-11.0782
ிறாள்	-11.0782
▁கருதினார்	-11.0785
▁சாதாரணமாக	-11.0785
▁பேசப்படும்	-11.0789
▁ஏகாதசி	-11.0789
▁ராஜேந்திர	-11.0795
▁வெகுவாக	-11.0795
▁கதிரவ	-11.0798
▁அலுவலரால	-11.0799
கொள்கிறார்	-11.0807
▁உத்தம	-11.0808
▁கனடாவில்	-11.081
▁நறுமண	-11.0812
▁இருந்தபோதிலும்	-11.0812
port	-11.0813
▁பேசிய	-11.0824
▁நகரியம்	-11.0831
▁தெலுங்க	-11.0832
சக்கர	-11.0834
▁இலித்தியம்	-11.0835
▁மிகப்பெரும்	-11.0836
▁வரதராஜ	-11.084
▁வாசனை	-11.0846
▁இணங்க	-11.0848
▁கொடுக்கிறது	-11.0849
பொழுத	-11.0851
▁மங்கோலியர்	-11.0853
நீல	-11.0854
▁பிரதமராக	-11.0856
ங்களோடு	-11.0858
▁ஆதலால்	-11.0858
▁கிணறு	-11.0859
▁சுற்றுப்பாதை	-11.0861
▁குன்ன	-11.0864
▁வாழ்வை	-11.0865
▁உதவுகின்றன	-11.0866
▁ஐதர	-11.0867
▁அயர்லாந்து	-11.0876
Di	-11.0878
▁ஓய்வூதிய	-11.0882
▁மகாராஷ்டிரா	-11.0882
▁போட்டியாளர்	-11.0882
ுவிட்டது	-11.0884
▁பதப்படுத்த	-11.0886
▁தாயார	-11.0887
gi	-11.0891
முழு	-11.0895
▁எழுத்துக்களை	-11.0896
AN	-11.0898
ிவிட்டது	-11.0899
▁சூரியனை	-11.09
▁தட்சிணாமூர்த்தி	-11.0905
ச்சேர்க்கை	-11.0905
▁கணிதவியலாளர்	-11.0907
▁நிக்கல்	-11.0907
கடத்த	-11.0911
▁பன்முக	-11.0912
we	-11.0921
ரெட்டி	-11.0922
▁நுழைய	-11.0927
▁விரிவுரை	-11.0927
▁பேய்	-11.0928
▁திரையிட	-11.0931
பாட்டில்	-11.0931
▁தானுந்து	-11.0951
▁சேமித்து	-11.0952
▁பனிக்கட்டி	-11.0953
▁லவ்	-11.0958
ுவதிலும்	-11.096
▁Li	-11.0962
▁எய்த	-11.0963
▁உளவு	-11.0967
▁கொல்லப்பட்டார்	-11.0967
வயல்	-11.097
▁ஏதுவாக	-11.0972
▁ஏற்படுகின்றன	-11.0972
▁கடவு	-11.0973
▁தென்காசி	-11.0975
▁கார்பனேட்டு	-11.0976
▁இவ்வகையான	-11.0982
▁கழுவ	-11.0983
▁இத்தொடர	-11.0987
▁ஆளுநராக	-11.0991
▁ஆற்றிய	-11.0993
▁விழுந்து	-11.0997
▁அகாடமி	-11.0998
▁பூர்வீக	-11.0998
▁பிரதிபலிக்க	-11.1022
▁மொபைல்	-11.1022
2,000	-11.1022
eng	-11.1026
pro	-11.1029
வெற்றி	-11.1031
▁விக்கிரம	-11.1034
டெய்	-11.1037
செய்தி	-11.104
▁வாய்ப்பை	-11.1041
▁மகாதேவ	-11.1042
▁வழிகாட்ட	-11.1043
▁குவாண்டம்	-11.1045
கேசரி	-11.1046
▁அனுப்பினார்	-11.105
▁தனித்தன்மை	-11.1051
▁இக்கட்சி	-11.1052
▁சந்தித்தார்	-11.1055
▁மரபியல்	-11.1055
300	-11.1058
▁உதவியது	-11.1058
▁போக்குவரத்த	-11.1062
▁பகதூர்	-11.1069
▁விசுவநாத	-11.1069
▁சுற்றிலும்	-11.1069
▁எத்தனை	-11.107
பிறழ்	-11.1075
▁சுதேச	-11.1083
▁வளைந்த	-11.1087
▁களஞ்சிய	-11.1093
▁சிட்னி	-11.1094
old	-11.1095
▁காரணத்தினால்	-11.1096
▁பேரரசை	-11.1107
▁இருக்கின்ற	-11.1109
▁அங்கிருந்த	-11.1113
▁துடிப்ப	-11.1117
▁யூரோ	-11.1124
▁1917	-11.1126
▁பல்வகை	-11.1131
▁க்ள	-11.1135
புளோரோ	-11.1135
க்கணிப்ப	-11.1136
▁தளர்ச்சி	-11.114
▁மதத்தை	-11.1147
▁மொழியியல்	-11.1152
தொடர்	-11.1153
ாசிரியராக	-11.1153
▁கல்லூரியிலும்	-11.1155
க்குள்ளாக	-11.1159
▁இனத்தைச்	-11.1162
கொல்ல	-11.1165
▁முதலீட்டாளர்	-11.1165
▁நன்றி	-11.1169
▁இயலவில்லை	-11.1169
▁எரிபொருள	-11.1176
vers	-11.118
▁உடையவர்	-11.1181
ரௌ	-11.1184
▁இதிலிருந்து	-11.1185
▁மார்பக	-11.1189
▁இழுத்து	-11.119
▁காரணங்களுக்காக	-11.119
▁அதனுடன்	-11.1193
▁பால்வெளி	-11.1196
▁மார்ட்டின்	-11.1196
ஞ்சேரி	-11.1205
▁மலைப்பகுதி	-11.1208
▁இத்தீவு	-11.1211
▁நிதியுதவி	-11.1211
▁குடிபெயர்ந்த	-11.1212
▁செயின்ட்	-11.1213
▁உலகெங்கும்	-11.1215
▁வியாழன	-11.1215
val	-11.1216
ோவிய	-11.1216
▁ஒப்பிட்டு	-11.1225
▁ரேடியோ	-11.1235
▁நுனி	-11.1236
▁செங்குத்து	-11.1236
▁அம்பாள்	-11.1242
▁1918	-11.1245
▁எதிர்வினை	-11.1246
▁நாட்டிற்கு	-11.125
▁140	-11.1254
▁அறிமுகமான	-11.1258
▁ஏழாவது	-11.1259
▁திரையுலக	-11.126
▁மன்னார்	-11.126
▁அடைக்கப்பட்ட	-11.1264
▁ஸ்மித்	-11.1265
▁அந்தமான்	-11.1266
▁1905	-11.1267
▁உபயோகிக்க	-11.1267
▁எதிர்கொள்ள	-11.1268
▁சரித்திர	-11.1274
கூட்ட	-11.1274
▁கொல்லி	-11.1275
ஃபோர்ட்	-11.1278
▁பாலிவுட்	-11.1279
ST	-11.1284
▁சந்திரசேகர	-11.1285
▁சுற்றுப்புற	-11.1287
▁ஊருக்கு	-11.1288
▁கொள்கிறது	-11.1292
▁சந்தைப்படுத்த	-11.1296
▁ஓய்வ	-11.1297
▁ஆப்கானிஸ்தான	-11.1308
▁வெப்பமண்டல	-11.1313
▁வருந்த	-11.1314
ound	-11.1315
▁பாய்கிறது	-11.1317
▁இயக்குனராக	-11.1319
ஃபீ	-11.1322
பட்ச	-11.1328
▁விக்கிப்பீடியா	-11.1332
▁மெக்சிகோ	-11.1332
▁கவனிப்ப	-11.1335
▁பாகவத	-11.1338
▁தனித்தனியாக	-11.135
▁பேச்சுவார்த்தை	-11.1356
▁டென்மார்க்	-11.1356
▁அமுத	-11.1361
▁தொட்டு	-11.1363
ாவிட்டால்	-11.1363
▁வஞ்சி	-11.1365
▁புளூ	-11.1366
▁சாவக	-11.1372
▁மல்லி	-11.1377
▁நூற்றுக்கணக்கான	-11.138
▁ஆசிரம	-11.1381
▁நீர்த்தேக்க	-11.1381
2011	-11.1382
▁பெயருடன்	-11.1384
ஃபீல்ட	-11.1384
விடுகிறார்	-11.1386
▁தோறும்	-11.1388
▁ஊர்வல	-11.1392
▁சண்டிக	-11.1398
▁காலப்பகுதி	-11.1402
களுக்கே	-11.1403
▁இடமாற்ற	-11.1408
▁இலவசமாக	-11.1413
▁கிராண்ட்	-11.1416
ave	-11.1421
▁பொறிக்கப்பட்ட	-11.1424
▁முதலாவதாக	-11.1429
▁இலத்திரன்	-11.1429
▁வழிவகுக்க	-11.1429
▁அருள்மிகு	-11.143
▁தன்னார்வ	-11.1432
▁செய்வதன்	-11.1442
▁புளிய	-11.1443
▁ஆறுமுக	-11.1446
▁விதிக்கப்பட்ட	-11.1447
ுகிறேன்	-11.1447
▁பண்டிகை	-11.1454
▁காவேரி	-11.1455
▁செட்டியார்	-11.1456
▁பிராமணர்	-11.1459
▁இவ்வாலய	-11.1459
▁ரிஷி	-11.1463
NH	-11.1464
▁அனுப்பிய	-11.1464
▁1916	-11.1465
▁கிடக்க	-11.1465
▁ஜெயலலிதா	-11.1478
▁பாதரச	-11.1481
▁திவ்ய	-11.1492
out	-11.1494
▁உரையாட	-11.1495
▁பெரும்பான்மையாக	-11.1498
▁அனுமதிக்கப்பட்ட	-11.1501
▁இசுலாம்	-11.1503
▁காந்தாரம்	-11.1503
என்ற	-11.1506
ெலும்பு	-11.1506
▁வாழிட	-11.1507
ிழந்த	-11.1513
ரத்தின	-11.1513
கொள்கின்ற	-11.1525
▁மங்கள	-11.1527
▁அருணாசல	-11.1528
▁உலகக்கிண்ண	-11.1528
▁ஒன்றுக்கொன்று	-11.1528
▁ஜேர்சி	-11.1528
▁கவுன்சில	-11.1529
▁கணித்த	-11.1531
▁இராகங்களில்	-11.1532
▁கடலை	-11.1542
▁அளவிலும்	-11.1552
▁மல்யுத்த	-11.1552
▁சரஸ்வதி	-11.1552
▁ஜெனரல்	-11.1552
red	-11.1563
▁பாதுகாத்து	-11.1566
▁தூண்டுதல	-11.1573
▁ப்ளூ	-11.1577
▁நீட்சி	-11.1587
▁மனநிலை	-11.1588
▁உறவை	-11.1589
▁ஆசியாவின்	-11.1591
▁திருப்பணி	-11.1591
▁கருணை	-11.1594
ென்றால்	-11.1594
▁விளைவை	-11.1595
▁கோவிலுக்கு	-11.1597
▁சிற்றிலக்கிய	-11.1602
▁ஆற்றங்கரை	-11.1602
▁இயங்கிய	-11.1604
▁முரண்பாடு	-11.1606
▁கண்டெடுக்க	-11.1609
▁சிற்றின	-11.161
▁கர்ணன	-11.1613
▁நடித்திருந்தார்	-11.1613
▁இப்போட்டி	-11.1617
▁வகைப்பாடு	-11.1619
▁பெயர்பெற்ற	-11.1624
செட்டி	-11.1625
▁கடைப்பிடிக்க	-11.1627
▁இப்போர	-11.1628
தையடுத்து	-11.1629
ிருக்கிற	-11.1633
▁தமனி	-11.1633
வொர்	-11.1634
▁குசராத்	-11.1635
▁அறிஞர	-11.1638
▁நிறுவனங்களுக்கு	-11.1639
களுமே	-11.1645
க்குள்ளான	-11.1646
form	-11.1649
▁குடியிருப்ப	-11.1649
▁விரிந்த	-11.1652
▁நெருக்கமான	-11.1652
▁நெகிழ்	-11.1652
▁வினாடி	-11.1653
▁அதிர்வு	-11.1654
▁தேவதை	-11.1657
வியலாளர	-11.1659
▁சமஸ்தான	-11.1661
cul	-11.1663
ெங்கும்	-11.1665
▁குடிமக்கள	-11.1666
▁மண்டை	-11.1669
▁தோற்கடிக்க	-11.1677
▁ஓசோன்	-11.1677
▁வீழ்ந்த	-11.1678
▁தோல்வியுற்ற	-11.1678
▁கையெழுத்திட்ட	-11.1679
▁விசுவாச	-11.168
mer	-11.1683
▁பரப்புரை	-11.1684
▁வளரக்கூடிய	-11.1685
▁வாதிட	-11.1688
கூடிய	-11.1693
▁இரண்டையும்	-11.1699
▁பேராசிரிய	-11.1699
▁செல்லும்போது	-11.17
▁பாய்ந்து	-11.1702
▁அவ்வாறே	-11.1702
▁திருவனந்தபுரம்	-11.1702
▁தொலைத்தொடர்பு	-11.1702
▁மறுபடியும்	-11.1702
▁இராவணன	-11.1703
பிடிப்ப	-11.1706
▁என்றழைக்கப்பட்ட	-11.1713
▁மூழ்கி	-11.1717
த்துடனும்	-11.1718
கொலம்ப	-11.172
▁இம்மர	-11.1724
Ac	-11.1724
▁டிஜிட்டல்	-11.1727
▁நீதிக்கட்சி	-11.1727
▁மூங்கில்	-11.1728
▁மணந்தார்	-11.1733
▁ஆர்வலர்	-11.1733
மாதேவி	-11.1734
களினதும்	-11.1734
▁இடம்பெற்றுள்ளன	-11.1737
▁செதுக்க	-11.1743
▁வல்லமை	-11.1745
▁வறட்சி	-11.1753
▁இராகமாகிய	-11.1753
▁அருச்சுனன	-11.1753
▁அவையாவன	-11.1753
▁நுணுக்க	-11.1753
▁கழுகு	-11.1753
▁இறால்	-11.1753
▁இணையத்தள	-11.1757
▁எளிமையாக	-11.1759
ated	-11.176
▁10,000	-11.1764
▁சந்தர்ப்ப	-11.1764
▁ஈரான்	-11.1768
ID	-11.1769
▁நண்பன	-11.1779
▁முடிவெடுத்த	-11.1787
ப்பலகை	-11.1787
▁ஒருங்கிணைக்க	-11.1791
ங்களிலேயே	-11.1793
ுணர்வ	-11.1794
▁கீழுள்ள	-11.1795
▁மாதிரியான	-11.1799
▁பொதுவுடைமை	-11.1803
▁வனவிலங்கு	-11.1803
▁பலவகையான	-11.1804
▁நிவாரண	-11.1804
▁திணைக்கள	-11.1806
▁காயமடைந்த	-11.1807
க்குறிப்பு	-11.181
ake	-11.181
கட்சி	-11.1813
▁இவ்வூர	-11.1816
▁திறக்கப்பட்டது	-11.1817
▁ஆக்சிசன	-11.1825
▁பின்தங்கிய	-11.1829
▁முதன்முறையாக	-11.1829
▁மூதாதை	-11.1829
▁ஆரஞ்சு	-11.1832
▁உறங்க	-11.1833
▁1908	-11.1835
▁சிவாலய	-11.1835
▁மக்களிடம்	-11.1838
anth	-11.1838
கொண்டிருக்கின்றன	-11.1838
AM	-11.1838
▁மதிக்க	-11.184
▁அதிமுக	-11.184
▁மாநிலத்திலுள்ள	-11.1842
பிரகாச	-11.1851
International	-11.1854
▁புள்ளிவிவர	-11.1854
▁பாக்கிஸ்தான	-11.1855
▁அடையாளமாக	-11.187
ாம்பிகை	-11.1871
▁இந்தியாவுக்கு	-11.1873
▁அயன	-11.1875
ult	-11.1876
▁இளநிலை	-11.1877
▁குறுக்கே	-11.1877
▁பிலிப்பைன்	-11.188
▁உடற்பயிற்சி	-11.188
எதிர்	-11.189
ரத்ன	-11.1898
▁அளிக்கப்படும்	-11.1901
▁சொற்றொடர	-11.1906
▁பன்னிரண்டு	-11.1906
▁தாழ்த்தப்பட்ட	-11.1906
▁எருமை	-11.1906
▁புன்ன	-11.1906
▁துயர	-11.1909
▁புரொ	-11.1923
▁அங்குலம்	-11.1924
முயற்சி	-11.1928
▁சம்மத	-11.1928
▁சதுக்க	-11.1929
▁முற்பகுதியில்	-11.1931
▁வற்புறுத்த	-11.1931
▁செயிண்ட்	-11.1931
▁அழிக்கப்பட்ட	-11.1933
▁திடீர்	-11.1933
▁பவானி	-11.1936
▁நாளன்று	-11.1937
▁1913	-11.1941
▁மாஸ்கோ	-11.1943
▁தலித்	-11.1948
▁மானிட	-11.1952
▁அனுராதபுர	-11.1957
▁வானியற்பியல	-11.1957
▁ஐந்தாண்டு	-11.1957
SI	-11.1961
▁எண்ணிக்கையிலான	-11.1963
IN	-11.1975
சாதன	-11.1978
▁புலவர	-11.1979
▁அர்ச்ச	-11.1982
▁தானாகவே	-11.1983
400	-11.1985
ப்படுபவை	-11.1988
▁புள்ளியியல்	-11.1994
▁ஸ்டேட்	-11.2002
க்காரணி	-11.2005
▁பட்டப்படிப்பு	-11.2009
▁அகமது	-11.201
▁விரத	-11.2016
▁அதிசய	-11.2035
land	-11.2036
▁நோயாளிகளுக்கு	-11.2036
▁செய்வதில்	-11.2037
ெதிர்	-11.2038
▁அந்தோனி	-11.2038
ஷியா	-11.205
▁பிரிவாக	-11.2052
▁ஆப்பிரிக்காவில்	-11.2055
2008	-11.2055
▁குஜராத்தி	-11.2057
ச்சூழல	-11.206
▁தலைசிறந்த	-11.2063
▁எதிர்பார்ப்ப	-11.2063
ott	-11.2069
ாவத	-11.2075
▁தீவிரவாதி	-11.2085
▁மேளமாகிய	-11.2087
▁தைவதம்	-11.2087
▁மீற்றருக்கு	-11.2087
▁துணைக்கண்ட	-11.2087
▁சூடுபடுத்த	-11.2087
IT	-11.2087
▁பட்டுக்கோட்டை	-11.2089
▁தவிர்த்த	-11.209
▁வருவாய	-11.2094
▁பாடத்திட்ட	-11.2094
▁அமுக்க	-11.21
▁செய்வதை	-11.2104
ென்பது	-11.2106
▁நீரிணை	-11.2106
▁தியாகராஜ	-11.2109
▁பிரிக்கலாம்	-11.211
▁இச்சட்ட	-11.2111
▁சாஸ்திரி	-11.2113
▁நூற்ற	-11.2116
பூர்வமான	-11.2119
▁தலைவரும்	-11.2124
▁அனுமதிக்கிறது	-11.2124
▁அழைத்தனர்	-11.2129
▁தவிர்ப்ப	-11.213
▁வினவ	-11.2135
▁பிறப்பிடமாகக்	-11.2139
▁வரையறுத்த	-11.2141
▁ஒப்படைக்க	-11.2144
▁கிழங்கு	-11.2146
▁1901	-11.2149
▁நீரோட்ட	-11.215
▁பேசுகின்றனர்	-11.2151
ளவிலான	-11.2154
▁மகனும்	-11.2155
களுடனான	-11.2159
▁தலைமையிடமாக	-11.216
▁திரள	-11.2161
▁தொழிலாக	-11.2161
▁குலோத்துங்க	-11.2166
▁காய்ச்சல்	-11.2167
▁தியேட்டர	-11.2168
புத்தூர்	-11.2177
திரைப்பட	-11.2178
▁தருண	-11.2182
▁பணக்கார	-11.2183
▁கருத்துப்படி	-11.2186
ப்புத்தக	-11.2188
AR	-11.2188
▁மறுசீரமைப்ப	-11.2192
▁மத்திமம்	-11.2192
▁திறனாய்வு	-11.2195
போலவே	-11.2196
Ad	-11.2202
▁மலர	-11.2203
வேண்டுமென்ற	-11.2209
▁முறியடித்த	-11.2219
▁ஒதுக்கீடு	-11.2221
▁சிகாகோ	-11.2224
▁ஆகியவற்றிற்கு	-11.2227
▁பிரஞ்சு	-11.2233
▁காஷ்மீர	-11.2235
▁எட்டாவது	-11.2246
▁இவ்விழா	-11.225
▁பயனாக	-11.2251
▁ஆண்டளவில்	-11.2251
▁அயோத்தி	-11.2255
நாடக	-11.2257
▁இராமசாமி	-11.2259
▁தெருவில்	-11.2261
▁விவாதிக்க	-11.2262
ஹைட்ர	-11.2263
▁பயன்பாட்டை	-11.2272
▁கண்டிப்பாக	-11.2274
▁குடிநீர்	-11.2279
▁அரியணை	-11.2279
மங்கல	-11.228
ப்படுவதுண்டு	-11.2288
▁தஞ்சாவூர	-11.2288
▁மட்டுமல்லாது	-11.2298
▁லண்டனில்	-11.2298
▁நிரம்பிய	-11.2298
▁[1]	-11.2299
▁திரட்டி	-11.23
▁உலாவி	-11.2303
▁முதுநிலை	-11.2307
▁பிரதிநிதியாக	-11.2309
▁வயதிற்கு	-11.2309
▁கையாண்ட	-11.231
▁கூட்டாளி	-11.2313
▁பின்னரும்	-11.2314
▁உபயோகப்படுத்த	-11.2317
▁லூக்கா	-11.2317
▁சனநாயக	-11.2325
▁புரோமைடு	-11.2327
▁பேட்மேன	-11.2327
▁உயர்நிலைப்பள்ளி	-11.2327
▁நிறைவேற	-11.2327
▁1907	-11.2332
▁உபதேச	-11.2336
பைரவ	-11.2344
▁சந்நிதி	-11.2352
▁இரண்டாவதாக	-11.2352
ope	-11.2356
▁சூழப்பட்ட	-11.2359
▁பதின்ம	-11.2359
▁தர்க்க	-11.236
▁எழுத்துமுறை	-11.2362
▁புத்தகங்களை	-11.2365
▁மகிழ்வ	-11.2377
▁ஆளாக	-11.2378
▁என்பதற்கான	-11.2379
▁சம்பள	-11.238
சிகிச்சை	-11.2381
▁முன்னிலை	-11.2386
▁பிலிம்	-11.2387
▁சீக்கியர்கள	-11.2399
▁மருந்தாக	-11.2403
▁இளவரசன	-11.2406
▁கற்கால	-11.2421
▁ஏற்படுத்துகிறது	-11.243
▁தற்காப்பு	-11.2433
▁பிரகாஷ்	-11.2433
▁முன்னோர்	-11.2456
▁பருமன	-11.2458
▁தற்காலிகமாக	-11.2465
▁யாதவ	-11.2469
▁ஆண்டிற்கான	-11.2469
line	-11.2473
▁உடலுக்கு	-11.2481
▁முப்பரிமாண	-11.2487
▁எஃகு	-11.2487
▁பராமரிப்ப	-11.2491
▁காமிக்	-11.25
த்தலைவராக	-11.2501
Or	-11.2508
▁அமாவாசை	-11.2514
▁முற்போக்கு	-11.2514
▁அத்தியாயங்கள	-11.2514
▁பாடகர	-11.2517
விட்டதாக	-11.252
▁இந்நிறுவன	-11.2523
புதிய	-11.2526
▁துரத்த	-11.2527
▁பொறியியல	-11.2529
1,000	-11.2536
NS	-11.2537
▁சோசலிச	-11.2542
▁சுழற்	-11.2543
▁இயக்குனர	-11.2548
▁தீர்மானித்த	-11.2554
▁பெயராலும்	-11.2564
▁நீர்வீழ்ச்சி	-11.2569
▁பின்வருவன	-11.2569
▁ஒத்துழைப்ப	-11.2569
▁ஆபத்தான	-11.2571
க்கொடுத்த	-11.2572
▁உள்வாங்க	-11.2572
▁இருக்கக்கூடும்	-11.2576
▁கண்ணோட்ட	-11.2583
▁விலகினார்	-11.2586
▁காரைக்குடி	-11.2596
▁பூர்வ	-11.2597
▁சேர்மங்களை	-11.2598
▁எதிர்பார்த்த	-11.26
▁சிறுபான்மை	-11.2607
▁பறப்ப	-11.2609
▁பெயரான	-11.2621
பிடிப்பு	-11.2622
▁ஷட்ஜம்	-11.2624
வளர்ச்சி	-11.2625
விளையாடியுள்ளார்	-11.2631
▁நெடுங்க	-11.2636
▁இம்மாவட்ட	-11.2651
▁மின்னஞ்சல்	-11.2652
▁குடைவரை	-11.2652
▁ஆளுகை	-11.267
▁ஒன்பதாம்	-11.2679
▁யுனைடெட்	-11.2679
▁எட்வர்ட்	-11.268
முதன்மை	-11.268
▁கருத்தாக்க	-11.269
மருத்துவ	-11.2691
▁வசித்த	-11.2691
பூர்வமாக	-11.2697
▁பெட்ரோ	-11.2705
▁நால்வர	-11.2706
▁கிருட்டிணகிரி	-11.2707
▁அலைநீள	-11.2707
▁தரையிறங்க	-11.2707
▁மோசமாக	-11.2709
▁அலகுகளாக	-11.2709
▁முழங்க	-11.2712
▁கலைக்களஞ்சிய	-11.2735
▁பதினாறாம்	-11.2735
▁யுனெஸ்கோ	-11.2735
▁மேல்நிலைப்பள்ளி	-11.2735
▁காசுமீர	-11.2735
▁சல்பேட்டு	-11.2737
▁India	-11.2739
▁இசைக்குழுவின	-11.2744
▁குமரி	-11.2744
▁எந்தவித	-11.2745
▁குழுவாக	-11.2748
எழு	-11.2748
▁மாத்திரை	-11.2752
▁இயக்குநர	-11.2762
▁மக்னீசியம்	-11.2763
▁மாநிலங்களவை	-11.2763
▁இஸ்ரேல	-11.2763
▁கடைபிடிக்க	-11.2764
ப்பண்பு	-11.2771
▁சீர்தர	-11.2772
▁வேறுபடுத்த	-11.2778
▁அரேபியா	-11.2782
▁நீர்மூழ்கி	-11.2791
▁நோர்வே	-11.2791
▁பெருங்குடல	-11.2792
நாதசுவாமி	-11.2793
▁அம்மையார	-11.2795
▁பகவதி	-11.2795
▁திருப்பத்தூர்	-11.2796
▁மேற்புற	-11.2796
▁மேலாளர்	-11.2797
▁அழைக்கிறார்கள்	-11.2797
▁1909	-11.2799
▁1906	-11.2799
▁அதன்பிறகு	-11.2802
▁போன்றோர	-11.2803
palayam	-11.2819
▁இளையராஜா	-11.2821
3,000	-11.2823
▁ஆதாய	-11.2823
உயிர	-11.2823
▁வரவேற்பைப்	-11.2824
▁பேரியம்	-11.2837
▁மெய்யியல	-11.2845
▁இலகுவாக	-11.2845
▁மராட்டிய	-11.2847
▁இடம்பெயர்ந்த	-11.2848
▁கும்பகோணத்த	-11.2849
▁மென்பொருட்கள	-11.2849
▁முதலமைச்சராக	-11.2852
▁மருவி	-11.2858
▁வழிகாட்டுதல	-11.286
▁மொழிபெயர்ப்ப	-11.2871
ிழப்ப	-11.2872
▁திம்ம	-11.2874
▁சாமுவேல்	-11.2875
▁நவராத்திரி	-11.2875
▁தனிப்பாடல	-11.2883
கொள்வதற்காக	-11.2897
▁University	-11.2904
▁டேனியல்	-11.2904
▁பிரசித்தி	-11.2904
▁மரபணுக்கள	-11.2905
▁வேதிப்பொருள	-11.2911
▁செல்கிறார்	-11.2911
ces	-11.2915
▁தெருக்கள	-11.2924
RI	-11.2925
▁சேமிப்ப	-11.2925
▁இயற்பியலாளர	-11.2929
▁படைவீரர்	-11.2932
▁பிரபந்த	-11.2932
▁முதிர்ந்த	-11.2933
▁விகடன்	-11.2933
▁சரவண	-11.2934
பல்கலைக்கழக	-11.2934
▁திரைப்படத்துறை	-11.2936
▁குறிக்கின்றது	-11.2939
▁மெட்ரோ	-11.2946
▁பயிற்று	-11.296
▁பதினான்கு	-11.2961
கிளை	-11.2961
▁முடியாட்சி	-11.2966
▁அக்பர்	-11.2978
▁துன்புறுத்த	-11.2989
ாவிட்டாலும்	-11.299
▁அரவிந்த	-11.2991
▁மற்றைய	-11.2991
▁பஞ்சமம்	-11.2995
த்தொடர	-11.3005
▁சீரமைப்ப	-11.3016
▁பிலிப்பீன்ச	-11.3018
▁அயோடைடு	-11.3018
▁நெப்போலியன	-11.3018
▁பட்டதாரி	-11.3018
▁ஒட்டுண்ணி	-11.3019
▁செய்தித்தாள்	-11.302
த்தொகுப்பு	-11.3025
▁மகிழ்ந்த	-11.303
▁ஈர்த்த	-11.3032
▁எண்ணெய	-11.3034
▁உத்தரவிட்ட	-11.3041
▁திருத்தூதர்	-11.3047
▁பகுப்பாய்வ	-11.3062
▁Retrieved	-11.3075
▁கைலாசநாதர்	-11.3076
குறைந்த	-11.3079
ாமலேயே	-11.3083
0°	-11.3094
▁வெள்ளிக்கிழமை	-11.3104
▁புத்தாண்டு	-11.311
ச்செல்வ	-11.3112
▁கண்டறிவத	-11.3113
▁நிலவுகிறது	-11.3117
▁உற்பத்தியாளர்கள	-11.313
▁தம்பதி	-11.3132
▁பீடபூமி	-11.3133
▁முன்னுரிமை	-11.3137
விகித	-11.3147
▁மௌரிய	-11.3148
▁நூலான	-11.3154
▁செதுக்கப்பட்ட	-11.3158
▁கையகப்படுத்த	-11.3162
▁கோதாவரி	-11.3162
▁உபநிடத	-11.3166
நிறுத்த	-11.3168
▁வருண	-11.3172
மாட்டார்	-11.3175
ஹள்ளி	-11.3176
▁சிம்பாப்வே	-11.3191
▁வகைக்கெழு	-11.3192
▁தட்பவெப்ப	-11.3192
டபிள்யு	-11.3192
▁நூலுக்கு	-11.3192
ள்ளேயே	-11.3193
$	-11.3195
▁நவக்கிரக	-11.3221
▁ஹாலிவுட்	-11.3221
▁நீர்ப்பாசன	-11.3221
▁நாகரீக	-11.3221
▁தொன்மையான	-11.3221
▁சிறுகோள்	-11.3229
▁வான்வழி	-11.3233
▁எதிர்பாராத	-11.325
▁இருவருக்கும்	-11.3254
▁நியமனம்	-11.3255
▁பெருமாள	-11.3255
▁ஒப்படைத்த	-11.3258
▁மதிப்பிடப்பட்ட	-11.3262
▁கலப்பின	-11.3273
ச்சென்ற	-11.3277
▁கூகுள்	-11.328
▁வேள்வி	-11.328
▁விரிவடைந்த	-11.328
▁பிலிம்பேர்	-11.328
▁அதிகாலை	-11.328
▁மன்னிப்பு	-11.3281
▁ஓராண்டு	-11.3284
▁யாத்திரை	-11.3284
▁டிரான்ஸ்	-11.3284
இலிருந்து	-11.3297
▁தொழிலதிபர	-11.331
▁அக்கட்சி	-11.3311
▁காப்பீட்டு	-11.3311
▁அடமான	-11.3312
▁நடராச	-11.3316
▁உருண்டை	-11.3316
ினாள்	-11.332
▁சீடர	-11.3327
▁செல்வதற்கு	-11.333
World	-11.3339
▁நாற்பது	-11.3339
களுக்கிடையில்	-11.334
▁அமீரக	-11.3341
▁சரணடைந்த	-11.3354
2010	-11.3356
க்கொள்கை	-11.3361
Tamil	-11.3369
▁ஈரானிய	-11.3369
வேதியியல்	-11.3373
▁கார்த்திக்	-11.3378
over	-11.3384
▁அழுக	-11.3389
Indian	-11.3394
ரண்ய	-11.3395
▁புரிதல	-11.3398
▁பாபநாசம்	-11.3398
▁மிகச்சிறிய	-11.3398
▁உரைநடை	-11.3398
புகழ்	-11.3399
▁திசைவேக	-11.3401
▁எத்தனால	-11.3403
▁நம்புகின்றனர்	-11.3408
▁ஈடுபட்டிருந்த	-11.3412
2007	-11.3417
▁கிடந்த	-11.3417
▁இதேபோல	-11.3418
▁விளங்குகின்றன	-11.3422
▁பெர்லின	-11.3426
▁from	-11.3428
▁துறவற	-11.3428
▁நிஷாதம்	-11.3428
▁வால்வெள்ளி	-11.3428
▁பன்னிரு	-11.3428
▁புழக்கத்தில	-11.3428
▁ஜானகி	-11.343
▁போரிட	-11.344
▁கணக்கிட்ட	-11.3441
▁தடிமன	-11.3446
கொடுக்க	-11.3448
▁காணப்படுவது	-11.3451
▁அலகான	-11.3456
thumb	-11.3458
▁தாலுகா	-11.3458
கிரிகோரியன்	-11.3458
[[	-11.3458
▁முன்மாதிரி	-11.3463
▁இரைப்பை	-11.3465
▁1904	-11.3466
▁கணவாய்	-11.347
▁உடன்பாடு	-11.3479
▁மத்தேயு	-11.3488
▁நிலைப்புத்தன்மை	-11.3488
▁உக்ரைன	-11.3491
ூடக	-11.3497
▁அசிரிய	-11.3498
▁முடக்க	-11.3503
▁வேலைப்பாடு	-11.3511
▁நீள்வட்ட	-11.3518
▁முன்மொழிந்த	-11.3519
கட்டமைப்ப	-11.3524
▁பல்கலைகழக	-11.3548
▁இன்றளவும்	-11.3548
▁ஊக்குவிப்ப	-11.3548
▁ஒப்பீட்டளவில்	-11.3548
221	-11.3559
▁குறிஞ்சி	-11.3562
▁வேறுபடுகின்றன	-11.3564
யொட்டி	-11.3565
▁அவதான	-11.3566
▁நிர்வகித்த	-11.3578
▁அர்ப்பணிக்க	-11.3579
கணினி	-11.3583
ெல்லை	-11.3585
▁அபிஷேக	-11.3587
▁முக்தி	-11.3587
▁கலக்கிறது	-11.3589
▁என்பவன	-11.3608
▁கம்போடியா	-11.3609
▁ஏவூர்தி	-11.3609
▁சதுஸ்ர	-11.361
▁மின்னூட்ட	-11.3613
▁நீச்சல்	-11.3614
▁குறிப்பதாகும்	-11.3621
பழைய	-11.363
▁சோதிக்க	-11.3633
▁கதிர்வீச்ச	-11.3634
▁திருமுழுக்கு	-11.3639
▁அந்நிய	-11.364
▁கதாநாயகனாக	-11.366
▁மணிமேகலை	-11.367
▁பதினாறு	-11.367
▁செங்கோண	-11.367
▁உபகரணங்கள	-11.3676
▁சிக்கலெண்	-11.3686
▁உடம்ப	-11.3688
மதிப்பீட்ட	-11.3692
நுட்ப	-11.3699
▁தடுத்த	-11.3701
ப்பெட்டி	-11.3703
▁சாகித்திய	-11.3706
▁எதிர்கொண்ட	-11.3711
▁பாஸ்கர	-11.3723
▁விண்மீன	-11.3729
▁இதிகாச	-11.3731
▁தொழிற்சங்க	-11.3733
▁ஆயுள்	-11.3735
▁ஜெமினி	-11.3736
▁இதனுடன்	-11.3738
▁அரங்கேற்ற	-11.374
▁படுகை	-11.3751
ிராத	-11.3752
▁சொல்வத	-11.3756
▁இலையுதிர்	-11.3762
▁கூகிள்	-11.3762
▁தடகள	-11.3765
▁சௌந்தர	-11.377
ப்பழக்க	-11.3782
▁தேர்தலுக்கு	-11.3793
▁எதிர்க்கட்சி	-11.3793
▁சக்கரவர்த்தி	-11.3793
▁தெலுங்கானா	-11.3793
▁யோசனை	-11.3795
▁மும்ம	-11.3801
▁தெரிவிக்கிறது	-11.3802
▁அரிதான	-11.3809
cent	-11.3813
▁இல்லாமல	-11.3825
▁1903	-11.3832
▁மேற்பகுதி	-11.3833
▁சாகச	-11.3834
▁மராத்தி	-11.3842
▁முயல	-11.3846
▁பிரித்தானியாவ	-11.3847
▁சுற்றுச்சூழல	-11.3855
▁ரிஷபம்	-11.3855
▁சனாதிபதி	-11.3855
▁ஒரேயொரு	-11.3855
▁நாடோடி	-11.3856
▁இவரால்	-11.3856
▁லாகூர	-11.3856
▁குலசேகர	-11.3857
▁நன்னீர்	-11.3857
ative	-11.3861
▁யப்பான	-11.3875
▁திராட்சை	-11.3887
▁திருவிதாங்கூர	-11.3887
▁மேற்கூறிய	-11.3887
▁எரிவாயு	-11.3887
▁பிரதிபலிப்ப	-11.3887
▁ஸ்காட்	-11.3892
▁எழுந்தருளி	-11.3893
ஐதராக்சி	-11.3894
▁பரிவர்த்தனை	-11.3918
▁அமோனியம்	-11.3918
▁ஒலிவாங்கி	-11.3918
▁இசைக்கலைஞர	-11.3918
▁அவனுடைய	-11.3923
நம்பிக்கை	-11.3926
▁குழம்ப	-11.3939
▁வீரபாண்டி	-11.3943
▁வெளியிட்டுள்ளார	-11.3944
ுருவாக்க	-11.3946
▁செய்வதற்கான	-11.3956
▁கணக்கீட்ட	-11.3956
▁நட்ப	-11.3969
▁தெய்வானை	-11.3981
▁கயிறு	-11.3981
குர்ஆன	-11.3986
ந்தோறும்	-11.3986
▁பிற்பகுதி	-11.3987
▁பங்களித்த	-11.399
▁எனுமிடத்தில்	-11.4013
▁இடைவினை	-11.4021
▁செலவிட	-11.4025
▁வீச்சாளர	-11.4027
▁விவரிப்ப	-11.4044
▁புலனாய்வு	-11.4044
way	-11.4047
▁என்பனவாகும்	-11.4049
▁பரப்பளவ	-11.4055
சிறந்த	-11.4075
மீத்தேன	-11.4076
▁சீர்காழி	-11.4076
நாயக்கன்பட்டி	-11.4076
▁பவுண்டு	-11.4077
▁வெங்கடேச	-11.4081
▁அடைவத	-11.4094
ாம்பாள்	-11.4096
▁கட்டமைக்கப்பட்ட	-11.4097
ுகிறோம்	-11.4102
▁இந்தோனேசிய	-11.4104
தற்கென	-11.4108
▁வெளியுறவு	-11.4108
▁வருடாந்திர	-11.4108
▁பதினைந்து	-11.4108
▁சலுகை	-11.411
▁சாதியினர	-11.4119
வாழ்க்கை	-11.4124
▁மரணமடைந்தார்	-11.414
▁முழுவதையும்	-11.414
▁இப்பூங்கா	-11.414
▁ஆபிரகாம	-11.414
▁ஏற்றவாறு	-11.4147
▁மார்க்சிய	-11.416
William	-11.4172
▁விமர்சிக்க	-11.4172
▁நைட்ரேட்டு	-11.4172
▁அடுத்தபடியாக	-11.4172
▁அனைவரையும்	-11.4178
▁தன்மையுடைய	-11.4181
▁வைத்திருப்பத	-11.4196
▁மலையக	-11.4199
▁பவுல	-11.4201
▁கிடைக்கப்பெற	-11.4204
▁காலக்கட்டத்தில்	-11.4205
▁தேவையில்லை	-11.4205
▁காளான்	-11.4205
குறியீட	-11.4214
▁ஒப்புக்கொண்ட	-11.422
▁பயன்பாட்டிற்கு	-11.4234
▁நடாத்த	-11.4234
▁அனைத்திந்திய	-11.4237
சமூக	-11.4241
▁ஆளுநர	-11.4248
vel	-11.4264
▁பௌர்ணமி	-11.4269
▁முன்னுரை	-11.427
▁மன்னார்குடி	-11.427
▁நீரினால	-11.4287
▁சமுத்திர	-11.4296
▁இயக்குநீர்	-11.4302
▁சிறைச்சாலை	-11.4303
ிரண்டு	-11.4307
▁பேராலய	-11.4308
▁திருப்தி	-11.4315
▁வலைப்பின்னல	-11.4335
ுறிப்பிடத்தகுந்த	-11.4335
▁புண்ணிய	-11.4335
▁ஜூலியன்	-11.4336
▁உருவகப்படுத்த	-11.4336
▁தரைப்படை	-11.434
emb	-11.4345
▁சந்தர்ப்பங்களில	-11.4352
▁செங்குத்தாக	-11.4368
Comp	-11.4373
▁ஆகாய	-11.4386
2009	-11.4398
▁ஒன்பதாவது	-11.44
▁பெருங்கோவில்	-11.44
▁ஆர்க்டிக்	-11.4402
▁பதிப்பித்த	-11.4406
▁ஈஸ்வர	-11.4415
▁கொழுப்ப	-11.4422
▁சட்டப்பேரவை	-11.4433
▁நிரூபித்த	-11.4434
▁அமோனியா	-11.4434
▁செழிப்ப	-11.4434
▁தரப்பினர	-11.4439
▁வேங்கட	-11.4443
▁ஆல்பர்ட்	-11.4454
▁எளிமை	-11.4462
▁என்னவென்றால்	-11.4467
▁நீரிழிவு	-11.4467
▁பொருண்மை	-11.4467
▁திருவையாறு	-11.4467
▁இடதுசாரி	-11.4468
▁புனைப்பெயர	-11.4482
▁விளைச்சல	-11.4487
▁மாரடைப்ப	-11.45
▁ஆதீன	-11.45
▁யுரேனியம்	-11.45
▁காவல்துறையினர	-11.4505
▁புதுப்பித்த	-11.4507
▁தட்ப	-11.4515
ஃபோர்டு	-11.4525
▁லிமிடெட்	-11.4533
▁சுழலும்	-11.4533
தோஷ	-11.4534
▁உட்கரு	-11.454
▁விளிம்ப	-11.454
பண்ப	-11.4541
ிணைய	-11.4542
540	-11.4546
▁குருக்கள	-11.4548
▁ஆவணப்படுத்த	-11.4562
▁புழுக்கள	-11.4565
▁மதுராந்தக	-11.4567
▁வாசிங்டன்	-11.4567
▁ஊக்குவித்த	-11.4567
▁திடீரென	-11.4567
▁தொல்பொருள்	-11.4569
முக்கியத்துவத்தை	-11.4571
▁செயற்படுத்த	-11.459
▁ஆட்சிக்காலத்தில	-11.4592
▁இதற்கிடையில்	-11.46
▁மாதவிடாய்	-11.46
▁சார்லசு	-11.46
▁மெட்டல்	-11.4601
▁டிஸ்னி	-11.4602
▁காஞ்சிபுரத்த	-11.4603
▁கோபால்ட்	-11.4606
▁பிரயோக	-11.4611
▁ஐதரசன	-11.463
press	-11.4631
▁இறந்துவிட்ட	-11.4633
▁டென்னிஸ்	-11.4634
▁கிளார்க்	-11.4635
குறிப்பாக	-11.4636
ஆங்கில	-11.4652
▁வேணுகோபால	-11.4668
▁இவருடன்	-11.4668
▁பலதரப்பட்ட	-11.4669
▁அதிவேக	-11.467
▁உச்சரிப்ப	-11.4685
மாரியம்மன்	-11.4696
▁எப்பொழுதும்	-11.4701
▁பதினேழாம்	-11.4701
▁ஒவ்வோர	-11.4701
▁வெண்ணிற	-11.4701
▁தெய்வீக	-11.4702
▁விரைவான	-11.4702
▁கால்பந்தாட்ட	-11.4704
▁பெட்ரோலிய	-11.472
▁புணர	-11.473
▁ஸ்டூடியோ	-11.4735
▁இடப்பெயர்ச்சி	-11.4735
▁முன்மொழியப்பட்ட	-11.4735
▁வாக்களிக்க	-11.4736
▁சமாளிக்க	-11.4736
▁தேசிக	-11.4739
▁பூங்காக்கள	-11.4752
▁வாதிட்ட	-11.476
நுண்	-11.4766
▁எலும்ப	-11.4767
ுறுதி	-11.4768
▁குரோமியம்	-11.477
▁கவுன்டியில	-11.477
▁புஷ்கர	-11.4771
▁உபகரண	-11.4797
▁சிதைந்த	-11.4799
தமிழ்நாட்டிலுள்ள	-11.4803
▁விமர்சித்த	-11.4804
▁பம்பாய்	-11.4804
▁பங்குபற்ற	-11.4813
▁சுற்றுவட்ட	-11.4843
▁அச்சுப்பொறி	-11.4873
▁தூதரக	-11.4873
▁ஒரிசா	-11.4873
▁அங்காடி	-11.4873
▁ராமகிருஷ்ண	-11.4877
▁ஈர்ப்ப	-11.4897
▁உற்சாக	-11.4907
▁சாதகமான	-11.4907
▁ஒப்பிடும்போது	-11.4912
குளோரைடு	-11.4922
Ind	-11.4927
▁எடுத்துரைக்க	-11.4928
▁ISBN	-11.4942
▁கணக்கெடுப்பில்	-11.4942
▁வைகானசம்	-11.4942
▁ஏப்பிரல்	-11.4942
▁நெடுங்கால	-11.4949
▁அனேக	-11.4952
▁இராஜராஜ	-11.4952
▁கருத்தரங்க	-11.4955
▁சூடாக்க	-11.4961
▁பெற்றுக்கொண்ட	-11.4967
டவுன்	-11.4969
▁மறுத்துவிட்ட	-11.4972
▁ஒவ்வாமை	-11.4977
▁பழிவாங்க	-11.4977
▁வடகிழக்கில்	-11.4977
▁தடுப்பூசி	-11.4977
▁அடிவாரத்தில்	-11.4977
▁கள்ளக்குறிச்சி	-11.4977
▁ஐப்பசி	-11.4977
▁சார்ல்ஸ்	-11.4978
▁திணிவு	-11.498
பென்சீன்	-11.4982
▁பொம்ம	-11.4993
▁நெதர்லாந்த	-11.4997
▁வகிக்கின்றன	-11.5003
▁போர்த்துக்கேயர	-11.5007
▁குறும்பட	-11.5012
▁புலம்பெயர்ந்த	-11.5012
▁பெறுமதி	-11.5012
▁தொழிலாளி	-11.5015
▁மனநல	-11.5015
▁சுமேரிய	-11.5017
▁இடம்பெறுகின்ற	-11.5027
ூரிலிருந்து	-11.5043
▁அசாதாரண	-11.5047
▁கிராஃபிட்டி	-11.5047
▁புறக்கணிக்க	-11.5047
▁வேண்டாம்	-11.5048
▁நிருப	-11.5053
▁விழுங்க	-11.5058
▁மட்டுப்படுத்த	-11.5061
formula	-11.5062
▁சிலிக்கான்	-11.5082
▁லத்தீன்	-11.5083
▁with	-11.5083
▁லலித	-11.5094
▁முதலீட்ட	-11.5104
▁செய்யுள	-11.5105
▁மீனவர்	-11.5107
▁நற்கருணை	-11.5117
▁சீர்குலை	-11.5117
▁அணிகலன்	-11.5118
▁மியான்மர	-11.5118
▁சுமத்த	-11.5131
▁நிலத்தினால	-11.5139
▁ஞாயிற்றுக்கிழமை	-11.5153
▁வம்சாவளி	-11.5153
▁சஞ்சீவ	-11.5153
▁நேர்மாறு	-11.5153
▁எசுத்தர்	-11.5155
▁அவதானிக்க	-11.5162
▁நியூசிலாந்த	-11.5168
4,000	-11.518
▁அக்டோபரில்	-11.5188
▁நாளடைவில்	-11.5189
▁செல்சியஸ்	-11.5189
▁இக்கட்டுரை	-11.5189
ோருக்கான	-11.5209
▁ஃவுளூரைட	-11.5224
▁கடல்மட்டத்தில்	-11.5224
▁வெளிப்படையான	-11.5224
▁பிரிட்டானிய	-11.5224
▁பிரமிடு	-11.5225
▁வைத்தியநாத	-11.5227
▁செயற்குழு	-11.5232
▁பிட்காயின	-11.5233
▁குறியீடாக	-11.525
▁பகிர்வ	-11.5256
▁முற்றிலுமாக	-11.526
▁மெய்யெழுத்து	-11.526
▁பொன்னம்பல	-11.526
மீட்டர	-11.5292
▁பூச்சிக்கொல்லி	-11.5296
▁போர்த்துகீசிய	-11.5296
▁Division	-11.5296
▁இசுரயேல	-11.5296
▁கிரிக்இன்ஃபோவில	-11.5296
▁ஆன்மிக	-11.5296
இயக்க	-11.5304
ஸ்டைன்	-11.5318
▁வாணிக	-11.532
▁சாதகமாக	-11.5332
▁புளோ	-11.5335
ிருப்பினும்	-11.534
▁முழக்க	-11.5348
▁ஹோட்டல	-11.535
▁அலுவலர	-11.5363
▁உயர்நீதிமன்ற	-11.5368
▁இடையூறு	-11.5368
▁விசேட	-11.5369
kulam	-11.5369
▁இவ்விரண்டு	-11.537
▁கணேச	-11.5375
▁அலுமினிய	-11.5376
ப்போராட்ட	-11.5391
▁அறுதியிட	-11.5394
வள்ளுவ	-11.5395
▁உழைத்த	-11.5399
▁ஸ்டீபன்	-11.5407
▁கிறிஸ்தவர்கள	-11.5441
▁நிராகரித்த	-11.5441
▁புறநானூற்ற	-11.5441
▁விரைவுவண்டி	-11.5441
▁காரணாகம	-11.5441
▁பத்தாவது	-11.5441
▁வயிற்றில	-11.5441
▁விவேகானந்தர	-11.5441
▁பாகுபாடு	-11.5443
▁கணக்கீடு	-11.5445
▁திறம்பட	-11.5446
புலியூர்	-11.5453
▁லடாக்	-11.5468
▁இசையமைப்ப	-11.5469
▁புளோரின	-11.5471
▁அராபிய	-11.5479
▁அலகாபாத்	-11.5481
▁சரும	-11.5483
▁மட்பாண்ட	-11.5515
▁பதினெட்டு	-11.5515
▁வவுனியா	-11.5515
▁சிறப்பித்த	-11.5525
▁கிறித்து	-11.5538
▁கட்டமைக்க	-11.5538
▁திருமேனி	-11.5551
▁சட்டவிரோத	-11.5551
▁தொலைதூர	-11.5552
▁மணியளவில்	-11.5552
▁வாசுதேவ	-11.5552
▁நம்பகத்தன்மை	-11.5552
▁அர்ஜுன	-11.5552
▁யுரேன	-11.5557
▁தளவாட	-11.5577
ல்லுறுப்புக்கோவை	-11.5589
▁நாகர்கோவில்	-11.5589
▁எறும்பு	-11.5589
▁பேரழிவு	-11.5589
▁கொள்கலன	-11.5592
இடம்பெற்றிருந்தன	-11.5603
6,000	-11.5618
▁வருங்கால	-11.5626
▁காந்தியடிகள	-11.5626
▁வேண்டுமென்று	-11.5632
▁ஆராய்வ	-11.5642
▁அவுஸ்திரேலிய	-11.5663
▁இந்நிகழ்ச்சி	-11.5663
▁கணிப்பொறி	-11.5663
▁விவாகரத்து	-11.5663
▁மாணாக்கர	-11.5664
▁நைட்ரஜன	-11.5664
▁இராபர்ட்	-11.5668
▁எவ்வாற	-11.5699
▁நோய்த்தொற்று	-11.57
▁மனப்பான்மை	-11.5701
▁என்பதற்காக	-11.5701
▁[2]	-11.5701
▁உணவகங்கள	-11.5701
▁குளோரைட	-11.5702
▁நீராடி	-11.5704
▁கால்வாய	-11.5707
ரிட்ஜ்	-11.5712
▁துறையினர	-11.5717
▁வேதிப்பொருட்கள	-11.5737
▁அகமதாபாத்	-11.5738
▁இப்பாடசாலை	-11.5738
▁குடமுழுக்கு	-11.5738
▁ராஜகோபுரம்	-11.5738
▁பராமரித்த	-11.5738
களாலான	-11.5742
▁பாலசுப்பிரமணிய	-11.5776
▁பழைமையான	-11.5776
▁வியப்ப	-11.5777
▁பாடலாசிரியர்	-11.5778
▁பகிர்ந்த	-11.5778
▁அயர்லாந்த	-11.5785
▁நினைவுகூர	-11.5792
▁புரோமின	-11.5799
▁சுழலி	-11.5801
ுபவராக	-11.5802
▁Nobel	-11.5814
▁அம்பேத்கர	-11.5814
▁மான்செஸ்டர்	-11.5814
▁வாக்குரிமை	-11.5814
▁சதுர்த்தி	-11.5815
▁தாமசு	-11.5815
வெள்ளீய	-11.5818
▁உயிரியல	-11.5818
▁பாதுகாத்த	-11.5832
ஞ்ஞா	-11.584
▁வடுக	-11.584
நீராற்பகு	-11.5852
▁முடிசூட்ட	-11.5853
புதினம்	-11.5874
George	-11.589
▁ஒரத்தநாடு	-11.589
▁ஆக்கிரமித்த	-11.589
▁நாயனார்	-11.589
▁பொருளியல	-11.5894
▁வீட்டில	-11.5904
அதிகாரப்பூர்வமாக	-11.5924
▁ஆடித்திருவிழா	-11.5928
▁சிந்தாமணி	-11.5928
▁சேதுபதி	-11.5928
▁தோழர்	-11.5929
“	-11.7184
‘	-11.8392
