<unk>	0
<s>	0
</s>	0
.	-2.90937
,	-3.59856
亇	-4.57887
▁	-4.83304
令	-4.92559
仠	-4.95582
五	-5.01245
亢	-5.03478
)	-5.30835
亖	-5.3299
▁云互亇	-5.34357
▁(	-5.35083
伺	-5.37076
▁仈亭	-5.42528
予亐	-5.48553
▁"	-5.6499
"	-5.69813
亟	-5.76016
▁价佛	-5.77943
▁亓	-5.91878
伧亖	-5.91982
仜	-5.92586
于	-5.94054
仡	-5.94587
-	-6.0059
仇	-6.03875
予	-6.0674
▁倧仱俔	-6.09983
▁价	-6.10751
仌亖	-6.10785
▁价于	-6.1419
▁仦	-6.15716
伧五	-6.18143
▁仦仾	-6.20598
了	-6.20941
▁二亼	-6.24033
:	-6.25167
亏亐	-6.25672
些	-6.26814
▁仦亪亇	-6.26831
亾	-6.28584
▁井产	-6.29507
仕亇	-6.32624
▁仦亇	-6.35056
▁亷	-6.36694
伈	-6.37042
▁予	-6.37611
亃	-6.38931
亳	-6.41642
仅	-6.46971
▁二亍于	-6.47533
▁亅	-6.48453
仌五	-6.49634
云	-6.49836
▁亓仹于	-6.51697
▁亅仄	-6.52926
仱	-6.53329
佘	-6.53691
亣	-6.53808
亝	-6.55046
会	-6.55912
予亚	-6.56047
▁井产于	-6.56229
▁价些伺	-6.57476
佃	-6.58446
予什亖	-6.5913
仓	-6.59911
▁付	-6.6085
▁仧	-6.60868
亙	-6.60999
▁云了亐	-6.61061
▁井	-6.61126
▁二	-6.62491
亜	-6.62789
▁二仿	-6.62811
仉	-6.62898
▁价亭伟	-6.64238
亷	-6.64923
▁伇	-6.66034
仄	-6.67061
仮	-6.67394
仡亇	-6.68704
仳	-6.68962
侫	-6.69498
今	-6.69945
亅	-6.7101
仦亇	-6.71302
亊	-6.71827
▁价佇亟	-6.7218
仯	-6.72354
▁仉	-6.72869
▁("	-6.73571
▁亂亃亖	-6.73828
亱	-6.75235
人	-6.76194
▁亴	-6.76704
仮予	-6.76915
亴	-6.79108
▁云	-6.79225
亭	-6.7925
伇	-6.80666
▁二仇	-6.80801
亿亐	-6.82121
▁亂	-6.83314
佶	-6.83707
交	-6.84166
亹	-6.8467
亗	-6.85425
▁亃	-6.85958
▁亞	-6.86532
伡	-6.87252
傱	-6.88276
▁二伖亇	-6.88391
伂	-6.88687
▁仁	-6.89622
伂亇	-6.8965
介	-6.89803
亻	-6.89885
亥	-6.8992
▁仮	-6.90177
佛	-6.91409
仂	-6.91857
▁伲亼	-6.92181
▁7	-6.92617
仮仇	-6.94983
予什五	-6.95135
事	-6.95779
▁侍伧亖	-6.96307
▁亴仄	-6.97391
些伺	-6.98358
▁仵伎	-6.99817
▁亓亘伟产	-6.9992
仅予	-6.99931
仉五	-7.00085
▁仢亰亇	-7.0048
▁价亭	-7.01017
▁佖	-7.01065
付	-7.02751
争	-7.03102
伧	-7.0385
仌	-7.04413
▁亽	-7.05462
▁-	-7.07763
亩	-7.08372
▁亓些伺	-7.08964
▁价亖	-7.09026
▁今	-7.09082
亏什亖	-7.09446
▁18	-7.1017
仉亖	-7.11047
▁亻	-7.11862
▁亩	-7.11941
▁侍	-7.12897
▁任伿	-7.12957
仇伺	-7.14098
▁仢	-7.14413
亪	-7.14682
亨	-7.14879
亐	-7.15105
▁亪	-7.15545
▁伲	-7.15916
▁些介	-7.16127
份	-7.16482
什	-7.16789
s	-7.18176
▁仦仼亖	-7.20346
亘	-7.20536
亰亇	-7.21423
▁亓亘伟产于	-7.24271
仆	-7.24973
亾五	-7.26047
▁井产仇	-7.26076
;	-7.26329
▁价俌伧亖	-7.26465
伟	-7.26542
予伽亇	-7.26985
▁云亼	-7.27565
▁亮	-7.27737
▁价亃五	-7.27871
),	-7.2793
仅仇	-7.27961
仧	-7.28008
▁仧亵伺	-7.29096
享	-7.29868
▁仍	-7.30547
▁任仾	-7.30772
仁	-7.31177
亏亚	-7.3163
亂亇	-7.31839
亩予	-7.34452
仌侀	-7.34454
▁价亭仡亇	-7.34781
▁仃仄亇	-7.35859
亸	-7.37183
仢	-7.37611
伆	-7.38488
仏	-7.38708
▁仮些亗亇	-7.39029
仺	-7.39264
▁仵亪亣仡亇	-7.39325
伵	-7.39403
▁1	-7.39671
▁仦伡亖	-7.39943
▁佰亭亇	-7.40296
些于	-7.40607
")	-7.40824
仯五	-7.41229
▁仦亻亟	-7.42103
▁亃仇于	-7.4225
▁亣	-7.42778
亓	-7.43368
▁价亳仾	-7.44036
▁仮些亗仌亖	-7.44616
▁亂亨亟	-7.45007
伡伺	-7.45263
▁2011	-7.45797
▁亓亃五	-7.46489
佦	-7.46679
▁些仆侕	-7.47317
▁侫	-7.47527
亹亗	-7.47644
亏	-7.47939
▁任	-7.483
▁住优	-7.49393
▁亜	-7.50413
▁仐事	-7.50565
▁亓佛	-7.50905
▁伲于	-7.5111
▁些	-7.51221
▁2	-7.5148
伮	-7.51566
▁伃	-7.51704
▁佽	-7.52794
▁价伟	-7.52942
▁伕	-7.5317
侍	-7.53259
伨	-7.53828
侪	-7.54147
位	-7.54263
▁任仾产于	-7.55261
▁3	-7.55911
▁交	-7.5614
众	-7.56171
'	-7.5657
▁亃交僴人	-7.57668
▁仦今伺	-7.58306
仕	-7.58407
▁仈	-7.58577
▁价佃	-7.58905
亭亇	-7.59424
▁价俌伧仓亖	-7.5945
伎	-7.59471
▁亂亡	-7.59959
伿	-7.60131
▁佭	-7.60472
仭	-7.60599
▁于人伨亗令	-7.61165
▁侲	-7.61865
予伽仡	-7.61982
亹亥	-7.62038
%	-7.62196
亊五	-7.62275
▁佢	-7.62345
亦	-7.62941
佥	-7.63262
亂	-7.63296
▁亮侻亐	-7.63805
▁二仿亇	-7.6428
▁亮亾亟	-7.64365
▁亓于	-7.64496
亻仏于	-7.64664
伅	-7.6477
▁侈亴亟	-7.64916
▁亃交侃	-7.65008
▁侼	-7.65044
▁住亝	-7.65351
▁亓些亳于	-7.65657
▁亣亭	-7.65978
▁仈仿	-7.66326
互	-7.67118
仾	-7.67342
优	-7.67515
(	-7.68044
▁5	-7.68149
▁些伎	-7.68489
伄	-7.69237
仒	-7.69466
侘	-7.69666
亹人亇	-7.70367
e	-7.70491
▁伇亗云亼亢	-7.70659
▁亓亳侫	-7.71144
▁佰	-7.71163
▁份仾亇	-7.71185
▁交予伂亇	-7.71485
▁亂亃佁	-7.71754
▁价佉	-7.7212
了亐	-7.72279
作	-7.72642
▁仃仿	-7.72665
▁井产仇伺	-7.72911
▁4	-7.73177
▁仫	-7.73346
亹亗于	-7.73694
▁亅亪亣	-7.73766
亃亖	-7.74258
亏什五	-7.74482
▁倧	-7.74549
使	-7.7513
倿	-7.75847
▁仧仏	-7.75855
▁于	-7.75893
S	-7.76084
▁价亭佛	-7.76252
价亖	-7.76278
仞	-7.77306
▁10	-7.77436
▁予侚	-7.77799
仼	-7.77964
▁亷仄	-7.78884
俄	-7.79017
▁佡	-7.79447
亡	-7.79507
▁亞侶	-7.79773
▁亅争亟亖	-7.80242
侐	-7.80337
仮亪亇	-7.80355
▁亃交僴争亖	-7.81725
仱予	-7.81823
C	-7.82095
伉	-7.82157
▁亅亜	-7.82202
▁云了仆佃亢	-7.8238
▁亓亣予	-7.82418
▁伎	-7.8244
▁亓侲亾了	-7.825
▁佡伥	-7.82755
亚	-7.82972
▁亓佃	-7.83232
▁份	-7.83507
▁二伐亇	-7.83617
▁交予	-7.84036
▁6	-7.84103
▁亓众	-7.84599
佇	-7.84624
▁倧亾亖	-7.84719
▁亃予些亖	-7.84812
▁2015	-7.84819
▁仦侻亐	-7.85353
价	-7.85505
似	-7.85623
▁价亭佛于	-7.85634
产	-7.86728
▁亞伤	-7.8688
亭仡	-7.86896
▁予仄伟	-7.87113
▁仱	-7.87115
伅伺	-7.87589
▁佂	-7.87735
佉	-7.8799
/	-7.88161
▁亃交僴争五	-7.88415
仅亪亇	-7.88608
仓五	-7.89142
▁价些伫亖	-7.89213
▁价亣亖	-7.893
P	-7.89484
二	-7.89659
▁17	-7.8992
▁'	-7.89997
伕	-7.90052
仦	-7.9022
A	-7.90783
▁仮亃亇	-7.90794
▁伕亣亟	-7.90824
伡亖	-7.91149
亱亇	-7.91253
▁修	-7.91292
y	-7.91366
仛	-7.91522
▁亅传仺	-7.91593
▁住亝亇	-7.91642
予亚仕亇	-7.91673
▁亓亜	-7.91743
伥	-7.91756
▁予亸偼人伮亍亜	-7.91815
▁侈	-7.92232
亿什五	-7.92526
亰	-7.92914
亽	-7.93034
亏伽亇	-7.93041
▁京于今予	-7.93495
▁15	-7.93559
▁仐	-7.93676
亹人亻仏于	-7.93699
▁亮亟伺	-7.93959
些亿亐	-7.94049
n	-7.94664
▁12	-7.94765
侸	-7.94772
▁佞	-7.94828
▁予亥伨争亖	-7.95009
▁京	-7.95671
伵仇	-7.96238
▁8	-7.96353
",	-7.96366
▁佂什	-7.96475
▁仫们于	-7.96732
▁仦仺	-7.9727
▁亓亘亙	-7.9733
亩亖	-7.97417
俌	-7.97509
▁亮仒	-7.97548
伦	-7.97554
▁价伥	-7.9782
▁价些亿什亖	-7.97948
▁侍伧亱亪亇	-7.97982
仓亖	-7.97983
▁京于	-7.98184
亾亟	-7.9835
▁16	-7.98383
"),	-7.98646
▁仫们	-7.9866
伊	-7.99049
侀	-7.99103
▁仨仩仪仜	-7.99357
▁仧亾	-7.99424
▁亅享	-8.0041
▁侩	-8.00558
▁价亊	-8.01004
▁些伎伨争亖	-8.01304
▁于亡伧五	-8.01513
▁仐們亻了亹人亻仏于	-8.0154
▁亃五	-8.01695
▁9	-8.02359
▁云仯亃	-8.02374
予亚仠	-8.02451
亹亊	-8.02495
▁亓仆伂	-8.02522
▁价些亳于	-8.03223
侈	-8.03229
▁亓仿	-8.03303
▁亓仏仐事亟会亡伧	-8.0344
▁侼伺	-8.03511
▁仈亭亷仄	-8.03899
▁亅众	-8.04017
侜	-8.04234
▁仧仏亪	-8.04413
▁井仺伮仇亿亚	-8.05244
▁亓些亿亐	-8.05268
M	-8.05594
▁侬侃	-8.0561
al	-8.05662
▁亣亭俌伧亖	-8.05695
▁佂伫	-8.05729
▁侈俕	-8.06089
2	-8.06576
▁价仄偢	-8.06701
亟伺	-8.0696
▁些佛	-8.07261
▁井仄予	-8.07366
▁亅亪亣伧亖	-8.07574
▁仵亊侑	-8.07758
▁侬僑伿	-8.07775
▁予亊	-8.07857
▁予亭	-8.07939
▁仐仄	-8.08034
▁倧亳予	-8.08126
▁仦倌	-8.09109
仟	-8.09132
a	-8.09228
▁伇仃予	-8.09409
▁佃	-8.10144
仅仇于	-8.10199
▁仵亪亣予亚	-8.10315
▁亷亳亸仮予	-8.10318
仅亖	-8.10444
▁仵亪了亹亥产于	-8.105
an	-8.10535
佋亐	-8.10569
亟亖	-8.1062
o	-8.10713
▁云事	-8.1083
亾亖	-8.10987
仕亊五	-8.11009
▁Gram	-8.11118
▁侈僧人亨亼仇伺	-8.11153
亞	-8.1122
伧亰亇	-8.11264
▁Panchayat	-8.11398
▁亴副亿什	-8.11422
▁倧仱俔伧亖	-8.1147
▁价佇仅仉五	-8.11581
▁亃亳仉亍亜	-8.11669
伈仠	-8.11789
▁仈什	-8.11921
▁云仒	-8.12072
▁亷仄仌亖	-8.12181
▁予事	-8.12344
亹人亻亼仇	-8.12409
▁亮亭	-8.12826
▁仈伭亭	-8.13176
▁些作亳仌亖	-8.13884
▁仸	-8.14004
亮	-8.14105
▁亩五	-8.14237
偞	-8.14855
伓亗亩亪亇	-8.14867
▁井仙仌	-8.15109
了亹亗	-8.15173
▁亃亳	-8.1531
▁亽倈	-8.15393
伔	-8.15577
▁仦俔	-8.15625
▁亓仂会	-8.15783
▁俸	-8.15845
▁仃	-8.16147
会仡	-8.16223
▁亅亳侐介	-8.16385
▁仍亊亨亼于	-8.16734
▁仮仐仄	-8.17274
亟亇	-8.17486
▁仧五	-8.1763
▁伏	-8.17761
▁伃于	-8.17797
仌亰亇	-8.17817
伵予	-8.18048
E	-8.18122
▁于倖	-8.18305
▁亣介亹亊	-8.18416
▁20	-8.18429
▁亅伫	-8.18561
▁11	-8.18577
▁些优	-8.18711
▁云亥仢	-8.19044
▁亞偮	-8.19206
▁偓	-8.1931
▁佳	-8.19565
便	-8.19728
▁伱	-8.19775
▁亪亡	-8.19994
亹亥产于	-8.20031
▁仵亪亣	-8.2013
▁亃仯	-8.20319
▁亴仏佛	-8.20353
▁亴仺	-8.20392
▁亅佼亍亩亇	-8.20585
▁S	-8.20797
仱仇	-8.20943
伧仓亭伟	-8.21022
▁仧亳	-8.21335
▁亓伔亃	-8.21412
▁二仳	-8.21436
▁亳	-8.21454
▁佧	-8.21502
佂	-8.21556
t	-8.21613
俟	-8.21829
▁伇亗	-8.21848
▁亪仛	-8.22144
▁仝	-8.22214
▁亅侏	-8.22582
▁亻仱云	-8.22593
予亇	-8.22598
▁价倖	-8.22821
些亃侀	-8.23186
3	-8.23477
亻亼仇	-8.23686
傊	-8.23731
佬	-8.24089
俽	-8.24132
▁14	-8.24352
▁仁们	-8.24796
▁些亊	-8.2527
▁价亃伡亖	-8.25273
i	-8.25315
仍	-8.25564
伲	-8.25679
▁亽亐	-8.25771
▁13	-8.2582
仿	-8.26629
u	-8.26655
▁亴伄亟	-8.26766
倐	-8.26976
予亶予	-8.27199
亏伽仡	-8.27726
]]	-8.27829
▁偫	-8.27931
伐	-8.28023
▁仉亊	-8.28069
▁伃仾亇	-8.28309
▁仉仂	-8.28421
▁亪伄	-8.28432
▁仵	-8.28483
▁亮仩伺	-8.29001
▁俍	-8.29006
倀	-8.29016
侰	-8.29037
▁价亭伮伐亇	-8.2945
仓亭伟	-8.29507
1	-8.29938
佝	-8.30252
▁亅伫亟	-8.30338
▁佂什些佛	-8.30386
仉佴	-8.30485
仮仇于	-8.30494
R	-8.30739
▁側	-8.30789
▁仢侀	-8.30828
亵	-8.30937
▁予俔	-8.31023
▁价亦	-8.31069
▁价佇仅	-8.31117
▁佭亨亟	-8.31154
偃	-8.31294
er	-8.31718
伈令	-8.31835
▁亅亣	-8.3184
▁仈侘	-8.319
▁亃事	-8.32069
B	-8.32266
▁仍予亳	-8.32435
侲	-8.32456
▁亓亘伨亖	-8.32475
k	-8.327
▁些亭亇	-8.32706
▁些众予	-8.32718
▁云亭会些	-8.32932
4	-8.33303
伫	-8.33699
▁亓仏似些仄伺	-8.33961
▁侬	-8.34448
c	-8.34509
▁伲争予什亖	-8.34561
偓	-8.34585
余亜亟	-8.34876
▁价仇	-8.35103
▁亻仞仡	-8.35132
侖	-8.35207
俸	-8.35257
享亟	-8.35297
▁[[	-8.35522
亹于	-8.35565
亶	-8.35642
D	-8.35731
▁亂亜	-8.35898
T	-8.35976
仯亟	-8.36073
▁亓亳伇	-8.36122
亾仅	-8.36192
側	-8.36377
▁亓亘	-8.36435
▁仧仏亙	-8.36459
r	-8.36598
▁于亡	-8.36858
▁二人会	-8.3707
▁仍享亮仺亻仏于	-8.37229
会亊五	-8.37464
▁亴仏亙	-8.37543
▁份事	-8.37568
佽	-8.37636
▁云亳	-8.37819
▁B	-8.37969
伈仕亇	-8.38133
亝亖	-8.38426
▁二亍些伺	-8.38516
亻亼于	-8.38524
亊亇	-8.38658
▁予亦	-8.39002
井	-8.39062
俔	-8.39091
▁亓侈	-8.39159
亟于	-8.39261
伐亇	-8.39415
亨仏于	-8.39841
▁价佴	-8.39854
▁价亃仂	-8.40028
▁位	-8.40188
▁信	-8.40444
伕亳亇	-8.40448
伅亖	-8.4046
O	-8.40464
▁付亊	-8.40644
▁价亳倐亇	-8.40731
仙	-8.40766
▁份仺	-8.40829
▁仮些亗	-8.41056
予什亰亇	-8.41104
▁井亃仉	-8.41114
伐仡	-8.41345
债	-8.4149
▁亮互	-8.41515
▁A	-8.41775
仯亖	-8.41784
亂亡	-8.41855
卢	-8.41865
値	-8.41965
5	-8.42086
▁井亸伂	-8.42211
▁伲争	-8.42228
▁亃代于	-8.42346
▁C	-8.42424
些五	-8.42756
仌仓亭伟	-8.42828
亩亪亇	-8.43124
▁仦亻亟佃	-8.43325
▁亽人	-8.43402
倖	-8.43534
产于	-8.43718
▁侈佃	-8.43787
仐事	-8.43787
▁儝	-8.43906
ar	-8.44026
以	-8.44298
▁亷亸亹人亇	-8.44306
▁仐仏	-8.44474
▁佤	-8.44502
予亚令	-8.44613
b	-8.44706
▁价仄亨亟	-8.44889
▁亓伄仉亟亖	-8.44987
▁京亭亐	-8.45096
了亹亗于	-8.45283
L	-8.45434
了亇	-8.45617
m	-8.45667
▁仈仓	-8.45676
▁云仺	-8.45859
▁P	-8.45981
▁亱	-8.46051
▁of	-8.4618
仹	-8.46278
▁些仆	-8.46282
估亐	-8.46313
些介	-8.46486
▁亂亜仕亇	-8.46563
▁偃	-8.46635
▁仸亜亟	-8.46767
F	-8.46838
▁任产	-8.46845
▁亅亊	-8.46847
亩予伂亇	-8.46937
促	-8.47149
伴	-8.47232
俬	-8.47311
,000	-8.47378
▁仐仺些仇	-8.47601
▁云亷	-8.47653
▁价亟了	-8.47797
兹	-8.47873
▁亓仆仉亖	-8.47882
▁亴些	-8.47888
亿伽仡	-8.47903
▁云众	-8.47937
▁亓亦	-8.48102
I	-8.48202
▁伋	-8.48396
▁井亭今了	-8.48467
▁亓佉	-8.48577
▁价倖伟	-8.48652
▁仮仒	-8.48949
伇五	-8.49073
亿亚	-8.49103
▁亓健亅伺	-8.49122
仄亇	-8.49199
▁仉亚仅亥	-8.49214
予亶亖	-8.49373
▁佤亳	-8.49426
▁亪仞倾	-8.49464
任	-8.49525
▁些亳	-8.49589
in	-8.49598
▁仃仄	-8.49612
▁亃倾	-8.49618
▁二亍亦	-8.49794
▁亪亭	-8.49982
▁亮亭亇	-8.5004
▁伲仄	-8.50292
▁二亇	-8.50316
▁仐事伧亖	-8.50401
▁予僂亾	-8.50562
d	-8.50647
亝于	-8.50663
伃	-8.50863
▁任伿于	-8.50946
佘仕亇	-8.51069
▁亮亭亯亰亇	-8.5113
▁佭伟	-8.51139
▁亓予	-8.51329
▁亓享	-8.51397
係	-8.51511
▁亅佉	-8.51521
▁保	-8.51667
▁侫仮伺	-8.52015
▁价亭亨仏于	-8.52018
▁亽亥	-8.52093
傒	-8.52153
▁仐仺些仇亇	-8.5222
▁予仄	-8.52225
H	-8.52377
▁仈佚亪亇	-8.52391
▁伕仏	-8.52394
ur	-8.52396
▁亓亜亹享伧亖	-8.52401
▁亪伄伮亗	-8.52578
▁亮亟	-8.52638
▁亓俤五	-8.52704
▁亂亃俶亳	-8.52797
▁亽争五	-8.53045
亯	-8.53055
▁亘亟	-8.53086
▁亞仿	-8.53129
仫	-8.53141
▁亂亃仓亖	-8.53354
仉亟亖	-8.53423
N	-8.53506
▁伇云	-8.53531
們	-8.53604
▁价亃侀	-8.53665
▁云仌亟	-8.54004
▁侳	-8.54059
▁亷亸	-8.54175
亿伽亇	-8.54186
▁俖	-8.54256
▁亓亳亴亟亖	-8.5438
▁二仇份	-8.54417
亍	-8.54564
▁傱	-8.54608
▁井仾	-8.54785
h	-8.54879
▁仍些侐伺	-8.55476
6	-8.5567
▁亅亟亍人仌	-8.5569
▁)	-8.5571
俜	-8.5576
or	-8.5578
▁佂亹	-8.55892
亹争	-8.56142
▁亞伾	-8.56206
亪亇	-8.56425
▁佔	-8.56544
▁M	-8.56712
▁佢伺	-8.5679
en	-8.56861
▁二仇亹人亇	-8.56978
今予	-8.57017
▁价亊亇	-8.57342
▁仵亊伛	-8.57435
▁仦伺	-8.57508
亴亟	-8.57512
佐	-8.5756
▁亷俔	-8.57773
▁倬	-8.57798
▁亅亗	-8.57847
▁佃会	-8.57872
▁亊	-8.57898
▁井亊	-8.57934
▁30	-8.57972
▁价佇仅仉亖	-8.58123
佘仠	-8.58123
仉亊	-8.58217
佷	-8.58271
▁予亭会	-8.58383
▁卡	-8.58387
▁伇云亟	-8.58394
▁亓亃侀	-8.58572
f	-8.58598
▁亓伪	-8.58775
倇	-8.58778
▁亓些	-8.59228
▁二佛	-8.5932
▁仦仾予什亖	-8.59937
▁亓众伧五	-8.60119
▁亪亜	-8.60153
▁仅	-8.60302
亏亚仕亇	-8.60475
仇亇	-8.60581
▁仫佃	-8.60772
些亭亇	-8.60974
亳亇	-8.60995
l	-8.61006
伮亖	-8.61091
▁19	-8.612
亰仡	-8.61267
▁二仯伐亇	-8.61872
佰	-8.61887
▁亂仛	-8.61986
▁仵亊	-8.62001
争亖	-8.62068
▁价亭佝伺	-8.62157
予伽亊五	-8.62284
亻佬伺	-8.62562
▁亷仄亇	-8.62764
▁仢亖	-8.62788
am	-8.62792
▁云于介	-8.62799
▁侺	-8.6281
▁仉仮仇	-8.62947
▁些伟	-8.63057
▁25	-8.63082
▁些亭	-8.631
▁仸亊	-8.63177
亟五	-8.63182
▁亓亣亖	-8.63278
▁些亭亻仏于	-8.63308
▁亂亡伧亖	-8.63308
仌亟	-8.63358
佈	-8.63362
▁亂予	-8.63596
▁亮仒于	-8.63759
▁亅债亥	-8.63798
俎	-8.63983
▁亓亭	-8.64023
on	-8.64191
▁价仺亣	-8.64262
▁仉亭于	-8.64296
)"	-8.64698
▁伕仯亃	-8.64816
▁亪亡佛	-8.64867
▁二五	-8.64983
▁井伧	-8.65053
▁仨亖	-8.65261
▁仦予	-8.65367
▁付于亷亙	-8.65757
▁伃亗伺	-8.65809
▁亪人侐	-8.65904
▁伇于亳	-8.65987
▁亞佩	-8.66026
▁仓	-8.66098
20	-8.66098
亲	-8.66119
▁伇亏	-8.66131
▁亻俄	-8.66568
▁价佛令	-8.66702
▁2008	-8.6684
▁伲争伧亖	-8.67246
仉亟	-8.67289
▁仦伉仄	-8.67466
▁二仇伂亇	-8.67605
▁亪伄伨予	-8.67683
▁予介	-8.67687
仡令	-8.67803
▁亂亟侇	-8.6828
▁仭	-8.68319
仱亖	-8.68435
▁些优仅予	-8.6846
▁些亜些	-8.68694
仉侀	-8.68828
▁价亳倐些于	-8.69167
▁亞仹	-8.69288
伲于	-8.69399
G	-8.69442
亨亼仇	-8.69489
伽	-8.69615
▁亣亭仉做今予	-8.69677
▁亮値	-8.69858
仇于	-8.69989
▁仧亳侈伇	-8.70024
伮五	-8.70055
▁仉亣	-8.70062
▁亞儼侐伺	-8.70115
▁仐事亟亇	-8.70164
▁"(	-8.70263
ing	-8.70319
▁仐亣	-8.70351
▁仝亾亟	-8.70389
▁云亡	-8.70416
▁些伎伧亖	-8.7049
▁仧亾伅仯亟	-8.70528
▁价伉亱伟	-8.70783
▁亮亭亯亱仇	-8.70806
侣	-8.70824
亄	-8.70953
▁仸仺	-8.71092
▁亅亪亣予什亖	-8.71272
g	-8.713
们	-8.71442
▁二仛亣亟	-8.71583
仓亟	-8.7162
▁京亭亶亩亳	-8.71745
▁井亾亘	-8.71907
▁仃仄仮予	-8.71931
▁剏	-8.72087
▁亞俀亇	-8.7213
▁亃事亘	-8.72132
▁亴亻偿	-8.72348
▁亃佁	-8.72413
僜	-8.72565
▁亂亨亟仮仇	-8.7257
▁佖仙人亇	-8.7263
▁二佴	-8.72631
▁亞亟	-8.72631
▁偠	-8.72697
倫	-8.72817
些亳	-8.72834
亿亶亖	-8.72849
伊伆	-8.72875
会亡	-8.72985
亏亚仠	-8.73004
修	-8.73031
▁(19	-8.73037
▁亽人予什亖	-8.73054
▁于人伨亗	-8.73451
▁任仾俥伺	-8.73509
亭仡亇	-8.73582
▁亅伧侇	-8.7359
▁云亥亇	-8.73807
偛	-8.73903
▁些亊仡	-8.73984
偁	-8.7403
▁仉人亃事	-8.74034
▁仧仏佛	-8.742
儀	-8.74217
▁价亟侽	-8.74305
仐	-8.74433
▁价亊仌亖	-8.7447
亃亇	-8.74532
▁仄	-8.74571
亹亥产仇	-8.74604
亜亟	-8.74723
▁仍予亳亇	-8.74761
▁伲亼佃	-8.74774
了亚	-8.74799
▁仦亻佦伺	-8.74914
▁亩些亳	-8.74969
▁亞佺亇	-8.74982
▁二亣	-8.75194
伈亢	-8.75208
了亹亥	-8.75246
▁云仇	-8.7561
佋	-8.75631
V	-8.75703
伂仡	-8.75784
▁僵	-8.7586
▁亷亸亹人亻仏于	-8.75898
偳	-8.75909
▁予亊亖	-8.75952
佘令	-8.7597
亹人	-8.76136
▁仮亃	-8.76202
▁0	-8.76383
亿	-8.76608
▁仦仱俵	-8.76739
倱	-8.76788
伱	-8.76851
▁云亸	-8.76855
佤	-8.7688
x	-8.77133
侩	-8.77264
▁些亳亱互	-8.77334
▁佖偷亖	-8.77416
▁亅亟亍人亝	-8.77425
▁仍亊佛	-8.77434
▁于人伨亗伵亳伺	-8.77617
▁交偞亟五	-8.77667
仅予伂亇	-8.77741
▁仧仏佝伺	-8.77784
▁亾	-8.77825
▁仦仼五	-8.77902
8	-8.77991
仁交	-8.78037
▁予亗	-8.78057
円	-8.78217
俞	-8.78307
亃五	-8.78331
ri	-8.78399
亹亜	-8.7853
▁仐侰	-8.78559
些亩予	-8.78609
亏什亰亇	-8.78611
▁亽亊予	-8.78751
▁亓亜亹享	-8.7882
▁京亭	-8.78865
▁亃交兕	-8.7896
伝	-8.78994
些亦	-8.79026
▁伲伺	-8.79148
▁亅了	-8.79221
▁予伿	-8.79262
▁仍享亮仒	-8.7938
▁伏亨	-8.79382
伪	-8.795
7	-8.79551
▁H	-8.79615
▁亅仞	-8.79724
▁亣仏	-8.79775
亿什亖	-8.79797
▁侍佥	-8.79867
▁今儘	-8.80081
p	-8.80097
▁D	-8.80155
亰产	-8.80162
▁亓伄亟	-8.8029
▁亓人亝	-8.80372
▁侭	-8.80406
▁21	-8.80492
▁二仇仠	-8.80512
亹亃侀	-8.80546
▁仈亭些伺	-8.80643
佭	-8.80925
▁仧亾伂	-8.80947
▁亅以亟	-8.8099
佋亚	-8.81055
仕产	-8.81122
▁仉亥	-8.81192
▁些佛于	-8.81249
▁亣予亣	-8.81274
▁仸亗	-8.81468
▁2009	-8.81514
▁享	-8.81664
些伎	-8.8175
▁24	-8.81887
▁仨仩仼亖	-8.81888
▁价五	-8.8197
伀	-8.82008
伡予	-8.8206
▁付仄	-8.82064
▁G	-8.82212
亏亶予	-8.82537
亃亳	-8.82539
仝	-8.82549
▁亮仏	-8.82588
▁二伔	-8.82607
伞	-8.82638
▁亃亏亐	-8.82898
▁亣介亹亊亇	-8.82947
▁亓亣予仮予	-8.82987
|	-8.83109
▁仐倹予	-8.832
俧	-8.83234
▁亷亸亹人亻亼仇	-8.83246
佝伺	-8.83284
▁二仛会	-8.83369
▁二仛	-8.8343
▁仨	-8.83445
▁仵优伙伓	-8.83856
▁2010	-8.83932
▁井亟伺	-8.83955
▁佰伺	-8.84169
仅伺	-8.84204
▁亃交仞予	-8.84347
is	-8.84425
▁典	-8.84433
▁亓亭亻亖	-8.84501
刻	-8.84526
亹人亝	-8.84548
▁亂五	-8.84626
仮予伂亇	-8.8491
▁亓些亭享亟	-8.84911
亩五	-8.8496
▁22	-8.85011
▁仍人	-8.85022
▁价亭了	-8.85034
仆伂	-8.85048
偢	-8.85062
▁伲争予什亰亇	-8.85088
▁侰	-8.85433
▁亅亣伂	-8.85621
儣	-8.85765
争五	-8.85925
▁2007	-8.85934
▁=	-8.85945
倾	-8.8597
伸	-8.85972
侂	-8.85999
▁仕	-8.86122
▁亃云于	-8.86142
▁任僰	-8.86159
偈	-8.86164
▁些仞仡	-8.86191
▁些仞亏	-8.86192
仪	-8.86192
▁F	-8.86194
▁云予	-8.86263
▁二仛亣	-8.86294
▁T	-8.86295
▁价仱	-8.86332
▁二値	-8.86445
佡	-8.86501
▁予众仯	-8.86608
00	-8.86661
亱予	-8.86714
▁予亭仉	-8.86849
亨佬伺	-8.86899
le	-8.86901
K	-8.86915
▁井介	-8.86924
_	-8.86987
▁亂亡亹亜	-8.86992
▁井亸	-8.87068
▁云亃	-8.87207
▁亮亟亾亖	-8.87223
0	-8.87772
▁亃享	-8.87858
倬	-8.88058
▁侈亣	-8.88073
▁亓些亭仡	-8.88082
ra	-8.88125
▁仧仱	-8.8815
▁亅亃仉	-8.88232
]	-8.88346
▁亓侲亾伵	-8.88394
佴	-8.88473
亼	-8.88754
as	-8.88767
▁二個伴	-8.88855
亹人亻亼于	-8.88875
▁仫侑	-8.89089
▁仁事	-8.89178
▁二佛刞亭	-8.89213
▁仍享亂亡	-8.89315
▁亴亵	-8.89651
▁亘	-8.89742
ed	-8.90047
▁亪伄仡亇	-8.90063
▁亪伄会	-8.9013
▁井亭	-8.9022
▁亞偄伺	-8.90228
▁L	-8.90276
▁些亾伥	-8.90281
▁伏倿	-8.90333
▁亮亭仮亐	-8.90416
▁仵事伵俔	-8.90466
▁些亾	-8.9054
▁伕侏	-8.90541
亱仇	-8.90557
▁仨仩仾	-8.90597
▁侩仇	-8.90644
▁价些亿亐	-8.9077
伈仜	-8.90871
▁仍予亾亖	-8.90872
▁亃仆	-8.90884
at	-8.909
▁佖亾	-8.91017
了亹人亻仏于	-8.91061
▁2006	-8.91068
ic	-8.91214
▁井亊亖	-8.91284
us	-8.91373
▁佳侀	-8.91407
佖	-8.91426
▁亓些介	-8.91448
亹亪亣	-8.91531
▁云亣亙	-8.91533
▁价些亭仡	-8.91652
il	-8.91847
倹	-8.91905
▁仈佚予	-8.91951
▁亓亘佛	-8.91988
▁仵优亖	-8.91992
▁仮伄	-8.92072
▁亓亩些于	-8.92088
▁予亥	-8.92159
▁亞倰	-8.92221
▁佖仙亗	-8.92267
▁予亭亃亹人亻仏于	-8.92301
亃侀	-8.9233
佢	-8.92407
▁仵事仉亖	-8.92506
▁仮仐仄仌亖	-8.92512
▁亂仛些于亇	-8.92523
伬于	-8.9255
僣	-8.9256
伂亊五	-8.92568
你	-8.92568
▁云仂仉	-8.92572
▁俸亃仂	-8.92633
▁N	-8.92657
亅亜	-8.92666
▁仍仹	-8.92782
▁23	-8.92971
侏	-8.93056
▁二亾	-8.93066
▁伇仱伇亾	-8.93123
▁亓事	-8.9323
▁些亗	-8.93339
▁仉做	-8.93398
▁仦亻亟些仔	-8.93501
▁付亊亖	-8.93521
▁仵优	-8.93547
▁价佻仺	-8.93577
▁伥	-8.93601
▁价亊亏什亖	-8.93844
▁井侏亗	-8.93929
▁付亣	-8.94058
▁仍予	-8.94089
俍	-8.94101
了亹人亇	-8.94178
▁伲争伧亰亇	-8.94193
▁亓以了亹人亻仏于	-8.94258
19	-8.94274
▁云了什五	-8.94328
▁价仱伪些	-8.94412
仯仅	-8.94441
俤	-8.9451
▁formula	-8.94613
▁E	-8.94636
仌亳	-8.9469
▁亅亭些	-8.94721
傈	-8.94762
▁些亳亱仺	-8.9479
俆	-8.94851
侃	-8.94983
亷仄	-8.95252
10	-8.95303
▁伇儋	-8.95316
▁井仄亻五	-8.95355
佇亳	-8.95441
佳	-8.95465
▁予享亴仅予	-8.9548
佮	-8.95531
予伺	-8.95538
▁亻亾	-8.95662
▁亃仉亳	-8.95701
▁仮亷亸	-8.95775
▁亅亳	-8.95943
仅仆	-8.96117
佺	-8.96271
▁些伉	-8.96456
▁伇偠	-8.96528
▁侫伫	-8.96761
▁佢伿	-8.96769
▁佭仭伮亟	-8.96836
▁亅亾	-8.96877
▁修伂	-8.97064
ch	-8.97118
re	-8.97134
▁亂亜伂	-8.97264
▁价佛仠	-8.9743
▁予争	-8.9759
▁价享伆	-8.97614
▁仦仾予亐	-8.97649
it	-8.97763
▁亣亗	-8.97763
▁价些	-8.97782
▁侍仉亖	-8.97947
▁井仺伮仇仱予	-8.98066
倰	-8.98127
▁住	-8.98143
▁仫偋	-8.98173
▁亓俽于	-8.98193
些亭	-8.98224
▁亂亃	-8.98336
▁仢仙亗	-8.98342
▁亅亟亍人亝亹人亻仏于	-8.98498
▁仐予僭	-8.98547
▁价亳	-8.98554
▁侈些	-8.98588
▁二亣仱予	-8.98732
▁亓亃仂	-8.98869
佔	-8.98898
今仇	-8.98934
st	-8.99027
仃	-8.99065
佚	-8.99122
▁R	-8.99179
倨	-8.99205
▁俲	-8.99283
▁佳五	-8.99332
▁他	-8.99539
▁价享	-8.99615
▁亃事些伺	-8.99663
▁云亵	-8.99781
佁	-8.998
▁仍亊些亜伴	-8.99844
俥伺	-8.99953
▁仮亣亾	-8.99957
▁亓些伫五	-8.99982
亭亊五	-9.00054
el	-9.0006
云事	-9.00074
▁伇亗云亼	-9.00115
▁云傞亭	-9.00152
▁仍俟伴	-9.00185
僫	-9.00449
佘仜	-9.00459
▁仮互	-9.0048
▁亞伤亹亗	-9.00502
▁亅佉任倐伺	-9.00753
▁仮仐仄仌五	-9.00786
▁亓交仄	-9.01101
▁井仺亣	-9.01209
人亇	-9.01233
▁the	-9.01243
th	-9.01256
▁亮仺	-9.01301
▁偽	-9.01323
▁亅亟	-9.0148
▁些伇亣	-9.01503
個	-9.01528
傘	-9.01633
▁任人	-9.0169
▁仮偪	-9.01829
▁仦亗	-9.02179
▁仵亪亙	-9.02232
些亩亖	-9.02235
▁亣亭云亸亇	-9.02423
亂予	-9.02427
▁亂仂	-9.02514
▁亷亥	-9.02561
▁亅佋事了仞予	-9.02615
伧仂	-9.02784
▁亻亚	-9.02958
亝仇伺	-9.03078
▁亓优	-9.03204
倻	-9.03347
伧仇	-9.03373
仌仂	-9.03403
▁仐亳	-9.03406
▁付侂亹亗	-9.03513
▁今債	-9.03578
▁价仄偢伧五	-9.03593
了亖	-9.03715
▁亅亗亇	-9.03812
▁亪伄亝	-9.03849
▁亽人予亐	-9.03861
仡亐	-9.03887
▁价倖亟	-9.03967
▁价仏亙	-9.03969
依	-9.04123
▁亓亳亴五	-9.04361
亶予	-9.04434
価	-9.04673
▁仉仆了	-9.04776
▁亃仅亾	-9.04851
▁2001	-9.05009
▁亪什	-9.05071
仩	-9.05104
▁价亳亝	-9.05254
▁些亜	-9.05323
亨亟	-9.05411
侰伺	-9.05454
▁亂债亐	-9.05457
▁仦仾予伽仡	-9.0563
▁仦亜	-9.05645
▁俖亳	-9.05681
▁亓伄	-9.05724
▁亣亭仉做	-9.05751
倛	-9.05908
了什五	-9.05995
亻亼仇伺	-9.06007
做	-9.06285
▁井享	-9.06428
▁仉事	-9.06554
云五	-9.06569
予伽仡亇	-9.0665
估	-9.06709
▁仉亚仅亥佤亳	-9.06737
▁仦亳侐	-9.06759
es	-9.06883
▁2014	-9.07022
▁亣介亹亊仮亪亇	-9.07041
▁伕于	-9.07126
刷伺	-9.07215
▁亪仺	-9.07281
▁仉仙仂	-9.0731
亹作伺	-9.07398
俥	-9.07439
▁仉亅亳仡伄亙	-9.07463
▁予亸	-9.07477
▁仧冃	-9.07507
▁住优伧亖	-9.076
▁26	-9.0762
亭伟	-9.07825
▁仦仒亖	-9.07861
了什亖	-9.07872
▁仵亊了	-9.07889
▁亃亏	-9.07901
▁仸伄	-9.07904
侾	-9.07934
ation	-9.08108
▁云伿仄	-9.0819
9	-9.08197
俻	-9.08204
什五	-9.08213
▁佂冃	-9.0846
傠	-9.08485
▁价亟	-9.08665
吮	-9.08668
▁佐	-9.08689
▁二仛亃	-9.08692
▁亓些亿什五	-9.08806
▁亪伄伮亊	-9.08936
▁1,	-9.08978
佛于	-9.09003
▁[	-9.0903
些优	-9.09059
▁儣	-9.09076
▁27	-9.09093
▁亣亗仌五	-9.09118
▁亓亃伡亖	-9.09134
亸亇	-9.09199
▁亓人会	-9.09208
今五	-9.09221
▁俸仞	-9.09226
伅五	-9.09242
▁仵亊伍仇	-9.09307
▁100	-9.09347
▁伕仉	-9.09361
作伺	-9.09376
▁份亣	-9.09386
▁侫亃佇亳	-9.09417
▁任产仉佴	-9.09526
▁予仆	-9.09779
▁些伎仅仇	-9.09896
▁井俄予	-9.0992
信	-9.0993
仐仄	-9.10058
▁伇亾	-9.10208
▁亻侘了	-9.10234
▁价亭亹亩亖	-9.10395
佮仾	-9.10446
▁你	-9.10487
▁I	-9.105
亹伺	-9.10633
▁亴些五	-9.10798
▁任倐伺	-9.10943
▁侫今交	-9.11145
▁价仿	-9.11185
▁些仞伉	-9.11216
▁今亳	-9.11395
仅仆伺	-9.11525
▁佖仛	-9.11553
余	-9.11586
些亃佱予	-9.11623
儝	-9.11685
伧亟亖	-9.1169
亹亗仇	-9.11885
▁28	-9.11952
▁仐事亟	-9.11993
▁今仛亇	-9.12053
ul	-9.12117
傅	-9.12121
▁伕仄	-9.12135
ir	-9.1221
▁亂僃	-9.12211
▁些亟于	-9.12253
▁仈侅	-9.12559
亴仅	-9.12778
▁仵亊伺	-9.1286
仑	-9.12869
▁仉人	-9.129
凖	-9.12942
▁付亳侐亾亟	-9.12987
?	-9.13019
ad	-9.13047
▁侫互	-9.13058
亣亖	-9.13126
份仾亇	-9.13167
亗亇	-9.13197
亟俤五	-9.13391
偗	-9.1342
▁井享亟	-9.13515
▁侈倘仓亖	-9.13649
▁亜伇侐伺	-9.13743
些仱予	-9.13833
冫亳伺	-9.14117
▁交予侦亾亟	-9.14162
亏亚令	-9.14297
▁2012	-9.14351
▁伇仇些亾	-9.14458
兽	-9.14491
▁亻伄亝些	-9.14501
▁份仼亟	-9.14501
亹亊仉佴	-9.14567
▁亓亣	-9.14595
▁予众亃	-9.14619
▁仍佤仇	-9.14656
亹享	-9.14745
凇	-9.14754
▁伇倾	-9.14954
▁井俥伺	-9.14971
▁些佝伺	-9.1522
▁云亳伕	-9.15369
▁二仇令	-9.15458
▁佂亹仐事	-9.15521
▁:	-9.15559
▁价亟了仌亖	-9.15658
▁侼仉亟	-9.15713
▁亃倚冚伺	-9.15725
▁今佌僸	-9.15817
▁俖亳仌亖	-9.1583
▁K	-9.15988
▁云予五	-9.15995
▁傃	-9.16043
仕产于	-9.16044
▁佡似	-9.16103
▁2005	-9.1615
▁仸亥	-9.16216
侳	-9.16224
▁价亭佛仇	-9.16292
▁今僇	-9.16333
侦	-9.16342
云亖	-9.1635
予五	-9.16369
亅亣	-9.1642
亩予仠	-9.16456
侻	-9.16492
予亶仇	-9.16579
云众	-9.16597
仱予伂亇	-9.166
50	-9.16656
▁伇們侈伇	-9.16656
▁亪伄伮亊亝了	-9.16669
▁京于今仇	-9.16691
▁佷	-9.16767
些亃佱仇	-9.16802
▁予争亊	-9.16829
▁价亭亨亼仇	-9.16908
▁云以	-9.16956
▁佧人倚事	-9.16959
停	-9.17185
▁亣介	-9.17192
▁仱側	-9.17273
▁仃佚亇	-9.17566
▁价伆侫	-9.17614
U	-9.1776
▁亓亣予仮仇	-9.17809
▁伋亖	-9.17859
▁亷佇	-9.17862
▁价亭了亱亇	-9.1787
▁亪亸	-9.17881
▁伏了	-9.17917
▁伲亖	-9.1792
▁井伩	-9.17995
▁仉亚	-9.17998
▁亅亪亣予亐	-9.18052
仉亰亇	-9.18129
▁亓仆	-9.18196
亊亖	-9.18213
15	-9.18269
仈	-9.18307
▁亂亵伺	-9.18371
▁亓亾	-9.18383
仄予	-9.18445
▁仨仩仼五	-9.18491
▁井仺亙	-9.18656
▁亓伐云亣	-9.18761
估亚	-9.1881
▁亃亭	-9.18869
!	-9.18937
ol	-9.18975
▁些仞佉	-9.19068
▁仮伫	-9.19077
z	-9.19158
▁份亣伧亟亖	-9.19257
▁今倜	-9.19331
亻亼	-9.19404
佋什亖	-9.19463
▁亣伥	-9.19502
伽仡	-9.19654
仸	-9.19676
仉亥	-9.19714
▁亅仯	-9.1981
▁云仄	-9.19826
▁些亭亊	-9.19983
▁伇佇	-9.19983
今伺	-9.20047
▁佃了	-9.20161
▁亪亡今仇	-9.20297
倉	-9.20324
▁仦些亸	-9.20331
伓	-9.20333
▁仦亴亾亟伺	-9.20624
仮予仠	-9.20721
伧仇伺	-9.20727
▁井亭些	-9.20832
▁伇亗亇	-9.20858
▁些亜些亘	-9.21154
▁亓倖	-9.21194
▁价些亾五	-9.21229
▁侈倘亖	-9.21234
佅	-9.21262
▁2004	-9.21342
▁二亣仱仇	-9.21351
▁井亭今亨	-9.21557
伨予	-9.21719
▁价佲	-9.21762
侯	-9.21766
侐争	-9.21817
▁免	-9.21823
▁亅佋事了仞予仌亖	-9.21859
佌伺	-9.2213
▁2013	-9.2214
云亏仄亇	-9.22209
佘亢	-9.22249
▁仅儤亸	-9.2228
▁仮些亗仌五	-9.22319
▁亃伖享亟	-9.22334
亃佱予	-9.22435
▁亓亳	-9.22442
▁亃事些仱予	-9.22513
▁仉伥	-9.22532
un	-9.22604
▁仝仞	-9.22643
▁付亊佋亐	-9.2276
▁伋佛	-9.22794
▁W	-9.229
▁佔五	-9.22907
ter	-9.23071
▁亪亜亟亳侫	-9.23122
▁亓些仔	-9.2317
亳侫	-9.23181
▁2000	-9.23195
刡	-9.23271
位予	-9.23299
▁仵亊伉	-9.23447
▁付俹	-9.23561
▁亅亳些亱予	-9.23562
▁任仼亭仡亇	-9.23682
伖	-9.23694
▁亅亟仴人	-9.23734
仆亇	-9.23735
偆	-9.23878
30	-9.23885
▁亓伄仉	-9.24044
僛	-9.24193
亹亥产	-9.24224
亃事	-9.24235
▁亅伧	-9.24449
▁井亭今了亹亗	-9.24465
▁予亊伝介	-9.24495
▁亅亾伟介	-9.24496
伵亳	-9.24511
▁亃仄	-9.24534
▁s	-9.24583
▁价亟佇亳	-9.24585
▁29	-9.24613
会些	-9.24636
▁仍亜亝	-9.24674
▁亓什	-9.2472
▁价仺亣伧亖	-9.24841
▁伇仪	-9.24866
12	-9.24937
▁亽争亖	-9.25064
▁些俧予	-9.25081
▁二亍些	-9.25284
▁亽位伽云亼	-9.25461
▁价亝伎亟	-9.25631
▁亃交优亖	-9.25649
▁亓伄伴	-9.25708
▁50	-9.25751
ro	-9.25782
▁亅亟亍人会	-9.25791
▁价倕	-9.25852
予什	-9.25892
▁亅仏佃	-9.26046
▁亓会亊五	-9.26129
▁佖仒	-9.26151
▁亓享仅仆	-9.26192
▁亓侲亾伵仉亖	-9.26416
▁京亭侵亐	-9.26452
侄	-9.2652
▁仵亊伛享亟	-9.26567
▁予仾	-9.26569
▁亣亭亝倾	-9.266
▁仦伿	-9.26631
会仠	-9.26699
予伽伵仇	-9.26702
亹人仌	-9.26705
件	-9.26771
▁予亾云	-9.26897
▁伇佇亳	-9.26918
▁二亥	-9.27006
▁价伔亃	-9.27024
云亳	-9.27182
▁亂亃亱亇	-9.27203
um	-9.27266
偠	-9.27315
▁今予仇	-9.27472
▁劃	-9.27472
▁亃偮	-9.27511
▁予众	-9.27635
僾	-9.27655
仌佱仇	-9.27719
▁2016	-9.27739
侑	-9.27761
伧亰产	-9.28014
-19	-9.28103
▁亅众仅伫伡伺	-9.28122
伽亇	-9.28287
▁仦伴	-9.28375
▁亓以了亹人亇	-9.28491
▁侈佃仅仇	-9.28682
▁仍亊	-9.28704
▁亃会些	-9.28771
▁价亡	-9.28993
亟仒	-9.28996
▁任仼亭佛	-9.29036
j	-9.29038
▁价于份	-9.29401
▁价亳佥	-9.29413
亾亊亇	-9.29422
于亇	-9.29427
亂产	-9.29478
仔	-9.29542
亹人会	-9.29577
亹侏	-9.29616
▁伲仿	-9.29792
▁40	-9.29804
▁亓亡	-9.29804
li	-9.2984
▁仧亜	-9.29905
亏伽亊五	-9.29945
仴	-9.30132
亻佬亿亐	-9.30293
▁侬僿	-9.30346
侚	-9.30369
予亚亢	-9.30436
▁云了倪伎	-9.30459
▁仐亡	-9.30469
▁亅亟亸	-9.30492
▁亓亘了	-9.30521
伡五	-9.30556
▁伲仡些亳会	-9.3063
伌	-9.30688
亅亳	-9.30697
et	-9.30744
侄伺	-9.30746
亴五	-9.30785
▁价享伧亖	-9.30869
些仔	-9.309
▁亻伃	-9.30989
仌侀亇	-9.3102
▁交亪佛	-9.31087
億	-9.31126
▁佂傦仺	-9.31157
▁交予令	-9.31219
▁亓亣予亇	-9.31234
了亱亇	-9.31277
▁交五	-9.31376
▁价仄	-9.31508
亝佁	-9.31619
伡亰亇	-9.31726
▁予僂亾伧亖	-9.31839
仮仺	-9.31882
▁仝事	-9.31949
亳亸	-9.31961
▁仧偷些亾	-9.31978
▁予仉亦	-9.3203
今亖	-9.32041
俕	-9.32108
▁亅亪亣仅予	-9.32138
▁亞伤亹亗于	-9.32146
傫	-9.32147
▁亷亳亸亇	-9.3215
住优	-9.3217
▁仍仄	-9.32181
=	-9.32324
些伫	-9.32362
▁予亊伂	-9.32383
▁价侫	-9.32516
▁亅会	-9.32636
▁二享	-9.32676
亩仇	-9.32772
▁仵亪亣伧亖	-9.32841
▁亩了	-9.32855
▁仦亣	-9.33148
▁伕予侃	-9.33411
▁仮亾亟俤五	-9.33439
▁亽予	-9.33465
▁云亭伟	-9.33476
▁仍亜伎	-9.33555
▁仵亊亭伟	-9.33583
▁佂什伆	-9.33614
▁伊	-9.33696
俹	-9.33707
▁俠亝	-9.33716
▁佳俙	-9.33822
▁价仏	-9.33856
▁付侂	-9.33864
W	-9.34086
倲	-9.3416
▁and	-9.34177
侢	-9.34209
▁二亍仇	-9.34236
佑	-9.34381
亶仇	-9.34414
▁亓云	-9.34695
伄亟	-9.347
创	-9.34726
佄亐	-9.34751
▁仸仏	-9.34769
▁二亣从	-9.34774
▁偁	-9.34776
▁亻仱	-9.34793
▁仐仂	-9.34934
亣亭	-9.34962
▁亓伄伂	-9.34988
▁亅亟亍人亻仏于	-9.35018
▁仦些于	-9.35021
▁予亥介	-9.35026
亻亟	-9.35105
▁亷互	-9.35127
▁V	-9.35146
▁价仆	-9.35162
亨亼于	-9.35183
▁亅亾侫	-9.35232
▁云亊	-9.35294
予亳	-9.35391
▁付亦	-9.35407
▁井亊五	-9.35518
▁仐仺些仇仌五	-9.35569
▁亅仪亟	-9.35696
▁价仱云	-9.35712
▁亞亼	-9.3573
刄	-9.35871
▁俖亳亇	-9.35978
▁亮亟介	-9.36077
值	-9.36103
▁亃交	-9.36201
▁佰亳	-9.36322
伵仄	-9.36352
▁仉仆仡	-9.3637
▁仍亜伅伺	-9.36499
▁仨佋亐	-9.36564
伧亭	-9.36621
▁亓些五	-9.36629
▁仐予	-9.36632
▁佡使	-9.36803
▁亂亵众	-9.36817
▁仉仄佉	-9.36828
▁价佛亢	-9.36863
什亖	-9.36866
▁价侈	-9.36881
▁仉亭	-9.36933
▁付仌亳	-9.36937
▁亅亟众	-9.37082
▁仐予俱	-9.37114
la	-9.37119
伏	-9.37157
偁令	-9.37168
▁井伦	-9.37178
伒	-9.37213
▁亅仌亾伎	-9.37421
▁云亣	-9.37446
▁1990	-9.37518
▁些似仆	-9.37582
些亣佴	-9.37621
▁些亭亻亼仇	-9.37667
▁仧僃	-9.37754
▁价伖亇	-9.37838
亳亏	-9.37839
▁亞亟亠亡	-9.37839
▁仃佚些于	-9.37854
ha	-9.37896
▁p	-9.37908
▁价仏佛	-9.37947
仧仏亙	-9.37948
亅亗	-9.37971
▁云亭	-9.38123
▁仍亊仌	-9.38203
▁侍侎人	-9.38211
▁亓亊倫	-9.38221
▁亣亭云亸	-9.38252
▁O	-9.38419
▁亂倾亟	-9.38463
▁侘	-9.38474
▁仸伄伡伺	-9.38541
借	-9.38546
▁伱亗	-9.38556
仌佱予	-9.38567
▁予仯云	-9.38612
▁仍亊仇	-9.38682
▁仦仇于	-9.3877
▁仦偁令	-9.38804
▁仝五	-9.38869
▁31	-9.38902
些亾五	-9.38914
▁亅佋事了仞予亇	-9.39006
但	-9.39007
▁井伓亊	-9.3913
▁仉亽亟予伺	-9.39148
▁佦	-9.39162
仕俥伺	-9.39217
▁in	-9.39338
▁側仇些亾	-9.39345
俼	-9.39429
伧亊	-9.39431
▁伱仒	-9.39483
▁价仌介亹亊仌亖	-9.39537
伧伡亖	-9.39554
▁亣亭些侾云事	-9.39556
▁亓伐	-9.39575
▁些亟亣亖	-9.39709
▁亃亪亣	-9.3975
▁亃代亦亟	-9.39789
▁佂什仅仇	-9.39807
16	-9.39816
▁亓介	-9.39856
▁亃亇	-9.39949
▁价了	-9.40008
▁价亃	-9.40035
伳	-9.40045
今亪亇	-9.40158
▁伕亳俔	-9.40246
▁亓仛亝	-9.40249
仮五	-9.40265
伨仇	-9.40292
产仇伺	-9.40399
▁亅亪亣予亚	-9.40448
▁侫互亱	-9.40478
▁伕予傧仒	-9.40492
▁些仓	-9.40501
偭	-9.40681
ai	-9.40713
▁偁仧	-9.40724
▁亪伄僤人	-9.40725
劃	-9.40768
傱亓	-9.40769
▁亂会	-9.40788
▁仐仺些仇亏亐	-9.40931
▁亦	-9.41049
▁仈仔	-9.41106
▁亓以	-9.41197
刻五	-9.41303
▁亓亊佉亇	-9.41313
仱云	-9.41491
伧伊伆	-9.41586
京	-9.41644
▁今仕	-9.41721
▁京仛于	-9.41854
亜仅	-9.41916
▁伲仱亗	-9.41925
▁亅亣亙	-9.41988
▁仦伉伊亟	-9.41999
▁亪仒	-9.42105
▁c	-9.42146
▁亃亳伂	-9.42198
亳伇	-9.42248
▁亣仏五	-9.42251
▁伇亵亣	-9.42291
▁仉仆侐亳	-9.42304
▁仱云	-9.4235
俩	-9.42415
些亣亖	-9.42438
些亿伽仡	-9.42457
仡仜	-9.4249
▁伱侚	-9.42507
伍	-9.42529
予什仓亭伟	-9.42647
▁佤人	-9.42682
▁亴事	-9.4272
亨亖	-9.42781
▁亽人予什五	-9.42824
▁价佇亟亢	-9.42838
▁井亝亳	-9.42851
些仇	-9.4295
▁仁亩亳亸	-9.42957
仌亭	-9.43008
▁仦仄	-9.43037
伇伺	-9.43141
▁俄	-9.43187
▁价亃亟	-9.43204
60	-9.43219
▁仦予伂亇	-9.43281
▁些亪	-9.43345
佮产	-9.43385
▁些事	-9.43424
予亶亪亇	-9.43483
▁予仑仓了	-9.43616
▁仫侂	-9.43695
▁仉亻亃亇	-9.43778
▁仧亶	-9.43813
▁亓仹	-9.43878
▁井伧亾仇	-9.43905
▁b	-9.43909
▁亓亣亷亳	-9.4397
▁仮仒亇	-9.44009
▁亃仅亾了	-9.44151
▁仈亹佛	-9.44323
▁予享亴	-9.4434
▁予傷亥	-9.44413
▁亅亸	-9.44427
吵	-9.44457
▁仉些亾	-9.44463
▁井亟们	-9.44519
▁亴侪	-9.44521
▁亣介亹亊仌亖	-9.4453
▁亂亃亱些于	-9.44547
▁价些介	-9.44561
▁价俽于	-9.44568
▁仦仕亃	-9.4464
亘亙	-9.44641
▁仃仄余仺	-9.44646
▁倱	-9.44679
云仒	-9.44757
▁亣偞	-9.44778
▁二佚亖	-9.44794
▁京伄	-9.44819
11	-9.4484
仂令	-9.44905
▁仦亻亟些伫五	-9.44939
▁井亟	-9.44978
▁予俔伧五	-9.45016
▁予亣	-9.45123
▁亻仱云亇	-9.45163
▁倧亊予	-9.45176
亍亜	-9.45186
亻佬五	-9.45222
▁1980	-9.45234
侫今交	-9.45323
▁予仞予	-9.45438
▁仉亦	-9.45448
仱亟	-9.45495
來	-9.45516
▁伋偞	-9.4552
些亖	-9.45589
▁伋仹	-9.45595
▁亅予	-9.45605
▁云亳亸	-9.45645
偁仧	-9.45652
▁予亊佛	-9.45669
▁亓亭佽	-9.45695
▁仈亭亽亐	-9.45733
些佛	-9.45793
偋	-9.4585
佀	-9.45865
te	-9.45996
僙	-9.46016
▁二仛伅仆伺	-9.46027
▁仦値	-9.46079
▁亪伄伮人	-9.46089
▁任人了	-9.46155
▁亻享仡亇	-9.4624
▁价仄偢伧亖	-9.46295
亹位亃	-9.46361
▁亣亭佧传仓	-9.46388
▁予侚亟伄伂	-9.46388
亃伺	-9.464
▁于亡亂予	-9.46425
▁仈伀亟	-9.46481
▁亃事些	-9.46484
些亃五	-9.46491
▁付亡	-9.46643
▁井仏伂	-9.46666
亿亶予	-9.46706
▁仦亴亾亟	-9.4675
▁佂侏	-9.4677
些亾	-9.46782
▁任亜	-9.46938
仮仒	-9.46961
▁仵亊伉亟于	-9.46976
▁亞亟侽	-9.46983
伮亳	-9.47077
▁仧佐佑	-9.47211
▁价伔云亖	-9.47279
▁佂亜	-9.47305
▁价亭佝亰亇	-9.47345
▁侫亭	-9.47345
偀	-9.4739
▁他伓	-9.47406
今亃	-9.47408
券	-9.47454
▁伥些	-9.47456
偼	-9.47456
▁予仇	-9.47544
▁亷僜伕亳亇	-9.47591
▁亓侲亾伵仉五	-9.47648
▁些亭亻佬伺	-9.47661
99	-9.47663
▁伲亾亖	-9.47703
▁佢仆	-9.47742
▁付亖	-9.47754
▁佖互	-9.47838
▁亴仏伨予	-9.47854
俒	-9.47894
亷亳	-9.47924
伉亟	-9.47984
▁亓仄亪	-9.47989
w	-9.48038
▁伕亝予	-9.48038
▁亣亗亇	-9.48067
侼	-9.48113
▁佖仙	-9.48165
亹亃佱予	-9.48175
产仇	-9.48226
侀亇	-9.48244
亻亾	-9.48251
▁亃仅亾亙	-9.48273
▁亓亏	-9.48281
▁2003	-9.48317
▁亽亸亟	-9.48361
人予亐	-9.48373
▁亓仆佃	-9.48376
冩	-9.48448
▁价些亭享亟	-9.48454
▁佰亳亳侫	-9.48506
倸	-9.48538
ia	-9.48586
亂亜	-9.48849
▁仦些伺	-9.48911
伢	-9.48935
▁佖值仯亖	-9.49005
仡亢	-9.49047
▁仦亻亟仇	-9.49131
▁二亍亩亖	-9.49177
▁佖仏伅仞	-9.49191
▁价佇	-9.49202
伶	-9.49244
80	-9.49268
俁	-9.49284
▁仐仺亝	-9.49285
▁仮仺	-9.49291
佛伺	-9.49325
▁仁亣	-9.49351
僸	-9.49381
亹亩予	-9.49411
▁付仼亟	-9.49473
今亣	-9.49509
14	-9.49535
▁亓亟仯	-9.49651
二仳	-9.49674
▁些亟	-9.49788
▁亻享	-9.49829
▁傴五	-9.49896
傱价	-9.49914
仉仂	-9.49924
仂仠	-9.49964
▁亅享予亐	-9.49999
▁伕亾	-9.50052
仆伺	-9.5007
▁予享	-9.50081
▁亓亳亴	-9.50173
▁付于亷	-9.50178
▁些仞亏亹亗于	-9.50198
▁仦予会	-9.50243
▁亪仄	-9.50249
▁仧倔亭仮仺	-9.50363
▁仍俯	-9.50445
▁京亭侵亚	-9.50511
仯亟亇	-9.50531
內	-9.50537
▁井亟亳	-9.50605
▁佂什伧亊亹亗于	-9.50612
▁侍仉	-9.50642
▁亓些亿仆于	-9.50646
▁价亭些亭亇	-9.50683
▁交了	-9.50764
▁俖付仆	-9.50789
伐亊五	-9.50801
亥亇	-9.50803
▁井亭今了亹亗于	-9.50818
▁亪伄了	-9.50866
▁些亪亙	-9.50894
▁亪亣介	-9.50914
40	-9.5098
17	-9.51017
▁倧伺	-9.51044
亨亼仇伺	-9.51076
▁亻亭冊	-9.51079
▁亅亪亣伈	-9.51137
▁仍倈	-9.5114
000	-9.51158
▁仍亣	-9.51164
▁仉亚今予	-9.51202
▁亣仇	-9.51268
▁亓亳仁亏	-9.51312
仡亾亟	-9.51369
▁侫仞侇	-9.51475
偘	-9.51499
会俥伺	-9.51513
▁付予	-9.51631
▁二仛于	-9.51661
▁亅亣亱予	-9.51693
亊伐亇	-9.51711
▁亓什了	-9.51716
▁仧亳亅仄	-9.51796
▁亽五	-9.51832
▁亓亘亣	-9.51845
▁亻俄伃亗伺	-9.51896
▁亂亃五	-9.51955
今倿	-9.52017
▁仢亱伩	-9.52028
▁伕亾伟	-9.52082
▁侫仞	-9.52112
▁伇亂亩亟	-9.52171
伇仇	-9.52195
-1	-9.52196
▁价侫亱交亟	-9.52316
佟	-9.52316
▁亽侵亐	-9.52351
▁二人	-9.52391
▁仍亜予伺	-9.5242
ent	-9.52465
▁任仾产仇	-9.52574
俌佥	-9.52599
▁亃人	-9.5262
and	-9.52636
▁仉亭亹	-9.52641
▁二人会伵作予	-9.52696
▁亓傒	-9.52701
▁亃些	-9.52814
▁亅亟亍人亝亹人亇	-9.52846
▁价些伫五	-9.52848
仌仇	-9.52901
▁仍享	-9.52938
▁予优	-9.53015
▁云亵伺	-9.53101
仉仓亭伟	-9.53224
▁予亳	-9.53231
▁仅仂	-9.53283
▁价事	-9.53307
▁些亚	-9.5337
▁井伓亗	-9.53376
予伽	-9.53396
▁傴事	-9.53484
▁2002	-9.53625
se	-9.53642
仌伡亖	-9.53662
▁亷亗	-9.53678
伎伧亖	-9.53704
▁仁仌亟	-9.53738
仓仅	-9.53816
▁亓亘仕亇	-9.53819
▁仮事	-9.53828
▁佰亭伟	-9.5384
伱人	-9.53897
▁亪仞倾予亐	-9.54065
▁井亙	-9.54083
▁二亖	-9.54104
▁今儾	-9.54115
了亹亥产于	-9.54158
侤	-9.54184
佃仅予	-9.54184
伡亿亐	-9.54189
亹亪亣伧亖	-9.5423
▁今亴	-9.54257
▁亣亾	-9.54285
▁仐仂伂	-9.54301
亗伺	-9.54364
▁今供仓	-9.54651
亏什	-9.54744
▁价些仔	-9.54751
▁仦伸	-9.54775
予亚仜	-9.54797
仡亜	-9.54834
仧五	-9.54859
▁佂什伧亊	-9.54894
▁仉亻亃	-9.55066
▁佢仆亇	-9.55076
▁亣仱仉亊	-9.55095
▁仵亊伉伡伺	-9.55126
▁亃仯亹亗	-9.55156
倅	-9.55157
仵	-9.55163
▁亅仄亭亇	-9.55163
▁井仄予令	-9.55167
▁俖亳亜仅予	-9.5519
di	-9.55235
▁亷亟	-9.55256
▁井仄亻亖	-9.55359
▁二亍	-9.55427
▁价亭亹于	-9.55461
俙	-9.55556
na	-9.55659
▁亃交仞	-9.55661
偿	-9.55686
▁仦仄亟	-9.55687
▁亅仄伺	-9.55744
▁任仼亭	-9.55814
佇亟	-9.55857
▁仫俞	-9.55926
予亖	-9.55936
18	-9.55949
儚	-9.55989
伇亇	-9.56
▁亣仏亘	-9.56165
▁亞伾于	-9.56182
25	-9.56257
▁亂亡仅予	-9.56317
▁仍亊亝	-9.56454
侠	-9.56496
▁仍享亮仺亇	-9.56497
▁仧亳亅仄仮仇	-9.56497
▁些侢	-9.56573
▁些亗亇	-9.56657
亝事	-9.56712
些亜	-9.56741
▁佤亥	-9.56751
▁予仞予亇	-9.56781
▁伕予	-9.56821
os	-9.56835
▁伕亳亃	-9.56888
▁京伄伧亟亖	-9.56921
倚	-9.5694
▁份仼	-9.56977
▁60	-9.56984
95	-9.57094
▁依	-9.57128
偽	-9.57154
▁仈亭伉倖	-9.57228
争亟	-9.5725
▁井亭今仡	-9.57358
亹亊亱亇	-9.57474
亹人些于	-9.57479
▁仁伛	-9.57516
佉亇	-9.57606
90	-9.57617
▁侈仉	-9.57669
亝仇	-9.57674
▁亷亸亱亇	-9.57706
▁任事	-9.57793
▁亞亰会	-9.57803
▁仦仇	-9.57828
侴	-9.57903
ta	-9.57935
侐亜	-9.57939
侉	-9.57945
▁佳亰佉	-9.58005
侕	-9.58119
▁侼亗	-9.58181
冚	-9.58204
吞	-9.58234
▁仧亳亩仇	-9.58244
▁亅偿	-9.58263
om	-9.58267
亭佛	-9.58288
佛仇伺	-9.58338
佱仇	-9.58355
仉人	-9.58359
▁亣伇侐伺	-9.58361
▁仵事	-9.58362
▁佖仙亗于	-9.58402
▁亷亳众	-9.58561
▁价倖亙	-9.58605
予伽亐	-9.58649
▁价亊倗仒	-9.58661
▁仧亳亣	-9.5868
▁些佊	-9.58714
▁价亳伂	-9.58776
予伽伵予	-9.58783
▁亃交仞伺	-9.58838
▁云了伽仡	-9.58865
▁亩倿	-9.58883
▁些优亂亡	-9.58912
13	-9.5895
▁井傩伺	-9.59021
98	-9.59023
▁亷亳亸	-9.59078
▁佢仄	-9.59085
仅予仠	-9.59085
伇亖	-9.591
▁于众	-9.59215
▁亅亊亇	-9.59232
▁些亜些亇	-9.59238
▁f	-9.59256
亝了	-9.59298
▁1970	-9.59387
仚	-9.59391
▁亅亟亍人亇	-9.59433
▁佧亖	-9.5946
▁予亗亘亙	-9.59498
▁佖仂亟	-9.59548
▁+	-9.59562
予仄	-9.59575
+	-9.59576
仍僂伺	-9.596
id	-9.59611
▁伲亼些仔	-9.59623
▁亅亊仌亖	-9.59667
佇亭	-9.5967
佦人	-9.59695
▁亓仄	-9.59697
▁仧倔亭亇	-9.59699
▁亓些亿伽仡	-9.59761
70	-9.59765
▁仮亸些	-9.59866
▁亓亘伟产仇	-9.59923
佱	-9.59957
些亣	-9.60066
▁云亳亅伪	-9.60114
▁亓亘佛于	-9.60143
兇	-9.60166
▁价享佂什	-9.60178
▁亣亭伦偠	-9.60218
▁佖仙人	-9.60222
倘	-9.6034
▁价亭佝亖	-9.60384
▁伱伀	-9.604
▁亮亭亘	-9.60501
▁仧亳使仂	-9.60583
了事	-9.60631
▁a	-9.60661
交亟	-9.60673
▁亓侠	-9.60704
些亿亚	-9.60721
倌	-9.60742
▁仈亝	-9.60921
▁亂亜仅于	-9.60996
伣	-9.61097
▁付亊佋亚	-9.61102
▁J	-9.61235
佱予	-9.61284
▁仦亴亟	-9.61301
亹争亭仡亇	-9.61312
▁侄	-9.61334
▁侫佛亳	-9.61348
▁亂亡亘	-9.61363
▁亴亡	-9.61384
亱仆	-9.6139
▁亃伉	-9.6139
▁伕仭	-9.61402
偵	-9.61527
些仄	-9.61555
▁仁亃仂	-9.6156
▁仉亳	-9.61613
了伽亇	-9.61702
▁二個	-9.61754
▁予亱亲亳	-9.61844
▁亓伥	-9.6198
▁亴些予偢	-9.62003
ate	-9.62036
▁侍亸	-9.62048
▁二佚亰亇	-9.62075
冐	-9.62109
▁佖仙人仌	-9.62132
▁于亡伧亖	-9.62201
仌亰产	-9.62309
▁亂侞仒	-9.62314
▁侩伡	-9.62317
▁亃仯云	-9.62362
▁/	-9.62388
▁二侢	-9.62398
▁些仞佉亇	-9.62408
▁侰亃	-9.62412
▁云事仅仆	-9.62435
▁亓以了	-9.62439
▁井仺伮仇伺	-9.62467
儯	-9.62479
▁仈亙	-9.62513
96	-9.62665
▁仉儽什	-9.62747
▁1960	-9.62823
▁仐事伈	-9.62823
▁伷	-9.62908
了亹人亻亼仇	-9.6292
▁井亡	-9.62942
佂什	-9.62978
91	-9.6301
▁仦佇亳	-9.63057
▁仉仛	-9.63135
ang	-9.63158
仁伺	-9.63219
偫	-9.63237
▁佽佾	-9.63242
▁仦亻亟些伫亖	-9.63285
僃	-9.6331
▁亂佥	-9.63327
▁仸仏亹人亻仏于	-9.63331
卫	-9.63336
▁亪亭亣	-9.63379
▁亓亃	-9.63382
▁侫亟	-9.63419
侦亟	-9.63442
▁井倐	-9.63444
▁亴仄伺	-9.6348
▁侫些	-9.63495
▁伲仄份	-9.63524
▁些亭今倿	-9.6354
▁亓亜亹享仅予仠	-9.63577
仅仆亿亐	-9.63606
▁些仇	-9.63625
佃仕亇	-9.63727
些亭仡	-9.63737
▁亓亳亴亟伳亣	-9.63856
▁侫亳	-9.63969
▁二人会伵亥	-9.64047
▁仦人	-9.64048
▁价佉产	-9.64059
ot	-9.64073
侬	-9.64107
些互	-9.64138
▁亣亳些	-9.64185
▁亂亃仓亟	-9.64203
▁伇云亟亇	-9.6421
▁二亵	-9.64213
▁佢亣	-9.64217
伬	-9.64224
▁亓亣亷亾	-9.64236
88	-9.64292
嬮	-9.64307
侵	-9.64319
▁仫予亾	-9.64319
▁付众	-9.64408
▁伕亣仇	-9.64424
▁亅亃	-9.64521
▁仍亅	-9.64524
▁亓些亿亚	-9.64563
偕	-9.64579
▁今倽	-9.64582
▁亪伄亙	-9.64656
▁伕仓	-9.6474
▁亓亘仟	-9.6475
▁亪伄伮亊亝了于	-9.6495
▁价亭亹亩予	-9.64955
▁償	-9.64962
▁仝俐事	-9.64966
亅亪亙	-9.65007
傏	-9.65069
▁亷争	-9.65076
亅争	-9.65167
▁予仄佃	-9.65205
▁亪亡今予	-9.65215
▁倠	-9.65314
▁亓人仡	-9.65373
▁保亟	-9.65415
事仠	-9.65439
▁亴了	-9.65449
介仕亇	-9.65503
▁仍倨仌亳	-9.65562
ti	-9.65596
儓	-9.65729
凟	-9.65835
▁井伧伺	-9.66063
仡仛	-9.66134
▁井仄	-9.66138
▁侍仟	-9.66185
▁二仛亣仕俥伺	-9.66187
▁()	-9.6619
▁仫仄亇	-9.6626
▁亓交仄亇	-9.6631
傣	-9.66334
傍	-9.6638
▁仐仺些	-9.66415
▁二仛亃亹亗	-9.66418
▁二人了	-9.66426
▁亷亳	-9.66467
亳众	-9.66525
▁二亰便	-9.66589
▁仍伎傒佃	-9.66611
▁价亟仡	-9.66751
▁亂亨亟会些亇	-9.6681
▁仦伫五	-9.66831
劧	-9.66833
▁井傤亥	-9.66833
▁二佪仏	-9.66889
▁份亃	-9.66889
亏亶亖	-9.66938
▁付仓	-9.66973
▁价亟了亇	-9.67025
冱	-9.67111
▁价亭佛仇伺	-9.67126
▁僕仇	-9.67159
▁亽亇	-9.6718
亹亦	-9.67205
▁亮亟亾	-9.67236
▁仦亩亳	-9.6724
▁亓伄伟	-9.67323
▁仉亾	-9.67335
▁二亍些仱亖	-9.67417
▁亻亗亝亗	-9.67447
▁云亻	-9.67528
▁予亩付仌亳	-9.67558
▁仃仄余互	-9.67558
▁云促亐	-9.6764
▁亟	-9.67751
▁仦予僫	-9.67762
仡伄	-9.67776
付亚亟亇	-9.67826
倵	-9.67853
云亇	-9.67906
兠	-9.67951
▁予仼	-9.67953
tion	-9.67997
▁仢俰产	-9.6803
佧	-9.68168
仌伊伆	-9.68245
▁予互	-9.68278
▁仫亳	-9.6831
▁亅元	-9.6831
▁亣介亹亊亏什亖	-9.68321
伮侀	-9.68445
亹众	-9.68491
82	-9.68514
▁亞伤亹亥	-9.68524
▁仦了	-9.68557
▁亅亟亸亇	-9.68561
仉人亇	-9.68625
▁付亊仁事	-9.68642
▁佽亳仆	-9.68649
▁价仹	-9.68698
▁仉偞亟亇	-9.68698
▁亻亾了佶	-9.68742
▁亅亳亹仆伂	-9.68746
▁亓亳仗仂	-9.68798
▁亘亟仮予	-9.68838
冎	-9.68912
im	-9.68933
▁仍予仱俔	-9.68969
▁伕于俌佥	-9.68982
▁侍亜	-9.69017
▁亓仂会亇	-9.69039
▁亅亳亙	-9.69115
▁仉些亳	-9.69118
亊伡仇	-9.69163
▁仦仼	-9.69354
亳予	-9.69406
▁些亜仉亖	-9.69411
ay	-9.69444
▁二仛亣伡伺	-9.69445
僤	-9.69446
▁伕亝	-9.69472
侈仉	-9.69482
▁侈僧人了亹作伺	-9.69491
▁云于	-9.69534
▁亞佚伺	-9.69594
亣佴	-9.69684
▁亞亰亝	-9.69883
ce	-9.69944
僽	-9.69947
▁份仾	-9.69961
▁亪伄亨仏于	-9.70031
▁仨佋亚	-9.70072
▁佂什伧亗	-9.70086
▁些亜些亘亙	-9.70091
▁仮亃仌亖	-9.70113
交了	-9.70137
▁些亚亟	-9.70144
云亣	-9.70152
刞	-9.70168
▁亃佱仄	-9.70196
▁伇亾仅仇	-9.70216
▁价亹亪亣	-9.70216
▁亅享亙	-9.70255
伧亊亇	-9.70316
▁侺会仡亜	-9.70457
伨仆	-9.70526
▁亂儓	-9.70589
伡仇	-9.70713
佝五	-9.70765
亽亟予	-9.70772
仂仕亇	-9.70795
▁予亭亃	-9.70817
住	-9.70875
▁价佲伎	-9.70913
▁仉亗	-9.70986
▁剛	-9.71099
伧互	-9.71102
仧亳	-9.71112
佃仠	-9.7127
▁2017	-9.71301
de	-9.71321
▁仵优傹事	-9.71325
▁仉仆佉亻仏于	-9.714
▁仍予伺	-9.71426
从	-9.71442
▁价仄了亸	-9.71503
侫些亳伺	-9.71526
▁亂仂些伺	-9.71572
▁佳亭	-9.71601
01	-9.71768
man	-9.71786
vi	-9.71812
▁仁亃仇	-9.71901
▁亴亏仆	-9.71945
了亹亗仇	-9.71959
亱亖	-9.71989
偍	-9.72025
▁予亹	-9.72053
▁亅人	-9.72089
▁价亭便	-9.72147
▁1999	-9.72166
▁伕仱亸	-9.72203
89	-9.72367
保	-9.72405
傋	-9.7241
▁亅侫	-9.7242
▁予亗亹亗	-9.72427
▁仍予亾五	-9.72475
▁仉些仁亟	-9.72531
▁亷事	-9.72536
▁俖伇	-9.72541
▁份亶伩	-9.72556
▁亮亾于亇	-9.72565
92	-9.72565
▁亂亭予五	-9.72584
▁仍亜	-9.7259
68	-9.72658
亨佬亿亐	-9.72659
伩	-9.72687
▁他以	-9.72692
▁2,	-9.72826
▁亷亃亖	-9.72826
▁任侔亇	-9.72844
▁井仺伮仇亿亐	-9.72883
傠伺	-9.72907
亙仏	-9.72949
▁亅促	-9.72963
▁亓享仅仆亇	-9.72999
▁予伿伄亟	-9.73009
▁亅侏伧亖	-9.73111
▁于些了	-9.73218
▁仍亊会	-9.73244
▁亅亳些	-9.73249
▁些亳亱伫亖	-9.73249
▁井亾亟	-9.73277
▁仵人	-9.73283
86	-9.73288
亘亟	-9.7331
57	-9.73322
▁仃亝	-9.7338
▁亪亊	-9.73418
冹	-9.735
▁些仄	-9.73501
05	-9.7354
些亿什五	-9.73603
傔	-9.73679
▁仍享亮仒于	-9.73733
06	-9.73737
▁保俻仯亟	-9.73738
▁伇于	-9.73743
▁价亟俦	-9.73829
▁俖亳亏什亖	-9.73843
▁井仄予亇	-9.7392
▁价仞	-9.73974
▁井俥	-9.7405
▁亮仺亇	-9.74054
07	-9.7409
侦亭	-9.7413
ag	-9.74144
▁京亭亝	-9.74275
▁俖亳亜	-9.7431
▁佧人	-9.74338
倅亇	-9.74364
▁侈伇	-9.74385
▁亴伄于	-9.74427
▁二佻仺	-9.74456
仦伉仄亇	-9.74476
▁任俩	-9.74479
今仇于	-9.74503
儒	-9.74529
亭些	-9.74647
▁仍亜会俥伺	-9.74654
仌仇伺	-9.74655
▁价仆亇	-9.74685
傾	-9.74696
亶亖	-9.74719
▁任仾产	-9.74727
▁仮亸些亿亐	-9.74762
▁亷佛	-9.7478
▁予亊伂亐	-9.74876
▁亮偷些亾	-9.74877
交五	-9.74933
▁伱伀亟	-9.74965
▁亻仱云仌亖	-9.74994
▁亅亟亍人亝亹人亻亼仇	-9.75016
▁云了亚	-9.7506
▁仐亡伂	-9.75134
▁仉仛亙亳亇	-9.75178
▁些介亟亡	-9.75207
▁亃仯仅伺	-9.75251
亩亰亇	-9.75312
▁亂亜仅亃	-9.75338
僀	-9.75409
亹人亝亹亗	-9.7542
▁亞仄伂	-9.7542
87	-9.75438
俈	-9.75441
▁今仇	-9.75507
v	-9.75531
▁80	-9.75533
84	-9.75543
▁(1	-9.75558
▁佞人亅人	-9.75608
仱側	-9.7562
仚亭亐	-9.75655
享伆	-9.75717
▁亓亜了亜	-9.75726
sh	-9.75766
▁井亭今仇	-9.75832
▁U	-9.7587
▁亃亭亇	-9.75899
▁予亥介予亐	-9.75922
▁亃介	-9.75961
▁仧亵	-9.7605
▁仍亜予	-9.76178
▁亴些亙	-9.76212
冄	-9.76272
▁亽什亖	-9.76284
97	-9.76297
▁佂什仅仇于	-9.76329
▁佃亳	-9.76336
仌亾	-9.76377
▁侹	-9.76388
▁井伧亳伪	-9.76411
▁佡交	-9.76492
76	-9.76597
▁任仹	-9.76637
▁亓享亟	-9.76665
亣亟	-9.76668
▁伃五	-9.76669
▁伏仅什	-9.76683
▁份予	-9.76702
▁云亾仅	-9.76716
▁1996	-9.76722
▁些仼	-9.76731
▁亻仆	-9.76738
▁些伎予亐	-9.76817
▁亅亥	-9.76877
all	-9.7688
儍	-9.76885
侺	-9.7692
▁价俤	-9.76946
▁仸仺亻仏于	-9.76961
▁亃仇仡	-9.77003
▁付人	-9.77021
倔	-9.77023
仉亗于	-9.77062
▁亷僣五	-9.77152
亚亟	-9.77312
了介	-9.77378
▁32	-9.7744
▁付亜	-9.77454
偁付	-9.77469
▁亓些伫亖	-9.77474
81	-9.77488
▁仐仺些亹亗于	-9.77489
▁亓伐伮	-9.77571
偞亟	-9.77577
▁予亗亊	-9.77583
▁京仺会	-9.77583
94	-9.77668
▁亃伮	-9.77708
▁呒	-9.77715
me	-9.77755
▁亷五	-9.77761
亾佦	-9.77784
▁仦倌予亐	-9.77816
▁伕伎	-9.77893
凯	-9.77936
亅伺	-9.77983
傌	-9.77998
佊	-9.78049
▁些仄于	-9.78094
▁$	-9.78107
▁俸仉亟亢	-9.78123
亿伽亊五	-9.78148
▁仦亃亳伂	-9.7815
▁偁付	-9.78166
▁亂亡伈	-9.78197
亙予亐	-9.78279
今仺	-9.78291
▁二亣亾	-9.78345
▁仍亊仌亟	-9.78357
咈	-9.78371
仩伺	-9.78409
仯亊亇	-9.78463
▁亓亰些仄予	-9.78481
▁井亅	-9.78585
亃仇	-9.78598
▁亷争亰亇	-9.78647
冺	-9.78705
仕享亟	-9.78737
▁佰傒	-9.7878
▁仦仒	-9.78829
▁价亟伉	-9.78858
▁仉云傣仇	-9.78872
▁亘亟亇	-9.78875
▁予侾亜	-9.78936
冝五	-9.78972
亊交亭伟	-9.79054
▁些亭亻亼仇伺	-9.7907
▁1998	-9.79083
▁伱互仉	-9.79132
佋伽仡	-9.79161
▁亂俌亸	-9.79162
▁予亥仮仇	-9.79232
▁亓伐亅些	-9.79376
▁仱佔	-9.79395
▁仧亳俤	-9.79399
▁侼倌	-9.79433
俖	-9.79489
ac	-9.79496
▁仢伊	-9.79551
亽亃	-9.79636
▁井亭今	-9.79703
▁侲僺亭亐	-9.79759
▁仦伡亰亇	-9.79782
▁亓以会	-9.79842
▁佢了	-9.79882
▁仨仓亖	-9.79909
▁仵亊亾亖	-9.79918
▁亓伦	-9.79928
▁井亟亳仌亖	-9.7999
▁亅仏	-9.80033
▁亓仆仉亱仇	-9.80059
▁仦亴仅	-9.8013
▁佂什伧作伺	-9.80135
93	-9.80141
▁价亚仰	-9.80201
仮仯	-9.80209
▁亓亘会	-9.80226
▁仧仓	-9.80238
▁仧倖	-9.80253
▁井亩亳亸仮予	-9.80267
侅	-9.80273
▁份仺付人	-9.80308
▁仸亗众	-9.80338
▁卢	-9.80379
▁亪今	-9.80384
倠	-9.80422
▁价亟俈亟亖	-9.80425
云亸	-9.8046
▁井亭今亻	-9.80482
▁亂仛亘仅予	-9.80596
▁仉側亟	-9.80646
▁亓些亾五	-9.80654
俯	-9.80719
▁仈仛佉	-9.80772
亹人会亇	-9.80799
伕亳	-9.80868
▁伇互	-9.80987
▁亪仆	-9.80994
▁伋会	-9.81003
会亇	-9.8101
ma	-9.81017
亳亖	-9.81019
▁仈亍于	-9.81028
佼亊	-9.81058
▁付亣了	-9.8123
仑人	-9.81236
▁仮佬予	-9.81289
▁佞仱	-9.81304
▁些仞了仮予	-9.81316
▁亣亭侐	-9.81338
69	-9.81387
▁亻享了	-9.81398
▁仍亜会产仇伺	-9.81423
介仠	-9.81451
▁些亭伎	-9.81464
▁份亊	-9.81496
▁伇亏亇	-9.81522
▁仐亰佃伧	-9.81542
予佀	-9.81591
亿亚仕亇	-9.81613
伐享亟	-9.81619
僡	-9.81633
▁云伊亴亟	-9.81671
人会	-9.81686
▁亓佥	-9.81698
創	-9.81735
仓亰亇	-9.81749
▁份仺亅亗	-9.81771
假	-9.818
交亊	-9.82065
▁予亭亣	-9.82075
呇	-9.82188
▁亓亘亙予亐	-9.82313
▁仃亚	-9.82314
亨五	-9.82339
伔云亖	-9.82346
▁价人	-9.82354
伧亭佛	-9.82388
▁亞偮伧亖	-9.82392
▁仦亃亾	-9.82395
▁予仓	-9.82416
▁予亭亙	-9.82434
▁仉亚伂	-9.82458
偑	-9.82512
79	-9.82531
▁伎于	-9.82568
▁予仇位	-9.82575
▁亅亟亍人会亇	-9.82619
▁亩仡亃	-9.82633
▁任人会	-9.82697
亊伺	-9.82721
亭伵仇	-9.82763
▁仍予亳仌亖	-9.82856
▁井亸俕	-9.82882
▁予俈	-9.82933
▁修仉亳	-9.82938
▁井亭今亪亇	-9.82946
▁予亭于	-9.82993
▁价亹	-9.82997
亿伽仡亇	-9.83061
二亇	-9.83084
▁亞伤亹人亇	-9.83096
▁侼人	-9.83114
亹争亭佛于	-9.83183
▁亷仄亏什亖	-9.83284
▁仧亵众	-9.83287
▁付仱伽云亼	-9.83296
▁份侄伺	-9.83299
61	-9.83314
▁价伔	-9.83336
▁予亾	-9.83377
任伿	-9.83413
事仕亇	-9.83428
▁亓亜亘	-9.8344
▁1989	-9.83448
了伂亇	-9.83478
▁亓亘伮五	-9.83537
▁侍亗	-9.83579
佄	-9.83616
亳亴	-9.83633
事令	-9.83651
亽人	-9.83673
ly	-9.83684
ig	-9.83697
▁亞倍仏于	-9.83724
亳五	-9.83749
▁仸人亃亖	-9.83755
▁亪亜伆仒	-9.83767
▁仧亳侈伇亇	-9.83784
▁亂亃佁仅仇	-9.83816
▁价倖会	-9.8384
▁价侠	-9.83849
hi	-9.83872
冫亳	-9.83887
▁予争亊了事	-9.83902
▁亓仂些亭亇	-9.83955
▁仦伡伺	-9.84017
▁亓仓	-9.84081
▁仸人亃亱予	-9.84086
亭了	-9.84126
▁仮仐仄亇	-9.84132
▁1950	-9.84154
74	-9.84191
▁佂仿	-9.8427
▁些仹	-9.84378
云享	-9.84394
▁予人亘仅仇	-9.84417
▁200	-9.84428
亦仕亇	-9.84464
▁佳亾仉	-9.84475
伷	-9.84482
▁仍俟	-9.84485
▁亞俙	-9.8449
▁俸亜亟亇	-9.8455
ine	-9.84639
▁仉亭便	-9.8466
02	-9.84666
偮	-9.84681
▁仧仱俆	-9.84732
▁井伩仅仇	-9.84741
傟	-9.84748
▁井亭今仡亇	-9.84766
▁亅亾仮仒	-9.84768
▁亷云	-9.84831
▁伎亹伫	-9.84844
亩亳	-9.84859
▁亓伨	-9.84861
予伂亇	-9.8489
▁价仄仡	-9.8498
▁价些五	-9.85002
傍亐	-9.85011
仅亃	-9.85015
伫亟	-9.8502
▁付亜亟	-9.85036
ell	-9.85069
▁仦亳侐仌亖	-9.85103
▁佰亳亳亴五	-9.85187
佋什五	-9.85188
▁亣亳	-9.85215
▁1991	-9.85305
▁35	-9.85347
佪	-9.85348
伵人	-9.85349
ak	-9.85354
▁亃事亘伧亖	-9.85381
▁价佛仜	-9.85429
亭仉	-9.85454
▁亴亏	-9.85478
▁付偋	-9.85481
▁亣仏佛	-9.85509
▁亴佛仂	-9.85555
04	-9.85571
亮亭	-9.85596
仅予令	-9.85606
▁亮亾	-9.8563
▁今伉	-9.85645
▁予伂	-9.85681
▁予倀	-9.85695
▁亷些亖	-9.85707
em	-9.8571
▁今仯亟亖	-9.85725
35	-9.85746
▁亴仺些	-9.85763
伧亱仇	-9.85775
▁仦侨侘仓仅	-9.85819
▁亓伄亟亹人亻仏于	-9.85855
伐仡亇	-9.85857
佉亜	-9.85861
▁亴仓	-9.85896
▁伃亩仇	-9.85981
亳些	-9.85984
▁二亹亜	-9.86017
仄伺	-9.86119
▁予事仰	-9.86144
▁亽予亹争仇亇	-9.86155
▁亂亡予亐	-9.86213
▁亻亭冊亻亾	-9.86302
X	-9.86323
▁佂什伧亊亹亗	-9.86357
▁今剅人	-9.86358
▁二僻倿	-9.86381
ph	-9.8644
ry	-9.86461
▁井产亊亨亟	-9.86518
▁价仱使亟	-9.86551
op	-9.8657
了伽仡	-9.8658
ni	-9.86607
▁亓亊	-9.86685
▁亴仙	-9.86729
▁佰亴	-9.86739
僙五	-9.8674
些仱	-9.86828
▁亣亭俟	-9.8687
▁亅亜予	-9.86888
73	-9.86893
亏伽仡亇	-9.86916
▁予亊伟	-9.86921
▁亃伥	-9.86954
兒于	-9.8699
▁于些伉	-9.87024
▁亷伸伟	-9.87036
伔亃	-9.87039
▁价仿亇	-9.87048
刷	-9.8705
▁些亭仮仇	-9.87069
倈	-9.87219
僮	-9.8724
▁井仺伮仇	-9.87288
▁亃亊	-9.87325
亏亶仇	-9.87377
71	-9.87396
▁予仾仧亜	-9.87421
亹亃佱仇	-9.87542
▁佰仱	-9.87542
▁仨事	-9.87557
▁亜仱	-9.87577
▁佢亾亖	-9.87603
仱伇	-9.87657
▁亓享佛	-9.87659
od	-9.87723
亂享亟	-9.87727
咔	-9.87787
▁亅伟	-9.87799
▁亪仉	-9.87802
傁	-9.87823
▁仵亊伉亟	-9.87858
▁井亟亳亇	-9.87864
俄予	-9.87866
▁仦亴亾亟仱予	-9.87881
佃仜	-9.87918
▁仐亭今亻仅	-9.87925
▁价亝仄	-9.8793
▁亓仆仉	-9.87931
ut	-9.87959
▁亞亟但人	-9.87961
▁仈佚仇	-9.87978
▁任仼亭佛于	-9.87983
▁佢亣云亼	-9.87987
▁亞伤亹人亻仏于	-9.87987
些亿亶予	-9.87993
▁亓予仄	-9.8807
佛亳	-9.8809
▁二侫	-9.88117
▁保俞仯	-9.8813
▁些优伧亖	-9.88152
仺亇	-9.88156
亪亣	-9.88167
▁亃了	-9.88188
刊	-9.882
亽亃伺	-9.88255
佼	-9.88275
▁d	-9.88336
▁仧侘	-9.88363
▁些佛仇伺	-9.88378
▁1994	-9.88427
▁些优付人	-9.88428
▁京仺亙	-9.88428
仯仠	-9.88431
83	-9.88444
亹亗仇伺	-9.88451
ab	-9.88499
亅亥	-9.88512
▁仐事仅仇	-9.88593
▁亓些亐	-9.88632
▁亓伤伡伺	-9.88647
▁亂仯	-9.88716
予亊	-9.88747
亿亶	-9.88748
了亊	-9.8876
▁亓佛令	-9.88826
会产于	-9.88828
仒亖	-9.8888
▁仵事仉亰亇	-9.88905
仌亗	-9.88932
▁井亃伂亇	-9.88965
▁些亻	-9.88976
人亝	-9.88993
▁仮亷亸仌亖	-9.89038
▁児	-9.8905
▁仈仓俟仠	-9.891
▁价佻	-9.89108
▁予侐	-9.89166
仛会	-9.89174
仏于	-9.89244
ow	-9.89246
▁二仜	-9.89266
09	-9.89271
▁些亰	-9.89327
▁亓佊	-9.89333
▁亮侻什五	-9.89373
▁佽亥	-9.89377
▁亃伿仂	-9.8938
亱仇于	-9.89392
▁些仞了	-9.89415
▁付亣亙	-9.89423
▁亓仺佃	-9.89428
仈亭	-9.89432
些亿什亖	-9.89452
▁亅伫仕亇	-9.89469
兑	-9.89489
亣介亹亊亇	-9.89491
▁亷伉亳仳	-9.89491
亓仹于	-9.89567
▁伲于亇	-9.89574
▁仍侐	-9.89605
▁仦互	-9.89621
▁价伅仓	-9.89632
▁亳伧亖	-9.89633
▁任人亝	-9.89634
▁佂产	-9.89634
了仄	-9.89685
▁亞亟亖	-9.89716
▁价以	-9.89733
▁仧仏佛些伺	-9.89745
▁价伦	-9.89875
▁二亍亩亪亇	-9.89967
▁仫亃	-9.89975
▁予亸些	-9.90025
▁予亜仇	-9.90048
亿亶仇	-9.90067
▁住优予什亖	-9.90124
▁侈僧人	-9.90138
▁亪仛云	-9.90157
▁予亗亹亗于	-9.90195
偔	-9.90213
▁亓伄仉亟	-9.90295
▁亅侌亥	-9.90357
Al	-9.90361
▁价仏伟	-9.90386
▁亴亝	-9.90436
亃佱仇	-9.90462
▁亣亭亝	-9.90496
▁仍亜仌亭佛仇伺	-9.90499
The	-9.90518
亏伽	-9.9054
▁亅争	-9.90599
亰亊五	-9.90604
▁亓仆伂仡	-9.90648
伨仇于	-9.90678
▁伕仄些伺	-9.90716
仌仅	-9.90726
▁些介亅亊	-9.90727
▁仈争	-9.90742
亏伽亐	-9.90788
▁亘亖	-9.90827
判	-9.90851
▁仍亳便	-9.90851
今亿亐	-9.90874
▁任伿亩予	-9.90885
▁亻亶	-9.90928
▁亞伾仇伺	-9.9095
▁仦伉仄亇	-9.90985
吹	-9.90991
▁井亭今亨亟	-9.91019
冤	-9.91063
仨	-9.91065
ho	-9.91065
▁45	-9.91112
▁予亵亊	-9.91212
▁予亥伨人	-9.9136
▁亓佲	-9.9141
亻佬亐	-9.91418
傉	-9.9156
▁仦們	-9.91629
▁亴仏伨仇	-9.91647
da	-9.91696
俓	-9.91699
▁伇侍亃亳	-9.91702
▁亩仡亃亖	-9.91705
▁予作亟	-9.91715
倄	-9.91715
▁伇亳	-9.91724
▁仐亡佛	-9.91744
仌介	-9.91762
▁佤亳伺	-9.91773
冉	-9.91774
▁二什亟	-9.91782
▁伇了亳	-9.91795
▁亓伄亟亹亗	-9.918
亿什亊亇	-9.91867
▁亪仾	-9.91871
仨亖	-9.9189
▁佰侫	-9.91921
▁仐予債	-9.91946
仃仄	-9.92025
▁仍亅亿亐	-9.92062
lo	-9.92196
39	-9.9221
▁仵伎伧亖	-9.92211
▁井使	-9.92235
ist	-9.92243
▁亞亜	-9.92244
▁侫亝	-9.92253
作亖	-9.92305
▁价侅亟	-9.92347
▁侫亳亏	-9.9237
75	-9.92423
▁亃仆亅亣	-9.92448
▁井伩伧亖	-9.92481
▁仸人	-9.92521
▁亴今予云	-9.92563
▁予亸偼人伮五	-9.92565
▁倇亣仅予	-9.92567
▁亂仛亘仅仇	-9.92577
▁些仓亘	-9.92599
▁仉仄亻	-9.92599
▁亓众仡	-9.92621
▁些仆们	-9.92633
偒	-9.92634
▁亓偮	-9.92634
亜五	-9.92685
▁价于些介	-9.9285
▁仦仞	-9.92869
僋	-9.92908
仱佔	-9.92916
偌	-9.92922
▁亃俞伕亾	-9.92926
亿伽	-9.92937
体	-9.92957
ath	-9.92995
▁亻享亝	-9.93025
▁仨仄予	-9.93045
ne	-9.93072
▁亪仺亻亟	-9.93088
侈些	-9.93134
伤	-9.93172
▁傋	-9.93178
仡伬于	-9.93192
▁价亹亜	-9.93222
▁仮些亗亏什亖	-9.93228
侎	-9.93281
▁任倐	-9.93309
▁亻享亝于	-9.93313
24	-9.93363
凩	-9.93393
▁亮侓	-9.93454
▁佞仭人	-9.93457
仅仆仱予	-9.93466
▁予亊仙享	-9.93501
亶亪亇	-9.93573
▁亅众仅伫	-9.93601
仱刄	-9.93632
▁仍亜会	-9.93682
了亹亥产仇	-9.93734
刡伺	-9.93779
▁侍佃	-9.93796
▁1997	-9.93814
▁1992	-9.93815
俤五	-9.93878
▁仈伀亖	-9.93912
▁佧伄	-9.93942
28	-9.93942
▁仍佇	-9.93966
▁亴仌介	-9.93985
▁予倀仅亪云亾	-9.94011
▁二于伂亇	-9.94018
▁仦仉	-9.94084
▁亽云了亖	-9.94084
▁井亭今亻仏于	-9.94145
▁侫伮亳云众亟	-9.9423
余人亇	-9.94245
些亜些	-9.94252
▁侲僺亭	-9.94253
▁仮亴	-9.94256
▁仍亊佘	-9.9427
偷	-9.94302
偺	-9.94303
▁亣仾了亖	-9.94303
侈伇	-9.94335
▁些仆侑	-9.94344
亰伵仇	-9.94352
▁侸	-9.94372
▁些亴	-9.94416
▁亞俙于	-9.9444
▁仢享	-9.94455
▁二亣伺	-9.94518
剌	-9.94523
▁亪人侐亇	-9.94533
▁云伊亴仅	-9.94568
▁仦享	-9.94655
▁亻亂	-9.94686
▁云亵五	-9.94694
佇仱	-9.94736
▁些伎亹人亝	-9.94761
仉亗	-9.94769
亾亘	-9.94792
85	-9.94795
▁佧亭	-9.94827
65	-9.94836
▁仦伧伐亇	-9.94889
co	-9.94901
▁云亳亇	-9.94959
▁伇云亟仌亖	-9.9503
儃	-9.95033
▁付于亷了	-9.95099
佋伽亇	-9.9511
▁仦亊	-9.95146
▁亞亟亱仆伺	-9.95183
佌	-9.95229
亟亿亐	-9.95237
凸	-9.95259
付仄	-9.9526
▁云値	-9.95264
▁1995	-9.95285
佮倐伺	-9.95306
▁价亟佉	-9.95317
伛	-9.95334
▁佤亣	-9.95351
21	-9.95377
卯	-9.95407
▁侈亜	-9.95418
▁伲争伧亥	-9.95497
佞	-9.955
▁仍亊伟	-9.95507
亱亪亇	-9.95578
伧亟	-9.9559
▁冸	-9.95615
倆	-9.95636
du	-9.95645
▁仵亊了仌亖	-9.95648
▁予亥亹人亝	-9.95667
▁亻亭	-9.95675
▁亣亭使仱亹侏	-9.95703
伨亊	-9.95719
▁仮偎	-9.95743
ment	-9.95751
▁佃仌亭	-9.95763
亂仂	-9.95773
傱仦	-9.95778
▁佔偐	-9.95858
亅亊	-9.95884
▁仵亪	-9.95898
伝亐	-9.95933
亅人	-9.95937
倗	-9.9595
▁仸仺亻佬伺	-9.95989
倢	-9.96
▁云仌伧亖	-9.96006
▁亅争亟仓亖	-9.96039
▁亂亡伆	-9.96138
▁仉亭亦	-9.96146
▁予僳亊予	-9.96149
亏亶亪亇	-9.96199
▁亃交优	-9.96199
▁亷亴	-9.96204
京亭侵	-9.96227
45	-9.96246
▁亅仞了	-9.9626
78	-9.96283
▁井亭今仇于	-9.963
▁井俋	-9.96313
▁仉亚仉	-9.96317
▁亅亳仉	-9.96331
侔亇	-9.96336
▁价佇亟令	-9.9634
per	-9.96351
▁亓仛亝亇	-9.96369
▁云了仆佃	-9.96395
▁价仇侦亭了	-9.96448
22	-9.96456
▁京亭亚	-9.9658
▁90	-9.96617
▁价休亭	-9.96673
67	-9.96686
仅仉五	-9.96722
了什	-9.96726
▁m	-9.96789
▁仈伀亟亇	-9.96817
仃倫	-9.96824
仉仅	-9.96855
▁侍亟便刷伺	-9.96959
侵亐	-9.97085
▁亣亭些傩伺	-9.97199
于亊五	-9.97218
▁二亣偋	-9.97225
伨伺	-9.97272
▁亪仞	-9.97293
▁价伥仡仛	-9.97322
▁亽侵什亖	-9.97325
▁仉亚仅人	-9.97378
伧亭仡亇	-9.97475
▁仧倖亙	-9.97491
▁仦仱	-9.97523
▁1984	-9.97523
▁予亗亚	-9.97529
剗伺	-9.97556
仡仠	-9.97589
23	-9.97657
亃仂	-9.97689
▁亪伎	-9.97705
▁仫偂伺	-9.97758
▁侺亳	-9.97774
▁井亩亳亸	-9.97794
亥予亐	-9.9791
些于亇	-9.97942
08	-9.97987
云予	-9.9799
▁价倖佛	-9.98015
▁价亃侃	-9.98031
▁些亭亊亇	-9.98056
▁云亭会些云仂	-9.98067
▁佰伇	-9.98082
▁1947	-9.98124
他	-9.98221
▁亓些亴亟	-9.98235
亹亣亖	-9.98238
▁价亊于	-9.98241
侷	-9.98259
▁价儐交亟	-9.98259
▁付亣了亹亗	-9.98308
▁任仛便	-9.98355
▁伇侍亃亾	-9.98411
仉仄	-9.98437
▁亽仱亟亸	-9.98448
32	-9.9847
▁佭仭伨	-9.98517
▁仍予亳仌五	-9.98517
▁伲亾五	-9.98551
▁修俕	-9.98635
倳	-9.9864
▁仦事	-9.98645
仄似	-9.98663
▁二人亝	-9.98671
▁些作亳	-9.98725
▁亪仭	-9.988
▁佳什	-9.9887
▁些似仆侈伇	-9.98879
▁亅亸亇	-9.98879
▁佂亼	-9.98895
▁h	-9.98998
亴亖	-9.9907
▁伱仿亇	-9.99079
亦仠	-9.99118
▁亅仞亘仅仇	-9.99193
▁亓伄亂予	-9.99219
亏亶	-9.9926
▁亃予些佋亚	-9.9927
▁佳亾亟	-9.99272
▁伇亃佤亃	-9.99307
▁&	-9.9934
▁偁亮	-9.99363
仕产仇伺	-9.99364
▁交傌亳	-9.99385
▁价仌介亹亊亇	-9.99412
26	-9.99468
▁仉亃	-9.99481
▁仐仿	-9.99531
▁亪人侐仌亖	-9.9956
48	-9.99562
亹作亰亇	-9.99562
予亏亐	-9.99575
佱仄	-9.99594
伕亾	-9.99598
仉亰产	-9.99685
予亶	-9.99726
29	-9.99729
亻亭冊	-9.99771
人亃亖	-9.99798
▁价亟佉亇	-9.99873
▁佞仞	-9.99931
刴	-9.99948
伵亃	-9.99956
▁侩亨亟	-9.99963
▁伱仒亇	-9.9999
▁亻倇	-10.0005
▁亞亟伸人亻仏于	-10.0007
仮伺	-10.0008
俱	-10.001
▁仧以	-10.0012
▁些介伧亱仇	-10.0019
ant	-10.0021
▁仦前人	-10.003
▁仦伉仄仌亖	-10.0032
▁佖伌人	-10.0034
伨人	-10.0035
▁依付倿	-10.0036
▁亓亘伦仱予	-10.0036
▁亓仏	-10.0037
仅五	-10.004
▁(18	-10.0042
▁佞亳	-10.0046
仺亙	-10.0054
▁价侤亡	-10.0057
▁亽僋些于	-10.0059
▁亓俜	-10.0061
佤亳	-10.0064
亏亚亢	-10.0066
伵云亖	-10.0072
▁亂亭予	-10.0075
▁2018	-10.0077
亹亣	-10.0078
▁佢亣亅亣	-10.0082
▁亓亣予亾	-10.0099
ap	-10.0101
▁亩伉	-10.0101
侨	-10.0103
了亹作伺	-10.0107
▁价仱伇	-10.0111
▁今仞	-10.0111
亞伤	-10.0114
▁付亳	-10.0114
▁于亚	-10.0117
亃仉	-10.0128
▁亓仞亻亟	-10.0129
▁些于	-10.0129
▁亣亭使	-10.0133
▁价亃亳	-10.0137
▁仢俰伿	-10.014
倽	-10.0142
▁亃交傲	-10.0143
▁些仆亭亇	-10.0144
55	-10.0145
▁33	-10.0154
▁仧仱傘	-10.0155
III	-10.0155
佮伿	-10.0159
▁1993	-10.0169
厷	-10.0174
佃令	-10.0176
▁1987	-10.0177
▁价亊佘	-10.0179
64	-10.0179
▁仦倖	-10.0183
▁二人了亹亗	-10.0186
▁佢介	-10.0187
▁些侢亇	-10.0194
僂	-10.0197
凹	-10.0198
些仆	-10.02
▁仧仱佇亟	-10.02
▁亪佅	-10.0203
▁交亃	-10.0204
▁亓佛仠	-10.0205
37	-10.0206
▁亷仄令	-10.0212
▁亓亟	-10.0224
▁500	-10.0225
Cl	-10.0226
倣	-10.023
▁仧亾争円	-10.023
些亿伽亇	-10.024
▁井伓亗于	-10.0243
47	-10.0253
仺亣	-10.0253
72	-10.0255
-2	-10.0258
亿亚仠	-10.0261
▁亓伩	-10.0263
▁佭亃亳伇五	-10.0263
亻佚伺	-10.0264
▁井伧亾	-10.0265
36	-10.0269
▁亽争	-10.027
仉作伺	-10.0272
▁亪优	-10.0277
▁佂什僤人	-10.028
▁伇侐佛	-10.0297
偪	-10.0299
▁亓亘伦	-10.03
伇云	-10.0302
佢伺	-10.031
▁于伨亨	-10.0317
▁伇云亸	-10.0318
▁仮侫	-10.0321
▁亃予	-10.0322
佬予	-10.0323
56	-10.0325
▁亅亪	-10.0326
任仾	-10.0331
▁仫俞仮亪亇	-10.0332
▁价亭亅于	-10.0334
▁亩仅伺	-10.0337
▁亃俞	-10.0341
▁亃事亙	-10.0346
享仅	-10.0351
▁仦們亇	-10.0362
▁京仺	-10.0362
▁住优予亐	-10.0369
▁仵亊侕仅予	-10.0371
27	-10.0372
亊佉	-10.0377
▁价亭亹亦	-10.0377
▁些仞了亇	-10.0379
▁价仇亏亐	-10.0383
58	-10.0391
▁井仭亘	-10.0406
剗	-10.0408
▁些亾伥伧亖	-10.0409
▁仸争	-10.041
ity	-10.0411
▁任倐亊	-10.0416
▁予仛	-10.0416
▁今偙	-10.0418
▁亅侌人	-10.0422
▁予佛	-10.0425
佼伎	-10.0426
▁亅亜亙	-10.0426
▁亓仧	-10.0427
▁亣亭今	-10.0427
▁亮仒些伺	-10.0431
▁位兺伺	-10.044
▁侫争	-10.0442
伧亭佝伺	-10.0444
46	-10.0444
▁些仞亏亹人亇	-10.0445
▁佢亜	-10.0445
▁付些	-10.0447
▁亪亡伟	-10.0447
▁仉仆伉亟于	-10.0448
▁今仡	-10.0451
▁亷伫	-10.0451
亽亥	-10.0454
仱予令	-10.0454
▁亷些伜亡	-10.0454
38	-10.0454
▁伇亵亣予亐	-10.0459
▁佖仙人亝	-10.0459
▁亮亭了	-10.046
▁伇仱伇亾仅予	-10.0463
今亴	-10.0466
▁价倃	-10.0466
▁亃事亂亡	-10.0467
▁仉兙五	-10.0469
▁仉亟	-10.0472
▁亅亾俸亃仂	-10.0479
偸亾	-10.048
仓亭佛	-10.0483
佇亖	-10.0487
僟	-10.0487
▁侍伧	-10.0495
▁亃予些	-10.0498
▁亃凷伺	-10.05
亨亼	-10.05
▁井仄予亶仉亟	-10.0503
▁亷仉亾	-10.0505
▁亪亡付人	-10.0506
仙亪亣	-10.0506
▁佤亳亿亐	-10.0506
傱二	-10.0508
▁井亭今亨伡伺	-10.0517
▁亓仞亪	-10.052
▁付俧	-10.0524
▁亓亗些倖	-10.0525
▁1977	-10.0529
伲仄	-10.0541
▁佖仙人亻仏于	-10.0543
卉	-10.0544
▁今僉亼仇伺	-10.0548
▁仦伧亳亇	-10.0549
▁侫亷亩亳	-10.0552
▁些亗仌亖	-10.0555
ide	-10.0557
▁仧亾仉亖	-10.056
亹人亻佬伺	-10.0564
▁亞亟伸人	-10.0564
▁价俌	-10.0572
▁傴	-10.0573
亹亩亖	-10.0576
▁予亊五	-10.0584
▁伕亣亩予	-10.0585
▁仐予仛亇	-10.0586
▁1988	-10.0588
佃仅亪亇	-10.0588
▁70	-10.0589
伦亖	-10.0589
▁予伿伄	-10.0598
▁儣仉佶	-10.0601
▁俾	-10.0602
▁佰仱亴亾亟伺	-10.0603
▁修俧	-10.0622
▁倇	-10.0625
▁任仛亙	-10.0626
▁n	-10.0627
偸	-10.063
亃伡亖	-10.063
▁亓俤	-10.0632
▁价偸俞亇	-10.0634
▁事	-10.0635
▁仐仺仌	-10.0635
些仞	-10.0636
▁予俟	-10.064
▁伱亖	-10.0642
▁侫佃	-10.0643
▁de	-10.0643
▁伃仒伺	-10.0643
ec	-10.0644
▁亓侾	-10.0646
▁亷伉亳侫	-10.0648
亮亟	-10.0648
▁予些仇亇	-10.0653
▁亅倚令	-10.0659
▁井仆	-10.066
▁仐仂今予	-10.0661
▁仐事仡	-10.0665
▁予侢	-10.0665
▁价仛	-10.0666
作五	-10.0668
▁佢俞	-10.0668
▁75	-10.0671
▁佳亾	-10.0673
仓亏亇	-10.0674
▁免兎	-10.0677
亏亖	-10.0677
▁予仉	-10.0678
亮仒	-10.0679
冮	-10.0684
亽亃五	-10.069
▁亴仏	-10.0692
▁予亥伨亥	-10.0693
▁予亸亨亊	-10.0696
▁仧亜亝	-10.0704
▁亓什亝	-10.0706
▁亓亳伕	-10.071
伮亟	-10.071
▁云了亶亖	-10.0716
▁36	-10.072
仛亇	-10.0722
仆仉亖	-10.0729
▁亓亳伇五	-10.0731
▁二什亣亖	-10.0734
▁亓亘伮亖	-10.0734
仧亾	-10.0737
▁仢俰	-10.074
42	-10.0743
▁1986	-10.0745
▁亷仓	-10.0746
▁佂什伆伄	-10.0748
▁亣亭云	-10.0749
▁亓以了亹人亻亼仇	-10.0749
侐仄	-10.0751
任产	-10.0755
▁伇予	-10.0757
▁井伧亾亟亖	-10.0759
▁亓伐亹	-10.0762
余仺	-10.0762
▁仮亷亸仌五	-10.0763
儅	-10.0764
▁亞亟伌人	-10.0767
▁价亳仾亇	-10.0767
▁亅亟仇	-10.0768
佄亚	-10.0774
▁修伂予亐	-10.0779
仄儯交	-10.078
▁佂什伧亗于	-10.0781
侌	-10.0788
伻	-10.0792
伋	-10.0797
▁任伿佃	-10.0798
▁1971	-10.0803
▁仢亱予	-10.0803
前人	-10.0803
伨亖	-10.0803
▁亃人了	-10.0805
▁予亹亖	-10.0805
▁仉亃仮予	-10.0807
伽亊五	-10.081
ill	-10.0811
仧亟	-10.082
▁佳亾伂	-10.0822
印	-10.0823
亾亴	-10.0831
偏	-10.0834
▁价仺亣仅予	-10.0835
▁亅亊仌五	-10.0835
po	-10.0836
03	-10.0836
▁亓億	-10.0842
▁亮争	-10.0842
▁交予仠	-10.0853
▁亓佻仺	-10.0854
▁佭亟	-10.0855
J	-10.0858
▁侺仾	-10.0863
77	-10.0866
▁井以	-10.087
▁云伿仄亇	-10.0876
▁仵冹伮亟	-10.0877
▁亓亳亏	-10.0879
▁侍亅	-10.0881
▁交伎	-10.0885
▁亞亰仌	-10.0892
▁价倖了	-10.0892
伮亜	-10.0892
公	-10.0893
債	-10.0897
▁佂什伆仒	-10.0898
▁些介亟仺	-10.0905
▁井亃伂亻仏于	-10.0906
▁些亭亻亼于	-10.0906
▁亴了亱仇	-10.0908
▁亓亘亟	-10.0909
49	-10.0911
con	-10.0917
▁亅亳伮	-10.0918
▁价享亹亗	-10.0921
200	-10.0926
▁侩僸亭亝	-10.0927
俟亟	-10.0929
▁些介伧亖	-10.093
互亇	-10.0941
▁井亊仓亖	-10.0943
供	-10.0944
▁亃亏仆于	-10.0944
0%	-10.0947
▁些仆侂	-10.0952
▁仫们些伺	-10.0953
▁亅仏佃予亐	-10.0955
▁亽佥	-10.0958
亝些伺	-10.0962
▁二仇亹人亻仏于	-10.0964
冫	-10.0969
▁亅仞佉亜	-10.0971
▁侫亭了	-10.0972
▁价亟亰亇	-10.0974
▁亅伂	-10.0976
▁人	-10.0981
▁佂亏	-10.0987
▁亃交仞予仌亖	-10.0988
作予	-10.0991
34	-10.0996
云享佛	-10.0997
伟产于	-10.1005
偘五	-10.1012
冲	-10.1013
亾亟亇	-10.1015
凬	-10.1018
▁亓亹	-10.1019
▁亓伪了亭	-10.1019
66	-10.1028
▁亅享伞人	-10.1028
今伇	-10.103
▁亓亘了亹亗	-10.1033
ub	-10.1035
兎	-10.1036
▁仈伀	-10.104
ud	-10.1046
▁仁事伧亖	-10.1053
▁仵亊亏亹亗于	-10.1057
伐亐	-10.1058
▁井亟亳仮仇	-10.106
▁仁件亖	-10.1065
伉五	-10.1067
▁亅亪亣仅亪亇	-10.107
介令	-10.1071
▁侍伕亳亇	-10.1072
▁今五	-10.1074
▁些仞亏亹人亻仏于	-10.1077
▁亂亃亱仇	-10.1078
▁w	-10.1079
▁二亣侯仄	-10.1082
▁份予仮予	-10.1082
▁亓伿	-10.1093
▁价伅仓亟	-10.1094
▁侍伕亳	-10.1103
▁e	-10.1103
▁仉仉仓亟	-10.1108
▁to	-10.1108
▁亓些仇于	-10.1109
▁侈僧人了亹亗	-10.1115
▁亻仧	-10.1118
▁仍佁	-10.1119
了亥	-10.1122
▁亅亟亍人亝亹亗于	-10.1122
▁佳什今予	-10.1125
▁伇伉仓	-10.1125
▁Ch	-10.1126
仱亃	-10.1127
▁云予亐	-10.1129
▁侼亜	-10.1132
▁仦仒事	-10.1132
59	-10.1136
ka	-10.1137
52	-10.1141
侺伺	-10.1145
▁云亗	-10.1154
亅人会	-10.1156
▁亅亏什	-10.1159
▁二仓	-10.1159
▁佂什伧人	-10.1163
侦亭仮亐	-10.1168
剰	-10.1168
▁仸伄亟	-10.1175
▁仉仁亳倖	-10.1177
▁些什云伿仄	-10.1177
▁亴仏伮	-10.1178
亂亜仕亇	-10.1184
▁亂亵亩予	-10.1184
今亳	-10.119
▁井亭亴亟	-10.1192
▁倧仡仉	-10.1195
▁予优伂	-10.1197
▁二什亩予	-10.1198
伨仆伺	-10.1199
亨亳	-10.1199
伨亦	-10.12
▁仈亹佛亇	-10.1204
▁予傥众	-10.1205
▁价亟亨	-10.1206
▁亮亟亿亐	-10.1213
僞	-10.1216
▁仸仺亇	-10.1226
▁St	-10.123
▁亪伄亙予亐	-10.123
▁仵互	-10.1232
▁X	-10.1243
▁1978	-10.1249
▁伇侂介	-10.1256
亏伽伵仇	-10.1258
仌亳亇	-10.1259
▁井亟倂事	-10.1264
▁倧优亟	-10.1266
▁任产亱亇	-10.1267
ex	-10.1269
▁亅亃了	-10.1272
▁付亳侩予	-10.1273
▁付仓仇	-10.1279
伿伺	-10.128
to	-10.1284
僕	-10.1284
亏什仓亭伟	-10.1287
ci	-10.1287
▁些亊亨亖	-10.1288
31	-10.1292
▁付亾	-10.1299
▁仧偞亟五	-10.13
va	-10.1304
▁佂什亙仏	-10.1305
▁侩亊	-10.1319
▁亅亣伮	-10.1319
▁二亍亃侀	-10.132
亃仆	-10.1327
-20	-10.1329
予伽仡令	-10.1333
▁亓亴	-10.1334
62	-10.1334
▁价僐亖	-10.1334
▁亪亜伧亭亙	-10.1334
▁云予什伺	-10.1335
侦仒	-10.1336
▁仐仺仉	-10.1337
▁些亶予	-10.1339
▁亴仌亳	-10.1339
▁伕亦	-10.1344
▁侈今仄亟	-10.1344
仮倿	-10.1344
▁仉介今予	-10.1345
些亚	-10.1347
44	-10.135
▁仢仄	-10.1354
▁亃仛仉	-10.1354
▁亮互产于	-10.1356
亹人些亣佴	-10.1357
亘仅	-10.1361
▁亅佥	-10.137
亹人亻亼	-10.137
▁亴亏傠伺	-10.1371
▁亓亾亟	-10.1373
▁价亟仡仇伺	-10.1375
ru	-10.1375
▁亻亊	-10.1376
▁俖亾	-10.1377
侦仺	-10.1379
▁亅佋事仠	-10.1379
▁仉厅	-10.1382
▁亞亏	-10.1385
亽亟亻	-10.1385
ion	-10.1387
▁仦伮亾伵	-10.1389
▁1985	-10.1391
▁仍予介	-10.1392
仒亇	-10.1395
▁亞伳仡	-10.1398
▁云了	-10.1403
▁侺亟	-10.1404
▁佖伝仇份	-10.1406
▁亭	-10.1406
前	-10.1408
▁二亍伺	-10.1408
▁侬仞	-10.1409
▁1940	-10.141
会仡亇	-10.1413
偁亅	-10.1413
凪	-10.1415
冚伺	-10.1416
▁仦今亿亐	-10.1416
侇	-10.1419
▁佤争亖	-10.1427
Ch	-10.143
▁予仙仂	-10.1434
▁佰侫亇	-10.1438
▁亃俟	-10.144
▁予仓伲冉仅	-10.1442
些亗	-10.1446
▁云亣伮	-10.1447
▁亩亨	-10.1451
亭亐	-10.1453
▁些介亟仺了	-10.1453
▁亞亟伸亥	-10.146
▁59	-10.1462
▁佖伝	-10.1468
亾亟亖	-10.147
▁予亭仉予亐	-10.1475
▁仐仄伂	-10.1476
▁仵偞亟亖	-10.1478
▁1983	-10.148
▁侍人	-10.1486
▁亻伄傟些	-10.1487
▁些俢亡	-10.149
今亾	-10.149
▁1930	-10.1491
▁二亍佃	-10.1493
二五	-10.1494
▁亞俀	-10.1499
▁价于伂亇	-10.1502
估什五	-10.1505
亻仏	-10.1506
▁300	-10.151
伮冃	-10.1517
▁亷仄予亗仌亖	-10.1518
▁今儘伈	-10.1519
▁亣亭今依伺	-10.1523
▁仉仌仅伇	-10.1523
ard	-10.1523
▁伋伔	-10.1525
▁亞仄	-10.153
▁亣亭傠伺	-10.153
33	-10.1535
▁价亚亟	-10.1538
侥	-10.1541
53	-10.1543
▁二亼以了亹人亇	-10.1543
仱伡伺	-10.1543
▁仈伀亟仌亖	-10.1549
▁仮仒亏亐	-10.1561
▁佂亪	-10.1562
些亩亪亇	-10.1562
卺	-10.1568
▁付亳亣	-10.1571
仌侀令	-10.1571
▁亓促亖	-10.1578
▁亂亨亟仮予	-10.1578
▁亰	-10.1581
▁仉亭俟	-10.1584
叙	-10.1586
▁亻亳	-10.1587
▁予亜亃	-10.159
▁伇亏亷仄	-10.1592
▁com	-10.1592
亹亃五	-10.1593
亟亜	-10.1594
余亊	-10.1613
伨五	-10.1616
偁伲	-10.1618
▁价倖仡亇	-10.1619
伂予亐	-10.1623
▁伇付	-10.1623
▁些介亟	-10.1624
▁亻享亨仏于	-10.1627
▁伇亊佉	-10.1628
仓亏	-10.163
▁仧亳伕	-10.163
了亦	-10.163
▁亅亭	-10.1637
▁仧亜会	-10.164
儐	-10.164
了亸	-10.1643
▁亓伄亪伄	-10.1646
▁亂亟	-10.1647
▁今佉	-10.1648
▁付侫	-10.1649
▁仵事佰亴	-10.165
▁亓仺	-10.165
▁5%	-10.1654
▁佖互仠	-10.1654
佝亰亇	-10.1655
亟仓亖	-10.1658
▁亪佅介人	-10.1659
▁二亾云事	-10.1663
he	-10.1665
ew	-10.167
▁井亳	-10.1673
▁二倁	-10.1675
▁亷僣	-10.1676
伨亪亇	-10.1677
响	-10.1677
▁价喣伺	-10.1688
▁云了伽亇	-10.1689
▁予依伺	-10.1696
▁修俻仯	-10.1704
仱亪亇	-10.1704
▁些亳亱仔	-10.1705
▁亪做	-10.1705
▁价亹亪亣伧亖	-10.1707
▁兼亣	-10.1707
▁1967	-10.1707
▁仍亊仡亇	-10.1708
▁仉仆了亇	-10.1709
▁佃亝	-10.171
▁价介	-10.171
▁伲于仮仇	-10.172
▁亓使	-10.1723
▁仐仺些仇仌亖	-10.1724
▁云亭会些亇	-10.1731
▁价仏佝伺	-10.1736
▁亪亳亖	-10.1737
▁仝仞亖	-10.1737
▁仵亪亣予什亖	-10.1739
喖	-10.1742
▁佧伄亂亡	-10.1744
▁伕仉伧亟亖	-10.1745
争侀	-10.1747
▁予偢	-10.175
▁亞伤亹作伺	-10.1753
▁份仺亅人	-10.1756
刱	-10.176
▁二仛伅仆	-10.1761
▁价亡些五	-10.1762
▁仝位	-10.1768
43	-10.1769
▁予亗亸	-10.1771
▁仧亾会	-10.1772
▁亓享伟	-10.1777
▁亞倉仏于	-10.1779
伲亖	-10.1781
▁亪伄伮人亻仏于	-10.1788
▁亅伧佚伺	-10.1789
▁(2	-10.179
▁t	-10.1793
▁价億些亗仌五	-10.1802
儇	-10.1802
▁仐事亘	-10.1805
▁价仱予亇	-10.1811
▁佤亃亇	-10.1815
51	-10.1818
▁亞亟伸人亇	-10.183
亅人仌	-10.183
▁井仌	-10.1833
仱倿	-10.1835
▁亻仞亨亖	-10.1841
▁仐仄亹亪亣	-10.1844
▁仦亳俟	-10.1845
▁仧亳侈伇仌五	-10.1845
▁亂亜仉亖	-10.1848
▁云亣伣人	-10.1857
▁亂亜佛于	-10.1858
▁亓仆仉侀	-10.1861
▁伲争予亐	-10.1861
▁予些仇	-10.1865
▁予亭些亡	-10.1872
▁云众仡	-10.1875
▁亅亟仴亥	-10.1881
▁佂什些佛于	-10.1881
▁侼亳	-10.1888
▁予亊侄伺	-10.1888
倡	-10.189
▁亮亟亾亊	-10.1891
▁侺凾	-10.1891
▁侍亾伴	-10.1893
▁伇亃佤亃亇	-10.1893
亾亙	-10.1894
仭人	-10.1896
▁亪伄僤	-10.1899
▁亷亃仓	-10.1901
▁亂佹亜	-10.1904
▁佳亾亻仏于	-10.1905
▁亽位	-10.1908
▁二仛亝伄伂	-10.1909
▁仦俄伇仂	-10.1909
▁1972	-10.1911
亼于	-10.1917
▁二俽于亇	-10.1917
▁亅儋	-10.1924
▁亴仺予亦	-10.1924
▁亷仄仐事	-10.1933
▁亷亸亹人亻亼于	-10.1937
▁亷人	-10.1938
▁亓伄仉亝于	-10.1941
▁井亅伇亵亣予伽	-10.1945
▁亪仛仉五	-10.1947
▁34	-10.1948
▁伇云佂什	-10.195
▁佂什亹人会	-10.1951
▁仍卐佩	-10.1956
▁仢侐人亝	-10.1957
仂亢	-10.1957
▁价亟亨亟	-10.1957
▁亣侫	-10.1958
▁亅亭仌	-10.196
63	-10.1961
▁亂亃仓	-10.1961
▁亩些亳亏亐	-10.1962
仧亜	-10.1962
佇亭佛	-10.1963
▁亅亗佘	-10.1964
▁伇亵亣仕亇	-10.1967
▁亅偔	-10.1967
▁伋伝亐	-10.1968
▁价仄亨亟亇	-10.1968
▁仮仐仄仮仇	-10.1972
亅亪亣	-10.1976
仡亡	-10.198
▁价伆侫仉五	-10.1982
偄	-10.1984
亯亚亟亇	-10.1984
▁仁伍予	-10.1984
佝亖	-10.1986
▁1982	-10.1987
▁井产亊了	-10.1989
▁佂争	-10.1991
▁仦仄亟亇	-10.1997
▁亓亖	-10.1997
▁亓伄佛	-10.2001
亘仅亖	-10.2002
▁1000	-10.2006
▁亓伄仰伺	-10.2009
▁介	-10.2012
侔	-10.2013
▁于亡予什亖	-10.2013
▁亃仉侂	-10.2014
▁些仞佉亻仏于	-10.2016
▁仦亻佦亾五	-10.2017
俢	-10.2018
▁亅亪亣伧五	-10.2019
▁云傈仓亟	-10.2022
▁佳俒亖	-10.2022
▁仧亳伦仂	-10.2022
仱今伺	-10.2024
仉做	-10.2025
▁亻侘	-10.2027
▁亅亪伨倌	-10.2032
▁倱仠	-10.2033
些仱今伺	-10.2033
交仅	-10.2039
俖亳	-10.204
▁佽亳亶	-10.2041
▁1969	-10.2044
▁佂什亽亥	-10.2045
▁伱仿	-10.2049
了亭	-10.205
▁伇亾仅予	-10.2053
▁云事佼亊	-10.2055
▁亪仒亇	-10.2056
亻仱	-10.2057
▁价仱側	-10.2059
▁仍傒	-10.206
▁二仄噎	-10.206
://	-10.206
II	-10.2061
▁亴亦	-10.2063
亂亃	-10.2064
▁予伝	-10.2064
▁亅倚仧	-10.2069
▁亓仇	-10.2069
ium	-10.207
▁二仛佛	-10.2081
▁亅仹些	-10.2085
俨	-10.2088
▁云佇亳	-10.2091
仗	-10.2101
▁任伿仇伺	-10.2102
仕产仇	-10.2103
▁亪亳	-10.2108
刁	-10.2108
▁1962	-10.2119
▁仐仏仌亖	-10.2123
▁侈仯	-10.2124
俌人	-10.2124
▁仉仆伉亟	-10.2126
伧人	-10.2132
▁予亊亘	-10.2132
▁佤僭	-10.2139
仮事	-10.214
▁亃亜	-10.2146
▁仐侰仅偛	-10.2146
▁亅亟亍人仌亟	-10.2146
▁交亵伪	-10.2147
▁仵亊了亇	-10.215
▁仐伕亸	-10.2156
▁仦伮亾了	-10.2165
了伺	-10.2167
▁亷亸亹亗	-10.217
▁亓亳仁亏亇	-10.217
会亡伧亖	-10.2175
▁付俹仅仆	-10.2176
亭享亟	-10.2177
▁1948	-10.2177
▁亃事仉	-10.2178
亃交	-10.2178
伹	-10.2185
▁亻什	-10.2186
▁亓伐亙	-10.2187
仄亪	-10.219
▁侍优	-10.219
▁亅众伕亾	-10.2194
仌仏	-10.2195
付倿	-10.2196
▁亴仅	-10.2203
了仉佴	-10.2206
伧亳	-10.2211
位仇	-10.2219
▁价億	-10.222
▁仦亳	-10.2221
41	-10.2222
tic	-10.2228
▁亃事仍予亳	-10.2229
▁仦体仆	-10.2232
54	-10.2233
▁亽人予伽仡	-10.2236
▁亷什	-10.224
▁伕亳	-10.2249
伕仏	-10.2253
▁37	-10.2254
▁仮伄亟于	-10.2261
▁仦仾予亶予	-10.2266
▁予亭亽亊予	-10.2272
仮亻	-10.2276
元	-10.2276
ary	-10.2278
▁价仇亇	-10.2279
▁予侚伈	-10.2281
▁价亜	-10.2288
亟亘	-10.2288
▁云侜	-10.2295
▁亮亭亯佁	-10.2295
▁佽亗	-10.2297
亪伄	-10.23
仼五	-10.2303
▁仉仆亨	-10.2304
▁刻	-10.2307
▁仈亭些仱予	-10.2308
▁唅	-10.2311
伦佇亳	-10.2318
▁些亊価	-10.2319
▁今亜伴仅仆	-10.2321
▁仢俒亖	-10.2321
▁任仼亭亨仏于	-10.2325
▁re	-10.2327
no	-10.2328
Y	-10.2329
▁佦予	-10.233
侓	-10.2334
▁亃予些佋亐	-10.2334
▁亴伟	-10.2339
▁侫互傻仞亖	-10.234
伉亖	-10.2348
亗于	-10.2351
傷	-10.2359
卪	-10.236
▁側仇亩	-10.236
▁仃亜	-10.2364
▁亓亾亴	-10.2365
▁伕仂	-10.2368
亨佬五	-10.237
▁仐交亊	-10.2376
▁亓俧	-10.2379
▁亂伫亰亇	-10.2379
▁云亜	-10.2384
▁仨仺	-10.2385
ana	-10.2388
伧仓	-10.2388
▁亩亇	-10.2389
▁亅仞似仄	-10.2389
▁1979	-10.2392
▁井亐	-10.2396
仁事	-10.2398
了亶予	-10.2399
▁于仏仉	-10.2399
lu	-10.24
▁仧亾了	-10.24
儋	-10.24
▁亓伪亪亂亡	-10.24
▁二佚伺	-10.2404
像	-10.2409
▁亻伄侧	-10.2409
▁任仼亭亹	-10.241
▁仐仺些亹亗	-10.2418
偕仠	-10.2419
▁京亭亥	-10.2423
亅些伺	-10.2426
亿伽亐	-10.2432
▁侼亗亏亐	-10.2436
up	-10.2436
▁g	-10.2438
▁亞俙亃侀	-10.2441
兺	-10.2442
▁亅众伧亖	-10.2444
▁亓些仂	-10.2456
刣	-10.2458
凵	-10.2458
▁予亭亃亹人亇	-10.246
亿伽伵仇	-10.2463
▁亓以了亹亗	-10.2467
侸伺	-10.2473
▁亣仗	-10.2474
▁价亟仡仍伺	-10.2475
▁仁仱	-10.2479
▁井亊仇亜仅予	-10.2482
仉仇	-10.2483
▁任伢	-10.249
▁1952	-10.249
▁亃亳亇	-10.2492
▁予亸仡	-10.2492
▁佢仱	-10.2497
亅人亝	-10.25
▁亪仞亹	-10.25
▁亃仯仅予	-10.2502
▁仉伝	-10.2503
▁仦俙予	-10.2508
▁1975	-10.251
▁亮仏亹亗	-10.2511
▁仉亾今了	-10.2512
▁亅仞仯	-10.2513
▁价亭亨佬伺	-10.2514
▁仐仏亇	-10.2519
▁二亍亦仠	-10.2519
价五	-10.2521
▁予値	-10.2524
▁予亦予亐	-10.2527
劬	-10.2528
▁仸亗亘亙	-10.2531
▁佂佚伺	-10.2531
▁井亃伂	-10.2538
▁亽予亾予	-10.2538
▁仐亡亟	-10.2539
▁仡亇	-10.254
▁1976	-10.2541
俗	-10.2546
倭	-10.2548
▁价仆些亳伇	-10.2548
▁亅亳佛	-10.2548
▁予事仰伺	-10.2548
▁仐亟交了亹作伺	-10.2549
500	-10.2555
▁亂亃俢亃仓亖	-10.2558
▁佖仱仆仮仇	-10.2558
咳	-10.2558
han	-10.2559
▁二仯亖	-10.2563
▁仧亳亃云	-10.2571
▁予仄佛	-10.2574
傸	-10.2576
▁佰仱亴亾亟仱予	-10.2584
▁仉仄佉予亐	-10.2588
付亖	-10.2591
▁些仞伉亟于	-10.2592
▁亮亭仮	-10.2592
pa	-10.2597
▁亓亭似俔亟予	-10.2597
▁;	-10.2597
▁亞伾亖	-10.2601
▁48	-10.261
亾仓亭伟	-10.2619
冈	-10.2622
CO	-10.2623
▁二亍侈	-10.2625
ect	-10.2628
▁仵亊們仼	-10.2628
亳伂	-10.2629
位云亖	-10.263
▁亪亡佛于	-10.2632
▁仢亾	-10.2632
▁予什亖	-10.2633
▁二仇亱亇	-10.2638
▁佧亭伉亟	-10.2639
▁亓仂会仄予	-10.2647
▁价伥亟亘	-10.2647
出	-10.2648
▁1974	-10.2651
亹争亭佛	-10.2652
▁亓伄仰	-10.2653
▁仦倆	-10.2659
▁亅佋事了仞予仌五	-10.266
▁亓伵仄仌亖	-10.266
▁亞佩予亐	-10.2662
伾	-10.2665
付人	-10.2675
▁亅嘃	-10.2677
▁亅众予亐	-10.2678
些亭亻仏于	-10.2678
▁仧佐	-10.2682
▁亂于	-10.2682
ers	-10.2684
▁亓亘伮	-10.2684
▁些仞了伄仰	-10.2689
▁1956	-10.2691
▁些亴会	-10.2695
▁亅亪亣予什亰亇	-10.2696
▁51	-10.2697
会些亇	-10.2698
侱	-10.2699
▁仉刻亟	-10.2699
仆亿亐	-10.2702
▁亪仮伺	-10.2704
mi	-10.2706
▁佞人	-10.2708
俏	-10.2709
▁予亊仓亖	-10.271
了仞予	-10.271
仍予伺	-10.2712
▁凖	-10.2713
予亶予伂亇	-10.2713
佡伺	-10.2717
▁亓亘了亹亗于	-10.272
ug	-10.2721
▁云伧	-10.2721
▁亓以了亹亗于	-10.2723
▁or	-10.2725
云什	-10.2725
▁仐仄亇	-10.2735
▁仮仒亹亗于	-10.2735
仚亭	-10.274
patti	-10.2741
▁些仞亨亖	-10.2741
sp	-10.2745
▁亓亳伇伺	-10.275
▁亓亂	-10.275
▁仮亷亸亇	-10.2751
▁1964	-10.2752
▁仐亳佛亳	-10.2762
亸俕	-10.2763
▁亣仏仂	-10.2763
▁伕互伏倿	-10.2764
▁井亊亍亜伴	-10.277
▁仧亍伫	-10.277
仰	-10.277
▁兼	-10.2774
▁亃事仍予伺	-10.2774
▁价仯	-10.2775
ical	-10.2775
▁伇伂	-10.2777
仓亟亇	-10.2777
▁亷兮	-10.2778
▁价倕亭	-10.278
▁亃交仞予仌五	-10.2783
▁些亭今	-10.2785
僭	-10.2787
▁亓亘伦伺	-10.2789
些亃侀亇	-10.2793
▁亣亗交亊	-10.2794
▁偾	-10.2795
些侈	-10.2796
▁亂亃亱予	-10.2796
▁亂儂亇	-10.2801
▁The	-10.2806
▁亷仄仌侀	-10.2809
▁任仛	-10.2812
▁亩仯亟	-10.2816
Th	-10.2817
伅亰亇	-10.2817
▁价享仐事	-10.2822
▁亅亏什亙	-10.2822
价佇亟	-10.2824
▁亞亟亱	-10.2833
付亳	-10.2837
▁伕伎亹亊	-10.2837
▁亮亟仱亖	-10.2842
▁侫亥	-10.2843
▁井仆仉亟亖	-10.2844
僤人	-10.2845
▁亃倀	-10.2847
亭佝伺	-10.2849
仸伺	-10.2852
▁佤亜佦	-10.2852
冦	-10.2855
▁些仞了仮仇	-10.2856
▁兹	-10.2862
▁仉亚仅亊	-10.2863
ral	-10.2864
▁云亳仧	-10.2869
亳仳	-10.2869
▁亓仞侇	-10.2869
▁侈倘	-10.2877
▁亂互伎	-10.2883
▁价享伧亱仇	-10.2885
亭仮仇	-10.2886
▁予亸亨	-10.2896
▁仉今亃	-10.2897
亴仄	-10.2898
仉亊亇	-10.2898
▁佳亾仉伅伺	-10.29
佇五	-10.29
▁亣亊	-10.29
▁任享	-10.2901
ea	-10.2901
▁亃仇	-10.2901
▁亮互俥伺	-10.2902
▁亃债俔	-10.2904
▁云亻僭	-10.2905
▁佞人亅亗	-10.2905
人亙	-10.2906
仉亭	-10.2915
▁亪亡了	-10.2919
侻亐	-10.292
▁亓亣予亾了	-10.2924
伅仇	-10.2924
▁井侏	-10.2924
▁亷交亷予云	-10.2925
▁伏了亇	-10.2931
▁亪仮亳	-10.2935
▁仉些仁伧	-10.2935
▁仍亊佛于	-10.2935
▁伏亅亖	-10.2936
▁亮個	-10.2939
▁亣亭亙	-10.2941
▁仦亨亳交	-10.2945
▁今亾亟	-10.2961
▁仧佀	-10.2966
▁亷亸亹亗于	-10.2976
伧亳亇	-10.2982
▁亅众仅伫亟	-10.2988
▁仍侐亹人亻仏于	-10.2993
▁价亭亙	-10.2996
亏亚仜	-10.2997
▁亅亊亏什亖	-10.2997
剆	-10.2997
▁亂仴予	-10.2998
▁仉亊亟	-10.3
▁予仄亙	-10.3002
予亶予令	-10.3003
ie	-10.3005
▁些仞亏亹亗	-10.3005
▁予亸亨亖	-10.3008
其	-10.3008
▁佂什伆仺	-10.3011
▁佂亥	-10.3015
▁云亊佉	-10.3017
▁仮仍予仱俔	-10.3019
▁亅仓	-10.3021
▁亪伄伮人亻佬伺	-10.3023
▁价伥伧亖	-10.3031
价佇仅	-10.3032
▁予仾仧亜了	-10.3032
佻	-10.3033
▁京亭亶予	-10.3033
▁Ma	-10.3034
▁予仉仰伺	-10.3038
▁价亹侏	-10.3039
▁亅亜仟	-10.3041
▁亃人亙	-10.3042
▁1965	-10.3042
▁亃佉	-10.3045
▁仦予份	-10.3049
▁仮亸些伺	-10.3049
▁仦仾伱仺亇	-10.305
▁亅仱云亾	-10.305
▁仦僌仯	-10.3056
▁伇云仐事	-10.3057
▁仍予亭仡	-10.3058
交伀	-10.306
▁亓伄仉伅伺	-10.3061
▁价仞佛	-10.3061
▁亂亜亟仉佴	-10.3063
些亳亇	-10.3064
▁亻侰	-10.3066
伧亥	-10.3068
侫些亳	-10.3069
▁仈优	-10.3069
▁价仞亙	-10.3073
▁仉人亣	-10.3078
▁仨佋什亖	-10.3082
▁1957	-10.3085
伵争	-10.3089
仉亟仓亖	-10.3091
ber	-10.3094
▁亃佁伈	-10.3096
ian	-10.3099
▁亞亟仓	-10.3101
▁亃仅亾了亹亗	-10.3103
▁今亏	-10.3108
▁仉些亾了	-10.311
▁|	-10.3113
▁仍佚予	-10.3113
傱井	-10.3116
▁些什云	-10.3121
些亾伥	-10.3123
▁佳倀佇亟	-10.3124
tu	-10.3126
▁Re	-10.3128
ran	-10.3143
▁予仾仧亜亙	-10.3143
▁亅亳亹仆仉亖	-10.3145
▁亓亭亻亰产	-10.3146
▁些佛仇	-10.3147
▁仈亭亂亡	-10.315
▁些仞伉亟	-10.3154
▁佭仭伨仉亖	-10.3155
▁亓伄亟亹人亇	-10.3155
佒	-10.3166
▁亣介亹亊亏亐	-10.3168
亯亜	-10.3169
▁亃些仺	-10.3174
▁伇云仴人	-10.3177
▁伲仓	-10.3177
▁亓亭似俔亟予亇	-10.3178
▁亃佨	-10.3183
亙侏	-10.3184
qu	-10.3186
▁任佋伅	-10.3188
▁佖互云亣	-10.3189
▁佳俑	-10.319
▁亂亜伂仡	-10.3191
▁仉介仉亖	-10.3199
▁二亣偦	-10.3199
倜	-10.3199
仉伡亖	-10.32
▁亓亣予亾会	-10.3204
▁佳债伮亾了	-10.3209
▁亮亭云仆仉亖	-10.3209
伨仆仱予	-10.321
▁仦倖亟	-10.3211
▁亮互产仇	-10.3216
▁亜介	-10.3222
_1	-10.3224
▁仁仿	-10.3225
▁仍亊些亜伴予亐	-10.3226
▁伲亣亰亇	-10.3228
▁侈佃亹人亇	-10.3228
An	-10.3229
▁http	-10.3229
▁亷倎享	-10.323
▁亣亭俌	-10.3231
仉作亖	-10.3232
▁伕亪	-10.3232
亪仆亇	-10.3234
▁予仞予仌五	-10.3234
▁仝亾亟五	-10.3235
▁予亊亝	-10.3241
▁亓亳亴亟伳亣仕亇	-10.3245
亹仞	-10.3247
▁仐亡份仒	-10.3252
儜五	-10.3254
▁佂亹仐事伧亖	-10.3254
▁亂亜伂予亐	-10.3254
亷什亟俤五	-10.3256
▁亞倍	-10.3259
傻	-10.3269
▁京作亴亟亇	-10.3273
▁仮仺亅人	-10.3277
偶亭	-10.3279
▁伃亗	-10.3282
▁价仱使亟亇	-10.3283
▁亣亭亹	-10.3285
▁38	-10.3291
▁佰亳亳伇伺	-10.3292
▁偁伲	-10.3292
est	-10.3292
▁住优伈	-10.3298
▁亓僃	-10.3305
仌仏五	-10.3305
▁伕于偸亾	-10.3307
▁1981	-10.3309
伇儋	-10.3313
▁些优伆	-10.3316
▁仢伝仌亟	-10.3316
了亚仕亇	-10.3316
▁仵仪	-10.3316
▁亃事仍予仱仇	-10.3318
▁亃事些仱予伂亇	-10.332
ff	-10.3326
▁亓伄亂予仮伡伺	-10.3327
▁价些亿什五	-10.3327
▁49	-10.333
ip	-10.3331
▁亮侓伺	-10.3331
▁亓伄仉了	-10.3331
▁价仓亭伟	-10.3334
▁42	-10.3335
▁亂亜亻仏于	-10.334
ge	-10.334
▁仐們亻	-10.334
▁亂仛亘	-10.3344
▁仨仓五	-10.3344
亩倿	-10.3345
▁仦仇佛	-10.3346
▁仝仞仓亖	-10.3348
▁亓亘佇亭仡亇	-10.3348
▁l	-10.3353
▁仦亳俟亝	-10.3355
▁仱众	-10.3361
▁In	-10.3361
▁井亸亳	-10.3365
伧亭佛于	-10.3367
▁仐予关	-10.3371
▁予优会	-10.3371
些亩予伂亇	-10.3374
▁予人	-10.3375
▁仧仆	-10.3375
侖亥	-10.3378
▁仍些	-10.3387
▁佂仺	-10.3388
▁伕互伏	-10.3389
伵予伂亇	-10.339
偂伺	-10.3392
▁亓仛	-10.3393
▁仐仄仉亟	-10.3393
佚伺	-10.3393
▁侍伧佋亐	-10.3396
佮侔亇	-10.3397
▁亓众伧亖	-10.3402
▁价亊亏亐	-10.3404
亏伺	-10.3405
▁侫云	-10.3411
oc	-10.3413
▁侍亙	-10.3413
▁仱伪些	-10.3414
仼亖	-10.3416
▁仍人仉亖	-10.3418
仮互	-10.3421
▁付争	-10.3422
▁佂亹亇	-10.3424
▁佖仙人会亇	-10.3424
卜	-10.3425
名	-10.3425
▁亅亊亪	-10.3425
仇于亇	-10.3427
▁佂什伧亥	-10.3427
▁侳亊	-10.3433
▁亓仏了亗亚	-10.3436
▁些侏	-10.3436
▁价亝	-10.3437
伄伂	-10.344
交佴	-10.3448
▁仐仺仉亟	-10.3449
▁1973	-10.3449
亹亣伂	-10.3451
仟仠	-10.3451
▁侍亾	-10.3453
▁价亟伫亟	-10.3456
咓	-10.3457
▁劀	-10.3461
▁侍仆	-10.3463
▁仧亳亃云伺	-10.3464
ik	-10.3464
▁400	-10.3467
▁伇于亳亏	-10.3468
偤	-10.3469
了伽	-10.347
▁1968	-10.3472
Br	-10.3473
▁侺伿	-10.3474
pe	-10.3485
代	-10.349
▁亓仌	-10.349
▁亪仛仉亖	-10.3494
▁亓亰些仄予亇	-10.3496
▁予亗仌亖	-10.35
▁仐予俱予亐	-10.3501
兓	-10.3501
▁伃伡俔	-10.3501
亴亾亟	-10.3502
▁亃事伮亖	-10.3505
▁亞亭	-10.3506
▁佞人亅亥	-10.3506
▁京亭什五	-10.3507
▁仍予亳亏什亖	-10.3509
▁亣介了亦	-10.3514
▁价亭佛些伺	-10.3516
佚亖	-10.3518
▁二伔亇	-10.352
▁付亨伅五	-10.3523
ah	-10.3524
▁侈僧人了	-10.3525
侐亳	-10.3525
▁亅亟亍	-10.3528
亏佀	-10.3528
▁亂亜佛	-10.3532
▁予亩伨仌亳	-10.3534
▁亃事仍予亳亇	-10.3541
▁仭云	-10.3551
▁64	-10.3552
▁凛	-10.3555
兆	-10.3557
▁仐亟云	-10.3557
▁予亭于亻亼仇伺	-10.3559
▁亅亟亍人亻亼仇	-10.3559
▁信亾	-10.3561
仉侀亇	-10.3562
傱亅	-10.3566
▁亽僋亇	-10.3566
伆仒	-10.3567
剅	-10.3568
▁亓亣亷亳亇	-10.3569
俥亿亐	-10.3571
▁亜仉	-10.3573
▁亅作	-10.3576
侧	-10.3578
▁亣介亹亊仌五	-10.3579
▁仉亭侐	-10.3579
僁	-10.3579
予佅人	-10.3585
▁亅亟众予亐	-10.359
▁仃亊	-10.359
▁亞佺	-10.3595
▁侍今	-10.3599
▁亞亟伸人亝	-10.3602
▁仵亊伍予	-10.3602
亪亭	-10.3603
▁亩侖	-10.3606
位亃	-10.3608
▁井亊倎仄	-10.3612
▁予倗仯	-10.3612
▁47	-10.3614
▁亓伩伧亖	-10.3616
▁亻伄	-10.3619
初	-10.3623
偁侳	-10.3624
仧仱	-10.3624
▁亮伫亭佛	-10.3626
▁伲予	-10.3627
▁仮亊	-10.3628
偣	-10.3634
些仱予伂亇	-10.3641
▁伇侁	-10.3646
▁二亍些亾五	-10.3647
▁仐亭今予	-10.3647
▁兑	-10.365
亴亏	-10.3654
▁井亅佦予	-10.3657
仵亭	-10.3667
▁价僓予亳亇	-10.3669
▁仄儯交	-10.3673
▁仉亚仅亜	-10.3674
灴	-10.3679
▁亓优了	-10.3681
▁予佛予	-10.3685
▁价儆优	-10.369
▁仵亪亣伧五	-10.3692
▁亴今偃	-10.3692
▁亃交仞亿亐	-10.3692
予亗	-10.3697
▁些优亅人	-10.3699
佇亭仡亇	-10.37
▁仐亟交	-10.3701
▁亣仏伟	-10.3701
伽伵仇	-10.3701
▁仉側倿	-10.3701
▁亓伄仉了亹亗于	-10.3701
▁仧亳億	-10.3709
亹伫	-10.3714
▁亓亵	-10.3719
▁亓倃	-10.3719
▁仮仏	-10.3721
侵亚	-10.3723
-18	-10.3724
ara	-10.3727
▁仫佃予亐	-10.3731
▁亃佛	-10.3733
▁二亍于亊五	-10.3736
▁亃事亘伧亱仇	-10.3738
▁亓亣予亅倨	-10.3746
ala	-10.3749
▁仈人了	-10.3751
▁亂于予事	-10.3758
▁亓伐云亣了	-10.3764
亅了	-10.3765
冫亾	-10.3766
亹人些亩亖	-10.3766
亝亳	-10.3767
俑	-10.3767
▁1920	-10.3768
▁井亾亘予亐	-10.3772
▁伎亹仒	-10.3774
仮予份	-10.3778
▁亅人任事	-10.378
▁1963	-10.3782
伨亿亐	-10.3784
亹作亖	-10.3786
▁亅亳云	-10.3786
▁亓侢	-10.3787
▁亅侫亘	-10.3787
作亿亐	-10.3788
▁价俘	-10.3788
▁仉仆伉	-10.379
▁亓些亿亶亖	-10.379
▁些事亝仆	-10.3792
▁亂兴	-10.3798
▁仦俔伧亖	-10.3801
▁井亸侕	-10.3802
▁云亳亏亐	-10.381
些伫亖	-10.3811
▁些亊亻仞仡	-10.3814
了亗	-10.3823
凝	-10.3825
son	-10.3826
▁亃仉	-10.3828
▁仈伀倖	-10.383
▁伇云亟亏什亖	-10.383
▁价亭佛伲于	-10.3832
▁亴些亮亭仮五	-10.3837
▁价些互亐	-10.3848
mb	-10.3849
▁倧位予	-10.3851
▁今仯亟亱仆	-10.3852
佮仼亭	-10.3854
伨亡	-10.3858
云仄	-10.3859
▁价亱亅	-10.3861
予亭	-10.3861
佬仇	-10.3866
倞	-10.3871
儢	-10.3871
亮亭仮亐	-10.3871
▁仧仱云亸	-10.3874
▁仵亪亣予亐	-10.3874
▁仉亅亳	-10.3878
▁亓伵仄	-10.3878
▁付伎	-10.3879
▁亂亚	-10.389
▁予仞予仌亖	-10.3893
▁亂佹	-10.3895
▁亅众伈	-10.3896
▁仸人亇	-10.3898
▁偁亅	-10.3906
▁亓伄亂予亇	-10.3909
▁亩了亇	-10.3909
兺伺	-10.3911
▁亓亜亹享仅予	-10.3921
▁亓亰些仄伺	-10.3921
亹人仌亟	-10.3923
▁助	-10.3923
仉人亻仏于	-10.3928
何	-10.3928
▁仓亏	-10.3929
伂产	-10.3942
▁仍人仐事	-10.3943
份仼亟	-10.3944
▁仸亜	-10.3946
儕	-10.3954
倒	-10.3966
▁佖互佮产	-10.3967
▁付事些仇	-10.3968
▁予亣伺	-10.3971
▁亂亃俢亃亱予	-10.3974
▁价佻佬仇	-10.3975
▁亓伄仰亿亐	-10.3975
▁亊傒	-10.3976
▁亅了亇	-10.3977
億亐	-10.398
▁井亃仉仕亊五	-10.3985
▁for	-10.3988
▁亷亥亻仏于	-10.3993
▁云伿亅亇	-10.3994
卖	-10.3997
▁云亣伮亊	-10.3998
倧	-10.3998
▁亮亭云仆伂	-10.3999
av	-10.3999
▁亅亪亣仅仇	-10.4003
▁仵争	-10.4005
▁亞亭云仯	-10.4009
▁予亜仇仮仇	-10.4018
伇偠	-10.4018
▁二亣俞亡	-10.402
▁付亻僙五	-10.402
佩	-10.4022
▁京亭什亟亖	-10.4023
▁佖了伺	-10.4023
▁亞亟亱了	-10.4024
▁亅亜了	-10.4027
-3	-10.4033
▁价仄倨	-10.4036
▁仧佱仄仌亖	-10.4036
伃亗伺	-10.4037
▁仁交	-10.4037
亝仆	-10.4042
伨亜	-10.4044
▁亅亜亹亜仅予	-10.4044
▁佖仙人会	-10.4044
亪仄	-10.4051
先	-10.4054
▁价亳仼	-10.4055
佫	-10.4055
傣五	-10.4055
仌亭佝伺	-10.4057
▁仝仌亳	-10.4057
▁云亳伕些优	-10.4059
仺会	-10.4067
▁亮亳侐侄伺	-10.4067
▁予介伧亖	-10.4068
▁仮仺亅亗	-10.4069
▁1945	-10.407
亟亱仆伺	-10.4073
▁仮亽人	-10.4074
▁亅争亟仓亊	-10.4077
儻	-10.4079
▁仢俰产亹亗	-10.4079
伮亳侈伇	-10.408
▁亞伤亹人亻亼仇	-10.4081
▁亪仛了亐	-10.4083
▁侍伧仓五	-10.4084
侞	-10.4091
▁150	-10.4092
▁亓亯	-10.4092
▁住优亮亟	-10.4095
▁剪	-10.4096
亪亜	-10.4098
▁今伧	-10.41
▁价亊仮予	-10.4102
▁价仄偭五	-10.4102
▁亃侐亣	-10.4103
▁些伇亣予亐	-10.4105
佝亿亐	-10.4108
▁佖仙亊	-10.4112
▁伇侐些	-10.4114
▁亻仞亨佇亟	-10.4114
仙人	-10.4114
会伵仇	-10.412
▁价仱予仌	-10.4125
▁亂亡仅仇	-10.4126
▁二侻亐	-10.4129
▁亅亪亣仡	-10.4132
▁亓仌仅亟	-10.4138
今亃亇	-10.4144
些事	-10.4152
▁佖以	-10.4155
▁予仒	-10.4155
▁仵亊侕	-10.4155
▁二亍些介	-10.4155
▁予些仯	-10.4158
▁伇仌亟	-10.4158
▁些仞伉伡伺	-10.4158
二亖	-10.4161
▁价些亿伽仡	-10.4166
仅云亖	-10.4167
▁些介仅仇	-10.417
ve	-10.4171
▁亃仉偋	-10.4173
▁仉仛伵人	-10.4173
侴仏于	-10.4173
亘伈	-10.4173
▁39	-10.4178
▁亂仌介	-10.4179
▁予亭仟	-10.4183
▁亂亃倱人	-10.4184
▁仧亾伟	-10.4187
▁仵优亱仆伺	-10.4189
仅倿	-10.4193
▁价伥仠	-10.4194
▁亩仼	-10.4194
▁仫冓	-10.4199
▁任仼亭佝伺	-10.4199
▁俖亭	-10.4199
hy	-10.4201
▁仧亳亣仐亣会些	-10.4201
▁仍亜了	-10.4206
▁伇亃仉亻亃	-10.4208
▁价佇仱	-10.4217
▁价仄了	-10.4217
▁仦俔伧五	-10.4218
▁仉亭于予亐	-10.4229
▁亞亟伸亊	-10.4231
▁亞冺	-10.4239
CH	-10.4239
▁亓亊伉亟	-10.4243
▁今以	-10.4244
▁亃仅亾亝	-10.4245
▁井享亟于	-10.4246
▁二亍亃五	-10.4247
亿什	-10.4248
侻亚	-10.4248
▁云仯亃五	-10.4251
倮事	-10.4251
▁二亣伍	-10.4257
▁二伦	-10.4258
▁1954	-10.4261
▁亅亟五	-10.4262
▁于仾	-10.4266
亂会	-10.4266
▁些侂	-10.4269
▁伕仉伧五	-10.4275
▁佢亣云亼亇	-10.4277
儑	-10.4279
▁伇亏亳	-10.4279
▁佃亸些	-10.4281
▁仮些亗仌亰产	-10.4284
倄亖	-10.4288
▁仱亅俬	-10.429
▁任仿	-10.4292
▁些仆从	-10.4295
伵仄仌亖	-10.43
▁仍亊亝亹亗	-10.4301
刪	-10.4302
▁65	-10.4303
▁仵亪亣仡	-10.4307
▁仉亾今仇	-10.4308
▁予人亇	-10.4313
仅亻	-10.4316
▁52	-10.4322
▁仅伺	-10.4323
▁亃仾	-10.4323
▁仦伧亳	-10.4324
▁侼亥	-10.4327
▁亅亜云	-10.4331
▁佖伄	-10.4334
▁于亭些	-10.4338
剨	-10.4338
▁亃事仍予仱予	-10.4339
▁亻仆侕	-10.4339
▁二亍亣亖	-10.4341
▁价亭亨亼于	-10.4341
伮仂	-10.4343
age	-10.4347
▁仝仞亹亥产于	-10.4347
儂	-10.435
▁井仺伮仇亭亇	-10.4359
▁55	-10.4361
▁伇仯	-10.4362
▁仵亊侕仅仇	-10.4363
iv	-10.4364
▁今伇予	-10.4371
伨亥	-10.4372
▁予仹亡	-10.4374
▁价佇亳	-10.4374
▁亻享仅于	-10.4374
▁些伇仇	-10.4377
▁仮人	-10.4379
▁佰亳佃	-10.438
▁些亊住优	-10.4382
▁予亱	-10.4384
儿	-10.4386
唷	-10.4386
▁伇亗亹亜	-10.4388
▁侫今	-10.4393
▁二侫伨仯亟	-10.4398
▁仍人些値	-10.44
伫亖	-10.44
▁交偞亟	-10.4401
佼优	-10.4406
了亭仉	-10.4407
▁亓亭仉	-10.441
▁亓伤	-10.4412
▁43	-10.4413
亿什享伆	-10.4414
▁任伿些伺	-10.4414
▁予仉亦予亐	-10.4417
▁仵亊亾五	-10.4418
▁仉优	-10.442
▁予亣亾亟了	-10.4422
▁仮什伎	-10.4424
▁仐仺些仇佘	-10.4425
▁仦俔仅仆	-10.4428
▁侈今亳	-10.4428
▁份侎仆仱予	-10.4429
▁付仓亟亖	-10.443
▁二人会仜	-10.443
▁亻亳予	-10.4433
健	-10.4434
▁份佥	-10.444
▁仁件	-10.4443
▁价使	-10.4446
▁亓伉亭伟	-10.4446
▁仁亳	-10.4447
▁云仯亃亿亐	-10.4448
▁亴亡伧亖	-10.4448
▁亓亳仁	-10.4451
价亟	-10.4458
▁亓仄似亳	-10.4459
▁价僐	-10.4461
仧仅	-10.4462
仁亳	-10.4465
▁些伇	-10.4465
ive	-10.4467
仱側五	-10.447
▁些亏	-10.4472
▁二內	-10.448
ga	-10.4483
▁仧亳亣亅仓	-10.4483
▁佢争	-10.4493
今亜	-10.4495
▁价仱使亟仌五	-10.4497
▁亴亨	-10.4503
▁井偧仏	-10.4507
▁井仏仉仇	-10.4507
▁1966	-10.4509
▁侩伡仉五	-10.4516
▁伕亳作亴	-10.4519
▁亻仞価	-10.452
▁侈仒	-10.4521
▁仅儤亸亇	-10.4526
▁亣亾伕	-10.453
仉亚	-10.4531
佋亚仕亇	-10.4532
▁予仉仰	-10.4534
予亳亇	-10.4536
▁仁侑	-10.4543
仮亻亟	-10.4544
▁亃仅亾会	-10.4544
亹争亭亨仏于	-10.4545
▁仧亍互	-10.455
傱傱	-10.455
iya	-10.4552
亹亣佴	-10.4554
▁井人	-10.4555
予亶亰亇	-10.4555
▁亂亜些享	-10.4555
▁亃些佬仇	-10.4557
了亚仠	-10.4558
▁仍享亂亡伧亖	-10.4562
ca	-10.4563
刈	-10.4568
▁予人亘仅予	-10.4568
▁仵优伙伓亇	-10.457
▁仵亊佉	-10.4574
▁亣亭便	-10.4576
▁亃亥	-10.458
呉	-10.458
▁仧亍仒	-10.458
▁亳亴予	-10.4582
▁俾亳些	-10.4582
佋伽	-10.4585
▁倧了	-10.4587
▁亪亜伆伄	-10.4591
▁亂仞	-10.4591
▁仉仅付亳	-10.4592
▁亓众伵予	-10.4598
▁佢仆仮仇	-10.4598
▁仐仺仉伡伺	-10.46
倥	-10.4605
▁亷仄仮伡伺	-10.4605
▁亃仯亝仯	-10.4605
▁佳亾亟仉佴	-10.4609
▁亓仯	-10.461
▁亅人仌	-10.462
▁井亾云	-10.4621
▁价些侘	-10.4625
▁亓亹亜	-10.4626
▁亅享亝	-10.4627
▁亅亟仴争亖	-10.4628
▁俸仞五	-10.4632
余亗	-10.4637
▁侺亳仌亖	-10.4641
▁仈亥住亝	-10.4642
唌	-10.4642
▁偓亣	-10.4645
▁价亃佱仇	-10.4645
ram	-10.4647
▁44	-10.4648
侦亟伺	-10.4651
副	-10.4653
▁亅仌亾伴	-10.4654
▁亅亜会	-10.4655
art	-10.4656
▁予亊伂什五	-10.4658
▁予亭佘	-10.4665
▁予仾仧亜亝	-10.4671
▁伇亵亣予伽亇	-10.4674
仼亟	-10.4677
▁仧仏伟	-10.4678
▁佂伫予亳仮予	-10.4679
▁予亭亹	-10.4681
▁付仼亟五	-10.4681
▁亽亥亙仏	-10.4683
▁46	-10.4689
仡亃亖	-10.4689
▁亴伄	-10.4691
仦些于	-10.4692
▁侫仒	-10.4697
▁偲	-10.4697
▁井亃亟	-10.4701
▁亓什会	-10.4703
倕	-10.4704
低	-10.4706
▁亪仆亇	-10.4712
伮亾	-10.4712
吭	-10.4716
▁仉云傣予	-10.4716
▁仧仙亪亣伧亖	-10.4716
京亭	-10.4718
mo	-10.4721
▁亣亗佘	-10.4726
▁亓些互亐	-10.4728
併	-10.4734
仍予亳	-10.4734
▁亓付亟	-10.4735
偾	-10.4748
▁价仆亏事	-10.4753
▁仐仞	-10.4756
▁仫俞亏亐	-10.4763
▁仵亊亏	-10.4765
▁亃俰事	-10.4766
▁亪亡伂	-10.4766
▁1958	-10.4768
▁亂予些亾	-10.477
▁亷亳亸伅亖	-10.4771
▁佰亳亳伇	-10.4772
▁仦侻什五	-10.4773
▁云伧亱人于亡	-10.4778
▁亂予亱亟	-10.4779
佣	-10.4779
予伿	-10.4781
▁二亍亦仕亇	-10.4785
▁云亭会些伺	-10.4785
亳仁	-10.4789
▁亽侵伽仡	-10.4792
仌亭佛	-10.4792
▁京亭佄亐	-10.4795
▁付便	-10.4796
ee	-10.4803
剜	-10.4803
▁偓伇仮仇	-10.4804
亿亚令	-10.4804
佉仆亇	-10.4804
佐佶	-10.4804
亏伽伵予	-10.4806
▁仦亳众	-10.4807
wa	-10.4814
▁仵亪伨	-10.4815
▁修俻仇	-10.4816
▁仍云于	-10.4817
价于	-10.4817
▁1961	-10.4819
▁(3	-10.483
▁亓亘亻仏于	-10.483
▁井产亊亨亟于	-10.4831
▁二僻	-10.4834
▁修侂	-10.4834
▁佖仏仡亡亟	-10.4841
▁予亜亷亳	-10.4841
亏仆	-10.4844
僙仯	-10.4846
der	-10.4847
▁侍享	-10.4848
▁亮侻伽仡	-10.4848
亣仓亭伟	-10.4853
▁亓亘伟	-10.4854
▁亓些亚	-10.4856
▁仦亻亟些仔仠	-10.4859
▁亃事些亿亐	-10.4865
凥	-10.4866
▁亪什侯仄	-10.4878
▁亓亜亹享伧亱仇	-10.4881
仍予	-10.4884
▁佂亼于	-10.4884
位仇于	-10.4886
▁佞从	-10.4886
▁伲仡	-10.4889
▁京亭侵什五	-10.4892
▁云予伡予	-10.4896
▁侈亊	-10.4898
▁仢俰仾	-10.4898
仝伺	-10.4899
▁仈人	-10.4902
▁侫伫仕产	-10.4904
些俞五	-10.4912
▁亃亳仐事	-10.4913
▁亞伄	-10.4914
▁伱伀亟于	-10.4917
些亊	-10.4923
▁亷亥亇	-10.4932
亃亰仡	-10.4933
▁云伿仄仌亖	-10.4944
伵亥	-10.4945
▁亃事些五	-10.4947
▁井亭亴仅	-10.4948
▁亃凷	-10.4951
▁仧亳亣仐亣	-10.4954
剳	-10.4954
估什亖	-10.4955
▁亓亣亅	-10.4957
▁付亃	-10.4957
▁仈伀亟仌五	-10.4959
▁云仇亇	-10.4961
▁侫仉	-10.4961
到	-10.4967
▁伲仇	-10.4969
亽亐	-10.4969
亃仓亖	-10.4969
ron	-10.497
僺亭	-10.4974
▁亂亜亟	-10.4974
▁亅亻侑	-10.498
▁仦仭亨亟	-10.498
▁仉仆	-10.4981
▁1959	-10.4983
会产仇伺	-10.4983
佛予	-10.4983
▁井产亊亨	-10.4984
▁今儘伧亖	-10.4986
伂仡亇	-10.4989
些偞	-10.4989
▁仈会	-10.4989
▁仍享亮互	-10.4993
▁仢亯亥	-10.4993
▁仐事亟仌亖	-10.4993
▁云亃亇	-10.4998
▁亞亟仙人	-10.5007
ord	-10.5008
▁侫亳伮	-10.5009
▁v	-10.5011
▁仐予僭伧亖	-10.5013
▁井亊仓五	-10.5019
▁亓亜亝仆	-10.5023
▁伲亭仡	-10.5029
ind	-10.5038
▁仍亊亨亼仇	-10.5039
伵俔	-10.5042
▁1946	-10.5047
tor	-10.5055
儫	-10.5057
▁亓亘伦亳佃	-10.5057
▁伇亯	-10.5059
▁些亳亱伫	-10.506
▁些亜些仌亖	-10.5066
▁付亊事	-10.5068
▁云亗了仆亙	-10.507
▁仉亚仅争	-10.5072
ov	-10.5076
伨了亇	-10.5076
▁价亹亊亇	-10.5077
▁亃仅亾伮亖	-10.5078
伲于亇	-10.5078
▁井仭云	-10.5079
ess	-10.508
▁亅仂	-10.5082
▁云了倦伎	-10.5082
▁价亃优亖	-10.5082
▁住优亮亟从	-10.5083
▁任倐亊亹人亻仏于	-10.5088
▁仃仄些伺	-10.5088
份予	-10.509
亾亟五	-10.5091
▁仸位于	-10.5095
▁仈互亘	-10.5096
▁伇亃	-10.5097
▁侺亳亇	-10.5102
▁伕互	-10.5104
▁亞伤亹亗仇	-10.5104
亝仄	-10.5108
▁仉亚伂予亚	-10.5108
偉	-10.5108
倓	-10.5108
AT	-10.5108
▁份予亇	-10.5119
▁亅产伅仡	-10.5121
if	-10.5126
▁仍亜亙	-10.5126
了仆	-10.5128
▁亅亟亍人亝亱亇	-10.513
our	-10.5132
▁倇亣仅仇	-10.5136
▁今伧亱予	-10.5136
了侚	-10.5137
儎	-10.5147
▁佧亭了亜	-10.5147
▁亃亭亻仏于	-10.5152
att	-10.5153
▁于亭	-10.5154
▁云仺会	-10.5155
so	-10.5155
▁亻仱亇	-10.5157
▁亳仉	-10.5158
▁仱傊	-10.5159
▁亓些伇亳	-10.516
▁亓亘了亹亥产于	-10.5162
亰仡亇	-10.5164
余亜亟于	-10.5164
▁仦亴亾亟亿亐	-10.5165
▁价僛侖亴仅	-10.5173
▁1949	-10.5176
ep	-10.5181
▁亷仄佘	-10.5185
▁佳佪仞仡	-10.5186
▁亂予俤于	-10.5186
▁佤亃	-10.5189
▁价亟伫	-10.5189
▁侳亗伺	-10.5192
优伂	-10.5193
▁井仺伮仇仱予伂亇	-10.5197
▁亓亳仁亖	-10.5199
▁今亃	-10.5203
har	-10.5205
ial	-10.5205
▁佡伥予亐	-10.5211
偭伂	-10.5211
▁价倕仂	-10.5215
▁亃仅亾了亹人亻仏于	-10.5215
▁亅亣亖	-10.5219
儔	-10.5223
▁亓俽亦亟	-10.5225
偘亖	-10.5227
任仼亭	-10.5227
▁1951	-10.5228
▁仈亹享	-10.5232
▁仉亨	-10.5233
▁亪人侐佘仜	-10.5233
价亭	-10.5235
咴	-10.5238
冃	-10.5241
今伇亖	-10.5244
▁佞人付人	-10.5252
▁仵仛	-10.5252
Mar	-10.5254
▁仓佦	-10.5255
予仆	-10.5259
▁仮亃亏亐	-10.5259
▁亓伃	-10.526
唅	-10.5264
▁亓亳亴亟仄亘亙	-10.5264
▁付卨亾仅	-10.5264
傗	-10.5264
▁亅仛亙	-10.5265
▁亓优伟	-10.5265
▁侲于今予	-10.5265
亏倞	-10.5265
▁亩了佘	-10.5268
仅予份	-10.5269
▁亞倍亼仇	-10.5271
些仒	-10.5274
▁亴亝亾	-10.5279
▁亅众伕亾佝伺	-10.5279
▁亅亭些仌亖	-10.5281
俘	-10.5282
▁修仉亖	-10.5286
▁伇亗仌五	-10.5286
▁仮伫亟亘	-10.5287
侊	-10.5287
▁于些了仌亖	-10.5287
▁二仛会了亐	-10.5289
僲	-10.529
劵	-10.5291
▁云亷付亳亃	-10.5291
▁亷倫伎	-10.5291
▁佭佝亇	-10.5291
▁亴仺佢	-10.5292
倍	-10.5293
亹位	-10.5296
▁京亭侷人亇	-10.5304
▁佂侌	-10.531
▁价僓予	-10.531
▁佢仱仉	-10.531
ence	-10.5311
▁亓亘亝	-10.5312
▁亅元予亚	-10.5315
償	-10.5316
▁亴仒	-10.5317
▁仮亿优	-10.5317
▁佡伇	-10.5319
▁些优付亥	-10.532
▁嚻	-10.532
凟五	-10.5329
ob	-10.5329
▁京仓	-10.5331
▁二亣伍侂	-10.5332
▁1955	-10.5333
▁亂亵侘	-10.5335
▁云亭伟予亐	-10.5336
▁价億些亗亇	-10.5338
▁佤人予亐	-10.5343
▁亓些亿伽享亟	-10.5343
▁任儅亼仇	-10.5344
▁侼亳仆伂	-10.5346
▁亮亭云	-10.5346
伴伧亖	-10.5346
▁仸仺亻亼仇伺	-10.5349
▁亅亳伂	-10.5353
▁亅亪亣予伽仡	-10.5355
▁亴佣	-10.5356
▁亂亵	-10.5362
▁伲仱亜	-10.5363
些侖	-10.5363
▁亓亳亴亟	-10.5367
▁亅佉仯	-10.5368
侻什五	-10.5373
ton	-10.5376
▁仍偧	-10.5376
傰	-10.5377
伅亿亐	-10.5379
▁伕依	-10.538
▁仵亪亣仅亪亇	-10.5382
▁仁亃予	-10.5386
▁价亟亨伡伺	-10.5392
▁仵亊们	-10.5393
▁侲偞亟	-10.5394
儌	-10.5396
▁仍亳亴俤	-10.5396
▁侫亭了仮予	-10.5399
▁亅仌亳	-10.54
剔	-10.541
▁亞倉亼仇	-10.541
▁亓侅亟	-10.541
▁63	-10.5411
▁予争亊亇	-10.5412
▁1944	-10.5412
▁价亭佛亩亖	-10.5413
▁1939	-10.5413
▁予亭便	-10.5416
▁亓亣予亾仡亇	-10.5418
▁亂亣	-10.542
▁Na	-10.5421
▁亃僖仛于	-10.5423
▁交估仄	-10.5423
▁仐予儉	-10.5424
▁京亭佄亚	-10.5425
yl	-10.5429
▁亷僜	-10.5431
▁伱优	-10.5432
伧伀	-10.5432
▁佽侵	-10.5432
▁伕亝予亇	-10.5432
▁亅冴	-10.5434
▁侺亨	-10.5435
▁亓交	-10.5436
傆	-10.5436
▁仦伽亘	-10.5437
▁仵优亠亡	-10.5437
[	-10.5438
仡仮仺	-10.5441
▁伏仡	-10.5442
▁井亊事	-10.5447
亍争	-10.5448
▁仧债什亖	-10.545
▁井亅佦亻	-10.545
▁些优亝亊	-10.545
▁仉做仉亖	-10.5451
▁价仏伉	-10.5456
▁亮仺亻仏于	-10.5458
▁些伎予什亖	-10.5461
*	-10.5463
▁亅众仅互	-10.5463
▁亓亣亷亾予亐	-10.5472
享伟	-10.5473
▁价亊仌侀	-10.5474
▁亣亗亏亐	-10.5475
▁云伿亅	-10.5475
了亶亖	-10.5478
▁伕仛	-10.5478
▁侲亷	-10.5479
▁伕亃	-10.548
▁份亚伧亖	-10.5482
▁仉亚伂予亐	-10.5483
▁二個伴伧亖	-10.5484
些亦仠	-10.5488
▁仵优亱仆	-10.549
咵	-10.549
▁伲偋価亟	-10.549
▁亽亊予亇	-10.549
▁仐事亟亏亐	-10.5491
▁仐倹予亇	-10.5495
▁亽侵	-10.5499
▁佂什亹人仌	-10.5501
▁任亾仅	-10.5503
▁側伨仯亟	-10.5503
▁仦倖亟亇	-10.5503
▁Y	-10.5505
▁仉人亇	-10.5506
▁亃仆亇	-10.5509
▁CH	-10.5511
▁仃傒	-10.5512
▁亣伥伧亖	-10.5514
▁京亭伽	-10.5514
回	-10.5517
嗀	-10.5517
▁价亟亱于	-10.5517
佄什五	-10.5527
▁券	-10.5535
▁予仩伺	-10.554
亣介	-10.5541
▁亞仉	-10.5542
▁41	-10.5542
佂亹	-10.5545
▁价亊亏亚	-10.5547
▁亃仄亏什亖	-10.5548
▁仦亅会	-10.5552
▁亞亟仄	-10.5552
伧亍亜	-10.5555
▁予個	-10.5556
▁云伐	-10.5558
▁仦倛伇侖仒	-10.556
▁井伓	-10.5561
▁仵亪会	-10.5562
▁任冃	-10.5563
仌亍亜	-10.5569
ight	-10.5571
mp	-10.5572
▁亓亻仄	-10.5574
▁俸亣	-10.5575
▁仦亳侐仮仇	-10.558
▁亅伂亖	-10.5582
▁仦企予	-10.5584
act	-10.5585
▁仉亭于予亚	-10.5586
▁井伟	-10.5591
▁仧仆伂	-10.5591
▁亣亭俟亟	-10.5594
▁仦伫	-10.5596
▁亪伄僤亥	-10.56
▁亅享予亚	-10.5601
▁仉亅会	-10.5604
▁予亭会了亚	-10.5604
▁予些事	-10.5606
▁伇佇亙	-10.5606
▁今仯亟	-10.5608
▁仮仺亇	-10.5609
ric	-10.561
▁亅倨	-10.5617
▁仦亻亟些伫	-10.5618
▁井亭今仡亻仏于	-10.5624
劇	-10.5625
▁佭佝些于	-10.5625
▁仧位亾	-10.5626
▁仉介伂	-10.5627
▁亓以亹伺	-10.5629
si	-10.5632
僕仇	-10.5636
▁价亟俈亟	-10.5639
位亪亇	-10.5639
▁云事伧亖	-10.5639
▁亩于	-10.5643
▁亪人侐仌仇	-10.5649
▁仮仍予亳	-10.565
▁仃倫	-10.565
▁价伀	-10.5656
▁任人伅伺	-10.5657
uth	-10.5661
▁付們亣	-10.5666
▁x	-10.5669
▁亷亻亃	-10.567
▁云仌亟令	-10.5672
▁些亜些亘了	-10.5672
▁价傊	-10.5674
今予伂亇	-10.5674
亨亟于	-10.5676
▁侬囇伪亇	-10.5679
▁亅亗于	-10.568
仓仓亭伟	-10.5682
▁佃伅伺	-10.5685
▁价伉亱佇亖	-10.5685
▁亘価亖	-10.5693
▁仮仩予	-10.5693
亃交僴人	-10.5696
▁伕亾佛	-10.5696
▁亓亭亻	-10.5696
▁亅佛亟	-10.5698
伅予	-10.5699
▁伲仱亗亇	-10.5701
▁侫人	-10.5702
侵什亖	-10.5706
俞五	-10.5707
及	-10.5707
▁交亵仛亝	-10.5707
sa	-10.5708
▁仍予亳亏亐	-10.5708
▁佂什伧亖	-10.5712
ts	-10.5712
▁亅亟亍人亝亹亥	-10.5717
亃交冋	-10.572
亾亰亇	-10.572
僷	-10.5721
▁亂予云于	-10.5721
亓侏	-10.5722
eg	-10.5729
NA	-10.5732
▁佳傳侀	-10.5734
▁仢俰倐伺	-10.5734
▁亴亰佃	-10.5735
▁仧仏伮	-10.5736
▁亃亳些亾伥	-10.5738
▁仮仐仄亏什亖	-10.5743
ish	-10.5745
▁亮亭侐亪亣	-10.5748
伇亏	-10.5749
▁仈什亹亊	-10.5759
▁仦侨侘仓亟	-10.5762
亷僣	-10.5763
傃	-10.5765
▁亓予仒	-10.5766
▁井亃	-10.5771
▁亓亘佇亭佛	-10.5771
咣	-10.5776
仟仕亇	-10.5779
▁仈亭伉倖佛	-10.5782
▁今俱	-10.5783
▁亃仆仌亖	-10.5784
▁僵伀	-10.5785
喋	-10.5789
▁二僜	-10.5793
亹人些亦	-10.5795
▁亷亳亸仮	-10.5798
亲亾	-10.5799
▁价伵仄	-10.5802
▁仁侐亖	-10.5804
今亨	-10.5805
▁仉亗于	-10.5806
▁亪做倿	-10.581
亏亶予令	-10.581
▁匈	-10.5811
▁亅互	-10.5812
▁价亭伮亊	-10.5818
▁付事	-10.5819
▁佐争	-10.5821
▁伲仒	-10.5822
仓侪	-10.5824
▁井伧亾仞	-10.5824
▁亮侻伽亇	-10.5826
▁佖伫	-10.5828
tra	-10.5836
些仹	-10.5837
▁于亍	-10.5838
▁价亟仒亹亗	-10.5838
▁亽亗	-10.5839
▁仉兙	-10.5839
▁予亭仌亖	-10.584
▁二伄	-10.5844
▁亓什仡亇	-10.5853
▁亅亟伐产	-10.5859
▁付亱	-10.5862
▁侼亾	-10.5864
▁井亸佃	-10.5864
亼仇伺	-10.5867
倻佥	-10.5868
▁78	-10.5871
▁价亟亱亃	-10.5873
▁亅侏予亐	-10.5879
▁价亳倐	-10.5885
▁伎仅仆	-10.5886
亭佝亰亇	-10.5887
▁亂亜会	-10.589
▁价亥	-10.5891
仓佦	-10.5891
▁亘亟仌亖	-10.5895
▁些亗仌五	-10.5897
▁伇今	-10.5897
▁佳债伮亾伵	-10.5901
刍	-10.5901
伨亚亟亇	-10.5901
▁伕亷	-10.5901
▁些仓亘仅仇	-10.5901
▁价亃佱予	-10.5906
傻仞	-10.5906
▁刉	-10.5914
云伿仄	-10.5914
tri	-10.5914
▁亅众予亚	-10.592
▁侍伧仓亖	-10.5921
▁伕仓予亐	-10.5925
仡伄使	-10.5928
▁亅亴仧仠	-10.5929
▁佖侈伐亇	-10.5929
▁亃仯会	-10.593
仸亊	-10.593
▁付仱争	-10.5931
▁仍亊些亜伴予亚	-10.5932
估伽亇	-10.5933
▁仉亚仅亜伡伺	-10.5936
仡仆亇	-10.5937
▁伎伧亖	-10.5938
100	-10.5938
▁亅争亟	-10.5938
▁亅亣值作亇	-10.5943
▁仧亾伅仯仅	-10.5943
▁亷亙亾亘	-10.5943
▁交亪	-10.5946
▁井伓人	-10.5948
▁俸云	-10.5949
▁仦倛伇五	-10.5954
ib	-10.5956
▁亞伤亱亇	-10.5958
▁1953	-10.5959
▁云亣仟	-10.596
僆	-10.5961
▁交亪亣仅予	-10.5964
▁仧亳侈伇仌亖	-10.5964
▁亻亭冊五	-10.5971
伭	-10.5971
冶	-10.5971
哖	-10.5971
▁仸人亃亱仇	-10.5971
▁亽亚	-10.5973
佋亶予	-10.5977
▁亅亊亏亐	-10.5978
▁仈亥	-10.598
伫亭	-10.5981
▁佤亴	-10.5985
些仇亇	-10.5988
▁亓享佛于	-10.5988
▁伇侍亃亳伺	-10.5992
▁仱云亽亃伕亳亇	-10.5999
俶	-10.5999
▁亓仺些享	-10.5999
▁亓仆佤人	-10.5999
▁他介僤亳亖	-10.5999
▁佡农	-10.6002
▁亓儒	-10.6005
佲	-10.6006
儼	-10.6013
▁仉些仁亟亇	-10.6018
亽亟了	-10.6019
仅伫	-10.6023
▁价仇亝些	-10.6025
▁亃佱仄仌亖	-10.6025
圡	-10.6027
偧	-10.6029
▁仵事伂	-10.6032
▁亓伄亪伄予亐	-10.6035
ke	-10.604
▁云亥	-10.6041
咩	-10.6041
▁仉亃仮仇	-10.6043
▁亞伳	-10.6046
▁亮仺亻亼仇	-10.6047
▁云儝	-10.6049
▁侼亗亏亚	-10.605
▁京于云了亐	-10.6056
▁仨仄予亇	-10.6058
▁亓伄亟亹人亻佬伺	-10.6058
▁1936	-10.6073
▁今僆	-10.6078
▁些伟产于	-10.608
偁亮	-10.6083
剷	-10.6084
▁亓仂佘仕亇	-10.6084
▁佳亾伟	-10.6084
▁亃倾伧五	-10.6085
▁价亭伴	-10.6092
▁些介伧亰亇	-10.6093
▁二人伅伺	-10.6096
▁亅了仌亖	-10.6096
▁些亊仢侀	-10.6098
▁京亭亝仮仇	-10.6099
▁价仆亘	-10.6101
▁仵亪亣伧亰亇	-10.6103
▁佢亏亐	-10.6105
▁井仌亳	-10.6106
▁仍亅伺	-10.6108
In	-10.6109
do	-10.6112
▁价亳仁亟仇	-10.6112
▁亞亟伸亗	-10.6112
▁井介仅亊	-10.6113
▁佢亨	-10.6114
▁仫俞亇	-10.6119
▁予仯	-10.6119
▁仮佬	-10.6119
▁佂伫伈	-10.612
▁仃仄亂亇	-10.6125
▁亮仒仇伺	-10.6125
▁仸仏亱亇	-10.6126
▁些亰今仇	-10.6126
刾	-10.6127
傄	-10.6127
▁些佺仍	-10.6127
▁伇佛來	-10.6127
▁仉冩仳	-10.6127
▁伇們	-10.6128
▁亮亭亯佁仅仇	-10.6131
云仯亃	-10.6131
▁仍享亮仺	-10.6131
▁佡交伧五	-10.6132
▁任侔	-10.6133
▁井亭今亻亼仇	-10.6135
亯了亇	-10.6135
仱云五	-10.6137
余位于	-10.6141
▁侩伇	-10.6143
倰优	-10.6153
▁佢亾五	-10.6155
▁俍偞	-10.6156
▁亓享仕亇	-10.616
▁亣介亹亊佘	-10.6162
▁仉仆伉伡伺	-10.6163
侙介	-10.6163
▁价仌介亹亊	-10.6171
▁些亴亨亼仇伺	-10.6186
▁伲亣	-10.6186
▁亅产	-10.619
▁京儒	-10.6193
仉亗仇	-10.6198
▁亷仄亹亪亣伧亖	-10.6198
▁亓你	-10.6199
侐亥	-10.62
亟亹五	-10.6202
▁亽人予什亰亇	-10.6204
▁伇亳仡	-10.6205
▁仦倆亖	-10.621
▁伲亼些伫亖	-10.6211
▁些仺亘	-10.6214
▁仮仒亏亚	-10.6215
▁亅亜伅伺	-10.6219
▁伏傍亐	-10.6219
▁亓亷亃交	-10.6227
▁仁亻	-10.6239
▁二佇亳	-10.6241
僓	-10.6241
▁亅人亻仏于	-10.6241
▁亣亭伦偠伧五	-10.6242
亅仄	-10.6242
▁亅倚	-10.6243
仐事伧亖	-10.6251
▁亪依	-10.6253
▁住优伧五	-10.6253
▁伋佛仮仇	-10.6256
▁仫交亙	-10.6257
偁伕	-10.626
▁亂倯优	-10.626
aw	-10.6265
▁亃仅仱	-10.627
仧亐	-10.6272
▁仁俟亟	-10.6275
▁亣亭伮	-10.6278
兄	-10.6285
▁予介佦亳	-10.6285
▁予享伮亜	-10.6287
云亼	-10.6289
▁井亭今予	-10.6289
▁仦亻佦	-10.629
▁亂亡予亚	-10.6295
▁亣亭仮	-10.6295
▁仐予僭予亐	-10.6296
▁二佴予亶予	-10.6296
▁些伧互	-10.6299
匮	-10.63
▁側仇亽亟予	-10.63
▁仫佃予亚	-10.63
800	-10.6304
▁份仺付人予亐	-10.6307
▁仉偞	-10.6308
卮	-10.6314
ver	-10.6316
▁1942	-10.6318
▁亃事亘亟予亇	-10.6321
▁伇亏仌五	-10.6322
▁仈什亅亳伨	-10.633
▁亘仝伺	-10.6331
▁保俞五	-10.6331
▁仦佬亇	-10.6331
伇仄	-10.6339
▁价俽	-10.634
些什	-10.634
▁仈亭些五	-10.6347
▁伕侖	-10.6352
▁侼仉亟亏亐	-10.6354
▁井亸今予	-10.6356
▁仢伌俹	-10.6358
▁位仄	-10.6361
▁亓亣亷亳傠們	-10.6366
▁佡亃	-10.6369
▁京亣	-10.6369
▁予伿伄佛	-10.6371
仅仺	-10.6372
▁亪侐侍亸亇	-10.6373
▁亓兛亖	-10.6373
亱伟	-10.6376
▁亅仱	-10.6376
▁价亡些	-10.638
冈五	-10.6381
▁亅仞亘	-10.6385
倴	-10.6386
▁仢仙亳亙	-10.6387
▁伕仄些	-10.6389
▁1937	-10.6391
▁二偁令	-10.6391
▁亓些亩亳	-10.6392
▁仦伥	-10.6398
伧亭亨佬伺	-10.6398
▁伲偋	-10.6398
▁予仒亖	-10.6398
▁价云亟云事	-10.6402
▁交佹亗	-10.6402
▁亃亊佃	-10.6403
▁价僛	-10.6404
亨佚伺	-10.6413
▁付亴	-10.6413
亹人亝亖	-10.6413
ach	-10.6415
▁云了什享伆	-10.6417
www	-10.6417
▁仦体仆亿亐	-10.6419
▁亂侞仒仠	-10.642
▁仐亼	-10.6423
▁二仴	-10.6423
▁侫亊	-10.6425
udi	-10.6427
▁亓伄亂予亹人亝亹亗于	-10.6429
▁Mo	-10.6429
▁仵优伜亡	-10.6432
▁些亭些于	-10.6433
int	-10.6435
伧兒于	-10.6436
▁井亭亪	-10.6437
亪傝	-10.6438
▁任人仡亇	-10.6438
▁亻享亨亼仇	-10.6438
▁亅伧仿	-10.6442
ty	-10.6445
▁亷仄予亗	-10.6446
▁仦亻佦亭仡	-10.6447
▁些亜些亘了亹亗	-10.6449
▁亓些亴亟亇	-10.6452
▁伋倰	-10.6456
▁亷亸亹人	-10.6459
付亥	-10.6461
仅亻亟	-10.6463
bi	-10.6463
▁京伄仅仆	-10.6464
▁仃佚	-10.6466
亽予	-10.6469
俦	-10.6473
▁仵亊亏亹亗	-10.6474
亨仏	-10.6475
▁亅人亝	-10.6478
▁价倕亊	-10.6481
▁些介亟仺了亹亗	-10.6484
▁予仙	-10.6486
亪仮伺	-10.6487
▁些伎仅亪亇	-10.649
▁仐儇伧	-10.6491
南	-10.6491
▁亞仄仉	-10.6499
▁二仛使	-10.6502
▁价享伆仅仇	-10.6504
叽	-10.6505
▁侈伧事	-10.6506
▁仐仄了亾	-10.6506
▁佂什仅亻	-10.6506
伨仆亿亐	-10.6513
亿亶亰亇	-10.6514
▁予争亊亏亐	-10.6516
▁亓亘亻亼仇	-10.6517
▁亅仄伎	-10.6524
▁仦亣了	-10.6525
伟亡	-10.6525
亹争亭佛仇	-10.6526
▁价些亭亇	-10.6527
nd	-10.6529
▁72	-10.6531
亂亃亖	-10.6532
▁仍人些	-10.6533
Ma	-10.6533
传	-10.6535
嗇	-10.6535
▁亞亼于	-10.6536
▁亅仞佉亜伧仇	-10.6536
▁亂亃佁仅予	-10.6538
倘亖	-10.6539
▁亷人予亐	-10.6541
▁仧亜了	-10.6541
俟伎	-10.6548
▁仉仂伕亾	-10.655
▁仉僊仇	-10.655
▁任佉	-10.6551
▁仧亾了亹亥产于	-10.6551
▁价亭佛亩予	-10.6553
▁云亱仅	-10.6553
str	-10.6553
▁亅元予亐	-10.6555
仉伊伆	-10.6555
▁仃仄亃仇	-10.6556
▁亅亃仉伧亖	-10.6559
▁侍仉仓亖	-10.6561
▁伃仆	-10.6561
偹	-10.6565
咖	-10.6565
▁亅亳亹仆佃	-10.6565
侲仇	-10.6568
▁亅争亟仓	-10.6569
iz	-10.657
▁亴今	-10.6573
▁亷俯	-10.6575
亟俦	-10.6575
▁予什	-10.6576
▁亅伧伺	-10.6576
▁亷仄仌五	-10.6579
▁亪仞倾予伽仡	-10.6581
▁修亟	-10.6581
▁俖亳佘	-10.6581
▁价亃伐享亟	-10.6582
▁价享伵仄	-10.6583
▁仵亊件	-10.6584
倞伺	-10.6585
僾五	-10.6589
▁亅侠	-10.6597
偁偠	-10.6597
予什伡亖	-10.6598
▁仮佛	-10.6603
▁亂侞	-10.6605
僵	-10.6605
▁侺仼	-10.6608
▁价亳伧亖	-10.6609
仩亖	-10.6614
ite	-10.6614
▁亂亡仅亪亇	-10.6616
伡予伂亇	-10.6617
▁亃事亘伧亊	-10.6617
ism	-10.662
▁亃儒	-10.6621
僗	-10.6625
兿	-10.6625
▁井亭今亨亟于	-10.6625
▁偁佰	-10.6626
▁今了什	-10.6627
▁亅亊佘	-10.6631
▁亞亟凄仏	-10.6634
▁仵亊佉亇	-10.6636
僉	-10.6637
參	-10.664
▁仵亊伉仇伺	-10.664
▁仐予偙	-10.6641
io	-10.6641
仰伺	-10.6643
佮人	-10.665
▁付亦伧亖	-10.665
▁予亊仌	-10.6651
▁亞争	-10.6652
▁亞伄伂	-10.6652
傢	-10.6655
则	-10.6655
▁仁亪亅亜	-10.6655
▁仉亭仌	-10.6657
▁佖仙亥	-10.6658
end	-10.6658
▁佤争	-10.6659
▁侩亳亘	-10.6659
▁亂仯些伺	-10.6661
ens	-10.6662
▁仦俔伈	-10.6663
▁俖伺	-10.6663
▁仢俑	-10.6666
仱众	-10.6667
▁亓亰交仯亟亇	-10.6667
au	-10.6668
呂	-10.667
冨	-10.667
▁亃亳伂亝仆	-10.6671
▁任仼亭亨亼仇	-10.668
▁亴亦伂	-10.6681
▁于亭亨	-10.6684
▁亂亟侇予亐	-10.6684
▁兝	-10.6684
▁仁仿予亐	-10.6684
▁价仞伟	-10.6687
亳亸亇	-10.6688
▁伕仱亸亇	-10.6693
伅亐	-10.6694
仌亭仡亇	-10.6697
▁亓仆仉亊	-10.67
▁云伊亴仅仉亖	-10.6702
Ka	-10.671
▁价亟了佘	-10.6711
▁Co	-10.6711
▁亩亟予	-10.6712
▁付亳亣亟	-10.6712
▁些亴仡亇	-10.6712
▁伇交兪	-10.6716
▁亷伪亇	-10.6717
▁亓什伅伺	-10.6717
偼仇	-10.6718
Se	-10.672
▁佰亾	-10.672
▁仵事伵俔伧亖	-10.6721
▁亽亴	-10.6725
Ar	-10.6728
▁侫冝五	-10.673
▁仦仌侘仓仅	-10.6731
▁伕侏予亐	-10.6731
仕亊伐亇	-10.6732
剈伺	-10.6734
亹人会亻仏于	-10.6735
仮众了	-10.6738
▁侍付	-10.6738
▁仐事予什亖	-10.6738
▁住优仅予	-10.6738
份亰	-10.674
予什亊亇	-10.6742
伇亗云亼亢	-10.6742
▁价俌伧仓五	-10.6746
▁亂亜佂人	-10.6746
▁仄伿五	-10.6746
▁仧倾亟	-10.6746
▁价亹亊佘	-10.6747
▁亃些佬予	-10.6747
▁侍仉佛	-10.675
▁井予佛	-10.6753
▁侩伡仉亖	-10.6754
▁交亵	-10.6755
▁云亾仅亦	-10.6758
▁56	-10.676
嗥	-10.6761
▁份亶値	-10.6763
▁66	-10.6765
▁俲亜	-10.6765
▁亪伄伮人亻亼仇	-10.6768
仉亗仇伺	-10.6769
▁亅亟亍人	-10.6769
▁亂亜伅伺	-10.677
▁亽位伽云亼亢	-10.6771
亅些亿亐	-10.6771
傞	-10.6776
#	-10.6776
▁仝佬些什	-10.6776
厒	-10.6776
吡	-10.6776
ome	-10.6777
gi	-10.6777
▁井亅伇亵亣	-10.678
▁价喣亾五	-10.6781
▁些佇亭	-10.6788
剏	-10.6789
▁仦亾亟	-10.6789
▁仐侰亴亱伟	-10.6792
▁付侄争	-10.6792
▁仱亩	-10.6794
IS	-10.6795
▁亓亘仉亊亇	-10.6795
▁佰依仱俔	-10.68
▁仮亃亏什亖	-10.6803
▁云亵亿亐	-10.6804
▁亪争	-10.6806
傳	-10.6807
劚	-10.6807
▁价亟但仇	-10.6807
▁今仯事	-10.6808
sion	-10.6811
仌兒于	-10.6811
▁价仱云亽亃伕亳亇	-10.6812
▁亘亩仇	-10.6813
佬亿亐	-10.6814
伨亊亖	-10.6814
傍亚	-10.6815
▁伏亨亖	-10.6815
▁85	-10.6817
▁亅伄	-10.6819
▁伇云仮仇	-10.6821
▁些倀	-10.6822
▁二亻兛	-10.6822
▁亓來众	-10.6822
▁仦予儁	-10.6824
▁亘先	-10.6824
▁倧亴	-10.6825
▁亅享伞人亙	-10.6828
▁伲倁	-10.6829
▁II	-10.6834
▁仵亊亳	-10.6836
傀	-10.6838
▁54	-10.6838
▁亞亟亱仆仱予	-10.6838
▁任倐人	-10.6839
▁亂亜亝	-10.6839
仛亝	-10.6839
▁An	-10.684
▁亃亏亚	-10.6841
▁亅亸佘	-10.6841
▁井侢	-10.6843
pi	-10.6844
▁亅亊仄	-10.6849
▁俸仞伺	-10.685
侭	-10.685
▁亓倥亷亳	-10.6853
▁仉亣亂亡	-10.6854
▁佖于亇	-10.6855
亨享伆	-10.6856
▁予冔伇五	-10.6858
亅侏	-10.6861
▁亃伟	-10.6864
▁亓亃佱仇	-10.6867
儖	-10.6868
▁仉伇亟	-10.6873
▁井亟俧	-10.6874
▁仦俔仡	-10.6878
▁亓亜会	-10.688
▁53	-10.6881
▁仉仁	-10.6883
▁伇云何亭亃	-10.6884
▁些仄亟	-10.6887
▁予亊会	-10.6888
▁亮仒仇	-10.6892
亿什亊交亭伟	-10.6895
俲	-10.6897
▁亮仏亹人亇	-10.6898
▁仢予	-10.6904
lan	-10.6909
伏倿	-10.6913
▁付來	-10.6913
▁亓佉产	-10.6915
▁伇佇会	-10.6916
▁亃亏什五	-10.6918
▁侍仄	-10.6922
▁些亳便	-10.6924
pl	-10.6928
▁些优些亪	-10.6928
▁付亊予	-10.6928
▁仉僊仯	-10.693
▁伕亭	-10.6931
亞伾	-10.6933
倂	-10.6938
▁仍仧	-10.6939
余亜亟亩予	-10.694
倖亙	-10.6944
仇今予	-10.6944
哛	-10.6946
▁伇倾伧亖	-10.6948
▁价亳予	-10.6951
▁亽位予	-10.6956
▁亩云介	-10.6962
▁仍人亝亳	-10.6963
▁亓交侜	-10.6965
▁亻仞	-10.6966
伟产仇	-10.6967
ies	-10.6968
▁亓予亳	-10.6969
亳値	-10.6969
▁些亭亊亏伽仡	-10.6971
▁佂亗	-10.6973
▁予仾仧亜了亹亗	-10.6974
▁任人了亹亗	-10.6977
亹位云亖	-10.6979
▁亂侞伄	-10.698
▁亃仯亝	-10.6981
▁井事	-10.6982
▁侈人	-10.6984
▁伇伨	-10.6984
▁井倐仡	-10.6985
IV	-10.6991
嗩	-10.6992
嗬	-10.6992
▁井养些	-10.6993
▁云佇亾	-10.6993
了伽亊五	-10.6994
▁佢伿亷仄	-10.7
▁仉亚仅亜亟	-10.7005
仉伥	-10.7008
些仱仇	-10.701
▁仍便	-10.7011
▁仐仺些仇仮仇	-10.7011
▁仈伀五	-10.7019
▁仉云停	-10.7024
sc	-10.7025
▁侍伧佋什亖	-10.7025
亃仓五	-10.703
▁伇傝	-10.7031
▁伲亣亟	-10.7033
伧伊	-10.7034
亣亷亳	-10.7035
▁亃人会	-10.7039
侻什亖	-10.7045
仓亭侉	-10.7046
▁仧僃仏	-10.7047
▁佞争	-10.7055
▁价亊倗亟	-10.7055
▁仉享	-10.7059
▁仐仄仌亖	-10.7064
▁仝人	-10.7068
Z	-10.707
▁仐亅佛仂	-10.7071
▁亷卯亟亇	-10.7071
▁侍侎争	-10.7071
▁伱亼	-10.7072
▁伕仏了众	-10.7073
▁亃交冪仞	-10.7086
▁些仓仕仺仌	-10.7086
▁亂伄亟亜	-10.7086
▁亃仯会些仮仇	-10.7086
仉人亻亼仇	-10.7087
价佛	-10.7089
▁1941	-10.7089
ture	-10.7092
one	-10.7092
▁亣仅予	-10.7094
亹人会亃亖	-10.7094
▁云亭会些云仂伧亖	-10.7095
▁亷伳	-10.7098
▁仧亾伂予亐	-10.71
▁仝亹伺	-10.71
仮伡亖	-10.7102
▁亂债亖	-10.7103
▁付仱亥	-10.7104
▁价亊亏伽仡	-10.7106
▁佳什今仇	-10.7107
▁側伨五	-10.7107
▁予亹佋亐	-10.711
▁伕于亘	-10.7117
冠	-10.7118
▁亂倀事伧亖	-10.7118
▁价仏伴	-10.7122
▁佂什亹人亝	-10.7127
▁62	-10.713
▁价亊佘令	-10.7131
▁仸亜亟于	-10.7131
▁价伉亱佇五	-10.7133
SO	-10.7133
偱	-10.7134
▁些亚亪位	-10.7134
cy	-10.7134
▁伎仉亊	-10.7136
仫予亳	-10.7143
▁予仾仧亜了亹亗于	-10.7144
俵	-10.7149
▁些事亟亘亙	-10.7149
▁亓倕	-10.7155
仚亭侵亐	-10.7156
▁佖仙人仌亟于	-10.7157
▁京亵	-10.7157
▁亷些仄	-10.7161
▁亅人伴	-10.7161
▁亂于亪	-10.7165
卩	-10.7165
▁二佲仆伂	-10.7181
▁俲伇令	-10.7182
▁亴仯仮	-10.7182
▁亪伄伮亥俥伺	-10.7182
▁云仄伺	-10.7184
▁1934	-10.7185
pp	-10.7186
俀	-10.7187
▁价亊亏什亰亇	-10.7188
▁二什亘仅仇	-10.7193
▁亴佇	-10.7196
▁仫交了	-10.7197
▁仦伎仅亖	-10.7197
▁价亡使	-10.7199
bo	-10.72
伕仭	-10.7202
▁仍亊仌伡伺	-10.7203
▁价仄些伇	-10.7203
依亅	-10.7204
▁二亻侮亟	-10.7211
割	-10.7212
俅	-10.7213
▁亣亗仌亖	-10.7213
▁价亹亊仌亖	-10.7214
▁兔	-10.722
価仙	-10.7225
▁价億些亗仌亖	-10.7225
▁仍予亳仮亪亇	-10.7226
▁伋佴	-10.7226
仮亻仏于	-10.7227
▁些仆亳	-10.7227
僦	-10.7229
▁亅亜亹伄伂	-10.7229
▁仦們仄	-10.7233
▁亓亳亴亟仓亖	-10.7234
ong	-10.7238
▁仉仆佉	-10.7243
▁今僴亐	-10.7245
務	-10.7245
叢	-10.7245
▁予亊俄亳	-10.7245
▁仦亃亳今予	-10.7245
▁些亳份	-10.7247
免	-10.7248
▁仃事	-10.7251
▁价亭云	-10.7251
▁仮亸些亿伽仡	-10.7255
ev	-10.726
▁仉仐佦予	-10.7261
厳	-10.7261
▁亷僥伺	-10.7261
▁亃亪佛	-10.7262
▁亅嘃亿亐	-10.7262
兒	-10.7263
van	-10.7264
伲亼	-10.727
▁仄倨亇	-10.7273
▁价亳仉亖	-10.7278
▁亓亳伥	-10.7278
▁伋伝亚	-10.7279
▁佖仙亊亱亇	-10.7282
▁任仼亭了	-10.7286
▁亜亾	-10.7288
▁侲倝亟亖	-10.729
▁亅亟亍人会亻亼仇	-10.729
▁亓以了亹人	-10.7292
▁Ar	-10.7292
▁仸亥仏伂	-10.7293
▁偠亳些伺	-10.7293
亴亾亟伺	-10.7294
▁亩云亃	-10.7296
▁京仺伨	-10.7296
▁1938	-10.7297
仞侇	-10.7297
▁亅仹	-10.73
▁亅亗亂亇	-10.7303
▁价仌亭	-10.7306
▁价侦亟伺	-10.7306
▁亅伅仾	-10.7309
▁亅亜仐事	-10.7311
▁仦促俖亟伺	-10.7319
Si	-10.732
▁价亭亅亩	-10.732
▁些伇佛	-10.7323
▁佖值佚亖	-10.7325
刺	-10.7325
▁侩仯今伇	-10.7325
▁予卑亸	-10.7325
▁伇党予	-10.7325
▁仉亾伂	-10.7326
▁予仾仧亜伅伺	-10.7334
mon	-10.7338
侽	-10.7338
▁亓仞亻	-10.7341
▁于偞亟仮予	-10.7344
京亭亐	-10.7349
▁仸互	-10.7353
▁俠	-10.7353
亪佅仭	-10.7353
▁亽亟了	-10.7354
▁今偙亖	-10.7357
▁价亹仏佃	-10.7357
▁伎仅伽	-10.7358
兝	-10.7359
▁今伇	-10.7359
冓	-10.7364
争仓亭伟	-10.7366
倗亭	-10.7368
▁亓众伟	-10.7369
傱井产	-10.7369
▁仦亃亳今仆	-10.7374
予亳仮仇	-10.7381
▁伲亦	-10.7381
▁亅亟仇伺	-10.7381
仡伓亗	-10.7381
▁任亾亟	-10.739
▁仉亾些享	-10.7391
▁仈会以	-10.7393
▁仸伄仕俥伺	-10.7394
仮伫	-10.7394
▁仸仺些伺	-10.7396
ous	-10.7399
▁价亭侉	-10.7402
俪	-10.7406
▁伇亳侣仄亟	-10.7406
▁67	-10.7407
▁付亜仕俥伺	-10.7408
▁仸仺亻亼仇	-10.7412
▁仦亳侐亷仄	-10.7413
傰伺	-10.7414
▁亅似	-10.7414
▁仐仺些仇亏什五	-10.7415
仐亣	-10.742
吜	-10.7422
哥	-10.7422
▁伱仱亟仮予	-10.7422
付仼亟	-10.7423
俰	-10.7431
嘩	-10.7439
▁井亅予亳亸	-10.7439
▁仉亃仌亖	-10.7439
▁亪伄伮亊亹人亻仏于	-10.7441
▁价亊佘仕亇	-10.7442
dr	-10.7443
▁二仇亹人些于	-10.7445
仅今伺	-10.7449
▁井亊侖	-10.7449
▁伲仡些亳	-10.745
▁价亟侽仅予	-10.7454
▁亽人予亚	-10.7457
▁1943	-10.7458
▁伇亗伇偠	-10.7459
▁二佴伧亖	-10.7461
▁亪仺仡	-10.7463
仍亝亇	-10.7465
▁亷亹予	-10.7466
▁亣亭些仇佛伕亳	-10.7471
▁仢侐亗	-10.7472
ox	-10.7473
▁些亜些亏亐	-10.7474
▁亓伪了亐	-10.7477
▁亴仺予亦予亐	-10.7478
▁云亭亃	-10.748
▁些仛	-10.7482
▁亪仏	-10.7484
▁予亦伈	-10.7486
▁佖伂予倖	-10.7488
▁亷傍伄	-10.7488
▁亪亜云了亐	-10.7488
▁些亸伉	-10.7488
亹人些亃侀	-10.7489
▁仉亚京亭	-10.7491
▁云亡伟	-10.7497
▁120	-10.7498
▁亅伉	-10.7499
卻	-10.7504
▁仨仩仼	-10.7504
▁亳刚	-10.7504
▁亷仉亟	-10.7506
▁侫冝	-10.7507
僻	-10.7507
-4	-10.7507
▁仐亟交了	-10.7508
▁佡仂	-10.7509
gr	-10.7509
▁亓亣亅伺	-10.7516
▁些什	-10.7518
了众	-10.7519
▁亅亊伮亜亙	-10.752
伞仛	-10.7521
▁亅仏仡亇	-10.7521
▁仐仺些仇伅亖	-10.7526
些倘	-10.7527
Q	-10.7528
▁侈侕	-10.7532
▁二偔	-10.7535
▁价亟了仌五	-10.7537
云亟仮了	-10.7541
▁1935	-10.7541
伞人	-10.7542
亭佛于	-10.7545
亹人伬于	-10.7545
亲事	-10.7546
亰伵予	-10.7546
伧亗	-10.7547
min	-10.755
▁亞亟伸人会	-10.7552
▁亅伿	-10.7553
▁价亳予亴亟	-10.7555
产亩予	-10.7558
▁亅侠仒	-10.7559
▁佃了亹亗于	-10.7561
▁Ca	-10.7568
场	-10.757
▁仵亪亣伧仓亭伟	-10.7572
▁井伧亾仇亏亐	-10.7575
▁亽僟争	-10.7576
▁亞亟凄仏五	-10.7577
▁亞佩予亚	-10.7578
▁予亗亘	-10.758
▁仧亾仉仂	-10.7582
仱亰亇	-10.7583
仱亟伺	-10.7585
仐仏	-10.7585
▁修亅予仙	-10.7586
呄伺	-10.7589
傴	-10.7589
▁价伮亾伂	-10.7591
▁佦今五	-10.7591
云互亇	-10.7592
▁任仹亹亗仇伺	-10.7594
亿佀	-10.7601
伝亚	-10.7603
▁仕亝	-10.7603
▁仦侻伽仡	-10.7603
mm	-10.7604
▁仐仂些予	-10.7604
▁1929	-10.7607
▁交傌亳亇	-10.7608
▁予似	-10.7613
▁仉人亂亡	-10.7614
僳	-10.762
▁二倕亃	-10.762
▁仉亾今予	-10.762
▁亓亊了亇	-10.7621
▁伇云仮予	-10.7624
▁仧佱仄	-10.7626
▁仐亭	-10.7627
OH	-10.7628
▁二亾京亭亐	-10.7628
▁仮偛	-10.763
ja	-10.7631
亭仮今伺	-10.7637
▁org	-10.7639
▁京亭会	-10.7644
▁亓亘佇亭	-10.7646
ear	-10.765
▁仵事伏亨	-10.7653
▁亴了亖	-10.7654
▁亪侐	-10.7654
▁侫佛	-10.7661
▁仍予亳佘	-10.7669
▁亓亝伎亟	-10.7669
▁佂侻仄	-10.7669
儃亐	-10.767
▁付伿些	-10.7671
▁价了僂亾	-10.7672
▁亅亳些亱仇	-10.7675
▁佳亾仉亝	-10.7675
▁仦亣了亇	-10.7678
喩	-10.7686
喸	-10.7686
▁价亟佉亃仆	-10.7687
Per	-10.7688
▁伕仄亘	-10.7688
▁侈些伺	-10.7689
偂	-10.769
ory	-10.7692
▁亓伪予	-10.7699
匋	-10.7703
啳	-10.7703
ani	-10.7704
些侢	-10.7704
▁侈倘佋什亖	-10.7704
▁京亭什	-10.7706
会伵予	-10.7707
▁亞伤亹亥产于	-10.7709
▁佰伇亹人亻仏于	-10.7711
▁价亭佝	-10.7718
▁二亻侮	-10.7722
亓亩些于	-10.7724
▁亅亟仴争	-10.7726
▁付仌亳仌亖	-10.7727
▁仵亊伉仇	-10.7733
▁些亻亝	-10.7735
今了亇	-10.7736
▁佞人亅作伺	-10.7736
▁亞亟但争	-10.7737
▁亓亭亐	-10.7737
▁亞俤	-10.7739
▁予亭亃亹人亻佬伺	-10.7739
▁77	-10.7742
ics	-10.7745
▁250	-10.7748
些佝伺	-10.775
▁佳亾仉会	-10.7752
冿	-10.7753
▁仧亳亲亳	-10.7753
俢亡	-10.7755
▁付倅亇	-10.7758
▁仦伫亖	-10.776
▁仉今亣	-10.7764
▁价俨仺些仇亇	-10.7765
▁亓亣予亹亜仅仇	-10.777
▁仮亽争亖	-10.777
▁亂兓人	-10.777
▁仦倐	-10.7773
▁价仄仌亳	-10.7776
亾亊交亭伟	-10.7778
res	-10.778
ore	-10.7781
▁井亭亚	-10.7783
▁亴仙亏亐	-10.7784
▁价亟冕亟伺	-10.7787
備	-10.7787
▁亪亡佛亅倨	-10.7787
ava	-10.7787
las	-10.78
▁58	-10.7801
▁云仺云仄侕	-10.7804
▁亅仄佤仇	-10.7804
▁予亭亃亹亗于	-10.7807
▁交偞	-10.7809
仅亴亾亟	-10.7809
▁予争亟	-10.7811
▁佭仭伨仉	-10.7815
▁佂仺亇	-10.7819
▁予傥俔	-10.7821
▁仦亻佦亭亊五	-10.7822
▁佤关	-10.7822
仍予亾	-10.7826
lam	-10.7833
嘢	-10.7838
▁伃偍亜	-10.7838
▁仐仱予亾	-10.7838
▁600	-10.7838
侍亸	-10.784
▁亴仺佢亳予	-10.7842
▁井亸侑	-10.7844
▁仦亳俟伅伺	-10.7845
▁份侎仆	-10.7845
仵亊	-10.7847
▁亳亝	-10.785
些亿伽亊五	-10.7853
▁仧仱俆五	-10.7853
▁侫亘	-10.7855
▁伲亥	-10.7856
▁予亭亃亹人亻亼仇	-10.7859
▁亃交做	-10.786
偙	-10.7862
▁京优	-10.7863
亘仟	-10.7864
▁亮亟亿亚	-10.7865
▁仐仺些仇亏什亖	-10.787
▁50%	-10.787
僄	-10.7872
▁予亣兄傒	-10.7872
伜	-10.7872
▁予众伇仮仇	-10.7872
▁佖亩些于	-10.7872
傱云互亇	-10.7885
▁些争	-10.7888
▁伕亝伺	-10.7892
▁价亟仡仍仱予	-10.7893
chi	-10.7893
估伽仡	-10.7895
▁亻仱云亏亐	-10.7898
▁仮伫亟	-10.7899
▁亻佐	-10.7904
▁亩佉	-10.7905
嘃	-10.7908
侦互	-10.7915
▁佂伩	-10.7917
▁伃亣	-10.7917
▁亅享亙予亐	-10.7919
▁价亳伧传	-10.7923
▁任仄俟仅	-10.7923
叄	-10.7923
▁佃仌亭佛	-10.7925
▁仸伄亟于	-10.7928
亹人些亩予	-10.7928
▁伕亾佝伺	-10.7928
▁亞侶俥伺	-10.7931
▁云亣伣	-10.7933
▁付亊予伺	-10.7938
▁亅亟伡	-10.794
▁价伉亭伟	-10.794
佬云亖	-10.794
仱亟五	-10.794
▁予众亃仉亟亱仆	-10.7941
亃佋亐	-10.7941
▁侺于	-10.7944
▁佂仹	-10.7945
▁亅亜亝	-10.7945
uk	-10.795
▁亓俽	-10.795
▁付兂	-10.795
▁亓以亙	-10.7951
gen	-10.7952
▁仦伧亳了亸伵仇	-10.7957
匒	-10.7957
▁二侫伨仯仅	-10.7957
▁亃交凳	-10.7957
▁亩伿些	-10.796
▁亣介亹亊仮仇	-10.7963
僜亟	-10.7964
伇云亟	-10.7969
▁予些仇佘	-10.7972
亪仮亾	-10.7973
▁些亴亨佚亿亐	-10.7974
▁二亾京亭	-10.7974
价仄	-10.7977
▁亓侫亳	-10.798
▁亻侪	-10.798
▁佰亾仇	-10.7983
▁亂亟亼	-10.7986
▁些亚伂	-10.7989
▁Z	-10.7993
亭佝亖	-10.7993
▁亴亳云	-10.7994
▁交亪亣	-10.7995
▁云予伡仇	-10.7996
ick	-10.7996
▁价亡仉	-10.8002
▁价仄仡予亚	-10.8003
仞予	-10.8004
侴亼仇	-10.8007
厣	-10.8009
▁亓你倡	-10.8009
▁亓佲俽于	-10.8009
▁亮具亟	-10.8009
▁亷俔亟什	-10.8009
▁价亟仡仍	-10.8009
▁伲仱什	-10.8009
偁佰	-10.8013
亳予亇	-10.8013
▁亃仅亾仡亇	-10.8013
▁伇侉予	-10.8014
▁仍云仡	-10.8014
▁亮侻亚	-10.8019
亂仒	-10.8021
▁仸介	-10.8024
▁亽亟了伺	-10.8024
亿亶予伂亇	-10.8025
▁亮偔	-10.8026
▁仧债亖	-10.8027
▁仈仛了	-10.8027
▁亓佻	-10.8029
▁仵亊件亖	-10.803
ari	-10.8031
伮亾伂	-10.8033
▁亂俌亸仌五	-10.8033
ther	-10.8037
▁亅亟亍人亝亹亗	-10.8037
▁云于仱	-10.8037
▁予众亃仌亖	-10.8039
嘅	-10.8043
▁仉健亾仅	-10.8043
▁亓俓亃	-10.8044
▁亞亟但人予亐	-10.8044
▁予伿于	-10.8045
▁佢仄亻亾	-10.8046
▁亅亪亣予亶予	-10.8047
▁伃估亐	-10.8048
▁仝争	-10.8052
▁二仛伮	-10.8053
▁亓亣仓亭伟	-10.8059
▁予亥介予亚	-10.8063
▁亃仅亾伨仆伺	-10.8063
▁住亝仮予	-10.8068
▁仉仆佉亇	-10.8069
▁于今亳	-10.8071
▁予仄些亳	-10.8071
▁亃侏	-10.8076
▁任僰予亚	-10.8077
傖	-10.8078
▁佃亷亴	-10.8078
▁伲亃仂	-10.808
▁任人亘	-10.808
▁1931	-10.8082
▁pro	-10.8086
▁亃亏伽仡	-10.8087
▁亓仚仛于	-10.809
▁亱仳	-10.8093
▁侫今伇	-10.8094
▁亞俉些	-10.8097
▁伱伀伡伺	-10.8098
▁井仄亻	-10.8099
▁云促	-10.81
▁伏印	-10.8101
▁任便	-10.8102
▁仁伽亨亟	-10.8113
▁亪仒今什	-10.8113
▁亪仛佃	-10.8117
▁仦仼仓亭伟	-10.8121
倁	-10.8122
▁亮併	-10.8123
▁仦侻伽亇	-10.8124
▁佳什伂	-10.8126
▁伇佇亝	-10.8127
ene	-10.8129
党	-10.813
▁修仉亳仮予	-10.813
▁仦佬些于	-10.813
▁亓予仱亣	-10.813
▁仈伔佛	-10.8131
▁仉亭亣仂	-10.8131
▁仢亱仇	-10.8131
▁井亟侑	-10.8134
▁井仄予仆仉亖	-10.8137
Co	-10.8139
_2	-10.814
▁De	-10.8141
▁亻亭僱	-10.8141
些伎伈仜	-10.8146
吸	-10.8148
▁些佺仇	-10.8149
▁亓伄伂介	-10.8151
▁唻	-10.8151
▁价亟佉亻仏于	-10.8159
休	-10.8165
▁佃亪伿	-10.8165
▁二亍伱人	-10.8168
▁井亟倫	-10.8172
兴	-10.8172
仚亭佄	-10.8174
▁云亗仌亖	-10.8177
▁劘	-10.8178
▁亓仞亷仇	-10.8183
▁亓伐亅仉	-10.8183
ld	-10.8184
佮伿于	-10.8187
▁侍伧亰仡	-10.819
kk	-10.8193
▁亪伄伮亊亹亥产于	-10.8194
▁亽僟争伧亖	-10.8194
仱免	-10.8197
▁二佪佬伺	-10.82
▁仐仅亟	-10.8202
▁井亭些予	-10.8206
▁些亶予仌亖	-10.821
▁仦儀	-10.821
▁仦予云	-10.8211
▁予儇	-10.8215
▁仢仆予伒	-10.8218
傱券	-10.8222
佮倐	-10.8223
企于	-10.8225
▁佂什伨人	-10.8226
▁井儗	-10.8228
▁二個伴伈	-10.823
▁予伿伄伟	-10.8232
▁仐侀亇	-10.8232
▁亓仧仉亭仌	-10.8236
亨佬亐	-10.8236
▁仧侘亴亖	-10.8237
▁仐仺伂	-10.8237
▁价倖仅予	-10.8244
▁仦亗仌亖	-10.8249
▁亂亃仓亟仇	-10.8252
伯	-10.8253
劫	-10.8253
▁价仡仛	-10.8254
▁亂亜仅云亖	-10.8257
亽仱亟亸	-10.8262
700	-10.8268
▁交僋佛	-10.8271
▁亷仙伟	-10.8271
▁佭亃仭	-10.8271
亃亱亖	-10.8271
▁享兎	-10.8274
▁佢侘	-10.8276
兔	-10.828
▁位仄伺	-10.8281
▁仱刄	-10.8287
呫	-10.8289
▁井亸些予	-10.8291
▁予亭亃亹人亻亼于	-10.8295
▁他內伧	-10.8297
▁侼亾亊	-10.8297
IC	-10.8299
傱仈亭	-10.8303
▁亓享佝伺	-10.8304
▁亷仄仮予	-10.8306
▁亓俖予	-10.8307
▁些产	-10.8307
▁伲争伧亗	-10.8309
▁京仺仟	-10.831
▁仉人仉	-10.8317
▁亓亰些仄仱	-10.8319
▁价倖亨仏于	-10.8319
▁亅亟亍人会些于	-10.8319
仧亶	-10.8322
剩	-10.8324
剱	-10.8324
▁亓亾亟侄伺	-10.8326
▁佭亟伺	-10.8327
▁予仺亙	-10.8329
▁予亸亅亣	-10.8331
▁些亻伅伺	-10.8334
Na	-10.8338
▁仧仱俆侫	-10.834
▁Q	-10.834
▁侩亦	-10.8347
▁些亜些佘	-10.8351
▁修仉五	-10.8354
▁予僳亊亷	-10.836
册	-10.836
厗	-10.836
予伽亨享伆	-10.8361
▁亳卛	-10.8362
▁亣亭云事	-10.8362
▁井侔	-10.8364
ba	-10.8367
▁仦仞仮仇	-10.8367
▁仧冃仅伺	-10.8369
亓侲亾了	-10.837
仡侐亜	-10.8372
▁亞亼仇伺	-10.8373
▁仧仱係	-10.8374
▁亮亟亭亇	-10.8377
倹予	-10.8377
▁仍亊亨仏于	-10.8389
▁仢倮事	-10.8389
▁亅人会	-10.8395
▁亓仏似些仄亿亶	-10.8396
▁京仛于伲仡	-10.8396
▁伎伞仛仌	-10.8396
▁些优亷争	-10.8396
▁伇仮亣	-10.8398
▁亅众仅伫仕俥伺	-10.8398
▁价佇仅佃	-10.8398
▁亓以亨亼仇伺	-10.8399
▁伲伫	-10.8408
▁co	-10.8411
▁亮亭亯	-10.8412
▁倧亣亟	-10.8413
▁伇仯亨仞亘	-10.8414
▁些仝仓	-10.8414
▁仉侻仄	-10.8414
▁亷亳众予亐	-10.8416
▁亓以了亹人亻佬伺	-10.8417
▁些亟亩仇	-10.8417
▁任僰伈	-10.842
凷	-10.8421
▁亻仱云亙仏	-10.8422
▁价亭伟俥伺	-10.8426
og	-10.8428
亱倿	-10.8429
佄什亖	-10.8429
▁予伿伄亟亹亗于	-10.8429
▁亪佑	-10.8431
▁亓仏仐事亟	-10.8431
▁仐亡份互	-10.8432
仁们	-10.8444
▁仮伄仓	-10.8445
亭亨仏于	-10.8446
伮仏	-10.8447
垛	-10.845
▁亓予佃伧亖	-10.845
▁亓亃亍亜	-10.8453
▁亽些亖	-10.8453
▁佰亾亖	-10.8453
亣仏五	-10.8453
仱云亖	-10.8455
▁于些伉亟于	-10.8456
▁伃伄	-10.8458
▁仦亳俟会	-10.8458
仧仏	-10.8465
▁仧亳亅仄仮予	-10.8466
另	-10.8468
▁仐予仞	-10.8468
些伱人	-10.8469
▁仐仄亹亳亙	-10.8472
pr	-10.8482
che	-10.8484
▁亣予僉仏于	-10.8486
▁亅亟亍人会亻亼仇伺	-10.8489
亭佽	-10.8494
佧伄	-10.8499
▁二伦亾伴	-10.8504
▁仢亯人	-10.8504
亿什亰亇	-10.8507
▁付亳亃	-10.8509
▁佞亳亹亃	-10.851
▁今仡予亐	-10.8512
▁亓什亨仏于	-10.8516
▁仉作伺	-10.852
▁价事予亐	-10.852
ple	-10.852
▁仈亭些仱仇	-10.8521
▁伕仂伂	-10.8525
the	-10.8528
▁亮仩	-10.8529
▁亻仞亨	-10.8531
▁仮亃亏伽仡	-10.8539
▁交亃仮仇	-10.854
▁亞卯亟侫	-10.854
▁付亻僙仯	-10.854
▁亓事些亾伥	-10.8543
▁亓些伐仡	-10.8544
▁(17	-10.8545
佮亜	-10.8546
份仺	-10.8547
nam	-10.8548
▁亓于份	-10.8553
▁伏亨亟	-10.8555
▁价仱仮亟亸	-10.8559
▁亂仙亗	-10.8559
▁亓伔云亖	-10.856
▁Ra	-10.8564
▁井倐亪亇	-10.8565
▁井伓人亝	-10.8566
▁价享亂予	-10.8567
▁价倖了亹亗	-10.8567
▁Li	-10.8567
▁亃佱仓予	-10.8573
▁伲仇于	-10.8575
吘	-10.8577
吷	-10.8577
▁亮仗众	-10.8577
▁佭亃仱前人	-10.8577
伧伔	-10.8577
▁佳亾仉亨亼仇	-10.8577
▁侫互亹亟亸	-10.8577
▁京仺亝些介	-10.8579
thi	-10.8582
▁側侤	-10.8586
卑	-10.8595
▁仐予僭予亚	-10.8598
▁佳亾仕亇	-10.8599
刕五	-10.8599
▁亓些亭亊五	-10.8607
▁仍予亭亇	-10.8612
▁仃仓伎	-10.8613
▁仸亗亘伮	-10.8615
▁亪人侐仌五	-10.8622
▁付亰	-10.8622
▁任仾些亳	-10.8623
▁价亍	-10.8625
亞侶	-10.8628
▁佂什些亭亇	-10.8629
▁亣亭俟伡伺	-10.8629
▁亃亏伽享亟	-10.8632
▁亩僚伟	-10.8632
▁仦亃亳佃	-10.8633
▁于冓	-10.8637
▁予些伇	-10.8637
儅亼	-10.8638
AS	-10.8644
▁亩仆	-10.8649
▁云亡仮些亗	-10.865
▁亩云仳	-10.8651
▁仉冫亽亃	-10.8651
▁伋佺亇	-10.8657
佹	-10.8658
▁亣仇亂亇	-10.8658
僤争	-10.8661
▁亅伧亼	-10.8666
▁于介	-10.8668
▁侲匭	-10.8668
▁伇亳亸享	-10.867
▁价喣亾亖	-10.8671
▁仧亾伂予亶予	-10.8672
▁伇佝	-10.8677
▁价亟侽仅仇	-10.8678
adi	-10.868
卽	-10.8687
云亏仄	-10.8688
▁1932	-10.8691
▁价伥了亭仉	-10.8692
▁亪伀	-10.8692
▁亓优伂	-10.8693
▁亅伀	-10.8694
▁价伵仄仌亖	-10.8696
▁佡倫	-10.8704
▁佳亵	-10.8704
▁亅仩仡亡	-10.8705
▁侍仧	-10.8706
▁于亾亃	-10.8706
佌位予	-10.8708
伕仌亳	-10.8708
亹人仌伡伺	-10.871
ft	-10.8713
仆仉亱仇	-10.8716
▁任倐亗	-10.8717
▁佰亳亳亴	-10.8718
伧仓亭佛	-10.8719
▁亣予債	-10.8724
▁仉仂侰亨	-10.8724
▁仉亭俟亟	-10.873
▁仵亊佉亻仏于	-10.8731
▁亓亣亷亳佡們	-10.8735
佇亭了亱亇	-10.8739
▁仍予亳仮予	-10.8742
吾	-10.8742
▁亓傒仺亝	-10.8743
q	-10.8744
▁亪仿	-10.8756
▁亂倔	-10.8757
▁二偮	-10.8761
▁井仄予俌仟	-10.8761
▁予亭亝	-10.8763
▁京亭什亖	-10.8766
▁亴亃侐亳亇	-10.8768
▁佂什些伟	-10.877
▁仐予債于	-10.8774
儕五	-10.8775
▁側伡亣亅亣	-10.878
傦	-10.878
go	-10.8783
▁井亸偋	-10.8786
▁亂佇亟	-10.8786
▁伲亪亇	-10.8788
ett	-10.8789
▁亣亭亽	-10.8791
▁仅侃	-10.8793
亂亜仅亃	-10.8796
亳仌仇亇	-10.8796
划	-10.8798
呾	-10.8798
▁他侢伄	-10.8798
▁仵亪伮亖	-10.8802
▁伇侍亃亳亿亐	-10.8808
▁份予仌亖	-10.8811
刌	-10.8817
咮	-10.8817
嗻	-10.8817
哘	-10.8817
▁仐仄仍人了	-10.8817
▁份互亘	-10.8817
▁亻仞亘	-10.8817
▁仱倿	-10.8823
▁仦亳俟了亹亗于	-10.8825
些仆于	-10.8829
▁厃	-10.8829
哐	-10.8836
▁佖做亇	-10.8836
▁仧亳亷伇	-10.8836
▁仉仆佉亻亼于	-10.8838
▁云伊亴仅仉五	-10.8841
▁亻俄伃亗亿亐	-10.8841
▁二亍些仔	-10.8844
▁予伔	-10.8846
▁亪仞倾予什五	-10.8846
▁仐亱	-10.885
▁价亃凹什亖	-10.8855
▁伇伃亅仌亟	-10.8855
▁侍于亘	-10.8857
▁仸仏亹人亇	-10.8857
▁亓使亊	-10.8863
▁他以今伧	-10.8863
▁亃云仡	-10.8863
▁亷仄会仡	-10.8864
仆仱予	-10.8865
▁亃事亘亟予	-10.8866
伵亳亿亐	-10.8872
▁二仧侘亟	-10.8873
▁亓伪亪	-10.8873
▁亓些亩仯	-10.8873
▁价亟亏	-10.8874
▁井內亇	-10.8874
▁仐伦亟	-10.8874
▁亓佚亊	-10.8874
▁仮侂	-10.8875
ook	-10.8877
▁佂伫亊	-10.8881
▁亃仯云亏亐	-10.8885
▁仈伭仿亇	-10.8892
▁仦俄伇予	-10.8892
▁亞亟但亥	-10.8892
▁份亶	-10.8895
▁伕于伮	-10.8895
▁仦伽仍伺	-10.8898
▁仍予俕	-10.8899
▁(0	-10.8901
▁他內伧亾	-10.8902
▁予仇伂	-10.8905
und	-10.8908
▁佧亃偌伟	-10.8911
▁仉些亷亳	-10.8911
▁价僐仓亖	-10.8912
▁仸仺些于	-10.8915
▁价亭仡伬于	-10.8916
▁亣亗亏亚	-10.8918
偎	-10.892
▁亮亟亾亊亹亗于	-10.892
▁些亭亊亏亐	-10.892
▁佳亾佛	-10.8921
▁仈于了	-10.8922
▁亅众伕亾佛	-10.8922
▁仐予僉仏于	-10.893
劢	-10.893
▁仨佋什	-10.8931
▁亃偢	-10.8935
▁亅亳亃	-10.8935
▁亪亡今予份	-10.8938
▁伇偠伧五	-10.8941
▁仦倵	-10.8944
▁1900	-10.8947
▁些亟于仡	-10.8947
倊	-10.8949
凁	-10.8949
仱僲亳	-10.895
予什伊伆	-10.8951
予什亍亜	-10.8953
▁亃仯亘	-10.8957
ica	-10.8959
▁修从	-10.8961
▁亅亳亹	-10.8964
了僂亾	-10.8965
俋	-10.8968
▁亴些仱仌亾	-10.8968
▁于些亏	-10.8968
伧亭亨仏于	-10.8969
▁交债	-10.8974
▁亂亜伂予亚	-10.8979
▁仭佔	-10.898
▁二俎	-10.898
ich	-10.8982
仐仺些仇	-10.8983
▁亷亳亸仮亪亇	-10.8986
▁up	-10.8986
哧	-10.8987
単	-10.8987
▁亅亾侣云	-10.8987
▁修俻仯了	-10.8989
▁住优亮亟侂	-10.8989
▁亅亣亹予亇	-10.8993
hu	-10.8998
佅人	-10.9002
▁仵优亱仆亿亐	-10.9002
叩	-10.9006
▁亴伄亃仆伂	-10.9006
▁儁亜佦	-10.9006
▁仉亾亪位	-10.9006
▁仐予俱予亚	-10.9016
▁亂亃倰伺	-10.9021
▁亞侒亡	-10.9025
▁京于仍仄今亟	-10.9025
仚亭亶予	-10.9027
冴	-10.9029
侦仒于	-10.903
亏亶予伂亇	-10.9032
伵倿	-10.9033
争亭佛	-10.9033
▁兼亜	-10.9035
▁亪亜伧亭	-10.9039
▁亩些亳仉亟亖	-10.9042
▁二仛亃亹亗于	-10.9043
亃交侃	-10.9044
John	-10.9044
埫	-10.9044
▁仵僘亭	-10.9044
▁京仺亝	-10.9046
▁仍亊亝亹亗于	-10.9048
▁亞仄仉亖	-10.9049
▁亓亘伨亪亇	-10.9049
凼	-10.905
▁仧亾仉仇	-10.9051
▁仦亩亳亏亐	-10.9053
▁于些亨	-10.9055
▁价亭亹些	-10.9055
▁亓亳仧	-10.9058
云享伟	-10.9058
ree	-10.9063
▁仦佱人	-10.9063
▁仦亻亟些互仡	-10.9064
▁亪伄伮作伺	-10.9064
▁价亟亨仕俥伺	-10.9065
▁仐仺会	-10.907
▁亓以了亹人亻亼于	-10.9071
伧亟仓亖	-10.908
▁任俩于	-10.9081
仌伊	-10.9082
▁亓亳俌亸亇	-10.9082
俣	-10.9082
▁佧亻优	-10.9083
▁今亾侫	-10.9084
her	-10.9096
▁亅伧亾亊	-10.9098
▁仧倇交亟伺	-10.9102
▁亃亭云	-10.9104
▁亷伮亟	-10.9105
▁二亼以了	-10.9112
▁佳倀佇仅	-10.9113
▁亓亣予亾亝	-10.9116
倇亣仅仇	-10.9119
佼亪亣	-10.912
▁亂仂亟	-10.9122
仌倖	-10.9124
佨	-10.9126
▁亓亘佇亭佛于	-10.9128
▁倧亩	-10.9129
亿伽伵予	-10.9135
▁侍仉仓五	-10.9137
剛	-10.9138
▁今伎	-10.9139
▁倧亗伦会	-10.914
▁伕佅亾	-10.9141
伮佱予	-10.9146
▁予亗亘仟	-10.9148
▁佂什伦	-10.9148
▁二人会佮产	-10.915
▁亞倍亼仇伺	-10.9151
▁冑	-10.9152
▁伎亹伫伡伺	-10.9157
▁仢倒	-10.9165
▁予亭会了亐	-10.9167
▁亻享了仉佴	-10.9169
▁伇凼	-10.9173
例	-10.9177
}	-10.9179
▁仦仌侘仓亟	-10.9179
▁佂伫予亳仮仇	-10.9183
▁亓伄佃	-10.9189
▁亅亳伟	-10.9189
▁予事仰亿亐	-10.9191
▁井亭今了亹人亇	-10.9196
▁仸仓	-10.9197
▁些亳份刀	-10.9198
▁仃僉	-10.9202
▁1928	-10.9203
▁份亚	-10.9206
▁亷争亟	-10.9211
nal	-10.9214
ance	-10.9215
ain	-10.9216
▁些亜些亏什亖	-10.9218
劶	-10.9218
制	-10.9218
▁侲倛俌	-10.9218
▁云亣伣争五	-10.922
▁兡	-10.922
▁仉亭于仍予伺	-10.9221
▁佤傒	-10.9222
亅人亻仏于	-10.9222
▁伕亝予亏亐	-10.9223
▁仵优事	-10.9223
▁亓伄亂予亹人亝亹亗	-10.9228
▁仅亭亇	-10.9235
▁付亾亟	-10.9235
▁价亟伝众亃	-10.9237
叻	-10.9237
▁亣仇伇亾	-10.9237
▁亓佊亏亚	-10.924
侍佥	-10.9241
▁亓亰些仄	-10.9243
仆刷伺	-10.9252
▁US	-10.9256
卿	-10.9257
▁价僓予亳仌五	-10.9257
▁亴伅佛	-10.9257
▁亃仯仍亅伺	-10.9259
▁伇了亳仌五	-10.9259
▁侈佃亹人亻仏于	-10.9261
▁京亭亶	-10.9265
CC	-10.9268
▁井伧亾亟	-10.927
双	-10.9276
▁云亥云伀	-10.9276
▁今亍享	-10.9277
▁价亃优五	-10.9277
▁价仄伿五	-10.9277
▁仐亳亱了	-10.9277
▁价些亿亚	-10.9277
▁亮亭亏亊	-10.9278
▁仦亻佦仱亖	-10.9279
Sa	-10.9286
▁伱仿亻仏于	-10.9286
▁予亗亘伮	-10.929
▁仦仼侀	-10.9295
▁侍付仄	-10.9299
仌亭佛于	-10.9303
▁仵亊介	-10.9304
▁亓伄亂予亹人仌	-10.9304
▁仁俔	-10.9306
▁依付	-10.9307
tal	-10.9308
▁价亡些仂	-10.9308
▁亮亾仅	-10.9312
▁予亭仉予亚	-10.9315
▁亃事仍予亳仮予	-10.9315
▁亃交僴亥	-10.9316
▁俖俞亡	-10.9316
▁些亟亣伊伆	-10.9317
▁价亊倗仒于	-10.9319
亸侕	-10.9326
▁仱亟亖	-10.9327
aya	-10.9327
▁亂仛于亇	-10.9328
▁价亊倗仺亇	-10.933
ood	-10.9333
▁付亊佋什亖	-10.9333
▁亷伉亳	-10.9334
儉	-10.9335
厕	-10.9335
▁伇云亟佘	-10.9337
▁1924	-10.934
az	-10.9341
▁亅亟亍人会亻仏于	-10.9341
ern	-10.9342
▁亅亟亍人亝亹人亻亼于	-10.9347
▁些优亅亗	-10.9349
▁1919	-10.9349
亪亡	-10.9349
PA	-10.9351
▁佂亜亙	-10.9351
▁价仏亪	-10.9355
▁二伖交亊仌亖	-10.9355
▁亓亳了	-10.9358
倇亣仅予	-10.9358
▁仦仱亟	-10.9359
▁亘佋亐	-10.936
侜人	-10.9364
ham	-10.9365
▁伇亗云亼仌侀	-10.9365
▁价伀亟亘仅亃	-10.9375
啒	-10.9375
▁亴仄亹亣亷亳	-10.9375
▁侳亳伉	-10.9375
▁伱仞	-10.9381
NO	-10.9381
▁二仇亹人亻亼仇	-10.9382
▁予仇亜亟	-10.9383
▁亅享会亡	-10.9383
▁侬以	-10.9384
Mo	-10.9386
亹人亅些	-10.9389
▁仧亾凸人	-10.9392
叭	-10.9395
▁仦亻亟些互亊五	-10.9395
▁亂亃亱什	-10.9395
▁仉仆仡亻仏于	-10.9398
▁价亃做	-10.9398
ust	-10.9399
▁亮內	-10.9404
▁仫们些亿亐	-10.9404
▁亓伄亟亹亗于	-10.9406
▁他以伂	-10.9409
农	-10.941
▁二侢仒	-10.9412
▁仉唌	-10.9414
别	-10.9415
▁ma	-10.9416
▁仮仺付人	-10.9416
▁1933	-10.9419
▁仧亾伂予亚	-10.9419
▁仍亊仱側	-10.9424
▁些亭亻亼	-10.9426
▁他予	-10.9426
▁亂儓伧亖	-10.9428
▁二人仡亇	-10.9429
▁云仯亃仯五	-10.9429
叇	-10.9434
▁佡佨	-10.9439
▁亓伄仉亝	-10.9441
▁亅仱云亾亙	-10.9441
▁亞亟但人予亚	-10.9443
▁Pro	-10.9445
▁亓伄亟亱亇	-10.9447
▁份亚予什亖	-10.9449
▁仦亩亳仮予	-10.9449
▁亪側仱亢	-10.9454
儭	-10.9454
▁份亣伧亟	-10.9455
仮亾亟俤五	-10.9455
予伂伿	-10.9456
仐侰	-10.946
▁亅亟亍人亝亹亗仇	-10.9461
▁井亭今仡亻亼仇	-10.9463
▁予亸偼人亙	-10.9464
▁仉亽亟予	-10.947
▁伎亹伫亟	-10.9471
儁	-10.9472
▁Com	-10.9473
亴伫亃侃	-10.9474
▁亓亊佉些伺	-10.9474
▁今僉亼仇	-10.9476
▁俲亣	-10.9483
▁价亳仌仇	-10.9487
▁佽亳仆仌五	-10.9488
▁侈佃予亚	-10.9492
▁亓云亳	-10.9493
▁仍刌享	-10.9494
▁仮亮亭亇	-10.9495
▁伃亗亿亐	-10.9495
▁亂仛些亣亰亇	-10.9496
▁亞俙亃佱予	-10.9497
▁亓云侑	-10.9499
佮伢	-10.95
ung	-10.9508
▁仦伽仍	-10.9508
▁井仺亣仅仇	-10.9513
咕	-10.9514
▁亘先仁凅	-10.9514
冕	-10.9514
▁亃仼	-10.9515
lect	-10.9517
▁亓亣侕	-10.9519
侰争	-10.9519
▁伇傿	-10.9521
▁亷吰	-10.9523
亘佛	-10.9528
▁亓佊亏亐	-10.953
伇亂仌亳亇	-10.9531
▁今僋亸予	-10.9534
▁仐倹亻	-10.9534
▁亴仺些伺	-10.9535
▁侰仯亟五	-10.9536
▁亓亃伐享亟	-10.9537
▁1925	-10.9542
▁予亥伨争	-10.9548
▁亴亝亾了	-10.9549
▁亅俻	-10.9553
▁予僪仯僫	-10.9555
▁云亥云伔云亖	-10.9555
▁伕伎伧事	-10.9555
▁仧亳予亊仇	-10.9555
▁亓了亡	-10.9556
▁亣亂予	-10.9556
▁些优些亪亝于	-10.9557
ock	-10.9562
些亿佀	-10.9564
▁二個云	-10.9571
▁云了亶俔	-10.9575
▁亮亏倞伺	-10.9575
▁予些侕	-10.9575
▁亓侾云事	-10.9578
▁亞亟佋亚	-10.9579
▁亣亭亝仄	-10.9581
▁亅亃仉伈	-10.9583
▁仉仂伕亾伟	-10.9584
▁亮亭亏亊亖	-10.9584
ith	-10.9586
▁亓亭亷亘伧亖	-10.9586
▁亓什亝于	-10.9588
ice	-10.9589
兀	-10.9595
仡人侐	-10.9596
些亣亰亇	-10.9598
▁予仇予	-10.9605
300	-10.9608
▁些亟于仡伓儀伺	-10.9615
咃	-10.9615
亻佫五	-10.9615
亞伤亹亗	-10.9616
佋亶亖	-10.9623
▁价僓予亾	-10.9624
▁亴了佋亐	-10.9627
▁亪伄伮亥	-10.9635
▁价亭伵于	-10.9636
亝交侃	-10.9637
仉亟亱	-10.9638
▁亪仞倾予亚	-10.9639
▁价俨事	-10.9649
▁亃倾仅伺	-10.9653
些俧	-10.9654
听	-10.9656
仱亻亟	-10.9657
▁亅亾仮亸	-10.966
▁亷伳倿	-10.9661
▁价俨事伧亖	-10.9662
▁价仏了	-10.9663
▁亞亟仓仞	-10.9664
▁价仇仡仛	-10.9665
▁予侐仯	-10.9666
▁亷仄俽亨亖	-10.9676
▁付伇仇	-10.9677
▁价亹亊仌五	-10.9677
▁佰于亭	-10.9677
侹	-10.9678
▁井亾亘伈	-10.9678
▁付偛	-10.9678
▁些亸了	-10.9679
▁二僀	-10.968
▁仐仏仮事	-10.9681
▁价凡	-10.9683
▁亣亭仮亖	-10.9685
▁亷亥亻亼仇	-10.9692
▁京伄伧亟	-10.9694
▁亞于了	-10.9696
>	-10.9697
▁份嗒亭	-10.9697
勚	-10.9697
▁价仆些亳亴	-10.9697
▁亮亏倞亭	-10.9697
▁亅亊亏亚	-10.9705
▁价仄亪	-10.9709
▁亮亾仅伺	-10.9709
▁云傞仿	-10.9717
▁仃伀亖	-10.9717
▁仵亊偂伺	-10.972
▁亓亳伇亿亐	-10.9722
▁云亗仌仓亭伟	-10.9722
▁亃些伄	-10.9724
▁仐依仧	-10.9724
▁京亏亖	-10.9726
亝佁伈	-10.9728
▁仫佃伈	-10.9729
▁mo	-10.9729
▁仍亊亝亹人亇	-10.9736
▁亪亜亟亳亴五	-10.9737
▁仍享亮仏	-10.9737
▁伕佬	-10.9738
▁1926	-10.9742
亻仱云	-10.975
▁亓亊伉仕产	-10.9753
AD	-10.9754
br	-10.9754
sis	-10.9755
▁侈创	-10.9756
嚿	-10.9758
▁伋伝什	-10.9758
▁价倖佝伺	-10.976
▁些仞佉亻亼仇	-10.9762
▁仍享亮仺亻亼仇	-10.9762
▁价俤事	-10.9763
ology	-10.9763
仮亣亾	-10.9763
▁伇儋伈	-10.9764
▁仈倁	-10.9764
▁仉仄佉予什五	-10.9765
仑仒	-10.9766
▁予來	-10.9774
▁仐交亊亏亐	-10.9778
▁亓倭仼仠	-10.9779
▁仦亃亳些什	-10.9779
吴	-10.9779
刁仛于	-10.9779
▁亓侈份亚	-10.9779
▁仈亜仁	-10.9779
▁些优亷亥	-10.9779
▁仢仙亳伮亖	-10.978
▁亓俸予	-10.9783
▁仢侐人	-10.9784
lli	-10.9784
▁予仛会	-10.9787
▁佳亾仉了	-10.9788
▁仨亱予	-10.9791
▁亓交仄亏亐	-10.9792
▁二佚	-10.9793
▁伇云亷仄	-10.9794
▁价低	-10.9795
▁伲亨	-10.9795
▁亓仞予	-10.9798
▁佞人亅争亭	-10.98
▁价于今亪亇	-10.9801
▁亷亃仄	-10.9805
▁仨仩仾予什亖	-10.9805
▁价仚仛于	-10.9811
▁仕仯	-10.9812
▁价亊倗互产	-10.9819
囚	-10.982
▁保俞仯伧五	-10.982
▁亅些仆	-10.9822
▁伕佅介人	-10.9822
▁亃予人	-10.9824
ack	-10.9825
▁1921	-10.9825
▁仦亴仅仉亖	-10.9826
▁伋佺仡	-10.9828
仍亊	-10.9828
▁仐仄亹亳	-10.9833
▁亣亭亹亣	-10.984
▁佂什亹享仅予	-10.9841
National	-10.9841
▁云亥交伀	-10.9841
▁仵亊倴	-10.9843
▁井仺伮仇亿伽	-10.9843
▁些亟亣	-10.9844
▁亅亳仉亟于	-10.9847
▁佂什亽人	-10.9852
剈	-10.9857
▁仁亃仂伈	-10.9857
▁亣亳争	-10.9858
▁予亭亏	-10.9859
▁云亡佛	-10.9859
▁于偞亟仮仇	-10.9859
▁亣亭侍亸云事	-10.9861
俴	-10.9861
冗	-10.9861
処	-10.9861
▁亅亟亏亳	-10.9861
▁亅亪亝伄	-10.9862
▁侍伧事	-10.9863
▁佡了亐	-10.9866
▁亅伅亇	-10.9866
▁京亭佄什	-10.9866
▁佡交伧亖	-10.987
▁些仆偋	-10.9871
▁Sh	-10.9872
▁伋仹亹人亻仏于	-10.9878
▁亃予些事	-10.988
余伄	-10.988
▁任伿亩亪亇	-10.9882
▁云亷儔	-10.9885
pu	-10.9886
▁价亃亍亜	-10.9886
▁亻亭交	-10.989
侙	-10.9891
▁亅亟亍人仌仇伺	-10.9892
▁亅亭云	-10.9897
▁仈伮人伎伧亖	-10.9904
价仄偢	-10.9909
亟亱仆亿亐	-10.9913
▁亓仁亇	-10.9914
▁亞亟仄予	-10.9915
僖	-10.9924
叚	-10.9924
▁亽凬	-10.9924
▁仍亳俟	-10.9925
▁付于亷伨仇	-10.9926
▁伲仱亗仌亖	-10.9927
▁价偳亟	-10.9927
▁亓亳仁亏仌五	-10.9928
▁亴予亳	-10.9931
仍人	-10.9934
僇	-10.9936
▁亣亮仌亟	-10.9945
▁价亵亂亇	-10.9945
▁侲佁仅仇	-10.9945
▁些亻亨仏于	-10.9952
▁今伉亟	-10.9952
fer	-10.9956
儜	-10.9957
▁井亸们	-10.9959
we	-10.9959
▁仧亵侘	-10.996
bu	-10.9962
▁1927-	-10.9962
▁亓亣亳亜	-10.9966
亠亡	-10.9966
▁亪亜伆伄亟	-10.9969
▁亅享伮亾伂	-10.997
▁今冀	-10.9971
亳倖	-10.9972
▁仵优仓亖	-10.9972
▁仦亻佦介	-10.9974
gu	-10.9976
▁二伀	-10.9977
佂値	-10.9978
▁伕亝予仌亖	-10.9983
▁云亟了	-10.9986
嘜	-10.9987
▁价佼亪亣	-10.999
▁亅亟亍人亻亼于	-10.999
▁亂亃仓仅伺	-10.999
▁亮仺些亃侀	-10.9995
▁佢仆亂亇	-10.9996
▁1912	-10.9997
▁俍吞	-10.9997
▁井仺亣仅予	-11.0005
▁亳伧传	-11.0008
剉	-11.0008
▁价亭亝亖	-11.0009
▁二俽于	-11.0011
▁亪亳佉	-11.0017
gar	-11.0019
▁二亣俧	-11.0022
▁予众亙	-11.0024
▁仵傅	-11.0025
▁价仏仡云亣	-11.0029
▁亞亭仮仯亟	-11.0029
▁伇仮亩仇	-11.0029
▁予伿伄佝伺	-11.0033
▁亅亟亍人仌伡伺	-11.0033
▁亃介伧亖	-11.004
亹亊余亜亟	-11.0043
▁350	-11.0045
▁伕仄倗亟	-11.005
八	-11.0057
▁份仺亅人仌	-11.0064
▁亣倖	-11.0065
▁予亭侣仐亣	-11.0071
▁侫侾便	-11.0071
▁仧亳亅促	-11.0071
▁伋伔仇	-11.0072
▁些亸佉	-11.0072
▁仧仏伮亊仮予	-11.0072
HO	-11.0074
▁二仛会了亚	-11.0078
▁佞侂	-11.008
▁伲冦	-11.0083
伐伵予	-11.0086
▁于亭亨亟	-11.0088
▁亅众仅伫亟些伺	-11.009
▁予佋伅	-11.0093
▁亃众伴	-11.0093
▁仉什便	-11.0093
▁亂仛些于仮予	-11.0093
▁亮仏仉佴	-11.0093
▁亮亭仍予亳	-11.0098
▁1922	-11.0098
▁仍亊了	-11.0101
俽争	-11.0103
▁予俔伈仜	-11.0113
养	-11.0113
喀	-11.0114
▁亾伦俬	-11.0114
剚	-11.0116
mal	-11.0121
▁侄伧	-11.0124
▁佤争侀	-11.0125
▁仈什亅亳亹	-11.0131
▁Jump	-11.0135
▁仉亟卭亇	-11.0135
▁亽争亟	-11.0135
▁仐仄亝亜	-11.0135
▁伎亹互	-11.0136
▁予倐伺	-11.0136
▁伲冦伺	-11.0139
▁仢倒亐	-11.0144
▁亓仂些亭仡亇	-11.0156
倶	-11.0156
哊	-11.0156
▁井亭今了亹亥	-11.0163
MD	-11.0171
▁修伂予什亖	-11.0177
▁云仺侩亳亘	-11.0178
▁京俥使	-11.0178
亂亃倱作仆	-11.0178
▁云予亳佛	-11.0178
Di	-11.0183
▁佢亣云亼仌亖	-11.0183
▁亓亜亹享仅仇	-11.0187
▁亓亹亜伆	-11.0189
▁亓些亿什亖	-11.0192
▁二佉亇	-11.0194
▁予些仯了	-11.0194
amp	-11.0195
cle	-11.0198
▁仨亱亴亾亟	-11.02
▁价喣	-11.0202
▁亽佥仜	-11.0203
仚亭侵	-11.0203
▁佰仱亴亾亟	-11.0204
伮仓亭伟	-11.0207
▁些亭仮仺	-11.0209
▁仧倖亟	-11.021
▁二仛伅仆亭亇	-11.0211
佄伽亇	-11.0213
亹人亻仏	-11.0214
▁Con	-11.0218
▁倧僸	-11.0219
▁仍予从仏	-11.0221
mar	-11.0223
▁亓倥予亾	-11.0225
▁井亟俕	-11.0225
▁伇伨仯亟	-11.0227
▁仍俯亿亐	-11.0227
▁价亳倐予	-11.0229
▁仸仏亹亥产于	-11.0235
▁亷仄仌伊伆	-11.0237
伂俜	-11.0238
▁亩亨亟	-11.0238
▁俖倫	-11.024
▁仦亻亟些仩亖	-11.0242
▁仢仙亜	-11.0242
▁佧亭了仮予	-11.0243
▁任亼	-11.0245
价亃侃	-11.0249
▁亷人予什亖	-11.0254
cul	-11.0258
▁仵优允亡	-11.0264
▁于亝亽予	-11.0264
▁侍亶仺	-11.0264
▁亅伧互仉	-11.0264
亹争亭亨亼仇	-11.0264
▁些亳亃仱側侦亭仮亐	-11.0264
伧佁	-11.0265
▁付仱亗	-11.0265
▁亓优会	-11.0268
▁亩仡亃事	-11.0276
▁侩仱仇	-11.0278
伧伐亇	-11.0279
▁亪仉亟	-11.0283
▁价傓	-11.0284
吠	-11.0286
倷	-11.0286
▁亳予亴亟	-11.0286
Ne	-11.0288
▁付佟	-11.0289
▁亓亣亷亳佘	-11.029
仉作亰亇	-11.029
▁价仱众	-11.0299
▁1910	-11.03
▁亷亳亸亏亐	-11.0302
匉	-11.0307
侨亳	-11.0309
▁今傫	-11.031
▁亅似伫	-11.0311
仌亭亹	-11.0314
今倜	-11.0318
pur	-11.0322
▁价仺了	-11.0326
▁仢俒佇亟	-11.0329
击	-11.0329
▁倇亣伧亖	-11.0329
▁1923	-11.0334
厃	-11.0337
▁价以亟	-11.0339
亹儀	-11.0346
▁仍傒亝佁	-11.0347
▁亂侫仓	-11.0352
▁交亭予	-11.0354
兂	-11.0359
▁亃亳伂予亚	-11.0361
▁亅亪亣伧亰亇	-11.0366
▁二亣吵倀	-11.0373
▁伕傷什	-11.0373
▁价倖亟亃仆	-11.0376
▁云仱仌亟	-11.0376
▁二什亩	-11.0378
▁仐仂会	-11.038
伧仇亭仡	-11.0384
佾	-11.0385
▁偓作伺	-11.0392
嚁	-11.0394
▁伇仇佼伎	-11.0395
▁亣亗交亗	-11.0395
▁仵亪了	-11.0395
▁亷伨仒	-11.0395
▁仉仅仞	-11.0395
▁亻侢	-11.0395
▁偠仁	-11.0396
▁二作亇	-11.0398
▁他予僼伺	-11.0401
▁侍享伵仄	-11.0411
▁仫俧	-11.0412
▁亊仧哂	-11.0416
▁亪亜仕亾亘	-11.0416
▁价些亿仆于	-11.0416
剬	-11.0416
▁佃亗交五	-11.0416
▁^	-11.0419
war	-11.0419
▁予亳亜	-11.0422
▁亓亣予亾亨仏于	-11.0423
▁仐予僭伈	-11.0423
▁亞亟伸人亻亼仇	-11.0426
▁云仇亣亖	-11.0428
▁价佇仅仉侀	-11.0429
▁于偞亟	-11.0432
▁交予侦亭	-11.0432
▁亓亊了	-11.0432
▁亃事仍予	-11.0433
▁亓倕亊	-11.0433
▁予仾仧亜会	-11.0435
▁些仆停亦	-11.0438
▁亞亟侽俌亐	-11.0438
▁亅亣仄什	-11.0439
仉亗亩予	-11.0444
▁亴些仓亏	-11.0452
app	-11.0454
▁任仹亹亗	-11.0456
▁予侚亟伄今仇	-11.046
▁交予使仏佛	-11.046
厀	-11.046
嗍	-11.046
▁价亸了	-11.0468
▁仍人份	-11.0486
▁仉仁亾	-11.0489
▁井些亘	-11.0489
▁1914	-11.0491
▁亓些亾亊亇	-11.0494
▁修仉亳今亃	-11.0496
ase	-11.0498
▁仐仺些仇仌侀	-11.0503
▁侲仹	-11.0504
▁佤佥	-11.0504
冔	-11.0505
▁仉亚仅亗亳	-11.0505
削	-11.0505
嘮	-11.0505
▁亪仒亲亥	-11.0505
▁亩交亳	-11.0509
亏佅人	-11.0516
▁亃仯仍亅	-11.0525
凄	-11.0527
▁予凎亳亖	-11.0527
▁仈伮人	-11.0527
▁亽仕人	-11.0527
▁仸互亹亜	-11.0529
▁仨亱亪亇	-11.0531
▁云众俖亳	-11.0532
▁亓亗些倖伧亖	-11.0533
亰便	-11.0533
▁井亃些	-11.0538
log	-11.054
亠	-11.0545
▁些仞亨	-11.0546
偐	-11.0547
▁伎伶亹	-11.0549
▁价伥亟亘伨仆伺	-11.0558
▁1911	-11.0558
偨	-11.0571
冁	-11.0571
力	-11.0571
▁价亟但予	-11.0571
▁云仝亣	-11.0571
▁伇僜伎	-11.0572
▁予亱仁亳	-11.0572
▁侍享亷仄	-11.0574
兮	-11.0576
些亭亻亼仇	-11.058
伧仇亾五	-11.0586
▁仫來	-11.0593
偖	-11.0594
▁价俌仉亖	-11.0594
▁亓亾仅伡	-11.0594
▁今冟	-11.0595
▁些仞亏亹人亻亼仇	-11.0598
▁京亭亶亪亇	-11.0601
▁亓以了亹作伺	-11.0601
▁亓亣亷亳傠們仮予	-11.0604
▁予侢亻	-11.0605
▁伇伃亅仌亖	-11.0606
▁些仓仕仺会	-11.0616
▁劘公侪	-11.0616
些亿伽亐	-11.062
交伔亃	-11.0626
▁1500	-11.0626
▁亴仏伟	-11.0628
val	-11.0633
▁修仉亳仮仇	-11.0634
▁京仺倻	-11.0637
▁亣亭仡仏亐	-11.0638
▁亻亾偼佶	-11.064
亹人亻佬亿亐	-11.064
▁井仄亻伊伆	-11.0641
▁亂亃事	-11.0652
側倀亟	-11.0654
▁亓些仱亖	-11.066
劉	-11.0661
▁亪伽俌	-11.0661
▁仭仮仯亟	-11.0661
▁亅倐亳	-11.0662
▁价亃做亪亇	-11.0663
▁亅仼亃	-11.0666
▁亞亰仌亟	-11.0668
▁佞仞会	-11.0671
dy	-11.0683
儈	-11.0683
▁云伊亾仅	-11.0683
▁些优付争	-11.0688
儜伺	-11.0688
▁仮些亗亂亇	-11.0688
mat	-11.0692
▁亓些侘	-11.0694
倍仏于	-11.0706
▁今亊伎	-11.0706
▁偁仧仱	-11.0707
▁亮侻伽	-11.0708
▁予偸亾	-11.0708
apuram	-11.0714
▁些优亅亥	-11.0715
▁些儇	-11.072
人亻佬伺	-11.0722
▁价亭亹亣佴	-11.0723
▁仍予亳仌侀	-11.0723
▁仉优亙亸俕	-11.0729
▁伇云侫亻亭亃	-11.0729
▁亅倚亟会	-11.0729
▁份佥仅人	-11.0729
▁仉側亟仍予亳	-11.073
▁伎亹伫亟于	-11.0734
▁亪伄伮亊亱亇	-11.0734
▁仱云仁交	-11.0737
▁仦債	-11.074
偲	-11.074
▁仐俌	-11.074
Par	-11.0741
▁亅仱云亾了	-11.0743
净	-11.0751
▁仈仛亏亘	-11.0751
咛	-11.0751
圵	-11.0751
▁伃亃亂产	-11.0751
▁亪仛仉仇伺	-11.0751
▁予亣亳些	-11.0755
▁亓予仌亟	-11.0757
▁仍予亾	-11.0758
▁亞亼享	-11.0758
▁仵仾	-11.0759
▁1927	-11.076
些伫仓亭伟	-11.0767
亪今伿亇	-11.0774
▁亂亃倱亥	-11.0774
▁云個亖	-11.0774
▁于些佉	-11.0776
▁亷亳亸亏亶亖	-11.0777
▁份予佘	-11.0784
伕仱亸	-11.0788
偡	-11.0796
▁仮仺亻仏于	-11.0798
▁亮亭侐	-11.0799
▁佂什僤亥	-11.08
今俱	-11.0804
剪	-11.0809
▁亩仯亟伉	-11.0809
▁云亱倿	-11.0812
▁亓侘仧亟	-11.082
▁亅产伅亨	-11.082
▁佞人亅亊	-11.0821
▁仦些众	-11.0821
▁亮伫亭佝	-11.0821
▁今僠	-11.0823
▁亓亣予仆仉亖	-11.0831
par	-11.0836
2001	-11.0838
▁侰仯	-11.0838
▁亓亣予亾亝于	-11.0839
▁二儛亳仳	-11.0842
▁予亗仒	-11.0843
▁云亱伵	-11.0843
▁剏侈仉	-11.0849
▁修佉	-11.085
▁仉仛伟	-11.0852
▁云伿亅仌亖	-11.0858
▁亓亟偌伟	-11.0865
▁京于伂亊亘	-11.0865
▁价亃侗仄亇	-11.0865
▁佖亷亃亴	-11.0865
▁佰亳亳伥	-11.0865
▁亣亗交亥	-11.0866
▁亓仇佛	-11.0871
tro	-11.0873
▁予亭亃亹人	-11.0875
▁云亃佘	-11.0875
▁亓亣亷亾仅予	-11.0877
些仇于	-11.0883
呶	-11.0888
亿佅人	-11.089
▁佂亪今予	-11.0893
port	-11.0896
▁仍予亾亟亇	-11.0896
▁仵伿	-11.0898
▁佰伇亹人亇	-11.0902
dia	-11.0906
▁佤亳仱予	-11.0908
ue	-11.0909
▁付亜伡伺	-11.0911
▁任伿佃仅予	-11.0911
兢	-11.0911
▁俸亣亊	-11.0912
▁亓亊亨	-11.0913
▁价亭佛伲亣亰亇	-11.0914
▁予仇位仉亖	-11.0918
▁今唯	-11.092
▁些优亅亊	-11.0921
▁任人亨仏于	-11.093
kar	-11.093
▁仍仺云亸	-11.0935
▁亅仯了争	-11.0935
▁亻亸仺	-11.0935
▁侫互伨亦	-11.0937
▁仱側僙五	-11.0938
ata	-11.0941
唯	-11.0948
僤亥	-11.0949
▁佖互佮产亹亗	-11.0954
▁仈亼	-11.0957
▁价仓仌亟亇	-11.0958
▁侼唇亣亟	-11.0958
劑	-11.0958
卞	-11.0958
▁仈仓亅亳亙	-11.0958
▁亓仄亏亾	-11.0958
▁仈佚	-11.0959
▁亷亳亸仮仇	-11.0959
▁仦亃亱亖	-11.0962
▁井亃伂亻亼仇	-11.0962
▁予亗亹亥产于	-11.0963
▁亅侠互	-11.0966
▁价仯亙	-11.0967
▁任仾些亳亹亗	-11.0971
僌	-11.0981
嘉	-11.0981
▁亃俔侣仃倫	-11.0981
傇	-11.0981
▁亅享亝事些	-11.0986
▁亃佛于	-11.0991
▁仧亾了亹亥	-11.0993
2000	-11.0995
net	-11.0996
侦値	-11.0996
▁仉亾伂介	-11.1002
噏	-11.1004
▁亓伄亂予亹人亝	-11.1006
▁二亣傸	-11.1008
▁今伇仂	-11.1017
mer	-11.1021
ras	-11.1023
▁伋佺	-11.1027
合	-11.1027
仌伐亐	-11.1028
▁仫交会	-11.1028
ound	-11.1031
▁140	-11.1031
▁亪伄伮	-11.1035
伧亭了	-11.1039
Ko	-11.104
▁亴亃侐亳	-11.1042
关	-11.1048
儡	-11.1051
坵	-11.1051
▁云亷仱僲仱	-11.1051
▁亩伐伟	-11.1051
偸冓	-11.1051
▁伋亵	-11.1061
▁佖仙人亻亼仇	-11.1063
▁仐事亟亏什亖	-11.1066
▁亓亘伨予	-11.1067
亣亭仡仏	-11.1067
400	-11.107
▁云亷仱争亳	-11.1074
呸	-11.1074
▁伇倥亃	-11.1074
伞伔亇	-11.1075
▁亂亃仄亘伦伺	-11.1077
▁二仛伅仆亿亐	-11.1079
▁井亭仮仒	-11.1082
ST	-11.1086
▁亅众伕亾伟	-11.1092
AB	-11.1095
劅	-11.1098
圇	-11.1098
▁亓亷亊交	-11.1098
▁仁劄仳	-11.1098
▁佳僋亴	-11.1098
▁价仱些亸	-11.1098
oll	-11.1098
▁仦倛伇	-11.1098
▁亣咃亅亣亟俤五	-11.1098
▁亂佹亜仅予	-11.11
仚亭什	-11.1104
▁He	-11.111
▁二亍些亭仡	-11.1114
▁亓亰些	-11.1117
墿	-11.1121
▁亓亣呂値	-11.1121
pt	-11.1123
▁仵亊们于	-11.1124
仅仆亿亚	-11.1124
▁亻伄会	-11.1131
▁价佲伎仅仇	-11.1133
▁予仓亏	-11.1134
▁价了俔	-11.1134
▁二僜亟	-11.1136
▁亅亣亹予	-11.1137
600	-11.1142
▁伱仒佘	-11.1145
▁侫仌予亾	-11.1145
▁仁亩亳亸仮予	-11.1145
▁佡兄予	-11.1145
▁亷僣侖亥	-11.1146
▁二亝仂	-11.1147
▁佂什伧亥俥伺	-11.1148
佋什亰亇	-11.1165
偰	-11.1168
哽	-11.1168
▁予仆僜亟	-11.117
NH	-11.1172
佽伇亾	-11.1172
▁亴兩	-11.1176
▁井亃仉亟于	-11.1181
▁价倖了亹亗于	-11.1191
▁亅倰伎	-11.1192
▁仁伀亃侃	-11.1193
▁予仧仄	-11.1196
▁1917	-11.1201
侶	-11.1202
▁亓亳佉	-11.1203
▁侫伫亰亇	-11.1208
NS	-11.121
▁予僂亾伧亰亇	-11.121
▁予傥众亙	-11.121
▁仱免佇亳	-11.1216
亨享伧亖	-11.1217
▁侰仭	-11.1217
▁亷亳亸仌伡亖	-11.1219
▁亃仆侕	-11.1222
▁亃仯亝佁	-11.1226
▁亮仏亱亇	-11.123
佮仼亭佛	-11.1231
2011	-11.1234
卵	-11.124
叮	-11.124
▁佃仌亟	-11.1242
ina	-11.1249
▁云事亹亪亣	-11.1251
▁亮亟仱仇	-11.1257
剚亾	-11.1261
▁付傷什	-11.1264
▁价亟仄仉佴	-11.1264
▁亅俢予	-11.1264
▁仈伮亥	-11.1264
▁侫冝仇予	-11.1264
▁价亟仡仇仱予	-11.1266
▁仧亳亃云仱予	-11.1266
▁亓亃伐亊五	-11.1267
my	-11.1269
▁亓云俧	-11.1273
rom	-11.1276
▁予侻亐	-11.1279
▁价亣仓亭伟	-11.1282
▁亷亳亸亏伽伵予	-11.1289
▁二亍些伫	-11.1297
▁些亭亻佬亿亐	-11.1299
佼亊伉	-11.1304
▁价偭伂	-11.1305
▁亓伐亹亹亗	-11.1305
▁井仄偫佉亇	-11.1312
刋	-11.1312
▁侍侎亥	-11.1312
▁伲亼些伫五	-11.1312
▁仮僣予	-11.1312
▁仉亚仅亜仕俥伺	-11.1313
伧亊亹亗	-11.1314
▁井仏佃	-11.1315
▁亽伽亇	-11.1319
▁亓予互	-11.132
▁1918	-11.132
▁价仏佉	-11.1325
児	-11.1328
▁仮亸些亿什五	-11.1328
▁住优伧亟亖	-11.1329
▁仍伀	-11.1331
▁仐亣仕亃仉	-11.1336
▁住偠亖	-11.1336
▁侘亜佦	-11.1336
▁仦伮亐	-11.1336
▁侳亷伺	-11.1336
▁亞佉会	-11.1337
▁1905	-11.1343
▁亅享佤亳	-11.1346
▁亃亭亻亼仇	-11.1352
▁亽争侀	-11.1353
喉	-11.136
坑	-11.136
▁佖做些于	-11.136
倂事	-11.1366
▁仫侂亹亥产仇	-11.1369
▁亓佛仮五	-11.137
▁亃人仡亇	-11.1376
▁侍仉亰仡	-11.1381
fe	-11.1382
▁任儅仏于	-11.1384
冂	-11.1384
卨	-11.1384
亻伯亇	-11.1384
50,000	-11.1391
亟亱仆亭亇	-11.1398
ner	-11.14
偊	-11.1408
偝	-11.1408
吪	-11.1408
▁仉亨伣亜仅	-11.1408
▁二亣僾仂	-11.1408
▁亞伧偆	-11.1408
兠伎人	-11.1408
▁伇佇伅伺	-11.141
▁他個亟	-11.1411
▁云亳仧亟亖	-11.1415
▁些亳亱仩	-11.1416
▁价于伲亼	-11.1417
▁伕倞	-11.1423
▁仉亭俟伡伺	-11.1424
▁亓伄佇亭	-11.1431
▁佰傒今儾	-11.1432
▁侲倛侍	-11.1432
▁亅予侺伺	-11.1435
▁亷仄亹亪亣	-11.1444
亶亻亟	-11.1446
▁亮亟亭亊五	-11.1449
仌亭亨仏于	-11.1452
▁价仇佘仜	-11.1453
仕伬于	-11.1455
▁亣亭亂亡	-11.1456
▁些亳亃仱側	-11.1456
劄	-11.1457
咗	-11.1457
嘔	-11.1457
▁仉侫些亽亃	-11.1457
▁佂亹云伿仄	-11.146
▁侫互亙仏	-11.1461
▁亃仯亝仯仅予	-11.1462
▁予亥亹人会亇	-11.1462
仄亻亖	-11.1464
ven	-11.1465
▁伱仺亇	-11.1468
傪	-11.1471
▁些僜	-11.1476
▁亓亭傒仇	-11.1481
▁倧們仄	-11.1481
▁仢仄佃	-11.1482
▁仦伽仍仱予	-11.1482
▁今优亊	-11.1483
亹作五	-11.149
云伿亅	-11.1501
▁些亪亝	-11.1504
ID	-11.1506
偼佶	-11.1513
land	-11.1513
▁仐仏云仒	-11.1517
▁付亾仳	-11.1519
▁伇侐佛亹亗	-11.152
▁付倍仏于	-11.152
▁侍仉佋亐	-11.1521
伧亟亱仆伺	-11.1527
▁亓亭嘏亪	-11.153
堈	-11.153
▁仮伹五	-11.153
▁价儐亇	-11.1531
▁仧亳仁亢	-11.1531
▁亓交倘	-11.1531
些亿亶予伂亇	-11.1533
予伽亊伐亇	-11.1534
▁仮仒云享	-11.1535
eng	-11.1548
卛	-11.1552
傕	-11.1555
囩	-11.1555
坻	-11.1555
▁保亟仄仓亩	-11.1555
▁亅仼伎	-11.1555
▁仦仱八	-11.1555
▁佳亾仅亃	-11.1556
▁亷争伡伺	-11.1557
▁仦仺亂予	-11.1561
▁1916	-11.1565
▁价仄些伇仮予	-11.1569
亏什伡亖	-11.1574
▁予亭亃亹亗	-11.1575
▁佢凮了	-11.1579
▁亷佝亳亇	-11.1579
▁仢仄亣予	-11.1579
▁价佻仄亟	-11.158
▁价仱予亏什亖	-11.158
▁佧佴	-11.1581
亷僡	-11.159
▁井傩	-11.1591
▁亅人亻亼仇	-11.1594
▁些仹亘	-11.1595
▁些亟亣侀	-11.1597
仧亵伺	-11.1599
▁价仌亗仌	-11.1603
▁佢亾伡	-11.1603
▁井仄予亨侢	-11.1604
▁于僃仺	-11.1604
▁付予些亃	-11.1607
▁亷份亾	-11.1607
▁任仹亹作伺	-11.1609
▁免停	-11.1611
京亭佄	-11.1618
仅仆亿什五	-11.1618
▁仢侐人会些	-11.1625
2008	-11.1626
IT	-11.1628
▁云僅亝	-11.1629
▁仦亴亳云	-11.1629
▁伇亳冫亣	-11.1629
▁仈仿佮仿	-11.1629
▁亷仮俔	-11.1629
▁予伂俆	-11.1634
pro	-11.1634
▁儝俬	-11.1636
▁亓仆仉亰亇	-11.1638
▁伇亾仌亳	-11.1638
伶仿	-11.1642
▁伕仓予什五	-11.1648
▁亓伐伮伡伺	-11.1652
吏	-11.1653
▁亃债們	-11.1653
▁亞倍佬伺	-11.1653
▁今侃	-11.1655
▁付亃亳伇	-11.1656
价亳仪仕亇	-11.1656
▁伇佛仇	-11.1659
▁仉仛佛	-11.1663
▁云仇仐事	-11.1664
井仄予	-11.167
又	-11.1678
▁仐亡份伫	-11.1678
▁仐仺些仇亏伽仡	-11.1687
▁仦亴仅仉五	-11.169
伧仇仱亖	-11.1691
▁些伎伨人	-11.1694
▁亮亟亿什亖	-11.17
▁予亭倖	-11.1701
啕	-11.1703
▁亴伫仄亨亟	-11.1703
▁仦仒亏介	-11.1703
▁侬仛产	-11.1703
vers	-11.1704
▁亴亦些享	-11.1704
▁亞佺伬于	-11.1706
▁亃云仯	-11.1708
▁亣亭亹众	-11.1712
▁亮亭亯佁仅予	-11.1713
亿什亊	-11.172
▁价俽争	-11.172
▁亓亯亐	-11.172
ley	-11.1721
ave	-11.1722
卷	-11.1728
▁井伄佑	-11.1728
out	-11.1731
▁些仆侕亟享	-11.1731
▁些亭亻佚伺	-11.1734
▁亓亣俕	-11.1735
亏什伊伆	-11.1737
▁仮伛	-11.1738
▁佂什伆互	-11.1743
▁亂亳侌人	-11.1745
▁仐亟交了亹亗	-11.1746
▁亞俀亐	-11.175
喕	-11.1753
▁亓亃偍五	-11.1753
▁伇云僙仇	-11.1753
▁亅侌争	-11.1754
▁井俯	-11.1756
▁亓亊们	-11.176
▁些仆亳余亜亟	-11.1763
▁佳偮	-11.1764
伮亾仉	-11.1767
亭今了	-11.1768
▁价亊倗互产仇	-11.1775
▁些仆俧	-11.1775
▁付于亷会	-11.1776
▁云仺亅亜仕亇	-11.1778
▁亪側仱仌	-11.1778
nes	-11.1791
▁予佡伺	-11.1796
▁仉人仉了	-11.1799
▁侈些亦	-11.1802
▁亜偃亗亖	-11.1804
▁仵事佼亊伛	-11.1804
叵	-11.1804
▁亣亭刷亃	-11.1804
▁亓佻佫	-11.1804
▁伱侚亟享佛	-11.1804
IN	-11.1808
佇亭亨仏于	-11.1814
AR	-11.1821
than	-11.1822
伧亭了亱亇	-11.1823
old	-11.1826
▁井亊亰仡	-11.1828
▁价侫亱亇	-11.1829
▁保仇亳亖	-11.1829
▁价仱予仮亻亟	-11.1829
▁侼俸五	-11.1829
▁仵亪伮	-11.183
▁亃倚冚	-11.1833
▁亅亟仇亿亐	-11.1837
▁亃亳亹亥产仇	-11.1838
▁付八	-11.1845
▁亅亳亙介	-11.1847
▁亅亟仴佥	-11.1854
凋	-11.1854
▁佰亲仆	-11.1855
▁价倖亟亝仆	-11.1857
▁亞俙亃五	-11.1861
▁予亸亨人	-11.1862
▁佤亳亿亚	-11.1869
&	-11.1876
▁仨互了亸伵仇	-11.188
傡	-11.188
匧	-11.188
嘽	-11.188
▁佢亣了俔	-11.188
▁些仏俔	-11.188
▁亓伉亭佛	-11.188
▁仉伡亜	-11.1881
ated	-11.1881
▁伲争伧人	-11.1887
▁予仛亪	-11.1891
▁云亸佝伺	-11.1896
仵亪	-11.1896
▁亣仏了亹亗于	-11.1903
▁二仓伇亮亢	-11.1905
▁京于伂享亘	-11.1905
▁亓佃仅些仇	-11.1905
▁亅仄些伎仅仇	-11.1905
▁亴今仄亟	-11.1905
▁佭侐于	-11.1905
仉人亻佬伺	-11.1906
▁仐予僆	-11.1907
伧亭佛仇伺	-11.1908
▁1908	-11.1911
▁他以佛	-11.1912
仢冫亳	-11.1912
▁佧偞	-11.1912
▁予亗亘了	-11.1913
▁些仆來	-11.1917
仐亡	-11.1923
International	-11.1931
▁佭亃仱付亢	-11.1931
冷	-11.1931
啸	-11.1931
▁云了什亊亇	-11.1931
▁亣倖了仆	-11.1931
伧伔亃	-11.1936
亪亹亇	-11.1937
▁亅亸伵亳	-11.1939
▁仅偛	-11.1953
▁些仇仉仄佉	-11.1956
▁仉仄伉仇	-11.1956
偩	-11.1956
▁付亊亱亴亾亟	-11.1957
▁亪仺価	-11.1966
▁价佇仅伂仡	-11.1968
佮伿仇伺	-11.1969
red	-11.1971
▁亂亃俢亡仅予	-11.1982
▁侍侎佥	-11.1982
▁云佽佇亳	-11.1982
▁二亭亘	-11.1984
pan	-11.1987
亹人亅佃	-11.1992
akka	-11.1995
▁予些仯会	-11.1999
▁亅倀亳仾	-11.2007
▁伕侏仉些亳	-11.2008
▁佧亭了仮仇	-11.2008
▁亷伨互	-11.2008
▁1913	-11.2017
▁价仆仐事	-11.2027
仧仏亪	-11.2031
▁伕傋	-11.2031
▁井亊仙伧侇	-11.2033
僎	-11.2033
坂	-11.2033
▁佭佝仾	-11.2033
▁二亣吵五	-11.2033
▁仦亳佑	-11.2036
▁亂亃倰仱予	-11.2037
▁亓伄亂予仮仇	-11.2041
▁亴了佋亚	-11.2042
▁佳倀佇仅仉亖	-11.2044
Ja	-11.2046
▁仮仐仄仌亰产	-11.2047
▁仍佑	-11.2051
▁伕仭作	-11.2057
▁亓伐仱亃伕亳	-11.2059
▁亽仆仿	-11.2059
▁仮亸仉	-11.2061
▁仍亜仌亭佝伺	-11.2062
▁佢倂事	-11.2064
▁亜亻亾	-11.2066
▁仮傁	-11.2071
倈亜	-11.2072
▁亪佅亾五	-11.2083
俺	-11.2085
嗱	-11.2085
垴	-11.2085
▁亩伡予份	-11.2085
▁亅今仯	-11.2087
▁修仉亳今亣	-11.2088
▁亞俙亦	-11.2092
▁伏仅什予伽仡	-11.2093
▁价亟仡佢	-11.2094
伧伐亐	-11.2094
刜	-11.2111
▁亓侘仧仅	-11.2111
▁亅亗亹亜亙	-11.2111
▁亂仙亪亣伧亖	-11.2111
▁亓予云于	-11.2112
▁亊伂五	-11.2112
form	-11.2113
▁亓僛仯	-11.2113
亂亃佁	-11.2113
亹争亭了亱亇	-11.2114
▁二個伴伧亱仇	-11.2116
▁伇云凩	-11.2118
▁价亃凹亐	-11.2128
佼亪亙	-11.2134
凾	-11.2135
▁亓什了亹人亇	-11.2145
▁亅亾伥	-11.2146
▁价伦亗	-11.2149
▁亂亃倰	-11.2159
吖	-11.2163
嚂	-11.2163
▁仢仆仮亻亟	-11.2163
▁亦些亃亇	-11.2163
▁伃仒亭仡	-11.2163
▁井亝云	-11.2168
▁伕于伮了	-11.2171
▁佃了亹亗	-11.2171
▁付亊仌亗	-11.2172
▁亓亣亂予	-11.2173
▁伃侵	-11.2182
▁仵亊伍	-11.2183
▁仈什亅亳亙	-11.2189
▁仁侨亾	-11.2189
▁份亩佛	-11.219
▁佢仭亗	-11.219
▁倧仞亖	-11.219
▁佧伇伂	-11.219
▁亴伫仇	-11.219
▁二侻亚	-11.2192
▁二亼以了亹亗	-11.2194
▁份亣伧亟仓亖	-11.2195
ET	-11.22
倯优	-11.2205
▁井伧亳伪了亐	-11.2208
亦亟人会	-11.2209
▁伃仇些	-11.2213
▁价倖了亹亥产于	-11.2214
▁亴些亮亭仮仯五	-11.2216
予什享伆	-11.222
▁佰侫亻亼仇伺	-11.222
▁亻仞佉	-11.2223
▁亓以亝仇伺	-11.2223
▁伕侏伧亟亖	-11.2227
▁予亃伂	-11.2229
▁仦伮亾伵仉亖	-11.224
▁于倖了伿	-11.2242
▁亣伆亗	-11.2244
亹人会亻亼仇	-11.2247
▁亅侏今伇亖	-11.2247
▁仧亾了亱亇	-11.2249
▁仍予俧	-11.2256
▁亓伐云亣亨仏于	-11.2259
▁予亭会亹亜	-11.2264
▁云予伐亇	-11.2267
▁亣仏伡倌	-11.2268
▁亞伧俜	-11.2268
▁仦仧亾伵	-11.2268
佽円	-11.2276
▁价伥亟亘亝	-11.2276
▁1901	-11.2277
ces	-11.228
▁亓人亨	-11.2286
▁仦亻亟些伫侀	-11.2288
亹亭些	-11.2289
▁亓亊伉	-11.2294
▁亪俄会亏	-11.2295
▁仈于俼人	-11.2295
▁伱伝亜了	-11.2295
▁云仌云亇	-11.2295
▁井叽人	-11.2295
▁些仏伿	-11.2295
▁亂亃亱些亩予	-11.2295
▁佢亾倖	-11.2295
▁亽僋	-11.2297
▁价倕做	-11.2303
▁亓佦仌	-11.2317
▁予亭亝亾	-11.2319
匍	-11.2321
▁佳佱亴仅	-11.2321
包	-11.2321
▁二作些于	-11.2321
傝	-11.2324
冝	-11.2329
▁亃事些亭亇	-11.2333
二亼	-11.2334
▁云亸云予	-11.2338
oph	-11.2342
▁亃事些仱仇	-11.2342
▁仈亙亃亖	-11.2344
▁二仛会亂亡	-11.2345
▁亓亳亴亟仄亘伮	-11.2348
儨	-11.2348
▁仸作什	-11.2348
▁些亸亏	-11.235
▁仦伿仆仉亖	-11.2351
▁予仼伨予	-11.2353
▁伏傍亚	-11.2353
▁仦亳俟了亹亗	-11.2355
▁仈于亨	-11.2356
▁仮仯亊	-11.2356
▁伃偧	-11.2358
▁井亟亾亟	-11.2358
▁伕亝予亏亚	-11.2364
▁儝偗	-11.2366
▁云亥云伔于	-11.2374
▁仄伿仯亖	-11.2374
▁亴亷侍	-11.2375
▁亣介亹亊亏什亰亇	-11.238
▁亓亾亟倖	-11.2381
▁仧亳佑	-11.2393
二仛	-11.2393
喑	-11.24
傥	-11.2401
剖	-11.2401
▁亂倀事	-11.2401
儬侃	-11.2402
▁[1]	-11.2402
▁亅侠仩伺	-11.2402
▁井亟倂事亹侏	-11.2404
▁侄伵	-11.2406
▁亂于仐事	-11.2408
▁井亱仉	-11.241
▁价仱云仁交	-11.2411
line	-11.2415
▁仐事亟仌仓亭伟	-11.242
▁亓亘了亹亥产仇	-11.2421
任儅佬伺	-11.2428
▁伎伞仛会	-11.2428
▁伇俨亣	-11.2428
▁亅亥俌佥	-11.2431
▁仵亪仟	-11.2438
▁仐依仧了	-11.2445
嫧	-11.2455
▁伕仭亘人	-11.2455
▁亷劇亖	-11.2455
亟享佛	-11.2455
▁仐予唯	-11.2456
▁伕什亟	-11.2456
▁二亍亃佱仇	-11.2458
▁1907	-11.2463
▁仍亜伮亖	-11.2464
亹人些于仾	-11.2472
▁仐予冀	-11.2483
▁亅侠伝	-11.2485
▁侲倝亟	-11.2487
▁井仺伮仇亿亶予	-11.2491
Kar	-11.2497
▁予伿伄亟亹亗	-11.2499
[[	-11.2506
▁价亭了仉佴	-11.2508
呅	-11.2509
呈	-11.2509
▁亞偄亖	-11.2509
▁伇仇亽亟予	-11.2509
▁仢侐人仌	-11.251
5,000	-11.251
▁亞争仅伺	-11.2512
▁仫俞亏亚	-11.2519
▁佖仙人会亻仏于	-11.252
▁仐們亻了	-11.2523
佋伽亊五	-11.2525
▁价亊倗伫亭	-11.2525
▁仧亵亭亇	-11.2532
▁些亭亅些	-11.2533
▁予亭亣伡伺	-11.2534
ott	-11.2536
勡	-11.2536
囔	-11.2536
伕佅仭	-11.2537
▁伇侐仆	-11.2538
▁价亡些仯	-11.2538
▁仦仼佱仇	-11.2539
▁价亟了仉亟亖	-11.2541
ake	-11.255
仚伄	-11.2558
▁仄倨	-11.2559
▁价伔亃亩亖	-11.2561
他介僤亳	-11.2563
冭	-11.2563
向	-11.2563
喝	-11.2563
佼亪伮	-11.2564
卍亣	-11.2566
▁亃佱仓予仮予	-11.2568
▁亻仱俜	-11.2576
偁伲俬	-11.2589
▁亓倥予亾了亹亗	-11.259
▁亓仮今伥	-11.259
亨佫五	-11.2591
▁亂代仡	-11.2591
亻佚亿亐	-11.2591
俊亊	-11.2592
▁亪云亾	-11.2594
▁亻享亹	-11.2595
car	-11.26
lar	-11.26
▁仍亊亝亹人亻仏于	-11.261
厤	-11.2618
{	-11.2618
▁亂亹亾仮亸	-11.2618
堳	-11.2618
▁亓你倡伿伺	-11.2618
▁亓亣伇亟	-11.2618
▁亃事亴仏佛	-11.262
▁亷伨伫	-11.262
佳仿	-11.2622
▁价亟俈亟仓亖	-11.2625
▁亻伄会些	-11.2625
Ac	-11.2632
▁仉仄了	-11.2633
▁予偻亗	-11.2645
亹佝亗	-11.2646
偁凅	-11.2647
▁亮亟仱亰亇	-11.2649
仡俥仇	-11.2653
▁价倖了亹亥	-11.2653
▁仧亳亣仐亣仅予	-11.2662
仧冃	-11.2662
▁位仄亿亐	-11.2666
▁予亥亹人仌	-11.2668
▁仧倔亭些仇	-11.2673
▁仦亅伅仇	-11.2673
▁二偁亪	-11.2673
▁价亭了余人亇	-11.2678
▁价俨仺些仇	-11.268
▁予俈亝亖	-11.2683
仸亜亟	-11.2689
仵亪亣	-11.2694
劷	-11.27
▁侫偷云众亟	-11.27
▁俸伇仓伇	-11.27
▁刻半亇	-11.27
偟	-11.27
凍	-11.27
▁他伪了	-11.27
▁亃佱亙	-11.27
▁亷介仡亜	-11.27
▁亪做傍亐	-11.2702
▁俖俗	-11.2706
▁付亣亹享	-11.2713
▁亃交以	-11.2715
▁侄伧仳	-11.2716
亹亟亸	-11.2721
凎	-11.2728
唠	-11.2728
▁亪享些介	-11.2728
▁傃亗亖	-11.2728
▁仦伽伎	-11.2728
仌亭亨佬伺	-11.2733
▁亅亟亍人会亻佬亿亐	-11.2735
▁些亭伬于	-11.2747
▁仉仄亻伡伺	-11.275
俭	-11.2755
▁井亊偍仏	-11.2755
亅亣伡佬亇	-11.2756
亂亜仅于	-11.276
俐事	-11.276
▁伕仏仍予伺	-11.2761
▁亮侻什	-11.2768
佄伽仡	-11.2768
▁佃仌亭亹	-11.2776
俋伆	-11.2778
▁亻亭争亸亻亾	-11.2783
嗉	-11.2783
▁亓亭侣伇仄	-11.2783
▁仈亍亩亇	-11.2783
厨	-11.2783
墼	-11.2783
▁亓事佢仆	-11.2783
▁予亭伅了	-11.2784
que	-11.2785
▁亃事亘伧亊仮予	-11.2799
▁佢剋僉	-11.2811
啪	-11.2811
▁予事了仆僜亟	-11.2811
▁仕值傁	-11.2811
▁任仛俟亖	-11.2811
▁伇名亥	-11.2811
▁俾亳仉	-11.2811
▁二佛仉亃	-11.2811
▁付于亷伮	-11.2815
▁亓伄亂予亹人仌伡伺	-11.282
▁亓倥予亾了	-11.2834
▁云品亴亟亇	-11.2839
咝	-11.2839
▁亞亟但佥	-11.2839
吔	-11.2839
▁佖伌争	-11.2841
▁亃仛些	-11.2844
予什亊交亭伟	-11.2846
亽亃侫今交	-11.2865
堩	-11.2867
▁二亭伇伊亇	-11.2867
▁侩倘亳	-11.2867
▁仈伮亊	-11.2867
▁仢倮事亹侏	-11.2868
▁1909	-11.2875
▁伏凬	-11.2876
▁亃仅亾了亹人亇	-11.288
▁亣介亹亊会亡	-11.2888
▁仵亊亿什亖	-11.2889
▁井仄伎	-11.2893
palayam	-11.2895
埄	-11.2895
▁仢俓仏	-11.2895
▁亣亭亹刷伺	-11.2898
▁亓以亨佬亿亐	-11.2899
▁1906	-11.2904
vo	-11.2908
▁价亃以	-11.291
▁佰亾亟亇	-11.2917
偸俞	-11.292
俑仙	-11.2929
▁二仛伅	-11.2929
▁仦亩亟	-11.2935
亳函	-11.2936
▁India	-11.294
亞偮	-11.2941
ope	-11.2942
▁亓亃偍仏亪	-11.2952
▁于予佄亐	-11.2952
▁仁佚予	-11.2952
▁价亚亟仱佔	-11.2953
▁亅予些亣	-11.2956
▁佢亜亝于	-11.2959
▁亓予亼	-11.2959
亹仄伎	-11.296
▁些仆侕亟享佛	-11.296
▁亅众仅仆亿亐	-11.2969
▁University	-11.298
▁佢兄僭	-11.298
▁仮仐仄亏仆佃	-11.298
▁仦仧亾了	-11.298
▁仐儇亟	-11.298
▁亴亃仏	-11.2981
▁予傷争	-11.2981
▁价億些亗	-11.2983
▁伕仄些亿什	-11.2985
喣	-11.2986
仚亭侵亚	-11.2986
亹人亻佚伺	-11.2994
▁二什亘	-11.2994
僞佥	-11.2996
偦	-11.3007
▁仍些仱仌亾	-11.3008
▁侈似倿	-11.3008
▁仧亳亴仌	-11.3009
▁亪伄亨亼于	-11.3026
儘	-11.3028
▁佖仙人亝亹亗	-11.3033
▁价亳倐些亩予	-11.3034
▁亣仅予仱側	-11.3034
咚	-11.3037
壞	-11.3037
▁今偊伺	-11.3037
▁亂亜仅俔	-11.3037
▁仧亳亅佛	-11.3037
▁仉予亊五	-11.3038
▁仐予倽	-11.304
▁亂亃仄亘伦仱予	-11.3045
▁价僐仓	-11.3054
噷	-11.3065
▁亅亣伡倈	-11.3065
▁亣亭些侔些	-11.3065
▁亴亏傠亾五	-11.3065
喥	-11.3065
▁亅促云亇	-11.3069
▁井俥俔	-11.3076
凅	-11.3092
▁仐亡些享	-11.3095
▁亓仄亪予亶予	-11.3103
▁仉仄亨	-11.3103
▁仫侂亹亥产于	-11.3112
侵什五	-11.3112
dge	-11.3115
▁侈僧人了亹亥	-11.3116
▁by	-11.3118
▁侲僽	-11.3119
▁亓佦享人	-11.3123
▁侳亊佡交	-11.3123
仡仞倾	-11.3123
▁伇云仴争	-11.3123
▁仈亥個	-11.3125
▁仢俰俩	-11.3126
▁价亭亅仌	-11.3131
▁云亭佇	-11.3134
▁亣介亟亳佉	-11.3152
▁亮亟卖仒	-11.3152
僪	-11.3152
儛	-11.3152
命	-11.3152
▁亞佻倿	-11.3152
▁亅亗亩亾	-11.3152
▁伇佛亣	-11.3153
仉亭佛	-11.3164
▁佳亾仉亝仇伺	-11.3171
▁Retrieved	-11.318
匆	-11.318
嗆	-11.318
$	-11.3188
▁伋僖优伂	-11.3196
▁仐仄伂亻仏于	-11.3196
仌仓亭侉	-11.3196
2010	-11.3206
col	-11.3206
▁佂侏亨仞亘	-11.3209
噩	-11.3209
垒	-11.3209
亹亳亙	-11.3212
▁井仺亣亹人亝	-11.3212
▁仦亻佦亭亇	-11.322
221	-11.3232
▁亂伖亾亘	-11.3239
堃	-11.3239
▁伕伅仾	-11.3239
▁云仱争亟	-11.3239
own	-11.3239
▁伏傍伽	-11.3239
▁云仔亟	-11.324
▁仨亰仡	-11.3247
▁仸作予	-11.3249
刕	-11.326
▁二什亘仅予	-11.3267
▁仨亱仇	-11.3268
▁亃伓佂亹	-11.3268
▁亴亯凱	-11.3268
媚	-11.3268
▁些伎偼仛	-11.3268
▁仍些亨亳予	-11.3268
▁侍亩些亾	-11.3268
▁佖互佮伿	-11.3269
▁井亭今仡些亃侀	-11.3286
▁仦倖伧	-11.3291
信侏	-11.3295
▁仉仐佦亻	-11.3297
嗊	-11.3297
▁亽予倇予	-11.3297
▁仦仱俵仅仆亿亐	-11.3306
▁佢傸伇仇	-11.3326
▁今倔优	-11.3326
▁云倀亙	-11.3327
▁价亭些亭仡亇	-11.3327
▁仍亜仌亭	-11.3331
僐	-11.3333
Indian	-11.3339
▁仧仓僞伺	-11.3356
凌	-11.3356
▁亷伣亥	-11.3356
▁亓亣亷事	-11.3356
▁仸亪亐	-11.3356
亅人亝亹亗	-11.3356
▁仵佁仅仇	-11.3356
▁份佾	-11.3361
▁仅仌介	-11.3364
▁付亊佋伽亇	-11.3365
▁仃亊亹亗	-11.3372
▁仵优仄亣亅	-11.3385
▁亓了俔	-11.3386
rt	-11.3391
▁亃凷亾亖	-11.3392
伨亊佋亐	-11.3397
▁井亭仪	-11.3402
▁仉仆佉亻亼仇	-11.3407
▁仐予僉亼	-11.3415
World	-11.3415
▁仐今亳亸	-11.3415
▁亽仙于	-11.3415
▁亓仄亷仇	-11.3415
▁份仾侲仇	-11.3416
▁伕亾伟任产	-11.3417
▁亞冻	-11.3425
佽冫亳	-11.3427
予什亰产	-11.3427
▁云仱仌	-11.3441
員	-11.3444
▁仉侢亹	-11.3445
Tamil	-11.3445
▁侼仱仾	-11.3445
▁亂亣侕	-11.3446
▁亃仉來	-11.3447
▁亞倰亃侀	-11.346
▁亷亸亹人些于	-11.3466
over	-11.3474
▁仕仂俍佶	-11.3474
喙	-11.3474
▁交予使伄亟	-11.3474
▁井介仍享	-11.3474
▁伎亱伇亽亃伺	-11.3475
▁京仺倻仩伺	-11.3475
▁仍便亻亼仇伺	-11.3476
▁佔仇亻	-11.348
▁京仺倻互	-11.348
▁亪亜佢伺	-11.3481
▁冑亾亟	-11.3482
Jo	-11.3489
▁于仏些仏	-11.3504
▁今傷侏	-11.3504
▁仐劃亃亇	-11.3504
倏	-11.3504
决	-11.3504
凚	-11.3504
匽	-11.3504
▁亷侣云亖	-11.3504
▁亅倀亭	-11.3504
佮僰	-11.3505
▁from	-11.3505
▁些伧伫	-11.3506
▁亣伥份予	-11.3507
▁亅人伎	-11.351
▁亓亣予亾亹	-11.3517
▁仈于了亹亗	-11.3525
thumb	-11.3534
儠	-11.3534
后	-11.3534
咂	-11.3534
▁仁亂份亖	-11.3534
噄	-11.3534
嚑	-11.3534
▁井亊仴人	-11.3534
亻亾侍亾亟五	-11.3534
▁亷伉亳亴五	-11.3535
▁井儗产	-11.354
▁1904	-11.3542
京仛于	-11.3545
▁亴仺付佁	-11.3545
▁佞仱仯亟	-11.3546
▁亓伃亳予	-11.355
▁些佝亖	-11.3552
▁亂傾亣亾	-11.3564
▁井亅仐亊亃	-11.3564
▁亴些亮亭仮仂	-11.3564
▁云佈仕	-11.3564
▁仐事亙亝佁	-11.3564
▁亅伎些	-11.357
▁亪伄伮争亭	-11.3583
伫亭佛	-11.3589
▁佢俩亗	-11.3594
▁侲仛亪	-11.3594
▁价介仟	-11.3599
▁价仞佝伺	-11.3602
▁份事伨人	-11.3604
估亶予	-11.3606
僚	-11.3624
▁仈伣亗仆仉亖	-11.3624
▁付亅亽伇亇	-11.3624
▁仧刾伉亟	-11.3624
▁价亼仆伂亇	-11.3624
咄	-11.3624
喿	-11.3624
▁亓喩伺	-11.3625
▁价仌介亹亊仌侀	-11.364
▁佭亃亳伇	-11.3649
塑	-11.3655
▁伇亳些亸	-11.3655
▁亅倊人	-11.3655
▁亩亰亷	-11.3655
▁仉亅仌亖	-11.3657
些侓人	-11.3683
▁佖冚僸	-11.3685
▁价伥佼亪亙	-11.3689
▁仨佋伽亇	-11.3691
cent	-11.3693
▁付亊佋伽仡	-11.3696
▁价亊倗伫亭佛仇	-11.3697
▁仵优亱予	-11.3702
▁佂伫亟享	-11.3704
▁份仺亅人亻亼仇	-11.3709
僿	-11.3713
▁亅佋事予仞予	-11.3715
▁亣亭亂仛仡	-11.3715
▁予伬亜仅	-11.3716
▁仧亳亷円	-11.3716
▁二亣伍仱亃	-11.3717
▁亞俙亣亖	-11.3721
▁仉亨亳云	-11.3721
▁价傓倿	-11.3722
▁仐仂伂仸	-11.3725
▁价亨仱云仌亖	-11.3746
劖	-11.3746
可	-11.3746
▁价伥了事仰	-11.3746
▁亅亣伡仺	-11.3746
▁二亍亃仂	-11.375
▁仉兙估亐	-11.3751
▁亅侏余亊	-11.3755
▁亂亟仿	-11.3755
2009	-11.3756
启	-11.3777
▁云众仢予事	-11.3777
▁亪伄亹亩亪亇	-11.3777
住伀	-11.3777
▁亞傈亸	-11.3777
▁亓俨亟	-11.3778
俟冃	-11.3779
亪仮亳	-11.3796
▁仮亸些亿亚	-11.3801
▁亩侟优	-11.3808
▁仵优养亏	-11.3808
厏	-11.3808
▁保交仯	-11.3808
▁亓人了	-11.3809
▁予亩亽亟予伡予	-11.3809
▁仉亭佇仇	-11.3809
▁仧亾亗五	-11.381
▁仁亻仌亟	-11.3812
▁亓些互仡	-11.3815
亭亻亖	-11.3816
▁亓亘伦予亇	-11.3819
助	-11.382
俉	-11.3836
侗	-11.3838
▁仉份亷仇佛	-11.3838
▁价亃伐亊五	-11.3844
▁佳亾仉亨仏于	-11.3849
匈	-11.3852
831	-11.3856
▁二亣侂俔	-11.3869
▁价亣亷伇	-11.3869
▁任佄仄	-11.3869
▁佦伇仂	-11.3869
▁侈倘亰仡	-11.3875
▁付于亷伨予	-11.3876
▁伇亗云亼仌佱仇	-11.388
仚亭亚	-11.3882
亭仢仯仅	-11.3882
▁伕予以	-11.3883
佰依仱俔	-11.3883
▁井亊仇亜	-11.3889
▁亃交仞亿什	-11.3891
▁仉兙估什	-11.3893
▁井亭佂人	-11.3901
▁亪侐侍亸仌	-11.3901
▁亃亊予仆	-11.3902
▁佖仙亥产	-11.3903
▁京于云了什	-11.3906
▁亅伧亾亊亹人亻仏于	-11.3906
亝事些仱予	-11.3907
▁1903	-11.3907
▁亾刻亅亇	-11.3932
哼	-11.3932
噍	-11.3932
▁伇了亳些倫	-11.3932
仴亚亟亇	-11.3932
▁云亭佝予	-11.3932
▁仉仄仡	-11.3938
▁二亣凩	-11.3938
ative	-11.3947
冻	-11.3952
佮侔	-11.3958
▁仢俪伄亟	-11.3963
▁伇伡亣亅亣	-11.3963
▁亣仱哧	-11.3963
▁仈侘伶亭	-11.3963
▁二仛佛亭什	-11.3963
▁亽佷亜	-11.3963
傱仦亪亇	-11.3971
亞俀亇	-11.3977
▁亅亾些俧仂	-11.3994
▁佳亍亪亣	-11.3994
咬	-11.3994
▁仈仓今伉	-11.3994
▁二亾今仕	-11.3994
▁佔凟五	-11.3999
▁二佪亼仇伺	-11.4
▁亂侊了	-11.4003
▁亓亾亩仇	-11.4004
▁亅佉亩亳	-11.4004
▁佳亰似伡	-11.4026
嗎	-11.4026
▁予什云値	-11.4026
▁付仓伂佶	-11.4026
▁俾亃云	-11.4026
▁伕亃倰	-11.4029
▁仁予伇	-11.403
▁些亳亱仩亴亾亟	-11.4047
唂	-11.4057
啐	-11.4057
▁交咓亗	-11.4057
▁些亳份俓	-11.4058
侖仒亇	-11.4061
僛仺亇	-11.4062
▁些仆偂伺	-11.4063
▁亓些伐享亟	-11.4067
▁仸仏亹人亻亼于	-11.4068
▁亷僜伕亳	-11.4083
▁价仄亪今予	-11.4085
▁佳体仂	-11.4089
圔	-11.4089
▁仈仌伥	-11.4089
▁亞俙亃佱仇	-11.4091
予亶些仇	-11.4092
▁价享仉仂	-11.4097
▁仃伉亖	-11.4099
vel	-11.4102
way	-11.4104
▁二伐交亊仌亖	-11.4121
▁二兯俬	-11.4121
唉	-11.4121
▁伕仄伡倌	-11.4121
▁仧卜伉	-11.4121
▁佤亲仆	-11.4121
▁予伧仺	-11.4122
▁二亍仇今亪亇	-11.4127
▁亓些亿什亊亇	-11.4129
▁二仛会了什	-11.4129
▁亃伉伧亭佛	-11.4138
▁付于亷仟	-11.4151
啁	-11.4152
嘦	-11.4152
塌	-11.4152
▁侩侯优	-11.4152
嚒	-11.4152
▁井亟倘亳	-11.4152
▁亓偓仯亟亇	-11.4152
▁仦倘伺	-11.4153
▁仐仄亹亳伮亖	-11.4155
▁亪伄伮亥产	-11.4167
▁佂什仕仏伂	-11.4184
▁些亭位佇亳	-11.4184
▁亂佱仄仌亖	-11.4184
▁亅亣仂伟	-11.4184
▁亃仉俧	-11.4189
▁亓亘佇亭亨仏于	-11.4192
▁佖仙亊余亜亟	-11.4201
▁亞亟伸作伺	-11.4216
啑	-11.4216
嗴	-11.4216
▁仮僬亟	-11.4216
▁亂仛些亦仕亇	-11.4216
▁亮亭亏亊仓亖	-11.4222
William	-11.4249
啽	-11.4249
告	-11.4249
▁仉侫今伇	-11.4249
▁伇亰伎	-11.4249
▁亽伝亳	-11.4249
▁仦仇僡	-11.4252
▁亓伄亂予亹人仌亟于	-11.4253
▁亅亳仉仕产于	-11.4253
▁侺侻亐	-11.4254
▁侭叄亥	-11.4281
▁侈佃伧佴	-11.4281
▁予仄伮仇	-11.4281
▁割亢	-11.4282
▁亪仄仫予亳	-11.4282
▁亮侾予	-11.4283
▁仦倐亪亇	-11.4285
▁佖仒今仺	-11.4286
▁亩仡亃仓亖	-11.4298
formula	-11.4298
▁价亊倗仺亻亼	-11.4305
▁亽些亱	-11.4307
540	-11.4309
倎	-11.4313
啮	-11.4313
嘈	-11.4313
▁亓人亝亅亜仅予	-11.4313
▁价傠似	-11.4313
▁亅亟亍亗于	-11.4314
▁亂亣们	-11.4317
▁仍亜予仱予	-11.4332
▁亅亟仴争侀	-11.4338
▁亓仂些介仕亇	-11.4346
噻	-11.4346
▁亂伖介	-11.4346
亣亷亾	-11.4349
▁云事亟予	-11.435
▁仍亊仱伇	-11.4352
▁亃佁仕享亟	-11.4354
▁1902	-11.4355
▁伎亹仒亹亗	-11.4363
于人伨亗伵亳伺	-11.4364
些仆侕	-11.4367
壍	-11.4378
▁云亳亸云享佝伺	-11.4378
▁俠儇交	-11.4378
坪	-11.4378
▁亷仄了亗仌亖	-11.4378
▁佧仙伧	-11.4378
▁佰仱仄亟	-11.4379
▁亣亻亖	-11.4381
▁仧亾凸人了	-11.4383
▁亣亭侮	-11.4383
傶	-11.4411
咁	-11.4411
▁佽傆亇	-11.4411
▁僕仯	-11.4412
2003	-11.4412
▁亃介亹享	-11.4417
amba	-11.4442
倝	-11.4443
僼	-11.4443
▁云债傏亜	-11.4444
▁亪伄伮亊亝亪佛	-11.4444
凗	-11.4444
▁交亵促亖	-11.4444
▁倧人亭些	-11.4444
▁傴仓亟五	-11.4444
▁亂亨亟会些佘	-11.4445
▁亴亡亲事	-11.4445
▁二亼以了亹人亻仏于	-11.445
仍俟伴	-11.4463
Gre	-11.4469
▁亣亗交亊亹亗	-11.4474
▁亓亜亹亪亣	-11.4476
冊	-11.4476
匝	-11.4477
▁些事伮亵	-11.4477
▁仁僣仒	-11.4477
▁亃亳伮仇	-11.4482
啰	-11.4506
▁仉仅付亾	-11.451
▁亓偓仯仅	-11.451
▁伲侂仆	-11.451
亏伽亨享伆	-11.4511
▁予伂倸伧	-11.4512
亹争亭了	-11.4521
▁亃亾伇仇亇	-11.4543
▁伇亗倻亳佃	-11.4543
▁僕伧仺	-11.4543
切	-11.4543
問	-11.4543
喓	-11.4543
▁价亊于仁亾	-11.4543
▁任促亇	-11.4544
▁仁伀亃	-11.4551
▁京亭伩	-11.4551
▁二亵佂佚亖	-11.4576
▁仈亍亩些于	-11.4576
▁付亨伅仯亟	-11.4576
▁亣亭佃仅仺	-11.4576
▁佢亾优伂	-11.4576
▁仍吾伺	-11.4576
佳伔亇	-11.4577
▁井伓亪亣	-11.4577
▁仦修仇	-11.4578
able	-11.4585
▁亴仏亹佊	-11.4609
冧	-11.4609
呬	-11.4609
▁亂亜些享佛于	-11.4612
▁予刣人了亹亗	-11.4614
▁亮亟仱亪亇	-11.4617
▁伲仱人	-11.4621
▁价偭仉	-11.4639
▁亓仂仌佇亟	-11.4643
厫	-11.4643
古	-11.4643
奫	-11.4643
審	-11.4643
▁亞佉伅予	-11.4643
▁亃交仞伄仰	-11.4643
▁侬做予	-11.4643
▁伕個亟	-11.4643
▁付于亷些仄	-11.4648
▁于亟亳	-11.465
▁价佲亘亙	-11.465
▁亓人亝人会	-11.4651
伶伀	-11.4653
press	-11.4656
亂亭予	-11.4671
傹	-11.4676
▁价亃俒享伧亖	-11.4676
呲	-11.4676
喊	-11.4676
▁仁劄侫	-11.4676
▁侈僾亖	-11.4676
▁井侵亭	-11.4677
▁价侫侘仓	-11.4678
▁亜兾	-11.4679
▁亂亃仓亟些仔	-11.4682
▁井儗侔	-11.4693
偁伲傫	-11.4695
亃凹亐	-11.4704
侮	-11.4705
▁亣予偊伺	-11.471
僑	-11.471
兟	-11.471
喺	-11.471
▁伱仒云什	-11.4713
冀	-11.4734
▁仁侑产	-11.4735
亪伄伨予	-11.4735
▁亃交冷侏	-11.4744
▁亅倀亳倐	-11.4744
▁些亊仢俒亖	-11.4744
▁侫仉倨偌伟	-11.4744
▁儣仯亟亖	-11.4744
▁付伒亖	-11.4744
▁亂亷亘	-11.4745
▁价佬亖	-11.4746
▁亓亣份予	-11.4747
▁他仗	-11.4748
▁云仺亽亐	-11.4749
亊侖伆	-11.4765
▁亂儂儃亐	-11.4778
▁亃交僴争亰产	-11.4778
▁亅亣侖做亇	-11.4778
亹佋事了仞予	-11.4778
哌	-11.4778
▁予亥伨佥	-11.4778
▁亞佲予	-11.4778
▁今亴刕五	-11.4779
▁予云亱	-11.478
伸亪亣	-11.4785
▁亓仆今仇	-11.4792
侻伽亇	-11.4793
▁价伉亱佇	-11.4799
`	-11.4812
▁亷伸佝亗	-11.4812
▁佳卙予	-11.4812
冣	-11.4812
分	-11.4812
唴	-11.4812
▁今俙优	-11.4812
▁亂呴亇	-11.4812
▁些亪亹亡	-11.4812
▁伇亂仌亳	-11.4818
亓亣予	-11.4829
▁价亊侦亟侕	-11.4846
▁囍亜佦	-11.4846
卹	-11.4846
厝	-11.4846
▁价仄伿仯亖	-11.4846
▁倧人亭仉	-11.4846
▁亮僽仓亟	-11.4846
▁仉介今仇	-11.4846
▁侲亗亖	-11.4848
▁伲亾亗	-11.4849
俚	-11.488
▁亪仭交亟亇	-11.488
▁二仚仛于亇	-11.488
▁亮侻亶	-11.4881
▁佳亾仅云亖	-11.4881
▁井仞些	-11.4883
▁仁伮人	-11.4885
亽亟了亍争	-11.4887
俾	-11.4904
▁亅仄仉亃仮仇	-11.4914
▁亣倠佐仇	-11.4914
厙	-11.4914
▁今剅作	-11.4915
▁亻享会产仇	-11.4916
▁仉亅亾	-11.4925
▁井儈亾伂	-11.4949
凴	-11.4949
▁亮亭傈仉亖	-11.4949
▁侺亃亳予	-11.4949
▁亓傒仚伄	-11.495
▁伇亗云亼会伵	-11.4977
夓	-11.4983
▁亃伖亊五	-11.4983
▁俍倀仳	-11.4984
▁井傹予	-11.4984
▁亓亊佉亻亼仇	-11.4984
佮儅亼仇	-11.4984
▁仉亴仌亳	-11.4984
▁亅仄亃亳亹亗	-11.4984
▁仈亾仁	-11.4984
▁仦仕亐	-11.4984
▁二亍亣仓亭伟	-11.4985
▁仈伮人伬于	-11.4986
▁亓云偶亭	-11.4986
▁付來亃侀	-11.4986
▁侈亴予	-11.5005
▁价伥亟亘伨仆	-11.5015
▁佃亷仇伇亇	-11.5018
吻	-11.5018
▁亩儉亹亗	-11.5018
▁佂個仏	-11.5018
▁仍些亻亳予	-11.5018
▁仦亗伵亳伺	-11.5018
▁佖伮亳亖	-11.5019
▁仉吹亇	-11.5019
▁亓似亜	-11.5019
▁仮侣了	-11.502
▁予亸偼人伮亖	-11.502
▁井产亊亨仕产于	-11.5021
▁亃人傠亴	-11.5053
▁亓亜今亳仌亖	-11.5053
▁仈佻亘	-11.5053
▁佭亹亴	-11.5054
▁亣众伂	-11.5057
▁予亩亽亟予	-11.5086
偻	-11.5088
哢	-11.5088
▁ISBN	-11.5088
▁些亊亻仞亨亖	-11.5088
▁亣介仕仄亻	-11.5088
▁仵优亱什	-11.5088
只	-11.5123
叉	-11.5158
坶	-11.5194
嫊	-11.5194
厓	-11.5229
吊	-11.5229
克	-11.5265
嚖	-11.53
哕	-11.5336
塣	-11.5336
傩	-11.5359
嘬	-11.5372
傿	-11.5395
唻	-11.5401
品	-11.5408
傧	-11.5444
傮	-11.5444
妅	-11.5444
匑	-11.5445
候	-11.5481
僈	-11.5481
吁	-11.5481
坩	-11.5481
冇	-11.5517
啹	-11.5517
凂	-11.5554
厢	-11.5591
兜	-11.5591
嚎	-11.5591
唛	-11.5591
僒	-11.5628
卐	-11.5628
儩	-11.5628
劝	-11.5665
劭	-11.5665
嘟	-11.5665
兩	-11.5728
哄	-11.5739
嘄	-11.5739
埗	-11.5777
兼	-11.581
兯	-11.5814
咥	-11.5814
坆	-11.5814
吰	-11.5835
凔	-11.5852
剕	-11.589
吙	-11.5928
儦	-11.5966
厄	-11.5966
圎	-11.5966
埪	-11.5966
哜	-11.6004
哨	-11.6004
咷	-11.6004
儏	-11.6043
务	-11.6043
兤	-11.6043
凃	-11.6081
厛	-11.6081
娚	-11.612
哷	-11.612
坸	-11.612
偶	-11.6133
咟	-11.6159
咀	-11.6159
兛	-11.6198
募	-11.6198
堛	-11.6198
妓	-11.6198
咢	-11.6237
垾	-11.6237
堠	-11.6237
堋	-11.6237
咶	-11.6356
单	-11.6356
厚	-11.6356
哠	-11.6356
垓	-11.6356
吇	-11.6356
僊	-11.6396
剄	-11.6396
専	-11.6476
噔	-11.6476
呄	-11.651
具	-11.6516
別	-11.6516
姄	-11.6516
嗌	-11.6516
凮	-11.6557
勝	-11.6557
唀	-11.6557
即	-11.6557
姜	-11.6557
凢	-11.6597
呁	-11.6597
块	-11.6597
实	-11.6597
\	-11.6638
劺	-11.6638
君	-11.6679
壖	-11.6679
协	-11.6679
刉	-11.6682
剁	-11.672
剻	-11.6762
劜	-11.6762
囫	-11.6762
啴	-11.6803
儸	-11.6803
僔	-11.6845
凛	-11.6849
剓	-11.6887
嘭	-11.6929
匇	-11.6929
咨	-11.6971
姩	-11.6971
剐	-11.7013
呮	-11.7013
嗟	-11.7013
埶	-11.7013
夎	-11.7013
塓	-11.7013
呻	-11.7056
垏	-11.7056
叼	-11.7056
佸	-11.7099
嗽	-11.7141
壽	-11.7141
劊	-11.7141
兙	-11.7173
叔	-11.7185
呓	-11.7185
地	-11.7185
卡	-11.7192
发	-11.7228
唁	-11.7228
嗋	-11.7228
坥	-11.7271
堌	-11.7271
冸	-11.7323
哤	-11.7359
婉	-11.7359
倃	-11.7398
厧	-11.7447
呏	-11.7447
嗺	-11.7447
兗	-11.7492
凊	-11.7492
凒	-11.7492
吳	-11.7492
<	-11.7536
嘪	-11.7536
啄	-11.7581
圭	-11.7626
冘	-11.7626
允	-11.7626
口	-11.7671
埀	-11.7671
喗	-11.7671
劯	-11.7717
圂	-11.7717
嘱	-11.7763
墻	-11.7763
凙	-11.7808
刐	-11.7808
吉	-11.7808
垬	-11.7901
儧	-11.7901
僥	-11.7946
垐	-11.7947
在	-11.7994
厁	-11.7994
呑	-11.7994
塜	-11.7994
冽	-11.8041
凫	-11.8041
刮	-11.8041
叺	-11.8041
咠	-11.8041
叨	-11.8088
囎	-11.8088
傲	-11.8135
卭	-11.8183
嗢	-11.8231
儗	-11.8266
哱	-11.8279
卼	-11.8327
噸	-11.8327
俠	-11.8345
典	-11.8345
嘝	-11.8376
圩	-11.8376
剙	-11.8425
囪	-11.8425
嫑	-11.8425
凧	-11.8474
嚨	-11.8474
坃	-11.8474
僺	-11.8479
凿	-11.8523
僢	-11.8523
僠	-11.8564
唞	-11.8572
喾	-11.8572
坚	-11.8572
倮	-11.8603
剼	-11.8622
嘕	-11.8622
入	-11.8672
劸	-11.8672
唫	-11.8672
坨	-11.8672
喧	-11.8672
厅	-11.871
僘	-11.8722
员	-11.8722
哣	-11.8722
嚴	-11.8722
吢	-11.8773
嗒	-11.8824
凓	-11.8824
劆	-11.8824
塤	-11.8824
尤	-11.8824
奒	-11.8824
俳	-11.8875
嗲	-11.8875
凳	-11.8925
味	-11.8926
商	-11.8926
嗁	-11.8926
嗚	-11.8926
埰	-11.8926
変	-11.8926
匞	-11.8978
囓	-11.8978
圆	-11.9029
嗔	-11.9029
呿	-11.9081
儱	-11.9081
层	-11.9134
囐	-11.9134
埐	-11.9134
儤	-11.9186
叅	-11.9186
嫈	-11.9186
堲	-11.9186
嫸	-11.9186
啇	-11.9239
啧	-11.9239
媩	-11.9293
埞	-11.9293
吨	-11.9346
壳	-11.94
坙	-11.9454
嘷	-11.9454
劂	-11.9508
哯	-11.9508
幓	-11.9508
囧	-11.9508
儆	-11.9563
厽	-11.9563
嗖	-11.9563
呒	-11.9593
半	-11.9618
势	-11.9618
呰	-11.9618
唜	-11.9618
劌	-11.9673
嗯	-11.9673
奬	-11.9673
吆	-11.9673
嶗	-11.9673
刦	-11.9729
哗	-11.9729
岴	-11.9729
功	-11.9784
則	-11.9784
僨	-11.9841
凉	-11.9841
坔	-11.9841
嘹	-11.9897
堊	-11.9897
傂	-11.9954
召	-11.9954
嗅	-11.9954
奷	-12.0011
卟	-12.0069
呍	-12.0069
因	-12.0069
垣	-12.0069
冯	-12.0126
営	-12.0126
圓	-12.0126
吱	-12.0185
妧	-12.0185
倪	-12.0185
咋	-12.0243
嘓	-12.0243
埵	-12.0243
嬇	-12.0243
冖	-12.0302
厮	-12.0302
墫	-12.0302
咞	-12.0361
塛	-12.0361
妆	-12.0361
嗕	-12.0421
嫵	-12.0421
咦	-12.048
咒	-12.048
囏	-12.048
壤	-12.048
娦	-12.048
嵳	-12.048
刬	-12.048
吣	-12.0541
哇	-12.0541
塡	-12.0541
孜	-12.0541
~	-12.0601
冪	-12.0601
叏	-12.0601
夐	-12.0601
妋	-12.0601
恡	-12.0601
俫	-12.0662
恨	-12.0662
劀	-12.0705
執	-12.0724
咙	-12.0724
唡	-12.0724
嗄	-12.0724
埨	-12.0724
媲	-12.0785
嚀	-12.0785
剺	-12.0847
号	-12.0847
呃	-12.0847
围	-12.0847
危	-12.091
刂	-12.091
呭	-12.091
囖	-12.091
唾	-12.0973
奣	-12.0973
姥	-12.0973
兘	-12.0973
堇	-12.0973
唏	-12.1036
凡	-12.1078
佗	-12.11
夷	-12.11
卾	-12.1164
垌	-12.1164
僬	-12.1228
嗵	-12.1228
嘎	-12.1228
嚾	-12.1228
妭	-12.1228
妁	-12.1293
垀	-12.1293
姃	-12.1293
嚻	-12.1345
凲	-12.1359
剭	-12.1359
園	-12.1359
侟	-12.1425
囂	-12.1425
傜	-12.1425
凤	-12.1425
周	-12.1425
埊	-12.1425
嚉	-12.1491
埯	-12.1491
劁	-12.1491
呌	-12.1491
兾	-12.1552
喭	-12.1557
墲	-12.1557
嚳	-12.1625
崰	-12.1625
孹	-12.1625
憊	-12.1625
俐	-12.1675
嘑	-12.1692
哸	-12.1692
囨	-12.1692
妲	-12.1692
媆	-12.1692
傎	-12.176
冏	-12.176
刘	-12.176
唎	-12.176
嚠	-12.176
壚	-12.176
壻	-12.176
多	-12.176
哦	-12.1829
剂	-12.1829
刃	-12.1898
凶	-12.1967
塆	-12.1967
企	-12.2009
剹	-12.2107
嗠	-12.2107
噐	-12.2107
唃	-12.2178
傤	-12.2249
厸	-12.225
壟	-12.225
准	-12.225
噦	-12.225
射	-12.225
^	-12.2314
僧	-12.2322
壙	-12.2322
崘	-12.2322
圑	-12.2322
几	-12.2394
叱	-12.2394
叾	-12.2394
咰	-12.2394
喒	-12.2394
夭	-12.2394
怌	-12.2467
敲	-12.2467
啬	-12.2541
悄	-12.2615
啋	-12.2689
噌	-12.2689
圮	-12.2689
各	-12.2765
唗	-12.2765
嘌	-12.2765
兖	-12.2765
場	-12.2765
優	-12.284
厠	-12.284
变	-12.284
嘫	-12.284
士	-12.284
帽	-12.284
僰	-12.291
吥	-12.2917
唊	-12.2917
塯	-12.2917
好	-12.2917
呐	-12.2994
啩	-12.2994
嬠	-12.2994
山	-12.2994
博	-12.2994
冾	-12.3071
和	-12.3071
嚏	-12.3071
圞	-12.3071
圹	-12.3071
媡	-12.3071
嬧	-12.3071
呎	-12.3149
咭	-12.3149
唱	-12.3149
噑	-12.3228
夋	-12.3228
峦	-12.3228
哳	-12.3228
寧	-12.3307
喁	-12.3307
埭	-12.3307
奙	-12.3307
刏	-12.3307
兌	-12.3387
嘆	-12.3387
坄	-12.3387
塟	-12.3387
倩	-12.3468
嗰	-12.3468
哋	-12.3549
剮	-12.3549
呵	-12.3549
啦	-12.3549
埓	-12.3549
匎	-12.3549
吧	-12.3631
咹	-12.3631
婚	-12.3631
察	-12.3631
寶	-12.3631
叶	-12.3714
吽	-12.3714
咽	-12.3714
唤	-12.3714
塋	-12.3714
刳	-12.3797
圣	-12.3797
垻	-12.3797
墒	-12.3797
嫤	-12.3797
廕	-12.3797
全	-12.3797
圿	-12.3881
堡	-12.3881
呯	-12.3966
啱	-12.3966
垑	-12.3966
堤	-12.3966
兕	-12.4051
燀	-12.4051
唺	-12.4051
堁	-12.4051
媊	-12.4051
孙	-12.4051
嶆	-12.4051
剋	-12.4138
再	-12.4138
咊	-12.4138
喜	-12.4138
砭	-12.4138
偬	-12.4225
劾	-12.4225
嘒	-12.4225
噜	-12.4225
垡	-12.4225
哫	-12.4312
利	-12.4312
吕	-12.4312
吼	-12.4312
呕	-12.4312
惣	-12.4312
冑	-12.4321
努	-12.4401
囍	-12.4401
坦	-12.4401
壼	-12.4401
撏	-12.4401
愿	-12.449
傼	-12.449
呗	-12.449
哂	-12.449
図	-12.449
圴	-12.449
嚶	-12.449
垗	-12.449
咎	-12.458
幆	-12.458
嫾	-12.458
堦	-12.4671
受	-12.4671
哾	-12.4671
坭	-12.4671
哟	-12.4763
叞	-12.4763
囒	-12.4763
圈	-12.4763
儾	-12.4847
垵	-12.4855
哉	-12.4855
喤	-12.4855
妈	-12.4855
儺	-12.4949
團	-12.4949
坾	-12.4949
嘥	-12.4949
匏	-12.4949
岛	-12.5043
嚔	-12.5043
姟	-12.5043
媀	-12.5043
呔	-12.5043
圕	-12.5043
埘	-12.5043
墄	-12.5043
墱	-12.5043
嫜	-12.5043
导	-12.5043
仲	-12.5138
喘	-12.5138
噒	-12.5138
匿	-12.5138
媷	-12.5138
妵	-12.5235
劗	-12.5235
否	-12.5235
喈	-12.5235
妠	-12.5235
喦	-12.5235
哺	-12.5235
嚓	-12.5235
儬	-12.533
哞	-12.5332
帓	-12.5332
効	-12.5332
嘏	-12.5332
噕	-12.5332
崶	-12.5332
堵	-12.5332
刖	-12.543
剸	-12.543
叕	-12.543
吂	-12.543
呪	-12.543
婬	-12.543
墁	-12.543
儽	-12.5529
婋	-12.5529
巓	-12.5629
卦	-12.5629
咸	-12.5629
唧	-12.5629
啫	-12.5629
呴	-12.573
匯	-12.573
咑	-12.573
圃	-12.573
妌	-12.573
卲	-12.573
刿	-12.5832
啎	-12.5832
圫	-12.5832
墩	-12.5832
屃	-12.5832
傑	-12.5935
儮	-12.5935
升	-12.5935
吺	-12.5935
嗛	-12.5935
嘀	-12.5935
埩	-12.5935
刚	-12.6036
嬯	-12.6039
圼	-12.6039
凱	-12.6039
婺	-12.6039
慺	-12.6039
叹	-12.6144
哬	-12.6144
圖	-12.6144
壏	-12.6144
寏	-12.6144
帥	-12.6144
俷	-12.6251
吿	-12.6251
嗞	-12.6251
垠	-12.6251
媟	-12.6251
嫔	-12.6251
孖	-12.6251
峐	-12.6251
兲	-12.6251
夌	-12.6251
媢	-12.6251
峨	-12.6251
僝	-12.6358
僩	-12.6358
匐	-12.6358
喯	-12.6358
内	-12.6358
劒	-12.6358
厪	-12.6358
坊	-12.6358
厥	-12.6467
囑	-12.6467
妽	-12.6467
姛	-12.6467
孌	-12.6467
尛	-12.6467
劘	-12.6497
堬	-12.6577
冋	-12.6581
價	-12.6688
啂	-12.6688
嗘	-12.6688
嚤	-12.6688
@	-12.6688
嘠	-12.6688
噀	-12.6688
噰	-12.6688
埬	-12.6688
堾	-12.6688
嬚	-12.6688
尲	-12.6688
嚗	-12.6688
兊	-12.68
夦	-12.68
剾	-12.68
匔	-12.68
嚍	-12.68
型	-12.68
墌	-12.68
墾	-12.68
悥	-12.68
囶	-12.6914
岊	-12.6914
嶻	-12.6914
峠	-12.6914
刀	-12.7029
厲	-12.7029
唋	-12.7029
働	-12.7029
唝	-12.7029
噧	-12.7029
垫	-12.7029
対	-12.7145
列	-12.7145
台	-12.7145
噃	-12.7145
廃	-12.7145
剝	-12.7145
嘖	-12.7145
媧	-12.7145
岣	-12.7145
嗈	-12.7145
原	-12.7263
夔	-12.7263
媌	-12.7263
墺	-12.7382
偅	-12.7382
哶	-12.7382
囘	-12.7382
塎	-12.7382
墅	-12.7382
墳	-12.7382
搊	-12.7382
勎	-12.7502
咫	-12.7502
哀	-12.7502
唳	-12.7502
娥	-12.7502
媤	-12.7502
峭	-12.7502
咯	-12.7624
嗜	-12.7624
均	-12.7624
孔	-12.7624
匤	-12.7748
唵	-12.7748
啔	-12.7748
噁	-12.7748
堀	-12.7748
堨	-12.7748
夂	-12.7748
夛	-12.7748
奟	-12.7748
嫀	-12.7748
尪	-12.7748
就	-12.7748
帜	-12.7748
抛	-12.7748
劻	-12.7873
咺	-12.7873
唙	-12.7873
域	-12.7873
孊	-12.7873
强	-12.7873
揠	-12.7873
吋	-12.7999
唖	-12.7999
嘾	-12.7999
坌	-12.7999
夏	-12.7999
尰	-12.7999
弎	-12.7999
悈	-12.7999
喚	-12.7999
姣	-12.8128
崇	-12.8128
司	-12.8128
埙	-12.8257
塮	-12.8257
嫌	-12.8257
卬	-12.8257
嚩	-12.8257
姶	-12.8257
婿	-12.8257
弋	-12.8257
喹	-12.8389
婈	-12.8389
叡	-12.8389
啼	-12.8389
坬	-12.8389
塀	-12.8389
孒	-12.8389
刭	-12.8522
勍	-12.8522
嗤	-12.8522
嘡	-12.8522
埈	-12.8522
夨	-12.8522
嵈	-12.8522
噊	-12.8522
囅	-12.8522
嫮	-12.8522
峬	-12.8522
巺	-12.8522
帢	-12.8522
府	-12.8522
吚	-12.8522
坠	-12.8657
劰	-12.8657
噺	-12.8657
姎	-12.8657
刎	-12.8657
嗾	-12.8657
垃	-12.8657
垄	-12.8657
怬	-12.8657
峉	-12.8657
婯	-12.8794
妛	-12.8794
廡	-12.8794
兞	-12.8794
句	-12.8794
噣	-12.8794
埥	-12.8794
堿	-12.8794
塳	-12.8794
妊	-12.8794
庩	-12.8794
唸	-12.8933
兏	-12.8933
厔	-12.8933
喆	-12.8933
喏	-12.8933
堅	-12.8933
塇	-12.8933
嬙	-12.8933
愬	-12.8933
呆	-12.8933
帛	-12.8933
劓	-12.9074
吃	-12.9074
哑	-12.9074
嗐	-12.9074
囟	-12.9074
堂	-12.9074
墨	-12.9074
徘	-12.9074
嘙	-12.9217
嚚	-12.9217
巠	-12.9217
怛	-12.9217
囙	-12.9217
声	-12.9217
姲	-12.9362
厞	-12.9362
嗶	-12.9362
堼	-12.9362
妉	-12.9362
姏	-12.9362
姐	-12.9362
嵥	-12.9362
彞	-12.9362
卶	-12.9362
厦	-12.9362
毻	-12.9508
嗝	-12.9509
嚇	-12.9509
媱	-12.9509
吅	-12.9509
嘿	-12.9509
墈	-12.9509
壣	-12.9509
嫽	-12.9509
崂	-12.9509
墑	-12.9509
匦	-12.9509
嚷	-12.9658
埴	-12.9658
噹	-12.9658
垮	-12.9658
堯	-12.9658
墹	-12.9658
壛	-12.9658
夊	-12.9658
娓	-12.9658
娕	-12.9658
後	-12.9658
渵	-12.9658
匜	-12.9658
傓	-12.9788
娅	-12.981
愥	-12.981
勌	-12.981
唚	-12.981
廳	-12.981
恜	-12.981
励	-12.981
娵	-12.981
午	-12.9964
剀	-12.9964
卙	-12.9964
媠	-12.9964
岡	-12.9964
哈	-12.9964
唐	-12.9964
塥	-12.9964
塨	-12.9964
夠	-12.9964
央	-12.9964
慐	-12.9964
攓	-12.9964
嚮	-12.9964
坧	-12.9964
堷	-12.9964
哴	-12.9964
囬	-13.012
囷	-13.012
婞	-13.012
勊	-13.012
厖	-13.012
圪	-13.012
坷	-13.012
姊	-13.012
娸	-13.012
懍	-13.012
暩	-13.012
柍	-13.012
屖	-13.012
摚	-13.012
塩	-13.0279
况	-13.0279
剎	-13.0279
囈	-13.0279
坒	-13.0279
堆	-13.0279
媪	-13.0279
孷	-13.0279
岀	-13.0279
崝	-13.0279
噢	-13.0279
妷	-13.0279
卍	-13.0426
劙	-13.044
尡	-13.044
喰	-13.044
抎	-13.044
厱	-13.044
叿	-13.044
委	-13.044
恲	-13.044
嶞	-13.044
廲	-13.044
噎	-13.0604
塔	-13.0604
夳	-13.0604
寅	-13.0604
尯	-13.0604
卋	-13.0604
厴	-13.0604
嬒	-13.0604
寽	-13.0604
惺	-13.0604
冟	-13.0762
峳	-13.077
儞	-13.0771
兵	-13.0771
冒	-13.0771
匠	-13.0771
嘨	-13.0771
噠	-13.0771
嚫	-13.0771
圚	-13.0771
塙	-13.0771
夶	-13.0771
婥	-13.0771
嬘	-13.0771
彟	-13.0771
彸	-13.0771
嫷	-13.0771
匚	-13.0771
嘚	-13.094
墮	-13.094
凕	-13.094
唶	-13.094
囡	-13.094
堓	-13.094
嬬	-13.094
寞	-13.094
弨	-13.094
氫	-13.094
瀁	-13.094
剃	-13.094
卒	-13.094
媶	-13.094
定	-13.094
屔	-13.094
巘	-13.094
俊	-13.11
六	-13.1112
勄	-13.1112
噇	-13.1112
垈	-13.1112
壠	-13.1112
壥	-13.1112
备	-13.1112
奕	-13.1112
岿	-13.1112
徇	-13.1112
妮	-13.1112
峲	-13.1112
坫	-13.1288
埇	-13.1288
惒	-13.1288
敎	-13.1288
剒	-13.1288
华	-13.1288
呖	-13.1288
囆	-13.1288
岖	-13.1288
庉	-13.1288
嚝	-13.1288
峒	-13.1288
侁	-13.1454
埖	-13.1466
悢	-13.1466
侒	-13.1466
剘	-13.1466
喢	-13.1466
垨	-13.1466
墍	-13.1466
夵	-13.1466
媓	-13.1466
嫘	-13.1466
嫶	-13.1466
嫻	-13.1466
怾	-13.1466
慏	-13.1466
懨	-13.1466
匘	-13.1466
屛	-13.1466
岽	-13.1466
匫	-13.1466
匭	-13.1643
廓	-13.1648
弻	-13.1648
從	-13.1648
兣	-13.1648
厘	-13.1648
唍	-13.1648
啘	-13.1648
堔	-13.1648
姀	-13.1648
姌	-13.1648
姯	-13.1648
嫚	-13.1648
怲	-13.1648
拍	-13.1648
掫	-13.1648
夙	-13.1648
廂	-13.1833
呀	-13.1833
嗪	-13.1833
圉	-13.1833
孟	-13.1833
匕	-13.1833
厡	-13.1833
唼	-13.1833
巌	-13.1833
兪	-13.2022
傺	-13.2022
剴	-13.2022
圲	-13.2022
堝	-13.2022
姸	-13.2022
婡	-13.2022
嬷	-13.2022
徏	-13.2022
哆	-13.2022
奨	-13.2022
娘	-13.2022
嫼	-13.2022
庼	-13.2022
怐	-13.2022
態	-13.2022
伙	-13.2214
咆	-13.2214
噽	-13.2214
团	-13.2214
垟	-13.2214
垼	-13.2214
埅	-13.2214
娄	-13.2214
娊	-13.2214
廬	-13.2214
延	-13.2214
嚌	-13.2214
掎	-13.2214
儊	-13.241
凣	-13.241
勃	-13.241
嘁	-13.241
壑	-13.241
嬔	-13.241
孴	-13.241
崸	-13.241
幑	-13.241
惴	-13.241
巐	-13.241
擿	-13.241
妦	-13.261
傐	-13.261
冼	-13.261
叐	-13.261
啺	-13.261
喔	-13.261
噯	-13.261
埂	-13.261
埝	-13.261
墪	-13.261
妡	-13.261
嫺	-13.261
嫿	-13.261
嬛	-13.261
孝	-13.261
幔	-13.261
狼	-13.261
夝	-13.261
嫂	-13.261
帑	-13.2815
坋	-13.2815
官	-13.2815
怗	-13.2815
冰	-13.2815
却	-13.2815
嘐	-13.2815
嚐	-13.2815
埣	-13.2815
堹	-13.2815
媎	-13.2815
嫄	-13.2815
孮	-13.2815
憈	-13.2815
囸	-13.3023
悚	-13.3023
刔	-13.3023
圳	-13.3023
圶	-13.3023
堍	-13.3023
屵	-13.3023
峀	-13.3023
弸	-13.3023
慾	-13.3023
撋	-13.3023
曗	-13.3023
嘴	-13.3023
揵	-13.3023
十	-13.3236
吒	-13.3236
哿	-13.3236
坮	-13.3236
塗	-13.3236
壶	-13.3236
夺	-13.3236
岠	-13.3236
忈	-13.3236
搞	-13.3236
摙	-13.3236
擺	-13.3236
卄	-13.3236
嘞	-13.3236
囌	-13.3236
墤	-13.3236
屦	-13.3236
悰	-13.3453
劔	-13.3453
埉	-13.3453
兦	-13.3453
匙	-13.3453
吶	-13.3453
嚯	-13.3453
囤	-13.3453
圯	-13.3453
塊	-13.3453
嶢	-13.3453
廘	-13.3453
彲	-13.3453
慕	-13.3453
朵	-13.3453
墆	-13.3453
妤	-13.3453
岕	-13.3453
峊	-13.3453
忮	-13.3453
帐	-13.3453
咏	-13.3675
咘	-13.3675
咪	-13.3675
單	-13.3675
喻	-13.3675
坏	-13.3675
垭	-13.3675
堢	-13.3675
将	-13.3675
尢	-13.3675
摶	-13.3675
擉	-13.3675
攂	-13.3675
尨	-13.3903
屮	-13.3903
刹	-13.3903
勅	-13.3903
呧	-13.3903
呹	-13.3903
啖	-13.3903
嚹	-13.3903
垸	-13.3903
堘	-13.3903
嬨	-13.3903
嶺	-13.3903
啍	-13.3903
婩	-13.3903
宑	-13.3903
峴	-13.3903
嶖	-13.3903
壵	-13.4135
征	-13.4135
囝	-13.4135
圍	-13.4135
崭	-13.4135
慔	-13.4135
戞	-13.4135
吟	-13.4135
哩	-13.4135
喼	-13.4135
塍	-13.4135
墧	-13.4135
头	-13.4135
岫	-13.4135
峡	-13.4135
挲	-13.4135
删	-13.4373
區	-13.4373
怶	-13.4373
剡	-13.4373
去	-13.4373
叓	-13.4373
嚺	-13.4373
圐	-13.4373
基	-13.4373
堥	-13.4373
寲	-13.4373
尹	-13.4373
峧	-13.4373
檵	-13.4373
妨	-13.4373
僅	-13.4617
堟	-13.4617
嫱	-13.4617
屓	-13.4617
匬	-13.4617
嗃	-13.4617
噫	-13.4617
囥	-13.4617
圬	-13.4617
埍	-13.4617
墏	-13.4617
壸	-13.4617
外	-13.4617
奤	-13.4617
娝	-13.4617
寪	-13.4617
愛	-13.4617
巷	-13.4617
凘	-13.4867
凨	-13.4867
咿	-13.4867
唟	-13.4867
噴	-13.4867
囕	-13.4867
圻	-13.4867
塐	-13.4867
娎	-13.4867
寳	-13.4867
峚	-13.4867
愑	-13.4867
僯	-13.4867
喨	-13.4867
嗷	-13.4867
垱	-13.4867
姿	-13.4867
少	-13.4867
巻	-13.5124
吝	-13.5124
哔	-13.5124
嘗	-13.5124
壈	-13.5124
尥	-13.5124
凈	-13.5124
咼	-13.5124
圝	-13.5124
堐	-13.5124
堮	-13.5124
巙	-13.5124
忣	-13.5124
惜	-13.5124
愓	-13.5124
掬	-13.5124
摠	-13.5124
摵	-13.5124
劤	-13.5124
勉	-13.5387
娨	-13.5387
憻	-13.5387
掐	-13.5387
历	-13.5387
呺	-13.5387
啨	-13.5387
噘	-13.5387
器	-13.5387
囮	-13.5387
坅	-13.5387
垉	-13.5387
塚	-13.5387
复	-13.5387
妇	-13.5387
娰	-13.5387
娹	-13.5387
嫝	-13.5387
嬈	-13.5387
嬹	-13.5387
尒	-13.5387
尵	-13.5387
屇	-13.5387
嶘	-13.5387
当	-13.5387
徨	-13.5387
曾	-13.5387
圧	-13.5387
塃	-13.5387
墉	-13.5387
壷	-13.5657
加	-13.5657
姼	-13.5657
婑	-13.5657
庡	-13.5657
恇	-13.5657
垙	-13.5657
堚	-13.5657
壬	-13.5657
娍	-13.5657
嬄	-13.5657
廁	-13.5657
廖	-13.5657
愍	-13.5657
捰	-13.5657
杞	-13.5657
椸	-13.5657
漒	-13.5657
牓	-13.5657
尘	-13.5657
哹	-13.5657
拵	-13.5657
嗦	-13.5935
姬	-13.5935
姻	-13.5935
廔	-13.5935
戇	-13.5935
劏	-13.5935
劣	-13.5935
哒	-13.5935
唢	-13.5935
啵	-13.5935
啻	-13.5935
塁	-13.5935
娱	-13.5935
婴	-13.5935
崢	-13.5935
嵘	-13.5935
归	-13.5935
摼	-13.5935
坁	-13.5935
尦	-13.622
倦	-13.622
娫	-13.622
巋	-13.622
卣	-13.622
呋	-13.622
喠	-13.622
噬	-13.622
坼	-13.622
垅	-13.622
墽	-13.622
夑	-13.622
夬	-13.622
娷	-13.622
嫭	-13.622
寷	-13.622
岐	-13.622
崣	-13.622
嶭	-13.622
巏	-13.622
巗	-13.622
彼	-13.622
怷	-13.622
悇	-13.622
拶	-13.622
搝	-13.622
擐	-13.622
嚪	-13.622
埒	-13.622
報	-13.622
婠	-13.622
峓	-13.622
攣	-13.622
匡	-13.622
匨	-13.622
唰	-13.6515
善	-13.6515
嫕	-13.6515
帾	-13.6515
悙	-13.6515
傭	-13.6515
勛	-13.6515
嘊	-13.6515
墯	-13.6515
妣	-13.6515
娋	-13.6515
婛	-13.6515
屩	-13.6515
峯	-13.6515
嶼	-13.6515
巁	-13.6515
巡	-13.6515
巨	-13.6515
幢	-13.6515
庠	-13.6515
彴	-13.6515
彵	-13.6515
寇	-13.6515
夤	-13.6515
函	-13.6678
嶇	-13.6818
戆	-13.6818
勐	-13.6818
嫴	-13.6818
嬅	-13.6818
抌	-13.6818
剦	-13.6818
咾	-13.6818
嬴	-13.6818
季	-13.6818
崙	-13.6818
恦	-13.6818
僶	-13.6818
卓	-13.6818
吀	-13.6818
吤	-13.6818
啛	-13.6818
啢	-13.6818
噉	-13.6818
嚡	-13.6818
垞	-13.6818
妒	-13.6818
姗	-13.6818
婗	-13.6818
婝	-13.6818
婭	-13.6818
嫡	-13.6818
寔	-13.6818
巑	-13.6818
悫	-13.6818
旄	-13.6818
枊	-13.6818
劽	-13.6818
哵	-13.6818
噚	-13.6818
御	-13.6818
勋	-13.713
卸	-13.713
埮	-13.713
売	-13.713
夒	-13.713
奩	-13.713
崫	-13.713
帨	-13.713
劼	-13.713
卥	-13.713
咜	-13.713
啙	-13.713
圏	-13.713
圛	-13.713
坐	-13.713
墶	-13.713
奓	-13.713
妸	-13.713
姨	-13.713
姳	-13.713
婘	-13.713
婳	-13.713
宄	-13.713
宓	-13.713
宖	-13.713
屨	-13.713
庛	-13.713
彐	-13.713
徟	-13.713
忊	-13.713
忍	-13.713
念	-13.713
恃	-13.713
愾	-13.713
扆	-13.713
找	-13.713
搉	-13.713
攑	-13.713
敵	-13.713
栖	-13.713
愡	-13.713
啊	-13.713
匪	-13.7453
屳	-13.7453
劋	-13.7453
圁	-13.7453
垳	-13.7453
塕	-13.7453
壃	-13.7453
嬕	-13.7453
庳	-13.7453
彈	-13.7453
忘	-13.7453
刓	-13.7453
卧	-13.7453
叫	-13.7453
啉	-13.7453
嘘	-13.7453
圽	-13.7453
垶	-13.7453
塵	-13.7453
夀	-13.7453
奎	-13.7453
奢	-13.7453
娜	-13.7453
娶	-13.7453
媰	-13.7453
寫	-13.7453
峽	-13.7453
嶱	-13.7453
忎	-13.7453
怡	-13.7453
捾	-13.7453
摧	-13.7453
旕	-13.7453
杓	-13.7453
恎	-13.7453
勏	-13.7453
封	-13.7453
凜	-13.7786
叒	-13.7786
唲	-13.7786
噖	-13.7786
噞	-13.7786
嚬	-13.7786
圸	-13.7786
墐	-13.7786
尫	-13.7786
嶹	-13.7786
庌	-13.7786
怺	-13.7786
旃	-13.7786
勁	-13.7786
喪	-13.7786
嗫	-13.7786
嘍	-13.7786
囲	-13.7786
堉	-13.7786
壺	-13.7786
契	-13.7786
妟	-13.7786
娂	-13.7786
峋	-13.7786
嵞	-13.7786
弧	-13.7786
愇	-13.7786
撾	-13.7786
昩	-13.7786
儰	-13.7786
啡	-13.7786
婙	-13.7786
戂	-13.8131
戝	-13.8131
昷	-13.8131
噵	-13.8131
垽	-13.8131
壿	-13.8131
娔	-13.8131
娪	-13.8131
嫫	-13.8131
屟	-13.8131
屿	-13.8131
弉	-13.8131
彣	-13.8131
徕	-13.8131
忯	-13.8131
怚	-13.8131
总	-13.8131
慖	-13.8131
慦	-13.8131
挅	-13.8131
斎	-13.8131
旛	-13.8131
曯	-13.8131
溌	-13.8131
溤	-13.8131
奐	-13.8131
嬆	-13.8131
灁	-13.8131
惀	-13.8131
呞	-13.8131
塽	-13.8488
尴	-13.8488
廱	-13.8488
劦	-13.8488
匌	-13.8488
卌	-13.8488
嘣	-13.8488
噓	-13.8488
埃	-13.8488
媒	-13.8488
嫢	-13.8488
嬺	-13.8488
孕	-13.8488
寭	-13.8488
峹	-13.8488
巜	-13.8488
幈	-13.8488
庑	-13.8488
怋	-13.8488
悉	-13.8488
惚	-13.8488
抢	-13.8488
暅	-13.8488
曇	-13.8488
朓	-13.8488
框	-13.8488
母	-13.8488
唨	-13.8488
嫯	-13.8488
岷	-13.8488
崷	-13.8488
庆	-13.8488
滞	-13.8488
憤	-13.8488
匢	-13.8858
悅	-13.8858
揂	-13.8858
刵	-13.8858
劍	-13.8858
勑	-13.8858
哪	-13.8858
嚘	-13.8858
埸	-13.8858
失	-13.8858
婵	-13.8858
媗	-13.8858
媹	-13.8858
嬥	-13.8858
宎	-13.8858
屍	-13.8858
巊	-13.8858
幡	-13.8858
庤	-13.8858
弣	-13.8858
忛	-13.8858
悛	-13.8858
扱	-13.8858
抵	-13.8858
攚	-13.8858
旀	-13.8858
曩	-13.8858
曫	-13.8858
枌	-13.8858
的	-13.8858
埜	-13.8858
夕	-13.8858
嬭	-13.8858
尟	-13.8858
崈	-13.8858
弹	-13.8858
怤	-13.8858
抺	-13.8858
拉	-13.8858
敹	-13.8858
朩	-13.8858
威	-13.8858
斳	-13.8858
僱	-13.9242
傚	-13.9243
傯	-13.9243
凰	-13.9243
勖	-13.9243
呷	-13.9243
哏	-13.9243
噥	-13.9243
夈	-13.9243
天	-13.9243
姇	-13.9243
婮	-13.9243
婹	-13.9243
媯	-13.9243
嫍	-13.9243
學	-13.9243
尀	-13.9243
尻	-13.9243
岼	-13.9243
峮	-13.9243
嶪	-13.9243
帤	-13.9243
徜	-13.9243
戺	-13.9243
捚	-13.9243
敖	-13.9243
昺	-13.9243
熣	-13.9243
喐	-13.9243
囄	-13.9243
圄	-13.9243
壝	-13.9243
姍	-13.9243
媑	-13.9243
尕	-13.9243
岝	-13.9243
幁	-13.9243
扭	-13.9243
拒	-13.9243
朇	-13.9243
勂	-13.9243
潼	-13.9243
寿	-13.9643
嶝	-13.9643
墵	-13.9643
军	-13.9643
嚵	-13.9643
堺	-13.9643
壁	-13.9643
壐	-13.9643
壔	-13.9643
奡	-13.9643
奾	-13.9643
妬	-13.9643
婍	-13.9643
嬎	-13.9643
宣	-13.9643
屻	-13.9643
嵒	-13.9643
巪	-13.9643
庢	-13.9643
勆	-13.9643
勘	-13.9643
埾	-13.9643
墎	-13.9643
嵌	-13.9643
弢	-13.9643
啞	-13.9643
兡	-14.4807
媵	-14.5601
慨	-14.637
唇	-14.7204
倯	-14.8107
庘	-17.7354
尊	-17.7355
寰	-17.7356
幉	-17.7357
猊	-17.7358
杻	-17.7359
塘	-17.736
彠	-17.7361
圗	-17.7362
樒	-17.7363
劈	-17.7364
嵙	-17.7365
咍	-17.7366
冢	-17.7367
對	-17.7368
愶	-17.7369
惮	-17.737
皠	-17.7371
啓	-17.7372
椷	-17.7373
堧	-17.7374
园	-17.7375
傛	-17.7376
斴	-17.7377
嘵	-17.7378
協	-17.7379
嬳	-17.738
充	-17.7381
屆	-17.7382
屯	-17.7383
刼	-17.7384
孧	-17.7385
喎	-17.7386
幊	-17.7387
喟	-17.7388
將	-17.7389
开	-17.739
冬	-17.7391
槐	-17.7392
剿	-17.7393
塉	-17.7394
曏	-17.7395
剽	-17.7396
嚃	-17.7397
恧	-17.7398
国	-17.7399
傽	-17.74
囇	-17.7401
僴	-17.7402
堪	-17.7402
