<unk>	0
<s>	0
</s>	0
.	-2.96689
,	-3.65462
亇	-4.46236
▁	-4.69585
五	-4.93518
令	-4.94436
仠	-5.00118
亢	-5.08909
亖	-5.20759
伺	-5.23284
)	-5.35315
予亐	-5.37677
▁(	-5.38171
▁云互亇	-5.40105
▁仈亭	-5.4656
亟	-5.4932
▁亓	-5.66756
▁"	-5.70873
"	-5.7568
予	-5.77724
伧亖	-5.79249
于	-5.80798
▁价佛	-5.83822
仡	-5.875
仇	-5.88745
▁价	-5.91438
仜	-5.97009
仌亖	-5.97763
了	-6.00135
▁仦	-6.0148
-	-6.04492
些	-6.05344
亾	-6.06954
亳	-6.08214
亏亐	-6.09227
亃	-6.11227
▁予	-6.14395
▁倧仱俔	-6.157
伧五	-6.1856
▁价于	-6.18586
▁亅	-6.20222
▁仦仾	-6.26397
会	-6.2698
▁亷	-6.27129
▁二亼	-6.29791
:	-6.30815
亝	-6.31099
云	-6.31236
仅	-6.31784
亣	-6.32243
▁仦亪亇	-6.32595
伈	-6.32676
▁井产	-6.35186
仄	-6.37039
仱	-6.37176
▁井	-6.37206
仕亇	-6.38283
亜	-6.38998
仓	-6.39038
▁付	-6.39781
仉	-6.40705
▁仦亇	-6.41344
仌五	-6.42899
▁二	-6.43732
▁伇	-6.44154
亭	-6.449
人	-6.45072
予亚	-6.452
▁仉	-6.4648
亙	-6.46668
佘	-6.47776
▁二亍于	-6.53294
亊	-6.53582
今	-6.53838
▁亅仄	-6.55488
予什亖	-6.55584
仮	-6.55703
佃	-6.55826
亴	-6.56118
亅	-6.57082
▁亓仹于	-6.57455
亷	-6.58429
仯	-6.60655
亱	-6.6073
▁仧	-6.61214
仡亇	-6.61512
亥	-6.61578
伂	-6.61618
仮予	-6.62002
▁井产于	-6.62028
▁云	-6.62578
▁亴	-6.63105
亗	-6.63218
▁价些伺	-6.6331
伇	-6.63694
▁亃	-6.63779
亿亐	-6.65911
事	-6.66544
仳	-6.66814
▁云了亐	-6.66825
佛	-6.67856
▁亂	-6.67983
亹	-6.67988
▁二仿	-6.68452
侫	-6.68467
▁价亭伟	-6.68496
交	-6.70155
介	-6.70691
▁亞	-6.72622
▁价佇亟	-6.7412
亻	-6.76451
仦亇	-6.77007
▁仮	-6.78431
仂	-6.78918
▁("	-6.79284
▁亂亃亖	-6.79605
伧	-6.79999
仮仇	-6.80816
争	-6.8147
▁今	-6.825
▁仁	-6.82534
亪	-6.82801
▁伲	-6.83053
▁二仇	-6.83175
仅予	-6.84392
伡	-6.84426
▁亽	-6.84467
傱	-6.86841
佶	-6.87094
▁价亭	-6.88608
些伺	-6.89414
亘	-6.89598
仌	-6.89756
付	-6.89979
▁侍	-6.94065
▁二伖亇	-6.94144
伟	-6.94398
亨	-6.95069
亩	-6.95202
伂亇	-6.95695
予什五	-6.95761
▁伲亼	-6.95775
▁7	-6.96415
份	-6.965
仆	-6.9928
▁亪	-6.99813
什	-7.00316
仉五	-7.00804
▁侍伧亖	-7.02193
▁亴仄	-7.02217
仉亖	-7.0236
▁佖	-7.02701
亏什亖	-7.03035
▁仢	-7.03396
▁亩	-7.03691
亰亇	-7.04692
s	-7.05262
▁仵伎	-7.05546
▁亓亘伟产	-7.05601
亐	-7.05648
仧	-7.06191
▁仢亰亇	-7.06258
仇伺	-7.08943
仁	-7.09612
▁亻	-7.11134
▁仍	-7.11727
仏	-7.12188
▁任伿	-7.1233
▁-	-7.14032
▁亮	-7.14091
▁些介	-7.14094
▁侫	-7.1443
▁亓些伺	-7.14967
▁价亖	-7.15412
▁18	-7.15633
仅仇	-7.16812
伮	-7.18272
享	-7.18622
▁些	-7.18846
e	-7.2152
亾五	-7.22595
亏亚	-7.22617
伡伺	-7.24106
仺	-7.24178
亸	-7.24955
亏	-7.25362
仌侀	-7.25911
▁仦仼亖	-7.26104
亂亇	-7.26146
亹亗	-7.26531
;	-7.27203
伄	-7.28892
▁亣	-7.28938
仒	-7.29102
▁亓亘伟产于	-7.30066
伨	-7.30314
亩予	-7.30603
些于	-7.30961
伵	-7.3143
▁任仾	-7.31641
▁伕	-7.31684
▁井产仇	-7.31862
),	-7.32013
▁交	-7.32217
▁价俌伧亖	-7.32237
予伽亇	-7.32824
▁云亼	-7.33314
▁价亃五	-7.33694
▁仈	-7.3372
▁任	-7.33787
▁仧亵伺	-7.3488
▁伃	-7.35065
仢	-7.35349
伆	-7.35373
互	-7.35846
众	-7.38892
伎	-7.38988
位	-7.39832
▁价亭仡亇	-7.4061
仯五	-7.41045
亓	-7.41162
▁仃仄亇	-7.41656
优	-7.42154
▁价亳仾	-7.42864
佦	-7.42878
▁住优	-7.43253
▁1	-7.43772
▁2	-7.44668
▁仮些亗亇	-7.44858
伅	-7.44864
▁仵亪亣仡亇	-7.45047
亻仏于	-7.45357
亭亇	-7.45436
作	-7.45642
▁仦伡亖	-7.45734
佥	-7.45994
▁佰亭亇	-7.46061
亂	-7.4623
伿	-7.46242
")	-7.46587
▁佢	-7.46861
仞	-7.47058
侍	-7.47061
▁亣亭	-7.47117
▁亃仇于	-7.48009
▁仦亻亟	-7.48581
▁亜	-7.4902
仛	-7.49895
▁仮些亗仌亖	-7.50387
▁亂亨亟	-7.50785
▁亂亡	-7.51001
仭	-7.51085
▁2011	-7.51531
▁仐事	-7.51586
侪	-7.51588
▁亓亃五	-7.52302
▁些仆侕	-7.52439
价	-7.53619
伉	-7.53752
▁侲	-7.53893
▁佽	-7.54257
亊五	-7.54333
▁亓佛	-7.54362
倿	-7.54676
亦	-7.5484
仕	-7.55453
佉	-7.56681
▁伲于	-7.57084
▁亷仄	-7.57201
仾	-7.57332
侐	-7.57368
侘	-7.57586
予伽仡	-7.57639
▁倧	-7.58139
▁于	-7.5825
S	-7.58403
▁佡	-7.58698
▁价伟	-7.58915
▁3	-7.59189
▁些伎	-7.59377
▁侼	-7.59447
仼	-7.59828
▁19	-7.60378
▁佭	-7.60894
▁任仾产于	-7.61017
亹人亇	-7.61157
'	-7.62212
a	-7.62347
亾亟	-7.62511
o	-7.62574
▁亃交僴人	-7.63427
了亐	-7.63437
▁仦今伺	-7.64079
▁亅亪亣	-7.64401
▁价佃	-7.64891
▁价俌伧仓亖	-7.65203
▁5	-7.65277
产	-7.65392
使	-7.65412
▁佰	-7.65595
▁亅亜	-7.65881
亹亗于	-7.66644
▁住亝	-7.66765
▁于人伨亗令	-7.66913
▁亓于	-7.6708
亰	-7.67115
亚	-7.67273
%	-7.67678
亡	-7.67685
y	-7.67727
亹亥	-7.68376
▁修	-7.69153
仱予	-7.692
▁份	-7.6923
仓亖	-7.69367
▁亮侻亐	-7.69562
▁亮亾亟	-7.70206
▁仫	-7.70255
▁二仿亇	-7.70381
亏什五	-7.70524
▁侈亴亟	-7.70672
亃亖	-7.70718
▁亃交侃	-7.70766
C	-7.71231
▁亓些亳于	-7.7141
二	-7.71597
▁仈仿	-7.72097
▁亂亃佁	-7.7233
似	-7.73332
▁价亭佛	-7.73391
(	-7.73705
▁仐	-7.74256
▁4	-7.75239
仮亪亇	-7.75519
▁伇亗云亼亢	-7.76445
仓五	-7.76491
▁仱	-7.76916
▁亓亳侫	-7.76949
▁份仾亇	-7.77034
▁佂什	-7.77072
▁交予伂亇	-7.77242
▁京	-7.77298
▁亓众	-7.77484
▁价佉	-7.78041
▁6	-7.78176
▁仃仿	-7.78424
▁井产仇伺	-7.78802
A	-7.79497
▁予亭	-7.79913
伥	-7.79969
仟	-7.8006
▁伎	-7.80431
▁佂	-7.80481
亻亼仇	-7.81173
俄	-7.81211
亽	-7.8141
▁仧仏	-7.81531
▁佡伥	-7.81975
佇	-7.82175
价亖	-7.82233
▁仧亾	-7.82308
仅亪亇	-7.82424
i	-7.8265
▁侈	-7.82927
▁予侚	-7.83488
些亿亐	-7.83876
▁10	-7.83972
亹人亻仏于	-7.84149
▁亅众	-7.84433
亱亇	-7.84536
▁亓亣予	-7.84759
▁交予	-7.84928
亿什五	-7.84963
n	-7.85427
伡亖	-7.85519
▁亞侶	-7.85531
t	-7.85849
▁亅争亟亖	-7.8603
▁亞伤	-7.86879
伕	-7.86901
▁佞	-7.86979
亭仡	-7.87289
al	-7.87453
▁亃交僴争亖	-7.87478
▁云了仆佃亢	-7.88128
M	-7.88212
▁亓侲亾了	-7.88259
▁亅享	-7.88593
▁二伐亇	-7.89403
▁亓佃	-7.89415
便	-7.89448
▁亓亜	-7.895
▁侩	-7.89506
▁仦俔	-7.89733
伅伺	-7.8981
俌	-7.90078
▁倧亾亖	-7.90484
▁亮仒	-7.90492
▁2015	-7.90571
▁亃予些亖	-7.90596
P	-7.90725
侸	-7.90797
予亚仕亇	-7.9102
▁仦侻亐	-7.91126
▁价伥	-7.91178
▁价亭佛于	-7.91389
▁予仄伟	-7.91396
伊	-7.9206
▁仵	-7.92208
佋亐	-7.92268
亨仏于	-7.92271
▁亮亭	-7.92456
伦	-7.92914
仦	-7.93478
▁伏	-7.93534
/	-7.93804
▁亃交僴争五	-7.94168
仍	-7.94551
▁云仯亃	-7.9459
伵仇	-7.94932
▁价些伫亖	-7.94972
▁仐仄	-7.95027
u	-7.95085
▁价亣亖	-7.95088
▁仸	-7.95217
▁17	-7.95255
▁'	-7.95904
ar	-7.96137
▁价倖	-7.96278
▁15	-7.96524
▁伕亣亟	-7.9657
▁仮亃亇	-7.96832
伔	-7.97069
予亚仠	-7.97149
▁亅传仺	-7.97346
▁予亸偼人伮亍亜	-7.97568
▁住亝亇	-7.97624
▁12	-7.98036
侀	-7.98171
▁亃仯	-7.98336
▁佂伫	-7.98475
佬	-7.98609
亏伽亇	-7.98957
▁亳	-7.99042
▁仦仺	-7.99153
伫	-7.99173
▁京于今予	-7.99234
▁仫们	-7.99274
▁予亊	-7.99689
▁云事	-7.99712
亟亇	-7.9983
▁些优	-7.99839
▁亮亟伺	-7.99877
3	-8.00158
伧亰亇	-8.00223
亵	-8.00344
",	-8.00619
▁予亥伨争亖	-8.00765
了亹亗	-8.0082
▁8	-8.01001
▁亣介亹亊	-8.01013
亩亖	-8.01807
亟亖	-8.0185
▁仍予亳	-8.02003
▁价亊	-8.02046
▁京于	-8.02319
▁仫们于	-8.02536
侜	-8.02568
俟	-8.02596
仱仇	-8.02801
an	-8.02852
亹亊	-8.03024
▁亓亘亙	-8.03092
c	-8.03145
▁亃亳	-8.03392
▁16	-8.03634
▁价些亿什亖	-8.03724
▁侍伧亱亪亇	-8.03736
2	-8.03846
"),	-8.04084
予亶予	-8.04525
▁仧亳	-8.04573
▁仵亪亣	-8.04591
亟伺	-8.05027
▁仨仩仪仜	-8.0511
▁佳	-8.05283
伵予	-8.05412
亾亖	-8.05442
余亜亟	-8.05577
倖	-8.05652
仿	-8.06054
仓亭伟	-8.06794
亟于	-8.07
▁佃	-8.07044
▁些伎伨争亖	-8.07045
些亃侀	-8.07122
▁于亡伧五	-8.07265
▁仐們亻了亹人亻仏于	-8.07292
▁亓些	-8.07389
予亇	-8.07603
▁仝	-8.07734
er	-8.07871
偞	-8.08121
▁仃	-8.08214
▁亓仆伂	-8.08261
▁亃五	-8.08449
侈	-8.08516
会仡	-8.08549
亹亥产于	-8.08889
▁价些亳于	-8.08977
▁亓仏仐事亟会亡伧	-8.09193
▁亓仿	-8.09199
▁侼伺	-8.09458
▁仈亭亷仄	-8.09669
伈仠	-8.09698
▁伋	-8.09755
▁仧仏亪	-8.10178
▁S	-8.1034
亞	-8.10747
▁井仺伮仇亿亚	-8.11001
俽	-8.11071
▁亅侏	-8.11118
佝	-8.11234
▁亓些亿亐	-8.11241
亹人亻亼仇	-8.11261
▁9	-8.11262
▁俸	-8.11321
▁侬侃	-8.11367
▁亣亭俌伧亖	-8.11452
▁亅亊	-8.11708
▁佧	-8.11819
▁侈俕	-8.11848
俔	-8.11983
侰	-8.1204
▁价仄偢	-8.12427
佂	-8.12548
仐事	-8.12719
▁仦倌	-8.12818
▁亅亣	-8.12978
▁井仄予	-8.13036
▁些佛	-8.13159
亮	-8.13418
▁亅亪亣伧亖	-8.13445
▁仵亊侑	-8.13514
▁侬僑伿	-8.13528
▁偓	-8.13826
▁伇亗	-8.13826
▁倧亳予	-8.13884
仅仇于	-8.13968
▁些仆	-8.14091
侖	-8.1423
▁伱	-8.14236
仹	-8.14243
▁云亭会些	-8.1438
伐	-8.14666
▁仐仺些仇	-8.14757
仙	-8.14886
▁亂亜	-8.15018
▁伇仃予	-8.15139
亏伽仡	-8.1562
倐	-8.1579
D	-8.15844
▁仵亪了亹亥产于	-8.1625
▁亷亳亸仮予	-8.1626
亶	-8.16443
▁价仇	-8.16678
伀	-8.16698
E	-8.1672
仕亊五	-8.16778
▁Gram	-8.16869
▁侈僧人亨亼仇伺	-8.16906
倀	-8.17015
▁Panchayat	-8.17151
▁亴副亿什	-8.17175
▁价佇仅仉五	-8.17349
p	-8.17392
▁亃亳仉亍亜	-8.17422
▁仵亪亣予亚	-8.17461
▁倧仱俔伧亖	-8.17495
▁仈什	-8.17744
d	-8.17854
伲	-8.17999
▁云仒	-8.18025
▁仮仐仄	-8.18057
▁亷仄仌亖	-8.1809
r	-8.18219
仅亖	-8.1837
▁价佇仅	-8.18542
▁予事	-8.18547
▁仈伭亭	-8.18929
k	-8.18962
伓亗亩亪亇	-8.19627
▁些作亳仌亖	-8.19641
亰仡	-8.19969
▁亪伄	-8.19983
傊	-8.20186
▁亃事	-8.20366
▁亩五	-8.2051
亂亡	-8.20528
g	-8.20584
▁亪仛	-8.20649
▁亻仱云	-8.20671
仌亰亇	-8.20733
▁俍	-8.20742
▁井仙仌	-8.20862
b	-8.20933
亾仅	-8.21074
▁亽倈	-8.21158
▁亴仺	-8.21327
俧	-8.2136
▁亓仂会	-8.2141
▁佤	-8.21458
仯亟	-8.21569
▁付亊	-8.21821
▁亓亳伇	-8.21927
or	-8.2213
▁亅亳侐介	-8.22138
了亹亗于	-8.22174
▁些亊	-8.22282
以	-8.22457
▁仍亊亨亼于	-8.22488
了亇	-8.22545
T	-8.22633
am	-8.23189
値	-8.23315
侲	-8.2354
▁C	-8.23753
▁伃于	-8.23796
▁仧五	-8.23867
促	-8.23979
▁侬	-8.24083
▁于倖	-8.24085
▁亅伫	-8.24303
N	-8.24535
▁11	-8.24562
▁云亥仢	-8.24792
▁亞偮	-8.24913
▁俖	-8.24994
▁20	-8.25035
▁亪亡	-8.25344
m	-8.25501
佽	-8.25614
▁伇云	-8.25965
00	-8.26055
4	-8.26059
▁亴仏佛	-8.26103
們	-8.26133
▁亅佼亍亩亇	-8.26338
伈令	-8.26431
▁亮亟	-8.26655
伧仓亭伟	-8.26818
▁14	-8.2701
▁亓伔亃	-8.27218
▁二仳	-8.27404
伐亇	-8.28024
R	-8.28436
伴	-8.28882
▁价亟了	-8.28882
▁二人会	-8.29036
亝亖	-8.29179
B	-8.29308
▁仐仏	-8.29366
▁M	-8.29493
亯	-8.29886
▁側	-8.30191
亿亚	-8.30216
▁予俔	-8.30371
▁仁们	-8.30533
▁13	-8.30708
仄亇	-8.3098
▁价亃伡亖	-8.31049
O	-8.31258
仮仇于	-8.31412
今予	-8.31587
▁亽亐	-8.31699
▁云仺	-8.31852
偃	-8.32169
仉佴	-8.32322
▁亴伄亟	-8.32476
側	-8.32561
们	-8.3265
▁些亜些	-8.3282
in	-8.32821
享亟	-8.32875
I	-8.32898
▁仫佃	-8.32905
▁A	-8.33169
▁亓予	-8.33426
▁些亭	-8.33454
▁份事	-8.3352
▁亓亘	-8.33531
]]	-8.33568
▁偫	-8.33712
俸	-8.339
en	-8.33902
亳亇	-8.34052
▁伃仾亇	-8.34062
▁仉亊	-8.34212
▁侈佃	-8.34298
▁仉仂	-8.34543
▁价仄亨亟	-8.34586
亹于	-8.34665
▁亮仩伺	-8.34729
▁价亭伮伐亇	-8.35194
▁些亳	-8.35335
▁P	-8.35368
亊亇	-8.35399
伃	-8.35412
些五	-8.35532
▁仵亊	-8.35569
▁予亦	-8.35858
1	-8.36037
▁佂什些佛	-8.36113
亪亇	-8.3616
▁亓伪	-8.3619
▁亅伫亟	-8.36282
予亚令	-8.36517
▁仢侀	-8.36604
▁亃倾	-8.3668
▁佭亨亟	-8.36911
债	-8.37024
▁价亦	-8.37167
仐	-8.37419
井	-8.37421
▁亅亗	-8.37616
佚	-8.37649
亼	-8.37702
▁仈侘	-8.37702
▁儝	-8.37793
仌亟	-8.37828
估亐	-8.3804
▁佤亳	-8.38145
▁亓亘伨亖	-8.38224
俬	-8.38252
▁亱	-8.38386
兹	-8.38426
些亳	-8.38471
▁些众予	-8.38472
▁伲争	-8.38524
▁仅	-8.38734
▁亪仞倾	-8.38863
伐仡	-8.38913
▁京亭	-8.39104
▁些亭亇	-8.39246
伈仕亇	-8.39277
▁亴些	-8.39359
▁二亍亦	-8.39619
▁井亭今了	-8.39673
▁亓仏似些仄伺	-8.39714
▁仮些亗	-8.3977
▁佂亹	-8.39813
▁亽人	-8.40092
h	-8.40099
偓	-8.40228
仯亖	-8.40234
▁伲争予什亖	-8.40332
▁井亃仉	-8.40348
亝于	-8.40408
▁云亳	-8.40487
,000	-8.40587
仉亟亖	-8.40977
仇于	-8.41006
▁亻仞仡	-8.41038
仉亟	-8.41146
▁[[	-8.41282
l	-8.41452
▁信	-8.42136
▁亓侈	-8.42204
▁仧仏亙	-8.42299
▁仸亜亟	-8.42556
▁仉亭于	-8.42577
▁于亡	-8.426
亩亪亇	-8.42616
仌仓亭伟	-8.42636
▁仍享亮仺亻仏于	-8.42983
▁价佴	-8.43125
▁亷亸	-8.43129
佐	-8.43226
会亊五	-8.43232
▁B	-8.43283
伇五	-8.43296
▁亴仏亙	-8.43316
些亭亇	-8.43442
伮亖	-8.43483
傒	-8.43493
亻亼于	-8.43629
20	-8.43756
亍	-8.43763
▁仨	-8.43958
ur	-8.43974
▁二亍些伺	-8.44371
on	-8.44716
亹亜	-8.44829
▁仮亃	-8.4487
▁亅亟亍人仌	-8.44919
仇亇	-8.44927
仫	-8.45001
产于	-8.453
H	-8.45382
▁伕仏	-8.45734
F	-8.45806
▁价亃仂	-8.45859
伅亖	-8.46303
f	-8.46318
伕亳亇	-8.46343
▁亓享	-8.46467
▁亘亟	-8.46502
▁位	-8.46554
▁份仺	-8.46556
▁云众	-8.46559
▁价亳倐亇	-8.46655
▁侺	-8.46693
予什亰亇	-8.46865
俜	-8.47224
佘仕亇	-8.47225
▁亮互	-8.47406
▁云仌亟	-8.47431
▁云仇	-8.47434
▁亞亟	-8.47481
卢	-8.47508
5	-8.47558
仓亟	-8.47707
些介	-8.4776
▁二亣	-8.47877
▁仮仒	-8.47983
▁井亸伂	-8.48039
▁亃代于	-8.48063
倨	-8.48207
▁仈仓	-8.48722
▁予亭会	-8.48751
▁仦亻亟佃	-8.49056
▁亅佉	-8.49141
▁予僂亾	-8.49192
▁井亊	-8.49281
L	-8.49386
亩予伂亇	-8.49785
▁亷亸亹人亇	-8.49958
亴亟	-8.49999
▁伇云亟	-8.50369
仉亊	-8.50371
▁予仄	-8.50577
倫	-8.50716
▁亓伄仉亟亖	-8.50746
侏	-8.50775
▁京亭亐	-8.50905
係	-8.51104
0	-8.51208
▁云亷	-8.51429
偛	-8.51449
▁仐予僭	-8.51551
▁井亾亘	-8.5173
ic	-8.51762
▁of	-8.51934
了亹亥	-8.51991
俞	-8.52055
▁亅亟亍人亝	-8.52144
仉侀	-8.52326
▁亪亭	-8.52383
▁亂亜仕亇	-8.52385
亹人	-8.52534
▁偃	-8.52568
▁任产	-8.5272
任	-8.52773
佘仠	-8.53144
▁仧亾伂	-8.53306
▁亃仆	-8.53406
伊伆	-8.53427
亟五	-8.53727
▁亓仆仉亖	-8.53774
亿伽仡	-8.54017
亻佬伺	-8.54045
僜	-8.54108
▁亣亗	-8.54177
俎	-8.54253
▁价倖伟	-8.54255
▁井伧	-8.54342
▁亓亦	-8.54465
▁仍予	-8.5459
▁仸仺	-8.5462
▁亓亭	-8.54735
▁保	-8.54785
▁亓佉	-8.54809
佝伺	-8.54847
▁亓健亅伺	-8.54851
▁仉亚仅亥	-8.54965
▁亪亜	-8.55091
予亶亖	-8.55221
▁仃仄	-8.55425
▁云亡	-8.55428
▁予亗	-8.55503
▁侳	-8.55717
仅伺	-8.56067
亲	-8.56083
▁仐事伧亖	-8.56202
▁伲仄	-8.56519
▁亮亭亇	-8.56538
▁佔	-8.56623
▁任伿于	-8.56667
亹争	-8.5676
▁亮亭亯亰亇	-8.56875
▁佭伟	-8.56969
了亚	-8.5715
▁价亟侽	-8.57368
佷	-8.57464
仁交	-8.57673
倇	-8.57679
▁侫仮伺	-8.57757
▁价亭亨仏于	-8.57845
伝	-8.57915
▁亅了	-8.57967
▁仝亾亟	-8.58102
▁仈佚亪亇	-8.58142
▁亽亥	-8.58189
▁亓亜亹享伧亖	-8.58207
争亖	-8.5827
▁仄	-8.58316
▁亪伄伮亗	-8.58319
▁伇亏	-8.58332
▁亓俤五	-8.58506
▁亂亃俶亳	-8.5855
▁二個伴	-8.58632
▁仐仺些仇亇	-8.58667
▁亽争五	-8.58913
▁二亇	-8.58947
▁亞仿	-8.5895
6	-8.58986
▁亂亃仓亖	-8.59124
亹人亝	-8.59273
亿伽亇	-8.59471
▁价亃侀	-8.59489
儀	-8.59569
円	-8.59784
▁亓亳亴亟亖	-8.60072
▁亞佩	-8.601
▁二仇份	-8.60286
伲于	-8.60429
▁井仾	-8.60694
▁傱	-8.60794
亃亇	-8.60889
▁亪人侐	-8.60912
▁亅亳	-8.61013
仱亖	-8.61058
倰	-8.61065
▁亂亟侇	-8.61125
伬于	-8.6117
▁仍些侐伺	-8.61198
▁仵优	-8.61234
▁价亳	-8.61382
▁仧亳侈伇	-8.61497
▁伏亨	-8.61565
▁仦予	-8.61722
▁亞伾	-8.62088
佮	-8.62104
▁亂仛	-8.62199
亏亚仕亇	-8.62396
亏亶予	-8.62398
修	-8.62671
伂仡	-8.627
▁二仇亹人亇	-8.62766
佤	-8.62852
佰	-8.63081
▁佢伺	-8.63159
▁仵亊伛	-8.6319
▁30	-8.63221
些亦	-8.6342
▁亻俄	-8.63428
▁价亊亇	-8.6353
▁倬	-8.63633
▁亷俔	-8.63635
仩	-8.63852
▁价佇仅仉亖	-8.6391
▁佃会	-8.64116
会亡	-8.64129
▁卡	-8.64145
as	-8.64153
亭仡亇	-8.64177
人亇	-8.64233
▁25	-8.64285
亿什亖	-8.644
▁亓亃侀	-8.64425
▁二仛会	-8.64441
侣	-8.64576
亃亳	-8.64808
▁亓优	-8.65032
K	-8.65055
▁仦伺	-8.65349
▁)	-8.65429
re	-8.65485
▁二佛	-8.65505
▁仦仾予什亖	-8.65748
亹亥产仇	-8.65771
仝	-8.6584
▁亓众伧五	-8.65931
▁二佴	-8.65939
▁亊	-8.66218
▁剏	-8.66443
佈	-8.66521
▁仍人	-8.66625
仌亭	-8.66681
▁云亸	-8.66852
▁些伟	-8.66983
ch	-8.67048
▁亂予	-8.67132
▁任僰	-8.67145
▁二仛	-8.67373
at	-8.67526
▁二仯伐亇	-8.67625
亜亟	-8.67777
▁侰	-8.67784
仌亳	-8.67823
伽	-8.6788
▁价亭佝伺	-8.67916
仡令	-8.67983
予伽亊五	-8.68072
▁亅亃仉	-8.6812
▁仓	-8.6816
is	-8.68284
佺	-8.68341
|	-8.68347
ing	-8.6837
偁	-8.68404
▁仕	-8.68464
▁云于介	-8.68574
▁价仱	-8.68605
▁云亃	-8.68615
▁亽亊予	-8.68645
▁今儘	-8.6868
le	-8.68762
▁二伔	-8.68792
▁亮仏	-8.68843
伡予	-8.689
▁亓亳	-8.68918
佘令	-8.6899
▁井仺亣	-8.69005
▁偠	-8.69059
▁仉仮仇	-8.69083
▁仸亊	-8.69085
▁些亭亻仏于	-8.69118
x	-8.69251
▁仢亖	-8.69251
▁亂亡伧亖	-8.69299
▁亓亣亖	-8.69325
▁亮仒于	-8.69385
侂	-8.69413
▁亩些亳	-8.6955
▁亅债亥	-8.69551
会些	-8.69584
亱仇	-8.69686
▁予介	-8.69699
▁亷仄亇	-8.69731
)"	-8.69796
▁价仺亣	-8.69982
▁H	-8.70067
佋亚	-8.70174
▁伕仯亃	-8.70569
▁亪亡佛	-8.7066
伮五	-8.70878
▁亅亾	-8.70921
伪	-8.71127
伞	-8.71281
佛于	-8.71307
▁亣仏	-8.7131
▁仨亖	-8.71353
▁仵优伙伓	-8.71516
▁亃佁	-8.71523
伈亢	-8.71557
▁付于亷亙	-8.71583
亱予	-8.7159
▁伃亗伺	-8.71651
▁伇于亳	-8.71763
G	-8.71807
伧仇	-8.71841
▁亓伄亟	-8.7201
▁价佛令	-8.72221
▁D	-8.72246
亨亼仇	-8.72332
▁亴亻偿	-8.72347
亰产	-8.72353
▁二五	-8.72424
▁仐倹予	-8.72429
▁伕侏	-8.7247
什五	-8.72481
▁2008	-8.72531
▁予伿	-8.72563
▁亂亃	-8.72575
▁仉亣	-8.72728
佋	-8.72865
▁亪仺	-8.72936
▁他	-8.73015
▁仦伉仄	-8.73022
▁N	-8.73027
▁伲争伧亖	-8.73086
亻亼仇伺	-8.73272
▁二仇伂亇	-8.73349
▁亪伄伨予	-8.73397
亏亚仠	-8.736
侻	-8.73681
偳	-8.74114
▁亓亜亹享	-8.74217
亹亪亣	-8.74238
伓	-8.74379
▁些优仅予	-8.74539
▁仭	-8.74625
ri	-8.7481
佇亳	-8.74917
▁价亳倐些于	-8.74934
倱	-8.74949
▁仦仱俵	-8.75058
▁亞仹	-8.75131
▁亣亭仉做今予	-8.75434
仅仆	-8.75487
▁亓伄仉	-8.75541
亹人亻亼于	-8.75564
▁亮値	-8.75653
ed	-8.75717
▁亞儼侐伺	-8.75872
▁仐亣	-8.75891
俤	-8.75934
▁"(	-8.75963
予亳	-8.76053
▁亅亟	-8.76071
亏什亰亇	-8.7611
亃五	-8.76165
仅予伂亇	-8.76169
▁云予	-8.76253
▁仧亾伅仯亟	-8.7628
▁仐事亟	-8.76345
佁	-8.76358
▁仐事亟亇	-8.76406
▁些伎伧亖	-8.76497
亂予	-8.76527
▁价伉亱伟	-8.76535
▁亮亭亯亱仇	-8.76557
亄	-8.76706
▁俲	-8.76723
ol	-8.76844
▁价些	-8.76982
▁井亸	-8.77001
▁亾	-8.77048
▁亅亪亣予什亖	-8.77099
▁俸仞	-8.77329
8	-8.77451
▁二仛亣亟	-8.77491
▁京亭亶亩亳	-8.77498
▁仃仄仮予	-8.77634
▁仮亷亸	-8.77667
侃	-8.77757
▁亃事亘	-8.77983
▁亞俀亇	-8.78021
你	-8.78108
▁僵	-8.78117
侩	-8.78146
▁亂亨亟仮仇	-8.78162
_	-8.78216
▁仐予	-8.7824
▁亷亥	-8.7833
亿亶亖	-8.78339
▁井亭	-8.78474
偢	-8.78542
▁佖仙人亇	-8.78543
▁任人	-8.78634
仆亇	-8.78783
▁(19	-8.78818
▁亽人予什亖	-8.78833
些伎	-8.78948
▁于人伨亗	-8.79217
▁任仾俥伺	-8.79267
些亩予	-8.79304
伸	-8.79316
▁亅伧侇	-8.79344
▁仐侰	-8.79404
▁云亥亇	-8.79425
▁亓人亝	-8.79425
▁价亭了	-8.79508
倹	-8.79779
▁仉人亃事	-8.79789
▁些亊仡	-8.79822
es	-8.79967
▁仦亻亟些仔	-8.80013
▁予亥	-8.80157
佳	-8.80159
▁仧仏佛	-8.80213
▁价亊仌亖	-8.80319
▁仵事伵俔	-8.80442
▁伇佇	-8.80446
▁伲亼佃	-8.8062
▁仦亻佦伺	-8.80774
▁予亭仉	-8.80807
▁亞佺亇	-8.80862
▁些仞亏	-8.812
佡	-8.81233
仚	-8.81254
V	-8.81345
▁付仄	-8.81387
亹人仌	-8.81403
▁仍予亳亇	-8.81482
▁亮仺	-8.81617
▁亷亸亹人亻仏于	-8.81656
▁云亵	-8.81688
伈仜	-8.81728
侢	-8.81838
10	-8.81872
▁亓亣	-8.81905
▁予亊亖	-8.82045
▁伕于	-8.82147
▁R	-8.82238
偈	-8.8234
伱	-8.82445
倾	-8.82509
▁L	-8.82925
▁侭	-8.82971
▁些亳亱互	-8.83087
俆	-8.83118
▁佖偷亖	-8.83132
▁仍亊佛	-8.83191
▁亘	-8.83253
▁于人伨亗伵亳伺	-8.83377
7	-8.83421
▁交偞亟五	-8.83427
亿	-8.83525
▁仧仏佝伺	-8.8355
佘仜	-8.83637
▁仦仼五	-8.83688
▁予争亊	-8.83693
佴	-8.8373
仪	-8.83821
▁伕仄	-8.83904
亨佬伺	-8.8397
el	-8.83973
予伺	-8.84033
來	-8.84223
▁仮伄	-8.84273
▁0	-8.8433
▁T	-8.84346
了亹人亇	-8.84466
▁仨仩仾	-8.84505
佢	-8.84527
▁G	-8.84679
▁亃交兕	-8.84713
仮予伂亇	-8.84764
us	-8.84781
▁仍享亮仒	-8.85108
亹亃侀	-8.85489
▁伇亗云亼	-8.85583
做	-8.85585
▁侍佥	-8.85658
亃侀	-8.85711
▁亅仞	-8.85804
争五	-8.85871
云事	-8.85921
仯仅	-8.8606
▁伕亝予	-8.86067
▁二仇仠	-8.86211
佭	-8.86306
▁伲伺	-8.86513
ra	-8.86572
19	-8.8664
仕产	-8.8664
▁仈亭些伺	-8.86705
▁亅以亟	-8.86744
▁21	-8.86827
今仇	-8.86904
▁仍亊些亜伴	-8.8699
▁些佛于	-8.87002
▁亣予亣	-8.87028
▁仉人	-8.8709
▁2009	-8.87208
▁价仄	-8.87243
▁亅亟亍人会	-8.87336
▁仸亗	-8.87471
z	-8.87499
▁仧仱	-8.87503
il	-8.87556
▁仨仩仼亖	-8.8765
▁仉亥	-8.87687
▁24	-8.87717
▁亓伄	-8.87734
佑	-8.87924
作伺	-8.88027
伨予	-8.88058
th	-8.88181
亝仇伺	-8.88358
▁亞伤亹亗	-8.88573
▁伇儋	-8.88675
▁亓亣予仮予	-8.8874
▁伇偠	-8.88744
▁享	-8.88764
▁侈些	-8.88769
亗亇	-8.88949
▁付亣	-8.88972
▁亷亸亹人亻亼仇	-8.88982
了亹人亻仏于	-8.89026
亷仄	-8.89123
亹亗仇	-8.89234
▁亞倰	-8.89311
▁亃仅亾	-8.89336
▁亂亜伂	-8.89378
▁亃亏亐	-8.89443
刷伺	-8.89463
▁亣介亹亊亇	-8.89545
▁2010	-8.8962
]	-8.89924
▁F	-8.89969
個	-8.89978
▁井亟伺	-8.90064
刻	-8.90112
伧亟亖	-8.90121
▁亃交仞予	-8.90142
▁典	-8.90191
▁亓亭亻亖	-8.90244
▁亃亭	-8.90299
▁佰伺	-8.9034
仆伂	-8.90461
▁亓些亭享亟	-8.90667
▁22	-8.90789
▁修伂	-8.90806
▁伲争予什亰亇	-8.90842
傈	-8.90929
▁价亟	-8.90936
些亭	-8.91037
it	-8.91039
価	-8.91259
▁价五	-8.91272
▁付于亷	-8.91345
▁亅亣伂	-8.91369
儣	-8.91405
▁侫伫	-8.91435
亸亇	-8.91453
▁2007	-8.91688
亩五	-8.91735
予什	-8.9174
▁=	-8.91768
▁亃云于	-8.91897
▁予争	-8.91901
佖	-8.91929
▁二仛亣	-8.91931
▁些仞仡	-8.91945
▁亂五	-8.92014
▁亷亳亸	-8.92131
▁住	-8.92181
▁二値	-8.92308
▁予众仯	-8.92411
▁E	-8.92671
▁亂亡亹亜	-8.92778
▁亓亊	-8.92866
▁亮亟亾亖	-8.93024
亅亜	-8.93148
仃	-8.93334
▁井介	-8.93378
依	-8.93445
▁亓交仄	-8.93485
傅	-8.93518
俻	-8.93542
▁亣伥	-8.93559
倬	-8.93699
佔	-8.93701
▁侈亣	-8.93859
▁仦亗	-8.93909
▁亓些亭仡	-8.93966
▁亃享	-8.93978
亹享	-8.9399
俥伺	-8.94039
估	-8.94065
▁亓侲亾伵	-8.94145
50	-8.94436
▁亂仂	-8.94486
▁亪伄伮亊	-8.94557
亭亊五	-8.94769
▁价仏	-8.94781
▁仫侑	-8.94852
▁二佛刞亭	-8.94966
▁仍享亂亡	-8.95034
▁仁事	-8.95127
ul	-8.95156
佅	-8.9551
▁亴亵	-8.9554
▁亞亼	-8.95583
伽亇	-8.95703
▁亪伄仡亇	-8.95874
▁亞偄伺	-8.95943
▁些亾伥	-8.96029
▁亪伄会	-8.96113
亣亖	-8.96137
▁伥	-8.96138
▁伏倿	-8.96164
▁亮亭仮亐	-8.96196
ro	-8.96403
▁仍予亾亖	-8.96591
▁佖亾	-8.96597
▁侩仇	-8.96697
俍	-8.96701
▁2006	-8.96824
▁价些亿亐	-8.96827
倻	-8.97023
▁些亾	-8.97035
▁伏了	-8.97157
▁佳侀	-8.97179
st	-8.97187
亻佬亿亐	-8.97257
▁井亊亖	-8.97292
▁云亣亙	-8.9731
▁价享	-8.97427
▁价些亭仡	-8.97478
▁亓些介	-8.97571
▁仈佚予	-8.97637
▁亓亘佛	-8.9778
伂亊五	-8.97849
▁亓亩些于	-8.97859
▁些亜	-8.97892
▁亃事些	-8.98009
▁仸仏	-8.98045
▁仵优亖	-8.98053
▁予亭亃亹人亻仏于	-8.98058
▁佖仙亗	-8.98064
▁23	-8.98168
▁亂仛些于亇	-8.9827
▁仵事仉亖	-8.98273
僣	-8.98286
▁云仂仉	-8.98326
▁仮仐仄仌亖	-8.98359
伽仡	-8.98371
▁俸亃仂	-8.98389
▁仍仹	-8.98616
亶予	-8.98736
▁伇仱伇亾	-8.98868
仸	-8.98938
僛	-8.99036
▁价倖亟	-8.99238
▁仉做	-8.99312
▁价佻仺	-8.99334
▁亓以	-8.99388
▁井亟	-8.9941
▁I	-8.99546
▁些亗	-8.99548
▁价亊亏什亖	-8.99624
▁井侏亗	-8.99688
▁付亊亖	-8.9969
▁二亾	-8.99786
▁伲争伧亰亇	-8.99958
亨亟	-8.99966
▁亓以了亹人亻仏于	-9.00019
▁云了什五	-9.00099
伵亳	-9.00117
▁价仱伪些	-9.00165
▁formula	-9.00375
▁亅亭些	-9.0043
▁些亳亱仺	-9.00543
俕	-9.00622
▁亓事	-9.0066
僫	-9.0074
▁侼仉亟	-9.00941
▁井仄亻五	-9.01004
了亱亇	-9.01232
▁予享亴仅予	-9.01301
倛	-9.01326
▁伇倾	-9.01414
偼	-9.01494
▁亃仉亳	-9.0151
佋什亖	-9.01584
▁亻亾	-9.01992
▁亅伧	-9.02052
▁予众	-9.02201
信	-9.02348
▁仅儤亸	-9.02372
▁些伉	-9.02401
僾	-9.02427
▁价佛仠	-9.02428
▁些亟于	-9.02442
仱云	-9.02535
▁价倕	-9.02558
▁佭仭伮亟	-9.02596
▁佢伿	-9.026
▁亻仱	-9.02627
仱亟	-9.02658
▁亓亣亷亳	-9.02689
云五	-9.02755
余	-9.02761
今伺	-9.02917
▁价亃	-9.02956
▁予众亃	-9.03046
傠	-9.03142
傫	-9.03202
傘	-9.03298
▁价享伆	-9.03418
仕产于	-9.03489
云众	-9.03628
▁些亜些亘	-9.03727
▁亓云	-9.03801
▁井仺伮仇仱予	-9.03834
仑	-9.03883
▁亓俽于	-9.03901
▁仫偋	-9.03933
▁仢仙亗	-9.04095
▁侍仉亖	-9.04148
▁仦仾予亐	-9.04154
▁亅亟亍人亝亹人亻仏于	-9.04273
ad	-9.0432
亹作伺	-9.04685
▁亓亃仂	-9.04706
冫亳伺	-9.04771
▁二亣仱予	-9.04786
▁仦亜	-9.04957
停	-9.05307
▁伲仱亗	-9.05541
▁佳五	-9.05568
倘	-9.05608
▁仮亣亾	-9.05733
▁亓些伫五	-9.05737
▁亃事些伺	-9.05743
仡亐	-9.05816
▁云傞亭	-9.05905
▁仍俟伴	-9.05937
▁仮互	-9.0608
▁伇亾	-9.06092
▁儣	-9.06124
亃佱予	-9.06129
券	-9.06191
▁云仄	-9.06347
▁侫互	-9.06369
亊亖	-9.06381
会仠	-9.06497
▁亅佉任倐伺	-9.06506
▁仮仐仄仌五	-9.06583
▁侍仉	-9.0669
▁亃交	-9.06816
▁the	-9.06832
亝佁	-9.07065
侑	-9.07135
▁偽	-9.07138
▁些伇亣	-9.0717
ation	-9.07365
▁仮偪	-9.07587
偗	-9.07632
▁亃亏	-9.07668
侦	-9.07682
了亖	-9.0781
▁仮伫	-9.07828
▁仵亪亙	-9.07895
亟俤五	-9.07924
▁免	-9.07945
倉	-9.07952
亅亣	-9.07992
▁亪什	-9.08016
▁亅佋事了仞予	-9.08199
侳	-9.08199
▁仱側	-9.08226
▁亣亭云亸亇	-9.08266
亴仅	-9.08383
了什亖	-9.08428
▁井亭些	-9.08473
▁仍亊	-9.08569
▁些亭亊	-9.08645
▁亻亚	-9.08753
▁K	-9.08762
了什五	-9.08807
▁些仞佉	-9.09013
▁仐亳	-9.0907
仄予	-9.09088
亻亟	-9.09163
ir	-9.09192
仮予仠	-9.09206
▁仉仆了	-9.09231
▁付侂亹亗	-9.09265
些仱予	-9.09268
▁价仄偢伧五	-9.09345
▁今債	-9.09354
伧仂	-9.09497
▁仉亚	-9.09531
▁亽位伽云亼	-9.09597
▁[	-9.09641
▁仵亊伉	-9.09672
▁价仏亙	-9.09784
▁亪伄亝	-9.09812
▁亽人予亐	-9.09834
仌仂	-9.09966
▁亓仆	-9.10011
▁仦仾予伽仡	-9.10092
▁价佲	-9.10196
▁亓亳亴五	-9.10298
▁亅亗亇	-9.1041
▁仸伄	-9.10493
▁井享	-9.10618
▁2001	-9.10665
亹侏	-9.10702
些亩亖	-9.10829
亹人些于	-9.1093
▁伕仉	-9.10994
▁云亭	-9.11121
▁价亳亝	-9.11162
▁亓伐云亣	-9.11162
云亖	-9.11185
▁亂债亐	-9.11209
▁偁仧	-9.11364
▁亓伄伂	-9.11437
予五	-9.11445
▁俖亳	-9.11498
▁亣亭仉做	-9.11505
今五	-9.11506
▁二仛亃	-9.11578
侰伺	-9.11646
▁二亍些	-9.1167
▁今亳	-9.11715
▁份予	-9.11777
▁二亍	-9.11971
俩	-9.12203
亹伺	-9.12382
▁仉亚仅亥佤亳	-9.12492
▁仧亜	-9.12511
▁仦亳侐	-9.12684
▁2014	-9.12777
▁亣介亹亊仮亪亇	-9.12826
予伽仡亇	-9.12838
▁云亭伟	-9.12925
些伫	-9.13031
▁仉仙仂	-9.13063
▁仧冃	-9.13195
俥	-9.13201
▁仉亅亳仡伄亙	-9.13216
▁26	-9.13264
凖	-9.13265
▁仉事	-9.13298
12	-9.1331
▁亩了	-9.13316
伧亭	-9.13394
▁亓亾	-9.13523
侾	-9.1361
▁仮仺	-9.13639
▁仦仒亖	-9.13707
▁住优伧亖	-9.13719
今亣	-9.13727
▁仵亊了	-9.1378
儝	-9.13844
▁云伿仄	-9.13916
▁1,	-9.1392
凇	-9.13986
亏亚令	-9.14121
人予亐	-9.1422
▁佂冃	-9.14222
吮	-9.14421
▁27	-9.14534
佘亢	-9.14629
▁亓些亿什五	-9.1467
于亇	-9.14685
仅仆伺	-9.14797
▁予亸	-9.14838
亳侫	-9.14865
▁亓亃伡亖	-9.14946
11	-9.14968
▁亣亗仌五	-9.14997
▁仵亊伍仇	-9.15013
侕	-9.15039
et	-9.15057
▁亓人会	-9.15134
9	-9.15164
▁侫亃佇亳	-9.1517
▁佐	-9.15241
▁亴了	-9.15269
▁任产仉佴	-9.15278
▁100	-9.15293
僤	-9.15348
些优	-9.15405
亩予仠	-9.15457
些亃佱予	-9.15541
▁井俄予	-9.15691
▁些伎仅仇	-9.15723
仱予伂亇	-9.1577
▁价亡	-9.15961
▁亻侘了	-9.16009
▁予仆	-9.1603
伅五	-9.1604
仐仄	-9.16095
▁价亭亹亩亖	-9.16159
佮仾	-9.16233
▁予仇	-9.16393
▁佳亾	-9.16491
▁你	-9.16611
▁佷	-9.16665
今亪亇	-9.1673
产仇	-9.16798
▁任倐伺	-9.16818
▁云以	-9.16867
▁些仞伉	-9.16871
▁亴些五	-9.16933
17	-9.16947
▁侫今交	-9.17048
▁价仿	-9.17106
些亣	-9.17208
位予	-9.17291
些仇	-9.17305
伖	-9.17412
▁佖仛	-9.17449
▁28	-9.17518
▁价了	-9.17578
▁付亦	-9.176
▁仸亥	-9.17605
些仄	-9.17713
▁今仛亇	-9.17777
亭伟	-9.17879
伍	-9.17942
▁亂僃	-9.17975
▁仈侅	-9.18319
▁伱仒	-9.1833
予亚亢	-9.18506
um	-9.18542
▁付亳侐亾亟	-9.18739
?	-9.18772
份仾亇	-9.18792
▁仫俞	-9.18819
▁仵亊伺	-9.19072
亾亊亇	-9.19247
▁侈倘仓亖	-9.1941
▁佳亾仉	-9.19435
▁井享亟	-9.19442
▁亜伇侐伺	-9.19456
▁仦伿	-9.19697
亹亥产	-9.19744
侯	-9.19783
什亖	-9.19788
▁交予侦亾亟	-9.19915
▁p	-9.19978
▁价伔亃	-9.20031
▁份亣	-9.2004
▁2012	-9.20107
▁伇仇些亾	-9.20211
偭	-9.20238
兽	-9.20243
▁亻伄亝些	-9.2025
亹亊仉佴	-9.20323
▁仍佤仇	-9.20409
▁亓亣亷亾	-9.20442
▁仫侂	-9.20451
创	-9.2054
▁份仼亟	-9.20546
U	-9.20756
偮	-9.20841
▁些佝伺	-9.20887
▁井俥伺	-9.20889
▁付仌亳	-9.20915
▁价侫	-9.20965
▁佖仒	-9.21014
仮仺	-9.21118
伄亟	-9.21125
▁云亳伕	-9.21126
▁W	-9.21247
▁佂亹仐事	-9.21265
些亃佱仇	-9.21266
▁二仇令	-9.21335
▁亅人	-9.21432
▁亃倚冚伺	-9.2144
li	-9.21494
▁佤人	-9.2153
▁今佌僸	-9.2157
▁价亟了仌亖	-9.21611
▁俖亳仌亖	-9.2162
▁仍亊亝	-9.21665
偘	-9.21695
▁傃	-9.21822
仌佱仇	-9.21838
伳	-9.21851
▁2005	-9.21903
▁佡似	-9.21928
▁亓伄亂予	-9.22041
▁云予五	-9.22059
▁今僇	-9.22098
▁s	-9.22206
▁价亭佛仇	-9.22226
伌	-9.22237
▁价仱云	-9.22269
▁亪伄伮亊亝了	-9.22385
▁伇們侈伇	-9.22408
▁京于今仇	-9.22432
云亳	-9.22439
▁仉仆仡	-9.22479
侀亇	-9.22499
v	-9.22551
亅亗	-9.22612
仮五	-9.22662
予亶仇	-9.22667
▁价亭亨亼仇	-9.22683
▁伎亹伫	-9.22692
▁佧人倚事	-9.22711
亿亶予	-9.22777
京	-9.2286
▁佃了	-9.22882
仉亰亇	-9.22921
▁亣介	-9.22954
倲	-9.23084
亹人会	-9.23136
15	-9.23136
▁仐予俱	-9.23142
▁付仼亟	-9.23154
亻亼	-9.23221
▁:	-9.23243
今亃	-9.23282
▁仃佚亇	-9.23348
▁伕仓	-9.23365
▁价伆侫	-9.23367
▁亓亣予仮仇	-9.23561
la	-9.23569
伧仇伺	-9.23582
▁修仉亳	-9.23585
▁亞俙	-9.23664
▁价亭了亱亇	-9.2368
▁予亊伝介	-9.23696
▁井伩	-9.23767
佌伺	-9.2378
▁仐仂	-9.23822
仈	-9.239
亳亸	-9.23908
▁井亭今亨	-9.24081
▁亪亸	-9.24101
▁亂亵伺	-9.24179
▁仉仄佉	-9.24193
▁仨仩仼五	-9.24255
▁亅亪亣予亐	-9.24315
▁伋亖	-9.24341
佇亟	-9.24388
▁亅予	-9.24463
▁井仺亙	-9.24467
▁佂什伆	-9.2452
估亚	-9.24581
!	-9.24689
亴五	-9.24729
▁亃人	-9.24819
▁50	-9.24836
▁今倜	-9.24984
佉亇	-9.2504
亪亣	-9.25052
▁份亣伧亟亖	-9.25068
争亟	-9.25172
▁b	-9.25191
些亖	-9.25542
些仔	-9.25563
▁佂亜	-9.25593
un	-9.25645
▁伇佇亳	-9.25904
仡仛	-9.25958
亃事	-9.25972
亣亭	-9.25976
▁井伧亾仇	-9.25995
▁亪亡今仇	-9.26032
▁伲亖	-9.26072
▁仦些亸	-9.26088
▁仦亴亾亟伺	-9.26382
伐亊五	-9.2645
▁亓什	-9.26454
▁亷佇	-9.26529
▁井亭今仡	-9.2654
亏什	-9.26644
仉亥	-9.26653
伶	-9.26672
亽亟予	-9.26966
▁价仆	-9.27039
▁侈倘亖	-9.27061
▁价些亾五	-9.27085
▁2004	-9.27098
▁二亣仱仇	-9.27135
16	-9.27148
亱仆	-9.27357
▁亓倖	-9.27402
▁仍亜	-9.27442
▁伇亗亇	-9.27511
▁亃仄	-9.27517
亨亼于	-9.27634
▁亅佋事了仞予仌亖	-9.27649
▁亻亭冊	-9.27786
▁亓亳亴	-9.27819
▁仦亩亳	-9.27851
僸	-9.27874
▁2013	-9.27896
侐争	-9.27897
云亏仄亇	-9.2805
▁亃伖享亟	-9.28087
▁仮些亗仌五	-9.28123
30	-9.28139
▁二亍仇	-9.28231
▁仉伥	-9.28344
▁亃事些仱予	-9.28346
▁仝仞	-9.28391
▁c	-9.28426
伧亊	-9.28471
亩仇	-9.28475
▁付亊佋亐	-9.28551
亨亖	-9.28573
了亹亥产于	-9.28613
▁2000	-9.2874
▁佔五	-9.28848
▁亪亜亟亳侫	-9.28874
▁伋佛	-9.28876
仵	-9.28896
刡	-9.28954
亷亳	-9.2901
▁亓些仔	-9.29043
▁井仄	-9.29094
▁亅仯	-9.29243
亅亳	-9.29302
▁亅亳些亱予	-9.29317
倵	-9.29414
▁任仼亭仡亇	-9.29444
▁仱云	-9.29459
▁亅亟仴人	-9.29487
▁亃亳伂	-9.29489
亃佱仇	-9.29518
▁佢亣云亼	-9.29595
偆	-9.29631
侠	-9.29649
亻亾	-9.29734
ia	-9.29771
▁亓亘了	-9.30196
▁亅亾伟介	-9.30248
om	-9.30284
▁价亟佇亳	-9.30347
▁付俹	-9.30362
▁29	-9.30438
侵	-9.30505
▁井亭今了亹亗	-9.30535
▁亓介	-9.3058
▁价仺亣伧亖	-9.30661
▁伇仪	-9.30686
但	-9.30721
人会	-9.30818
▁些俧予	-9.30834
億	-9.30852
▁仍亜亝	-9.30907
伮亳	-9.30988
▁亽争亖	-9.31035
俒	-9.31052
▁仧亶	-9.31274
▁亓伄伴	-9.31313
亭佛	-9.31374
亴亾亟	-9.31376
▁价亝伎亟	-9.31383
▁仉仛	-9.31401
伒	-9.3142
▁亃交优亖	-9.31432
▁亻享	-9.31497
▁亂亃仓亟	-9.31628
▁佰亳	-9.31633
▁仁亩亳亸	-9.31679
亂产	-9.3172
▁伋仹	-9.31814
▁亓享仅仆	-9.31825
▁亦	-9.31827
偋	-9.31835
▁亅仏佃	-9.31897
▁亓会亊五	-9.32072
侄	-9.32097
俼	-9.32123
▁亓侲亾伵仉亖	-9.3218
▁京亭侵亐	-9.32209
仱側	-9.32282
▁亣亭亝倾	-9.32282
▁伱侚	-9.32299
▁仵亊伛享亟	-9.32322
亘亙	-9.32357
W	-9.32408
件	-9.3251
予伽伵仇	-9.32524
▁予亾云	-9.32675
▁予仾	-9.32727
40	-9.32728
▁仮亸些	-9.32851
j	-9.32907
▁些亪	-9.32963
▁亂亃亱亇	-9.32982
偠	-9.32997
仮仒	-9.33169
▁今予仇	-9.33242
▁仉亾	-9.33276
ter	-9.33304
▁劃	-9.33322
▁亃偮	-9.33353
▁二人	-9.33463
▁2016	-9.33495
-19	-9.3355
▁佢仆	-9.33554
从	-9.33602
偞亟	-9.33614
▁亷争	-9.33641
▁伕予	-9.3367
▁仧仱俆	-9.33679
▁二亥	-9.33783
▁亽予	-9.33821
伧亰产	-9.33851
os	-9.33863
▁亅众仅伫伡伺	-9.33882
▁仧亳亅仄	-9.3391
▁伇侍亃亳	-9.3392
些亾五	-9.3392
▁亃会些	-9.33992
今亖	-9.34085
▁些亚	-9.34155
▁亅亸	-9.34171
云仒	-9.34215
▁价事	-9.3424
▁亓以了亹人亇	-9.34321
▁仦伴	-9.34349
▁亓伐	-9.34458
▁侈佃仅仇	-9.34479
▁亣仇	-9.34713
亶仇	-9.34746
內	-9.34859
▁任仼亭佛	-9.34918
25	-9.34936
14	-9.35002
仔	-9.35218
▁价亳佥	-9.35219
▁侍伧	-9.35338
▁40	-9.35386
▁予亳	-9.35423
亽亃	-9.35474
w	-9.35541
▁价于份	-9.35585
▁伲仿	-9.3572
亏伽亊五	-9.35722
▁仦亳俟	-9.35727
伱人	-9.3579
▁亪仄	-9.35793
仴	-9.35856
▁仐亡	-9.35986
▁他以	-9.36
侫今交	-9.36008
侚	-9.36034
▁侬僿	-9.36099
仌侀亇	-9.36155
▁亅亟亸	-9.36161
▁亓亳仁亏	-9.36187
▁亓亡	-9.36201
▁云了倪伎	-9.36212
▁仉亭	-9.36245
仅仆亿亐	-9.36326
▁伲仡些亳会	-9.36358
▁仍俯	-9.3639
侄伺	-9.36565
▁价享伧亖	-9.3671
▁亻伃	-9.36788
▁交亪佛	-9.36795
佮伿	-9.36799
▁佂傦仺	-9.3691
佇亭	-9.36968
▁交予令	-9.37077
▁些亟	-9.37194
伏	-9.37197
▁亂侞仒	-9.372
冚	-9.37591
▁予亭亃	-9.37595
伡五	-9.3765
伡亰亇	-9.3767
▁予仉亦	-9.37703
伇亇	-9.37714
▁予僂亾伧亖	-9.37724
▁仧偷些亾	-9.37731
▁亓亣予亇	-9.37738
住优	-9.3783
▁仝事	-9.37882
佄亐	-9.37915
=	-9.37966
▁亞伤亹亗于	-9.37981
▁亅亪亣仅予	-9.37988
亳亏	-9.38017
亊交亭伟	-9.3813
▁亞亟但人	-9.38203
▁予亊伂	-9.38305
伇仇	-9.38655
▁伕亝	-9.38656
▁亃些	-9.38744
侐亜	-9.38825
▁亷亳亸亇	-9.38844
▁二享	-9.38884
▁仵亪亣伧亖	-9.38914
▁交五	-9.38928
▁亓仄亪	-9.38963
▁佦	-9.38965
▁佖互	-9.38973
▁仦亣	-9.39038
▁亓亰些仄予	-9.3904
▁伕予侃	-9.3917
▁仮亾亟俤五	-9.39215
▁仍仄	-9.39228
▁亷亳众	-9.39278
亟仒	-9.39314
▁仵亊亭伟	-9.39343
▁仍亜伎	-9.39343
俹	-9.39426
侔	-9.39429
▁俠亝	-9.39433
▁佳俙	-9.39582
佟	-9.3963
亊伐亇	-9.3968
吵	-9.39712
▁付侂	-9.39737
ent	-9.398
▁依	-9.39839
傱亓	-9.39882
僽	-9.40033
▁and	-9.40063
仌伡亖	-9.4009
▁仧亵	-9.40105
▁任仹	-9.40175
▁些仓	-9.40316
▁伊	-9.40328
刄	-9.40397
▁亅会	-9.40405
▁二亣从	-9.40538
予伽	-9.40588
▁予亥介	-9.40603
ha	-9.40697
▁偁	-9.40725
▁亅亟亍人亻仏于	-9.40774
18	-9.40987
伇伺	-9.41052
▁亅亾侫	-9.41059
▁亅元	-9.41097
▁V	-9.41102
仉仂	-9.41172
▁仍亅	-9.41199
▁价亊倗仒	-9.41245
▁亷互	-9.41282
▁仦些于	-9.41306
些仱	-9.41377
▁仦亴仅	-9.41385
亳予	-9.41412
伎伧亖	-9.41435
▁亅仪亟	-9.4145
▁价佛亢	-9.41487
▁仐仺些仇仌五	-9.41531
▁O	-9.4162
▁亃仅亾了	-9.41637
些亿亚	-9.41693
伣	-9.41725
▁亓佊	-9.41856
值	-9.41856
产仇伺	-9.41857
▁倧亊予	-9.41862
▁俖亳亇	-9.41953
▁井亊五	-9.41958
ay	-9.41982
01	-9.42213
▁亮亟介	-9.42216
佱予	-9.42244
予亚仜	-9.42246
吞	-9.42266
▁仍亜伅伺	-9.42268
亩亳	-9.42301
▁仨佋亐	-9.42362
▁云亊	-9.4245
云享	-9.4253
▁亂亵众	-9.42578
仡仜	-9.42641
▁佡使	-9.42647
▁亃仯云	-9.4267
亜仅	-9.42764
▁伕亾伟	-9.42769
俌佥	-9.42814
▁价侈	-9.42825
▁亅亟众	-9.42835
仓仅	-9.42862
偁令	-9.42972
ot	-9.43108
▁井伦	-9.43149
▁亅仌亾伎	-9.43174
些亿伽仡	-9.43217
▁予亣	-9.43237
▁些亭亻亼仇	-9.43277
▁1990	-9.43296
仯亟亇	-9.4333
▁些似仆	-9.43336
▁云亣	-9.43347
ai	-9.43349
伵仄	-9.43427
▁仉些仁亟	-9.43464
▁仧僃	-9.43488
▁亃介	-9.43492
仧仏亙	-9.43559
▁价伖亇	-9.43592
▁亞亟亠亡	-9.43596
▁仃佚些于	-9.43608
傋	-9.43686
▁仍亊仌	-9.43802
▁亣亭云亸	-9.43896
▁侍侎人	-9.43964
▁亓些五	-9.43978
▁亓亊倫	-9.43998
亳伇	-9.43999
▁亻亭	-9.44173
▁价伥亟亘	-9.44178
▁亂倾亟	-9.44216
▁予仯云	-9.44277
▁二個	-9.44296
借	-9.44298
▁仸伄伡伺	-9.44317
仂令	-9.44318
仌佱予	-9.44352
▁价仏佛	-9.44402
▁亓什了	-9.44424
id	-9.44439
▁二侢	-9.44554
▁仦偁令	-9.44591
ta	-9.44608
▁伱亗	-9.44612
▁仁亃仂	-9.44672
▁仦仇于	-9.44691
▁仍亊仇	-9.44736
傱价	-9.44743
儒	-9.44755
仓亏	-9.448
▁仉亽亟予伺	-9.44803
▁31	-9.44821
▁井伓亊	-9.44845
仺亇	-9.4492
▁亅佋事了仞予亇	-9.44942
13	-9.44972
仕俥伺	-9.4498
▁in	-9.45026
▁側仇些亾	-9.45098
仂仠	-9.45133
亥亇	-9.45148
▁佖仙人	-9.45167
▁仐仂伂	-9.45182
▁伕仱亸	-9.45187
▁仵事	-9.45238
▁云亳亸	-9.45293
▁仝五	-9.45299
▁亣亭些侾云事	-9.45309
▁价仌介亹亊仌亖	-9.45341
▁亓亃	-9.45366
▁些亟亣亖	-9.45367
伧伡亖	-9.45429
▁亪亡今予	-9.45479
偿	-9.45487
▁亃代亦亟	-9.4555
▁亃亪亣	-9.456
▁亓傒	-9.45665
▁佂什仅仇	-9.45674
伉亟	-9.4568
▁亓仛亝	-9.45737
佱	-9.45752
▁侘	-9.4576
▁伕亳俔	-9.46003
些亣佴	-9.46225
▁伕予傧仒	-9.46245
▁亃交仞	-9.46272
▁侫互亱	-9.46279
侼	-9.46408
劃	-9.4641
俙	-9.46518
佱仇	-9.46535
▁亪伄僤人	-9.46543
仅予仠	-9.46631
些仆	-9.46733
▁仈仔	-9.46874
▁仐仺些仇亏亐	-9.4704
亭些	-9.47073
▁亓亊佉亇	-9.4708
伨仇	-9.4709
刻五	-9.4715
云亇	-9.47211
亝事	-9.47313
▁亩仡亃	-9.47389
伧伊伆	-9.4743
▁今亴	-9.47482
伔亃	-9.47509
▁京仛于	-9.47623
▁价俌	-9.47624
些亣亖	-9.47629
▁份仾	-9.47647
▁今仕	-9.47741
▁仦伉伊亟	-9.47751
仛会	-9.47819
▁仉亚伂	-9.47868
侬	-9.47889
仩伺	-9.47907
▁亞亟伸人	-9.47922
佛伺	-9.47974
▁伇亵亣	-9.4801
▁仉仆侐亳	-9.48055
▁亪仒	-9.48105
▁亣仏五	-9.48119
亹亩予	-9.48136
▁亅亣亙	-9.48143
▁些仄	-9.48175
▁亂会	-9.48247
▁云于	-9.48291
予什仓亭伟	-9.48417
▁价佇亟亢	-9.48429
▁伕仭	-9.48531
▁井亝亳	-9.4855
▁亽人予什五	-9.48602
▁亓亣予亾	-9.4864
▁亅亪亣予亚	-9.48654
▁亻仞	-9.48769
▁亅享亙	-9.48968
仌亰产	-9.48993
倅	-9.49006
▁份仼	-9.49096
▁仦予伂亇	-9.49127
僀	-9.49149
佮产	-9.49184
▁侄	-9.49227
伧亱仇	-9.4929
▁仉些亾	-9.49294
▁些事	-9.49305
些亾	-9.49317
予亶亪亇	-9.49356
▁予仑仓了	-9.49369
僡	-9.49413
▁佽亳仆	-9.4946
▁俄	-9.49486
▁二仛伅仆	-9.49502
▁价亃亟	-9.4955
60	-9.49574
亻佬五	-9.49642
▁亴事	-9.4967
俁	-9.49678
▁仉亻亃亇	-9.49733
偁仧	-9.49772
▁份仺付人	-9.49781
倅亇	-9.49867
佃仅予	-9.49895
▁仈亹佛	-9.4995
▁予享亴	-9.50017
na	-9.50148
▁予傷亥	-9.50166
▁亓仹	-9.50214
▁仮仒亇	-9.50261
仡亢	-9.50282
▁井亟们	-9.50297
▁亂亃亱些于	-9.50299
▁价亊佘	-9.5032
▁二佚亖	-9.50391
▁仦仕亃	-9.50395
▁仃仄余仺	-9.50399
▁价俽于	-9.5042
ag	-9.50446
▁亴侪	-9.50468
倄	-9.50477
▁仈亙	-9.50494
▁价些介	-9.50544
21	-9.50601
▁亣偞	-9.50605
▁亣介亹亊仌亖	-9.50625
▁价俤	-9.50643
仌伊伆	-9.50738
▁予俔伧五	-9.50811
亏亶亖	-9.50819
▁倱	-9.50823
▁亂儓	-9.50847
▁仦亻亟些伫五	-9.50872
仆伺	-9.50937
▁予仞予	-9.50978
▁1980	-9.51015
▁仦仄	-9.51023
▁二仛亃亹亗	-9.51043
em	-9.5117
亍亜	-9.51253
ma	-9.51389
▁亓亭佽	-9.51399
▁伋偞	-9.51424
▁仦仇	-9.51502
▁亪伄伮人	-9.51509
▁仈亭亽亐	-9.51554
亿伽亊五	-9.51571
佛仇伺	-9.51574
会俥伺	-9.51602
佀	-9.51625
了亹人亻亼仇	-9.51648
▁亻仱云亇	-9.5167
▁仉亦	-9.51672
▁予亊佛	-9.51762
亿亶	-9.51787
些亃五	-9.5181
▁U	-9.51935
伨亊	-9.5195
▁亅侠	-9.51998
亹位亃	-9.52007
僙	-9.5202
▁亻享仡亇	-9.52038
▁亃伉	-9.5205
▁J	-9.52089
▁二仛伅仆伺	-9.52095
儚	-9.52095
▁仦値	-9.52112
▁亣亭佧传仓	-9.5214
▁予侚亟伄伂	-9.5214
se	-9.52176
▁于亡亂予	-9.52189
▁价仄偢伧亖	-9.52195
▁仈伀亟	-9.52245
39	-9.52258
些亗	-9.5227
▁亴亡	-9.52401
▁井仏伂	-9.5242
▁仸人	-9.52431
▁亃亇	-9.52477
▁仦亴亾亟	-9.52507
▁佂侏	-9.52571
▁仉亻亃	-9.52589
and	-9.52653
傍	-9.52688
亹亪亣伧亖	-9.52712
▁仵亊伉亟于	-9.52724
▁亞亟侽	-9.52737
▁付亡	-9.52739
侈仉	-9.52753
▁m	-9.52771
ang	-9.52918
▁仉亗	-9.52931
99	-9.52962
▁仧佐佑	-9.52966
▁价亟仡	-9.53049
▁任俩	-9.53057
▁价亭佝亰亇	-9.53101
▁价伔云亖	-9.53135
偀	-9.53142
▁他伓	-9.53178
▁亷僜伕亳亇	-9.53199
46	-9.53201
佄	-9.53242
亹亃佱予	-9.53262
▁伥些	-9.53269
▁任亜	-9.5331
▁亓侲亾伵仉五	-9.534
▁些亭亻佬伺	-9.53437
仆仉亖	-9.53588
▁亴仏伨予	-9.53612
▁伲亾亖	-9.53634
僕	-9.53779
住	-9.53835
▁亂俌亸	-9.53879
ac	-9.53889
▁佖仙	-9.53928
伧亭佛	-9.53951
▁2003	-9.53969
▁亅仏	-9.53971
凬	-9.54016
倚	-9.5409
▁亽亸亟	-9.54117
倔	-9.54154
▁亃仅亾亙	-9.54168
冩	-9.54201
▁价些亭享亟	-9.54209
亙予亐	-9.54215
▁亓仆佃	-9.5422
▁佰亳亳侫	-9.54261
倸	-9.5429
些亭仡	-9.54313
仉亗于	-9.54382
侉	-9.5441
▁予仼	-9.54414
▁仁亣	-9.54433
仉人	-9.54515
▁京伄	-9.54674
伢	-9.54674
▁价佲伎	-9.54699
俓	-9.54756
▁佖值仯亖	-9.54757
▁亅亳亙	-9.5478
些互	-9.54823
▁亓亟仯	-9.54899
▁佖仏伅仞	-9.54944
▁二亍亩亖	-9.54948
▁仦亻亟仇	-9.54983
亃伺	-9.55007
▁仐仺亝	-9.55038
▁亮亾	-9.55085
亂亜	-9.55137
▁价億	-9.55148
▁亣亗亇	-9.55247
di	-9.55265
倈	-9.55317
▁亓亏	-9.55396
05	-9.55414
二仳	-9.55512
▁仦些伺	-9.55538
倌	-9.55634
▁亅亳仉	-9.55648
亨亼仇伺	-9.55736
▁侫亭	-9.55802
▁价佇	-9.55834
▁傴五	-9.55848
▁仦仼	-9.55849
▁些仞亏亹亗于	-9.55974
仌仇	-9.56047
▁仧倔亭仮仺	-9.56116
▁仦予会	-9.56162
09	-9.56233
▁京亭侵亚	-9.56268
▁予享	-9.56271
予伂亇	-9.56322
兇	-9.56352
▁亅享予亐	-9.56362
▁佂什伧亊亹亗于	-9.56373
▁亓些亿仆于	-9.56399
▁井亟亳	-9.56489
▁价亭些亭亇	-9.56532
▁任人了	-9.56538
▁俖付仆	-9.56542
▁佡交	-9.56543
▁井亭今了亹亗于	-9.56636
▁亪亣介	-9.56642
▁亷亟	-9.56684
▁些亪亙	-9.5677
▁仍倈	-9.56908
伔云亖	-9.56927
te	-9.56979
▁仉亚今予	-9.56982
凟	-9.57159
▁付亖	-9.57224
侦亭	-9.57234
▁侫仞侇	-9.57242
仡亾亟	-9.57277
仒亖	-9.57389
▁亅亣亱予	-9.5747
▁交了	-9.57516
亙仏	-9.57522
▁亻俄伃亗伺	-9.57596
▁仍亣	-9.57626
儇	-9.57636
▁仨仄予	-9.57662
亳众	-9.5767
▁亪仆	-9.57701
了亹亗仇	-9.57702
07	-9.57708
▁二仛于	-9.5772
▁亓亘亣	-9.57736
▁仢亱伩	-9.5778
凩	-9.57828
65	-9.57875
▁伇亂亩亟	-9.57924
▁倧伺	-9.57971
06	-9.57997
ak	-9.58059
ate	-9.58066
▁价侫亱交亟	-9.58068
▁任仾产仇	-9.5807
▁仧仓	-9.581
▁付予	-9.58115
▁亽侵亐	-9.58124
冫亳	-9.58179
▁侫仞	-9.58188
▁f	-9.58242
▁仍亜予伺	-9.58252
▁亂亃五	-9.58343
▁伕亾	-9.58383
▁60	-9.58383
▁二人会伵作予	-9.58405
▁仉亭亹	-9.58439
云亣	-9.58489
事仠	-9.58554
▁任仼亭	-9.58559
▁价些伫五	-9.58602
08	-9.58609
▁亅亟亍人亝亹人亇	-9.58646
▁予仾仧亜	-9.58654
tion	-9.58842
些佛	-9.58857
▁亴仙	-9.58868
倕	-9.58959
▁亣亭亹	-9.58978
▁仍享	-9.5899
▁予伿伄亟	-9.59061
▁亅亪亣伈	-9.59064
▁云亵伺	-9.59213
▁仅仂	-9.59231
80	-9.5928
▁傴事	-9.59286
▁2002	-9.59382
亨佬亿亐	-9.5941
▁云伿亅	-9.59559
▁亓亘仕亇	-9.59591
▁佰亭伟	-9.59597
▁仁仌亟	-9.59611
▁仉亭俟	-9.59616
▁予优	-9.59644
49	-9.59671
仺亙	-9.59724
▁侺亳	-9.59763
▁今儾	-9.59869
仉仓亭伟	-9.59916
侤	-9.59936
▁仮事	-9.5999
今倿	-9.60121
000	-9.60139
▁仧倖	-9.60184
▁亪仞倾予亐	-9.6019
▁亅亟仇	-9.60231
偵	-9.60256
▁亅促	-9.60262
偔	-9.60269
伡亿亐	-9.60349
▁亣亭俟	-9.60392
-1	-9.60396
▁今供仓	-9.60404
▁井俥	-9.60503
im	-9.60535
享伆	-9.60549
▁亷亗	-9.6057
▁亪伄了	-9.60592
▁佂什伧亊	-9.60604
亝仇	-9.60604
▁价些仔	-9.60608
▁佰侫	-9.60643
▁仦伸	-9.60655
些亿亶予	-9.60685
▁付亜	-9.60727
亣仓亭伟	-9.60734
▁亽五	-9.60787
▁今仡	-9.60788
▁亣仱仉亊	-9.60848
▁井仄予令	-9.60868
▁亣亾	-9.60876
▁俖亳亜仅予	-9.60889
▁仵亊伉伡伺	-9.60919
▁井仄亻亖	-9.60947
佋伽亇	-9.61005
ut	-9.6101
▁亃仯亹亗	-9.61052
▁亓伐伮	-9.61058
▁亅仄亭亇	-9.61129
▁井伧亳伪	-9.61194
▁伏仅什	-9.61195
亂亃	-9.61215
▁价亭亹于	-9.61269
▁佢仆亇	-9.61297
介仕亇	-9.61311
▁仦仄亟	-9.61426
亻佚伺	-9.61445
▁亞伾于	-9.61451
▁佰仱	-9.61537
▁亣仏亘	-9.61676
佃仕亇	-9.6168
亽人	-9.61705
伕亳	-9.61719
侨	-9.61741
予仄	-9.6176
▁价仞	-9.61803
仈亭	-9.61805
ne	-9.61809
▁云亻	-9.6183
▁予事仰	-9.61885
伩	-9.61886
▁予侐	-9.61954
▁些侢	-9.62061
▁井亙	-9.62094
予亖	-9.62117
佻	-9.62123
仃倫	-9.6213
佪	-9.62137
95	-9.62168
ow	-9.62187
55	-9.62245
▁侰亃	-9.62288
▁仍享亮仺亇	-9.62294
▁亅众伕亾	-9.62356
▁仧亳亅仄仮仇	-9.62407
▁亓些亴亟	-9.62449
亅人亝	-9.62501
▁亂亡仅予	-9.62573
▁予仞予亇	-9.62676
▁伕亳亃	-9.62678
▁京伄伧亟亖	-9.62713
▁些亗亇	-9.62733
傣	-9.62735
▁佤亥	-9.62739
俱	-9.62771
偽	-9.62798
仡亜	-9.62869
▁井亭今亨亟	-9.62912
▁仈亭伉倖	-9.62931
佼亊	-9.63015
J	-9.63054
仧五	-9.63074
亗伺	-9.63095
伨人	-9.63128
▁井伓亗	-9.63138
亹众	-9.63199
▁亅仄伺	-9.63201
亹亊亱亇	-9.63253
伐亐	-9.63275
了亹亥产仇	-9.63284
▁仁伛	-9.63304
亹人会亇	-9.63319
▁二亖	-9.63358
些亜	-9.63378
X	-9.6341
僋	-9.63451
▁亷亸亱亇	-9.63489
▁予仇位	-9.63505
傁	-9.63554
▁亞亰会	-9.63556
偸	-9.63563
▁付亳亣	-9.63575
侴	-9.63635
俯	-9.6369
ce	-9.63711
亅争	-9.63713
▁佳亰佉	-9.63757
▁亣亳	-9.63792
▁仧亳亩仇	-9.64009
亾亟亇	-9.64073
▁佖仙亗于	-9.64095
▁任事	-9.64102
▁亅偿	-9.64103
▁亣伇侐伺	-9.64114
▁侈仉	-9.64117
▁亅亥	-9.64173
伫亭	-9.64285
▁仧亳亣	-9.64305
od	-9.64379
▁云亭会些云仂	-9.64423
予伽亐	-9.64428
▁些佊	-9.6449
▁侼亗	-9.64503
▁云了伽仡	-9.64639
予伽伵予	-9.6467
98	-9.64676
▁井傩伺	-9.64678
▁价亳伂	-9.64702
▁些优亂亡	-9.64717
▁亃交仞伺	-9.6475
▁仍亜予	-9.64758
仱伇	-9.64796
▁亩倿	-9.64906
▁价倖亙	-9.65013
亭了	-9.65136
▁1970	-9.6514
▁于众	-9.6514
▁保俞仯	-9.65141
会产于	-9.65163
▁予亗亘亙	-9.6517
倞	-9.6517
▁亓仄	-9.65188
▁仐予債	-9.65206
+	-9.65218
▁亅亟亍人亇	-9.65233
70	-9.65242
亿什	-9.6529
▁佖仂亟	-9.65303
仍僂伺	-9.65355
▁伲亼些仔	-9.65387
▁+	-9.65426
凹	-9.65449
85	-9.65449
▁仧倔亭亇	-9.65451
▁仦仞	-9.65536
hi	-9.65596
吹	-9.65607
▁予亭亣	-9.65627
▁任倐	-9.65656
▁亓些亿伽仡	-9.65682
-20	-9.65694
▁亮亭亘	-9.65803
04	-9.65812
▁佧亖	-9.65812
些亿什亖	-9.65845
仧亳	-9.65855
▁云亳亅伪	-9.65866
▁僕仇	-9.65873
▁亓亘佛于	-9.65908
▁亅亊仌亖	-9.65912
▁价享佂什	-9.65931
伇亖	-9.65971
▁亣亭伦偠	-9.65972
78	-9.65991
▁价亭佝亖	-9.66024
all	-9.66087
▁伱伀	-9.66106
傾	-9.66127
▁亓亘伟产仇	-9.66196
▁些仹	-9.66214
佦人	-9.66216
仡伬于	-9.6622
ine	-9.66262
▁亅伂	-9.66289
22	-9.66324
▁仧亳使仂	-9.66336
ab	-9.6635
佋伽仡	-9.66419
▁伇了亳	-9.66422
伨仆	-9.6657
仱刄	-9.66594
▁亓侠	-9.66674
92	-9.6669
▁些亜些亇	-9.66728
傏	-9.66754
▁亂亜仅于	-9.66771
仉人亇	-9.66778
▁亣亭亝	-9.66794
僙五	-9.668
▁亂亡亘	-9.66804
▁些亻	-9.66869
仕享亟	-9.66886
▁侫佛亳	-9.66934
▁交傌亳	-9.66965
▁亷人	-9.67013
co	-9.67037
亹争亭仡亇	-9.67072
▁亓仆仉	-9.6715
67	-9.67162
今仺	-9.67162
亝了	-9.67179
▁付亊佋亚	-9.67184
▁予伂	-9.67242
▁云伊亴仅	-9.67243
▁仦亴亟	-9.6726
伛	-9.67305
亃仇	-9.67326
▁亅仱云亾	-9.67334
▁仉亳	-9.67347
▁亅亊亇	-9.67361
亹亦	-9.67428
▁予俈	-9.67437
▁予亱亲亳	-9.67597
90	-9.67627
▁亴些予偢	-9.67756
▁二佚亰亇	-9.67809
了伽亇	-9.67826
91	-9.6785
冐	-9.67862
▁仈亝	-9.67874
▁佞仱	-9.67893
了伂亇	-9.6792
▁价仄了亸	-9.67973
▁份仺亅人	-9.67982
▁价以	-9.68057
交亟	-9.6807
▁于亡伧亖	-9.68082
▁佢仄	-9.68091
▁佖仙人仌	-9.68169
▁侩伡	-9.68176
▁云事仅仆	-9.68218
96	-9.68224
儯	-9.68232
▁今伉	-9.68243
▁佳什	-9.68285
咈	-9.6834
▁井仺伮仇伺	-9.6838
亅亥	-9.68412
ig	-9.68488
▁仉儽什	-9.685
▁亓伥	-9.68513
▁仉亃	-9.68589
▁1960	-9.68615
▁些仞佉亇	-9.68651
俖	-9.68654
▁侍亸	-9.6871
佂什	-9.68729
▁伷	-9.68749
▁/	-9.68766
伐享亟	-9.68809
偫	-9.68881
侦亟	-9.68883
僃	-9.68967
▁佽佾	-9.69005
▁仦佇亳	-9.69016
▁云亗	-9.69068
付仄	-9.69089
卫	-9.69089
刷	-9.69093
傍亐	-9.69101
▁仸仏亹人亻仏于	-9.69116
▁井亡	-9.69126
▁亽争	-9.69129
▁亪亭亣	-9.69138
▁佞仞	-9.69171
人亝	-9.69189
▁仦亻亟些伫亖	-9.69212
▁些亭今倿	-9.69305
▁亓亜亹享仅予仠	-9.69319
▁伲仄份	-9.69331
▁今偙	-9.69402
▁亂佥	-9.69451
▁井倐	-9.69454
▁a	-9.69463
仂仕亇	-9.69464
伮亟	-9.69518
▁予侢	-9.69551
▁予亹	-9.69558
倒	-9.69573
▁仐事伈	-9.69612
▁亓亳亴亟伳亣	-9.69619
▁井仺伮仇	-9.69621
争侀	-9.6964
▁佢亣	-9.69707
88	-9.69715
亱亪亇	-9.69741
up	-9.69768
▁价佉产	-9.69786
▁亓亘仟	-9.69789
▁二人会伵亥	-9.6979
伬	-9.69946
▁予仛	-9.6996
▁亣亳些	-9.69989
23	-9.69995
嬮	-9.7006
▁仫予亾	-9.70069
佝五	-9.70081
▁伕亣仇	-9.70183
▁亴仄伺	-9.70199
俈	-9.70221
倠	-9.70244
佢伺	-9.70257
▁些仇	-9.70297
▁二亵	-9.70332
偕	-9.70363
ath	-9.70374
▁今倽	-9.70374
些亿什五	-9.70394
仅亃	-9.70414
佧	-9.70432
偷	-9.7044
仌亗	-9.70502
▁亪伄亙	-9.70533
▁侹	-9.70628
▁仝俐事	-9.70713
▁价亭亹亩予	-9.70755
▁亓些亿亚	-9.70759
▁付众	-9.70762
▁亪伄伮亊亝了于	-9.70765
亅伺	-9.70771
了事	-9.70779
▁償	-9.7083
▁伇云亟亇	-9.70877
02	-9.70947
56	-9.70991
▁予仄佃	-9.71034
亶亪亇	-9.71053
京亭侵	-9.7109
亅亪亙	-9.71098
伮侀	-9.71121
▁亓人仡	-9.7115
▁亞伤亹亥	-9.71165
▁倠	-9.71294
佃仠	-9.71297
▁仍倨仌亳	-9.71315
sh	-9.7134
▁亓亘伦	-9.71382
儓	-9.71464
58	-9.71509
▁保亟	-9.71548
▁侫亟	-9.71733
仁伺	-9.7176
▁交亃	-9.71807
偍	-9.7181
▁二仛亣仕俥伺	-9.71938
▁佃仌亭	-9.71969
▁侫亳	-9.71986
▁侍仟	-9.72028
▁仈伀	-9.72062
▁仫仄亇	-9.72064
vi	-9.72094
▁京仺	-9.72136
▁价伦	-9.72246
▁井伧伺	-9.72271
▁二亰便	-9.72309
▁仦伫五	-9.72318
▁仍伎傒佃	-9.72364
▁仐仺些	-9.72395
▁亓伄亪伄	-9.7243
▁付亳	-9.72441
▁亂亨亟会些亇	-9.72532
劧	-9.72586
▁井傤亥	-9.72586
▁亓交仄亇	-9.72617
▁二佪仏	-9.72642
▁亴仺些	-9.72797
冱	-9.72864
亏亖	-9.72986
▁价亭佛仇伺	-9.73107
交五	-9.73119
▁伕仂	-9.73137
▁二亍些仱亖	-9.73179
▁亓伄伟	-9.73181
仓亭佛	-9.73184
▁亻亗亝亗	-9.73199
今仇于	-9.7325
▁亮亟亾	-9.73256
▁予亩付仌亳	-9.73311
▁仃仄余互	-9.73311
▁云促亐	-9.73368
ti	-9.73387
事仕亇	-9.73492
▁仦予僫	-9.73519
付亚亟亇	-9.73594
予亶	-9.73677
兠	-9.73704
作五	-9.7372
82	-9.73781
▁亷亳	-9.73868
▁仦人	-9.73881
▁仢俰产	-9.73882
▁付仓	-9.73927
▁仫亳	-9.73952
op	-9.73992
▁仉些亳	-9.74077
ap	-9.74088
▁份亃	-9.74098
▁d	-9.74143
▁亣介亹亊亏什亖	-9.74202
52	-9.7423
▁价亟了亇	-9.74256
▁亅亃	-9.74305
仅予令	-9.74313
Y	-9.74324
▁付亊仁事	-9.74397
▁亃亊	-9.7443
仚亭	-9.74431
▁仉偞亟亇	-9.74455
仉亗	-9.74494
▁亅亳亹仆伂	-9.74494
▁亻亾了佶	-9.74495
▁亅亟亸亇	-9.74519
▁亓亳仗仂	-9.74551
印	-9.74551
亅亊	-9.74552
仌介	-9.7464
亊伡仇	-9.74649
冎	-9.74664
▁仍予仱俔	-9.74721
▁伕于俌佥	-9.74742
仡伄	-9.74801
▁予互	-9.75
▁价仹	-9.75032
亅人	-9.75038
▁亓伄亟亹亗	-9.75072
俖亳	-9.7508
▁些亜仉亖	-9.75204
▁二仛亣伡伺	-9.75229
▁侈僧人了亹作伺	-9.75246
▁仉仄亻	-9.75262
▁亞佚伺	-9.75293
偌	-9.75348
▁亓仂会亇	-9.75376
▁亘亟仮予	-9.75418
仱佔	-9.75451
▁佰伇	-9.75475
▁亞亰亝	-9.75637
▁伇亳	-9.75643
亿什亊亇	-9.75718
亏伽	-9.75725
偑	-9.75749
▁侍亜	-9.75785
佊	-9.75788
▁佂什伧亗	-9.75842
▁亪伄亨仏于	-9.75864
仌仇伺	-9.75915
刞	-9.75921
▁亃佱仄	-9.75938
伫亟	-9.7594
▁伇亾仅仇	-9.75965
66	-9.75998
▁些亜些亘亙	-9.76026
亶亖	-9.76171
▁价亹亪亣	-9.76196
▁侺会仡亜	-9.76209
▁仮亃仌亖	-9.76231
▁些亚亟	-9.76416
余人亇	-9.76422
▁仨佋亚	-9.76451
亹亗仇伺	-9.76622
侻亐	-9.76661
仏于	-9.76706
兒于	-9.76742
▁亓伦	-9.76832
交了	-9.76842
57	-9.76864
▁剛	-9.76885
▁二人了	-9.76929
亚亟	-9.76975
亅人仌	-9.7698
伧亊亇	-9.77014
▁2017	-9.77067
▁仵优傹事	-9.77078
亽亟了	-9.77109
▁仉仆佉亻仏于	-9.77188
▁傴	-9.77252
佃仜	-9.77312
侫些亳伺	-9.77325
▁亂仂些伺	-9.77374
倆	-9.77417
▁价倖了	-9.77439
89	-9.77464
▁亃予些	-9.77498
▁价僐	-9.77519
03	-9.77633
▁侫些	-9.77675
▁仁亃仇	-9.77688
▁亴亏仆	-9.77754
▁佳亭	-9.77779
▁予些仯	-9.77795
43	-9.77805
68	-9.77904
佤亳	-9.77916
▁1999	-9.77959
▁亪仉	-9.77987
保	-9.78047
伧互	-9.78082
▁仍予亾五	-9.78158
亳亴	-9.78158
▁价亭便	-9.78159
200	-9.78268
75	-9.7829
▁份亶伩	-9.78306
▁仍予伺	-9.78308
▁亮亾于亇	-9.78325
▁佂仺	-9.7833
▁亂亭予五	-9.78377
▁些亶予	-9.78423
▁仃亝	-9.78486
伡仇	-9.78536
▁价亳倐	-9.78544
▁亓以了	-9.78605
亹人亝亹亗	-9.78647
▁任侔亇	-9.78664
72	-9.78666
▁井仺伮仇亿亐	-9.78681
亿亚仕亇	-9.78705
86	-9.78728
▁予亗亹亗	-9.78755
▁予亭于	-9.78775
▁仦了	-9.78804
▁亷亃亖	-9.78869
冝五	-9.78876
体	-9.78895
傠伺	-9.789
傱仦	-9.78913
▁亃予	-9.78919
▁兼	-9.7892
▁亓享仅仆亇	-9.7896
▁俖伇	-9.7898
仉仄	-9.78984
▁些亳亱伫亖	-9.7903
亊伺	-9.79043
▁仍亊会	-9.79047
▁于些了	-9.79068
俤五	-9.79105
▁亷云	-9.79181
▁亻伄	-9.79232
冹	-9.79253
▁仦倆	-9.79263
▁亅侏伧亖	-9.79287
▁亽亇	-9.79419
傔	-9.79431
亣佴	-9.79468
亦仕亇	-9.79476
▁保俻仯亟	-9.79491
▁亅侫	-9.79502
▁价亟俦	-9.79503
▁佃亳	-9.79543
▁仍享亮仒于	-9.79551
伉亖	-9.79606
▁俖亳亏什亖	-9.79608
▁亴仺予亦	-9.79611
▁任仾产	-9.79623
▁亓亗些倖	-9.7967
冈	-9.7967
▁价亹	-9.79787
▁井亾亟	-9.79797
▁亷事	-9.79855
儅	-9.79865
▁亅亳些	-9.79915
仯仠	-9.79932
偸亾	-9.7994
仦伉仄亇	-9.79964
▁亴伄于	-9.80034
▁付亾	-9.80145
▁二佻仺	-9.80209
▁俖亳亜	-9.80229
▁仧侘	-9.80261
介仠	-9.80354
▁井仄予亇	-9.80371
▁仍亜会俥伺	-9.80412
▁佧人	-9.80434
87	-9.8047
▁仦倖亟	-9.80485
▁云了亚	-9.80511
▁伇侐佛	-9.80515
▁80	-9.80562
76	-9.80585
77	-9.80588
▁仮亸些亿亐	-9.80595
▁亮偷些亾	-9.80629
亱亖	-9.80636
▁亪佅	-9.80639
▁予亊伂亐	-9.80642
▁京亭亝	-9.80655
▁侈伇	-9.80671
仯亊亇	-9.80688
▁亪亊	-9.80701
▁亞仄伂	-9.80711
▁佞人亅人	-9.80748
▁亅亟亍人亝亹人亻亼仇	-9.80799
仅仆仱予	-9.80808
呇	-9.8081
▁亮仺亇	-9.80811
▁伱伀亟	-9.80854
▁仐亡伂	-9.80925
亃仂	-9.80925
▁仉仛亙亳亇	-9.80931
▁些介亟亡	-9.80934
▁(1	-9.80937
▁亓什亝	-9.80961
▁亻仱云仌亖	-9.80983
▁仵人	-9.81014
▁亃仯仅伺	-9.81058
侦仒	-9.81072
▁亂亜仅亃	-9.81139
▁价仆亇	-9.81271
97	-9.81298
▁亴仏	-9.81408
仚亭亐	-9.8146
▁亓亜了亜	-9.81479
亩亰亇	-9.81515
了伽仡	-9.81579
仰	-9.81616
▁井亭今仇	-9.8167
▁亃仇仡	-9.81729
▁予亥介予亐	-9.81748
▁亷佛	-9.81888
▁井伧亾	-9.8189
81	-9.819
84	-9.81945
冄	-9.82025
▁亽什亖	-9.82111
▁亴些亙	-9.82131
▁佂什仅仇于	-9.82146
▁井亭今	-9.82148
亨五	-9.82158
41	-9.82226
▁伇于	-9.82281
▁亽佥	-9.82294
亾亘	-9.82434
侺	-9.82494
▁1996	-9.82511
亘亟	-9.82587
儍	-9.82638
II	-9.82654
▁云亾仅	-9.82687
▁亞亰仌	-9.82721
▁仸伄亟	-9.82724
▁些仼	-9.82732
倽	-9.82775
▁仸仺亻仏于	-9.82785
▁亻仆	-9.82787
man	-9.82833
債	-9.82882
僮	-9.82884
▁亓伨	-9.82913
ni	-9.82925
▁亷僣五	-9.8294
▁32	-9.82977
傸	-9.83067
▁仦倖	-9.83082
偁付	-9.83111
些仞	-9.83155
▁亃亭亇	-9.83216
▁仐仺些亹亗于	-9.83249
▁亓些伫亖	-9.83285
▁亓享亟	-9.83358
▁亓伐亹	-9.83371
▁修俻仯	-9.83379
偒	-9.8344
▁京仺会	-9.835
▁些伎予亐	-9.83556
佋什五	-9.83564
▁呒	-9.83605
二亇	-9.83633
lo	-9.8365
凯	-9.83689
▁位仄	-9.83692
62	-9.83725
▁予亗亊	-9.83741
傌	-9.8375
▁偁付	-9.83822
▁亓使	-9.83832
▁俸仉亟亢	-9.83876
▁仦倌予亐	-9.8388
▁亪做	-9.83882
▁$	-9.83883
94	-9.83886
▁仦亃亳伂	-9.83911
亽亃伺	-9.83957
▁伕伎	-9.83968
me	-9.83996
▁些仄于	-9.84005
亾佦	-9.84018
▁付人	-9.84056
仉作伺	-9.84058
▁w	-9.84238
佌	-9.84396
83	-9.8441
冺	-9.84442
▁亷争亰亇	-9.84462
儃	-9.84476
▁35	-9.84543
▁佰傒	-9.84569
▁伃五	-9.84574
▁今仇	-9.84604
53	-9.84617
▁仉云傣仇	-9.84625
仮仯	-9.84631
▁亃伮	-9.84634
▁仁仿	-9.84653
▁价亡些	-9.84665
63	-9.84667
▁价亟伉	-9.84688
▁予侾亜	-9.84689
ell	-9.84715
▁仍亊仌亟	-9.8475
仓亰亇	-9.84864
了亥	-9.84871
▁1998	-9.84874
▁伱互仉	-9.84879
▁亅伟	-9.84943
▁些亭亻亼仇伺	-9.84966
仌亾	-9.84983
了介	-9.85038
▁二亣亾	-9.85057
▁予亥仮仇	-9.85074
▁亓伐亅些	-9.85129
▁侼倌	-9.85196
▁仧亳俤	-9.85254
▁佖仙人亝	-9.85371
了仉佴	-9.85414
▁仱佔	-9.85467
▁仢伊	-9.8549
▁侲僺亭亐	-9.85518
▁亘亟亇	-9.8558
▁仦伡亰亇	-9.85587
ist	-9.85612
▁佢亜	-9.85621
▁予仓	-9.85688
▁仵亊亾亖	-9.85718
▁仨仓亖	-9.85762
▁井亭今亻	-9.85784
▁井亟亳仌亖	-9.85785
▁伋伔	-9.85802
▁亓仆仉亱仇	-9.85848
▁佂什伧作伺	-9.85887
▁仦仒	-9.85923
▁价亚仰	-9.85951
▁井亅	-9.85975
▁井亩亳亸仮予	-9.85988
侅	-9.86011
69	-9.86063
▁仸亗众	-9.86117
▁些亴	-9.86225
▁伱仿	-9.86262
仉亰产	-9.86262
ph	-9.86318
▁亂仛亘仅予	-9.86373
▁价亟俈亟亖	-9.86399
▁仉側亟	-9.864
▁亪今	-9.8643
▁亓以会	-9.86439
▁亂亡伈	-9.86453
▁予傥众	-9.8646
▁仈仛佉	-9.86525
▁卢	-9.86571
79	-9.86623
伨仆伺	-9.86629
侺伺	-9.86647
93	-9.86703
佼	-9.86709
▁仈亍于	-9.86781
▁亓些亾五	-9.8679
▁些仞了仮予	-9.87094
▁仮佬予	-9.8711
▁仍亜会产仇伺	-9.87178
仑人	-9.872
▁仐亰佃伧	-9.87295
▁亣亭侐	-9.87307
▁伇互	-9.87317
予佀	-9.87326
亏伽仡亇	-9.8734
▁亓亘会	-9.87352
▁云伊亴亟	-9.87424
伕亾	-9.87429
▁伋会	-9.87462
▁亃事仍予亳	-9.8747
創	-9.87488
▁些亭伎	-9.87519
▁份仺亅亗	-9.87529
▁亻享了	-9.87541
假	-9.87552
▁仢俰	-9.87625
伿伺	-9.87626
▁侈僧人	-9.87723
54	-9.87746
61	-9.87814
▁份亊	-9.87885
▁n	-9.87919
云亸	-9.87955
▁仉仆佉	-9.88001
▁亓仺	-9.88054
亻仱	-9.88055
▁仃亚	-9.88122
▁仦亃亾	-9.88159
▁伇亏亇	-9.88179
任产	-9.88195
▁佭亟	-9.88272
▁亞偮伧亖	-9.88331
▁亓亘亙予亐	-9.88386
▁仉亚仅亜	-9.88386
亭仉	-9.8839
▁佂亪	-9.8848
倗	-9.88564
▁亽位	-9.88589
▁亓亜亘	-9.88655
▁亷五	-9.88669
▁井亸俕	-9.88672
▁予亭亙	-9.88682
▁井亭今亪亇	-9.88715
An	-9.88751
▁伎于	-9.88782
亭伵仇	-9.88819
▁亪仾	-9.88868
▁亞伤亹人亇	-9.889
亹争亭佛于	-9.88917
▁亓佥	-9.88919
俨	-9.88983
▁付仱伽云亼	-9.89049
▁份侄伺	-9.89062
▁仧亵众	-9.89084
任伿	-9.8909
仌亭佝伺	-9.89115
▁1989	-9.89236
▁仍予亳仌亖	-9.89251
▁亷仄亏什亖	-9.89298
▁仦仱	-9.89346
▁亓亘伮五	-9.89355
▁亃仉	-9.89369
▁亂亃佁仅仇	-9.89415
35	-9.89488
▁仢仄	-9.8949
▁亞倍仏于	-9.89515
▁亪亜伆仒	-9.89521
▁仸人亃亖	-9.89544
74	-9.89555
侔亇	-9.89586
du	-9.89632
▁仦亻佦	-9.89647
▁予争亊了事	-9.8966
▁亞俀	-9.89662
▁价伔	-9.8967
▁些亰	-9.89681
▁亅亟亍人会亇	-9.89686
▁仍俟	-9.89701
亿伽仡亇	-9.89702
▁亓仂些亭亇	-9.89708
▁任人会	-9.89753
▁价侠	-9.898
亟仓亖	-9.89811
▁仸人亃亱予	-9.89839
▁仉亚仅人	-9.89842
仓亏亇	-9.89855
▁亅仞了	-9.89886
凪	-9.89905
交亊	-9.8994
▁井亟倂事	-9.89971
▁1950	-9.90009
亱仇于	-9.90048
亨亳	-9.90054
▁佂仿	-9.90096
伷	-9.90126
▁予人亘仅仇	-9.9017
▁亪亳	-9.90184
▁俸亜亟亇	-9.90304
▁仉亭便	-9.90435
▁仧亳侈伇亇	-9.90451
▁价佛仜	-9.90453
▁井伩仅仇	-9.90459
▁仐交亊	-9.90483
傟	-9.90501
▁仦伮亾伵	-9.90501
亏亚亢	-9.90528
▁亅亾仮仒	-9.90532
▁侼人	-9.90537
▁200	-9.90589
云予	-9.90641
仧亟	-9.9081
▁仮仐仄亇	-9.90876
▁仦亳侐仌亖	-9.90923
▁仦伡伺	-9.90949
▁佰亳亳亴五	-9.90959
▁价仄仡	-9.91009
僞	-9.91035
偁伲	-9.91037
▁1991	-9.91098
Al	-9.91137
▁亴亏	-9.91198
▁价倖会	-9.91239
▁亃事亘伧亖	-9.91247
亭亐	-9.91258
▁亂佹亜	-9.91262
▁侍亗	-9.91277
▁佢了	-9.91279
▁亴佛仂	-9.91311
▁付偋	-9.91336
▁井亭今仡亇	-9.91355
▁亣亭今	-9.91365
▁付亜亟	-9.91366
伐仡亇	-9.91436
作亖	-9.9151
▁亣仏佛	-9.91569
伵人	-9.91571
▁仦侨侘仓仅	-9.91571
▁今仯亟亖	-9.9158
▁亷些亖	-9.91581
▁予亾	-9.91613
▁亓伄亟亹人亻仏于	-9.91635
71	-9.91705
▁伃亩仇	-9.91765
▁价些五	-9.91782
▁仐仄伂	-9.91848
▁付亣了	-9.91851
▁予倀	-9.91866
▁亽予亹争仇亇	-9.91908
佛亳	-9.9198
亮亭	-9.92016
▁亻亭冊亻亾	-9.92061
▁二亹亜	-9.92077
▁今剅人	-9.92111
了什	-9.92134
▁二僻倿	-9.92139
▁价仱使亟	-9.92153
▁佂什伧亊亹亗	-9.92175
de	-9.92212
▁佰亴	-9.92214
▁亓仏	-9.9225
▁井产亊亨亟	-9.92375
佉亜	-9.92435
伧亟	-9.92468
▁亓亾亟	-9.92558
仌仅	-9.92583
▁于些伉	-9.92771
▁亷伸伟	-9.92789
▁予亊伟	-9.92894
▁亅亜予	-9.92939
亹亃佱仇	-9.9297
▁些亭仮仇	-9.92999
▁亃伥	-9.93075
▁价仿亇	-9.93081
▁亂亡予亐	-9.9311
▁价亝仄	-9.93142
亿伽亐	-9.93257
亏亶仇	-9.9328
▁亴仓	-9.93403
▁佢亾亖	-9.93448
▁价亚亟	-9.93468
咔	-9.9354
▁仈佚仇	-9.93542
俄予	-9.93558
亂享亟	-9.93571
▁任仼亭佛于	-9.93632
ly	-9.93649
▁仐亭今亻仅	-9.93677
73	-9.93685
▁仵亊佉	-9.93778
▁亞伤亹人亻仏于	-9.93783
仅仉五	-9.93816
▁仦亴亾亟仱予	-9.93816
▁亮亭亏亊	-9.93819
▁井亟亳亇	-9.93837
冃	-9.93841
人亃亖	-9.93889
▁价人	-9.93934
刊	-9.93952
予亊	-9.93958
▁亜仱	-9.93984
▁仵亊伉亟	-9.93996
▁亓仓	-9.93996
▁仨事	-9.94018
▁亓享佛	-9.94063
▁仐事仅仇	-9.9419
▁些优付人	-9.94191
▁1994	-9.94214
Q	-9.94228
▁些佛仇伺	-9.94248
亦仠	-9.9431
侌	-9.94319
▁京仺亙	-9.94333
仱予令	-9.94365
▁亓伤伡伺	-9.94408
仌亳亇	-9.94411
▁予亸些	-9.94442
▁些优伧亖	-9.94562
▁亓佛令	-9.9465
▁亓些亐	-9.94653
▁仵事仉亰亇	-9.9466
▁任伿佃	-9.9468
▁井仆	-9.94698
▁二侫	-9.94771
▁井亃伂	-9.94775
▁児	-9.94835
▁仈仓俟仠	-9.94852
▁仦伽仍	-9.94853
▁些仞了	-9.9502
▁仮亷亸仌亖	-9.95044
▁亓予仄	-9.95055
▁价佻	-9.95079
▁亣亭云	-9.9508
▁井亃伂亇	-9.95098
▁亮侻什五	-9.95099
刴	-9.9513
兑	-9.95131
亣介亹亊亇	-9.95134
▁亃伿仂	-9.95135
▁亅伫仕亇	-9.9517
亓仹于	-9.95213
▁亞亟仓	-9.95272
▁亷伉亳仳	-9.95274
▁亓仺佃	-9.95333
▁75	-9.95335
▁价伅仓	-9.95377
▁付亣亙	-9.95388
亿亚仠	-9.95419
侦亟伺	-9.95424
▁佂产	-9.95503
▁仧仏佛些伺	-9.95525
▁佽亥	-9.95536
仺亣	-9.95578
▁亷亴	-9.9559
▁仍侐	-9.95685
▁亅众仅伫亟	-9.95691
▁亮亭亯佁	-9.95705
▁二亍亩亪亇	-9.95739
▁伃亗	-9.95756
亿亶仇	-9.95829
▁亂仯	-9.95834
仄亪	-9.95886
▁予亜仇	-9.95935
亅人会	-9.95974
he	-9.96023
The	-9.96031
ry	-9.96034
▁予亗亹亗于	-9.96037
▁亴亝	-9.96072
▁45	-9.96098
▁仦互	-9.96105
▁亅侌亥	-9.9611
▁住优予什亖	-9.96138
余亊	-9.96163
▁亳伧亖	-9.96184
▁仧亳亃云	-9.96217
▁亓仆伂仡	-9.96235
▁仍亜仌亭佛仇伺	-9.96251
▁价仏伟	-9.96288
▁亪仛云	-9.96301
亰亊五	-9.96335
▁伲于亇	-9.96355
▁伕仄些伺	-9.96357
了亊	-9.96394
▁亃了	-9.96421
▁些介亅亊	-9.96505
▁二仜	-9.96528
▁亞亟亖	-9.96557
亏伽亐	-9.96569
▁仫亃	-9.9657
亹亩亖	-9.96587
判	-9.96603
▁仍亳便	-9.96605
仨	-9.96636
僂	-9.96659
▁亞伾仇伺	-9.9672
▁亩仯亟	-9.96728
傱二	-9.96732
▁亅亪	-9.96742
亻佬亐	-9.96746
▁亻亶	-9.96787
▁亓侾	-9.96811
冤	-9.96816
▁予亵亊	-9.9697
仱倿	-9.9699
▁亘亖	-9.96996
▁任人亝	-9.97006
伨仇于	-9.9701
▁予亥伨人	-9.97123
了亹作伺	-9.97169
儕	-9.97171
▁亓佲	-9.97202
▁任伿亩予	-9.97299
▁仦伉仄亇	-9.97304
伧人	-9.97311
傉	-9.97313
▁亴仏伨仇	-9.97412
亹亣	-9.97434
▁亓伄仉亟	-9.97448
▁予作亟	-9.9748
ip	-9.97481
冉	-9.97527
▁二什亟	-9.97542
亃伡亖	-9.97549
仨亖	-9.97598
▁仐亡佛	-9.9764
今亿亐	-9.97737
▁侫亳亏	-9.97754
▁亩仡亃亖	-9.97785
亿伽	-9.97889
▁仍亅亿亐	-9.97897
▁仦們	-9.97968
仃仄	-9.97968
24	-9.97987
倜	-9.9799
亼于	-9.98092
▁价侅亟	-9.981
▁亃仆亅亣	-9.98221
▁佤亳伺	-9.9823
▁仈争	-9.9825
▁些仓亘	-9.98256
▁井伩伧亖	-9.98311
▁亴今予云	-9.98316
▁亂仛亘仅仇	-9.9832
▁予亸偼人伮五	-9.98328
▁倇亣仅予	-9.98361
▁些仆们	-9.98468
▁井使	-9.98548
▁价于些介	-9.98619
▁价仯	-9.98639
▁仵伎伧亖	-9.98659
▁亃俞伕亾	-9.9868
▁价介	-9.98697
剗	-9.98794
佝亖	-9.98801
▁云亳仧	-9.98806
仱亪亇	-9.98825
伤	-9.98832
▁亓偮	-9.98844
▁亪仺亻亟	-9.98861
▁修俧	-9.98872
▁亻享亝	-9.98903
▁亓众仡	-9.98983
侎	-9.99033
▁仮些亗亏什亖	-9.99037
28	-9.99038
▁倇	-9.99049
▁亩亨	-9.99088
今亴	-9.991
▁亻享亝于	-9.99105
▁亅争亟	-9.99145
▁亮侓	-9.99156
▁佞仭人	-9.99212
劬	-9.99254
▁予亊仙享	-9.99254
▁亅众仅伫	-9.99265
ec	-9.99292
▁侫亝	-9.99336
佡伺	-9.99371
ant	-9.99382
侈些	-9.99475
▁傋	-9.9952
僟	-9.99545
▁亞亜	-9.99559
▁价亹亜	-9.99593
▁1997	-9.99604
▁1992	-9.99614
刡伺	-9.99675
今伇	-9.99745
▁予倀仅亪云亾	-9.99763
▁二于伂亇	-9.99774
▁亴仌介	-9.99793
▁井俋	-9.99797
▁亓亣亅	-9.99819
傰	-9.99836
▁亽云了亖	-9.99837
亹人亻佬伺	-9.99891
▁井亭今亻仏于	-9.99913
▁仍佇	-9.99924
▁佧伄	-9.99926
▁仈伀亖	-9.99976
▁侫伮亳云众亟	-9.99983
▁予亸亨	-9.99988
▁仍亜会	-9.99993
▁侲僺亭	-10
些亜些	-10.0003
偺	-10.0006
▁亣仾了亖	-10.0006
侈伇	-10.0011
▁些仆侑	-10.0013
亰伵仇	-10.002
▁些伎亹人亝	-10.0022
▁仍亊伟	-10.0025
▁仍亊佘	-10.0027
俗	-10.0028
剌	-10.0028
▁侍佃	-10.0035
▁亞俙于	-10.0035
云享佛	-10.0037
伽亊五	-10.004
tic	-10.0049
亏亶	-10.0055
▁仦伧伐亇	-10.0057
▁亅争	-10.0059
▁亻亂	-10.0067
伝亐	-10.0067
45	-10.0086
31	-10.009
▁仐仄亹亳	-10.0094
▁亞亟亱仆伺	-10.0098
▁价亟佉	-10.01
佇仱	-10.01
凸	-10.0101
▁伇云亟仌亖	-10.0105
▁云亵五	-10.0107
仍予伺	-10.0108
▁亞亟仄	-10.0108
▁1995	-10.0108
佮倐伺	-10.0109
▁仮亴	-10.0112
佞	-10.0114
卯	-10.0116
▁二亣伺	-10.0119
▁予亥亹人亝	-10.0121
▁亪人侐亇	-10.0123
▁仢享	-10.0124
▁伲争伧亥	-10.0125
▁云値	-10.0128
▁冸	-10.0139
▁亣亭使仱亹侏	-10.0146
▁侸	-10.0147
▁仵亊了仌亖	-10.0148
▁佤亣	-10.015
▁仮偎	-10.0151
卉	-10.0153
▁侈亜	-10.0157
▁亅争亟仓亖	-10.0158
▁佔偐	-10.0161
▁佧亭	-10.0162
佇亖	-10.0173
俦	-10.0174
▁仦享	-10.0175
倢	-10.0175
▁云仌伧亖	-10.0176
▁仸仺亻佬伺	-10.0176
▁亞亏	-10.0179
亂仂	-10.0182
仗	-10.0183
▁云亳亇	-10.0183
32	-10.0186
▁予僳亊予	-10.019
▁亃交优	-10.0196
▁亂亡伆	-10.0202
▁井亭今仇于	-10.0203
亏亶亪亇	-10.0205
▁90	-10.0205
侇	-10.0207
▁仉亭亦	-10.0215
▁云了仆佃	-10.0218
▁价仇侦亭了	-10.022
▁亞仄仉	-10.0235
▁亓仛亝亇	-10.0235
▁仉亚仉	-10.0242
av	-10.0242
▁价休亭	-10.0243
了仄	-10.0243
▁京亭亚	-10.0244
仧亾	-10.0264
▁侍亟便刷伺	-10.0265
ment	-10.0275
▁仈伀亟亇	-10.028
▁亂于	-10.0288
▁亣亭些傩伺	-10.0295
ide	-10.0295
侵亐	-10.0299
▁二亣偋	-10.0299
ard	-10.0302
亹亣亖	-10.0303
剈	-10.0303
Cl	-10.0307
▁亽侵什亖	-10.0309
▁价伥仡仛	-10.0311
26	-10.0323
▁1984	-10.0331
per	-10.0333
▁仧倖亙	-10.0336
▁予亗亚	-10.0336
剗伺	-10.0343
亹亣佴	-10.0347
▁亪仞	-10.0349
▁井亩亳亸	-10.0351
伧亭仡亇	-10.0352
▁仫偂伺	-10.0352
前	-10.0354
仉做	-10.0363
▁仦仉	-10.0371
▁h	-10.0375
▁价亃侃	-10.0384
▁亷伫	-10.0385
唌	-10.0386
他	-10.0387
▁1947	-10.0391
亽亃五	-10.0397
▁价儐交亟	-10.0401
侷	-10.0401
▁仦亊	-10.0405
▁任仛便	-10.0412
▁价仱側	-10.0412
▁伇侍亃亾	-10.0416
亪伄	-10.0417
29	-10.0417
▁亽仱亟亸	-10.0425
仉仅	-10.043
▁亓仧	-10.0433
▁付亣了亹亗	-10.0438
倳	-10.0439
▁价亊于	-10.044
些亿伽亇	-10.0443
▁修俕	-10.0445
▁些作亳	-10.0445
▁亪伎	-10.0445
▁仦倛伇	-10.0448
享仅	-10.0459
▁些亭亊亇	-10.0462
▁些似仆侈伇	-10.0463
▁亞佺	-10.0464
▁仍予亳仌五	-10.047
▁亅仞亘仅仇	-10.0485
▁亪仭	-10.0486
▁伇亃佤亃	-10.0493
▁伲亾五	-10.0494
▁佖互佮产	-10.0502
qu	-10.051
▁亃予些佋亚	-10.0512
▁&	-10.0513
▁偁亮	-10.0513
48	-10.0516
佮仼亭	-10.0517
ho	-10.0523
仕产仇伺	-10.0527
亹作亰亇	-10.0532
仍予亳	-10.0537
▁伱仿亇	-10.0538
▁仐仿	-10.054
亻亭冊	-10.0541
▁佤僭	-10.0542
▁亅亸亇	-10.0545
▁二人亝	-10.0547
▁仐們亻	-10.0553
▁佂亼	-10.0553
▁亪人侐仌亖	-10.0554
伕仏	-10.0558
▁价仌介亹亊亇	-10.0558
冚伺	-10.0559
▁侈倘	-10.0559
佱仄	-10.0561
▁亪亜伆伄	-10.0563
伨伺	-10.057
低	-10.057
▁侩亨亟	-10.0574
▁33	-10.0574
▁亓伿	-10.0576
▁价亟佉亇	-10.0578
▁价亟俈亟	-10.0578
▁亻倇	-10.0583
37	-10.0585
▁佳亾亟	-10.0586
▁亞亟伸人亻仏于	-10.0588
▁(18	-10.0589
▁些介伧亱仇	-10.06
▁仧以	-10.0608
▁仦前人	-10.0608
▁佖伌人	-10.0609
▁依付倿	-10.061
▁仦伉仄仌亖	-10.0619
人亙	-10.0628
▁亂亭予	-10.0629
▁亽僋些于	-10.0632
▁价侤亡	-10.0632
仄似	-10.0633
伵亃	-10.0639
▁In	-10.0639
▁佞亳	-10.0642
伵云亖	-10.0651
▁2018	-10.0653
兝	-10.0656
▁佢亣亅亣	-10.0657
▁亣亗交亊	-10.0658
III	-10.0659
冫	-10.066
▁伱仒亇	-10.066
36	-10.0664
亾仓亭伟	-10.0669
▁亩伉	-10.0674
亞伤	-10.0688
▁亞倍亼仇	-10.0689
▁亓俜	-10.0692
佇五	-10.0697
▁佭仭伨	-10.07
▁亓仞亻亟	-10.0707
▁仵优亱仆	-10.0709
▁于亚	-10.0711
▁仦事	-10.0717
▁仢俰伿	-10.0717
▁亃交傲	-10.0718
27	-10.0719
▁价仱伇	-10.0722
64	-10.0725
▁亣亭使	-10.0728
▁仧仱傘	-10.073
▁亞亟凄仏	-10.0734
侻亚	-10.0736
▁些仆亭亇	-10.0736
▁亓亘伦仱予	-10.074
▁1993	-10.0748
厷	-10.075
▁今仞	-10.0755
▁1987	-10.0756
47	-10.0757
伧亳	-10.0759
▁价倖佛	-10.0762
▁500	-10.0764
▁亓佛仠	-10.0765
ud	-10.0765
-2	-10.077
▁亪优	-10.077
▁井仌	-10.0776
▁仧仱佇亟	-10.0777
ka	-10.0777
▁亴亝亾	-10.0781
▁价亃亳	-10.0788
▁(2	-10.0788
▁些侢亇	-10.0789
云什	-10.0789
▁仢侐人	-10.0796
倣	-10.0805
▁仧亾争円	-10.0805
▁二人了亹亗	-10.0816
▁付侫	-10.0816
▁井伓亗于	-10.0822
亃仉	-10.0822
▁佢介	-10.0824
亟亱仆伺	-10.0828
俢	-10.0832
▁佭亃亳伇五	-10.084
▁亓伩	-10.0853
▁佂什僤人	-10.0856
ity	-10.0861
ea	-10.0865
偪	-10.0873
▁价僓予	-10.0874
▁于伨亨	-10.0893
任仾	-10.0898
▁价亭亅于	-10.091
▁仫俞仮亪亇	-10.0911
ge	-10.0919
▁亓亯	-10.0921
▁仵亊件	-10.0922
▁伇云亸	-10.0925
▁亩仅伺	-10.0928
▁亃俞	-10.0931
38	-10.0936
▁仵亊侕仅予	-10.0946
ive	-10.0947
▁仦們亇	-10.0951
▁价亭亹亦	-10.0954
▁仮侫	-10.0956
▁仦亻亟些伫	-10.0959
▁仦亣了	-10.0961
俑	-10.0969
▁些仞了亇	-10.0969
伇云	-10.0972
偄	-10.0973
▁亪亡伟	-10.0975
ran	-10.0976
▁井仭亘	-10.0981
▁亃事亙	-10.0984
▁亷仄令	-10.0985
佬亿亐	-10.0988
▁仃亊	-10.0994
▁些亾伥伧亖	-10.0996
唯	-10.0997
▁亅侌人	-10.0997
▁任倐亊	-10.1
伟产于	-10.1002
佼伎	-10.1005
ill	-10.1006
偂伺	-10.1008
仌亭佛	-10.1009
▁价仇亏亐	-10.1011
▁位兺伺	-10.1015
▁仉仆伉亟于	-10.1017
▁些仞亏亹人亇	-10.1023
▁亮仒些伺	-10.1025
▁侲倝亟	-10.1025
侓	-10.1027
▁佖仙人会	-10.1027
伧亭佝伺	-10.1028
▁亷些伜亡	-10.103
ub	-10.1032
▁伇仱伇亾仅予	-10.1041
▁价倃	-10.1043
▁伇亵亣予亐	-10.1043
▁亃事亂亡	-10.1048
亽亥	-10.105
▁亅亾俸亃仂	-10.1054
▁仸争	-10.106
▁仉兙五	-10.1066
伧亭佛于	-10.1076
▁井仄予亶仉亟	-10.1078
▁住优予亐	-10.108
▁亪亡付人	-10.1081
▁亷仉亾	-10.1083
仙亪亣	-10.1085
▁亃仯亝仯	-10.1087
佄亚	-10.1087
偶亭	-10.1088
▁亃凷伺	-10.1095
▁井亭今亨伡伺	-10.1096
▁亓仞亪	-10.1096
亨亼	-10.1097
▁佤亳亿亐	-10.1102
佬予	-10.1102
▁二亻侮	-10.1103
ve	-10.1107
▁1977	-10.1109
▁70	-10.1115
▁佖仙人亻仏于	-10.1122
▁侫争	-10.1124
▁今僉亼仇伺	-10.1125
▁亓亘佇亭佛	-10.1126
▁侫亷亩亳	-10.1127
付人	-10.1136
▁仦伧亳亇	-10.1137
▁些亗仌亖	-10.1141
▁亅亜亙	-10.1145
伲仄	-10.1149
偁佰	-10.1151
▁亃事亘亟予	-10.1155
▁36	-10.1157
了亸	-10.1157
va	-10.1157
▁仧亾仉亖	-10.1159
Z	-10.116
▁仐予仛亇	-10.116
▁伕亣亩予	-10.1161
▁仍亊亝亹亗	-10.1162
▁付俧	-10.1165
▁1988	-10.1168
▁亣亭仮	-10.117
▁儣仉佶	-10.1177
▁俾	-10.118
▁佰仱亴亾亟伺	-10.118
仧亜	-10.1194
▁予伿伄	-10.1197
▁任仛亙	-10.1204
亮亟	-10.1205
▁价偸俞亇	-10.121
▁仐仺仌	-10.121
▁伃仒伺	-10.1218
▁亷伉亳侫	-10.1226
▁些于	-10.1228
▁予些仇亇	-10.123
▁亅倚令	-10.1234
▁仐仂今予	-10.1243
▁免兎	-10.1252
▁佢俞	-10.1254
▁亓俤	-10.1254
伦亖	-10.1255
▁仐事仡	-10.1257
冮	-10.1259
亮仒	-10.1263
▁予亥伨亥	-10.1267
▁亞倍	-10.1272
▁予佛	-10.1273
da	-10.1276
▁予亸亨亊	-10.1279
▁二亼以了	-10.1282
▁予俟	-10.1285
▁云了亶亖	-10.1292
▁亓亳伕	-10.1293
今亳	-10.1294
ess	-10.1298
▁伱亖	-10.13
免	-10.1302
▁二什亣亖	-10.1309
伅仇	-10.1311
▁井伧亾亟亖	-10.1314
倁	-10.1316
佃仅亪亇	-10.1317
剆	-10.1317
▁亓亘伮亖	-10.132
▁井儗	-10.132
▁1986	-10.1324
▁佂什伆伄	-10.133
42	-10.1334
▁亓以了亹人亻亼仇	-10.1335
▁亮亭了	-10.1336
▁偁伲	-10.1339
▁亞亟伌人	-10.1343
仄儯交	-10.1344
前人	-10.1345
余仺	-10.1347
亹人些亣佴	-10.1351
▁佂什伧亗于	-10.1354
▁仮亷亸仌五	-10.1355
▁予亊五	-10.1358
伋	-10.1361
伻	-10.1368
▁伎亹仒	-10.1368
ers	-10.1375
兔	-10.1376
han	-10.1377
▁1971	-10.1382
▁de	-10.1383
▁修伂予亐	-10.1384
▁仢亱予	-10.1389
▁侫佃	-10.139
▁仧亜亝	-10.1393
▁亓倥予亾	-10.1393
▁予亹亖	-10.1398
▁些介亟仺	-10.1398
伮亾伂	-10.14
代	-10.1401
偏	-10.141
▁价仺亣仅予	-10.1417
▁佳亾伂	-10.1422
▁仉亃仮予	-10.1422
▁亓亳伇五	-10.1425
今伇亖	-10.1426
▁亓佻仺	-10.1426
▁交予仠	-10.1433
刕	-10.1435
▁亓伄亂予亹人仌	-10.1439
▁价俽	-10.144
僉	-10.144
▁X	-10.1442
会亡伧亖	-10.1442
▁to	-10.1444
偭伂	-10.1445
▁侺仾	-10.1446
仕产仇	-10.1449
▁仵冹伮亟	-10.1452
亹人亻亼	-10.1457
▁亅亊仌五	-10.1457
▁佞人亅亥	-10.1461
34	-10.1462
佇亭佛	-10.1468
公	-10.1469
儋	-10.1473
▁佂什伆仒	-10.1474
Ar	-10.1479
▁井亃伂亻仏于	-10.1484
▁些亭亻亼于	-10.1486
▁云伿仄亇	-10.1488
▁井以	-10.1492
▁亮争	-10.1492
▁亴了亱仇	-10.1496
▁亓亳亏	-10.1496
▁仵亊们	-10.15
亽亐	-10.15
▁价享亹亗	-10.1503
▁交伎	-10.1503
▁侩僸亭亝	-10.1503
▁亓億	-10.1514
供	-10.152
▁亽僟争	-10.152
▁亃亏仆于	-10.152
▁井亊仓亖	-10.1528
些亚	-10.153
仮亻	-10.1532
▁些仆侂	-10.1532
▁俖亾	-10.1533
ah	-10.1535
▁侫冝	-10.1538
▁仫们些伺	-10.154
▁亅仏佃予亐	-10.1541
▁二仇亹人亻仏于	-10.1553
▁俸亣	-10.1556
▁价仛	-10.1557
▁侍亅	-10.156
▁价亟亰亇	-10.1561
▁亃交仞予仌亖	-10.1575
▁佖仙亊	-10.1575
▁亓亘亟	-10.1576
▁侫亭了	-10.1581
冲	-10.1588
▁仉仂伕亾	-10.1592
侐仄	-10.1593
▁亓伪了亭	-10.1594
倭	-10.1597
▁亅享伞人	-10.1599
59	-10.1601
伮亜	-10.1608
con	-10.1611
兎	-10.1611
▁亅仞佉亜	-10.1614
▁佂亏	-10.1616
ver	-10.1617
▁些介伧亖	-10.1618
▁井亟亳仮仇	-10.1628
估什五	-10.1629
偘五	-10.1633
▁仵亊亏亹亗于	-10.1635
▁仁事伧亖	-10.164
▁仁件亖	-10.1644
Th	-10.1649
僭	-10.1652
▁亅亪亣仅亪亇	-10.1655
▁些仞亏亹人亻仏于	-10.1655
▁亂亃亱仇	-10.1656
▁二亣侯仄	-10.1657
▁亓亘了亹亗	-10.1658
▁凛	-10.1667
▁侍伕亳亇	-10.167
▁价伅仓亟	-10.167
▁侍伕亳	-10.1671
att	-10.1674
▁仉仉仓亟	-10.1683
▁亓些仇于	-10.1684
▁亅亟亍人亝亹亗于	-10.169
▁伇伉仓	-10.1701
▁仦仒事	-10.1707
▁仍佁	-10.1707
▁佳什今予	-10.171
▁亅亳伮	-10.172
▁仧亳亣仐亣	-10.1724
亪仆亇	-10.1732
ical	-10.1734
ew	-10.1735
▁予优伂	-10.1736
▁亻仧	-10.1738
▁佂什伧人	-10.1741
侦亭仮亐	-10.1743
剰	-10.1744
亂亜仕亇	-10.1746
▁侼亜	-10.1748
▁仉仁亳倖	-10.1752
▁些什云伿仄	-10.1752
▁亅亏什	-10.1754
俟亟	-10.1755
▁亻亳	-10.1755
▁亃人了	-10.1758
▁份予仮予	-10.176
▁侈僧人了亹亗	-10.1763
▁亂亵亩予	-10.1766
▁井亭亴亟	-10.177
▁倧仡仉	-10.177
▁二僜	-10.1773
亅些伺	-10.1775
▁价亟亨	-10.1777
亊佉	-10.1779
▁二什亩予	-10.1781
冀	-10.1787
▁亴仏伮	-10.179
▁侈僧人了	-10.1794
仅云亖	-10.1801
▁仈亹佛亇	-10.1804
▁付些	-10.1812
▁亮亟亿亐	-10.1813
▁亪伄亙予亐	-10.1815
伨亦	-10.1819
▁价伵仄	-10.182
▁价亳仼	-10.182
亹亃五	-10.1825
▁仵互	-10.183
▁1978	-10.183
▁伇侂介	-10.1831
亏伽伵仇	-10.1838
▁倧优亟	-10.1841
▁任产亱亇	-10.1844
▁付亳侩予	-10.1849
0%	-10.1853
iv	-10.1858
ara	-10.1859
▁付仓仇	-10.1861
▁仐仺仉	-10.1863
▁些亊亨亖	-10.1864
亏什仓亭伟	-10.1865
▁仧偞亟五	-10.1875
▁亅亃了	-10.1876
▁亃倀	-10.1877
▁于亭亨	-10.1878
伽伵仇	-10.1882
▁佂什亙仏	-10.1883
▁re	-10.1885
ov	-10.1892
▁二亍亃侀	-10.1897
▁亓亣亷亳傠們	-10.1902
云伿仄	-10.1905
▁l	-10.191
▁云予什伺	-10.1911
▁亻亊	-10.1912
▁亪亜伧亭亙	-10.1912
▁Ch	-10.1915
▁St	-10.1918
咓	-10.1919
▁侈今仄亟	-10.1919
▁仉介今予	-10.192
▁亃凷	-10.1926
▁仁仱	-10.1931
▁亃仛仉	-10.1931
▁亮互产于	-10.1931
▁亪亡了	-10.1933
▁亅佋事仠	-10.1937
了僂亾	-10.1938
▁予仾仧亜了亹亗	-10.1941
▁付于亷了	-10.1941
▁云亣伮	-10.1946
▁亴亏傠伺	-10.1947
▁伕亦	-10.1948
▁侩亊	-10.1952
▁价亟仡仇伺	-10.1954
▁亴仌亳	-10.1955
▁仉厅	-10.1957
▁价僐亖	-10.1958
▁1985	-10.1972
▁仸仺亇	-10.1973
▁亞伳仡	-10.1974
33	-10.1976
Ch	-10.1977
仮倿	-10.1981
▁佖伝仇份	-10.1981
侦仺	-10.1988
▁予仙仂	-10.1991
亽亟亻	-10.1992
偁亅	-10.1992
▁1940	-10.1993
▁侬仞	-10.1995
▁仦今亿亐	-10.1995
▁亅亟亍人会亻亼仇	-10.1999
佒	-10.2008
▁亂亜些享	-10.2009
▁予仓伲冉仅	-10.2017
▁京仺倻	-10.2019
▁亅亣伮	-10.2021
▁佤争亖	-10.2021
▁300	-10.2028
伵仄仌亖	-10.2035
卪	-10.2035
▁亞亟伸亥	-10.2035
▁59	-10.2035
44	-10.2039
▁仁侑	-10.2042
▁仝位	-10.2043
▁亅仹些	-10.2052
▁仵偞亟亖	-10.2053
▁佖伝	-10.2053
▁二亍伺	-10.2055
▁1983	-10.206
▁价于伂亇	-10.206
▁亻伄傟些	-10.2062
亘仅亖	-10.2065
▁些俢亡	-10.2066
ex	-10.2068
▁亃俟	-10.2069
▁侺亟	-10.207
▁亅佥	-10.207
sp	-10.2072
▁仍予介	-10.2073
▁1930	-10.2075
▁些介亟仺了	-10.2085
▁予亭仉予亐	-10.2089
兄	-10.2089
▁佰侫亇	-10.2091
▁亷仄予亗仌亖	-10.2096
▁com	-10.2097
▁亣亭今依伺	-10.2098
▁仉仌仅伇	-10.2098
伮冃	-10.2099
▁亓享伟	-10.2103
▁二亍佃	-10.2107
▁亣亭傠伺	-10.2107
侥	-10.2116
▁二亼以了亹人亇	-10.2122
▁仈伀亟仌亖	-10.2131
僆	-10.2132
卺	-10.2143
▁亓促亖	-10.2154
叙	-10.2161
▁仮仒亏亐	-10.2163
些亩亪亇	-10.2166
▁伇亏亷仄	-10.2169
▁予亜亃	-10.2169
亿佀	-10.2173
▁亓亰些	-10.218
佋伽	-10.2181
oc	-10.2184
art	-10.2191
▁亂亨亟仮予	-10.2199
▁47	-10.22
▁仐事亘	-10.2204
▁伇亊佉	-10.2206
▁亻享亨仏于	-10.2207
▁仧亳伕	-10.2214
儐	-10.2216
▁二亣伍	-10.222
▁仵事佰亴	-10.2225
▁佂什亹人会	-10.2227
▁5%	-10.2232
▁他內伧	-10.2234
▁亪佅介人	-10.2234
▁价倖仡亇	-10.2237
to	-10.2238
▁二亾云事	-10.2239
▁价喣伺	-10.2244
▁佖互仠	-10.2244
51	-10.2244
▁价仌介亹亊	-10.2247
▁亷亃仓	-10.2247
▁今儘伈	-10.2248
响	-10.2253
▁亷僣	-10.226
▁二倁	-10.2261
▁云了伽亇	-10.2267
傱亅	-10.2269
▁兼亣	-10.2271
▁予依伺	-10.2271
▁伲于仮仇	-10.2274
▁些亳亱仔	-10.228
▁1967	-10.2289
▁仍亊仡亇	-10.2296
▁价亹亪亣伧亖	-10.2301
▁价亊倗仺	-10.2308
▁伇付	-10.2313
▁价仏佝伺	-10.2315
喖	-10.2317
▁佧伄亂亡	-10.232
▁伕仉伧亟亖	-10.2321
▁佤亃亇	-10.2323
po	-10.2325
▁仉仆了亇	-10.2325
ium	-10.2327
▁仝仞亖	-10.2329
▁亞伤亹作伺	-10.2329
▁仧亜会	-10.233
▁亪亳亖	-10.2331
刱	-10.2335
偧	-10.2336
仱伡伺	-10.2338
ci	-10.234
▁仵亪亣予什亖	-10.234
▁京亭什	-10.2346
▁予偢	-10.2353
▁亞倉仏于	-10.2354
佝亰亇	-10.2357
亭佝伺	-10.2357
亻仏	-10.236
ep	-10.2363
▁亅伧佚伺	-10.2363
▁亪伄伮人亻仏于	-10.2366
▁价億些亗仌五	-10.2372
▁仐仺些仇仌亖	-10.2381
偤	-10.2382
亷什亟俤五	-10.2383
▁44	-10.239
▁亻仞亨亖	-10.2393
▁价仱予亇	-10.2393
▁价亡些五	-10.2401
了亦	-10.2402
亃仆	-10.2407
▁亪伄僤	-10.2407
▁佃亝	-10.2409
▁井产亊亨	-10.2413
凟五	-10.2419
仍予亾	-10.242
▁予亗亸	-10.243
pa	-10.2433
伲亖	-10.2434
▁予些仇	-10.2435
▁仧亳侈伇仌五	-10.2436
▁亓仆仉侀	-10.2438
▁云亣伣人	-10.2439
▁亂亜佛于	-10.2441
▁仐仄亹亪亣	-10.2442
▁亂亜仉亖	-10.2445
▁予亭些亡	-10.2447
▁井亅伇亵亣予伽	-10.2451
▁亅亟仴亥	-10.2456
▁亂亃仓	-10.2461
▁予亊侄伺	-10.2464
倡	-10.2466
▁侍亾伴	-10.2466
▁侺凾	-10.2466
mo	-10.2466
▁亮亟亾亊	-10.2469
▁云众仡	-10.2474
▁佂什些佛于	-10.2474
▁今佉	-10.2479
▁伇亃佤亃亇	-10.2484
▁二仛亝伄伂	-10.2484
▁仦俄伇仂	-10.2484
▁付俹仅仆	-10.2485
仉亟仓亖	-10.2491
▁佳亾亻仏于	-10.2492
▁伲争予亐	-10.2492
▁1972	-10.2492
▁二俽于亇	-10.2498
▁亷仄仐事	-10.2499
▁亓伄仉亝于	-10.2504
▁亅亭仌	-10.2506
▁亅儋	-10.2507
▁亷亸亹人亻亼于	-10.2513
▁34	-10.252
▁份佥	-10.2522
▁伇云佂什	-10.2526
▁亪仛仉五	-10.2527
些仱今伺	-10.2527
亼仇伺	-10.2527
▁亞亟伸人亇	-10.2531
▁仍卐佩	-10.2531
▁亷僜	-10.254
▁伇亵亣仕亇	-10.254
▁伋伝亐	-10.2545
倂	-10.255
▁伕亃	-10.2553
▁价亟亨亟	-10.2556
▁价伆侫仉五	-10.2557
▁仮仐仄仮仇	-10.2557
亯亚亟亇	-10.256
▁仁伍予	-10.256
▁亅偔	-10.2561
ug	-10.2563
▁亩些亳亏亐	-10.2563
▁予亊亘	-10.2563
▁1000	-10.2564
▁仢侐人亝	-10.2565
▁1982	-10.2568
仆亿亐	-10.2575
▁井产亊了	-10.2576
▁亣侫	-10.2582
▁侼亳	-10.2584
▁亃仉侂	-10.259
▁亓伄仰伺	-10.259
▁于亡予什亖	-10.2592
▁仧亾会	-10.2596
▁些仞佉亻仏于	-10.2597
▁云傈仓亟	-10.2597
▁佳俒亖	-10.2597
▁仧亳伦仂	-10.2597
▁仦仄亟亇	-10.2598
hy	-10.2598
▁仦亻佦亾五	-10.2599
▁倱仠	-10.2601
ber	-10.2604
▁亅亪伨倌	-10.2607
▁侍人	-10.2616
▁佽亳亶	-10.2617
▁亻侘	-10.2617
▁佂争	-10.2617
▁佂什亽亥	-10.2621
亅亪亣	-10.2623
▁1969	-10.2624
叽	-10.2626
▁亅亪亣伧五	-10.2632
▁云事佼亊	-10.2632
▁亓伄佛	-10.2633
▁予亸偼人	-10.2634
▁仉兙	-10.2634
▁二仄噎	-10.2635
://	-10.2636
▁亅倚仧	-10.2644
仡亡	-10.2646
▁伇亾仅予	-10.2651
▁亪仒亇	-10.2651
▁仍傒	-10.2656
ik	-10.2663
仭人	-10.2673
仉亗仇	-10.2679
刁	-10.2683
匈	-10.2683
▁云佇亳	-10.2687
▁37	-10.2692
▁仦僌仯	-10.2693
▁任伿仇伺	-10.27
▁1962	-10.27
ru	-10.2701
伨亪亇	-10.2704
▁亴亦	-10.2706
伧亳亇	-10.2712
▁仉仆伉亟	-10.2712
仱今伺	-10.2715
ary	-10.2718
ian	-10.2721
▁交亵伪	-10.2722
▁仐侰仅偛	-10.2722
lu	-10.2728
▁仐伕亸	-10.2731
▁份亣伧亟	-10.2733
伲亼	-10.2736
▁侈仯	-10.274
▁仦伮亾了	-10.2741
亍争	-10.2746
▁仦体仆	-10.2747
凼	-10.275
▁仐仏仌亖	-10.2751
ion	-10.2753
▁1948	-10.2757
▁佽亗	-10.2757
▁亃事仉	-10.2759
伹	-10.276
亭享亟	-10.2767
▁亓伐亙	-10.2771
▁仵亊了亇	-10.2773
500	-10.2776
▁亽人予伽仡	-10.2786
剨	-10.2789
▁价仄些伇	-10.2789
▁亓亘伮	-10.2798
▁仦仾予亶予	-10.2805
▁亻什	-10.2808
▁仉仆亨	-10.2813
▁亓侢	-10.282
▁亃事亘伧亊	-10.2821
▁伕亳	-10.2824
▁亓亳仁亏亇	-10.2825
▁侍优	-10.2831
▁亅亗佘	-10.2834
▁仮伄亟于	-10.2842
仌仏	-10.2845
元	-10.2846
俌人	-10.2846
▁予亭亽亊予	-10.2847
傍亚	-10.2847
亿伽伵仇	-10.2874
▁予伝	-10.2877
▁二仛佛	-10.2878
卖	-10.2886
▁今亜伴仅仆	-10.2896
▁仢俒亖	-10.2896
▁些亊価	-10.2897
▁云侜	-10.2897
伦佇亳	-10.2898
▁任仼亭亨仏于	-10.2903
▁亂亃仄亘伦	-10.2906
▁亃予些佋亐	-10.2912
▁亷亸亹亗	-10.2912
▁侫互傻仞亖	-10.2915
▁唅	-10.2916
了亶予	-10.2917
▁仈亭些仱予	-10.2917
▁亓亾亴	-10.2919
▁刻	-10.2928
傷	-10.2934
▁側仇亩	-10.2935
▁予侚伈	-10.2942
▁佦予	-10.2945
▁二佚伺	-10.2945
亨佬五	-10.2945
了亚仕亇	-10.2951
est	-10.2953
▁亂伫亰亇	-10.2955
mp	-10.2961
▁亅仞似仄	-10.2964
▁仃亜	-10.2965
▁亷什	-10.2967
▁1979	-10.2972
▁仐亟交	-10.2973
▁亓伪亪亂亡	-10.2974
▁于仏仉	-10.2975
▁仨仺	-10.2981
und	-10.2983
像	-10.2984
▁仧亍互	-10.2984
▁亻伄侧	-10.2985
偕仠	-10.2988
▁伇伂	-10.2989
予亶予伂亇	-10.299
▁予亭亃亹人亇	-10.2997
▁仐仺些亹亗	-10.2999
偉	-10.3004
兺	-10.301
ana	-10.3012
▁亞俙亃侀	-10.3018
▁侼亗亏亐	-10.3018
▁亅亟亍人仌亟	-10.3021
伵予伂亇	-10.3024
刣	-10.3033
凵	-10.3034
▁仁俟亟	-10.3037
▁井亊仇亜仅予	-10.3043
亴亏	-10.3049
▁京亭亥	-10.305
▁亣仗	-10.3053
傞	-10.3053
▁价亟仡仍伺	-10.3054
亟享佛	-10.306
侧	-10.3063
▁亴伟	-10.3064
ect	-10.3065
▁任伢	-10.3067
mb	-10.3069
▁予亸仡	-10.3069
▁1952	-10.3072
健	-10.3073
▁亅仞仯	-10.3074
▁亪仞亹	-10.3078
▁仉亾今了	-10.3078
▁仦俙予	-10.3084
仁事	-10.3084
ala	-10.3084
▁亃亜	-10.3085
▁亓以了亹亗	-10.309
▁1975	-10.3092
▁价亭亨佬伺	-10.3098
▁佂佚伺	-10.3103
▁仸亗亘亙	-10.3107
▁井亐	-10.3112
唅	-10.3113
▁亽予亾予	-10.3114
亃亱亖	-10.3114
▁仉伝	-10.3116
付倿	-10.312
▁1976	-10.3121
▁亓俧	-10.3121
▁价仆些亳伇	-10.3123
▁仐亟交了亹作伺	-10.3125
▁亃仯仅予	-10.3125
▁48	-10.3127
pro	-10.3127
▁亅众伧亖	-10.3131
▁亂亃俢亃仓亖	-10.3133
▁佖仱仆仮仇	-10.3133
咳	-10.3133
▁仐亡亟	-10.3137
▁亅亳佛	-10.3155
▁亓亭似俔亟予	-10.3159
▁予事仰伺	-10.3159
▁予亦予亐	-10.316
▁任仼亭亹	-10.3161
▁些仞伉亟于	-10.3162
▁二仯亖	-10.3165
▁予値	-10.3165
▁亓些仂	-10.3168
▁佰仱亴亾亟仱予	-10.3169
▁亞亭	-10.3173
些伫亖	-10.3184
佼亪亣	-10.3185
▁予仄佛	-10.3192
厃	-10.3193
▁仉仄佉予亐	-10.3198
▁仵亊們仼	-10.3203
▁二亍侈	-10.3203
ff	-10.3205
位云亖	-10.3209
▁亞伾亖	-10.321
▁亪亡佛于	-10.3212
▁佧亭伉亟	-10.3215
if	-10.3215
▁亓伄仰	-10.3221
▁亓仂会仄予	-10.3223
出	-10.3224
▁佢仱	-10.3226
▁二仇亱亇	-10.3228
▁亮仏亹亗	-10.323
▁1974	-10.3231
伾	-10.3239
▁亅佋事了仞予仌五	-10.3239
了仞予	-10.3244
CO	-10.3245
亹争亭佛	-10.3247
些亭亻仏于	-10.3249
▁亅嘃	-10.3253
▁亓伵仄仌亖	-10.3254
伨仆仱予	-10.3256
些仱予伂亇	-10.3262
▁些仞了伄仰	-10.3264
▁1956	-10.3273
侱	-10.3274
▁亅亪亣予什亰亇	-10.3274
▁仉刻亟	-10.3275
▁亪仮伺	-10.3278
▁佖仙亥	-10.3284
俏	-10.3284
▁仧佐	-10.3287
▁亞佩予亐	-10.329
儂	-10.3294
仓亭侉	-10.3295
▁价俨事	-10.3295
▁云伧	-10.3298
▁些亴会	-10.3299
▁亮亭仮	-10.3302
▁予亊仓亖	-10.3302
▁亓亘了亹亗于	-10.3303
▁亓以了亹亗于	-10.3303
▁仮仒亹亗于	-10.3315
▁仉今亃	-10.3315
▁仵亪伮	-10.3319
▁仐仞	-10.3319
▁些仞亨亖	-10.332
patti	-10.3324
伅亰亇	-10.3327
▁亃事仍予伺	-10.3329
▁1964	-10.3331
▁亷仄仌侀	-10.3336
▁仐亳佛亳	-10.3337
▁凖	-10.3339
▁伕互伏倿	-10.334
▁51	-10.3342
亸俕	-10.3345
▁井亊亍亜伴	-10.3345
▁仧亍伫	-10.3346
▁The	-10.3347
▁亷兮	-10.3354
亹人些亩亖	-10.3358
▁亃交仞予仌五	-10.3363
佰依仱俔	-10.3366
傱井	-10.3374
▁亂亃亱予	-10.3375
▁亂儂亇	-10.3376
▁偾	-10.3379
▁价倕亭	-10.3385
▁价享仐事	-10.3398
▁任仛	-10.3401
ca	-10.3401
▁亅亏什亙	-10.3402
▁亓亘伦伺	-10.3404
侫些亳	-10.3405
▁亣仏仂	-10.3409
▁伕伎亹亊	-10.3413
▁井仆仉亟亖	-10.3421
▁亮亟仱亖	-10.3422
mi	-10.3427
冦	-10.3427
儎	-10.3428
▁佤亜佦	-10.3428
▁些仞了仮仇	-10.3431
▁予仾仧亜了	-10.3434
▁仉亚仅亊	-10.3438
些侈	-10.3439
▁亓仞侇	-10.3456
▁亂互伎	-10.3459
▁佞人	-10.3459
▁价享伧亱仇	-10.3462
pe	-10.3466
冑	-10.3469
伧亥	-10.3472
▁些亭今	-10.3475
ib	-10.3475
▁亷亳亸仮	-10.3477
▁亮互俥伺	-10.3477
▁亃债俔	-10.3479
▁亴亃侐亳	-10.3479
▁亅冴	-10.348
▁云亻僭	-10.348
▁佞人亅亗	-10.348
▁佳亾仉伅伺	-10.3481
▁亪仮亳	-10.3481
仸伺	-10.3488
ind	-10.3488
僤人	-10.3497
Br	-10.3497
▁亷交亷予云	-10.35
了伽	-10.3507
▁仉些仁伧	-10.351
▁亃仯仍亅	-10.3511
▁伏亅亖	-10.3511
▁任享	-10.3519
▁仦亨亳交	-10.3521
▁亮個	-10.3523
▁仍亊佛于	-10.3531
价佇亟	-10.3535
了仆	-10.3539
▁仧佀	-10.3542
▁伇云仐事	-10.3545
▁京亭亶予	-10.3551
刉	-10.3552
▁井侏	-10.3552
▁亷亸亹亗于	-10.3554
▁亅亜仟	-10.3561
▁价俨仺些仇	-10.3562
▁仍侐亹人亻仏于	-10.3568
▁亂仴予	-10.3573
其	-10.3583
▁亂亵	-10.3591
▁仮仍予仱俔	-10.3594
佋亚仕亇	-10.3594
▁亪伄伮人亻佬伺	-10.3598
▁予仄亙	-10.3599
▁云亊佉	-10.3599
价佇仅	-10.3601
▁亣亊	-10.3602
▁亅亊亏什亖	-10.3604
▁侫亥	-10.3611
▁予亸亨亖	-10.3612
亨享伆	-10.3613
▁亣亭亙	-10.3613
▁佂什伆仺	-10.3618
▁予仉仰伺	-10.3619
▁1965	-10.3625
▁仦仾伱仺亇	-10.3625
▁亂亜亟仉佴	-10.3636
▁仮仺亅人	-10.364
▁亻侰	-10.3644
▁亓伄仉伅伺	-10.3644
▁亃人亙	-10.3645
▁仵亪伨	-10.3645
▁仦予份	-10.3646
▁亅亣亹予	-10.3648
▁价亹侏	-10.365
▁佂亥	-10.3652
▁仍予亭仡	-10.3658
▁仉亊亟	-10.3661
▁仨佋什亖	-10.3664
▁1957	-10.3666
▁些仞亏亹亗	-10.3666
唷	-10.3667
▁仈人了	-10.3668
▁价仞亙	-10.367
仫予亳	-10.3672
▁些什云	-10.3674
交伀	-10.3678
▁仮亸些伺	-10.3681
▁仈优	-10.3685
▁价伥伧亖	-10.3685
▁仉人亣	-10.3687
▁亓你倡	-10.3689
▁仍佚予	-10.3689
些亾伥	-10.3689
佝亿亐	-10.3694
▁佳倀佇亟	-10.3699
yl	-10.3707
▁亓亘佇亭	-10.3717
▁亅亳亹仆仉亖	-10.372
▁亓亭亻亰产	-10.3722
▁亓伄亟亹人亇	-10.3736
▁佭仭伨仉亖	-10.3736
仉伡亖	-10.3739
伵争	-10.3747
▁些佛仇	-10.3748
▁伇云仴人	-10.3752
▁伲冦	-10.3753
▁亮互产仇	-10.3753
▁予仾仧亜亙	-10.3757
▁亃些仺	-10.3757
▁亃佨	-10.3759
▁些仞伉亟	-10.3763
▁亂亜伂仡	-10.3763
▁任佋伅	-10.3763
伄伂	-10.3764
▁佖互云亣	-10.3765
▁佳俑	-10.3767
亯亜	-10.3767
▁亓亭似俔亟予亇	-10.3768
儔	-10.3771
▁亓亰交仯亟	-10.3773
儼	-10.3773
割	-10.3773
▁伲亣亰亇	-10.3774
▁仉介仉亖	-10.3774
▁二亣偦	-10.3774
▁佳债伮亾了	-10.3784
▁亮亭云仆仉亖	-10.3784
▁价仞佛	-10.3785
▁http	-10.3795
ob	-10.3797
▁亃佁伈	-10.3803
▁38	-10.3803
▁亂仛亘	-10.3803
▁亷倎享	-10.3806
▁侈佃亹人亇	-10.3812
▁予仞予仌五	-10.3812
亙侏	-10.3813
▁亞亟亱	-10.3817
▁亓亳亴亟伳亣仕亇	-10.3818
▁亣介亹亊亏亐	-10.3822
▁亣亭俌	-10.3822
些亩予伂亇	-10.3823
▁仐亡份仒	-10.3827
ric	-10.3838
▁佂亹仐事伧亖	-10.384
▁付來	-10.384
傻	-10.3843
▁价伉亱佇	-10.3848
伭	-10.3848
▁京作亴亟亇	-10.3848
侵亚	-10.3851
▁亜介	-10.3852
▁今亏	-10.3853
▁仍亊些亜伴予亐	-10.3854
儜五	-10.3866
▁亂亜伂予亐	-10.3872
▁佰亳亳伇伺	-10.3873
▁价仱使亟亇	-10.3881
▁伕于偸亾	-10.3883
▁亃仅亾了亹亗	-10.3884
仌仏五	-10.3887
▁今仯亟	-10.3889
▁1981	-10.389
▁亃事仍予仱仇	-10.3892
▁仢伝仌亟	-10.3892
age	-10.3892
▁亓僃	-10.3896
▁亃事些仱予伂亇	-10.3896
▁仵仪	-10.3898
▁亓伄亂予仮伡伺	-10.3902
▁仱众	-10.3904
京亭	-10.3906
▁些优伆	-10.3908
tor	-10.3916
▁亮侓伺	-10.3917
仉作亖	-10.3917
儜	-10.3917
▁仉些亾了	-10.3919
▁价些亿什五	-10.3922
伇儋	-10.3922
▁仝仞仓亖	-10.3927
▁亓亘佇亭仡亇	-10.393
▁仦仇佛	-10.3931
侖亥	-10.3933
▁仨仓五	-10.3933
▁亂亜亻仏于	-10.3935
▁今亾亟	-10.3937
亹仞	-10.3938
佮侔亇	-10.3938
▁仐予关	-10.3946
ke	-10.3946
仮互	-10.3948
▁伕亪	-10.395
▁助	-10.3956
刾	-10.3956
▁予优会	-10.3958
▁予亊亝	-10.396
亩倿	-10.3962
▁伕互伏	-10.3963
▁400	-10.3963
▁亃佉	-10.397
▁42	-10.3974
▁侍伧佋亐	-10.3978
▁井亸亳	-10.3985
▁仱伪些	-10.3989
▁1927	-10.3996
卜	-10.4
名	-10.4
▁佂什伧亥	-10.4003
▁仍人仉亖	-10.4008
▁亃佱仓予	-10.4011
▁亓仏了亗亚	-10.4011
▁价仓亭伟	-10.4013
▁亓亣予亾了	-10.4016
▁仢倮事	-10.4019
亹亣伂	-10.4024
▁侳亊	-10.4024
▁价亊亏亐	-10.4029
▁1973	-10.403
交佴	-10.4037
▁劀	-10.4038
▁些侏	-10.404
▁伇于亳亏	-10.4045
伆仒	-10.4052
▁价亟伫亟	-10.4052
▁1968	-10.4053
▁亅亊亪	-10.4057
▁佖仙人会亇	-10.4057
▁侺伿	-10.4062
会产仇伺	-10.4063
▁仧亳亃云伺	-10.4071
▁150	-10.4073
兓	-10.4076
▁伃伡俔	-10.4077
▁亪仛仉亖	-10.4081
亲事	-10.4081
▁仐仺仉亟	-10.4084
▁亃事伮亖	-10.4086
▁亣介了亦	-10.4089
▁付亨伅五	-10.4099
▁亽僋亇	-10.4099
▁仐仄仉亟	-10.4101
亏佀	-10.4105
▁予亩伨仌亳	-10.411
▁佳倀佇仅	-10.411
▁亅亟仴争	-10.4111
▁价亭佛些伺	-10.4116
▁仐予俱予亐	-10.4116
▁仍予亳亏什亖	-10.4118
▁亅亟亍	-10.4119
予佅人	-10.4122
侐亳	-10.413
▁予亗仌亖	-10.4132
▁京亭什五	-10.4132
兆	-10.4132
▁仐亟云	-10.4133
wa	-10.4134
▁予亭于亻亼仇伺	-10.4135
▁亅亟亍人亻亼仇	-10.4135
▁仭云	-10.4137
剅	-10.4143
▁亂亜佛	-10.4153
僁	-10.4154
▁仵亊伍予	-10.4154
ev	-10.4155
▁仉亭侐	-10.4158
佇亭仡亇	-10.4169
▁亅亟众予亐	-10.4179
▁64	-10.418
償	-10.4186
▁井亊倎仄	-10.4187
▁予倗仯	-10.4187
▁信亾	-10.4191
▁Re	-10.4191
偁侳	-10.4194
▁亃事仍予亳亇	-10.4194
CH	-10.4195
▁亓伩伧亖	-10.4197
初	-10.4198
▁亮伫亭佛	-10.4199
▁亣介亹亊仌五	-10.42
俥亿亐	-10.4205
▁亩侖	-10.4207
偣	-10.421
▁亓亣予亾会	-10.4211
▁仐亭今予	-10.4221
▁伇侁	-10.4222
▁二亍些亾五	-10.4229
ga	-10.4229
▁亞亟伸人亝	-10.423
▁侍仆	-10.4232
▁井亅佦予	-10.4232
▁亜仉	-10.424
▁兑	-10.4243
▁价僓予亳亇	-10.4247
灴	-10.4254
▁予佛予	-10.426
▁仄儯交	-10.4263
凅	-10.4265
▁价儆优	-10.4265
▁亴今偃	-10.4266
-18	-10.4269
▁亃交仞亿亐	-10.4276
▁仉側倿	-10.4277
▁亓伄仉了亹亗于	-10.428
▁价亭佛伲于	-10.4282
▁住优伈	-10.4285
▁亣仏伟	-10.4286
▁仧亳億	-10.4287
▁些优亅人	-10.4289
仵亭	-10.4292
▁亓倃	-10.4297
▁价亊倗互产	-10.4299
▁仵亪亣伧五	-10.4306
▁亂倯优	-10.431
剚	-10.431
▁亃事亘伧亱仇	-10.4314
▁亓亣予亅倨	-10.4322
▁二亍于亊五	-10.4327
傆	-10.4333
▁亂于予事	-10.4333
▁亓亣予亾亝	-10.4336
▁仉仆伉	-10.4354
▁亅人任事	-10.4355
冫亾	-10.4356
▁仐亟交了	-10.4356
uth	-10.436
▁1963	-10.4364
▁亅侫亘	-10.4365
亹作亖	-10.4367
▁些事亝仆	-10.4367
▁价俘	-10.4367
▁1920	-10.4369
▁亓些亿亶亖	-10.4372
亹伫	-10.4372
▁井亸侕	-10.4372
▁亂兴	-10.4375
_1	-10.4376
▁佤争	-10.4376
▁些亊亻仞仡	-10.4389
▁仈伀倖	-10.4396
ith	-10.4398
凝	-10.4401
▁仮仏	-10.4408
▁亴些亮亭仮五	-10.4412
▁伇云亟亏什亖	-10.4417
▁云亳亏亐	-10.4418
▁亅亳云	-10.442
▁价些互亐	-10.4424
▁今仯亟亱仆	-10.443
▁倧位予	-10.4431
亮亭仮亐	-10.4436
▁价亱亅	-10.4437
倻佥	-10.4437
儢	-10.4446
▁仧仱云亸	-10.4449
億亐	-10.4456
▁亅享亝	-10.4459
份仼亟	-10.4461
▁亂佹	-10.4464
伨亿亐	-10.4464
伨亡	-10.4468
ie	-10.4469
▁亓亰些仄伺	-10.4469
▁仉亅亳	-10.4472
▁亓伵仄	-10.4475
▁予仞予仌亖	-10.4477
冿	-10.4481
吜	-10.4481
▁偁亅	-10.449
▁仸亜	-10.4492
哧	-10.4492
兺伺	-10.4494
何	-10.4503
▁亂亚	-10.4505
our	-10.4507
▁亓亜亹享仅予	-10.452
▁仍人仐事	-10.4521
▁亅亜云	-10.4531
▁付事些仇	-10.4538
八	-10.4549
▁亂亃俢亃亱予	-10.455
▁价佻佬仇	-10.455
▁亊傒	-10.4552
▁亓伄仰亿亐	-10.4553
▁井亃仉仕亊五	-10.456
倧	-10.4563
▁亮亭云仆伂	-10.4573
▁予亜仇仮仇	-10.4574
▁云亣伮亊	-10.4576
▁亩仼	-10.4578
▁予亣伺	-10.4578
些偞	-10.4579
▁亷亥亻仏于	-10.4581
▁亞亭云仯	-10.4584
伇偠	-10.4586
▁亅亪亣仅仇	-10.4588
▁佖了伺	-10.4588
佩	-10.4595
▁二亣俞亡	-10.4596
▁付亻僙五	-10.4596
▁京亭什亟亖	-10.46
伃亗伺	-10.4602
▁亞亟亱了	-10.461
▁仧佱仄仌亖	-10.4613
▁仦亳俟亝	-10.4615
▁亅亜亹亜仅予	-10.4619
亨亟于	-10.4628
先	-10.4629
佫	-10.463
▁仐依仧	-10.4631
▁云亳伕些优	-10.4634
▁仢俰产亹亗	-10.4637
▁亮亳侐侄伺	-10.4642
▁亅争亟仓亊	-10.4642
▁仮仺亅亗	-10.4646
▁1945	-10.465
儻	-10.4654
伮亳侈伇	-10.4655
傣五	-10.4656
▁仮亽人	-10.4658
▁亞伤亹人亻亼仇	-10.466
son	-10.4664
侞	-10.4665
▁亪仛了亐	-10.4665
▁侍伧仓五	-10.4667
▁仝仌亳	-10.467
▁住优亮亟	-10.4671
▁予介伧亖	-10.4673
亠亡	-10.4677
▁剪	-10.4677
▁价仄偭五	-10.4677
▁亃侐亣	-10.4678
俋	-10.4683
▁亻仞亨佇亟	-10.4689
▁伇侐些	-10.469
▁些伇亣予亐	-10.47
▁亽侵	-10.4701
▁亓仌仅亟	-10.4713
▁二侻亐	-10.4721
呄	-10.4724
▁价佇仱	-10.4728
▁仈于了	-10.4734
倍仏于	-10.4736
▁些仞伉伡伺	-10.4739
▁仵亊侕	-10.4739
▁价亊仮予	-10.4743
侴仏于	-10.4749
▁亃仉偋	-10.4749
▁仉仛伵人	-10.4749
▁佖以	-10.4749
▁二亍些介	-10.4752
▁亓伐云亣了	-10.4756
▁亂亃倱人	-10.4759
▁仵争	-10.4759
傝	-10.476
▁价些亿伽仡	-10.476
兒	-10.4761
▁亂仌介	-10.4763
唻	-10.4771
▁仧亾伟	-10.4771
▁予亭仟	-10.4772
dr	-10.4772
伨亜	-10.4773
▁仧亳亣仐亣会些	-10.4773
▁仫冓	-10.4774
▁任仼亭佝伺	-10.4776
卩	-10.4783
▁伇亃仉亻亃	-10.4783
▁些介仅仇	-10.4783
▁亓亊伉亟	-10.4787
▁伇仌亟	-10.4788
▁价仱予仌	-10.4795
▁仵优亱仆伺	-10.4803
tu	-10.4804
▁亞亟伸亊	-10.4806
▁亞冺	-10.4817
▁二亍亃五	-10.4825
倮事	-10.4825
亟亱仆亿亐	-10.4832
▁井享亟于	-10.4839
▁1954	-10.4839
kk	-10.4844
▁亷伉亳	-10.4846
▁伇亏亳	-10.485
▁伕仉伧五	-10.4854
儑	-10.4854
▁亅伧亾亊	-10.4854
▁佃亸些	-10.4856
▁仮些亗仌亰产	-10.486
仉人亻仏于	-10.486
▁今伇予	-10.4862
▁今以	-10.4864
▁些侂	-10.4864
▁亃事仍予仱予	-10.4866
▁仱亅俬	-10.4866
亿什享伆	-10.4867
▁于仾	-10.4869
▁for	-10.4875
▁些仆从	-10.4875
卑	-10.4878
刪	-10.4878
▁些伇仇	-10.488
▁二伦	-10.4884
NA	-10.489
▁仉亾今仇	-10.489
▁任仿	-10.4892
了亭仉	-10.4892
▁于亭些	-10.4894
▁仦伧亳	-10.4899
偹	-10.4913
▁亻仆侕	-10.4915
▁二亍亣亖	-10.4919
▁仝仞亹亥产于	-10.4924
▁价亭亨亼于	-10.4924
▁仵亊侕仅仇	-10.4935
▁井仺伮仇亭亇	-10.4939
▁价佇亳	-10.4939
▁佖伄	-10.494
▁侈仒	-10.4941
▁予仹亡	-10.4949
▁亻享仅于	-10.495
▁仍亜了	-10.4952
▁亃仅亾亝	-10.4955
▁亻亳予	-10.4957
▁些亊住优	-10.4958
▁交偞亟	-10.4958
儿	-10.4961
▁亅众伈	-10.4962
▁价仄了	-10.4963
▁佰亳佃	-10.4965
▁伇亗亹亜	-10.4972
▁二侫伨仯亟	-10.4973
▁仍人些値	-10.4973
▁亘先	-10.4975
▁亃仾	-10.4977
▁侄伧	-10.498
佼优	-10.4985
▁俖亭	-10.4995
俶	-10.4997
▁予亣亾亟了	-10.4998
▁亓伤	-10.4999
▁仮什伎	-10.5
▁侈今亳	-10.5005
▁付仓亟亖	-10.5006
▁予仉亦予亐	-10.5007
▁份侎仆仱予	-10.5009
▁亣亾伕	-10.5011
▁仵亊亾五	-10.5013
▁仁件	-10.5014
▁亓伉亭伟	-10.5022
▁仦俔仅仆	-10.5027
▁亓亳仁	-10.5031
▁亓仄似亳	-10.5034
▁亴亡伧亖	-10.5043
▁亓亭仉	-10.5044
俠	-10.5058
▁仧亳亣亅仓	-10.5058
▁云仯亃亿亐	-10.5066
▁二內	-10.5072
▁价仱使亟仌五	-10.5075
▁井偧仏	-10.5082
▁井仏仉仇	-10.5082
估什亖	-10.5086
仙人	-10.5088
▁侩伡仉五	-10.5091
▁1966	-10.5093
伯	-10.5094
▁伕亳作亴	-10.5094
▁侲匭	-10.5095
▁亻仞価	-10.5098
▁予仉仰	-10.5102
ton	-10.5108
iya	-10.5109
▁佂什亹人仌	-10.5118
亹争亭亨仏于	-10.5119
▁亃些佬仇	-10.5131
予亶亰亇	-10.5138
刈	-10.5143
▁予人亘仅予	-10.5143
▁些亏	-10.5143
▁偓亣	-10.5154
▁仍享亂亡伧亖	-10.5154
呉	-10.5155
嗀	-10.5155
▁仧亍仒	-10.5155
▁俾亳些	-10.5157
▁亳亴予	-10.5158
▁佢争	-10.5164
▁CH	-10.5166
喣	-10.5167
▁仉仅付亳	-10.5168
▁仐仺仉伡伺	-10.5178
倥	-10.518
▁亷仄仮伡伺	-10.518
▁佳亾亟仉佴	-10.5184
▁亣亭便	-10.5185
ach	-10.519
▁井亾云	-10.52
▁佢仆仮仇	-10.5202
凎	-10.5204
仞侇	-10.5205
▁价些侘	-10.521
▁亓众伵予	-10.5215
▁井亃亟	-10.5216
▁仈亥住亝	-10.5217
▁仧亾凸人	-10.5217
har	-10.5225
副	-10.5228
▁亅亟仴争亖	-10.5229
▁亅仌亾伴	-10.5229
▁予亊伂什五	-10.5234
佐佶	-10.5241
▁侺亳仌亖	-10.5244
▁伇亵亣予伽亇	-10.5248
余亗	-10.5254
▁佂伫予亳仮予	-10.5254
▁亽亥亙仏	-10.5259
仮亻亟	-10.5261
仦些于	-10.5269
▁仧仏伟	-10.5271
▁价亃佱仇	-10.5275
▁亪伄伮亥	-10.5277
▁偲	-10.5279
▁仉云傣予	-10.5291
吭	-10.5291
▁仧仙亪亣伧亖	-10.5291
ord	-10.5299
▁亓些互亐	-10.5304
併	-10.5308
偾	-10.5312
仚亭侵	-10.5313
▁亮侻伽仡	-10.5316
▁亓付亟	-10.5316
▁亃仅亾会	-10.5318
僱	-10.5328
▁仦侻什五	-10.5328
▁价仆亏事	-10.5328
▁仐仺些仇佘	-10.5329
▁侈人	-10.5333
今予伂亇	-10.5334
▁佂什些伟	-10.5336
僙仯	-10.5338
▁亪亡伂	-10.534
▁亃俰事	-10.5341
▁佰亳亳伇	-10.5341
▁亂予些亾	-10.5346
▁亷亳亸伅亖	-10.5351
▁1958	-10.5352
佣	-10.5352
▁云伧亱人于亡	-10.5353
▁亂予亱亟	-10.5354
ish	-10.5356
▁仵亊亏	-10.5362
▁侫仒	-10.5366
▁亽侵伽仡	-10.5367
▁京亭佄亐	-10.5373
▁二亍亦仕亇	-10.5375
▁仫俞亏亐	-10.5378
剜	-10.5378
▁偓伇仮仇	-10.5379
▁予亭亹	-10.5386
▁修俻仇	-10.5391
▁仍云于	-10.5393
▁仦亳众	-10.5393
▁佳亾仉亝	-10.5394
佾	-10.5398
▁予仾仧亜亝	-10.5399
▁1961	-10.54
佉仆亇	-10.5404
亏伽伵予	-10.5406
些俞五	-10.5409
▁二僻	-10.541
▁井产亊亨亟于	-10.5414
▁佖仏仡亡亟	-10.5416
▁予亜亷亳	-10.5416
▁亓亘亻仏于	-10.5419
▁修侂	-10.542
▁亓什会	-10.542
ron	-10.5425
例	-10.5429
凥	-10.5441
▁佂亼于	-10.5448
▁云予伡予	-10.5452
▁亪什侯仄	-10.5454
位仇于	-10.5455
▁云仱仌	-10.5456
▁亓亘伟	-10.5458
▁亓亜亹享伧亱仇	-10.5458
呂	-10.5466
▁京亭侵什五	-10.5466
▁佞从	-10.5467
▁亓些亚	-10.5472
▁仢俰仾	-10.5476
▁亃亳仐事	-10.5478
侮	-10.5479
▁亃事些亿亐	-10.548
▁侫伫仕产	-10.5481
▁伱伀亟于	-10.5489
▁价傓	-10.5494
▁井亭亴仅	-10.5526
剳	-10.553
ial	-10.553
▁云伿仄仌亖	-10.5533
▁仈伀亟仌五	-10.5537
到	-10.5542
ern	-10.5554
▁亣亗佘	-10.5554
gr	-10.5555
僺亭	-10.5555
▁仦仭亨亟	-10.5555
▁亅亻侑	-10.5555
▁1959	-10.5563
▁仍享亮互	-10.5568
▁仢亯亥	-10.5568
▁仮佬	-10.557
亏倞	-10.5573
▁亞亟仙人	-10.5583
▁侫亳伮	-10.5587
▁亓亜亝仆	-10.5595
▁侈亊	-10.5602
▁井亊仓五	-10.5603
亏仆	-10.5604
▁仍亊亨亼仇	-10.5616
AT	-10.5616
str	-10.5618
▁付亊事	-10.5623
▁些亳亱伫	-10.5629
伵俔	-10.5631
▁仐事亟仌亖	-10.5632
儫	-10.5632
▁亓亘伦亳佃	-10.5632
▁1946	-10.5633
▁云亗了仆亙	-10.5645
▁仉亚仅争	-10.5648
▁价亹亊亇	-10.5655
▁亃仅亾伮亖	-10.5656
▁井仭云	-10.5657
▁云了倦伎	-10.5658
▁价亃优亖	-10.5658
▁住优亮亟从	-10.5659
aw	-10.5664
▁任倐亊亹人亻仏于	-10.5664
▁仃仄些伺	-10.567
傿	-10.5671
▁仈互亘	-10.5671
▁仸位于	-10.5671
▁伲亭仡	-10.5674
倓	-10.5683
云亟仮了	-10.5694
▁亅产伅仡	-10.5696
▁今伧亱予	-10.5709
伨了亇	-10.5709
▁亅亟亍人亝亱亇	-10.5715
▁倇亣仅仇	-10.5718
▁佧亭了亜	-10.5722
了侚	-10.5725
▁仍亜亙	-10.5729
▁亓些伇亳	-10.5736
▁亃亭亻仏于	-10.5741
▁仵亪会	-10.5742
▁伕互	-10.5742
▁亓亘了亹亥产于	-10.5742
ence	-10.5742
▁仱傊	-10.5743
佄什五	-10.5746
▁仦亴亾亟亿亐	-10.5746
▁价僛侖亴仅	-10.5748
▁价亟伫	-10.5751
▁仓佦	-10.5759
▁佳佪仞仡	-10.5761
▁亂予俤于	-10.5761
▁1949	-10.5761
▁侳亗伺	-10.5767
▁井仺伮仇仱予伂亇	-10.577
▁亓亳仁亖	-10.5781
ple	-10.5783
任仼亭	-10.579
▁亃仅亾了亹人亻仏于	-10.5795
▁亓俽亦亟	-10.58
▁1951	-10.5807
▁价倕仂	-10.5811
▁亪人侐佘仜	-10.5811
咴	-10.5813
▁仈亹享	-10.5821
吰	-10.5827
▁佞人付人	-10.5827
tra	-10.5838
▁亓亳亴亟仄亘亙	-10.584
▁付卨亾仅	-10.584
傗	-10.584
▁亅仛亙	-10.584
▁侲于今予	-10.584
▁亓优伟	-10.585
亹人些亦	-10.5851
俘	-10.5852
▁仮伫亟亘	-10.5853
▁亅众伕亾佝伺	-10.5858
侊	-10.5861
僲	-10.5865
▁云亷付亳亃	-10.5866
劵	-10.5866
▁亷倫伎	-10.5866
▁仵仛	-10.5866
倍	-10.5866
▁佭佝亇	-10.5867
▁于些了仌亖	-10.587
▁亅亭些仌亖	-10.5871
▁二仛会了亐	-10.5874
伇云亟	-10.5875
▁亓亘亝	-10.5878
▁京亭侷人亇	-10.5879
▁佂侌	-10.5887
▁佢仱仉	-10.5892
▁仮亿优	-10.5892
▁些优付亥	-10.5892
▁嚻	-10.5897
no	-10.5898
▁亅亪亣予伽仡	-10.5902
▁仉亚伂予亚	-10.5902
▁价亭伴	-10.5902
ite	-10.5905
▁二亣伍侂	-10.5908
▁亂亵侘	-10.5912
▁1955	-10.5918
▁亓些亿伽享亟	-10.5919
▁任儅亼仇	-10.5919
▁侼亳仆伂	-10.5921
▁亴佣	-10.5933
▁仸仺亻亼仇伺	-10.5935
▁伲仱亜	-10.5942
▁亩了佘	-10.5947
▁仍偧	-10.5957
▁亴仺佢	-10.5962
▁仁亃予	-10.5963
▁亅佉仯	-10.5964
▁伕依	-10.5967
▁仵亪亣仅亪亇	-10.5969
▁价亟亨伡伺	-10.5969
儌	-10.5972
▁仍亳亴俤	-10.5972
▁侲偞亟	-10.5977
▁侫亭了仮予	-10.5978
剔	-10.5985
▁亞倉亼仇	-10.5985
▁亓侅亟	-10.5985
▁价亭佛亩亖	-10.5991
▁1944	-10.5992
int	-10.5996
▁亃僖仛于	-10.5998
伕佅介人	-10.5998
▁交估仄	-10.5998
▁1939	-10.5999
▁仐予儉	-10.5999
▁京亭佄亚	-10.6002
[	-10.6002
伧亍亜	-10.6005
▁仦伽亘	-10.6012
▁亓亣予亾仡亇	-10.6013
▁佽侵	-10.6013
▁仵优亠亡	-10.6014
▁予亭便	-10.602
▁仧债什亖	-10.6025
▁井亅佦亻	-10.6025
▁些优亝亊	-10.6026
▁伱优	-10.6028
▁仉做仉亖	-10.603
*	-10.6038
仡仮仺	-10.6038
▁亅众仅互	-10.6038
▁份亚伧亖	-10.6039
▁价亊仌侀	-10.6044
▁亮仺亻仏于	-10.6046
▁侺亨	-10.6058
▁仦亳侐仮仇	-10.6061
党	-10.6065
咵	-10.6065
了亶亖	-10.6065
▁伲偋価亟	-10.6065
▁价仏伉	-10.6073
嗇	-10.6079
▁側伨仯亟	-10.6079
佹	-10.6079
▁井亊事	-10.608
伧伀	-10.6082
剱	-10.6092
回	-10.6092
▁价亟亱于	-10.6092
▁仃傒	-10.6092
▁佖伫	-10.61
▁任亾仅	-10.6103
▁亅仌亳	-10.6112
▁仧仆伂	-10.6115
偙	-10.612
争亭佛	-10.6125
▁亃仄亏什亖	-10.6127
▁仦亅会	-10.613
▁仦倛伇侖仒	-10.6132
▁伕仛	-10.6134
▁亅亳伂	-10.6145
▁任冃	-10.6145
ight	-10.6146
▁予仩伺	-10.6146
▁仈伮人	-10.6147
仌亍亜	-10.6148
▁亓亻仄	-10.6152
▁仦企予	-10.616
▁予些事	-10.6163
▁予個	-10.6171
▁亪伄僤亥	-10.6179
▁亅元予亚	-10.6183
▁仉亅会	-10.6183
▁予亭会了亚	-10.6192
▁亪人侐仌仇	-10.62
劇	-10.62
▁佭佝些于	-10.62
▁仧位亾	-10.6202
▁仉介伂	-10.6203
▁亓以亹伺	-10.6206
▁井亭今仡亻仏于	-10.6209
▁仧仏伮	-10.621
▁他予僼	-10.6214
▁价亊亏亚	-10.6228
▁仮仍予亳	-10.6234
仵亊	-10.6236
▁任人伅伺	-10.6237
▁付們亣	-10.6241
▁伇佇亙	-10.6243
▁亷亻亃	-10.6247
▁侬囇伪亇	-10.6255
亃交僴人	-10.626
▁佃伅伺	-10.6264
▁亘価亖	-10.6268
▁仮仩予	-10.6269
▁亅佛亟	-10.6278
▁交亵仛亝	-10.6282
及	-10.6282
▁些亳亱仩	-10.6282
仅伫	-10.6295
僷	-10.6296
▁亂予云于	-10.6296
亃交冋	-10.6298
亭佝亰亇	-10.6302
▁伕亾佛	-10.6309
▁佳傳侀	-10.631
▁仢俰倐伺	-10.631
▁价伉亱佇亖	-10.631
▁亴亰佃	-10.631
▁亓亭亻	-10.6312
▁亃亳些亾伥	-10.6314
▁亮亭侐亪亣	-10.6323
▁今俱	-10.6326
傃	-10.6329
▁仮仐仄亏什亖	-10.633
亷僣	-10.6332
In	-10.6333
▁仈什亹亊	-10.6334
▁仦侨侘仓亟	-10.6337
▁亮侻伽亇	-10.6337
ox	-10.6343
侵什亖	-10.635
咣	-10.6351
▁亓以了亹人	-10.6364
吘	-10.6365
喋	-10.6365
▁仈亭伉倖佛	-10.6369
▁僵伀	-10.6369
▁仁侐亖	-10.638
▁些佇亭	-10.6387
gen	-10.639
▁亪做倿	-10.639
▁价仇亝些	-10.6392
▁亓予仒	-10.6393
▁价亭伮亊	-10.6394
end	-10.6396
▁亣亭俟亟	-10.64
▁井伧亾仞	-10.6405
▁佐争	-10.6406
▁价亟仒亹亗	-10.6415
▁于亍	-10.6427
▁亅亟伐产	-10.6434
▁亓什仡亇	-10.6435
▁亅亟亍人亝亹亥	-10.644
咕	-10.6448
▁价亟亱亃	-10.6448
位亪亇	-10.6458
▁云亣仟	-10.6462
▁井亸佃	-10.6463
▁些仓亘仅仇	-10.6469
▁伎仅仆	-10.6469
▁佳债伮亾伵	-10.6476
刍	-10.6476
伨亚亟亇	-10.6476
▁些亗仌五	-10.6478
傻仞	-10.6483
僄	-10.649
▁交亪亣仅予	-10.649
IS	-10.6504
▁亅亴仧仠	-10.6504
▁佖侈伐亇	-10.6504
仡伄使	-10.6505
▁侍伧仓亖	-10.6507
▁付仱争	-10.6508
估伽亇	-10.6511
▁亅亣值作亇	-10.6518
▁仧亾伅仯仅	-10.6518
▁亷亙亾亘	-10.6518
佼亪亙	-10.6518
▁仉亚仅亜伡伺	-10.6519
伨仆亿亐	-10.6535
▁亞伤亱亇	-10.6543
▁1953	-10.6543
企	-10.6546
冶	-10.6546
哖	-10.6546
▁仸人亃亱仇	-10.6546
亯了亇	-10.6549
仸亊	-10.6553
咃	-10.656
▁亓享佛于	-10.6568
佲	-10.6569
▁仱云亽亃伕亳亇	-10.6574
▁亓仺些享	-10.6574
▁亓仆佤人	-10.6574
▁他介僤亳亖	-10.6574
佋亶予	-10.6575
▁佡农	-10.6578
▁京亭伽	-10.6584
▁仵事伂	-10.6602
圡	-10.6602
▁亃佱仄仌亖	-10.6608
咩	-10.6617
▁仢仙亳伮	-10.6617
act	-10.6629
▁京于云了亐	-10.6631
▁侼亗亏亚	-10.6632
▁仉亃仮仇	-10.6632
▁亓伄亟亹人亻佬伺	-10.6634
▁云儝	-10.6635
▁亞伳	-10.6638
udi	-10.6646
僇	-10.6648
偁亮	-10.6649
▁京亭亝仮仇	-10.6652
▁1936	-10.6654
▁伇伃亅	-10.6657
剷	-10.6659
▁亓仂佘仕亇	-10.666
▁些伟产于	-10.666
▁今僆	-10.6662
ja	-10.6673
▁价仆亘	-10.6673
▁些亊仢侀	-10.6673
▁二人伅伺	-10.6674
▁佳亾伟	-10.6686
▁价亳仁亟仇	-10.6688
▁亞亟伸亗	-10.6688
▁井介仅亊	-10.6689
▁仵亪亣伧亰亇	-10.6691
▁仍享亮仺	-10.6692
▁佤亴	-10.6696
▁些亰今仇	-10.6701
傄	-10.6702
▁些佺仍	-10.6702
▁仉冩仳	-10.6702
▁伇佛來	-10.6702
▁仃仄亂亇	-10.6704
▁任侔	-10.671
▁仸仏亱亇	-10.671
▁亮亭亯佁仅仇	-10.6713
▁井亭今亻亼仇	-10.6714
余位于	-10.6716
▁佡交伧五	-10.6722
▁二什亘	-10.6738
▁俍偞	-10.6739
▁仉仆伉伡伺	-10.674
云仯亃	-10.674
侙介	-10.674
偁伕	-10.6758
▁些亴亨亼仇伺	-10.6761
▁亷仄亹亪亣伧亖	-10.6761
▁亅人亻仏于	-10.6771
▁亮仺亻亼仇	-10.6771
▁京儒	-10.6774
▁伋佛仮仇	-10.678
▁亽人予什亰亇	-10.678
▁伲亼些伫亖	-10.6788
▁些仺亘	-10.6789
▁仮仒亏亚	-10.6798
▁伏傍亐	-10.6798
ome	-10.68
▁伇亳仡	-10.6802
偡	-10.6803
▁亓亷亃交	-10.6803
▁亅亜伅伺	-10.6808
ral	-10.6816
僓	-10.6816
▁亣亭伦偠伧五	-10.6817
亃凹亐	-10.6818
▁些亜些亘了亹亗	-10.6822
兩	-10.6831
▁仫交亙	-10.6832
▁亅倚	-10.6839
▁亪依	-10.6844
der	-10.6845
亟亹五	-10.685
▁予介佦亳	-10.6861
▁予享伮亜	-10.6862
▁亃仅仱	-10.6872
匮	-10.6875
▁側仇亽亟予	-10.6875
▁二佴予亶予	-10.6879
▁些伧互	-10.688
卮	-10.689
▁1942	-10.6898
▁亘仝伺	-10.6904
▁保俞五	-10.6904
▁仈什亅亳伨	-10.6905
▁仦佬亇	-10.6908
▁井亭今予	-10.6912
▁井仌亳	-10.6921
▁仢伌俹	-10.6933
▁亪侐侍亸亇	-10.6948
▁亓兛亖	-10.6948
▁京伄仅仆	-10.6949
▁亅仞亘	-10.6958
▁伕侖	-10.696
倴	-10.696
傩	-10.6963
▁仢仙亳亙	-10.6963
▁井亸今予	-10.6966
▁1937	-10.6972
伧亭亨佬伺	-10.6975
▁亓些亩亳	-10.6975
▁二偁令	-10.6976
▁价云亟云事	-10.6977
▁交佹亗	-10.6977
▁仉亾伂介	-10.6977
亨佚伺	-10.6978
▁井亊侖	-10.6989
▁伲偋	-10.6991
▁云了什享伆	-10.6992
www	-10.6992
▁亅仞佉亜伧仇	-10.6994
▁仦体仆亿亐	-10.6997
儃亐	-10.6998
▁亓伄亂予亹人亝亹亗于	-10.7
▁予伿伄佛	-10.7003
lan	-10.7003
▁些亭些于	-10.7006
▁仵优伜亡	-10.7007
cy	-10.7007
adi	-10.7008
▁二仴	-10.7009
▁亃亊佃	-10.7012
▁亷仄予亗	-10.7013
▁亻享亨亼仇	-10.7015
▁伋倰	-10.7017
伧兒于	-10.702
▁亅伧仿	-10.7024
▁亞伄伂	-10.7028
▁仃佚	-10.7035
亪仮伺	-10.7038
▁任人仡亇	-10.7039
▁仦亻佦亭仡	-10.7041
仅亻亟	-10.7043
▁仵亊亏亹亗	-10.7051
▁付亊佋什	-10.7064
▁井亭亪	-10.7065
▁些介亟仺了亹亗	-10.7066
▁仐儇伧	-10.7066
南	-10.7066
▁侈伧事	-10.7081
▁仐仄了亾	-10.7082
▁价享伆仅仇	-10.7083
▁侺仼	-10.7084
亹争亭佛仇	-10.7084
▁二仛使	-10.7087
sion	-10.7096
传	-10.711
▁亓亘亻亼仇	-10.7116
咮	-10.7125
▁仉僊仇	-10.7125
▁仧亾了亹亥产于	-10.7127
▁云亱仅	-10.713
▁仃仄亃仇	-10.7133
偁偠	-10.7138
咖	-10.714
▁亅亳亹仆佃	-10.714
▁价倕亊	-10.7142
▁亪仞倾予伽仡	-10.7149
▁侍仉仓亖	-10.715
ism	-10.7153
▁价亃伐享亟	-10.7159
▁佂什仅亻	-10.7164
▁亷俯	-10.7166
僵	-10.717
▁价享伵仄	-10.7177
予什伡亖	-10.718
▁仵亊伉仇伺	-10.7184
▁亂侞	-10.7197
僗	-10.72
兿	-10.72
▁今了什	-10.7211
參	-10.7215
垒	-10.7215
侻什亖	-10.7216
▁仐予偙	-10.7217
▁亃儒	-10.7217
mon	-10.7229
傢	-10.723
则	-10.723
▁仁亪亅亜	-10.723
▁仐亼	-10.7235
▁侩亳亘	-10.7237
▁亂仯些伺	-10.7238
冨	-10.7245
▁亃亳伂亝仆	-10.7246
▁仢俑	-10.7247
▁任仼亭亨亼仇	-10.7248
▁俖亳佘	-10.7251
▁亴亦伂	-10.7252
亪傝	-10.7255
▁仉亭仌	-10.726
▁亅亟亍人	-10.726
劘	-10.7261
▁价仞伟	-10.7263
ong	-10.7264
仡人侐	-10.7277
▁云伊亴仅仉亖	-10.7286
▁伇交兪	-10.7291
▁亓什伅伺	-10.7292
▁亷伪亇	-10.7292
▁些亴仡亇	-10.7294
▁亩亟予	-10.7294
▁亓仆仉亊	-10.7296
▁仦仌侘仓仅	-10.7306
伇亗云亼亢	-10.7307
予什亊亇	-10.7307
仕亊伐亇	-10.7311
吏	-10.7321
冻	-10.7321
▁价俌伧仓五	-10.7321
▁亂亜佂人	-10.7321
▁仄伿五	-10.7322
▁仧倾亟	-10.7322
▁价亹亊佘	-10.7322
▁亃些佬予	-10.7323
▁侩伡仉亖	-10.7332
嗥	-10.7336
▁份亶値	-10.7336
▁井予佛	-10.7338
▁云亾仅亦	-10.7338
亹人会亻仏于	-10.7343
#	-10.7352
▁仝佬些什	-10.7352
厒	-10.7352
吡	-10.7352
▁价喣亾五	-10.7352
剏	-10.7353
▁亂亜伅伺	-10.7356
▁侍仉佛	-10.736
▁仐侰亴亱伟	-10.7367
▁价仱云亽亃伕亳亇	-10.7367
▁亂亳侌	-10.7367
▁付侄争	-10.7367
▁亓亘仉亊亇	-10.7367
亹人些亩予	-10.7369
tri	-10.7369
仮众了	-10.7379
冔	-10.7382
傳	-10.7382
劚	-10.7382
▁价亟但仇	-10.7382
▁今仯事	-10.7384
▁亘亩仇	-10.739
▁些仆侕亟享	-10.7393
仌兒于	-10.7393
log	-10.7395
▁二亻兛	-10.7398
▁亓來众	-10.7398
▁仦予儁	-10.7399
亿什亊交亭伟	-10.74
100	-10.7407
▁亅享伞人亙	-10.7409
▁予冔伇五	-10.7413
傀	-10.7413
▁亞亟亱仆仱予	-10.7414
侭	-10.7415
▁伲倁	-10.7417
▁亪伄伮人亻亼仇	-10.7418
▁亓倥亷亳	-10.7428
▁仉亣亂亡	-10.7434
▁佖于亇	-10.744
了伽亊五	-10.7441
儖	-10.7444
ous	-10.7447
▁仉伇亟	-10.7452
▁伇云何亭亃	-10.7459
▁井亟俧	-10.746
俲	-10.7461
▁井亅伇亵亣	-10.7467
ies	-10.7468
▁任倐人	-10.7469
凡	-10.7474
伏倿	-10.7482
▁亮仏亹人亇	-10.7483
亞伾	-10.7497
▁亓佉产	-10.7499
▁些优些亪	-10.7504
▁仉僊仯	-10.7505
▁些亳便	-10.7516
哛	-10.7521
▁仍人亝亳	-10.7537
▁亓交侜	-10.7537
▁亩云介	-10.7538
▁亅亸佘	-10.7539
佮人	-10.7547
▁亂侞伄	-10.7549
▁些亭亊亏伽仡	-10.7552
侗	-10.7552
亹位云亖	-10.7556
▁伲亣亟	-10.7556
▁井倐仡	-10.7558
IV	-10.7565
嗩	-10.7568
嗬	-10.7568
▁井养些	-10.7568
▁云佇亾	-10.7569
▁佢伿亷仄	-10.7576
击	-10.7583
ture	-10.7585
僠	-10.7599
▁仉云停	-10.7599
偎	-10.7603
▁伇傝	-10.762
▁仧僃仏	-10.7629
▁价亊倗亟	-10.763
▁仐亅佛仂	-10.7646
▁亷卯亟亇	-10.7646
▁伕仏了众	-10.7646
▁侍侎争	-10.7646
▁亃交冪仞	-10.7662
▁些仓仕仺仌	-10.7662
▁亂伄亟亜	-10.7662
▁亃仯会些仮仇	-10.7662
▁伱亼	-10.7662
▁佂什亹人亝	-10.7664
亹人会亃亖	-10.7664
亹人些亃侀	-10.7668
▁1941	-10.7674
品	-10.7677
▁側伨五	-10.7678
▁亂债亖	-10.7678
▁仝亹伺	-10.7679
▁付仱亥	-10.7681
▁价亊亏伽仡	-10.7683
▁佳什今仇	-10.7688
▁予亹佋亐	-10.7688
冠	-10.7693
▁价仏伴	-10.7693
▁亂倀事伧亖	-10.7695
▁亅人伴	-10.7705
偱	-10.7709
▁些亚亪位	-10.7709
▁伎仉亊	-10.7718
▁仉偞	-10.7721
俵	-10.7724
▁些事亟亘亙	-10.7725
ham	-10.7729
▁佖仙人仌亟于	-10.7735
仚亭侵亐	-10.7737
啕	-10.7741
▁亂于亪	-10.7744
▁任人了亹亗	-10.775
▁二佲仆伂	-10.7756
▁俲伇令	-10.7757
▁亴仯仮	-10.7758
▁亪伄伮亥俥伺	-10.7758
▁京亵	-10.776
俀	-10.776
▁仦們仄	-10.7763
▁价亊亏什亰亇	-10.7766
▁1934	-10.7766
▁仦伎仅亖	-10.7773
▁价亡使	-10.7781
SO	-10.7782
▁仫交了	-10.7784
▁仍亊仌伡伺	-10.7784
俅	-10.7788
▁价億些亗仌亖	-10.7788
噩	-10.7788
▁价亹亊仌亖	-10.7789
▁二什亘仅仇	-10.7797
▁佭仭伨仉	-10.78
僦	-10.7804
▁亅亜亹伄伂	-10.7804
▁亓亳亴亟仓亖	-10.7806
価仙	-10.7807
▁伋佴	-10.7809
▁亓亰些仄仱	-10.7811
▁今僴亐	-10.782
務	-10.782
冗	-10.782
叢	-10.782
▁予亊俄亳	-10.782
▁仦亃亳今予	-10.7821
▁仮亸些亿伽仡	-10.7836
▁仉仐佦予	-10.7836
厳	-10.7836
▁亷僥伺	-10.7836
▁于偞亟仮予	-10.7836
▁亃亪佛	-10.7839
份亰	-10.784
▁亅嘃亿亐	-10.784
▁伋伝亚	-10.7855
▁佖仙亊亱亇	-10.786
▁仸亥仏伂	-10.7868
▁偠亳些伺	-10.7868
▁亓亳伥	-10.7871
▁亩云亃	-10.7872
▁1938	-10.7878
▁仦促俖亟伺	-10.7884
▁亅伅仾	-10.7885
▁些伇佛	-10.7885
亠	-10.7896
▁价亭亅亩	-10.7897
▁佖值佚亖	-10.79
刺	-10.79
▁侩仯今伇	-10.79
▁予卑亸	-10.7901
▁伇党予	-10.7901
傱井产	-10.7909
仡伓亗	-10.7911
▁亓仞亻	-10.7912
侽	-10.7913
▁予仾仧亜伅伺	-10.7913
京亭亐	-10.7914
▁价亹仏佃	-10.7933
▁伎仅伽	-10.7934
冓	-10.7938
▁仦亃亳今仆	-10.7949
▁仈会以	-10.7965
▁仉亾些享	-10.7966
OH	-10.7969
▁仸伄仕俥伺	-10.7969
付仼亟	-10.7977
俪	-10.7981
▁伇亳侣仄亟	-10.7981
▁付亜仕俥伺	-10.7984
▁价亭侉	-10.7985
▁仦亳侐亷仄	-10.7989
哥	-10.7998
▁亴仺付佁	-10.7998
▁伱仱亟仮予	-10.7998
▁仸仺亻亼仇	-10.7999
俰	-10.8005
亹人伬于	-10.8012
嘩	-10.8014
▁井亅予亳亸	-10.8014
依亅	-10.8016
▁亪伄伮亊亹人亻仏于	-10.8023
▁些亟亣侀	-10.803
▁伲仡些亳	-10.8034
▁伇亗伇偠	-10.8034
倗亭	-10.8037
▁1943	-10.8043
▁亷亹予	-10.8045
▁亣亭些仇佛伕亳	-10.8047
▁仢侐亗	-10.8047
傪	-10.8063
▁佖伂予倖	-10.8063
▁亷傍伄	-10.8063
▁亪亜云了亐	-10.8063
▁些亸伉	-10.8064
▁仨仩仼	-10.8068
卻	-10.8079
僻	-10.808
▁亳刚	-10.808
亪佅仭	-10.8086
ack	-10.8089
喀	-10.8096
▁亅亊伮亜亙	-10.8096
伝亚	-10.81
▁仐仺些仇伅亖	-10.811
▁侈侕	-10.8117
仍亝亇	-10.8121
▁1935	-10.8125
▁价亳予亴亟	-10.8129
▁佃了亹亗于	-10.8129
场	-10.8145
▁仵亪亣伧仓亭伟	-10.8153
傴	-10.8154
▁亅侠仒	-10.8158
▁修亅予仙	-10.8162
▁仧亾仉仂	-10.8162
▁任仹亹亗仇伺	-10.8164
▁佦今五	-10.8167
▁仦侻伽仡	-10.8178
▁仐仂些予	-10.818
▁1929	-10.8189
▁仉亚京亭	-10.8194
僳	-10.8195
▁二倕亃	-10.8195
▁仉人亂亡	-10.8198
▁仧佱仄	-10.8199
▁二亾京亭亐	-10.8204
▁org	-10.8212
亭仮今伺	-10.8213
800	-10.8216
▁仉亾今予	-10.8216
伞仛	-10.8219
ther	-10.8226
▁仵事伏亨	-10.8228
▁些亻亝	-10.8243
▁亓亝伎亟	-10.8245
▁佂侻仄	-10.8245
▁亅亳些亱仇	-10.8247
▁仦伫亖	-10.8247
偂	-10.8258
喩	-10.8261
喸	-10.8261
▁价亟佉亃仆	-10.8262
▁付伿些	-10.8275
匋	-10.8278
啳	-10.8278
▁侈倘佋什亖	-10.8281
仉人亻亼仇	-10.8286
亓亩些于	-10.8289
▁佰伇亹人亻仏于	-10.829
▁佞人亅作伺	-10.8312
▁亞亟但争	-10.8312
▁予亭亃亹人亻佬伺	-10.8314
^	-10.8328
▁仧亳亲亳	-10.8329
俢亡	-10.8331
▁亩交亳	-10.8333
▁亓亣予亹亜仅仇	-10.8345
▁仮亽争亖	-10.8345
▁亂兓人	-10.8346
▁价仄仌亳	-10.8358
▁价亟冕亟伺	-10.8362
備	-10.8362
▁亪亡佛亅倨	-10.8362
▁予亭亃亹亗于	-10.8366
▁井亭亚	-10.8369
▁云仺云仄侕	-10.8379
啒	-10.8379
▁亅仄佤仇	-10.838
▁任仼亭了	-10.8384
▁亂亟亼	-10.8396
▁予傥俔	-10.8396
傱云互亇	-10.8396
▁佤关	-10.8398
▁仦亻佦亭亊五	-10.8399
▁予亭亃亹人亻亼仇	-10.8409
嘢	-10.8413
▁伃偍亜	-10.8413
▁仐仱予亾	-10.8413
▁份侎仆	-10.8413
▁亴仺佢亳予	-10.8414
▁井亸侑	-10.8422
▁仦亳俟伅伺	-10.8429
ett	-10.8432
▁亃交做	-10.8438
▁50%	-10.8445
▁予亣兄傒	-10.8447
伜	-10.8447
▁予众伇仮仇	-10.8447
▁佖亩些于	-10.8447
▁付亊予伺	-10.847
估伽仡	-10.8473
嘃	-10.8478
▁价亟仡仍仱予	-10.8484
▁佰亾仇	-10.8485
▁佂伩	-10.8495
▁京仺伨	-10.8495
▁云亣伣	-10.8497
▁价亳伧传	-10.8498
▁任仄俟仅	-10.8498
叄	-10.8498
侦互	-10.8501
▁伕亾佝伺	-10.8505
▁亞侶俥伺	-10.8507
▁价伉亭伟	-10.8515
▁予众亃仉亟亱仆	-10.8516
▁付兂	-10.8528
land	-10.8531
▁二侫伨仯仅	-10.8532
▁仦伧亳了亸伵仇	-10.8532
匒	-10.8532
▁亃交凳	-10.8533
▁亩伿些	-10.8536
佬云亖	-10.8545
▁些亴亨佚亿亐	-10.855
▁亽亟了伺	-10.8551
▁亓侫亳	-10.8555
▁予仄些亳	-10.8559
▁价亟仡仍	-10.8567
▁云予伡仇	-10.8572
▁亴亳云	-10.8572
▁二亾京亭	-10.8577
厣	-10.8584
▁亓佲俽于	-10.8584
▁亮具亟	-10.8584
▁亷俔亟什	-10.8584
▁伲仱什	-10.8585
▁予些仇佘	-10.8588
▁伇侉予	-10.8589
侴亼仇	-10.8589
▁仍云仡	-10.8592
亹人亅些	-10.86
▁亮侻亚	-10.8601
▁仧债亖	-10.8602
▁仈仛了	-10.8603
亪仮亾	-10.8608
▁亮偔	-10.8612
嘅	-10.8619
▁仉健亾仅	-10.8619
▁亓俓亃	-10.8619
▁佢仄亻亾	-10.8622
▁价仄仡予亚	-10.8637
▁亃仅亾伨仆伺	-10.864
▁侫今伇	-10.864
▁于今亳	-10.865
傖	-10.8653
▁佃亷亴	-10.8654
Per	-10.8658
亭佝亖	-10.8664
▁1931	-10.8665
▁伲亃仂	-10.8669
▁亞俉些	-10.8672
▁伱伀伡伺	-10.8677
▁佃仌亭佛	-10.8682
▁仁伽亨亟	-10.8688
▁仦侻伽亇	-10.8688
▁亪仒今什	-10.8688
▁予伿伄伟	-10.8693
▁亮併	-10.8699
▁仦仼仓亭伟	-10.87
喉	-10.8706
▁仦佬些于	-10.8706
▁亓予仱亣	-10.8706
▁仉亭亣仂	-10.8706
▁仈伔佛	-10.8706
▁井仄予仆仉亖	-10.8717
▁亮亟亿亚	-10.872
吸	-10.8723
嚁	-10.8723
▁予亥介予亚	-10.8724
▁些佺仇	-10.8726
▁价亟佉亻仏于	-10.8737
休	-10.874
▁佃亪伿	-10.8741
兴	-10.8745
▁二亍伱人	-10.8745
▁井亟倫	-10.8755
▁亓仞亷仇	-10.8758
▁亓伐亅仉	-10.8758
▁亪伄伮亊亹亥产于	-10.8762
▁京伄伧亟	-10.8769
▁侍伧亰仡	-10.8771
▁二佪佬伺	-10.8776
▁仐仅亟	-10.8779
▁仢仆予伒	-10.8793
佮倐	-10.8803
▁佂什伨人	-10.8809
▁亓仧仉亭仌	-10.8811
亨佬亐	-10.8811
▁仧侘亴亖	-10.8811
▁仐仺伂	-10.8813
▁仐侀亇	-10.8817
亽仱亟亸	-10.8826
劫	-10.8829
▁亂亜仅云亖	-10.8834
佄什亖	-10.8836
呴	-10.8846
▁交僋佛	-10.8846
▁亷仙伟	-10.8847
▁佭亃仭	-10.8847
▁享兎	-10.8849
▁侼亾亊	-10.8857
▁京仺仟	-10.8859
呫	-10.8864
▁井亸些予	-10.8866
▁予亭亃亹人亻亼于	-10.8871
喑	-10.8882
▁伲争伧亗	-10.8882
▁亓俖予	-10.8882
▁亓享佝伺	-10.8886
剩	-10.89
▁亓亾亟侄伺	-10.8902
▁予亸亅亣	-10.8906
▁些亻伅伺	-10.8912
亓侲亾了	-10.8934
▁予僳亊亷	-10.8935
册	-10.8935
厗	-10.8935
予伽亨享伆	-10.8937
▁亳卛	-10.8938
van	-10.8947
▁仧冃仅伺	-10.8947
▁仧仱係	-10.8951
▁亓仏似些仄亿亶	-10.8971
▁京仛于伲仡	-10.8971
▁伎伞仛仌	-10.8971
▁予刣人	-10.8971
▁些优亷争	-10.8972
▁亅众仅伫仕俥伺	-10.8973
▁伇仮亣	-10.8973
▁仍亊亨仏于	-10.8976
▁亓以亨亼仇伺	-10.8976
▁倧亣亟	-10.898
▁予伿伄亟亹亗于	-10.8989
▁伇仯亨仞亘	-10.8989
▁些仝仓	-10.899
▁仉侻仄	-10.899
▁亓以了亹人亻佬伺	-10.8993
▁些亟亩仇	-10.8994
凷	-10.8994
▁亻仱云亙仏	-10.8999
▁亓仏仐事亟	-10.9006
▁仐亡份互	-10.9007
垛	-10.9025
▁亓予佃伧亖	-10.9026
▁亓亃亍亜	-10.9028
▁于些伉亟于	-10.9034
ava	-10.9036
另	-10.9043
▁伋僖优	-10.9043
匍	-10.9061
▁亣予僉仏于	-10.9061
佧伄	-10.907
▁二伦亾伴	-10.9079
▁仢亯人	-10.908
▁佞亳亹亃	-10.9085
▁亓什亨仏于	-10.9099
▁井伓人亝	-10.9116
▁亞卯亟侫	-10.9116
▁付亻僙仯	-10.9116
▁亓事些亾伥	-10.9118
▁亓亣亷亳佡們	-10.9134
▁价仱仮亟亸	-10.9134
又	-10.9134
▁亂仙亗	-10.9134
▁井倐亪亇	-10.9142
▁价享亂予	-10.9145
▁佭亃仱前人	-10.9152
▁侫互亹亟亸	-10.9152
吷	-10.9152
▁京仺亝些介	-10.9152
▁亮仗众	-10.9152
▁側侤	-10.9161
▁仃仓伎	-10.9189
▁仸亗亘伮	-10.9191
亞侶	-10.9192
▁亓些亭亊五	-10.9193
冷	-10.9207
▁亃亏伽享亟	-10.9207
▁亩僚伟	-10.9207
仚亭佄	-10.9207
▁仦亃亳佃	-10.9209
▁佳亾仉亨亼仇	-10.9212
▁于冓	-10.9213
▁予些伇	-10.9216
▁云亡仮些亗	-10.9225
▁仉冫亽亃	-10.9226
▁亩云仳	-10.9226
▁价喣亾亖	-10.9244
伇亂仌亳亇	-10.9244
▁伇亳亸享	-10.9245
卽	-10.9262
嗱	-10.9262
些伎伈仜	-10.9266
▁价伥了亭仉	-10.9268
▁1932	-10.9275
▁亅仩仡亡	-10.9281
云亏仄	-10.9281
▁于亾亃	-10.9282
仆仉亱仇	-10.9284
佌位予	-10.9284
▁佰亳亳亴	-10.9286
▁仉仂侰亨	-10.9299
▁亣予債	-10.9299
▁仵亊佉亻仏于	-10.9315
war	-10.9317
吾	-10.9318
▁亓傒仺亝	-10.9318
▁亅伧亼	-10.9323
q	-10.9333
▁予亗亘了	-10.9334
▁井仄予俌仟	-10.9336
▁側伡亣亅亣	-10.9355
傦	-10.9355
▁二佪亼	-10.9356
亂亜仅亃	-10.936
▁井亸偋	-10.9363
亳仌仇亇	-10.9364
划	-10.9374
呾	-10.9374
▁他侢伄	-10.9374
▁仅侃	-10.9376
刌	-10.9392
▁仐仄仍人了	-10.9392
哘	-10.9392
嗻	-10.9392
▁份互亘	-10.9393
▁亻俄伃亗亿亐	-10.9411
哐	-10.9411
▁佖做亇	-10.9412
▁仧亳亷伇	-10.9412
▁仉仆佉亻亼于	-10.9417
▁亪亜伧亭	-10.942
▁二亍些仔	-10.9422
儅亼	-10.9424
佇亭了亱亇	-10.9426
▁价亃凹什亖	-10.943
▁侍于亘	-10.9432
▁伇伃亅仌亟	-10.9433
ance	-10.9441
▁他以今伧	-10.9445
▁二仧侘亟	-10.9449
▁亓些亩仯	-10.9449
▁亃云仡	-10.9449
▁井內亇	-10.945
▁仐伦亟	-10.945
▁亓佚亊	-10.9451
▁予亗亘伮	-10.9452
▁仈伭仿亇	-10.9467
▁仦俄伇予	-10.9467
▁亞亟但亥	-10.9467
ook	-10.9469
▁仍予俕	-10.9481
▁佧亃偌伟	-10.9486
▁仉些亷亳	-10.9487
▁亮亟亾亊亹亗于	-10.9496
▁仐予僉仏于	-10.9505
劢	-10.9505
兡	-10.9505
伕仌亳	-10.9519
倊	-10.9524
凁	-10.9524
仱僲亳	-10.9525
予什亍亜	-10.953
予什伊伆	-10.9531
嗍	-10.9543
▁亴些仱仌亾	-10.9543
▁于些亏	-10.9544
伧亭亨仏于	-10.9547
仐仺些仇	-10.9547
▁仭佔	-10.9556
単	-10.9562
▁亅亾侣云	-10.9562
▁住优亮亟侂	-10.9565
▁Com	-10.9579
▁亴伄亃仆伂	-10.9581
▁儁亜佦	-10.9581
叩	-10.9581
▁仉亾亪位	-10.9581
亿伽伵予	-10.9599
冴	-10.9599
▁亞侒亡	-10.96
▁京于仍仄今亟	-10.96
仚亭亶予	-10.9605
亃交侃	-10.9606
app	-10.9616
John	-10.9619
埫	-10.9619
▁仵僘亭	-10.9619
▁亓亘伨亪亇	-10.9624
▁仧亾仉仇	-10.9628
▁于些亨	-10.9633
▁亪伄伮作伺	-10.9639
▁仦佱人	-10.9639
▁仦亻亟些互仡	-10.9639
▁仐仺会	-10.9639
▁价亟亨仕俥伺	-10.964
▁亓以了亹人亻亼于	-10.9647
俣	-10.9658
▁亓亳俌亸亇	-10.9658
▁佧亻优	-10.9658
▁今亾侫	-10.966
▁仧倇交亟伺	-10.9677
倇亣仅仇	-10.9683
▁价亭亹些	-10.9684
▁予亗亘仟	-10.9696
佨	-10.9697
剛	-10.9702
▁亓伄亂予亹人亝亹亗	-10.9708
▁倧亗伦会	-10.9716
▁伕佅亾	-10.9717
▁二人会佮产	-10.9727
今伵仆	-10.9731
▁亻享了仉佴	-10.9745
}	-10.9754
▁仦仌侘仓亟	-10.9754
▁佂伫予亳仮仇	-10.9754
▁些亳份刀	-10.9774
啰	-10.9774
▁仨佋什	-10.9775
▁仃僉	-10.9781
▁1928	-10.9787
制	-10.9793
劶	-10.9793
▁侲倛俌	-10.9793
ung	-10.9794
▁云亣伣争五	-10.9795
▁仉亭于仍予伺	-10.9799
▁价亟伝众亃	-10.9813
叻	-10.9813
喝	-10.9813
▁亣仇伇亾	-10.9813
卿	-10.9832
▁价僓予亳仌五	-10.9832
▁亴伅佛	-10.9833
▁云亥云伀	-10.9852
双	-10.9852
▁今亍享	-10.9852
▁价亃优五	-10.9852
▁价仄伿五	-10.9852
▁仐亳亱了	-10.9853
▁仦亻佦仱亖	-10.9857
Par	-10.9881
▁仦仼侀	-10.9884
▁亃交僴亥	-10.9891
▁俖俞亡	-10.9891
俐	-10.9891
▁些亟亣伊伆	-10.9891
ood	-10.9903
▁亂仛于亇	-10.9906
儉	-10.9909
冟	-10.9911
厕	-10.9911
倇亣仅予	-10.9924
▁1924	-10.9924
▁二伖交亊仌亖	-10.993
▁仍亊仱側	-10.9937
▁亴仄亹亣亷亳	-10.995
▁价伀亟亘仅亃	-10.995
▁侳亳伉	-10.995
▁予仇亜亟	-10.9962
叭	-10.997
▁仦亻亟些互亊五	-10.997
▁亂亃亱什	-10.997
▁价亃做	-10.9978
农	-10.9985
别	-10.999
▁仮仺付人	-10.9993
▁些亭亻亼	-10.9997
▁1933	-11.0001
叇	-11.001
▁份亚予什亖	-11.001
▁佡佨	-11.0015
仮亾亟俤五	-11.0019
儭	-11.003
▁亪側仱亢	-11.003
▁今僉亼仇	-11.0036
儁	-11.0048
亴伫亃侃	-11.005
▁亓亊佉些伺	-11.005
▁亂仛些亣亰亇	-11.007
▁仍刌享	-11.007
▁仮亮亭亇	-11.007
▁亞俙亃佱予	-11.0076
佮伢	-11.0077
▁亓云侑	-11.0078
▁价亳仌仇	-11.0083
▁亘先仁凅	-11.009
冕	-11.009
▁亓亣侕	-11.01
▁今僋亸予	-11.011
▁仐倹亻	-11.011
▁侰仯亟五	-11.011
▁亓亃伐享亟	-11.0113
▁予亥伨争	-11.0118
ock	-11.0128
▁予僪仯僫	-11.013
▁云亥云伔云亖	-11.013
▁伕伎伧事	-11.013
▁仧亳予亊仇	-11.013
▁亓了亡	-11.0132
▁些优些亪亝于	-11.0133
▁云了亶俔	-11.015
▁亓亭亷亘伧亖	-11.015
僪	-11.015
▁亮亏倞伺	-11.015
▁予些侕	-11.015
亞伤亹亗	-11.0154
▁亓侾云事	-11.0154
兀	-11.017
佋亶亖	-11.0188
▁些亟于仡伓儀伺	-11.019
亻佫五	-11.0191
▁亓亊伉仕产	-11.0191
伮亾仉	-11.02
oph	-11.0211
亝交侃	-11.0211
▁价亭伵于	-11.0212
听	-11.0231
▁亷伳倿	-11.0231
侹	-11.0242
▁亷仄俽亨亖	-11.0251
▁仐仏仮事	-11.0252
▁价亹亊仌五	-11.0252
▁佰于亭	-11.0253
▁些亸了	-11.0256
▁仉人仉了	-11.0263
勚	-11.0272
>	-11.0272
▁份嗒亭	-11.0272
▁价仆些亳亴	-11.0272
▁亮亏倞亭	-11.0272
凶	-11.0292
▁云傞仿	-11.0292
▁仃伀亖	-11.0293
▁仵亊偂伺	-11.0298
▁云亗仌仓亭伟	-11.0301
啁	-11.0313
▁亪亜亟亳亴五	-11.0313
▁仍享亮仏	-11.0313
▁1926	-11.0326
仮亣亾	-11.033
嚿	-11.0333
ology	-11.0334
▁伋伝什	-11.0334
▁仍享亮仺亻亼仇	-11.0339
予伂伿	-11.0343
▁亓倭仼仠	-11.0354
▁仦亃亳些什	-11.0354
吴	-11.0354
刁仛于	-11.0354
▁亓侈份亚	-11.0354
▁仈亜仁	-11.0354
▁些优亷亥	-11.0354
▁亓俸予	-11.0361
佋什亰亇	-11.0363
亹人亻仏	-11.0365
▁佞人亅争亭	-11.0375
▁亷亃仄	-11.0379
囚	-11.0395
▁云亥交伀	-11.0416
National	-11.0416
▁佂什亹享仅予	-11.0416
▁仵亊倴	-11.0419
▁亣亭侍亸云事	-11.0437
俴	-11.0437
処	-11.0437
▁亅亟亏亳	-11.0437
▁亅亪亝伄	-11.0437
▁亅伅亇	-11.0445
堈	-11.0457
▁云亷儔	-11.0461
▁价亃亍亜	-11.0463
侙	-11.0464
价仄偢	-11.0472
▁仈伮人伎伧亖	-11.048
▁亞于了	-11.0484
僖	-11.0499
叚	-11.0499
▁仍亳俟	-11.0501
▁价偳亟	-11.0503
▁亣亮仌亟	-11.052
▁侲佁仅仇	-11.052
▁价亵亂亇	-11.052
儬	-11.0541
▁亓亣亳亜	-11.0541
▁亅享伮亾伂	-11.055
▁付于亷伨仇	-11.0551
▁京亭佄什	-11.0557
嘜	-11.0562
lect	-11.0564
▁亅亟亍人亻亼于	-11.0565
▁亂亃仓仅伺	-11.0567
▁二俽于	-11.0574
▁云亟了	-11.0579
剉	-11.0583
▁亳伧传	-11.0583
▁伕于伮了	-11.0601
▁价仏仡云亣	-11.0604
▁亞亭仮仯亟	-11.0604
▁伇仮亩仇	-11.0604
▁予伿伄佝伺	-11.0609
▁伕仄倗亟	-11.0625
▁予亭侣仐亣	-11.0646
▁侫侾便	-11.0646
▁仧亳亅促	-11.0647
▁仧仏伮亊仮予	-11.0647
▁些亸佉	-11.0647
▁井仺伮仇亿伽	-11.0655
▁亃众伴	-11.0668
▁予佋伅	-11.0668
养	-11.0688
倶	-11.0732
哊	-11.0732
僰	-11.0768
匽	-11.0775
倷	-11.0861
吠	-11.0861
嘭	-11.0861
匉	-11.0883
功	-11.0904
兂	-11.0931
剬	-11.0992
厀	-11.1036
削	-11.108
嘮	-11.108
凄	-11.1102
偐	-11.1122
偨	-11.1147
冁	-11.1147
力	-11.1147
兮	-11.115
偖	-11.1169
兾	-11.1169
劉	-11.1236
儈	-11.1259
偲	-11.1304
净	-11.1327
咛	-11.1327
圵	-11.1327
剪	-11.1373
僥	-11.1464
呶	-11.1464
助	-11.1465
僌	-11.1486
兢	-11.1487
吻	-11.1533
劑	-11.1533
卞	-11.1533
嘉	-11.1556
傇	-11.1556
卍	-11.1579
噏	-11.1579
合	-11.1603
关	-11.1622
儡	-11.1626
坵	-11.1626
呸	-11.165
劅	-11.1673
圇	-11.1673
俊	-11.1697
墿	-11.1697
卐	-11.172
偰	-11.1744
哽	-11.1744
侶	-11.1776
卵	-11.1815
叮	-11.1815
刋	-11.1887
児	-11.1892
坑	-11.1935
冂	-11.1959
卨	-11.1959
偊	-11.1983
偝	-11.1983
吪	-11.1983
劄	-11.2032
咗	-11.2032
嘔	-11.2032
剙	-11.2056
厓	-11.2105
卛	-11.2126
傕	-11.213
傧	-11.213
嚉	-11.213
囩	-11.213
坻	-11.213
呒	-11.2163
刖	-11.2304
卷	-11.2304
喕	-11.2329
叵	-11.2379
凋	-11.2429
&	-11.244
傡	-11.2455
匧	-11.2455
吁	-11.2455
嘽	-11.2455
倯	-11.2506
啸	-11.2506
偩	-11.2531
僎	-11.2608
函	-11.2608
坂	-11.2608
俺	-11.266
垴	-11.266
刜	-11.2686
凾	-11.271
嚂	-11.2738
吖	-11.2738
啹	-11.287
包	-11.2896
冝	-11.2902
儨	-11.2923
傥	-11.2976
剖	-11.2976
危	-11.303
嫧	-11.303
儆	-11.3084
呅	-11.3084
呈	-11.3084
勡	-11.3111
囔	-11.3111
冭	-11.3138
向	-11.3138
{	-11.3193
厤	-11.3193
堳	-11.3193
侟	-11.322
劷	-11.3275
偟	-11.3275
凍	-11.3275
唠	-11.3303
俭	-11.3331
厨	-11.3359
嗉	-11.3359
墼	-11.3359
啪	-11.3386
吔	-11.3414
咝	-11.3414
堩	-11.3442
埄	-11.347
偦	-11.3581
儘	-11.3601
僬	-11.3612
壞	-11.3612
咚	-11.3612
喥	-11.3641
噷	-11.3641
儛	-11.3727
命	-11.3727
$	-11.3752
匆	-11.3756
嗆	-11.3756
堃	-11.3814
媚	-11.3843
嗊	-11.3872
僐	-11.3904
凌	-11.3931
員	-11.402
喙	-11.4049
倏	-11.4079
决	-11.4079
凚	-11.4079
嚑	-11.4109
咂	-11.4109
噄	-11.4109
儠	-11.4109
后	-11.4109
僚	-11.42
咄	-11.42
喿	-11.42
塑	-11.423
嗘	-11.426
僿	-11.4288
僝	-11.4321
劖	-11.4321
可	-11.4321
启	-11.4352
厏	-11.4383
俉	-11.4411
哼	-11.4507
噍	-11.4507
咬	-11.4569
嗎	-11.4601
啐	-11.4632
唂	-11.4632
圆	-11.4664
圔	-11.4664
唉	-11.4696
嚒	-11.4728
嘦	-11.4728
塌	-11.4728
啑	-11.4792
嗴	-11.4792
告	-11.4824
啽	-11.4824
倎	-11.4888
啮	-11.4888
嘈	-11.4888
倝	-11.4905
噻	-11.4921
坪	-11.4953
壍	-11.4953
傶	-11.4986
咁	-11.4986
僼	-11.5019
凗	-11.5019
冊	-11.5051
匝	-11.5052
嚀	-11.5052
入	-11.5085
再	-11.5085
切	-11.5118
問	-11.5118
喓	-11.5118
冧	-11.5184
呬	-11.5185
傤	-11.5218
午	-11.5218
厫	-11.5218
古	-11.5218
奫	-11.5218
審	-11.5218
傹	-11.5251
喊	-11.5252
呲	-11.5252
僑	-11.5285
兟	-11.5285
喺	-11.5285
哌	-11.5353
`	-11.5387
冣	-11.5387
分	-11.5387
唴	-11.5387
卹	-11.5421
厝	-11.5421
俚	-11.5455
俾	-11.5468
厙	-11.549
凴	-11.5524
夓	-11.5559
偻	-11.5663
哢	-11.5663
只	-11.5698
叉	-11.5734
圓	-11.5769
坶	-11.5769
嫊	-11.5769
吊	-11.5804
克	-11.584
嚖	-11.5876
哕	-11.5911
塣	-11.5911
嘬	-11.5947
坠	-11.5947
匑	-11.602
傮	-11.602
妅	-11.602
候	-11.6056
僈	-11.6056
坩	-11.6056
冇	-11.6093
唱	-11.6093
凂	-11.6129
兜	-11.6166
厢	-11.6166
唛	-11.6166
嚎	-11.6166
嬯	-11.6166
僒	-11.6203
儩	-11.6203
况	-11.624
劭	-11.624
嘟	-11.624
劝	-11.624
哄	-11.6314
嘄	-11.6314
埗	-11.6352
兼	-11.6374
兯	-11.6389
咥	-11.6389
坆	-11.639
凔	-11.6427
剕	-11.6465
吙	-11.6503
儦	-11.6541
厄	-11.6541
圎	-11.6541
埪	-11.6541
咷	-11.658
哜	-11.658
哨	-11.658
务	-11.6618
儏	-11.6618
兤	-11.6618
凃	-11.6657
厛	-11.6657
囬	-11.6657
哷	-11.6695
坸	-11.6695
娚	-11.6695
咀	-11.6734
咟	-11.6734
兛	-11.6773
募	-11.6773
妓	-11.6773
堛	-11.6773
垾	-11.6813
堠	-11.6813
咢	-11.6813
堋	-11.6813
吇	-11.6931
单	-11.6931
厚	-11.6931
咶	-11.6931
哠	-11.6931
垓	-11.6931
僊	-11.6971
剄	-11.6971
劙	-11.6971
偶	-11.7004
卲	-11.7051
噔	-11.7051
専	-11.7051
具	-11.7091
別	-11.7092
嗌	-11.7092
姄	-11.7092
凮	-11.7132
即	-11.7132
勝	-11.7132
唀	-11.7132
姜	-11.7132
凢	-11.7173
呁	-11.7173
块	-11.7173
实	-11.7173
\	-11.7213
劺	-11.7213
协	-11.7254
君	-11.7254
壖	-11.7254
剁	-11.7296
劜	-11.7337
剻	-11.7337
囫	-11.7337
儸	-11.7378
啴	-11.7378
凛	-11.7413
僔	-11.742
剓	-11.7462
匇	-11.7504
咨	-11.7546
姩	-11.7546
剐	-11.7589
呮	-11.7589
嗟	-11.7589
埶	-11.7589
塓	-11.7589
夎	-11.7589
叼	-11.7631
呻	-11.7631
垏	-11.7631
佸	-11.7674
劊	-11.7717
嗽	-11.7717
壽	-11.7717
兙	-11.7744
卡	-11.7756
叔	-11.776
呓	-11.776
地	-11.776
发	-11.7803
唁	-11.7803
嗋	-11.7803
坥	-11.7847
堌	-11.7847
冸	-11.7887
哤	-11.7934
婉	-11.7934
倃	-11.7961
厧	-11.8022
呏	-11.8022
嗺	-11.8022
兗	-11.8067
凊	-11.8067
凒	-11.8067
吳	-11.8067
<	-11.8112
嘪	-11.8112
啄	-11.8156
允	-11.8201
圭	-11.8201
冘	-11.8201
口	-11.8247
喗	-11.8247
垫	-11.8247
埀	-11.8247
劯	-11.8292
圂	-11.8292
嘱	-11.8338
墻	-11.8338
凙	-11.8384
吉	-11.8384
刐	-11.8384
儧	-11.8476
垬	-11.8476
垐	-11.8523
在	-11.8569
厁	-11.8569
呑	-11.8569
塜	-11.8569
冽	-11.8616
刮	-11.8616
叺	-11.8616
咠	-11.8616
凫	-11.8616
叨	-11.8663
囎	-11.8663
傲	-11.871
嘖	-11.8711
卭	-11.8758
嗢	-11.8806
儗	-11.8837
哱	-11.8854
噸	-11.8903
卼	-11.8903
典	-11.8909
嘝	-11.8951
圩	-11.8951
囪	-11.9
嫑	-11.9
僺	-11.903
凧	-11.9049
嚨	-11.9049
坃	-11.9049
僢	-11.9098
凿	-11.9098
唞	-11.9148
坚	-11.9148
喾	-11.9148
倮	-11.918
噎	-11.9197
剼	-11.9198
嘕	-11.9198
坨	-11.9247
劸	-11.9248
唫	-11.9248
喧	-11.9248
厅	-11.9282
僘	-11.9298
员	-11.9298
哣	-11.9298
嚴	-11.9298
吢	-11.9348
嗒	-11.9399
奒	-11.9399
凓	-11.9399
劆	-11.9399
塤	-11.9399
尤	-11.9399
俳	-11.945
嗲	-11.945
凳	-11.95
味	-11.9501
商	-11.9501
嗚	-11.9501
埰	-11.9501
変	-11.9501
嗁	-11.9501
匞	-11.9553
囓	-11.9553
嗔	-11.9605
儱	-11.9657
呿	-11.9657
囐	-11.9709
埐	-11.9709
层	-11.9709
儤	-11.9762
嫸	-11.9762
叅	-11.9762
堲	-11.9762
嫈	-11.9762
啇	-11.9815
啧	-11.9815
埞	-11.9868
媩	-11.9868
吨	-11.9921
壳	-11.9975
嘷	-12.0029
坙	-12.0029
哯	-12.0083
囧	-12.0083
幓	-12.0083
劂	-12.0084
厽	-12.0138
嗖	-12.0138
势	-12.0193
半	-12.0193
呰	-12.0193
唜	-12.0193
吆	-12.0248
劌	-12.0248
嗯	-12.0248
奬	-12.0248
嶗	-12.0248
刦	-12.0304
哗	-12.0304
岴	-12.0304
則	-12.036
僨	-12.0416
凉	-12.0416
坔	-12.0416
嘹	-12.0472
堊	-12.0472
傂	-12.0529
召	-12.0529
嗅	-12.0529
奷	-12.0586
呍	-12.0644
因	-12.0644
垣	-12.0644
卟	-12.0644
営	-12.0702
冯	-12.0702
吱	-12.076
妧	-12.076
媵	-12.076
倪	-12.076
嘓	-12.0818
咋	-12.0818
埵	-12.0818
嬇	-12.0818
墫	-12.0877
冖	-12.0877
厮	-12.0877
咞	-12.0936
塛	-12.0936
妆	-12.0936
嫵	-12.0996
嗕	-12.0996
刬	-12.1056
咒	-12.1056
咦	-12.1056
囏	-12.1056
壤	-12.1056
娦	-12.1056
嵳	-12.1056
吣	-12.1116
哇	-12.1116
塡	-12.1116
孜	-12.1116
~	-12.1177
冪	-12.1177
叏	-12.1177
夐	-12.1177
妋	-12.1177
恡	-12.1177
俫	-12.1238
恨	-12.1238
劀	-12.127
埨	-12.1299
咙	-12.1299
唡	-12.1299
嗄	-12.1299
執	-12.1299
媲	-12.1361
剺	-12.1423
呃	-12.1423
号	-12.1423
围	-12.1423
刂	-12.1485
囖	-12.1485
呭	-12.1485
兘	-12.1548
唾	-12.1548
堇	-12.1548
姥	-12.1548
奣	-12.1548
唏	-12.1611
佗	-12.1675
夷	-12.1675
卾	-12.1739
垌	-12.1739
嚾	-12.1804
嗵	-12.1804
嘎	-12.1804
妭	-12.1804
垀	-12.1869
妁	-12.1869
姃	-12.1869
嚻	-12.1909
凲	-12.1934
剭	-12.1934
園	-12.1934
傜	-12.2
周	-12.2
凤	-12.2
囂	-12.2
埊	-12.2
劁	-12.2066
呌	-12.2066
埯	-12.2066
喭	-12.2133
墲	-12.2133
孹	-12.22
嚳	-12.22
崰	-12.22
憊	-12.22
嘑	-12.2267
哸	-12.2267
囨	-12.2267
妲	-12.2267
媆	-12.2267
嚠	-12.2335
傎	-12.2335
冏	-12.2335
刘	-12.2335
唎	-12.2335
壚	-12.2335
壻	-12.2335
多	-12.2335
哦	-12.2404
剂	-12.2404
刃	-12.2473
塆	-12.2542
剹	-12.2683
嗠	-12.2683
噐	-12.2683
唃	-12.2754
噦	-12.2825
准	-12.2825
厸	-12.2825
壟	-12.2825
射	-12.2825
僧	-12.2897
圑	-12.2897
壙	-12.2897
崘	-12.2897
几	-12.2969
叱	-12.2969
夭	-12.2969
叾	-12.2969
咰	-12.2969
喒	-12.2969
怌	-12.3042
敲	-12.3042
啬	-12.3116
悄	-12.319
啋	-12.3265
噌	-12.3265
圮	-12.3265
兖	-12.334
各	-12.334
唗	-12.334
嘌	-12.334
場	-12.334
優	-12.3416
厠	-12.3416
变	-12.3416
嘫	-12.3416
士	-12.3416
帽	-12.3416
吥	-12.3492
塯	-12.3492
好	-12.3492
唊	-12.3492
博	-12.3569
呐	-12.3569
啩	-12.3569
嬠	-12.3569
山	-12.3569
冾	-12.3646
和	-12.3646
嚏	-12.3646
圞	-12.3646
圹	-12.3646
媡	-12.3646
嬧	-12.3646
呎	-12.3724
咭	-12.3724
哳	-12.3803
噑	-12.3803
夋	-12.3803
峦	-12.3803
刏	-12.3883
奙	-12.3883
寧	-12.3883
喁	-12.3883
埭	-12.3883
兌	-12.3963
嘆	-12.3963
坄	-12.3963
塟	-12.3963
倩	-12.4043
嗰	-12.4043
匎	-12.4125
剮	-12.4125
呵	-12.4125
哋	-12.4125
啦	-12.4125
埓	-12.4125
吧	-12.4206
咹	-12.4206
婚	-12.4206
察	-12.4206
寶	-12.4206
叶	-12.4289
咽	-12.4289
唤	-12.4289
塋	-12.4289
吽	-12.4289
刳	-12.4372
全	-12.4372
圣	-12.4372
垻	-12.4372
墒	-12.4372
嫤	-12.4372
廕	-12.4372
圿	-12.4457
堡	-12.4457
呯	-12.4541
啱	-12.4541
垑	-12.4541
堤	-12.4541
兕	-12.4626
燀	-12.4627
唺	-12.4627
堁	-12.4627
媊	-12.4627
孙	-12.4627
嶆	-12.4627
喜	-12.4713
剋	-12.4713
咊	-12.4713
砭	-12.4713
劾	-12.48
嘒	-12.48
噜	-12.48
慨	-12.48
偬	-12.48
垡	-12.48
呕	-12.4888
利	-12.4888
吕	-12.4888
吼	-12.4888
哫	-12.4888
惣	-12.4888
努	-12.4976
囍	-12.4976
坦	-12.4976
壼	-12.4976
撏	-12.4976
傼	-12.5065
呗	-12.5065
哂	-12.5065
嚶	-12.5065
図	-12.5065
圴	-12.5065
垗	-12.5065
愿	-12.5065
嫾	-12.5155
咎	-12.5155
幆	-12.5155
受	-12.5246
哾	-12.5246
坭	-12.5246
堦	-12.5246
叞	-12.5338
哟	-12.5338
圈	-12.5338
囒	-12.5338
儾	-12.542
垵	-12.5431
喤	-12.5431
哉	-12.5431
妈	-12.5431
匏	-12.5524
嘥	-12.5524
團	-12.5524
儺	-12.5524
坾	-12.5524
圕	-12.5619
姟	-12.5619
导	-12.5619
呔	-12.5619
嚔	-12.5619
埘	-12.5619
墄	-12.5619
墱	-12.5619
嫜	-12.5619
岛	-12.5619
媀	-12.5619
堪	-12.5714
仲	-12.5714
匿	-12.5714
喘	-12.5714
噒	-12.5714
媷	-12.5714
嚓	-12.581
劗	-12.581
否	-12.581
喈	-12.581
喦	-12.581
妠	-12.581
哺	-12.581
妵	-12.581
哞	-12.5907
噕	-12.5907
効	-12.5907
嘏	-12.5907
崶	-12.5907
帓	-12.5907
堵	-12.5907
墁	-12.6005
剸	-12.6005
叕	-12.6005
吂	-12.6005
呪	-12.6005
婬	-12.6005
儽	-12.6104
婋	-12.6104
卦	-12.6204
咸	-12.6204
唧	-12.6204
啫	-12.6204
巓	-12.6204
匯	-12.6305
咑	-12.6305
圃	-12.6305
妌	-12.6305
墩	-12.6407
刿	-12.6407
啎	-12.6407
圫	-12.6407
屃	-12.6407
升	-12.651
傑	-12.651
吺	-12.651
嗛	-12.651
埩	-12.651
儮	-12.651
嘀	-12.651
刚	-12.6611
凱	-12.6614
圼	-12.6614
婺	-12.6614
慺	-12.6614
叹	-12.672
哬	-12.672
圖	-12.672
壏	-12.672
寏	-12.672
帥	-12.672
俷	-12.6826
兲	-12.6826
吿	-12.6826
孖	-12.6826
峐	-12.6826
嗞	-12.6826
垠	-12.6826
夌	-12.6826
媟	-12.6826
媢	-12.6826
嫔	-12.6826
峨	-12.6826
坊	-12.6934
劒	-12.6934
匐	-12.6934
厪	-12.6934
喯	-12.6934
僩	-12.6934
内	-12.6934
孌	-12.7042
厥	-12.7042
囑	-12.7042
妽	-12.7042
姛	-12.7042
尛	-12.7042
冋	-12.7137
堬	-12.7152
嚗	-12.7263
@	-12.7263
嘠	-12.7263
尲	-12.7263
價	-12.7263
啂	-12.7263
噀	-12.7263
噰	-12.7263
嚤	-12.7263
埬	-12.7263
堾	-12.7263
嬚	-12.7263
匔	-12.7376
剾	-12.7376
嚍	-12.7376
墌	-12.7376
墾	-12.7376
兊	-12.7376
型	-12.7376
夦	-12.7376
悥	-12.7376
囶	-12.7489
岊	-12.7489
嶻	-12.7489
峠	-12.7489
刀	-12.7604
厲	-12.7604
唋	-12.7604
働	-12.7604
唝	-12.7604
噧	-12.7604
列	-12.772
剝	-12.772
嗈	-12.772
対	-12.772
廃	-12.772
台	-12.772
噃	-12.772
媧	-12.772
岣	-12.772
夔	-12.7838
原	-12.7838
媌	-12.7838
墳	-12.7957
偅	-12.7957
哶	-12.7957
囘	-12.7957
塎	-12.7957
墅	-12.7957
墺	-12.7957
搊	-12.7957
峭	-12.8078
勎	-12.8078
咫	-12.8078
哀	-12.8078
唳	-12.8078
娥	-12.8078
媤	-12.8078
咯	-12.82
嗜	-12.82
均	-12.82
孔	-12.82
嫀	-12.8323
匤	-12.8323
唵	-12.8323
啔	-12.8323
噁	-12.8323
堀	-12.8323
堨	-12.8323
夂	-12.8323
夛	-12.8323
奟	-12.8323
尪	-12.8323
就	-12.8323
帜	-12.8323
抛	-12.8323
揠	-12.8448
劻	-12.8448
咺	-12.8448
唙	-12.8448
域	-12.8448
孊	-12.8448
强	-12.8448
吋	-12.8575
唖	-12.8575
坌	-12.8575
嘾	-12.8575
夏	-12.8575
尰	-12.8575
弎	-12.8575
喚	-12.8575
悈	-12.8575
司	-12.8703
姣	-12.8703
崇	-12.8703
卬	-12.8833
嚩	-12.8833
弋	-12.8833
埙	-12.8833
塮	-12.8833
姶	-12.8833
婿	-12.8833
嫌	-12.8833
喹	-12.8964
婈	-12.8964
孒	-12.8964
叡	-12.8964
啼	-12.8964
坬	-12.8964
塀	-12.8964
刭	-12.9098
勍	-12.9098
嘡	-12.9098
噊	-12.9098
夨	-12.9098
峬	-12.9098
府	-12.9098
吚	-12.9098
嗤	-12.9098
囅	-12.9098
埈	-12.9098
嫮	-12.9098
嵈	-12.9098
巺	-12.9098
帢	-12.9098
峉	-12.9233
劰	-12.9233
噺	-12.9233
垃	-12.9233
姎	-12.9233
刎	-12.9233
嗾	-12.9233
垄	-12.9233
怬	-12.9233
婯	-12.937
兞	-12.937
句	-12.937
堿	-12.937
妛	-12.937
噣	-12.937
埥	-12.937
塳	-12.937
妊	-12.937
庩	-12.937
廡	-12.937
唸	-12.9509
帛	-12.9509
兏	-12.9509
厔	-12.9509
呆	-12.9509
喆	-12.9509
喏	-12.9509
堅	-12.9509
塇	-12.9509
嬙	-12.9509
愬	-12.9509
嗐	-12.9649
劓	-12.9649
吃	-12.9649
哑	-12.9649
囟	-12.9649
堂	-12.9649
墨	-12.9649
徘	-12.9649
声	-12.9792
囙	-12.9792
巠	-12.9792
嘙	-12.9792
嚚	-12.9792
怛	-12.9792
卶	-12.9937
厦	-12.9937
嗶	-12.9937
妉	-12.9937
姏	-12.9937
姐	-12.9937
姲	-12.9937
嵥	-12.9937
厞	-12.9937
堼	-12.9937
彞	-12.9937
墈	-13.0084
匦	-13.0084
媱	-13.0084
吅	-13.0084
嗝	-13.0084
嘿	-13.0084
墑	-13.0084
嫽	-13.0084
嚇	-13.0084
壣	-13.0084
崂	-13.0084
毻	-13.0085
匜	-13.0234
嚷	-13.0234
垮	-13.0234
噹	-13.0234
堯	-13.0234
墹	-13.0234
壛	-13.0234
夊	-13.0234
娓	-13.0234
娕	-13.0234
後	-13.0234
渵	-13.0234
埴	-13.0234
傓	-13.0358
励	-13.0385
勌	-13.0385
娵	-13.0385
廳	-13.0385
唚	-13.0385
娅	-13.0385
愥	-13.0385
恜	-13.0385
卙	-13.0539
剀	-13.0539
哈	-13.0539
唐	-13.0539
嚮	-13.0539
堷	-13.0539
塥	-13.0539
塨	-13.0539
夠	-13.0539
央	-13.0539
慐	-13.0539
攓	-13.0539
哴	-13.0539
坧	-13.0539
媠	-13.0539
岡	-13.0539
囷	-13.0695
圪	-13.0695
坷	-13.0695
姊	-13.0695
娸	-13.0695
屖	-13.0695
懍	-13.0695
摚	-13.0695
暩	-13.0695
柍	-13.0695
勊	-13.0695
厖	-13.0695
婞	-13.0695
剎	-13.0854
噢	-13.0854
囈	-13.0854
堆	-13.0854
媪	-13.0854
岀	-13.0854
崝	-13.0854
坒	-13.0854
孷	-13.0854
妷	-13.0854
塩	-13.0854
廲	-13.1015
抎	-13.1015
厱	-13.1015
叿	-13.1015
喰	-13.1015
委	-13.1015
尡	-13.1015
恲	-13.1015
嶞	-13.1015
卋	-13.1179
厴	-13.1179
嬒	-13.1179
寅	-13.1179
寽	-13.1179
夳	-13.1179
尯	-13.1179
惺	-13.1179
塔	-13.1179
匚	-13.1346
匠	-13.1346
嘨	-13.1346
嫷	-13.1346
彟	-13.1346
儞	-13.1346
兵	-13.1346
冒	-13.1346
噠	-13.1346
嚫	-13.1346
塙	-13.1346
夶	-13.1346
婥	-13.1346
嬘	-13.1346
圚	-13.1346
峳	-13.1346
彸	-13.1346
墮	-13.1515
凕	-13.1515
剃	-13.1515
卒	-13.1515
嘚	-13.1515
囡	-13.1515
媶	-13.1515
寞	-13.1515
巘	-13.1515
弨	-13.1515
瀁	-13.1515
唶	-13.1515
堓	-13.1515
嬬	-13.1515
定	-13.1515
屔	-13.1515
氫	-13.1515
峲	-13.1688
六	-13.1688
勄	-13.1688
噇	-13.1688
壠	-13.1688
壥	-13.1688
备	-13.1688
奕	-13.1688
岿	-13.1688
徇	-13.1688
垈	-13.1688
妮	-13.1688
华	-13.1863
嚝	-13.1863
囆	-13.1863
坫	-13.1863
岖	-13.1863
峒	-13.1863
庉	-13.1863
敎	-13.1863
剒	-13.1863
呖	-13.1863
埇	-13.1863
惒	-13.1863
侁	-13.2026
侒	-13.2042
嫘	-13.2042
屛	-13.2042
剘	-13.2042
匫	-13.2042
喢	-13.2042
垨	-13.2042
埖	-13.2042
墍	-13.2042
媓	-13.2042
嫻	-13.2042
岽	-13.2042
怾	-13.2042
悢	-13.2042
慏	-13.2042
懨	-13.2042
匘	-13.2042
夵	-13.2042
嫶	-13.2042
匭	-13.2218
夙	-13.2223
姀	-13.2224
嫚	-13.2224
兣	-13.2224
厘	-13.2224
啘	-13.2224
堔	-13.2224
姌	-13.2224
姯	-13.2224
廓	-13.2224
弻	-13.2224
從	-13.2224
怲	-13.2224
拍	-13.2224
掫	-13.2224
唍	-13.2224
匕	-13.2409
巌	-13.2409
呀	-13.2409
唼	-13.2409
嗪	-13.2409
圉	-13.2409
孟	-13.2409
廂	-13.2409
厡	-13.2409
兪	-13.2597
嫼	-13.2597
剴	-13.2597
哆	-13.2597
圲	-13.2597
婡	-13.2597
嬷	-13.2597
徏	-13.2597
傺	-13.2597
堝	-13.2597
奨	-13.2597
姸	-13.2597
娘	-13.2597
庼	-13.2597
怐	-13.2597
態	-13.2597
伙	-13.2789
娄	-13.279
掎	-13.279
咆	-13.279
嚌	-13.279
团	-13.279
垟	-13.279
垼	-13.279
埅	-13.279
延	-13.279
噽	-13.279
娊	-13.279
廬	-13.279
凣	-13.2986
嘁	-13.2986
孴	-13.2986
崸	-13.2986
擿	-13.2986
儊	-13.2986
勃	-13.2986
壑	-13.2986
嬔	-13.2986
巐	-13.2986
幑	-13.2986
惴	-13.2986
墪	-13.3186
傐	-13.3186
冼	-13.3186
叐	-13.3186
喔	-13.3186
夝	-13.3186
妡	-13.3186
嬛	-13.3186
孝	-13.3186
幔	-13.3186
狼	-13.3186
啺	-13.3186
噯	-13.3186
埂	-13.3186
埝	-13.3186
嫂	-13.3186
嫺	-13.3186
嫿	-13.3186
妦	-13.3186
嫄	-13.339
嘐	-13.339
嚐	-13.339
坋	-13.339
埣	-13.339
冰	-13.339
却	-13.339
堹	-13.339
媎	-13.339
孮	-13.339
官	-13.339
帑	-13.339
怗	-13.339
憈	-13.339
悚	-13.3598
囸	-13.3598
刔	-13.3598
嘴	-13.3598
圶	-13.3598
堍	-13.3598
屵	-13.3598
峀	-13.3598
慾	-13.3598
揵	-13.3598
撋	-13.3598
曗	-13.3598
圳	-13.3598
弸	-13.3598
卄	-13.3811
嘞	-13.3811
囌	-13.3811
吒	-13.3811
哿	-13.3811
坮	-13.3811
塗	-13.3811
壶	-13.3811
夺	-13.3811
屦	-13.3811
岠	-13.3811
忈	-13.3811
搞	-13.3811
摙	-13.3811
擺	-13.3811
十	-13.3811
墤	-13.3811
悰	-13.4028
帐	-13.4028
妤	-13.4028
兦	-13.4028
劔	-13.4028
吶	-13.4028
嚯	-13.4028
囤	-13.4028
圯	-13.4028
埉	-13.4028
塊	-13.4028
墆	-13.4028
岕	-13.4028
峊	-13.4028
彲	-13.4028
忮	-13.4028
朵	-13.4028
匙	-13.4028
嶢	-13.4028
慕	-13.4028
廘	-13.4028
坏	-13.4251
将	-13.4251
尢	-13.4251
堢	-13.4251
咏	-13.4251
咘	-13.4251
咪	-13.4251
單	-13.4251
喻	-13.4251
垭	-13.4251
摶	-13.4251
攂	-13.4251
擉	-13.4251
宑	-13.4478
勅	-13.4478
呧	-13.4478
呹	-13.4478
啍	-13.4478
嚹	-13.4478
垸	-13.4478
堘	-13.4478
婩	-13.4478
嬨	-13.4478
刹	-13.4478
啖	-13.4478
尨	-13.4478
屮	-13.4478
峴	-13.4478
嶖	-13.4478
嶺	-13.4478
壵	-13.471
喼	-13.471
墧	-13.471
头	-13.471
岫	-13.471
峡	-13.471
吟	-13.471
哩	-13.471
囝	-13.471
圍	-13.471
塍	-13.471
崭	-13.471
征	-13.471
慔	-13.471
戞	-13.471
挲	-13.471
删	-13.4948
區	-13.4948
基	-13.4948
剡	-13.4948
去	-13.4948
叓	-13.4948
嚺	-13.4948
圐	-13.4948
堥	-13.4948
妨	-13.4948
寲	-13.4948
尹	-13.4948
怶	-13.4948
檵	-13.4948
峧	-13.4948
外	-13.5192
僅	-13.5192
噫	-13.5192
嗃	-13.5192
堟	-13.5192
壸	-13.5192
娝	-13.5192
寪	-13.5192
匬	-13.5192
囥	-13.5192
圬	-13.5192
埍	-13.5192
墏	-13.5192
奤	-13.5192
嫱	-13.5192
巷	-13.5192
愛	-13.5192
屓	-13.5192
僯	-13.5442
塐	-13.5442
凨	-13.5442
唟	-13.5442
囕	-13.5442
垱	-13.5442
姿	-13.5442
娎	-13.5442
少	-13.5442
峚	-13.5442
愑	-13.5442
凘	-13.5442
咿	-13.5442
喨	-13.5442
嗷	-13.5442
噴	-13.5442
寳	-13.5442
圻	-13.5442
嘗	-13.5699
堐	-13.5699
壈	-13.5699
凈	-13.5699
劤	-13.5699
吝	-13.5699
咼	-13.5699
哔	-13.5699
圝	-13.5699
堮	-13.5699
尥	-13.5699
巙	-13.5699
忣	-13.5699
惜	-13.5699
愓	-13.5699
掬	-13.5699
摠	-13.5699
巻	-13.5699
摵	-13.5699
墉	-13.5962
尒	-13.5962
勉	-13.5962
呺	-13.5962
噘	-13.5962
历	-13.5962
啨	-13.5962
器	-13.5962
囮	-13.5962
圧	-13.5962
坅	-13.5962
垉	-13.5962
塚	-13.5962
复	-13.5962
妇	-13.5962
娨	-13.5962
娰	-13.5962
嫝	-13.5962
嬈	-13.5962
嬹	-13.5962
尵	-13.5962
屇	-13.5962
嶘	-13.5962
当	-13.5962
徨	-13.5962
掐	-13.5962
曾	-13.5962
塃	-13.5962
娹	-13.5962
憻	-13.5962
壷	-13.6232
杞	-13.6232
堚	-13.6232
壬	-13.6232
廖	-13.6232
加	-13.6232
垙	-13.6232
姼	-13.6232
娍	-13.6232
婑	-13.6232
嬄	-13.6232
尘	-13.6232
廁	-13.6232
恇	-13.6232
愍	-13.6232
捰	-13.6232
椸	-13.6232
漒	-13.6232
牓	-13.6232
哹	-13.6232
庡	-13.6232
拵	-13.6232
唢	-13.651
嗦	-13.651
戇	-13.651
劏	-13.651
劣	-13.651
哒	-13.651
啵	-13.651
啻	-13.651
坁	-13.651
塁	-13.651
姬	-13.651
姻	-13.651
娱	-13.651
婴	-13.651
崢	-13.651
嵘	-13.651
廔	-13.651
归	-13.651
摼	-13.651
匨	-13.6796
尦	-13.6796
巋	-13.6796
娫	-13.6796
婠	-13.6796
嫭	-13.6796
峓	-13.6796
倦	-13.6796
匡	-13.6796
卣	-13.6796
呋	-13.6796
嚪	-13.6796
坼	-13.6796
垅	-13.6796
埒	-13.6796
報	-13.6796
墽	-13.6796
夬	-13.6796
岐	-13.6796
崣	-13.6796
嶭	-13.6796
巗	-13.6796
彼	-13.6796
怷	-13.6796
搝	-13.6796
擐	-13.6796
攣	-13.6796
喠	-13.6796
噬	-13.6796
夑	-13.6796
娷	-13.6796
巏	-13.6796
悇	-13.6796
拶	-13.6796
寷	-13.6796
唰	-13.709
夤	-13.709
妣	-13.709
娋	-13.709
寇	-13.709
峯	-13.709
傭	-13.709
勛	-13.709
善	-13.709
嘊	-13.709
墯	-13.709
婛	-13.709
嫕	-13.709
屩	-13.709
嶼	-13.709
巁	-13.709
巡	-13.709
巨	-13.709
帾	-13.709
幢	-13.709
庠	-13.709
彴	-13.709
彵	-13.709
悙	-13.709
嶇	-13.7393
卓	-13.7393
吀	-13.7393
垞	-13.7393
婝	-13.7393
御	-13.7393
恦	-13.7393
戆	-13.7393
抌	-13.7393
枊	-13.7393
僶	-13.7393
剦	-13.7393
劽	-13.7393
咾	-13.7393
哵	-13.7393
啛	-13.7393
啢	-13.7393
噉	-13.7393
噚	-13.7393
嚡	-13.7393
妒	-13.7393
姗	-13.7393
婗	-13.7393
婭	-13.7393
嫡	-13.7393
嬴	-13.7393
季	-13.7393
寔	-13.7393
崙	-13.7393
巑	-13.7393
悫	-13.7393
旄	-13.7393
勐	-13.7393
吤	-13.7393
嫴	-13.7393
嬅	-13.7393
愡	-13.7705
売	-13.7705
劼	-13.7705
勋	-13.7705
卸	-13.7705
咜	-13.7705
婳	-13.7705
崫	-13.7705
帨	-13.7705
徟	-13.7705
忊	-13.7705
卥	-13.7705
啊	-13.7705
啙	-13.7705
圏	-13.7705
圛	-13.7705
坐	-13.7705
墶	-13.7705
夒	-13.7705
奓	-13.7705
奩	-13.7705
妸	-13.7705
姨	-13.7705
姳	-13.7705
婘	-13.7705
宄	-13.7705
宓	-13.7705
宖	-13.7705
屨	-13.7705
庛	-13.7705
彐	-13.7705
忍	-13.7705
念	-13.7705
恃	-13.7705
扆	-13.7705
找	-13.7705
搉	-13.7705
攑	-13.7705
敵	-13.7705
栖	-13.7705
埮	-13.7705
愾	-13.7705
匪	-13.8028
塵	-13.8028
庳	-13.8028
劋	-13.8028
卧	-13.8028
奢	-13.8028
媰	-13.8028
峽	-13.8028
忎	-13.8028
恎	-13.8028
摧	-13.8028
刓	-13.8028
叫	-13.8028
啉	-13.8028
嘘	-13.8028
圁	-13.8028
圽	-13.8028
垳	-13.8028
垶	-13.8028
壃	-13.8028
夀	-13.8028
奎	-13.8028
娜	-13.8028
嬕	-13.8028
封	-13.8028
嶱	-13.8028
忘	-13.8028
怡	-13.8028
捾	-13.8028
旕	-13.8028
杓	-13.8028
勏	-13.8028
塕	-13.8028
娶	-13.8028
寫	-13.8028
屳	-13.8028
彈	-13.8028
儰	-13.8361
啡	-13.8361
嗫	-13.8361
壺	-13.8361
撾	-13.8361
凜	-13.8361
叒	-13.8361
唲	-13.8361
喪	-13.8361
噞	-13.8361
嚬	-13.8361
囲	-13.8361
圸	-13.8361
墐	-13.8361
妟	-13.8361
婙	-13.8361
尫	-13.8361
嵞	-13.8361
弧	-13.8361
怺	-13.8361
愇	-13.8361
昩	-13.8361
嘍	-13.8361
噖	-13.8361
契	-13.8361
娂	-13.8361
峋	-13.8361
嶹	-13.8361
庌	-13.8361
旃	-13.8361
勁	-13.8361
堉	-13.8361
娪	-13.8706
总	-13.8706
惀	-13.8706
溌	-13.8706
呞	-13.8706
噵	-13.8706
垽	-13.8706
壿	-13.8706
奐	-13.8706
娔	-13.8706
嫫	-13.8706
嬆	-13.8706
屟	-13.8706
弉	-13.8706
彣	-13.8706
徕	-13.8706
怚	-13.8706
慖	-13.8706
慦	-13.8706
戝	-13.8706
挅	-13.8706
斎	-13.8706
旛	-13.8706
昷	-13.8706
曯	-13.8706
溤	-13.8706
灁	-13.8706
屿	-13.8706
忯	-13.8706
戂	-13.8706
塽	-13.9063
憤	-13.9063
尴	-13.9063
廱	-13.9063
噓	-13.9063
匌	-13.9063
卌	-13.9063
埃	-13.9063
嫢	-13.9063
嬺	-13.9063
孕	-13.9063
寭	-13.9063
峹	-13.9063
崷	-13.9063
巜	-13.9063
幈	-13.9063
庆	-13.9063
庑	-13.9063
怋	-13.9063
惚	-13.9063
抢	-13.9063
暅	-13.9063
曇	-13.9063
朓	-13.9063
框	-13.9063
母	-13.9063
滞	-13.9063
劦	-13.9063
唨	-13.9063
嘣	-13.9063
媒	-13.9063
嫯	-13.9063
岷	-13.9063
悉	-13.9063
匢	-13.9434
拉	-13.9434
劍	-13.9434
哪	-13.9434
嚘	-13.9434
埜	-13.9434
夕	-13.9434
失	-13.9434
婵	-13.9434
媗	-13.9434
媹	-13.9434
嬭	-13.9434
巊	-13.9434
庤	-13.9434
弣	-13.9434
悅	-13.9434
悛	-13.9434
抵	-13.9434
抺	-13.9434
揂	-13.9434
攚	-13.9434
敹	-13.9434
枌	-13.9434
的	-13.9434
刵	-13.9434
埸	-13.9434
威	-13.9434
嬥	-13.9434
宎	-13.9434
尟	-13.9434
屍	-13.9434
崈	-13.9434
幡	-13.9434
忛	-13.9434
怤	-13.9434
扱	-13.9434
斳	-13.9434
旀	-13.9434
曩	-13.9434
曫	-13.9434
朩	-13.9434
勑	-13.9434
弹	-13.9434
姇	-13.9818
潼	-13.9818
扭	-13.9818
傚	-13.9818
傯	-13.9818
凰	-13.9818
呷	-13.9818
哏	-13.9818
喐	-13.9818
囄	-13.9818
圄	-13.9818
壝	-13.9818
姍	-13.9818
婹	-13.9818
媑	-13.9818
媯	-13.9818
嫍	-13.9818
學	-13.9818
尀	-13.9818
尕	-13.9818
尻	-13.9818
岝	-13.9818
峮	-13.9818
嶪	-13.9818
帤	-13.9818
幁	-13.9818
徜	-13.9818
戺	-13.9818
捚	-13.9818
敖	-13.9818
昺	-13.9818
熣	-13.9818
噥	-13.9818
夈	-13.9818
天	-13.9818
婮	-13.9818
拒	-13.9818
朇	-13.9818
勖	-13.9818
岼	-13.9818
勂	-13.9818
勆	-14.0218
墎	-14.0218
军	-14.0218
嚵	-14.0218
埾	-14.0218
堺	-14.0218
墵	-14.0218
壁	-14.0218
壔	-14.0218
奡	-14.0218
奾	-14.0218
婍	-14.0218
宣	-14.0218
屻	-14.0218
嵒	-14.0218
庢	-14.0218
壐	-14.0218
妬	-14.0218
嬎	-14.0218
寿	-14.0218
嵌	-14.0218
嶝	-14.0218
巪	-14.0218
弢	-14.0218
啞	-14.0218
勘	-14.0218
庘	-14.7731
尊	-14.7732
寰	-14.7733
幉	-14.7734
猊	-14.7735
杻	-14.7736
塘	-14.7737
彠	-14.7738
圗	-14.7739
樒	-14.774
劈	-14.7741
嵙	-14.7742
咍	-14.7743
冢	-14.7744
對	-14.7745
愶	-14.7746
惮	-14.7747
皠	-14.7748
啓	-14.7749
椷	-14.775
堧	-14.7751
园	-14.7752
傛	-14.7753
斴	-14.7754
嘵	-14.7755
協	-14.7756
嬳	-14.7757
充	-14.7758
屆	-14.7759
屯	-14.776
刼	-14.7761
孧	-14.7762
喎	-14.7763
幊	-14.7764
喟	-14.7765
將	-14.7766
开	-14.7767
冬	-14.7768
槐	-14.7769
剿	-14.777
塉	-14.7771
曏	-14.7772
剽	-14.7773
嚃	-14.7774
恧	-14.7775
国	-14.7776
傽	-14.7777
囇	-14.7778
僴	-14.7779
唇	-14.7779
