<unk>	0
<s>	0
</s>	0
.	-2.89825
,	-3.59225
ம்	-4.60828
க்	-4.80874
ப்	-4.8732
கள்	-4.97989
்	-5.04781
▁	-5.19325
த்	-5.30383
▁மற்றும்	-5.31628
▁ஒரு	-5.33155
▁(	-5.3333
)	-5.41036
▁"	-5.62017
ு	-5.63706
"	-5.68414
ும்	-5.72089
▁இந்த	-5.7456
ன்	-5.76501
ல்	-5.80852
து	-5.8113
ச்	-5.85673
ின்	-5.92431
ர்	-5.92992
ஸ்	-5.9976
-	-5.99822
யில்	-6.00045
ய	-6.06972
த்தில்	-6.07523
க்கு	-6.10269
▁இது	-6.11705
▁என்ற	-6.17299
களை	-6.19407
களில்	-6.20418
யின்	-6.20925
▁உள்ள	-6.20952
▁ஊராட்சி	-6.21558
ில்	-6.2269
:	-6.23231
▁ஆகும்	-6.23936
ன	-6.26035
க	-6.28724
ங்கள்	-6.29851
ட்	-6.29947
▁ஆம்	-6.29961
▁ஆண்டு	-6.34817
ை	-6.38692
களின்	-6.39672
ி	-6.43022
▁க	-6.43917
யை	-6.44533
▁என்பது	-6.4475
த்தின்	-6.47459
▁இவர்	-6.47537
▁பல	-6.48297
▁அல்லது	-6.49131
▁அ	-6.51259
▁உள்ளது	-6.53327
த்தை	-6.54355
ம	-6.55282
வ	-6.56227
யும்	-6.58138
▁மக்கள்	-6.58344
சு	-6.58355
▁என்று	-6.61065
வை	-6.62678
▁இருந்து	-6.63694
▁முதல்	-6.65198
ப	-6.66117
ார்	-6.68329
▁இந்திய	-6.68622
ரி	-6.68839
ா	-6.6914
ஆம்	-6.69181
த	-6.70098
▁("	-6.71116
வர்	-6.72167
களும்	-6.72334
சி	-6.73567
மாக	-6.7389
▁என	-6.74604
▁இ	-6.7521
டி	-6.77474
த்த	-6.77861
ர	-6.78163
ப்படுகிறது	-6.79167
க்க	-6.79831
வு	-6.82984
▁கோயில்	-6.85177
▁என்னும்	-6.85866
மா	-6.85897
வும்	-6.86508
வி	-6.87911
மான	-6.88178
தி	-6.89046
னி	-6.89652
▁சில	-6.89734
ந்த	-6.89978
த்து	-6.90479
▁பி	-6.91184
▁போன்ற	-6.91336
லா	-6.92142
▁7	-6.93006
▁அவர்	-6.93428
ிய	-6.94559
ரா	-6.95505
கா	-6.95666
ுள்ளது	-6.96169
▁கொண்ட	-6.96323
லி	-6.96623
▁அமைந்துள்ள	-6.97351
யாக	-6.97472
▁தொகை	-6.97498
ச	-6.97764
▁மேலும்	-6.98035
ட	-6.99862
ப்பட்ட	-7.00489
டு	-7.00759
▁இல்	-7.02264
▁த	-7.03089
ப்ப	-7.03664
மை	-7.03944
▁-	-7.04553
களுக்கு	-7.05564
ப்பு	-7.06458
யா	-7.07524
னர்	-7.07601
ல	-7.07638
வா	-7.08442
▁ப	-7.10929
னா	-7.11092
▁18	-7.12071
ாக	-7.12283
▁வி	-7.12989
▁சி	-7.13084
ங்களில்	-7.13511
வின்	-7.14361
▁வரை	-7.14481
s	-7.16691
▁ஆண்டில்	-7.17726
ங்	-7.18376
▁பயன்படுத்த	-7.1966
மி	-7.20031
▁அமைந்துள்ளது	-7.21514
▁ச	-7.21941
கு	-7.22329
▁எ	-7.22672
▁கி	-7.22748
பி	-7.22786
▁இதன்	-7.23165
லை	-7.23268
▁உள்ளன	-7.23482
ரை	-7.23633
▁இக்கோயில்	-7.23984
பா	-7.24002
▁கா	-7.24049
;	-7.245
கி	-7.25587
),	-7.25736
தா	-7.26037
▁பின்னர்	-7.26319
ப்பட்டது	-7.27772
ால்	-7.2907
க்கும்	-7.29131
சா	-7.30067
▁இருக்கும்	-7.30232
வே	-7.31088
▁மா	-7.31853
▁ஏ	-7.32277
▁இரு	-7.32868
▁மூலம்	-7.33091
▁உ	-7.33189
▁ஆ	-7.33392
தாக	-7.34699
ப்படும்	-7.34788
ான	-7.34853
மும்	-7.34958
னை	-7.35315
ங்களை	-7.36103
▁மு	-7.36215
▁கொண்டு	-7.36232
▁மாவட்டம்	-7.36366
த்திற்கு	-7.37038
▁தொகுதிக்கும்	-7.37039
யான	-7.37162
▁ஆனால்	-7.37479
▁பேரும்	-7.37481
▁சா	-7.37506
")	-7.38421
▁கு	-7.387
▁ம	-7.38737
▁தனது	-7.39685
ே	-7.40357
▁ஆகிய	-7.41239
▁அதன்	-7.41648
▁இரண்டு	-7.41705
▁மாவட்டத்தில்	-7.41709
▁அந்த	-7.41947
வில்	-7.42576
▁முக்கிய	-7.42882
களையும்	-7.43279
▁2011	-7.43517
ந்து	-7.44285
▁தமிழ்	-7.44977
ுக்கு	-7.46075
▁டி	-7.46403
அ	-7.46759
▁வளர்ச்சி	-7.47169
ட்டு	-7.47532
▁2	-7.47683
▁போது	-7.48547
யே	-7.48596
▁மொழி	-7.49918
▁சு	-7.51148
ள	-7.51917
த்தி	-7.52184
▁கொண்டுள்ளது	-7.52999
▁செ	-7.53535
▁பா	-7.53756
▁பெரிய	-7.5379
▁இருந்த	-7.54628
'	-7.54664
▁ஆவார்	-7.54664
ங்க	-7.54711
▁தமிழ்நாடு	-7.54859
▁பெயர்	-7.55307
▁இவை	-7.56162
▁முறை	-7.56923
▁தா	-7.57089
டை	-7.57098
ரோ	-7.57156
▁இக்கோயிலில்	-7.57184
ரு	-7.58804
▁துடுப்பாட்டப்	-7.59127
ப்படுகின்றன	-7.6075
▁இந்து	-7.61001
▁பெண்கள்	-7.61288
▁அது	-7.61508
களைக்	-7.61717
).	-7.61978
▁மொத்த	-7.6232
▁மே	-7.62461
ட்ட	-7.62625
மே	-7.62744
▁என்றும்	-7.63045
▁அவரது	-7.6323
▁1	-7.63538
▁ந	-7.63562
▁நிலை	-7.63905
▁கே	-7.64007
றி	-7.64147
ற்ற	-7.64214
ற	-7.64438
களால்	-7.64779
▁5	-7.6539
ட்டி	-7.65609
▁தேர்ந்தெடுக்க	-7.65846
ச்சி	-7.66403
ண	-7.66747
▁சட்டமன்றத்	-7.67174
லாம்	-7.67428
கை	-7.6759
ரின்	-7.68233
▁தேசிய	-7.68391
▁வேண்டும்	-7.6842
யோ	-7.68591
டா	-7.68724
▁மிகவும்	-7.68951
e	-7.69145
%	-7.69173
▁ஒன்று	-7.69582
▁திரு	-7.69663
▁உள்ளனர்	-7.69863
▁கால	-7.6989
▁இங்கு	-7.70086
▁ஐ	-7.7014
▁மூன்று	-7.70206
(	-7.70279
▁பெற்ற	-7.70392
டன்	-7.70705
▁மீ	-7.7127
▁வகை	-7.71307
▁பகுதி	-7.71472
▁4	-7.71614
▁பிற	-7.71763
▁கீழ்	-7.72526
S	-7.72597
▁தகவல்	-7.72849
▁தி	-7.72946
▁கோ	-7.73119
னின்	-7.73224
இல்	-7.73263
கோ	-7.73716
▁பூசை	-7.73943
ங்களின்	-7.74253
ப்பட்டு	-7.7479
▁10	-7.75076
▁வ	-7.75309
▁கல்வி	-7.75346
▁அரசு	-7.75668
▁செய்ய	-7.75681
ளி	-7.75818
▁தர	-7.76062
▁பட்டியல்	-7.76135
▁வந்த	-7.76164
மு	-7.76244
ணி	-7.76878
▁3	-7.77128
ோ	-7.77513
களாக	-7.7806
▁தமிழ்நாட்டில்	-7.79334
▁அமெரிக்க	-7.7949
▁மன்ற	-7.79606
ுதல்	-7.79627
▁மக்களவைத்	-7.80033
ினார்	-7.80178
▁தன்	-7.80282
▁அவை	-7.80407
▁,	-7.8046
று	-7.80568
பு	-7.80682
சன்	-7.80806
▁எனும்	-7.81274
▁ஆர்	-7.81411
▁நா	-7.81917
▁ஊரில்	-7.82361
▁2015	-7.82484
▁ஆண்கள்	-7.82778
▁இருந்தது	-7.83178
▁6	-7.8336
C	-7.83686
யர்	-7.83689
▁பின்	-7.83805
வ்	-7.84224
y	-7.84703
ிலும்	-7.85404
ின்றனர்	-7.85621
▁தமிழ்நாட்டின்	-7.85926
▁விட	-7.86018
/	-7.86223
▁இதில்	-7.86727
தை	-7.86911
▁இவற்றில்	-7.86949
▁17	-7.87001
ண்ட	-7.87039
▁அதிக	-7.87068
▁'	-7.87279
▁மாதம்	-7.88126
▁புதிய	-7.882
P	-7.88896
▁பல்வேறு	-7.89025
▁மொத்தம்	-7.89241
ய்	-7.89792
ப்பட	-7.90711
▁பொதுவாக	-7.90775
▁15	-7.90943
▁கலந்து	-7.91084
▁நிர்வகிக்க	-7.9118
▁சேர்ந்த	-7.9129
▁செய்து	-7.91438
▁8	-7.91808
▁அணி	-7.9203
ணக்கெடுப்பின்படி	-7.92066
a	-7.92116
n	-7.92447
▁கட்டுப்பாட்டில்	-7.92733
யாகும்	-7.92952
▁பு	-7.93039
▁ஓ	-7.93302
▁மிக	-7.937
▁12	-7.93705
▁உலக	-7.93792
▁கை	-7.94136
",	-7.9425
▁அடி	-7.9442
▁ஆறு	-7.94424
▁சேர்ந்தது	-7.94495
சை	-7.94966
▁16	-7.953
மாகும்	-7.95543
▁கோயிலாகும்	-7.95701
▁அமைப்பு	-7.95842
▁போர்	-7.9595
ங்களும்	-7.96071
▁படி	-7.96418
"),	-7.96438
வோ	-7.96491
▁இவர்களில்	-7.96521
▁பூ	-7.96615
▁ஓர்	-7.96689
▁இட	-7.96741
▁நூற்றாண்டைச்	-7.97014
லோ	-7.9752
போது	-7.97544
▁காரணமாக	-7.97599
ழ	-7.98093
al	-7.9837
காலப்	-7.98506
க்கி	-7.98951
▁வகைப்பாட்டில்	-7.99021
▁துறையின்	-7.99148
ரே	-7.99375
ான்	-7.99384
ுள்ள	-7.99391
களைப்	-7.99572
க்கா	-7.99844
▁போ	-7.9998
வது	-7.99987
▁9	-8.0019
▁அன்று	-8.00307
ிற்கு	-8.00568
▁இவரது	-8.00886
o	-8.01044
▁அறநிலையத்துறைய	-8.01147
▁அளவு	-8.01257
▁என்	-8.01431
M	-8.01683
▁பிறகு	-8.01787
களுடன்	-8.02238
▁கொ	-8.02261
▁திருக்கோயில்	-8.02765
இ	-8.03071
2	-8.03276
கம்	-8.03358
▁இசை	-8.03426
▁நகர	-8.03507
▁உருவாக்க	-8.03609
தால்	-8.03744
▁தொகுக்கப்பட்ட	-8.03992
▁அவர்கள்	-8.04246
▁பகுதியில்	-8.04631
ுடன்	-8.04804
▁கீழ்க்கண்ட	-8.05491
A	-8.05522
▁தொடர்ந்து	-8.05657
▁வெற்றி	-8.05805
▁ஊரக	-8.05852
விட	-8.06249
▁மாற்ற	-8.06395
▁நீர்	-8.06428
▁தான்	-8.0659
ாத	-8.06607
▁சமூக	-8.06777
▁ஆய்வு	-8.06992
யு	-8.07225
▁வர	-8.07283
▁முதன்மைத்	-8.07284
▁தீ	-8.0735
வர	-8.07444
▁தொகுதிகளைக்	-8.07497
டோ	-8.07575
▁வா	-8.0767
▁ஸ்	-8.07718
▁எஸ்	-8.0785
▁சிற்றூர்கள	-8.08264
▁மன்றத்	-8.08321
களிலும்	-8.08531
▁இந்தியாவின்	-8.08652
▁ஊராட்சியில்	-8.08804
ுகிறது	-8.08846
▁Gram	-8.08857
ண்டு	-8.08917
ச்ச	-8.08955
▁காலத்தில்	-8.08967
▁சார்ந்த	-8.09134
▁Panchayat	-8.09137
▁அரச	-8.09169
▁துடுப்பாட்ட	-8.09248
▁பணி	-8.09254
▁தரவின்படி	-8.09408
▁உறுப்பினர்களைத	-8.09502
▁தொகுதி	-8.09667
ானது	-8.09803
r	-8.09804
▁உட்பட்டதாக	-8.09831
ள்	-8.10206
னோ	-8.10349
an	-8.10436
வர்கள்	-8.10582
▁கலை	-8.10602
▁ஒவ்வொரு	-8.10652
▁ஆண்டுத்	-8.10976
க்கான	-8.11009
ஷ்	-8.11239
ாகும்	-8.11314
ற்று	-8.11356
ிலிருந்து	-8.11357
▁வட்டாரத்தில்	-8.11551
ையும்	-8.11663
▁சிறந்த	-8.1167
யால்	-8.11737
▁ஈ	-8.11778
▁பெற	-8.11958
யுடன்	-8.12113
வன்	-8.12267
▁ஊராட்சித்	-8.12653
i	-8.12766
▁மற்ற	-8.12938
▁நான்கு	-8.13038
க்கள்	-8.13117
யானது	-8.13152
▁சட்ட	-8.13313
▁அனைத்து	-8.13516
▁நோய்	-8.13663
ஞ்ச	-8.13885
▁பரம்பரை	-8.14124
▁மாநில	-8.14156
ந	-8.14228
யிலிருந்து	-8.14301
▁மி	-8.14306
▁நாள்	-8.14405
▁நில	-8.14426
▁நடக்கின்றது	-8.14471
▁து	-8.14596
ங்கு	-8.14624
▁11	-8.14845
ாமல்	-8.15042
நிலை	-8.1513
▁மலை	-8.1516
▁S	-8.15207
ப்பட்டுள்ளது	-8.15352
லே	-8.15361
▁மீது	-8.15395
▁துணை	-8.1564
▁வெளிவந்த	-8.16027
றை	-8.1604
▁அல்லாத	-8.16191
▁சென்னை	-8.16323
▁ஒ	-8.1637
▁சிறு	-8.16396
▁மட்டுமே	-8.16575
யிலும்	-8.16588
▁திரைப்பட	-8.16707
▁பொருள்	-8.16917
ரிய	-8.16988
▁ஆட்சி	-8.17045
▁சோ	-8.17074
▁வெளி	-8.17123
ஜி	-8.1738
▁20	-8.17569
ியல்	-8.17604
▁இலங்கை	-8.17638
ைக்	-8.17894
▁பெண்	-8.18013
▁பத்தொன்பதாம்	-8.18311
▁பொது	-8.18365
3	-8.18727
▁பிர	-8.18855
த்துக்கு	-8.18906
▁நி	-8.19013
யி	-8.19282
யைக்	-8.19335
ழி	-8.19666
▁பட	-8.20008
தான்	-8.20112
▁சே	-8.20216
ar	-8.20614
ியது	-8.20691
முறை	-8.20723
▁மெ	-8.20741
▁மேல்	-8.20764
▁வட	-8.21038
▁முன்	-8.21074
E	-8.2136
▁14	-8.21516
▁இயக்க	-8.21582
▁செய்த	-8.21667
▁வழி	-8.21805
▁குறிப்பிட்ட	-8.21821
▁பெ	-8.22004
த்திலும்	-8.22063
ண்டி	-8.22214
▁தென்	-8.22289
▁இதனால்	-8.223
er	-8.22375
ர்கள்	-8.22382
▁13	-8.22629
▁பட்ட	-8.22729
p	-8.23049
▁வரும்	-8.23213
ஆ	-8.23241
யூ	-8.23262
▁பள்ளி	-8.2332
▁ஒளி	-8.23449
க்கோ	-8.23449
மோ	-8.23578
▁அறங்காவலர்	-8.236
▁சிறிய	-8.23707
▁மனித	-8.23864
▁கொள்ள	-8.23878
▁படை	-8.24132
போ	-8.2421
u	-8.24276
▁ர	-8.24357
▁பல்கலைக்கழக	-8.24383
▁தலை	-8.24409
▁உற்பத்தி	-8.24442
▁வினை	-8.24462
கர்	-8.2466
ண்	-8.24728
▁இன்	-8.24988
▁வழங்க	-8.25067
▁பற்றிய	-8.25223
▁பெற்றார்	-8.25483
▁மீண்டும்	-8.25756
ட்டா	-8.25841
▁இன	-8.25907
b	-8.25965
தே	-8.26096
▁எண்	-8.26099
ுகின்றன	-8.26233
க்கூடிய	-8.26355
]]	-8.26486
t	-8.26886
வில்லை	-8.26894
▁பெரும்	-8.26967
ப்பி	-8.27045
சோ	-8.27091
▁இருப்பினும்	-8.27096
கே	-8.27236
1	-8.27315
▁எம்	-8.27391
▁சீ	-8.27504
▁நூல்	-8.27704
ள்ள	-8.27854
▁மேற்கு	-8.28234
ங்களுக்கு	-8.28344
ுள்ளார்	-8.2851
▁பற்றி	-8.28549
▁ஐக்கிய	-8.28586
ப்பா	-8.28698
▁C	-8.28901
ுவது	-8.29319
▁ஒரே	-8.2941
D	-8.29545
▁என்பவர்	-8.29573
B	-8.2979
லின்	-8.29888
▁ஹ	-8.30189
m	-8.30192
▁அமைப்பால்	-8.30237
மானது	-8.3048
ட்டை	-8.30637
▁ஜ	-8.3089
▁தனி	-8.30965
▁வெ	-8.31347
ராக	-8.3157
T	-8.31802
ூர்	-8.31813
▁மர	-8.31872
4	-8.31934
▁போட்டிகளில்	-8.32219
ூ	-8.32544
ற்	-8.32581
▁வேலை	-8.33224
ிருந்த	-8.33549
▁[[	-8.33709
வரை	-8.33928
R	-8.33998
▁இந்தியா	-8.34267
▁பிறப்பு	-8.34313
▁B	-8.34681
ுள்ளன	-8.34692
▁நடைபெறுகிறது	-8.34938
▁இரண்டாம்	-8.35115
படி	-8.35237
மன்	-8.35753
யைப்	-8.35779
த்துடன்	-8.35934
னே	-8.35988
▁கரு	-8.36045
c	-8.36125
▁கதை	-8.36158
ாலும்	-8.36187
▁மின்	-8.36449
த்தா	-8.36629
▁உயர்	-8.36632
த்திலிருந்து	-8.36869
டர்	-8.37002
ிருக்கும்	-8.37582
▁இதனை	-8.37676
▁இல்லை	-8.37801
ரும்	-8.38
▁வடிவ	-8.38079
▁செல்ல	-8.3829
5	-8.38342
▁காண	-8.3839
▁மாவட்ட	-8.38524
▁துறை	-8.38569
ோர்	-8.38637
▁கூட	-8.38917
▁வணிக	-8.39101
▁பாட	-8.39242
யையும்	-8.39325
▁அறிவியல்	-8.3952
▁மருத்துவ	-8.39681
ங்கி	-8.39714
▁தற்போது	-8.39815
க்காக	-8.39829
▁நிற	-8.39838
”	-8.39891
▁நாடு	-8.3992
▁உணவு	-8.40029
O	-8.40173
▁பே	-8.40463
▁P	-8.40526
▁ஆகியவை	-8.40789
னார்	-8.40807
எ	-8.41095
▁போல	-8.41216
▁வே	-8.41538
▁காணப்படும்	-8.41553
▁தொடர்	-8.41932
d	-8.41961
ஜ	-8.41975
ந்தி	-8.42011
தன்	-8.4251
L	-8.42904
தாகவும்	-8.42919
களுக்கும்	-8.43011
செ	-8.43053
▁ரா	-8.43056
▁முடியும்	-8.43362
ங்கா	-8.43478
ுவதற்கு	-8.43873
▁of	-8.43901
▁அதே	-8.43935
▁ஆக	-8.44067
▁கிழக்கு	-8.44248
▁கடல்	-8.44276
ம்ப	-8.44415
▁A	-8.44462
▁அளவில்	-8.44645
யம்	-8.44649
ணை	-8.44815
▁கார்	-8.44918
▁)	-8.44925
▁புற	-8.45175
’	-8.45869
▁பங்கு	-8.45881
▁குழந்தை	-8.46185
த்தால்	-8.46252
▁கட்ட	-8.46284
ைப்	-8.46363
l	-8.46412
▁இடம்	-8.46461
▁அக்டோபர்	-8.46476
▁பொ	-8.46478
▁கட்சி	-8.46724
ிறது	-8.46739
▁தேவை	-8.46798
▁குறிப்பிட	-8.46938
▁தேர்வுத்	-8.47004
▁நிலையில்	-8.47156
ண்ட்	-8.47199
த்தையும்	-8.47248
▁விளக்க	-8.47253
▁மீட்டர்	-8.47357
▁என்பதை	-8.47359
▁தந்தை	-8.47539
k	-8.47628
▁சிறப்பு	-8.47668
▁கூடிய	-8.47684
▁கூட்ட	-8.48001
யன்	-8.4801
h	-8.48019
▁ஜி	-8.4803
6	-8.48075
▁தோ	-8.48083
ருக்கு	-8.48111
▁கல்லூரி	-8.48184
▁சிவ	-8.48308
▁அம்மன்	-8.4844
ழு	-8.48487
▁பெரும்பாலும்	-8.48512
ஹ	-8.48582
▁ஐந்து	-8.4859
▁முக	-8.4874
▁குரு	-8.48758
▁கொண்டது	-8.48897
▁நிறுவனம்	-8.49066
▁சுமார்	-8.49157
N	-8.49177
லு	-8.49527
▁இருக்கிறது	-8.49535
▁அடிப்படையில்	-8.49623
▁M	-8.49639
▁கிராம	-8.49748
▁அரசியல்	-8.49846
▁இதை	-8.49898
▁ஒன்றாகும்	-8.50034
▁இணைந்து	-8.50083
F	-8.50112
▁பாடல்	-8.50154
▁நாட்டின்	-8.50203
▁கண்ட	-8.50254
▁மறு	-8.5033
▁மணி	-8.50354
▁பால	-8.50454
▁எழுதிய	-8.50479
▁மைய	-8.50488
▁சம	-8.50499
▁மத்திய	-8.50512
▁இலக்கிய	-8.50552
▁முதலில்	-8.50592
▁கெ	-8.5063
▁முதல்தர	-8.50664
சே	-8.50866
▁அழைக்க	-8.50902
▁சங்க	-8.50981
H	-8.51088
▁இதற்கு	-8.51148
புரம்	-8.51277
or	-8.51493
in	-8.51527
▁மோ	-8.51572
கிறது	-8.51634
வியல்	-8.51841
▁எனவே	-8.52072
▁உண்டு	-8.52123
ur	-8.52161
▁ஊ	-8.52293
▁வெப்ப	-8.52299
▁பெரு	-8.52362
▁நவம்பர்	-8.52804
▁அங்கு	-8.52827
▁–	-8.53046
▁ஒலி	-8.53143
▁மூல	-8.53165
▁குறைந்த	-8.53297
தர	-8.5343
f	-8.53452
லில்	-8.53633
னால்	-8.54034
ின	-8.54101
தாகும்	-8.5429
▁சென்று	-8.5432
▁எனப்படும்	-8.54368
வாக	-8.5446
க்காரர்	-8.54461
▁நேர	-8.54547
▁இந்தியாவில்	-8.54576
ரியா	-8.54614
▁எந்த	-8.54635
▁உதவி	-8.5482
ினால்	-8.54935
▁குழு	-8.55217
▁சமய	-8.55391
▁பதி	-8.55449
உ	-8.55663
▁இருந்தார்	-8.55723
ெ	-8.55952
▁லா	-8.55997
▁உயிர்	-8.5605
▁“	-8.56097
த்தைக்	-8.56379
களான	-8.5638
▁அதற்கு	-8.56405
▁அதை	-8.56426
en	-8.56449
▁மகா	-8.56623
ஸ்ட்	-8.56677
டைய	-8.56735
▁பேர்	-8.56771
வரும்	-8.56882
▁ஆங்கில	-8.5691
▁தொழில்	-8.57349
ச்சு	-8.57492
▁அணியின்	-8.57728
▁நோ	-8.57797
▁ஆண்டுகளில்	-8.57838
னிய	-8.58314
I	-8.5859
▁சொல்ல	-8.58646
▁காட்சி	-8.58776
▁30	-8.58805
▁காலம்	-8.58833
▁விளையாட்டு	-8.59041
▁வேறு	-8.59126
▁எனினும்	-8.59533
▁வீர	-8.59596
▁சதுர	-8.59637
▁ஆண்ட	-8.60211
▁அதில்	-8.60298
▁விருது	-8.60318
▁மதுரை	-8.60353
▁முறையில்	-8.60467
▁வருகிறது	-8.60596
ங்களையும்	-8.60775
டே	-8.60841
▁உருவாக்கப்பட்ட	-8.60851
ப்பட்டன	-8.61109
▁சேவை	-8.61118
ினை	-8.61125
▁பெற்றது	-8.61617
▁போட்டி	-8.61692
▁25	-8.618
▁நடந்த	-8.61847
▁இறுதி	-8.61976
▁புனித	-8.61987
▁இவ்வ	-8.62045
கன்	-8.62068
)"	-8.62146
ஷ	-8.62351
சிய	-8.62625
▁கோவில்	-8.62707
▁ஊர்	-8.6278
ப்படுத்த	-8.62935
▁மாத	-8.6316
▁பெரும்பாலான	-8.63419
▁வழியாக	-8.63463
▁அக	-8.63483
▁தொடர்பு	-8.6371
நா	-8.63727
▁நல்ல	-8.63785
▁மன	-8.63838
▁19	-8.63903
▁இந்தப்	-8.63973
ப்பை	-8.64184
▁சிகிச்சை	-8.64294
ுகிறார்	-8.6434
▁கிலோ	-8.6446
▁போட்டியில்	-8.64465
களுக்கான	-8.64592
▁முழு	-8.64642
▁குறிப்பாக	-8.6482
ப்பட்டார்	-8.64836
▁எனவும்	-8.64945
G	-8.64985
on	-8.65072
▁பெற்று	-8.65279
சாமி	-8.65768
ஸ	-8.6586
பெ	-8.6594
ப்படுகின்றது	-8.65959
▁செய்யும்	-8.66033
▁குறிப்பிடத்தக்க	-8.66071
சீ	-8.66089
▁செய்யப்பட்ட	-8.66424
▁திருவிழாவாக	-8.66523
▁பிறந்த	-8.66553
பூ	-8.66613
▁இரண்டாவது	-8.66626
▁எழுத	-8.66731
▁கருத்து	-8.66738
▁2008	-8.66853
▁இருக்க	-8.66954
▁ஏற்படும்	-8.67285
am	-8.67295
▁அதிகமாக	-8.67436
▁நிலையம்	-8.67471
▁அமைந்த	-8.67494
▁செப்டம்பர்	-8.67526
▁பிரதேச	-8.67552
ீ	-8.67589
g	-8.67792
▁வகையில்	-8.67827
▁"(	-8.67902
▁டெ	-8.67906
▁ஏற்பட்ட	-8.68057
▁பிரி	-8.68234
விற்கு	-8.68239
▁சொல்	-8.68283
▁உடல்	-8.68286
பர்	-8.6833
▁மூலமாக	-8.68351
சர்	-8.68485
▁தங்க	-8.68571
▁இங்கிலாந்து	-8.68651
▁நிலைய	-8.68684
▁பகுதிகளில்	-8.68731
▁பயன்படுத்தி	-8.68866
த்திய	-8.68882
▁ட	-8.68926
ing	-8.69331
▁எதிர்	-8.69421
▁மட்டும்	-8.69463
▁விமான	-8.69511
▁நாட்டு	-8.69583
▁முக்கியமான	-8.69628
ளை	-8.69655
8	-8.69751
▁தலைமை	-8.69803
▁பக்க	-8.69808
▁ஆகியோர்	-8.69819
ஜ்	-8.69894
வன	-8.69979
க்ஸ்	-8.70055
பூர்	-8.70178
▁எல்லை	-8.70247
▁டா	-8.70375
பே	-8.704
▁(19	-8.70416
▁யா	-8.70426
▁கொண்டுள்ளார்	-8.70456
ங்களிலும்	-8.70537
▁நாடுகளில்	-8.70578
▁மில்லியன்	-8.70625
▁தலைவர்	-8.70642
▁காட்ட	-8.70746
▁செல்லும்	-8.70815
▁தன்மை	-8.70839
▁இடத்தில்	-8.71181
▁சட்டமன்ற	-8.71201
▁பயிற்சி	-8.71229
K	-8.71262
▁வடக்கு	-8.7127
தோ	-8.7133
ம்பு	-8.71579
▁கல	-8.7175
ுகின்றது	-8.71826
▁H	-8.71843
▁இயற்கை	-8.71871
▁தாவர	-8.72148
▁போன்றவை	-8.72252
▁நடைபெற்ற	-8.72297
▁தொலைக்காட்சி	-8.72388
டெ	-8.72399
▁ரோ	-8.72414
▁நகரம்	-8.7249
▁0	-8.72508
▁ஸ்ரீ	-8.72623
ாகவும்	-8.72885
▁வட்ட	-8.72919
ிட	-8.73039
▁தமிழ்த்	-8.73043
▁காணப்படுகிறது	-8.73171
த்திர	-8.73334
களைத்	-8.73341
le	-8.73348
கர	-8.73387
க்குப்	-8.73654
ரீ	-8.73658
ப்பட்டுள்ளன	-8.73667
V	-8.73789
க்கப்பட்ட	-8.73877
ப்போ	-8.73964
▁பிரித்தானிய	-8.73973
20	-8.74087
▁பிறந்தார்	-8.74166
▁இணை	-8.74201
ிக்	-8.7422
ங்களைக்	-8.74331
வழி	-8.74424
▁சென்ற	-8.74687
சின்	-8.74709
▁ஏப்ரல்	-8.74756
▁எனக்	-8.74836
▁ஆண்டின்	-8.74901
த்தைப்	-8.75023
▁ஜெ	-8.75113
▁மத	-8.75116
த்துறை	-8.7512
தல்	-8.75318
▁G	-8.75346
ிக்க	-8.75393
▁சூரிய	-8.75527
▁பிரிவு	-8.75553
▁வரலாற்று	-8.75679
ோடு	-8.75816
▁அறிய	-8.75835
தர்	-8.76146
னும்	-8.76228
▁நிறுவன	-8.76255
▁அடுத்த	-8.76288
ாவின்	-8.76456
7	-8.76574
▁பழைய	-8.76575
▁லி	-8.76582
முக	-8.7669
▁நோக்க	-8.76772
▁விதி	-8.76816
▁D	-8.76867
▁முயற்சி	-8.77125
ஃப்	-8.77137
தில்	-8.77143
வான்	-8.77301
மொழி	-8.77334
▁வந்து	-8.77347
யைத்	-8.77467
x	-8.77534
னுக்கு	-8.77552
க்கை	-8.77585
▁குடும்ப	-8.77608
▁வாழ்க்கை	-8.77612
வான	-8.77792
▁21	-8.77813
▁பை	-8.77874
ப்படி	-8.77979
▁அடிப்படை	-8.78146
ாளர்	-8.78268
▁ஒருவர்	-8.78364
ும்போது	-8.7861
ுள்ளனர்	-8.78897
▁நூற்றாண்டில்	-8.78912
▁வந்தது	-8.78979
▁2009	-8.79066
▁திகதி	-8.79107
▁நிர்வாக	-8.79117
▁ஆராய்ச்சி	-8.79161
▁சின்ன	-8.79293
▁விட்டு	-8.79312
த்தல்	-8.79336
▁பாதுகாப்பு	-8.79514
▁அல்	-8.797
▁தங்கள்	-8.79867
▁=	-8.79873
யின	-8.79883
▁நீ	-8.79989
▁டை	-8.8
▁திரைப்படம்	-8.80065
ரம்	-8.80082
▁பார்	-8.80104
▁எண்ண	-8.80129
▁வாழ்ந்த	-8.80135
▁வைத்து	-8.80188
▁எல்லா	-8.80212
▁24	-8.8038
▁சீன	-8.80445
பட	-8.8051
▁R	-8.807
▁காணப்படுகின்றன	-8.80747
வுக்கு	-8.80781
▁அருகில்	-8.80812
▁பீ	-8.8083
ாய்	-8.81118
▁தமிழ	-8.81233
ஞ்சி	-8.81324
பட்ட	-8.81326
▁தொழில்நுட்ப	-8.81513
▁2010	-8.81551
ிடம்	-8.81586
▁தமிழக	-8.81621
▁யூ	-8.81629
▁மறை	-8.81657
ினர்	-8.81738
▁நீண்ட	-8.81833
▁கூற	-8.81855
▁தாக்க	-8.81869
▁‘	-8.8211
கள	-8.82301
▁போட்டிகளிலும்	-8.82365
யாகவும்	-8.82371
▁அவருடைய	-8.82404
▁தள	-8.82436
▁அணு	-8.82439
|	-8.82577
ங்களாக	-8.82615
▁22	-8.82644
ொ	-8.82666
▁T	-8.82754
▁நிதி	-8.82812
களுள்	-8.82866
ுகின்றனர்	-8.82871
▁கொள்கை	-8.82879
மலை	-8.82881
ழை	-8.82974
▁பதிவு	-8.83049
▁இக்	-8.8322
▁ஆண்	-8.83316
சார்	-8.83323
▁செய்தார்	-8.83328
ிருந்தது	-8.83343
il	-8.83503
▁உள்ளிட்ட	-8.83556
ளா	-8.83581
னில்	-8.83609
▁2007	-8.83693
ed	-8.8375
▁தமது	-8.83806
▁கணினி	-8.84151
▁பெயரில்	-8.84258
▁செல்வ	-8.84275
▁வழக்கு	-8.84368
▁முறைப்படி	-8.84682
▁கருவி	-8.84743
னு	-8.84829
ைத்	-8.84883
ic	-8.85039
▁பொருளாதார	-8.85093
▁N	-8.85111
▁ஒன்றாக	-8.85191
▁பால்	-8.85384
▁தேதி	-8.85394
ra	-8.85463
▁தடை	-8.85509
▁அவருக்கு	-8.85511
us	-8.8559
வெ	-8.85742
▁சாலை	-8.85757
▁வீ	-8.85846
▁தே	-8.85875
மாகவும்	-8.85888
▁பெருமாள்	-8.85901
▁F	-8.85937
வகை	-8.85994
▁நாடக	-8.86066
]	-8.86134
_	-8.86138
த்தார்	-8.86287
0	-8.86387
▁இணைய	-8.86453
▁வை	-8.86578
▁முதன்மை	-8.86584
▁L	-8.86592
at	-8.86598
▁வேண்டிய	-8.86684
▁அமெரிக்கா	-8.86709
▁எந்தவொரு	-8.86877
▁எண்ணிக்கை	-8.86913
தம்	-8.86952
சூ	-8.87051
▁குறிக்கும்	-8.87063
மீ	-8.87076
▁குறித்த	-8.8709
▁தவிர	-8.87092
▁நோக்கி	-8.87103
▁எரி	-8.87171
ஐ	-8.87239
தற்கு	-8.87489
நி	-8.87489
▁உட்	-8.8794
▁பெர்	-8.87952
▁தயாரிக்க	-8.87959
பின்	-8.8803
▁புள்ளி	-8.88078
▁பேர	-8.88098
▁ஏரி	-8.88171
ற்ப	-8.88335
ண்டா	-8.88337
▁உரு	-8.88447
ரெ	-8.88448
▁நகரில்	-8.88486
▁மாநிலத்தில்	-8.88514
▁கோட்டை	-8.88627
▁நூற்றாண்டு	-8.88645
யார்	-8.88657
▁தெற்கு	-8.88744
▁2006	-8.88831
கால	-8.88934
▁அவரை	-8.8896
▁வரி	-8.88998
▁இவருக்கு	-8.89052
▁தொலைவில்	-8.89053
▁உரிமை	-8.89152
▁அலை	-8.89315
கல்	-8.89316
▁அதாவது	-8.89577
▁உறுப்பினர்	-8.89642
▁கருதப்படுகிறது	-8.89702
ிலுள்ள	-8.89779
▁தேவ	-8.89852
▁மனைவி	-8.90046
▁ஜா	-8.90088
▁முழுவதும்	-8.9015
▁கூ	-8.90232
▁சோதனை	-8.90239
▁தெ	-8.90248
▁உருவ	-8.90475
▁மேற்பட்ட	-8.90509
வுடன்	-8.90733
▁சேர்ந்து	-8.90759
▁23	-8.90822
▁மகன்	-8.90959
வந்த	-8.91009
▁இடங்களில்	-8.91098
▁இவ்வாறு	-8.91269
▁சராசரி	-8.91331
▁செயல்	-8.91579
▁ஆகியவற்றை	-8.91583
▁formula	-8.91682
▁மக்களின்	-8.91772
▁ரி	-8.91852
▁போட்டியிலும்	-8.9192
▁இராணுவ	-8.91935
ch	-8.91957
▁விழா	-8.92014
▁E	-8.92133
▁நகர்	-8.92396
வீ	-8.92475
▁வரலாறு	-8.92519
▁பதவி	-8.92781
▁தோற்ற	-8.92799
▁உறுப்பினராக	-8.92859
ஹா	-8.9288
▁சக்தி	-8.92925
▁செலுத்த	-8.92942
▁ஐரோப்பிய	-8.92997
▁கடைசியாக	-8.93009
▁கருத	-8.93151
▁ஏற்ற	-8.9319
▁குறித்து	-8.93231
el	-8.93325
ிருந்தார்	-8.9337
▁கள	-8.93465
▁நியூ	-8.93538
▁குடி	-8.93574
▁உலகின்	-8.93579
▁மதிப்பு	-8.93616
▁நெ	-8.93731
▁நடத்த	-8.93743
▁திட்ட	-8.93814
▁வங்கி	-8.94189
▁முடிவு	-8.94383
▁ஆற்றல்	-8.94528
▁தீவு	-8.94561
▁உரை	-8.94613
▁மார்ச்	-8.94663
▁ஆசிரியர்	-8.94761
மெ	-8.94829
ஏ	-8.9496
ப்பகுதி	-8.95019
▁இடையே	-8.95034
▁மக	-8.95138
▁பருவ	-8.95142
ுக்கும்	-8.95249
▁நிகழ்ச்சி	-8.95251
ட்ஸ்	-8.95271
▁வரிசை	-8.95469
▁இவர்கள்	-8.95474
▁எதிராக	-8.95621
▁பழ	-8.95746
▁அப்போது	-8.95843
▁வார	-8.95876
▁ஜான்	-8.95915
பதி	-8.95982
கொண்ட	-8.96076
கொ	-8.96274
▁அதனை	-8.96342
▁பெயர	-8.96435
டிய	-8.96481
▁நடவடிக்கை	-8.96606
ின்றன	-8.96694
▁இந்தக்	-8.96725
▁கண்	-8.96974
▁அவற்றின்	-8.96981
ளவு	-8.96985
▁தாய்	-8.97105
மான்	-8.97255
▁ஆண்டுகள்	-8.97295
யைச்	-8.9753
▁வள	-8.97589
▁மற்றொரு	-8.97591
it	-8.97611
பை	-8.97672
▁நம்பிக்கை	-8.97717
▁அமில	-8.97744
▁the	-8.97796
▁மாநிலத்தின்	-8.97819
▁இத்திரைப்படத்த	-8.97949
▁சேர்த்து	-8.98034
மர	-8.9817
னியா	-8.98252
பீ	-8.98285
த்தைச்	-8.98396
லும்	-8.98402
▁பங்குகொண்டார்	-8.98463
▁செல்	-8.9853
ாது	-8.98599
▁சுற்றி	-8.98713
▁வசதி	-8.98733
யாளர்	-8.98885
ந்தா	-8.98978
▁சூ	-8.99
9	-8.99074
▁நாக	-8.99138
ol	-8.99162
டின்	-8.99465
மணி	-8.9955
▁ராஜ	-8.9965
ரான	-8.99662
▁சபை	-8.99665
▁இரத்த	-8.99771
▁ஆரம்ப	-8.99789
▁திருமணம்	-8.99805
▁கிளை	-8.99989
10	-8.99998
▁போல்	-9.00018
▁ஹா	-9.00171
▁பார்க்கப்பட்ட	-9.00233
▁பட்டம்	-9.00246
▁எழுத்தாளர்	-9.00339
▁மொ	-9.00361
▁உடன்	-9.0045
▁தம்	-9.00498
▁நடைமுறை	-9.00576
▁கண்ண	-9.00675
▁எழுத்து	-9.00723
வால்	-9.00858
▁அரசின்	-9.00963
ஜா	-9.01037
▁இலங்கையின்	-9.01074
▁முன்னாள்	-9.01384
▁1.	-9.01419
–	-9.01428
▁உள்ளார்	-9.01501
ிருக்கிறது	-9.01522
▁நாடுகள்	-9.01661
▁கரை	-9.01677
ri	-9.01694
▁2001	-9.01746
களே	-9.01782
லெ	-9.01783
க்கல்	-9.01887
▁உடைய	-9.01892
▁குறை	-9.02109
ரால்	-9.0216
ிருக்க	-9.02287
▁இறப்பு	-9.02291
▁தொடக்க	-9.0234
▁செய்தி	-9.02649
த்துவ	-9.02759
▁புகழ்	-9.02905
▁விலை	-9.03054
ட்டோ	-9.03136
▁பார்க்க	-9.03146
த்தூர்	-9.03232
ல்லா	-9.03249
▁1,	-9.0331
ாள	-9.03457
ுவதை	-9.03468
லம்	-9.03468
▁எல்	-9.03548
வாய்	-9.03611
கின்றன	-9.03759
▁தேர்தல்	-9.03789
re	-9.03818
னெ	-9.03955
ad	-9.04173
▁மாகாண	-9.04212
▁நீக்க	-9.04218
▁திரைப்படமாகும்	-9.04339
மார்	-9.04354
த்தினை	-9.04416
es	-9.04424
▁புது	-9.04429
▁2014	-9.04455
யுள்ள	-9.04478
▁திருவிழா	-9.04509
▁திட்டத்தின்	-9.04631
▁கால்	-9.04724
▁விற்பனை	-9.04753
▁அதனால்	-9.04833
▁விளையாட்டுவீரர்	-9.04836
▁p	-9.04901
▁மொழியில்	-9.04901
னம்	-9.05031
▁சிவன்	-9.05064
க்குள்	-9.05075
ழ்	-9.0516
▁விபரக்குறிப்பு	-9.05202
நில	-9.05266
▁கொண்டார்	-9.05307
பார்	-9.0539
▁பல்	-9.05523
க்கம்	-9.05574
▁26	-9.05611
வல்	-9.05715
சியா	-9.05733
▁ஆண்டுகளுக்கு	-9.05833
▁I	-9.05869
▁ஆடி	-9.05951
▁ஒத்த	-9.05996
பட்டி	-9.06038
▁கீ	-9.06173
▁[	-9.06307
▁வெள்ளை	-9.0657
▁27	-9.06622
▁கான்	-9.06795
ைச்	-9.06802
▁உலோக	-9.0688
▁தொடர்பான	-9.06977
யிட	-9.06981
as	-9.07026
▁வகையான	-9.07071
▁மாற	-9.07131
▁நடித்த	-9.07251
▁கொள்ளவில்லை	-9.07277
▁இடம்பெற்ற	-9.07315
▁வந்தார்	-9.07344
ன்ஸ்	-9.07499
▁:	-9.07515
▁இர	-9.07538
ுடைய	-9.07655
▁அவர்களின்	-9.07677
▁இருப்பதால்	-9.07783
▁பிள்ளை	-9.07952
▁விடுதலை	-9.08199
யினை	-9.08287
ir	-9.08339
▁வாழும்	-9.08355
▁K	-9.08357
▁ஏற்பட	-9.08375
▁புவி	-9.0846
▁அதிகமான	-9.085
▁மன்னர்	-9.08551
▁நீர	-9.08566
▁தேர்வு	-9.08574
கார்	-9.08655
▁சுவாமி	-9.08695
▁வைக்க	-9.08755
▁சரி	-9.0877
▁ஏழு	-9.08926
▁அடை	-9.08927
▁ஓட்ட	-9.08989
▁குறி	-9.09043
▁பேச	-9.09061
▁குறிக்க	-9.09133
▁சை	-9.09164
▁மாதிரி	-9.09174
வராக	-9.09351
ாட்சி	-9.09377
மின்	-9.09398
களாகும்	-9.09436
▁28	-9.09568
▁பர	-9.09576
▁மண	-9.09587
றிய	-9.0975
ப்பட்டி	-9.09829
▁இல்லாத	-9.0984
லீ	-9.09849
▁வீரர்	-9.09915
▁நவீன	-9.09933
19	-9.09965
▁மார்	-9.10036
▁தொ	-9.10118
தீ	-9.10152
▁பாரம்பரிய	-9.1024
▁தேர்தலில்	-9.10272
▁ல	-9.10322
▁வயது	-9.10488
▁நேர்	-9.10586
?	-9.10725
ation	-9.1085
▁எனப்	-9.10857
▁ஆல்	-9.10915
னாக	-9.10971
களிலிருந்து	-9.1104
▁டிசம்பர்	-9.11246
▁பன்னாட்டு	-9.11348
தும்	-9.11447
ாவில்	-9.11452
சம்	-9.11455
விய	-9.11538
▁உறுதி	-9.11539
▁மிகப்பெரிய	-9.11542
▁இப்	-9.11668
▁தஞ்சாவூர்	-9.11712
▁சனவரி	-9.11802
th	-9.11996
▁முன்பு	-9.12032
▁கிறித்தவ	-9.12033
▁2012	-9.12056
▁அமைக்கப்பட்ட	-9.12124
▁டே	-9.12393
▁ஆக்க	-9.12559
▁மை	-9.12569
ரன்	-9.12912
▁நடு	-9.12939
▁கொண்டாட	-9.12969
▁நேரத்தில்	-9.13038
▁கிரேக்க	-9.13148
▁இயக்கத்தில்	-9.13165
▁வெப்பநிலை	-9.13198
ட்டில்	-9.13228
▁வானூர்தி	-9.13256
ப்பர்	-9.13283
▁மிகப்	-9.13313
50	-9.13435
▁இருந்தன	-9.1358
▁மூன்றாம்	-9.13656
▁சர்வதேச	-9.13658
▁திறன்	-9.1366
▁அறிமுகப்படுத்த	-9.13693
▁2005	-9.13721
▁அடுத்து	-9.13734
▁ல்	-9.13784
▁இடை	-9.13866
▁மூ	-9.13903
▁பொதுவான	-9.14043
▁ஆட்ட	-9.14077
▁நிறுத்த	-9.14128
▁நெடுஞ்சாலை	-9.14293
▁100	-9.14398
▁கட்டிட	-9.1441
▁வைத்த	-9.14413
▁அக்	-9.14454
ணம்	-9.14551
களுக்காக	-9.14627
▁வெளியிட்ட	-9.1479
▁ஹெ	-9.14911
▁பரவலாக	-9.15039
ுக்	-9.15132
த்திற்கான	-9.15174
ுக்கான	-9.15194
கிரி	-9.15243
▁முன்னர்	-9.15271
▁நான்	-9.15326
▁இருக்கலாம்	-9.15351
▁மண்டல	-9.15358
▁இயேசு	-9.15363
பொ	-9.15401
▁c	-9.15409
▁லெ	-9.15459
தற்காக	-9.15575
▁இருக்கின்றன	-9.15662
▁நூற்றாண்டின்	-9.15663
▁வாய்ந்த	-9.15788
ரண	-9.15935
▁உள்	-9.16054
ப்படவில்லை	-9.16058
▁அவ	-9.16067
▁உயர்ந்த	-9.16118
கார	-9.16146
▁வேதியியல்	-9.16438
களைச்	-9.16493
ுவதாக	-9.16549
▁பகுதிகள்	-9.1658
▁மிகுந்த	-9.16659
!	-9.16675
மங்கலம்	-9.16903
▁ஒன்றை	-9.16917
▁தமிழர்	-9.16936
▁விரும்ப	-9.16954
னூர்	-9.17011
ம்பி	-9.17034
▁வெளியிட	-9.17075
▁குறைவான	-9.1723
▁கணித	-9.17262
▁உறுப்பு	-9.17388
▁முன்ன	-9.1739
▁ஏற்படுத்த	-9.17415
▁எழுதி	-9.17525
▁சட்டம்	-9.17555
ணு	-9.17607
விட்டு	-9.17678
ுமாறு	-9.1773
▁இராம	-9.17805
ப்படை	-9.17973
▁அணை	-9.18056
is	-9.18261
▁தலைவராக	-9.183
ைய	-9.18332
ுவதற்காக	-9.18415
▁இவரின்	-9.1852
ச்சா	-9.18536
ணா	-9.18562
▁மட	-9.18564
▁s	-9.18629
லூர்	-9.18637
▁எதிரான	-9.18654
▁இறந்த	-9.18893
▁2004	-9.18939
▁கட்டுப்படுத்த	-9.1894
தாகக்	-9.19006
▁மரபு	-9.19029
த்தைத்	-9.19062
▁மாவட்டத்தின்	-9.19073
▁கொண்டிருக்கும்	-9.19116
ரில்	-9.1919
▁கண	-9.19203
z	-9.19219
▁நடிகர்	-9.19453
படுத்த	-9.19473
▁தல	-9.19571
▁தூ	-9.19719
ந்தர்	-9.19759
▁குள	-9.19789
▁2013	-9.19807
▁யு	-9.19843
▁கல்	-9.1985
▁தன்னுடைய	-9.19956
▁யாழ்ப்பாண	-9.1998
▁கிமீ	-9.20034
▁W	-9.20174
▁இன்று	-9.20271
▁சொந்த	-9.20421
▁பனி	-9.20438
▁முனை	-9.2046
▁வாழ்	-9.20471
லர்	-9.20498
லுக்கு	-9.2058
கெ	-9.20622
ப்பள்ளி	-9.20643
▁சர்	-9.20788
▁குல	-9.20801
ண்ண	-9.20899
▁2000	-9.20927
▁கட்டி	-9.2109
▁தத்துவ	-9.21124
▁அவ்வ	-9.21138
▁அவற்றை	-9.21155
et	-9.21244
▁அமைப்ப	-9.21322
▁பயன்பாடு	-9.21335
0,000	-9.2134
▁வருட	-9.21381
▁ஜே	-9.21418
ஸி	-9.21433
ா்	-9.21435
ாள்	-9.21477
▁அமைக்க	-9.21505
▁பாடல்கள்	-9.21522
▁பார்வை	-9.21567
▁சோழ	-9.21671
▁கூட்டு	-9.21691
▁நாட்டில்	-9.21741
▁இயந்திர	-9.21835
▁29	-9.21847
▁50	-9.21931
ங்களைப்	-9.21962
▁டோ	-9.22062
▁இத்தகைய	-9.22234
▁இறுதியில்	-9.2225
▁சந்திர	-9.22251
▁ரெ	-9.22299
▁வர்த்தக	-9.22348
▁சண்டை	-9.22386
▁தொகுப்பு	-9.22504
வேண்டும்	-9.22548
▁பறவை	-9.22721
▁கிலோமீட்டர்	-9.22787
un	-9.229
▁சிங்	-9.23005
▁அறிக்கை	-9.23008
▁தமிழில்	-9.23043
ங்கோ	-9.23163
▁உட்பட	-9.23245
▁கொடுக்க	-9.23353
▁அத்துடன்	-9.23398
டம்	-9.23431
▁சுந்தர	-9.23509
▁கரிம	-9.23553
ப்பின்	-9.23693
சல்	-9.23746
▁பயண	-9.23885
▁தொடர்புடைய	-9.23889
▁பூங்கா	-9.23893
▁அமெரிக்காவில்	-9.23908
▁அல்ல	-9.23947
▁வாகன	-9.23992
▁பொருட்கள்	-9.24064
▁நாடாளுமன்ற	-9.24144
வற்ற	-9.24195
▁பகுதியாக	-9.24277
▁திருத்தந்தை	-9.24317
▁விசை	-9.24333
▁முடி	-9.24341
ரூ	-9.24344
▁முதலாம்	-9.2437
த்தான்	-9.24812
▁சொ	-9.24833
▁பணியாற்றினார்	-9.24917
▁காந்தி	-9.25027
▁மாறி	-9.2503
ித்த	-9.25037
மாகக்	-9.25062
களிடம்	-9.25071
ந்தை	-9.25171
30	-9.25213
▁2016	-9.25214
U	-9.25247
▁வாய்ப்பு	-9.25273
▁தேவையான	-9.25364
த்தன்மை	-9.25694
▁அழைக்கப்படும்	-9.25783
▁வெளிப்படுத்த	-9.25816
-19	-9.2589
▁ஆக்கைவ	-9.25895
▁எட்டு	-9.25983
▁குண	-9.25993
பிறப்பு	-9.26027
▁வழக்க	-9.26047
00	-9.26083
ிருக்கிறார்	-9.26121
▁இல	-9.26125
▁அரை	-9.26135
▁அச்ச	-9.26186
ிலேயே	-9.26203
மர்	-9.26283
டல்	-9.26306
▁தன்னை	-9.26418
▁ஷா	-9.26484
லிய	-9.26498
12	-9.26528
எஸ்	-9.26588
▁அழுத்த	-9.2662
▁இதுவே	-9.26696
▁சுதந்திர	-9.26741
▁புல	-9.2676
▁நெல்	-9.26824
▁புகழ்பெற்ற	-9.26824
▁எடுத்து	-9.26834
▁மேல	-9.26997
▁அறை	-9.26999
▁பிரா	-9.27064
▁கண்டுபிடிக்க	-9.27276
புர	-9.27287
▁கட்டப்பட்ட	-9.27317
▁சந்தை	-9.27331
ிறார்	-9.27341
▁மழை	-9.27404
▁கோட்ட	-9.27471
000	-9.27609
ௌ	-9.2771
அழைக்கப்படுகிறது	-9.27767
▁கீழே	-9.2787
▁இடையில்	-9.27919
▁அதிகம்	-9.27966
▁மக்கள்தொகை	-9.27966
ட்டின்	-9.28116
▁வருகிறார்	-9.28141
▁பத்து	-9.28151
▁போக்குவரத்து	-9.28233
ிகள்	-9.28253
▁தெய்வ	-9.28275
▁மாணவர்	-9.28276
க்கிய	-9.28358
▁வெவ்வேறு	-9.28507
▁இந்தத்	-9.28732
▁காரணம்	-9.28835
▁சேர	-9.28851
▁தொகுதியில்	-9.28895
▁ஹோ	-9.28957
▁சூலை	-9.28989
▁கல்லூரியில்	-9.29258
▁பிப்ரவரி	-9.29313
▁கவிதை	-9.29443
▁உண்மை	-9.29464
சன	-9.29533
▁ராம	-9.29547
ro	-9.29556
▁ஆஃப்	-9.29589
um	-9.29802
▁மீன்	-9.29845
▁திரும்ப	-9.2993
ஒ	-9.30003
▁செய்யப்பட்டது	-9.30012
ரான்	-9.30322
▁இரண்ட	-9.30359
▁கட்டுரை	-9.30383
ார்கள்	-9.30399
▁மாரியம்மன்	-9.30411
▁மேற்	-9.30414
ப்பெற்ற	-9.30529
▁40	-9.30549
▁பங்க	-9.30551
பால்	-9.30725
▁எடை	-9.30808
▁விட்ட	-9.30894
▁அவன்	-9.30905
▁தொடருந்து	-9.3094
▁தோட்ட	-9.3096
▁என்பன	-9.30989
▁ஹி	-9.31042
▁இரா	-9.31074
ுவதால்	-9.31117
தான	-9.31119
▁நடிகை	-9.31258
▁ஆவது	-9.31278
▁b	-9.31327
▁மருந்து	-9.31356
கல	-9.31408
▁அரி	-9.31463
▁நல	-9.31466
▁வங்காள	-9.31507
ையில்	-9.31722
▁எழுதப்பட்ட	-9.3175
▁and	-9.31753
15	-9.31905
▁பண	-9.31912
▁காட்டு	-9.31955
▁V	-9.31971
▁கீழ	-9.31997
ul	-9.31997
▁பயன்படுகிறது	-9.3203
▁பாக	-9.32135
▁பாதை	-9.3215
▁லே	-9.32218
த்தோ	-9.32229
▁சூன்	-9.32276
▁கிரி	-9.32334
▁ஆதி	-9.32343
W	-9.32347
முனை	-9.32494
ந்திர	-9.32625
▁நிறுவனத்தின்	-9.32793
கில்	-9.32833
ாளி	-9.32885
▁நடித்தார்	-9.32968
▁கூறினார்	-9.33034
▁பண்டைய	-9.33075
▁பாத்திர	-9.33103
ுகின்ற	-9.33229
க்கே	-9.33284
ுவதற்கான	-9.33308
▁பொருட்	-9.33312
ட்டர்	-9.33332
▁பர்	-9.3334
▁திருமண	-9.33394
▁பின்ன	-9.33412
▁ஊடக	-9.33558
▁இதழ்	-9.33641
▁பரிசு	-9.33924
▁காற்று	-9.33982
▁எதிர்ப்பு	-9.34003
ங்கை	-9.34052
ai	-9.34067
▁நேரம்	-9.34121
கின்றது	-9.34159
▁வான்	-9.34423
▁வலி	-9.34458
▁முன்னணி	-9.34466
வார்	-9.34499
பாளையம்	-9.3456
▁புத்த	-9.34565
ங்களுடன்	-9.34576
▁விலங்கு	-9.34587
▁கண்டு	-9.34614
த்திற்கும்	-9.34621
யிலுள்ள	-9.34737
▁குறு	-9.34752
▁வருகின்றன	-9.34758
யெ	-9.34822
▁முதலிய	-9.34826
▁ஜோ	-9.34867
▁ஃபி	-9.34906
▁1990	-9.35008
▁பத்திரிகை	-9.35035
▁போன்று	-9.35061
▁இன்னும்	-9.35105
ட்ச	-9.35217
▁31	-9.35258
பர	-9.35276
om	-9.35309
▁கனிம	-9.35311
▁கோல்	-9.35312
▁நூல்கள்	-9.35356
▁ஆனது	-9.35378
▁மூன்றாவது	-9.35409
▁செயல	-9.3541
த்துக்	-9.35415
▁செயல்முறை	-9.35452
▁நிகழ்வு	-9.35524
டீ	-9.35567
▁விநாயகர்	-9.35594
ாக்க	-9.35673
▁திசை	-9.35678
ஷா	-9.35695
▁கடந்த	-9.35728
▁கோட்பாடு	-9.35824
▁முந்தைய	-9.35825
ன்று	-9.35859
ப்பில்	-9.3586
ுகிறார்கள்	-9.35875
▁அடர்த்தி	-9.35908
▁ரே	-9.35951
▁நீள	-9.36042
மிக்க	-9.36054
▁பெயரை	-9.3609
▁கிராமம்	-9.36119
▁in	-9.36212
ன்ன	-9.36223
வாத	-9.36325
விலும்	-9.36387
=	-9.3644
▁உயர	-9.36565
மற்ற	-9.36567
▁பரவ	-9.36603
▁வெளியான	-9.36621
▁தற்போதைய	-9.3666
▁உட்பட்ட	-9.36664
சுவாமி	-9.36666
▁வயதில்	-9.36742
ம்பட்டி	-9.3675
li	-9.3681
▁ஞான	-9.3682
▁திருவண்ணாமலை	-9.3683
▁ஜனவரி	-9.36874
க்களை	-9.36918
யியல்	-9.37007
த்தே	-9.37068
▁கிடைத்த	-9.37124
▁தகுதி	-9.37212
▁சிறப்பாக	-9.37235
▁விருப்ப	-9.37331
▁இந்தியத்	-9.37341
▁குட	-9.37374
▁பின்பு	-9.37397
க்கொண்டு	-9.37645
▁பௌத்த	-9.37664
▁ஆவர்	-9.3768
▁அளிக்க	-9.37705
▁குறியீடு	-9.37809
▁அழி	-9.37809
▁குற்ற	-9.37861
வற்றை	-9.37865
▁அர	-9.3791
க்கொண்ட	-9.382
▁ஈர	-9.38223
▁பல்கலைக்கழகம்	-9.38242
▁ஒற்றை	-9.38333
▁அடங்கும்	-9.38497
முடி	-9.38506
▁நிறுவனங்கள்	-9.38527
▁நம்ப	-9.38539
▁கார	-9.38579
▁ஆப்	-9.3868
த்திற்காக	-9.38729
▁வான	-9.38786
▁கன	-9.38819
பால	-9.38825
▁நேபாள	-9.38832
ஸ்ட	-9.38897
வெளி	-9.38916
▁இம்	-9.38953
▁வெள்ள	-9.38954
▁நீல	-9.39043
▁தரவு	-9.39072
▁பொழுது	-9.39099
ித்து	-9.39129
▁உலகப்	-9.39145
▁மண்	-9.39225
ப்பொருள்	-9.39241
டிக்	-9.39249
ின்றது	-9.39279
▁O	-9.39306
▁இதய	-9.3932
▁போராட்ட	-9.39339
ப்படாத	-9.39362
ஃ	-9.39413
▁செய்	-9.39433
▁வாங்க	-9.39474
▁கதிர்	-9.3954
▁m	-9.39545
மிய	-9.3956
▁தை	-9.39647
▁நை	-9.39658
ல்லி	-9.39714
▁அனுப்ப	-9.39737
▁சன்னதி	-9.39742
▁நாள	-9.39808
ter	-9.39844
▁வேத	-9.39867
▁விளம்பர	-9.39867
▁பொருத்த	-9.39929
▁வீடு	-9.4004
▁கர	-9.4008
▁துவக்க	-9.40088
▁அதிகார	-9.40117
▁இக்க	-9.40127
v	-9.40244
▁சுற்று	-9.40255
▁நாடுகளின்	-9.4028
▁மிக்க	-9.40324
ர்களின்	-9.40559
த்தது	-9.40562
▁முதன்	-9.40574
▁சுற்றுலா	-9.40578
▁விகிதம்	-9.40631
▁வருவாய்	-9.40636
▁தாக்குதல்	-9.40638
▁பொருள	-9.40683
ேன்	-9.40684
16	-9.40726
வினை	-9.40745
▁விகித	-9.40745
▁பரப்ப	-9.4075
▁இரட்டை	-9.4077
▁ஆகவும்	-9.40808
▁தொடங்கி	-9.40816
▁இல்ல	-9.4084
▁கடற்கரை	-9.40889
றா	-9.40927
கொள்ள	-9.40931
▁தூண்ட	-9.40942
யற்ற	-9.40959
▁கத்தோலிக்க	-9.40959
▁சாதாரண	-9.40961
▁புலவர்	-9.41103
▁நிகழ்	-9.41213
▁ய	-9.41239
▁மெய்	-9.41295
▁இவரை	-9.41351
▁மாற்றம்	-9.41402
▁ஒப்பந்த	-9.4148
▁ஆகியவற்றின்	-9.41486
▁கட்சியின்	-9.41523
▁தில்லி	-9.41621
▁விண்மீன்	-9.41709
மைய	-9.41744
▁அரு	-9.41789
▁மைல்	-9.41843
▁கிடைக்கும்	-9.41857
▁ஆவண	-9.41859
▁கொடுத்த	-9.41923
▁ஆயுத	-9.41977
▁திரைப்படத்தில்	-9.41978
▁ஒன்றிய	-9.4199
▁தந்த	-9.41993
▁சிற்ற	-9.41994
▁முதலாவது	-9.42065
▁இப்போது	-9.42085
▁கல்வெட்டு	-9.42165
▁கடைசி	-9.42169
▁உடை	-9.42177
வள	-9.42239
▁மூலக்கூறு	-9.42302
னல்	-9.42304
ட்சி	-9.42328
▁நிறுவ	-9.4238
▁மேம்படுத்த	-9.4247
▁அருகே	-9.42502
ரச	-9.42564
ஷி	-9.42592
▁உயிர	-9.42676
கூ	-9.42788
▁1980	-9.42792
▁திரை	-9.42879
▁மாற்றி	-9.42887
ent	-9.4301
▁கட	-9.43023
and	-9.43056
▁கழக	-9.43098
▁விதை	-9.43107
▁ஒருநாள்	-9.43109
▁தொடர	-9.43114
▁வண்ண	-9.43185
id	-9.43188
யினால்	-9.43411
ிருப்ப	-9.43415
பாடு	-9.43435
▁கொடி	-9.43506
ரசு	-9.43518
▁இலங்கையில்	-9.43601
▁பகுதிகளை	-9.4365
▁ஆக்	-9.43745
▁என்றால்	-9.43789
11	-9.43844
▁திருநெல்வேலி	-9.43855
களாகவும்	-9.43874
▁கல்வியறிவு	-9.439
▁துறைமுக	-9.43901
▁பாறை	-9.43921
▁புத்தக	-9.44077
▁நுட்ப	-9.44077
மம்	-9.44144
▁தின	-9.44167
▁பெண்ண	-9.442
▁உச்ச	-9.44212
▁பென்	-9.44212
▁புரட்சி	-9.44238
க்குச்	-9.44256
யூர்	-9.44266
பிர	-9.44382
▁இருந்தாலும்	-9.44419
▁தொடங்கியது	-9.44479
யிலேயே	-9.44493
ஸின்	-9.44522
▁அனுமதி	-9.44563
▁ஏற்ப	-9.44671
▁சிலை	-9.44694
ுவர்	-9.44697
▁இல்லாமல்	-9.44706
▁காஞ்சிபுரம்	-9.44724
கான்	-9.44802
▁முத்து	-9.44846
▁பிரெஞ்சு	-9.44849
க்குத்	-9.44858
▁போரில்	-9.44928
▁இளம்	-9.44972
▁வென்ற	-9.45043
w	-9.45053
▁ஆன	-9.45061
▁அனு	-9.45075
▁கலைஞர்	-9.45089
▁அமெரிக்காவின்	-9.45122
▁பதிப்பு	-9.45157
▁இணைந்த	-9.4519
▁உறவு	-9.45226
▁திட்டம்	-9.45228
▁படம்	-9.45258
ங்கள	-9.45276
ரங்க	-9.45371
▁மாற்று	-9.45389
▁விளைவாக	-9.45458
புரி	-9.4546
▁பஞ்ச	-9.45539
▁நாணய	-9.45634
▁ஆட	-9.45869
▁2003	-9.45991
▁இவருடைய	-9.46002
கண்ட	-9.4604
▁ஆகியன	-9.46171
▁அங்க	-9.46181
ார	-9.46219
▁J	-9.46256
தில்லை	-9.46282
▁உள்ளூர்	-9.46472
▁ஜூன்	-9.46486
▁தயாரிப்பு	-9.46506
▁வில்	-9.46536
▁என்பதால்	-9.46548
▁வழங்கி	-9.46558
▁தொடங்கினார்	-9.46579
▁அளவை	-9.46586
▁ஏனெனில்	-9.4665
▁வெள்ளி	-9.46659
லாக	-9.46663
▁புலி	-9.46727
99	-9.46758
▁ஏறத்தாழ	-9.4679
▁அரங்க	-9.46791
60	-9.46795
▁கிருஷ்ண	-9.4682
வதற்கு	-9.46826
▁அயனி	-9.4683
ia	-9.4685
▁சைவ	-9.4699
▁கம்ப	-9.47008
▁மேற்கொள்ள	-9.47047
▁அலகு	-9.47049
▁வம்ச	-9.47158
ப்பதற்கு	-9.47233
▁நதி	-9.47242
▁கூறி	-9.47243
▁ஆகத்து	-9.47373
ூட்ட	-9.47374
▁கொண்டிருந்த	-9.47389
▁அரசர்	-9.47421
▁அறிவு	-9.47424
முள்ள	-9.47474
டியா	-9.4748
ம்பா	-9.47487
▁தடுக்க	-9.47512
திரு	-9.47572
▁நாட்ட	-9.47595
▁என்ன	-9.47676
▁வழங்கப்பட்டது	-9.47702
ஸ்டர்	-9.47761
▁குதிரை	-9.47845
▁பின்வருமாறு	-9.47913
▁வெளியிடப்பட்டது	-9.48021
▁உப்பு	-9.4805
க்கப்பட்டது	-9.48078
▁படைகள்	-9.4808
ளு	-9.48172
j	-9.48188
▁நன்கு	-9.4834
▁பகுதியை	-9.48359
▁தொலை	-9.48374
▁அவர்களது	-9.48386
▁இருவரும்	-9.48445
ப்பான	-9.48452
▁பலர்	-9.48452
▁பார்த்த	-9.48538
நாத	-9.48554
▁இதே	-9.48605
▁வல்ல	-9.48616
எடுத்துக்காட்டாக	-9.48713
▁வகுப்பு	-9.48795
ராஜ	-9.48853
▁அரசாங்க	-9.48853
▁அமையும்	-9.48884
▁நினைவு	-9.48914
▁அமைதி	-9.48958
▁காய	-9.48998
▁பதிலாக	-9.49016
ுக்காக	-9.49069
la	-9.49071
▁சுழற்சி	-9.49157
ot	-9.49205
தலை	-9.49282
▁பிரபலமான	-9.49333
▁லீ	-9.49356
▁கட்டு	-9.49433
ஃபி	-9.4946
▁என்கிற	-9.49526
▁கடை	-9.49572
▁விளையாட	-9.49581
வாதி	-9.49591
▁பேரரசு	-9.49611
▁எடுக்க	-9.49652
▁மேலாண்மை	-9.49673
வல	-9.49675
▁சேர்க்க	-9.49676
▁திரி	-9.49701
ந்	-9.49736
▁நாட்கள்	-9.4974
ீடு	-9.49753
▁சமுதாய	-9.49766
ிருக்கலாம்	-9.49823
▁தோன்றிய	-9.49929
▁இலை	-9.50027
▁மாலை	-9.50028
14	-9.50046
▁இவற்றின்	-9.5011
▁காற்ற	-9.50111
40	-9.50216
▁இணைக்கப்பட்ட	-9.50232
குடி	-9.50298
▁ஏனைய	-9.50303
▁திராவிட	-9.50344
ியா	-9.50348
்க	-9.50351
▁படுத்த	-9.50484
▁அண்ட	-9.50492
என்	-9.50494
சில்	-9.50619
▁பேருந்து	-9.50633
▁யானை	-9.50678
▁ஃப	-9.50754
ஹ்	-9.50831
▁அதி	-9.5087
▁எழு	-9.50901
▁இப்ப	-9.50914
▁ஜூலை	-9.5096
80	-9.51018
▁தனிம	-9.51034
த்தன	-9.51044
▁இள	-9.51047
▁சொற்	-9.51053
போர்	-9.51232
▁வார்த்தை	-9.51269
▁2002	-9.51275
▁வன	-9.51367
▁மது	-9.51506
▁அடைந்த	-9.5154
▁நீளம்	-9.51545
▁மனிதர்	-9.51668
▁குழந்தைகள்	-9.51669
▁அமைத்த	-9.51695
▁பெருக்க	-9.517
▁பாதிக்கப்பட்ட	-9.51799
ஓ	-9.51826
ப்படுவது	-9.51847
▁பரி	-9.51926
வையாக	-9.51939
▁தனிப்பட்ட	-9.5194
ஹி	-9.51987
▁கிராமக்	-9.51996
▁காம	-9.52042
▁பலரும்	-9.52099
▁அறியப்பட்ட	-9.52135
▁வில்லியம்	-9.52211
கொள்	-9.52284
▁வானொலி	-9.52296
▁தேர்	-9.52339
தோடு	-9.52415
▁நேரடியாக	-9.52462
▁பிரபல	-9.52476
காண	-9.52613
த்தக்க	-9.52699
-1	-9.52785
▁முறையாக	-9.52814
▁ஜெய	-9.52865
▁ஆய்வ	-9.52982
▁பிரதான	-9.52984
▁இவற்றை	-9.53045
▁திரவ	-9.53049
▁நடைபெறும்	-9.53057
ளம்	-9.53108
▁பயிர்	-9.53166
▁ஆலய	-9.53218
▁கோண	-9.53229
▁பயன்	-9.5335
▁தேச	-9.5345
▁+	-9.53647
▁உலகில்	-9.53655
▁புரத	-9.53678
ீர்	-9.53696
ag	-9.53721
▁வளர்ந்த	-9.53736
▁ரூ	-9.53759
மைப்பு	-9.53776
▁இச்ச	-9.53779
▁வட்டம்	-9.53801
திய	-9.53804
▁கழகம்	-9.53893
ாண்டு	-9.53916
▁திறமை	-9.54032
▁குறைவாக	-9.54036
க்குரிய	-9.54037
▁குறைக்க	-9.54067
ுவதன்	-9.54103
▁பொறியியல்	-9.54154
▁பொருட்களை	-9.54328
▁எடுத்துக்	-9.54365
▁வீட்டு	-9.54431
▁செய்தது	-9.54492
▁நாம்	-9.54533
▁பின்பற்ற	-9.54547
ணர்	-9.54589
மதி	-9.54628
பெரு	-9.54687
▁கொலை	-9.54712
ுவதில்	-9.54777
▁பன்னாட்டுத்	-9.54875
கிறார்	-9.54904
▁நடத்தி	-9.54904
நீர்	-9.54952
▁வேறுபட்ட	-9.55044
யிர்	-9.55075
விலிருந்து	-9.55077
▁ஆசிய	-9.55127
▁ஓவிய	-9.55154
▁ஆல	-9.55169
ha	-9.55172
▁விவரிக்க	-9.5519
▁சார்	-9.55256
▁காணலாம்	-9.55288
▁திசம்பர்	-9.55438
▁தெலுங்கு	-9.55495
▁இராச	-9.55525
▁முன்னேற்ற	-9.55637
ேட்டு	-9.5566
களாலும்	-9.5569
▁தொகுப்ப	-9.55783
▁கொண்டுள்ளன	-9.55818
▁பச்சை	-9.55851
▁கப்பல்	-9.55855
X	-9.559
▁அடைய	-9.55959
ப்பூ	-9.55975
▁ஏற்பட்டது	-9.56013
▁இரவு	-9.56037
▁சென்	-9.56043
எம்	-9.56085
os	-9.56111
முடைய	-9.56171
▁பூச்சி	-9.56212
▁பயன்படும்	-9.56228
25	-9.56268
18	-9.56293
▁எடுத்த	-9.56337
தெ	-9.56345
▁வால்	-9.56379
▁வடிவம்	-9.5642
▁யூத	-9.56428
▁வழிமுறை	-9.56435
க்கொள்ள	-9.56479
▁இணைப்பு	-9.56487
▁இருப்பது	-9.56602
▁சிங்க	-9.56609
யல்	-9.56623
பகுப்பு	-9.5665
▁வெளியே	-9.56688
▁துணி	-9.56698
▁தேவி	-9.56704
▁காரணி	-9.56767
▁பின்வரும்	-9.56773
ற்கு	-9.5681
▁மக்களுக்கு	-9.56814
பிரி	-9.5683
▁வல	-9.56831
90	-9.56859
▁படத்தில்	-9.56898
ிடமிருந்து	-9.56907
▁அமைந்துள்ளன	-9.56925
▁செயற்கை	-9.56935
▁ஓர	-9.56952
ற்க	-9.56958
▁தட	-9.56961
▁நடை	-9.56974
▁இருந்தால்	-9.56975
▁கடவுள்	-9.5703
▁கர்	-9.57041
▁வேதி	-9.57142
▁1970	-9.57261
லன்	-9.57344
▁60	-9.5739
▁கேரள	-9.57528
வருக்கு	-9.57529
▁சிக்கல்	-9.57613
ரிக்	-9.57625
▁சார்பு	-9.57646
▁இடைவெளி	-9.57814
▁இங்குள்ள	-9.57884
▁முடிவ	-9.57971
நூல்	-9.58001
▁திருச்சபை	-9.58003
▁வலை	-9.58011
ate	-9.58018
▁விஜய	-9.58052
▁பிரச்சினை	-9.58113
▁குறிப்ப	-9.58122
▁அனுபவ	-9.58125
த்தினால்	-9.58179
▁சிலர்	-9.5818
▁போன்றவற்றை	-9.58186
ாா்	-9.58234
ல்ல	-9.58243
▁/	-9.58249
▁அமைந்தது	-9.58298
ஞ்	-9.58399
ெழு	-9.5841
▁வழங்கும்	-9.58435
வதி	-9.58521
ிற்காக	-9.58524
நாடு	-9.58555
▁சிறை	-9.58612
▁காந்த	-9.5865
▁அடிப்படையாகக்	-9.58652
▁நிறைவேற்ற	-9.58691
▁ஆல்ப	-9.5886
▁கட்டமைப்பு	-9.58922
கிராம	-9.58957
▁ஆன்	-9.58974
மாற்ற	-9.59009
▁எண்ணெய்	-9.59026
ராய	-9.59073
▁ஷ	-9.5908
▁துறையில்	-9.59199
▁சாதனை	-9.59217
வடிவ	-9.59218
▁கலாச்சார	-9.59266
se	-9.59277
பெர்	-9.59361
▁முடியாது	-9.59436
ிற்கான	-9.59455
▁செயல்பட	-9.59482
▁பொறி	-9.5949
▁மக்	-9.59515
▁சிவகங்கை	-9.59636
மண	-9.5965
▁என்றாலும்	-9.59667
▁அச்சு	-9.59684
▁ரயில்	-9.59696
▁வாயு	-9.59706
J	-9.59714
ஜெ	-9.59748
▁நடித்துள்ளார்	-9.59785
▁முறைமை	-9.5982
13	-9.59871
▁பிடித்த	-9.59985
கின்	-9.60043
▁ஏற்க	-9.60103
▁லோ	-9.60115
▁பிரம்ம	-9.6017
▁முட்டை	-9.60189
▁விண்வெளி	-9.60222
▁அரசியல்வாதி	-9.60261
ப்பணி	-9.60298
யோடு	-9.60348
▁நிறைந்த	-9.60352
▁ஆகியவற்றில்	-9.6038
st	-9.60406
▁உருவாக்கிய	-9.60419
▁நே	-9.60452
te	-9.60457
▁தோன்ற	-9.60494
▁1960	-9.60507
▁வகைப்படுத்த	-9.6057
க்கால	-9.60632
ப்புற	-9.60691
▁வளைய	-9.60709
▁கேள்வி	-9.60754
▁பய	-9.60761
▁அவர்களுக்கு	-9.60765
70	-9.60772
புற	-9.60775
▁உர	-9.60837
ூரில்	-9.6094
▁சீனா	-9.60957
▁கூறப்படுகிறது	-9.61
im	-9.61008
ற்றி	-9.61017
▁பெற்றவர்	-9.61033
▁குருதி	-9.61045
▁நிகழ்ந்த	-9.61048
+	-9.61054
▁போலவே	-9.61088
ண்டர்	-9.61123
▁சமயம்	-9.6115
ion	-9.61187
நல்லூர்	-9.61195
▁பாதுகாப்ப	-9.6121
▁நிலையை	-9.61325
யாக்க	-9.61369
▁தவ	-9.61409
▁பயணி	-9.61446
▁பாணி	-9.61486
▁()	-9.61585
க்கரை	-9.61595
ிசை	-9.61628
ந்தது	-9.6164
▁அடையாள	-9.61803
▁புதின	-9.61828
▁மஞ்சள்	-9.61856
▁சாதி	-9.6187
யினர்	-9.61944
▁கலவை	-9.62009
▁பிரதி	-9.62038
­	-9.62046
▁கைப்பற்ற	-9.62055
▁இலக்க	-9.62159
ப்பிர	-9.6216
ையா	-9.62193
▁சென்றார்	-9.62222
நகர	-9.62231
▁பாடிய	-9.62232
த்தலை	-9.62289
▁அளித்த	-9.62297
▁கடவுள	-9.62325
▁காதல்	-9.62405
▁சூழ்நிலை	-9.62427
▁டொ	-9.62448
ig	-9.62528
ay	-9.62533
▁வெளியிடப்பட்ட	-9.62619
▁வெளியேற்ற	-9.62626
▁நட்சத்திர	-9.62644
நேர	-9.62692
▁திருத்த	-9.62713
பன்	-9.62728
▁எழுதியுள்ளார்	-9.62738
▁சேர்	-9.62751
▁கிடைக்க	-9.62766
▁இருப்பதாக	-9.62776
▁f	-9.62855
▁அதிகாரி	-9.62899
▁சேர்ந்தவர்	-9.63006
▁மதிப்ப	-9.63066
▁ஆகஸ்ட்	-9.63083
▁கொல்ல	-9.63088
னிக்	-9.63097
▁கோப்பை	-9.63205
ஸா	-9.63217
▁அறிந்த	-9.63224
▁புதுக்கோட்டை	-9.63367
▁சேலம்	-9.63409
மையான	-9.63486
▁டீ	-9.63497
▁அமிலம்	-9.6351
▁முக்கியத்துவம்	-9.63522
▁உள்ளடக்கிய	-9.63559
▁ஒலிம்பிக்	-9.63656
▁ஆற்றின்	-9.63676
மூ	-9.63817
▁இசு	-9.63828
▁காரண	-9.6391
▁பாய்	-9.63943
▁அடுக்கு	-9.6397
▁பிரிக்க	-9.64039
▁இருந்தனர்	-9.64041
▁ஆதார	-9.64102
க்கார	-9.64181
▁நகைச்சுவை	-9.64183
ப்படலாம்	-9.6421
சென்	-9.64223
▁திறந்த	-9.64236
▁குறிப்பு	-9.64245
வையும்	-9.64374
▁எலும்பு	-9.64385
▁என்பவரால்	-9.64452
▁எழுதினார்	-9.64606
தற்கான	-9.64662
கலை	-9.64705
ப்பூர்	-9.64775
▁லூ	-9.64779
▁எடுத்துக்காட்டு	-9.64802
▁மட்ட	-9.64817
▁தனியார்	-9.64908
▁மலர்	-9.64922
னீ	-9.64923
பகுதி	-9.64928
▁இயக்கம்	-9.65032
▁கிட்டத்தட்ட	-9.65129
பொருள்	-9.65133
லால்	-9.65152
▁அம்ம	-9.65186
▁பயணம்	-9.6519
▁மூலக்கூற்று	-9.65241
▁அமைப்பை	-9.65274
வித	-9.65299
▁அன்	-9.65306
யில	-9.65391
யாகக்	-9.65443
ாகப்	-9.65473
▁வாழ	-9.65791
▁இந்நகர	-9.65815
▁இந்	-9.65837
ீஸ்வரர்	-9.65839
ang	-9.65885
▁செயல்படுத்த	-9.65886
▁a	-9.6592
▁திரைப்படங்களில்	-9.65931
▁பத	-9.65943
யிலான	-9.65975
▁அரண்மனை	-9.66085
▁கடத்த	-9.66181
▁நடத்திய	-9.6621
▁கார்பன்	-9.66227
ினாலும்	-9.66265
▁இறை	-9.66313
▁கடல	-9.66329
▁பாடசாலை	-9.66382
▁பெறும்	-9.664
▁நகராட்சி	-9.66422
▁கிரிக்கட்	-9.66469
மடைந்த	-9.66479
த்திலேயே	-9.66482
▁அல	-9.6654
▁அனைத்தும்	-9.66541
▁மூத்த	-9.66561
ராஜ்	-9.66571
ரல்	-9.66577
▁சாதன	-9.66594
▁ஆய	-9.66655
▁பரிமாற்ற	-9.66695
▁முனைவர்	-9.66713
▁கற்	-9.66742
▁சோவியத்	-9.66743
ak	-9.66759
▁முடியாத	-9.66768
▁கோடி	-9.66776
▁அந்	-9.66957
▁பல்ல	-9.66959
▁இப்பகுதி	-9.67051
▁மாதத்தில்	-9.67089
▁செங்க	-9.67096
01	-9.67141
▁கூறிய	-9.67192
▁குறிக்கிறது	-9.67211
▁வெளியேற	-9.67253
▁சரியான	-9.67263
▁சிற்ப	-9.67277
▁பாதுகாக்க	-9.67286
▁வடிவில்	-9.67408
க்குழு	-9.67428
களுக்குப்	-9.67465
▁சிங்கள	-9.67501
▁தற்கால	-9.67527
வர்களுக்கு	-9.676
▁வாழ்ந்து	-9.67648
த்திலுள்ள	-9.67697
ேற்ற	-9.67723
ப்பகுதியில்	-9.67752
▁மரண	-9.6777
▁வாய்	-9.67823
▁நீதி	-9.67823
▁புராண	-9.67837
▁பரப்பளவு	-9.679
ாளர்கள்	-9.67924
▁படைப்பு	-9.67927
▁மும்பை	-9.6793
க்குடி	-9.67962
▁கிள	-9.68018
▁தூத்துக்குடி	-9.68022
▁இவ்	-9.6803
▁ஒன்ற	-9.68084
▁கொள்ளும்	-9.68132
▁2017	-9.68164
ியம்	-9.68194
na	-9.68206
▁ஈடுபட	-9.68233
▁விளை	-9.68262
வரின்	-9.68311
▁இத்	-9.68384
▁யோ	-9.68468
▁உடல	-9.68535
▁பண்பு	-9.68577
ist	-9.68592
▁கடன்	-9.68646
▁அடையாளம்	-9.68736
▁முருகன்	-9.68741
▁தொழிற்சாலை	-9.68776
கிழ	-9.68802
விட்ட	-9.68889
▁புரிந்து	-9.68906
▁விளங்குகிறது	-9.68906
▁இவ்வகை	-9.6892
▁விவசாய	-9.68957
▁பாவ	-9.69007
▁இலக்கண	-9.69036
▁தொடங்கிய	-9.69051
▁கொண்டுள்ள	-9.69082
▁மென்பொருள்	-9.69095
ாகக்	-9.69132
▁செய்வ	-9.69226
ியுள்ளார்	-9.69253
▁வடிவமைப்பு	-9.69278
ுவ	-9.69383
▁உறை	-9.69383
▁அறிந்து	-9.69391
▁இரும்பு	-9.69418
ath	-9.6946
▁உரிய	-9.695
யம்மன்	-9.69519
கூட	-9.69554
▁உருவான	-9.69567
▁பன்	-9.69612
▁சாத்திய	-9.69614
▁1999	-9.69669
▁ஒளிபரப்ப	-9.69732
▁இந்தி	-9.69763
▁காவல்	-9.69784
▁உலகம்	-9.69965
ராச	-9.7007
▁பெரிதும்	-9.70124
▁மல	-9.70141
▁வேளாண்மை	-9.70159
all	-9.70175
▁வேக	-9.70208
▁பள்ளியில்	-9.70251
ன்ற	-9.70298
▁உதாரணமாக	-9.70417
▁தரும்	-9.70417
▁நியமிக்கப்பட்ட	-9.70533
ராய்	-9.70564
▁வரலாற்றில்	-9.70627
▁ஜெர்மானிய	-9.70646
▁கிரா	-9.70735
ட்டம்	-9.70745
வம்	-9.70752
▁கேட்ட	-9.70762
▁நகரின்	-9.70814
▁தேட	-9.7089
▁புரோ	-9.70918
▁கிராமத்தில்	-9.71003
▁கணக்கெடுப்பின்	-9.71014
°	-9.71109
ma	-9.71163
▁நடைபெற்றது	-9.71258
▁இத்தாலிய	-9.71284
▁நேரங்களில்	-9.71377
ிற்கும்	-9.71395
89	-9.71413
ut	-9.71496
லியா	-9.71531
ேந்திர	-9.71548
▁2,	-9.7172
க்களின்	-9.71754
ப்படுகிறார்	-9.71786
▁இச்	-9.71796
பெற்ற	-9.71811
▁ராஜ்	-9.71824
▁உறுப்பினர்கள்	-9.71844
▁சிறிது	-9.71903
▁எச்	-9.71907
▁சூழல்	-9.71923
▁பாடல்களை	-9.72014
▁பெப்ரவரி	-9.72134
ஷன்	-9.72147
ப்பட்டுள்ள	-9.7215
▁எவ்வாறு	-9.72256
ொரு	-9.72266
▁(1	-9.72352
ங்களால்	-9.72366
ுபவர்	-9.72418
▁நிகழ்வ	-9.72422
▁வரையறை	-9.7245
▁நேரடி	-9.72485
▁விழுப்புரம்	-9.72495
வாறு	-9.7253
லாந்து	-9.72562
▁நிறைவு	-9.7257
ஸில்	-9.72593
▁நுண்	-9.72613
▁நைட்	-9.72633
ஆங்கிலம்	-9.72657
ுகிறான்	-9.7291
களோடு	-9.72933
▁மாணவர்கள்	-9.72981
▁பசு	-9.73019
▁பிறந்தவர்	-9.73025
▁தென்னாப்பிரிக்க	-9.73038
ேஸ்வரர்	-9.73137
▁அறிஞர்	-9.73175
▁மேற்கொண்ட	-9.73274
▁முஸ்லிம்	-9.7328
▁அடிக்கடி	-9.73281
▁சிவப்பு	-9.73305
▁நாளில்	-9.73312
ிருக்கின்றன	-9.73349
92	-9.73427
யான்	-9.7347
▁வண்டி	-9.73496
▁32	-9.73559
68	-9.73609
பிய	-9.73624
ப்பட்டனர்	-9.7364
▁வெளியானது	-9.73669
லூ	-9.73702
▁நிறை	-9.73771
86	-9.73775
▁பிரிக்கப்பட்ட	-9.73802
வடி	-9.7385
▁நோயாளி	-9.7388
▁ஐரோப்பா	-9.7395
நோ	-9.74051
னுடன்	-9.74068
▁செலவு	-9.74163
▁1996	-9.7421
▁கட்டுரைகள்	-9.74221
▁மரியா	-9.74251
க்கூ	-9.74256
▁நபர்	-9.74263
17	-9.74291
▁கூறுகிறது	-9.74353
ta	-9.74355
▁சேத	-9.7439
▁காலை	-9.74436
▁பூமி	-9.74448
▁சக	-9.74498
▁மாநிலம்	-9.74605
நீ	-9.74608
od	-9.74609
யிடம்	-9.7463
▁ஆடு	-9.74653
87	-9.74692
வைக்	-9.74699
▁நிறுவப்பட்டது	-9.74702
செய்	-9.74712
▁படைத்த	-9.74726
▁மின்ன	-9.7475
க்கல	-9.74801
▁நாட்	-9.74813
ப்பாக	-9.74891
▁வழக்கமாக	-9.74941
▁இசுலாமிய	-9.74995
▁கணக்கிட	-9.75011
▁இயல்பு	-9.7505
▁அவற்றில்	-9.75078
▁தயாரித்த	-9.75078
டுகள்	-9.75081
▁தயாரிப்ப	-9.75127
▁இவ்வி	-9.75153
ர்ஸ்	-9.75178
ரக	-9.75179
க்கோட்டை	-9.75203
▁முக்கோண	-9.75211
பல	-9.75279
ne	-9.7533
▁தனக்கு	-9.75373
▁முறையை	-9.75399
தொ	-9.75454
▁உருவாக்கி	-9.75479
▁அலுவலக	-9.7549
சார	-9.75493
▁மக்களை	-9.75502
▁கூறு	-9.7554
கிறான்	-9.75548
ந்திய	-9.75587
ள்ளி	-9.75616
▁முழுமையாக	-9.75649
▁$	-9.75669
▁இயற்பியல்	-9.75732
97	-9.75745
▁வெளியிட்டார்	-9.7577
▁ஆனார்	-9.75797
குறி	-9.75814
கட்ட	-9.75822
ap	-9.75831
குல	-9.75834
▁வலது	-9.75843
▁வகைகள்	-9.76027
▁பயன	-9.7606
▁காட்டிலும்	-9.76107
▁வருகின்றனர்	-9.76177
▁தப்பி	-9.76188
▁தெரிய	-9.76211
▁மையம்	-9.76241
▁ஆர	-9.76285
▁அகல	-9.76301
▁முதல	-9.76307
ட்ரா	-9.76319
▁ஆய்வுகள்	-9.76341
▁சுய	-9.76414
▁இருப்ப	-9.76433
▁நேச	-9.76444
▁தோல்வி	-9.76475
செல்	-9.76487
▁கட்டுமான	-9.76584
▁மேலே	-9.76587
▁கண்ணாடி	-9.76612
84	-9.76637
▁விரி	-9.76662
▁கூடுதலாக	-9.76675
▁1998	-9.76691
▁மாறாக	-9.76797
▁உதவ	-9.76851
▁80	-9.76877
▁பகு	-9.76923
▁பொறுப்ப	-9.76968
▁”	-9.7698
▁உயரத்தில்	-9.77018
▁ஆனாலும்	-9.77021
▁பொறுத்து	-9.77068
▁ஓய்வு	-9.77081
▁கொள்	-9.77087
ுதல	-9.77098
▁நூலில்	-9.77127
▁காய்	-9.77186
ாய்வு	-9.77207
▁அளவிலான	-9.77217
▁சற்று	-9.77246
▁குழாய்	-9.77332
▁பாலி	-9.7736
க்கலை	-9.7737
94	-9.7739
▁தொடரில்	-9.774
▁உணவ	-9.77433
▁கண்டறிய	-9.77483
▁3.	-9.77491
▁போரின்	-9.77505
ab	-9.77585
▁எடுக்கப்பட்ட	-9.77629
ell	-9.77641
▁அட்டை	-9.77685
▁வேறுபாடு	-9.77692
▁சுத்த	-9.77724
செய்ய	-9.77746
▁குடியரசு	-9.77763
▁தொடு	-9.77814
▁ஆர்வ	-9.77825
▁கூட்டணி	-9.77839
ிருந்து	-9.77886
▁அவரின்	-9.77897
▁பெருமை	-9.77969
▁எதிரி	-9.77985
ாளராக	-9.78012
▁அலி	-9.78025
சம	-9.7803
லிங்	-9.78038
▁ஈடுபட்ட	-9.7804
ப்பெரு	-9.78044
▁நடன	-9.78099
▁நம்	-9.78113
▁செய்யப்பட்டு	-9.78137
▁இளைய	-9.78144
னியம்	-9.78145
▁நாராயண	-9.78145
▁அறிவிக்கப்பட்ட	-9.78176
▁மரபணு	-9.78177
▁முதன்மையான	-9.78239
▁பேச்சு	-9.78351
க்கர்	-9.78352
▁ஒன்பது	-9.78446
▁அங்கே	-9.78493
▁சீர	-9.78509
▁உருவாகும்	-9.7856
ோட்ட	-9.78561
ச்செ	-9.78567
▁அடங்கிய	-9.78576
வரி	-9.78586
▁குடியேற்ற	-9.78607
▁வருகை	-9.78653
ow	-9.78696
▁கூறுகிறார்	-9.78753
▁சங்கம்	-9.78759
▁வார்	-9.78802
▁பாதி	-9.7889
▁செய்யப்படும்	-9.78929
▁நடித்துள்ளனர்	-9.7899
▁வேலூர்	-9.79015
▁குளிர்	-9.79029
▁மலேசிய	-9.79032
▁ராஜா	-9.79038
க்கின்	-9.791
▁விளைவு	-9.7915
ுள்	-9.79163
ப்பது	-9.79235
▁கவு	-9.79236
▁உயிரின	-9.79298
▁சுர	-9.79311
ுரு	-9.79319
▁நண்பர்	-9.79381
▁பாராளுமன்ற	-9.79409
▁நிலுவையில	-9.79412
▁சென்னையில்	-9.7945
▁தொழிலாளர்	-9.79505
▁மூளை	-9.79507
▁அமைப்பின்	-9.79631
பத	-9.79655
▁பரிந்துரை	-9.79663
யுடைய	-9.79716
▁கல்ல	-9.79755
▁பெற்றோர்	-9.79778
▁மிகச்	-9.79867
திரைப்படம்	-9.79868
▁கருப்பு	-9.79898
91	-9.79976
துறை	-9.80016
▁கலந்த	-9.8005
▁கைது	-9.80053
▁கோள	-9.80055
ாய	-9.80113
▁இவன்	-9.80139
▁தக்க	-9.80171
▁பாண்டிய	-9.80174
▁அமைய	-9.80179
▁நகரத்தில்	-9.80212
▁அர்	-9.80313
▁யார்	-9.80386
ட்ரோ	-9.8054
டும்	-9.80542
▁சக்கர	-9.80552
▁தீர்த்த	-9.80577
▁சேர்ம	-9.80674
▁இணைத்து	-9.80708
▁காலங்களில்	-9.80711
பக்க	-9.80737
▁கூடுதல்	-9.80756
▁பயன்படுத்தும்	-9.80811
93	-9.8083
▁சர	-9.80893
▁பின்னணி	-9.80908
▁கேட்க	-9.80945
▁ஹை	-9.80957
▁பொன்ன	-9.80971
கீ	-9.80983
▁பிரதேசம்	-9.81033
துடன்	-9.81035
வார	-9.8106
▁ஆசியா	-9.81069
▁மண்ண	-9.81085
▁எழுந்த	-9.81097
▁உண்மையான	-9.81112
▁1989	-9.8112
க்கிறது	-9.81122
▁செய்கிறது	-9.8113
ாண்ட	-9.81203
98	-9.81274
▁அமைப்புகள்	-9.8128
களி	-9.81283
▁இங்கே	-9.81329
▁இழந்த	-9.81375
▁சோடியம்	-9.81382
▁கண்டி	-9.81389
த்தோடு	-9.81402
▁வழங்கிய	-9.81422
▁அனைவரும்	-9.81423
▁மகள்	-9.81474
▁கடுமையான	-9.81499
▁வளை	-9.81504
▁அவர்களை	-9.81532
▁நிகழ்த்த	-9.8159
▁உருவாக்கும்	-9.81594
ுவதில்லை	-9.81619
ெடுக்க	-9.81652
ப்படுத்தி	-9.8166
▁1950	-9.81662
மாய்	-9.81693
op	-9.81693
▁பேரரசின்	-9.81814
▁வானியல்	-9.81836
நாதர்	-9.81838
man	-9.81849
▁U	-9.81891
▁அடிமை	-9.82029
▁35	-9.82091
▁ஆழ	-9.82112
▁ஏற்றுக்கொள்ள	-9.82134
▁அசை	-9.82205
05	-9.82219
▁வழியில்	-9.8226
மாக்க	-9.8229
நே	-9.82294
▁தீவிர	-9.82358
தல	-9.82404
▁புகை	-9.8245
தூ	-9.82469
ஸ்டி	-9.82493
▁தலைமையில்	-9.82523
▁வரையறுக்க	-9.82529
▁சுருக்க	-9.82566
ine	-9.82758
▁ஏர்	-9.82764
ுவார்	-9.82775
▁தாம்	-9.82806
95	-9.82811
▁d	-9.82863
▁ஆரம்பத்தில்	-9.82882
▁இலக்கு	-9.82893
வில	-9.82928
▁கரி	-9.82932
▁ஆனந்த	-9.82969
▁கதாபாத்திர	-9.83033
▁1991	-9.83106
▁மீதான	-9.83123
▁அறியப்படுகிறது	-9.83147
ண்டை	-9.83175
▁சிந்தனை	-9.83224
▁படிக	-9.83298
ீட்டு	-9.83301
▁தெரிவித்த	-9.83307
▁உயரம்	-9.83329
▁கையாள	-9.83335
▁வளர்க்க	-9.83344
தன	-9.83352
▁உணர்வு	-9.83357
▁ஆசிரியராக	-9.83414
▁நாகப்பட்டினம்	-9.83423
பேட்டை	-9.83431
▁இன்றும்	-9.83501
லிங்க	-9.83548
▁வாய்ப்பாடு	-9.83566
▁கண்டுபிடித்த	-9.83587
▁எப்படி	-9.83659
▁இத்தல	-9.83679
▁அழக	-9.83716
ண்டோ	-9.83795
ங்கல்	-9.83824
82	-9.83828
▁இந்தச்	-9.83929
▁மரப	-9.83929
▁அகற்ற	-9.83939
79	-9.83976
ட்சு	-9.84008
▁நீதிமன்ற	-9.84027
▁கிருஷ்ணகிரி	-9.84045
▁சார	-9.84046
கின்ற	-9.841
46	-9.8414
▁உள்ளடக்க	-9.84162
▁செயல்பாடு	-9.8418
▁அய்யனார்	-9.84181
க்கப்பட்டு	-9.84194
▁தூர	-9.84248
▁வைக்கப்பட்ட	-9.84385
யிர	-9.84395
சில	-9.84429
▁பந்து	-9.84446
▁இராச்சிய	-9.84449
▁தசை	-9.84475
▁தொடங்க	-9.84481
vi	-9.84493
த்தான	-9.84536
▁ஆதரவ	-9.84551
▁கால்பந்து	-9.84571
ங்குடி	-9.84596
▁அந்தப்	-9.846
▁உதவும்	-9.846
க்கூட	-9.84622
▁ஒப்ப	-9.84627
▁தன்ன	-9.84628
இன்	-9.84671
▁குழும	-9.84742
▁எழுப்ப	-9.84814
▁நீரில்	-9.84868
▁வாழ்வ	-9.84931
▁n	-9.84938
ருக்கும்	-9.84968
▁காங்கிரஸ்	-9.84993
35	-9.85074
ல்ட்	-9.85089
▁கன்னி	-9.85105
▁இத்த	-9.85129
em	-9.85131
களினால்	-9.85175
▁வின்	-9.85176
▁தோல்	-9.85195
▁இவன	-9.85195
ில	-9.85211
ப்பன்	-9.85238
ிடையே	-9.8527
hi	-9.8535
ஞ	-9.85467
▁ஆதரவு	-9.85524
▁ஒன்றான	-9.85596
ti	-9.85598
▁பழக்க	-9.85609
குளம்	-9.8563
▁நவ	-9.85682
ஸ்டா	-9.85689
களிடையே	-9.857
▁நிருவாகியா	-9.85725
▁கொண்டிருந்தது	-9.85744
▁அவள்	-9.85754
▁மாகாணத்தில்	-9.85771
ிருந்தனர்	-9.85789
▁நூலை	-9.85833
கால்	-9.85855
▁நிலையான	-9.85856
▁ஜெர்மனி	-9.85874
▁ஒடுக்க	-9.85888
▁வந்தனர்	-9.85915
▁செய்யப்படுகிறது	-9.85986
▁தொலைவிலும்	-9.8602
co	-9.861
▁1994	-9.86164
▁நடிக்க	-9.86176
▁இதழ	-9.86178
▁கன்னட	-9.86187
▁வழிபாடு	-9.86192
▁முறைகள்	-9.86205
▁ரூபாய்	-9.86231
▁அறிவ	-9.86283
ஃப	-9.86285
▁திருப்ப	-9.86298
▁கலி	-9.86357
ெடுத்த	-9.86385
96	-9.86447
▁ஆஸ்	-9.86535
▁வெடி	-9.8656
▁தரை	-9.86686
▁ஆஸ்திரேலியா	-9.86737
▁போதும்	-9.86744
ப்பெயர்	-9.86759
ly	-9.86867
▁அறுவை	-9.86916
▁கடந்து	-9.86927
மன	-9.86978
▁பிளா	-9.8699
டில்	-9.87019
▁பார்த்து	-9.87035
▁தண்டனை	-9.87062
▁வழங்கப்பட்ட	-9.87231
▁அறிவித்த	-9.87246
பிள்	-9.87279
ளே	-9.87283
▁அளவுக்கு	-9.87287
▁பார	-9.87303
▁பதிப்ப	-9.8736
ங்களுக்கும்	-9.87438
▁என்பதாகும்	-9.87489
▁பேரரச	-9.87497
▁நூல்களை	-9.87503
▁திண்டுக்கல்	-9.87534
பரி	-9.87569
▁எளிய	-9.8761
04	-9.87628
கட	-9.87638
▁ஹே	-9.87688
06	-9.87714
▁பெண்களின்	-9.87748
▁பிரே	-9.87762
ஸ்த	-9.87762
ப்பாடு	-9.87764
▁மேடை	-9.87875
▁வடி	-9.87916
▁சுற்ற	-9.87929
▁உணர	-9.87988
▁குறுகிய	-9.88027
னிடம்	-9.88038
▁கட்டப்பட்டது	-9.8806
▁பயனர்	-9.88128
ஒரு	-9.88139
▁உயிரி	-9.88159
நகர்	-9.88208
▁மொழிகளில்	-9.88241
▁நடித்திருந்தனர்	-9.88248
▁பற்றியும்	-9.88299
▁வரைபட	-9.88306
▁காணப்பட்ட	-9.88308
▁இவற்ற	-9.88309
ியின்	-9.8835
▁இராஜ	-9.88363
▁ஆங்கிலம்	-9.88406
▁செடி	-9.88439
ந்தார்	-9.88478
▁கொண்டதாக	-9.88482
▁உண்மையில்	-9.88486
மய	-9.8858
▁பக	-9.88594
▁செய்தனர்	-9.88621
ிட்ட	-9.88643
▁45	-9.88738
The	-9.88758
▁தொகையில்	-9.8876
▁மலையாள	-9.88761
▁அணிக்கு	-9.88763
▁200	-9.88842
▁நரம்பு	-9.88907
ங்களுள்	-9.88918
த்தர	-9.88931
▁திற	-9.88941
▁குழுக்கள	-9.88952
▁கட்டுப்பாடு	-9.8896
▁அவள	-9.88962
வாகும்	-9.88978
ின்படி	-9.89008
▁மருத்துவர்	-9.89084
களா	-9.89087
▁கர்நாடக	-9.89111
▁குண்டு	-9.89155
ac	-9.89166
▁அமைச்சர்	-9.89249
▁குவி	-9.89295
▁அண்ட்	-9.89307
▁சிறப்பான	-9.89318
▁லை	-9.89356
▁பண்பாட்டு	-9.89461
▁நாமக்கல்	-9.89513
தார	-9.89517
போல்	-9.89613
▁செயலாளர்	-9.89633
▁முழுமையான	-9.89668
▁திருவ	-9.89676
மட்ட	-9.89678
▁விவர	-9.89737
lo	-9.89745
ங்கிய	-9.89746
▁போற்ற	-9.8977
83	-9.89847
▁இன்றைய	-9.89866
க்காடு	-9.899
▁தளபதி	-9.89909
▁ரீ	-9.90008
ho	-9.90059
▁கேட்டு	-9.90074
▁கோவை	-9.90082
மீன்	-9.90117
▁ரீதியாக	-9.90188
ேஸ்வர	-9.90196
வானது	-9.90248
▁மான்	-9.9026
▁ஈழ	-9.90269
09	-9.90275
நாயக்க	-9.9028
▁சிவாகம	-9.90302
▁நபர்கள்	-9.90322
▁சன்	-9.90349
▁வலிமை	-9.90397
▁அன்னை	-9.90413
▁மற	-9.90463
னான்	-9.90463
▁ஆடை	-9.9048
▁இதுவரை	-9.90506
த்தினர்	-9.90509
▁வது	-9.9053
▁ரொ	-9.90547
▁மன்னன்	-9.90561
ருக	-9.90597
▁அமைத்து	-9.90612
த்தினர	-9.90616
வர்களாக	-9.90652
▁மாவட்டங்களில்	-9.90664
▁தர்மபுரி	-9.90669
▁உச்சி	-9.90742
▁நியூயார்க்	-9.90744
▁காசி	-9.90749
▁படிக்க	-9.9082
▁பாதிப்பு	-9.90839
▁முடிய	-9.90852
▁வரலாற்ற	-9.90857
த்ரா	-9.90859
ல்கள்	-9.90864
▁ஈரோடு	-9.90905
ப்பான்	-9.90924
39	-9.90931
▁கடற்படை	-9.90953
க்குறி	-9.90985
▁இப்படி	-9.90995
▁கிடைத்தது	-9.91006
ோன்	-9.91007
ருடன்	-9.91068
வாரி	-9.91073
▁நிறுவப்பட்ட	-9.91088
ுமான	-9.91088
மூர்த்தி	-9.91104
▁ஒன்றில்	-9.91134
sh	-9.91139
▁சேர்க்கப்பட்ட	-9.91141
ப்பொ	-9.91151
க்கில்	-9.91154
▁கொடுத்து	-9.91158
▁ஜார்ஜ்	-9.91168
▁பிடிக்க	-9.91213
ிருச்சிராப்பள்ளி	-9.9125
▁மரம்	-9.91263
▁சுப்பிரமணிய	-9.91285
▁குடும்பம்	-9.91286
▁கட்டட	-9.91289
▁கன்னியாகுமரி	-9.91313
ரியோ	-9.91445
▁மாசி	-9.91454
▁1992	-9.91479
▁அப்ப	-9.91501
▁நெறி	-9.9151
▁உருவாகிறது	-9.91548
▁1997	-9.91551
பாட	-9.9156
▁நூலக	-9.91562
▁நந்தி	-9.91573
க்கட	-9.91591
▁எதுவும்	-9.91597
▁இராக	-9.9166
▁வைர	-9.91664
▁ஆயினும்	-9.91677
▁சமயத்தில்	-9.91704
லக	-9.91712
பாய்	-9.91797
▁சித்திரை	-9.91887
▁யோக	-9.91937
ிருந்தன	-9.9199
88	-9.91995
க்கூடும்	-9.92033
▁கணக்க	-9.92044
▁தெளிவாக	-9.9206
▁மக்களவை	-9.92062
▁வளர்	-9.92118
▁ஆலை	-9.9212
▁மலேசியா	-9.92154
24	-9.92167
▁h	-9.92192
▁உப	-9.92245
▁கிமு	-9.92249
▁போக	-9.92279
▁உண்டாக்க	-9.92284
யாளராக	-9.92288
▁செய்வது	-9.92415
de	-9.92427
வர்களின்	-9.92453
02	-9.92539
▁மித	-9.92565
▁அழைக்கப்பட்ட	-9.92614
75	-9.92679
▁1995	-9.92722
ேரி	-9.928
▁ஓட	-9.9282
▁அற	-9.92836
▁கோர்	-9.92862
லோக	-9.92918
▁நடத்தை	-9.9294
▁சித்த	-9.92955
▁தர்ம	-9.92995
▁தொடக்கத்தில்	-9.93124
▁அருள்	-9.93158
▁இருக்கிறார்	-9.93185
▁ஆங்கிலேய	-9.93204
▁ஜீ	-9.9322
▁வீதி	-9.9326
21	-9.93279
▁முடிந்த	-9.93345
28	-9.93366
▁எளிதாக	-9.93392
▁குரல்	-9.93414
ங்களான	-9.93437
▁பட்டியலில்	-9.93449
▁போட்டியிட்டு	-9.9345
எல்	-9.93586
தேவி	-9.93688
▁முறையே	-9.93745
▁மார்ச்சு	-9.93747
85	-9.93771
▁அழுத்தம்	-9.9381
07	-9.93872
▁உருவானது	-9.9389
▁பேராசிரியர்	-9.9396
த்தனர்	-9.93964
னுடைய	-9.93976
▁தாழ்	-9.94027
வட்ட	-9.94033
▁பொறுப்பு	-9.94036
▁விளக்கு	-9.94079
ினான்	-9.94136
▁சேர்ந்தார்	-9.94138
▁ஒன்றியம்	-9.94164
ment	-9.9419
▁மத்தியில்	-9.94196
ச்சை	-9.94208
▁மிகக்	-9.94215
க்கண	-9.94292
யாகப்	-9.94349
▁வருடம்	-9.94354
நாதன்	-9.94365
Cl	-9.94388
த்தொகை	-9.94397
▁பரப்பு	-9.94407
▁இன்னொரு	-9.94415
▁கோயம்புத்தூர்	-9.9442
ட்டன்	-9.94431
▁இந்தியப்	-9.94453
ஃபா	-9.94516
▁அழகிய	-9.94522
▁அதிகரிக்க	-9.94553
▁பணம்	-9.94567
▁தோன்றும்	-9.94616
டாக	-9.94619
▁உருவாக்கினார்	-9.94638
▁டாலர்	-9.94646
65	-9.94669
▁கடற்	-9.94695
▁திருவள்ளூர்	-9.94711
▁டேவிட்	-9.94727
▁தண்ணீர்	-9.94753
▁இம்ம	-9.94761
▁கட்டளை	-9.94786
▁விருதை	-9.94789
▁அஞ்சல்	-9.94812
▁வித	-9.94813
ஆர்	-9.94859
▁நீர்ம	-9.94876
கொண்டு	-9.9496
▁அளவ	-9.95026
▁நாட்களில்	-9.9504
மென்	-9.95049
தற்	-9.95057
78	-9.95072
▁தண்ட	-9.95076
▁மையமாக	-9.95095
▁1984	-9.95109
ொன்ற	-9.95118
45	-9.95237
கோண	-9.95242
ும	-9.95329
▁°	-9.95342
▁கட்டிடக்கலை	-9.95446
▁புற்றுநோய்	-9.95453
வதை	-9.95487
▁மருத்துவமனை	-9.95615
▁குளோ	-9.95626
▁சூட்ட	-9.95635
▁வட்டார	-9.95643
▁ஆற்று	-9.95671
▁வழிபட	-9.957
▁கோள்	-9.95783
▁நகரத்தின்	-9.95824
▁1947	-9.95862
▁பழங்குடி	-9.95865
▁வேட	-9.95915
▁இயங்கும்	-9.95944
பில்	-9.95989
67	-9.96038
-2	-9.9606
▁பிணைப்பு	-9.96063
▁கோப	-9.96077
▁தீர்வு	-9.96082
▁தெரிவிக்க	-9.96187
▁இடது	-9.9622
▁கவன	-9.96231
ec	-9.96257
▁அமைச்ச	-9.96293
▁ஆள	-9.96308
▁பழமையான	-9.96312
▁கொழும்பு	-9.96334
ண்ணி	-9.96338
ரிடம்	-9.96381
▁வங்காளதேச	-9.96385
▁இத்திரைப்படம்	-9.96387
குமார்	-9.964
▁குகை	-9.96406
▁நடிப்ப	-9.96407
ருக்க	-9.96415
▁உள்ளே	-9.96423
▁குரோ	-9.96426
ங்க்	-9.96436
விடும்	-9.96437
ஞ்சு	-9.96456
தைக்	-9.96476
▁மின்சார	-9.96528
▁தன	-9.96559
ப்படுத்தப்பட்ட	-9.96612
▁பிள	-9.9665
ேஷ்	-9.96655
ங்கே	-9.96663
▁வலியுறுத்த	-9.96722
னன்	-9.96727
தின்	-9.96749
▁எதிர்த்து	-9.96749
ud	-9.96798
▁வடிவமைக்கப்பட்ட	-9.96804
ட்ரி	-9.96825
▁சகோதரி	-9.96839
▁தோற்றம்	-9.96868
அல்லது	-9.96896
▁உண்ண	-9.96934
▁திரும்பி	-9.96944
மிட	-9.96979
▁நெடு	-9.97025
▁குடும்பத்தில்	-9.97058
சொ	-9.97151
▁தலைநகர	-9.97198
▁வீழ்ச்சி	-9.97223
▁தொல்	-9.97226
▁உத்தர	-9.97232
▁சதவீத	-9.97247
▁வரையிலான	-9.97257
ெய்	-9.97259
23	-9.97268
▁வளரும்	-9.97333
▁முதலான	-9.97345
di	-9.97406
▁செயல்படுகிறது	-9.9743
▁ஃபெ	-9.97495
▁33	-9.97495
▁நார்	-9.97513
பியா	-9.97532
▁விமர்சன	-9.9754
▁விரிவாக்க	-9.97542
▁ஆங்கிலத்தில்	-9.97543
22	-9.97581
▁பிழை	-9.97605
▁ஆக்சைடு	-9.9762
▁அப்	-9.97648
றும்	-9.97657
▁இழை	-9.97658
ால	-9.97691
03	-9.97696
▁அணுக	-9.97736
ஜீ	-9.97801
பெற	-9.97802
சிங்க	-9.97818
%)	-9.97832
க்கிர	-9.97849
▁ஐதரசன்	-9.9785
▁ஏற்பாடு	-9.97853
▁விடுதலைப்	-9.97857
▁நீதிபதி	-9.9786
கையில்	-9.97913
▁அமை	-9.97937
▁இதர	-9.97954
லிருந்து	-9.97971
▁விழ	-9.97992
▁நான்காவது	-9.97998
▁சான்	-9.97999
பார	-9.98016
per	-9.98018
▁தேடி	-9.98038
▁(18	-9.98101
த்தல	-9.98178
ாமை	-9.98264
▁மீட்ட	-9.98303
▁துளை	-9.98341
▁பஞ்சாப்	-9.98362
▁நின்று	-9.98368
▁பிரிட்டிஷ்	-9.98386
▁2018	-9.98429
▁அள	-9.98436
ஈ	-9.98455
▁அன்ன	-9.98521
▁திருச்சி	-9.98528
▁கவிஞர்	-9.9854
▁மீற்றர்	-9.98544
ியக்க	-9.98624
தனை	-9.98634
▁பொருளை	-9.9864
32	-9.98728
▁இயக்குனர்	-9.98729
▁ஏற்றுக்	-9.98749
▁ஆகியவற்ற	-9.98805
▁குழி	-9.98814
▁சௌ	-9.98821
▁தேவர்	-9.98836
ும்படி	-9.98839
48	-9.98861
▁கோல	-9.98871
▁ஐய	-9.98874
-20	-9.9888
▁தொழிற்	-9.98922
▁சுவர்	-9.98941
▁டு	-9.98946
▁தொடர்ச்சியாக	-9.9895
▁பிராந்திய	-9.99024
▁கோர	-9.99026
▁தவிர்க்க	-9.99029
▁1993	-9.99033
▁உயர்த்த	-9.99058
ின்ற	-9.99144
▁வண்ணம்	-9.99179
▁இடத்தை	-9.99237
வைச்	-9.99243
▁இணைக்க	-9.99336
▁தாங்க	-9.99337
76	-9.99339
▁1987	-9.99349
ாதி	-9.99369
26	-9.99396
களாகப்	-9.99439
▁கவி	-9.99461
ராம	-9.99467
III	-9.99552
▁டாக்டர்	-9.99563
டைந்த	-9.99579
பொருள	-9.99613
கின்றனர்	-9.99648
▁வேர்	-9.99741
யீ	-9.99787
▁மாசு	-9.99835
▁வழக்கம்	-9.99865
▁உட்பட்டது	-9.99914
சங்க	-9.99917
▁ஆர்வம்	-9.9997
▁சராசரியாக	-9.99999
மையை	-10.0002
பல்	-10.0002
▁தாயார்	-10.0011
▁நிகழும்	-10.0016
▁சுரங்க	-10.0016
▁நீரை	-10.0027
▁குமார	-10.0033
▁அந்தக்	-10.0035
▁பாக்	-10.0037
▁புர	-10.0037
64	-10.004
ிற	-10.0045
▁வெளியீடு	-10.0045
▁பொன்	-10.0049
▁துப்பாக்கி	-10.0051
▁பாஸ்	-10.0058
55	-10.0069
▁படிப்பு	-10.0081
▁நடைபெற	-10.0082
ஷ்ட	-10.0083
▁உள்நாட்டு	-10.0085
▁சோழர்	-10.0086
ென்று	-10.0086
▁வழங்கப்படும்	-10.0088
47	-10.009
சூர்	-10.0092
▁என்பவர	-10.0094
▁36	-10.0099
▁இருபது	-10.01
▁சேர்மமாகும்	-10.0103
▁உருசிய	-10.0108
37	-10.0109
▁கிரு	-10.011
▁திரும	-10.011
▁இனங்கள்	-10.0111
▁வெண்	-10.0125
வாக்க	-10.0129
▁வரிசையில்	-10.0131
ity	-10.0146
▁தலைப்பு	-10.0148
ஸை	-10.0157
▁பொருந்த	-10.0165
விலுள்ள	-10.017
▁ஆவி	-10.0171
▁கண்டறிந்த	-10.0175
▁வட்டத்தில்	-10.0183
கிருஷ்ண	-10.0187
ப்பே	-10.0191
▁நிலைக்கு	-10.0192
▁மன்னர	-10.0193
▁ஆயிரம்	-10.0195
▁பண்பாடு	-10.0196
▁முயன்ற	-10.0198
▁சிறுவர்	-10.0198
▁பிரான்சு	-10.0202
வெல்	-10.0203
திர்	-10.0205
▁நு	-10.0208
▁ஆணைய	-10.0209
▁காலப்	-10.021
56	-10.021
▁பண்ப	-10.0211
▁அண்ணா	-10.0213
36	-10.0214
▁பிரிவில்	-10.0214
29	-10.0216
▁சமண	-10.0222
▁கூறும்	-10.0226
▁பரிசோதனை	-10.0228
▁விளங்கியது	-10.023
72	-10.0235
▁ஜேம்ஸ்	-10.0237
▁தலைமுறை	-10.0238
▁திறன	-10.0246
▁நடந்து	-10.0246
நாயகி	-10.0247
▁காவிரி	-10.0253
மூல	-10.0254
ஸ்தான	-10.0255
▁நிறைய	-10.0255
▁குறைபாடு	-10.0256
▁சீர்திருத்த	-10.0261
▁மென்	-10.0263
▁வாழ்கின்றனர்	-10.0265
me	-10.0265
▁ஆட்	-10.0265
▁இளைஞர்	-10.0266
▁சன்னதிகள்	-10.0268
▁உலகளாவிய	-10.0269
வரிசை	-10.027
▁1977	-10.027
▁ஏற்படுகிறது	-10.0277
▁தமிழ்ப்	-10.0278
க்கரு	-10.0278
▁வாரிய	-10.028
ரெட்	-10.0281
▁பீட	-10.0281
▁இயக்குநர்	-10.0289
27	-10.0291
▁சுகாதார	-10.0293
▁அரசன்	-10.0294
08	-10.0297
58	-10.03
சல	-10.0301
▁புதிதாக	-10.0302
▁உரோமை	-10.0303
▁வளர்ந்து	-10.0304
▁உயிரியல்	-10.0305
▁அட்டவணை	-10.0309
ill	-10.031
சர	-10.0313
▁கைப்பற்றி	-10.0316
▁இருப்பதை	-10.0323
குரு	-10.0325
▁கவனம்	-10.0326
▁75	-10.0327
▁பரு	-10.0329
▁பாத	-10.0333
ide	-10.0334
▁பல்கலைக்	-10.0334
▁1988	-10.0336
▁உள	-10.0341
▁கருத்த	-10.0346
▁காப்பாற்ற	-10.0351
▁கழி	-10.0354
ளவில்	-10.0368
▁நட	-10.0372
57	-10.0373
▁மாநகர	-10.0378
▁வடிவமைப்ப	-10.0381
▁வீரர்கள்	-10.0381
▁இந்நூல்	-10.0383
▁இச்சேர்மம்	-10.0383
ித்தார்	-10.0385
▁ஊர	-10.0387
ுவத	-10.0389
▁சுவை	-10.0394
ொன்று	-10.0395
▁வன்	-10.0403
நாயக	-10.0406
▁இயக்கிய	-10.0406
க்கப்படும்	-10.0406
வதாக	-10.0407
ஞான	-10.0408
▁விற்க	-10.0412
நீர	-10.0413
▁கொழுப்பு	-10.0413
▁நினைவாக	-10.0414
ந்த்	-10.0414
▁சொல்லி	-10.0416
▁t	-10.0421
sp	-10.0423
38	-10.0424
▁எளிதில்	-10.0425
▁பணியாற்றி	-10.043
▁பற்	-10.0432
மையால்	-10.0435
▁de	-10.0435
▁பெட்டி	-10.0436
▁இந்துக்	-10.0439
▁வேண்டி	-10.0441
▁பரிந்துரைக்க	-10.0442
ீர	-10.0445
▁லீக்	-10.0445
▁கோட்பாட்ட	-10.0451
▁மொழிகள்	-10.0452
ிக்கும்	-10.0453
ன்சு	-10.0459
▁அரபு	-10.046
▁துகள்	-10.0469
▁அமைப்பில்	-10.047
▁அனுமதிக்க	-10.0471
▁மக்களால்	-10.0471
சக்தி	-10.0473
▁கற்ற	-10.0476
▁மேலாக	-10.0476
▁அரிய	-10.0477
▁போராட	-10.0477
ப்பதற்காக	-10.0478
க்கொ	-10.0483
▁மாகாணத்தின்	-10.0483
▁படத்தின்	-10.0483
▁w	-10.0486
ங்களைத்	-10.0491
▁பில்லியன்	-10.0492
ற்றை	-10.0495
▁விதமாக	-10.0497
▁70	-10.0499
ளிக்க	-10.0499
▁வித்தியாச	-10.05
ெழுத்து	-10.0507
▁குடியரசுத்	-10.0507
▁ரு	-10.0517
▁1986	-10.0518
ப்பொருள	-10.0519
த்திரி	-10.0521
▁இரண்டும்	-10.0522
▁விஷ	-10.0523
▁இயற்றிய	-10.0526
ிறார்கள்	-10.0529
▁செயற்பாடு	-10.0533
▁பாலின	-10.0537
▁குற்றம்	-10.0537
▁சிறப்ப	-10.0546
க்கோள	-10.0554
வீர	-10.0555
▁X	-10.0557
▁கம்பி	-10.0559
▁மண்டலம்	-10.0559
▁இஸ்லாமிய	-10.0559
▁தூய	-10.0564
▁சம்பந்த	-10.0566
▁1971	-10.0568
ர்ஜி	-10.0574
▁இறுதியாக	-10.0578
ரஸ்	-10.0579
ுக்குப்	-10.0584
ட்டிய	-10.0584
▁தக	-10.0586
▁வெளியிட்டது	-10.0591
▁சகோதரர்	-10.0591
▁தெரிவு	-10.0593
ப்பெற	-10.0596
▁கொண்டவர்	-10.0596
லட்சுமி	-10.0596
ge	-10.0598
▁தீவுகள்	-10.06
களுக்கிடையே	-10.0605
ாம	-10.0609
▁இடைப்பட்ட	-10.061
வாசி	-10.0612
லான	-10.0617
▁பரந்த	-10.0622
▁சந்திக்க	-10.0623
▁அவ்வாறு	-10.0626
ப்பாதை	-10.0627
க்கட்டு	-10.0628
செய்த	-10.0633
▁உதவுகிறது	-10.0638
▁இயலும்	-10.0639
யாளர்கள்	-10.0641
▁கௌரவ	-10.0647
▁வரையில்	-10.0648
தமிழ்	-10.0648
▁என்பத	-10.065
▁கனடா	-10.0654
▁சிக்கலான	-10.0656
ாலய	-10.0658
▁கோடு	-10.066
▁காங்கிரசு	-10.066
நாட்டு	-10.0664
கரு	-10.0664
▁அருக	-10.0665
▁அலுவலர்	-10.0665
▁கிர	-10.0671
ங்களாகும்	-10.0674
கிரா	-10.0682
▁500	-10.0686
▁எசு	-10.0688
▁புகழ	-10.0689
▁வருகின்றது	-10.0693
▁குவா	-10.0695
▁வேகமாக	-10.0696
சிங்	-10.0696
▁க்கும்	-10.0696
▁வைப்ப	-10.0698
▁90	-10.0699
▁சாலையில்	-10.0709
வக	-10.0709
▁உடலில்	-10.0713
▁பேசும்	-10.0713
▁பறவைகள்	-10.0716
▁தங்களது	-10.0718
▁உயரமான	-10.0719
ராம்	-10.0723
▁பணியாற்றிய	-10.0727
▁ஒப்பு	-10.0727
ெல்லாம்	-10.0728
▁அறு	-10.073
▁ரை	-10.0736
▁காட்டி	-10.0737
▁மகளிர்	-10.0737
ry	-10.0738
▁தமிழகத்தில்	-10.0741
42	-10.0743
▁விபர	-10.075
வூர்	-10.0751
வைத்	-10.0755
ீஸ்	-10.0755
▁கற்ப	-10.0758
▁சார்பில்	-10.0764
▁அணுக்கரு	-10.0765
▁போன்றவற்ற	-10.0768
▁கோபுரம்	-10.0769
பட்டு	-10.0773
▁தயாரிக்கப்பட்ட	-10.0775
49	-10.0777
▁ஹார்	-10.0779
ect	-10.0779
சான்	-10.078
ருவி	-10.0783
▁தென்னிந்திய	-10.0784
▁to	-10.0784
74	-10.0786
▁அம்ச	-10.079
▁கொண்டவை	-10.0791
ex	-10.0794
▁விவாத	-10.0798
க்கூறு	-10.0799
▁மந்திர	-10.08
77	-10.0805
▁பகுதியாகும்	-10.0808
▁பாதிப்ப	-10.0808
வளை	-10.0808
ுகின்றார்	-10.0808
த்திட்ட	-10.0812
ாகிய	-10.0815
▁St	-10.0815
▁டன்	-10.0815
புல	-10.0816
81	-10.0819
▁குழப்ப	-10.0821
▁ஒன்றியத்தில்	-10.0823
▁வழங்கப்படுகிறது	-10.0831
மில்	-10.0834
▁தொடங்கப்பட்டது	-10.0835
▁பணியாளர்	-10.0842
விழா	-10.0843
▁மாணவ	-10.0845
▁3,	-10.0845
▁பரிச	-10.0846
ொளி	-10.085
நெ	-10.0857
▁சங்கிலி	-10.0858
ுவார்கள்	-10.0862
▁கோபுர	-10.0863
▁அவனது	-10.0864
▁இலட்ச	-10.0865
▁நன்மை	-10.0865
▁பட்டு	-10.0866
▁கிபி	-10.0868
குப்பம்	-10.0868
▁விவிலிய	-10.0873
க்கட்ட	-10.0874
▁திட்டமிட்ட	-10.0878
தாய்	-10.0887
▁கொடுக்கப்பட்ட	-10.0892
யளிக்க	-10.0894
ub	-10.0895
மொ	-10.0895
han	-10.0896
▁உடன	-10.0896
▁வளிமண்டல	-10.0899
▁முக்கியமாக	-10.0901
ிப்பு	-10.0906
பொருட்	-10.0908
▁அடக்க	-10.0908
ியுள்ளது	-10.0912
▁பயன்படுத்திய	-10.0919
▁எனப்படுகிறது	-10.0923
▁பத்ம	-10.0926
ப்படுவதில்லை	-10.0927
ோம்	-10.0927
ப்படுகின்ற	-10.0927
▁கழிவு	-10.0933
▁விசாரணை	-10.0933
▁கந்த	-10.0941
க்கீ	-10.0941
பெயர்	-10.0942
▁தொன்ம	-10.0942
▁ஒப்பந்தம்	-10.0946
▁நெய்	-10.0947
னையும்	-10.0948
▁சிங்கப்பூர்	-10.0955
ச்சல்	-10.0959
யர்கள்	-10.0959
ce	-10.0961
பள்ளி	-10.0964
மியா	-10.0971
▁போன	-10.0972
▁தொற்று	-10.0976
▁வாங்கி	-10.0977
களிடமிருந்து	-10.098
73	-10.0984
முடியும்	-10.0985
▁கிங்	-10.0998
ாலேயே	-10.1009
▁எழுத்த	-10.101
லங்கா	-10.101
66	-10.1011
ியாக	-10.1012
▁சர்க்கரை	-10.1014
▁விரைவாக	-10.1014
▁1978	-10.1014
34	-10.1014
▁கட்டாய	-10.1014
▁குறிப்புகள்	-10.1016
▁வடக்கில்	-10.1018
▁என்பர்	-10.1018
▁Ch	-10.1018
▁இவ்வூர்	-10.1019
ச்சந்திர	-10.102
▁எதிர்கால	-10.1022
த்துக்கும்	-10.1025
▁வெளிப்புற	-10.1026
▁புரிந்த	-10.1027
▁செயல்பட்ட	-10.1029
ராகவும்	-10.1029
வைப்	-10.103
▁எக்ஸ்	-10.1032
▁g	-10.1033
ியம்மன்	-10.1037
▁புதை	-10.1038
ni	-10.1038
▁ஆரம்பித்த	-10.1041
71	-10.1041
▁கொள்ளலாம்	-10.1043
ard	-10.1043
av	-10.1045
59	-10.1045
▁கட்டுப்பாட்டு	-10.1047
▁பாரசீக	-10.1047
ant	-10.1057
▁பயிரிட	-10.1064
▁ஆற்றலை	-10.1064
கத்தில்	-10.1065
▁புரி	-10.1067
லான்	-10.107
யாற்ற	-10.1076
மல்	-10.1076
சாலை	-10.108
▁என்பதற்கு	-10.1083
▁மிகை	-10.1086
▁நாட்டை	-10.109
▁ஆண்டி	-10.1091
▁வீட்டில்	-10.1091
▁முன்னதாக	-10.1094
தாலும்	-10.1095
▁குடியிருப்பு	-10.1101
▁தேவாலய	-10.1102
ொலி	-10.1105
ah	-10.1109
▁தொல்லியல்	-10.1109
▁பெற்றுள்ளது	-10.1109
▁அம்மா	-10.1111
▁வளாக	-10.1112
▁டிரா	-10.1112
▁என்பவை	-10.1118
▁59	-10.1122
▁நடக்கும்	-10.1126
31	-10.1128
▁சுட	-10.1129
▁அழகு	-10.1135
ip	-10.1136
தேவ	-10.1137
▁வழிபட்ட	-10.1138
▁புவியியல்	-10.1138
▁திருவாரூர்	-10.1144
▁அறிவியல	-10.1151
▁பேரரசர்	-10.1152
▁விஷ்ணு	-10.1153
▁மன்னன	-10.1156
ாளரும்	-10.1156
▁வியாபார	-10.1163
▁1985	-10.1164
▁தம்பி	-10.1169
▁மருத்துவம்	-10.1172
61	-10.1174
▁1940	-10.1174
▁காலகட்டத்தில்	-10.1176
▁பண்ட	-10.1179
▁அருள	-10.118
52	-10.118
▁கலிபோர்னியா	-10.118
▁ஏற்கனவே	-10.118
▁கற்பனை	-10.1183
▁எண்ணி	-10.1189
▁சீர்	-10.1191
லிங்கம்	-10.1192
ாறு	-10.1192
▁வன்முறை	-10.1197
▁உழ	-10.1198
▁கடித	-10.1198
▁செயல்படும்	-10.1202
▁சபா	-10.1203
▁இணைக்கும்	-10.1205
▁சார்பாக	-10.1208
யாளர	-10.1211
▁சாய்	-10.1214
Ch	-10.1226
▁இறந்தார்	-10.1227
மேல்	-10.1228
ஸ்தான்	-10.1229
▁இதுவும்	-10.1229
▁வாக்கு	-10.1235
த்துக்கான	-10.1236
தையும்	-10.1246
▁இயங்கி	-10.1246
▁நர	-10.1247
▁1983	-10.1254
▁1930	-10.1256
நாள்	-10.1257
ப்படு	-10.1258
0%	-10.1259
▁ஓடு	-10.127
ப்பாட்ட	-10.1271
பொழுது	-10.1272
மாலை	-10.1272
வாடி	-10.1274
▁அபி	-10.1284
44	-10.1286
▁காண்ப	-10.1288
▁திருப்பூர்	-10.1289
ப்பிள்ளை	-10.1295
▁விளங்கிய	-10.1302
வூ	-10.1303
தவி	-10.1307
ேஷன்	-10.1309
▁மாற்றங்கள்	-10.1314
▁வெகு	-10.1315
▁முடிவில்	-10.1316
க்கின்றன	-10.1317
▁இரை	-10.1319
▁தொடர்ப	-10.1319
▁கருவிகள்	-10.132
▁காடு	-10.1322
ுடனும்	-10.1325
▁கிறிஸ்	-10.133
▁அட்	-10.133
▁இலங்கைத்	-10.1333
▁பூச	-10.1333
ுடனான	-10.1336
கத்தின்	-10.1337
வையாகும்	-10.1337
▁47	-10.134
oc	-10.1341
▁அழிக்க	-10.1343
▁அழைத்து	-10.1343
▁வாழ்க்கையை	-10.1344
▁மீள	-10.1345
▁இப்பகுதியில்	-10.1346
▁மெக்	-10.1347
ம்மன்	-10.1354
▁கிடைக்கிறது	-10.1354
▁அறிகுறி	-10.1355
▁சரியாக	-10.1359
▁இனம்	-10.136
▁லிங்க	-10.1365
62	-10.1369
ங்களுக்கான	-10.137
ுவதும்	-10.1377
▁பிரபு	-10.1377
▁தாங்கி	-10.1385
ச்சர்	-10.1386
▁இறைவன்	-10.1388
லாந்த	-10.139
▁பங்கேற்ற	-10.1393
▁காத்த	-10.1394
▁சத்திய	-10.1403
▁செய்யப்பட்டார்	-10.1407
▁கரூர்	-10.1411
▁மாறுபட்ட	-10.1412
▁தொலைபேசி	-10.1415
ஆக	-10.1418
கிறாள்	-10.1419
▁சடங்கு	-10.1419
▁அளிப்ப	-10.1428
யிட்ட	-10.1433
▁கற்று	-10.1434
▁மக்களும்	-10.1438
▁அறிமுக	-10.1439
ட்டுகள்	-10.1439
▁ஊக்க	-10.1442
▁நிறுவனத்தில்	-10.1443
▁1967	-10.1444
▁போதுமான	-10.1446
▁பயின்றார்	-10.145
ராஜா	-10.1453
▁5%	-10.1459
▁நொதி	-10.1461
நிற	-10.1461
▁கங்கை	-10.1462
▁குளோரைடு	-10.1462
▁எட்	-10.1463
▁ஆணை	-10.1465
ரொ	-10.1467
ச்சல	-10.1475
▁செல்கிறது	-10.1476
▁செர்	-10.1478
டையும்	-10.1486
தொகு	-10.1487
ம்பூர்	-10.1491
மீது	-10.1492
33	-10.1496
ுகிறாள்	-10.1502
ிலான	-10.1509
▁ஆப்பிரிக்க	-10.1509
யர	-10.1514
69	-10.1514
▁நெறிமுறை	-10.1514
▁கிளா	-10.1516
த்தாக்க	-10.1517
▁34	-10.1519
▁செயல்பட்டு	-10.1523
▁தடுப்ப	-10.1523
வரு	-10.1525
▁எரிமலை	-10.153
ers	-10.1531
ங்களிலிருந்து	-10.1532
53	-10.1532
▁உத்தி	-10.1533
▁தொகுதிகளில்	-10.1535
▁ஒட்ட	-10.1535
▁ஆப்பிரிக்கா	-10.1543
▁தானிய	-10.1547
▁தெளி	-10.1548
யாவின்	-10.1548
▁ஏற்று	-10.1549
▁நிலப்பகுதி	-10.1552
த்திற்குப்	-10.1553
ep	-10.1554
▁கட்டண	-10.1556
▁வாத	-10.1557
▁குறிப்பிடுகிறது	-10.156
ஜர்	-10.156
▁காணப்பட	-10.1563
▁போட	-10.1565
▁வீதம்	-10.1566
▁கிழக்கில்	-10.1568
▁எழுத்தறிவு	-10.1571
▁உருவாக	-10.1576
▁இம்மாவட்டத்தின்	-10.1576
▁மணிக்கு	-10.1579
ானார்	-10.158
▁அளவிற்கு	-10.1583
▁இணைப்ப	-10.1587
ium	-10.1594
▁விலக்க	-10.1595
ஸ்கோ	-10.1597
▁உணர்	-10.16
up	-10.1601
to	-10.1603
▁எலி	-10.1608
▁மதிப்பீடு	-10.1609
த்ரி	-10.161
▁ரோம	-10.161
▁எப்போதும்	-10.1614
▁கடலூர்	-10.1614
▁செல்வாக்கு	-10.1618
▁கோரிக்கை	-10.1619
ழுத்த	-10.162
▁பிரதேசத்தின்	-10.1621
▁இடமாக	-10.1624
▁சதவீதம்	-10.1625
னைப்	-10.1626
▁நிறுவிய	-10.1626
▁இலக்கியம்	-10.1627
காளியம்மன்	-10.1634
▁தூய்மை	-10.1639
ik	-10.1639
▁வேண்ட	-10.1642
லியம்	-10.1644
▁முடிந்தது	-10.1644
▁கருவறை	-10.1647
▁கருப்ப	-10.1647
▁குழுவின்	-10.1649
▁பாடி	-10.1653
43	-10.1654
▁சத	-10.1654
▁அன	-10.1654
போதும்	-10.1656
▁பகுதியின்	-10.1658
▁நிலைமை	-10.1659
▁சமவெளி	-10.1659
ட்டான்	-10.1661
▁முதற்	-10.1662
ீன்	-10.1662
ுகையில்	-10.1662
▁விளக்கம்	-10.1664
▁தெரிகிறது	-10.1664
▁சுட்ட	-10.1666
▁1972	-10.1666
51	-10.1668
▁எதிர்ப்ப	-10.1671
▁சிறுகதை	-10.1672
க்கூட்ட	-10.1673
ரியம்	-10.1673
▁ஆலோசனை	-10.1673
▁மாநிலமான	-10.1674
ரியன்	-10.1676
▁பாராட்ட	-10.1677
ப்படுகின்றனர்	-10.1677
க்கால்	-10.1678
▁அணுக்	-10.1682
▁பக்தி	-10.1683
▁இருந்தவர்	-10.1687
▁போட்டிகள்	-10.1687
ew	-10.1689
▁நாயக	-10.169
▁இயங்க	-10.1694
▁தாவரங்கள்	-10.1695
▁காலநிலை	-10.1698
▁கற்க	-10.1698
▁பரம	-10.1698
▁வெளிவந்தது	-10.1699
டார்	-10.1701
▁பட்டை	-10.1701
▁சம்	-10.1704
▁திண்ம	-10.1704
▁கடமை	-10.1706
▁இராகம்	-10.1708
ாயிற்று	-10.1713
திலும்	-10.1713
▁காணப்படுகின்றது	-10.1714
▁ஒருவராக	-10.1718
▁ஆந்திரப்	-10.1719
▁சவு	-10.1722
ண்டே	-10.1726
▁நற்செய்தி	-10.173
▁சன்னதியும்	-10.1732
▁சங்கர	-10.1733
▁இயேசுவின்	-10.1733
▁ஆலயம்	-10.1734
▁37	-10.1737
▁l	-10.1737
▁;	-10.1739
▁தரம்	-10.1739
▁பருத்தி	-10.1744
▁தேனி	-10.1749
▁இந்நூல	-10.175
▁தெற்கில்	-10.175
▁1982	-10.1751
▁பண்ணை	-10.1751
▁அறிவித்தது	-10.1752
வராவார்	-10.1753
▁செம்ப	-10.1762
▁வழங்குகிறது	-10.177
தள	-10.1774
▁இறந்து	-10.1775
▁பிரச்சனை	-10.1777
▁1000	-10.1778
▁அய்ய	-10.1782
▁குறைந்து	-10.1786
கூர்	-10.1786
▁(2	-10.1792
த்தீ	-10.1792
▁கருதி	-10.1792
▁ஆகியோரின்	-10.1794
▁நீடித்த	-10.1795
தார்	-10.1801
போல	-10.1802
ரையும்	-10.1803
▁பெயர்கள்	-10.181
மானி	-10.1811
▁ஆற்றல	-10.1813
▁துறைகளில்	-10.1813
▁ஆண்டுகளாக	-10.1815
▁சொற்கள்	-10.1817
▁வெளிநாட்டு	-10.1818
▁பகுப்பாய்வு	-10.1819
▁என்றே	-10.1826
▁1969	-10.1826
▁காளி	-10.1832
▁தீர்மானிக்க	-10.1833
://	-10.1834
ந்தன்	-10.1835
ுகிற	-10.1843
▁பாதிக்க	-10.1847
▁நிறத்தில்	-10.1847
▁அதிகரிப்ப	-10.185
▁ஒட்டி	-10.1855
▁துவங்க	-10.1857
▁பணியாற்ற	-10.1858
▁சுற்றுச்சூழல்	-10.1863
▁வரலாற்றை	-10.1872
▁தொடக்கம்	-10.1883
▁1962	-10.1884
▁ஜூ	-10.1885
மாற	-10.1885
63	-10.1885
▁பஞ்சாபி	-10.1886
▁ஒன்றி	-10.1889
▁கருநாடக	-10.1892
II	-10.1893
டென்	-10.1898
▁அரசாங்கம்	-10.1899
வியா	-10.1901
▁மின்னணு	-10.1903
▁விளையாட்ட	-10.1905
▁கொண்டனர்	-10.1907
ுரிமை	-10.1913
ary	-10.1913
ாரா	-10.1914
▁நாவல	-10.1916
▁முன்னோடி	-10.1917
▁செவ்வ	-10.1918
▁தலைவி	-10.1919
ிருந்தாலும்	-10.1922
▁லு	-10.1922
▁முப்ப	-10.1924
▁பார்வையாளர்	-10.1929
▁நிலம்	-10.1931
▁பீட்டர்	-10.1933
▁பாரதிய	-10.1935
வட	-10.1939
▁ஏராளமான	-10.1939
ஞ்சா	-10.1944
▁அளவிட	-10.1946
▁1948	-10.1951
▁மேரி	-10.1955
ுமே	-10.1956
▁காப்ப	-10.1956
tic	-10.1957
▁அர்த்த	-10.1957
▁பெல்	-10.1963
ாக்சைடு	-10.1967
ஜன்	-10.1968
▁அவற்ற	-10.1971
▁பணிபுரி	-10.1975
சபை	-10.1977
▁சாரா	-10.1977
பென்	-10.199
ஹெ	-10.1991
▁நூல	-10.1995
▁சிந்து	-10.2018
▁மார்க்	-10.2021
▁ஓரி	-10.2025
▁வெட்ட	-10.2026
▁கூர்	-10.2029
த்துறையில்	-10.2031
▁ஜனதா	-10.2032
▁ஆற்ற	-10.2035
னூ	-10.204
ஹோ	-10.2042
▁மாறியது	-10.2047
▁வகித்த	-10.2048
▁கிரக	-10.2048
▁சொத்து	-10.2048
▁விழி	-10.2049
நாத்	-10.2052
▁அனுப்பி	-10.2053
▁அவனை	-10.2053
41	-10.2054
▁வென்றார்	-10.2057
▁ஆங்கிலேயர்	-10.2059
▁மேற்கொள்ளப்பட்ட	-10.2062
▁அரிசி	-10.2063
காலத்தில்	-10.2064
▁தூண்	-10.2064
▁வடக்கே	-10.2066
▁கல்வியை	-10.2068
▁முருக	-10.2075
ப்பிரி	-10.2075
▁நிமிட	-10.2079
▁தகவல்களை	-10.208
ரிக்க	-10.2081
▁மேற்கில்	-10.2087
▁ஆவார்கள்	-10.209
ாயிரம்	-10.209
ka	-10.209
▁பாடல	-10.2091
டுப்பு	-10.2095
வேண்டிய	-10.2099
▁நடத்தப்பட்ட	-10.2102
திறன்	-10.2109
மண்டல	-10.2112
▁பழங்கால	-10.2114
▁கொண்டிருப்ப	-10.2115
▁நிறம்	-10.2124
▁உயிரணுக்கள	-10.2124
▁பிரித்து	-10.2126
Y	-10.2127
▁கொண்டிருக்கிறது	-10.2128
▁தீர்க்க	-10.2128
▁பொருட்டு	-10.2131
ழா	-10.2133
▁முற்றிலும்	-10.2137
▁நூறு	-10.2139
▁வாய்ப்ப	-10.214
▁பேண	-10.214
▁பணியில்	-10.2144
▁பட்டத்தை	-10.2146
கரை	-10.2148
▁சகோதர	-10.2149
த்தவர்	-10.2152
▁துறவி	-10.2153
கோட்	-10.2154
▁1979	-10.2156
▁தனியாக	-10.2161
▁ஓட்டங்கள்	-10.2161
மேன்	-10.2163
54	-10.2163
▁என்றழைக்கப்படும	-10.2166
▁சோம	-10.217
▁அணுகுமுறை	-10.2173
டிங்	-10.2174
▁பாசு	-10.2175
▁தண்ணீர	-10.2177
▁கருதப்படும்	-10.2179
▁நடித்து	-10.2181
ாங்க	-10.219
▁நெருங்கிய	-10.2192
▁செய்வதற்கு	-10.2193
▁வணங்க	-10.2193
▁வசூல	-10.2197
▁செய்தல்	-10.2204
ெடுப்ப	-10.2205
த்தள	-10.2212
▁பேராசிரியராக	-10.2213
▁பரவிய	-10.2218
▁பிடித்து	-10.223
▁நாடுகளுக்கு	-10.2231
▁உடனடியாக	-10.2232
வர்களை	-10.2237
ாட	-10.224
▁விண்ண	-10.2252
▁உட்படுத்த	-10.2256
▁1952	-10.2264
ச்சேரி	-10.2266
est	-10.2268
▁பழனி	-10.2271
▁முதன்முதலில்	-10.2272
▁1975	-10.2274
▁நாகரிக	-10.2276
▁மாட	-10.2278
விர	-10.2278
▁கௌ	-10.2283
▁சித்திர	-10.2283
▁ஏற்படுத்தி	-10.2284
▁48	-10.2288
▁களில்	-10.2288
▁300	-10.2293
▁உளவியல்	-10.2299
ம்பை	-10.2303
▁அனைத்துலக	-10.2304
▁1976	-10.2304
▁தெரு	-10.2305
ஸ்டன்	-10.2306
▁தொடர்வண்டி	-10.2312
மிழ்	-10.2314
▁நாய்	-10.2316
▁அருங்காட்சியக	-10.2323
▁வென்று	-10.2328
▁தீர்மான	-10.2329
▁அப்பா	-10.2334
he	-10.2336
▁கணக்கு	-10.2336
ாகவே	-10.2343
▁இறைவன	-10.2346
▁திட	-10.2347
▁என்பதைக்	-10.2348
▁செலவ	-10.235
▁வருவ	-10.2354
சார்ந்த	-10.2354
வரம்	-10.2356
ியர்	-10.2359
▁or	-10.2366
▁வழங்கியது	-10.2371
விட்டார்	-10.2372
▁இம்மா	-10.2375
▁கொடை	-10.2382
▁உயிரணு	-10.2384
▁பெறப்பட்ட	-10.2386
▁விலங்குகள்	-10.2388
▁தலைநகர்	-10.2388
▁மருந்த	-10.2389
▁சங்ககால	-10.2391
வியல	-10.2391
▁காதலி	-10.2392
▁எனலாம்	-10.2397
▁என்பதே	-10.2399
▁காதல	-10.2404
▁முதலாக	-10.2404
▁1974	-10.2404
▁பந்த	-10.2405
▁ராம்	-10.2411
▁அக்காலத்தில்	-10.2414
▁நிரல்	-10.2415
▁உறுதிப்படுத்த	-10.2418
▁குறைந்தது	-10.2418
வெண்	-10.2419
▁பயன்பாட்டு	-10.2419
க்கிறார்	-10.2423
▁டூ	-10.2423
▁அப்துல்	-10.2424
▁கடலில்	-10.2431
▁கூட்டமைப்பு	-10.2432
▁கன்	-10.2432
▁51	-10.2435
▁மாகாணம்	-10.2437
▁பிரித்த	-10.244
▁இறக்க	-10.2441
▁பேச்ச	-10.2444
▁குமார்	-10.2449
▁ஒருங்கிணை	-10.245
▁செய்திகள்	-10.2451
▁அமைச்சராக	-10.2451
▁e	-10.2453
▁மாற்றப்பட்டது	-10.2463
▁1956	-10.2465
▁வாச	-10.2467
ப்பர	-10.2468
▁பகுதிகளிலும்	-10.2471
▁பட்டியல	-10.2472
▁திகழ்ந்த	-10.2474
▁முனிவர்	-10.2476
▁நிகழ்வுகள்	-10.2478
ci	-10.2478
▁கதைகள்	-10.248
▁’	-10.2481
▁முற்ற	-10.2481
▁வயத	-10.2485
▁அஸ்	-10.2488
▁வசித்து	-10.249
▁தவற	-10.2497
▁அழைக்கப்பட்டது	-10.2499
ங்கர்	-10.2499
▁பேரா	-10.2503
▁நிரந்தர	-10.2503
▁பெற்றுள்ளார்	-10.2505
▁1964	-10.2506
▁கட்டுப்பாட்ட	-10.2507
பேர்	-10.2509
▁ஆய்வக	-10.2512
patti	-10.2515
▁அமைக்கப்பட்டது	-10.2516
ரிஸ்	-10.2518
▁சூழல	-10.2522
க்கொண்டார்	-10.2523
த்தொ	-10.2524
▁(200	-10.253
▁இவ்விரு	-10.2531
▁நிரப்ப	-10.2533
▁உடன்படிக்கை	-10.2534
▁ஏற	-10.2536
வியலில்	-10.254
▁கொண்டே	-10.2545
_1	-10.2546
▁வழக்கில்	-10.2546
பெருமாள்	-10.2548
▁ஆற	-10.255
▁தமிழகத்தின்	-10.255
ந்தோ	-10.2551
▁இனி	-10.2553
▁வேல	-10.2553
வாழ்	-10.2554
▁சிலி	-10.2558
▁வெட்டி	-10.2562
▁படிப்ப	-10.2565
▁The	-10.2565
▁பெரும்பான்மை	-10.2566
▁நோபல்	-10.2567
▁உபசன்னதி	-10.257
ப்படுத்தும்	-10.2571
தனால்	-10.2573
▁தெரிவித்தார்	-10.2575
▁புகைப்பட	-10.2579
ிலி	-10.2582
களு	-10.2583
▁இடைநிலை	-10.2584
வண	-10.2588
▁பணிகள்	-10.2592
▁கணக்கில்	-10.2592
க்கெட்	-10.2605
▁முற்றுகை	-10.261
▁அறிவிக்க	-10.261
▁வழக்கமான	-10.2612
▁com	-10.2613
500	-10.2614
▁ஆட்சியின்	-10.2614
▁கோப்பு	-10.2616
▁வீடியோ	-10.2617
திர	-10.2617
▁பெயரால்	-10.262
வதில்லை	-10.2622
▁நொ	-10.2624
ana	-10.2625
▁இசைக்குழு	-10.2628
▁அழற்சி	-10.2628
▁ராபர்ட்	-10.2628
▁இடையிலான	-10.2628
▁வீச	-10.2629
▁விநியோக	-10.2636
▁ஆராய	-10.264
ian	-10.2643
▁சூரியன்	-10.2643
▁சூழ	-10.2647
சனம்	-10.2651
▁இந்ந	-10.2651
▁மூட	-10.2653
▁திறனை	-10.2658
▁தன்னாட்சி	-10.2659
▁விலகி	-10.2662
CO	-10.2666
▁என்றார்	-10.2667
▁மகிழ்ச்சி	-10.2667
டியம்	-10.2678
▁பதில்	-10.2679
▁நடந்தது	-10.2682
▁முன்பாக	-10.2692
கண	-10.2692
▁இயற்ற	-10.2698
▁காமிகாகம	-10.2699
▁போக்க	-10.2699
▁கிரே	-10.2702
படும்	-10.2704
▁அதிகரித்த	-10.271
▁சியா	-10.2711
▁அறிவித்தார்	-10.2711
▁இருப்பு	-10.2715
▁தேவைப்படும்	-10.2715
qu	-10.2723
▁விஜய்	-10.2724
ேற்றம்	-10.2724
▁நம்பப்படுகிறது	-10.2726
▁செயலாக்க	-10.2726
▁முளை	-10.273
▁படங்களில்	-10.2731
▁பிளே	-10.2731
யாய்	-10.2732
▁கலப்பு	-10.2732
கிற	-10.2734
▁k	-10.2734
த்தேர்	-10.2735
மனை	-10.2746
▁இசையில்	-10.2754
▁ஒழி	-10.2755
▁என்றழைக்க	-10.2756
முதல்	-10.2756
சனின்	-10.2758
▁நகரை	-10.2758
▁|	-10.2758
ிருப்பது	-10.2759
▁நோக்கம்	-10.2765
▁கடின	-10.2765
▁மடங்கு	-10.277
▁மாநகராட்சி	-10.2773
▁ஏக்கர்	-10.2774
▁ஆரம்பிக்கப்பட்ட	-10.2775
▁குன்ற	-10.2775
ம்பாளையம்	-10.2776
▁இப்பள்ளி	-10.2776
▁பணிபுரிந்த	-10.278
▁அடைந்து	-10.2781
▁காணப்பட்டது	-10.2782
▁ஆண்டுதோறும்	-10.2782
▁பிரதமர்	-10.2784
▁விவசாயி	-10.2789
மின்றி	-10.2793
▁விடுதி	-10.2798
▁கும்ப	-10.2802
▁தன்மையை	-10.2803
▁நாவல்	-10.2805
▁1965	-10.2805
▁நின்ற	-10.2809
▁38	-10.2814
▁தாக்குதல	-10.2815
ப்புள்ளி	-10.2815
▁பாட்ட	-10.2817
▁பொருளாக	-10.2817
▁முடியவில்லை	-10.2817
▁அழைப்ப	-10.2817
▁படிப்பை	-10.2817
ாசிரியர்	-10.2818
▁கிளி	-10.2821
ென	-10.2822
▁விடய	-10.2823
யடைந்த	-10.2824
▁கியூ	-10.2825
▁போதிலும்	-10.2828
▁அன்ப	-10.2834
திற	-10.2834
▁1957	-10.2837
கரி	-10.2845
▁பங்களிப்பு	-10.2845
▁வளிம	-10.2846
▁காலத்திற்கு	-10.2849
▁மடி	-10.2849
ru	-10.285
▁வந்தன	-10.285
▁பரப்பளவில்	-10.2852
▁ஆகவே	-10.2853
▁அருங்காட்சியகம்	-10.2855
▁ஐரோப்பாவில்	-10.2855
னுக்கும்	-10.2855
Al	-10.2856
▁அருகிலுள்ள	-10.2857
▁தடுப்பு	-10.286
▁ப்ர	-10.2866
▁நன்றாக	-10.2866
▁நிருவாக	-10.2867
▁உறிஞ்ச	-10.2868
▁சமநிலை	-10.2868
Th	-10.2869
▁உரோம	-10.2874
யேற்ற	-10.2876
da	-10.2883
▁அறியப்படும்	-10.2887
▁நாடாக	-10.2888
▁ஒழுங்க	-10.2894
▁தகவல்கள்	-10.2894
▁காவல்துறை	-10.2898
▁ஏற்றுமதி	-10.2899
▁கல்யாண	-10.2899
ுமிட	-10.29
▁எனில்	-10.2905
▁முடிவுக்கு	-10.2906
▁முது	-10.2909
▁பெரி	-10.2914
▁அரசியல்வாதியும்	-10.2915
▁நூலின்	-10.2922
▁திரைப்படங்கள்	-10.2924
▁கழகத்தின்	-10.2926
ff	-10.2927
▁கொல்கத்தா	-10.293
▁விரைவில்	-10.293
▁பெருமளவில்	-10.293
▁பொய்	-10.293
▁தஞ்சை	-10.293
▁முடிவுகள்	-10.293
வுட்	-10.2934
▁நினைவ	-10.2936
▁சமன்பாடு	-10.294
▁இயல்	-10.2948
▁டிரை	-10.2951
▁கால்நடை	-10.2951
▁மக்கள	-10.2952
வினால்	-10.2953
▁அடுக்க	-10.2957
னான	-10.2957
▁தெற்கே	-10.2958
▁மொழியை	-10.2959
art	-10.2961
▁எர்	-10.2963
▁நூல்களில்	-10.2965
▁ஆக்சிசனேற்ற	-10.2966
▁http	-10.2968
▁49	-10.2968
▁இறப்ப	-10.297
▁வருமான	-10.2973
▁இலிருந்து	-10.2978
▁வெப்பநிலையில்	-10.2979
▁பொட்டாசியம்	-10.2983
▁மூன்ற	-10.2984
▁re	-10.2989
ளின்	-10.2992
▁ஆந்திர	-10.2992
சிஸ்	-10.2995
▁அறிமுகமானார்	-10.3
ராஜன்	-10.3004
ினைக்	-10.3004
நாள	-10.3008
▁தொட	-10.3008
▁அகில	-10.3015
▁மறைந்த	-10.3018
▁ஒருமுறை	-10.302
▁ராணி	-10.3021
ara	-10.3027
வாதம்	-10.3028
▁இராச்சியம்	-10.303
▁மற்றவர்	-10.3031
▁எட்ட	-10.3031
▁மேற்கத்திய	-10.3036
ப்பாட	-10.3039
வென்	-10.3043
வல்ல	-10.3045
▁கண்டுபிடிப்பு	-10.3046
▁தொழில	-10.3048
▁அமைந்திருக்கும்	-10.3048
▁புதுச்சேரி	-10.3048
▁நடவடிக்கைகள்	-10.3051
▁கந்தக	-10.3052
▁போய்	-10.3052
ினுள்	-10.3054
▁சான்று	-10.3055
▁ஏற்படுத்தும்	-10.3056
க்கழக	-10.3059
▁வழியே	-10.306
▁கேரளா	-10.3061
▁தலைவராகவும்	-10.3061
ப்பற்றி	-10.3063
ண்ணா	-10.3064
▁தொடர்ந்த	-10.3065
▁விளங்க	-10.3067
▁இழப்பு	-10.3068
▁செம்ம	-10.3069
▁1981	-10.3071
பிரா	-10.3072
▁ஃபா	-10.3074
▁பொருளின்	-10.3074
▁படைப்ப	-10.3074
▁முடிகிறது	-10.3074
▁இடங்கள்	-10.3078
▁அணியில்	-10.3078
▁பட்டி	-10.3084
▁வெப்பம்	-10.3085
mo	-10.309
▁நிறுத்தி	-10.3094
▁விருந்த	-10.3098
▁தலைநகரான	-10.31
▁சூழலில்	-10.3102
▁தொண்டை	-10.3103
▁பெற்றிருந்த	-10.3107
▁சதுரங்க	-10.3107
▁முகாம	-10.311
▁கோவா	-10.3113
▁துன்ப	-10.3115
▁நடுவில்	-10.3121
ம்பர	-10.3123
▁எசுப்பானிய	-10.3124
▁காலி	-10.3125
▁நுழைந்த	-10.3125
▁தோன்றி	-10.313
▁ராணுவ	-10.3133
க்குறை	-10.3135
யாள	-10.3136
மில்லை	-10.314
▁கட்டத்தில்	-10.314
▁நான்காம்	-10.3145
ப்பெருமாள்	-10.3147
▁நபர	-10.316
▁மொழியாக	-10.3172
விடம்	-10.3177
▁துருவ	-10.3179
மிழ	-10.3182
▁42	-10.3186
ேசுவரர்	-10.3191
ுதலை	-10.3191
ச்சே	-10.3194
▁கழித்து	-10.3197
▁அறக்கட்டளை	-10.3199
▁நன்ன	-10.3199
▁தொகுதியின்	-10.32
▁சீக்கிய	-10.32
த்திறன்	-10.32
▁குழுவில்	-10.3202
▁டெக்	-10.3207
▁எச்ச	-10.3208
▁சுல்தான்	-10.3208
▁சித்தரிக்க	-10.3212
▁பிறப்ப	-10.3213
ங்களைச்	-10.3215
நிலையில்	-10.3216
▁படகு	-10.3217
பட்டினம்	-10.3217
▁தலைநகராக	-10.3217
▁வகுத்த	-10.3223
▁1973	-10.3223
▁64	-10.3224
▁அச	-10.3225
சாரி	-10.3225
▁இசைக்	-10.3233
▁இத்தாலி	-10.3235
▁குடியேற	-10.3238
▁தலைப்பில்	-10.324
இர	-10.324
▁அலுவலகம்	-10.3242
▁நகரங்களில்	-10.3243
▁மருத	-10.3244
▁1968	-10.3246
ாசி	-10.3248
▁மீனாட்சி	-10.3253
கோவில்	-10.3254
▁திரைக்கதை	-10.3254
▁நகருக்கு	-10.3256
▁கொடுப்ப	-10.3257
▁தலைநகரம்	-10.326
நாட்ட	-10.3261
▁சொன்ன	-10.3265
▁எஞ்சிய	-10.3267
▁அண்மையில்	-10.3268
▁ஷெ	-10.3269
ப்பாடல்	-10.327
▁வடிவமைத்த	-10.3272
ப்பிய	-10.3272
▁திட்டமிட	-10.3273
▁எல்லாம்	-10.3274
▁எடுத்துச்	-10.3274
▁அதிகாரம்	-10.3274
முடியாத	-10.3278
▁பாக்கித்தான்	-10.3282
▁கதாப்பாத்திர	-10.3286
▁எதிர்பார்க்க	-10.3288
கோட்டை	-10.329
▁கடும்	-10.3291
▁பிரெ	-10.3292
▁பில்	-10.3292
▁மஞ்ச	-10.3302
வராகவும்	-10.3302
▁இத்திட்ட	-10.3303
▁கொன்ற	-10.3304
▁உடல்நல	-10.3309
▁பயன்படுகின்றன	-10.3311
▁பெருந்த	-10.3313
வதற்கான	-10.3314
▁கருதுகின்றனர்	-10.3314
▁ஒருங்கிணைந்த	-10.3317
▁பயணிகள்	-10.3328
யொ	-10.333
▁ஊழியர்	-10.333
▁செரு	-10.3332
▁திரைப்படத்தின்	-10.3332
▁நிலவ	-10.334
▁மாடு	-10.3341
ம்மாள்	-10.3345
களுடனும்	-10.3351
பேசி	-10.3352
▁கம்பெனி	-10.3353
▁தொடர்பாக	-10.3356
▁அரசி	-10.3359
ற்கா	-10.3362
ப்படுவதால்	-10.3363
▁அடிப்படையாக	-10.3363
▁ஆகியோர	-10.3366
வெப்ப	-10.3368
ம்பாடி	-10.3371
▁ஓடி	-10.3372
▁நச்சு	-10.3372
▁டிவி	-10.3372
தொரு	-10.3373
டோன்	-10.3375
▁செய்யப்பட	-10.3376
▁லட்சுமி	-10.3382
▁கொண்டிருந்தார்	-10.3395
▁சர்ச்சை	-10.3399
வர்களில்	-10.3399
▁நூற்றாண்ட	-10.3401
▁குளம்	-10.3403
த்திரு	-10.3405
▁வங்க	-10.3408
ப்பெயர	-10.3409
▁ஜு	-10.341
▁என்பவரின்	-10.3412
▁இயல	-10.3413
▁தானே	-10.3413
க்காட்ட	-10.3414
▁கிழக்கிந்திய	-10.3419
▁கொண்டிருக்க	-10.3423
ட்ரிக்	-10.3424
ுவதற்கும்	-10.3436
▁கணிக்க	-10.344
▁வைத்திருந்த	-10.3441
▁தயாரிப்பாளர்	-10.3441
▁முதுகலை	-10.3442
▁சிவாஜி	-10.3444
கோள்	-10.3444
சுந்தர	-10.3447
▁அவர	-10.3451
க்கன்	-10.3454
▁சாமி	-10.3454
▁பாகை	-10.3454
னியர்	-10.3458
▁முழுமை	-10.3466
▁தலைமையிலான	-10.3467
▁இம்மொழி	-10.3469
வள்	-10.3476
▁அதிகபட்ச	-10.3477
த்தர்	-10.3477
ical	-10.3479
▁ஆட்சியில்	-10.348
மட	-10.3481
நோக்கி	-10.3484
ib	-10.3485
வச	-10.3485
▁என்பதுடன்	-10.3493
ாவது	-10.3495
▁இலாப	-10.3496
▁வழங்கினார்	-10.3503
▁நியம	-10.3503
▁ஃ	-10.3507
-18	-10.3515
▁மனிதன்	-10.3516
▁சூப்பர்	-10.3525
வற்றில்	-10.3525
ப்பிட	-10.3525
▁பயன்பட்ட	-10.3528
▁1920	-10.354
▁படுகொலை	-10.3543
றிந்த	-10.3543
ாக்கி	-10.3544
▁வலைத்தள	-10.3544
▁1963	-10.3545
▁கிரிக்க	-10.3545
▁பொருளியல்	-10.3546
▁என்பதில்	-10.3547
பெல்	-10.3548
▁தேற்ற	-10.3549
▁ஸ்டீ	-10.3551
▁வர்க்க	-10.3552
தைப்	-10.3557
காலம்	-10.3558
▁மரங்கள்	-10.356
▁போர	-10.3562
▁v	-10.3563
▁அறிமுகம்	-10.3564
▁வடகிழக்கு	-10.3565
▁அக்கால	-10.357
போன்ற	-10.357
▁இருவர	-10.3571
▁உரிமைகள்	-10.3579
▁சம்பவ	-10.358
▁சமயங்களில்	-10.358
▁வரையறுக்கப்பட்ட	-10.3581
▁இவற்றுள்	-10.3582
▁உணர்ச்சி	-10.3582
▁முன்பே	-10.3584
▁கூடும்	-10.3585
▁அருவி	-10.3587
▁பக்கம்	-10.3589
▁குறிப்பிடப்பட்ட	-10.3593
▁சிவபெருமான்	-10.3598
ிலிருந்த	-10.3599
▁வள்ளி	-10.36
▁பகுதியான	-10.3609
▁உதாரண	-10.361
ப்பாறை	-10.3611
▁ஊடாக	-10.3615
சேர்	-10.3615
காந்த	-10.3617
▁இந்நகரம்	-10.3618
▁ஈட்ட	-10.3621
▁39	-10.3623
▁மதிப்பிட	-10.363
▁கிராம்	-10.3631
▁சேவைகள்	-10.3632
ியும்	-10.3632
▁கில்	-10.3632
ov	-10.3634
▁உடு	-10.3636
▁சூத்திர	-10.364
▁தெரிந்த	-10.3641
▁தமிழர்கள்	-10.3646
▁கழகத்தில்	-10.3647
tion	-10.3653
▁அவர்களால்	-10.3656
ரூப	-10.3657
போர்ட்	-10.3661
ுக்குள்	-10.3667
▁கடினமான	-10.3667
▁அங்கீகரிக்க	-10.3668
▁பாலைவன	-10.367
ல்லாத	-10.3673
▁இடி	-10.3673
▁பணியை	-10.3673
▁தாக்கம்	-10.3674
த்தன்	-10.3677
▁எழுத்துக்	-10.3677
வலி	-10.3681
தென்	-10.3681
▁நாற்	-10.3684
▁நடுநிலை	-10.3685
ran	-10.3687
uc	-10.3691
கரம்	-10.3696
▁இம்முறை	-10.3697
▁தேர	-10.3699
▁முதன்முதலாக	-10.3702
யிட்டு	-10.3703
▁இவ்வாறான	-10.3714
▁வளர	-10.3716
ction	-10.3717
▁மண்டபம்	-10.3719
▁வெங்கட	-10.3721
▁ஒதுக்க	-10.3726
▁தனித்த	-10.3731
▁விளைவிக்க	-10.3731
▁இருந்தபோது	-10.3732
▁டச்சு	-10.3732
▁உதவியுடன்	-10.3732
க்கருவி	-10.3735
▁காட்டுகிறது	-10.3736
▁உணர்ந்த	-10.3737
ம்பர்	-10.3739
▁அமைவ	-10.3742
▁ஹீ	-10.3749
ாகி	-10.375
▁முறையான	-10.3756
▁கரையில்	-10.3756
▁செருமனி	-10.376
▁அதிகாரப்பூர்வ	-10.3762
▁மரு	-10.377
▁திறந்து	-10.3771
▁பெருமளவு	-10.3772
▁பங்கேற்க	-10.3783
ind	-10.3785
▁பிட்	-10.3786
விற்கும்	-10.3787
▁உடற்	-10.3787
▁பிற்காலத்தில்	-10.3787
▁படிப்படியாக	-10.3794
▁எதிர்மறை	-10.3796
▁தொடங்கப்பட்ட	-10.3796
பாட்டு	-10.3802
▁தோற்றுவிக்க	-10.3806
ram	-10.3809
▁மரபுவழி	-10.3811
if	-10.3815
▁பெரம்பலூர்	-10.3817
▁எதிர	-10.3818
▁தாள	-10.3819
முத்து	-10.382
▁சதவிகித	-10.383
▁1945	-10.3832
▁பகுதிக்கு	-10.3834
▁பாகிஸ்தான்	-10.3836
டுப்பாட்டக்காரர்	-10.384
▁இலத்தீன்	-10.3841
▁வரையான	-10.3845
ாவார்	-10.3845
▁பசுமை	-10.3846
▁உபயோக	-10.3847
மயமாக்க	-10.3852
▁விழுக்காடு	-10.3852
▁மாநாடு	-10.3855
▁எலக்ட்ரான்	-10.3856
ாளராகவும்	-10.3856
▁அறிஞர்கள்	-10.3857
▁கோயிலின்	-10.386
▁ஏழை	-10.3861
பிற	-10.3863
கீழ்	-10.3865
▁அனி	-10.3868
▁மகனாக	-10.387
▁மனோ	-10.3873
பாட்டை	-10.3873
▁கப்பல	-10.3873
▁தொகுதிகள்	-10.3876
▁தீர்ப்ப	-10.3881
▁சனி	-10.3882
மாகவே	-10.3882
▁தட்டு	-10.3882
▁மீள்	-10.3883
▁முடிக்க	-10.3887
▁ஃபோ	-10.3891
▁for	-10.3893
▁புல்	-10.3895
க்கதை	-10.39
தைத்	-10.3901
▁Re	-10.3905
-3	-10.3905
▁குழுக்கள்	-10.3908
son	-10.3908
▁தவிர்த்து	-10.3908
▁பிரதிநிதித்துவ	-10.3912
▁நிலவிய	-10.3913
▁செயலி	-10.3915
▁இந்திர	-10.3917
▁முத்திரை	-10.3918
ive	-10.3918
▁ஷி	-10.3918
ிறான்	-10.3919
▁தாண்டி	-10.3921
பிள்ளை	-10.3921
▁உறுப்பினரும்	-10.3922
▁வீழ்த்த	-10.3923
▁உடையது	-10.3929
▁பாலியல்	-10.3931
▁வேட்டையாட	-10.3935
▁சுரு	-10.3937
ேசுவர	-10.3939
▁வேட்பாளராக	-10.394
டூ	-10.3947
ுள்ளதாக	-10.3952
ாடு	-10.3955
▁முதலீடு	-10.3959
வதால்	-10.3962
▁இந்திரா	-10.3966
▁ஆசிரிய	-10.3967
▁மேன்	-10.397
முன்	-10.3973
▁65	-10.3973
ராமன்	-10.3973
▁மாவட்டத்திலுள்ள	-10.3974
▁என்பதன்	-10.3977
▁வசதிகள்	-10.3979
முற்ற	-10.3985
▁இவ்வா	-10.3988
▁என்பவரை	-10.399
▁முடித்த	-10.3991
▁தங்கி	-10.3993
ev	-10.3997
ுணர்வு	-10.4
▁உன்	-10.4004
▁பெற்றுள்ளன	-10.4004
ாி	-10.4007
▁புவியின்	-10.401
▁காக்க	-10.401
மத	-10.4012
▁நீதிமன்றம்	-10.4013
▁வைணவ	-10.4013
▁மைக்கேல்	-10.4017
▁மனம்	-10.402
லஸ்	-10.4022
▁1954	-10.4023
▁மென்பொருள	-10.4024
▁கடு	-10.4024
▁இனப்பெருக்க	-10.4024
மினி	-10.4028
மென	-10.4028
▁நிறுவினார்	-10.403
▁வரைய	-10.4031
கொடு	-10.4038
▁வானியல	-10.4041
▁கிறிஸ்தவ	-10.4054
▁விரிவான	-10.4054
▁மாறு	-10.4055
ாபுரம்	-10.4055
▁52	-10.4055
ிடை	-10.4056
eg	-10.4056
▁தொட்டி	-10.4059
▁சல்	-10.406
▁தொடரின்	-10.4062
ast	-10.4062
மடை	-10.4065
ய்யா	-10.4066
▁சட்டத்தின்	-10.4067
▁வில்ல	-10.4068
ின்றார்	-10.4071
காம	-10.4072
▁கருப்பை	-10.4074
age	-10.4074
▁400	-10.4075
▁55	-10.4076
▁அலங்கார	-10.4076
▁கால்வாய்	-10.4078
2)	-10.4079
வரான	-10.4083
▁In	-10.4085
ாபாத்	-10.409
அள்ளி	-10.4092
▁உணர்த்த	-10.4093
▁சோழன்	-10.4095
ve	-10.4096
▁சூழப்பட்டுள்ளது	-10.4096
▁நடுவண்	-10.4096
▁இருக்கின்றது	-10.4096
▁150	-10.4097
▁போலி	-10.4097
▁நிறுவனத்தை	-10.4098
▁தனிநபர்	-10.41
ப்பார்	-10.4102
▁பலி	-10.4107
▁அன்பு	-10.4107
▁தொடர்ச்சியான	-10.4108
▁கிளர்ச்சி	-10.4112
▁Co	-10.4114
▁அறி	-10.4119
▁கடுமையாக	-10.4124
▁விருதுகள்	-10.4125
சியம்	-10.4126
CH	-10.4133
▁சேர்க்கை	-10.4136
▁கிடையாது	-10.4136
ுருவ	-10.4138
▁நீட்டி	-10.4138
▁பிரிந்து	-10.4139
▁பான	-10.4141
▁கல்லறை	-10.4141
▁சிறையில்	-10.4145
▁ஒப்பிட	-10.4146
▁கதிரியக்க	-10.4148
▁மாளிகை	-10.4148
▁போட்டியிட்ட	-10.4151
▁சட்டப்படி	-10.4153
க்கள	-10.4154
▁பத்திர	-10.4156
ee	-10.416
▁கோவிந்த	-10.4161
▁வடமொழி	-10.4162
லொ	-10.4169
ந்தே	-10.4172
▁தேவார	-10.418
▁பொதுச்	-10.4183
▁நிலப்பரப்ப	-10.4187
வாசல்	-10.4187
டைந்து	-10.4188
ப்பட்டிருக்கும்	-10.4189
▁கிழக்க	-10.4194
▁பேரவை	-10.4205
▁நிறுவனங்கள	-10.4206
▁மூவ	-10.4206
▁அம்பா	-10.421
▁பிடி	-10.4211
▁ஹரி	-10.4212
க்காகவும்	-10.4212
▁இராச்சியத்தின்	-10.4212
our	-10.4225
▁சிங்கப்பூர	-10.4229
▁காலமானார்	-10.4233
▁மனிதர்கள்	-10.4233
▁கோழி	-10.4237
▁கவிதைகள்	-10.4239
▁காண்க	-10.4241
▁நடப்ப	-10.4242
▁வசன	-10.4243
▁உரிம	-10.4244
▁வளர்ப்பு	-10.4245
▁சீனாவின்	-10.4246
▁மாறிய	-10.425
ob	-10.4251
▁ஒத்து	-10.4253
▁கூடு	-10.4253
▁அங்கிருந்து	-10.4254
▁தொழில்நுட்பம்	-10.4254
நோய்	-10.4256
▁தொடர்ச்சி	-10.4257
▁வகுப்ப	-10.4261
▁43	-10.4266
▁ட்ர	-10.4267
▁வைத்துக்	-10.4268
▁எஃப்	-10.427
▁பாண்டியன்	-10.4278
▁சுட்டு	-10.4278
▁அணிக்காக	-10.4281
▁சேமிக்க	-10.4282
▁1966	-10.4283
▁உட்புற	-10.4284
வேக	-10.4285
ிருப்பதாக	-10.4286
▁யாழ்ப்பாணம்	-10.4288
▁துண்டு	-10.4291
▁அவசிய	-10.4291
▁கொன்று	-10.4291
▁தண்டு	-10.4292
▁புரட்டாசி	-10.4293
▁நடைமுறையில்	-10.4299
▁கிழக்கே	-10.43
ொழி	-10.4305
▁பாடகர்	-10.4307
▁தொகுதிக்கு	-10.4317
ாலி	-10.4318
▁தேசியப்	-10.4318
▁ஸ்டா	-10.432
சுர	-10.4323
▁தலைவன்	-10.4326
▁விரும்பி	-10.4332
po	-10.4333
▁வாடிக்கையாளர்	-10.4334
▁நீளமான	-10.4336
இரு	-10.4338
தீன்	-10.4338
செயல்	-10.4339
குள	-10.4342
றே	-10.4347
▁கட்டமைப்ப	-10.4347
▁படையினர	-10.4355
her	-10.4362
த்தியா	-10.4362
இந்த	-10.4365
ுறவு	-10.4366
▁பத்திரிக்கை	-10.4366
▁இவரே	-10.4366
▁தெரியவில்லை	-10.4371
ினி	-10.4373
▁கருத்தை	-10.4373
▁பயன்பாட்டில்	-10.4373
▁தனித்தனி	-10.4378
▁ஒட்டுமொத்த	-10.4378
களாகக்	-10.4379
▁இதற்கான	-10.438
நிலைய	-10.438
காட்டி	-10.4381
ானந்த	-10.4383
▁தூரத்தில்	-10.4384
▁எண்கள்	-10.4385
▁44	-10.4385
கூற	-10.4388
▁பனை	-10.4388
ுறுப்பு	-10.4389
டொ	-10.4389
▁தவறான	-10.4391
த்திரை	-10.4392
▁திருவா	-10.44
▁அப்படி	-10.44
att	-10.44
▁இளங்கலை	-10.4403
▁வெற்றிகரமாக	-10.4403
டைகிறது	-10.4404
க்கல்வி	-10.4404
▁குறிப்பிடுகிறார	-10.4408
ஸ்கி	-10.4409
▁46	-10.4413
ங்களே	-10.4421
க்கூடியது	-10.4425
▁ஒர்	-10.4427
▁கரைசல	-10.4432
▁நாட்டுப்புற	-10.4432
ெடுத்து	-10.4433
மாண	-10.4433
காட்	-10.4436
ழற்சி	-10.4445
ug	-10.4446
பாட்ட	-10.4447
▁அவற்றுள்	-10.4447
▁தமிழ்ச்	-10.4447
▁சன்னதிகளும்	-10.445
வனை	-10.4454
▁அறிவிப்ப	-10.4455
▁காரணத்தால்	-10.4457
▁பிற்பகுதியில்	-10.4462
ral	-10.4463
ஆவது	-10.4465
பியன்	-10.4467
ae	-10.4471
லியன்	-10.4473
▁உணவாக	-10.4478
▁வசந்த	-10.448
▁இரயில்	-10.4482
▁குறைவு	-10.4486
வுக்கும்	-10.4487
▁கடவுளின்	-10.4488
▁தற்கொலை	-10.449
▁முகலாய	-10.4492
▁மதம்	-10.4493
யாத	-10.4498
▁நிகழ	-10.4501
ப்பாக்கம்	-10.4504
▁அபாய	-10.4504
Br	-10.4506
யூட்ட	-10.4507
▁என்பதையும்	-10.4509
▁ஆரணி	-10.4511
▁மேற்கோள்	-10.4516
▁மெல்ல	-10.4519
▁காட்டும்	-10.4522
▁கிழ	-10.4526
▁அமைகிறது	-10.453
▁சேர்மங்கள்	-10.4531
▁சேர்த்த	-10.4531
ாளரான	-10.4532
மாற்றம்	-10.4533
▁கோடை	-10.4534
சஸ்	-10.4537
▁மயிலாடுதுறை	-10.4539
▁வகையைச்	-10.4547
▁ஈடு	-10.4548
ப்புல	-10.455
▁மோசமான	-10.4552
▁சுவாச	-10.4553
▁1958	-10.4555
▁படித்து	-10.4556
▁ஏற்றுக்கொண்ட	-10.4557
▁சுற்றியுள்ள	-10.4559
ந்தர	-10.456
▁பாம்பு	-10.4561
▁கடிகார	-10.4565
▁சிதற	-10.4571
ெண்	-10.4572
▁உத்தரப்	-10.4575
▁ராக்	-10.4575
▁முகவரி	-10.4575
lu	-10.4576
▁திட்டத்தை	-10.4576
நாக	-10.4576
▁போக்கு	-10.4579
▁ராய்	-10.4579
▁1961	-10.4579
தேச	-10.458
▁ஆயிர	-10.4587
▁நமது	-10.459
▁சந்தித்த	-10.459
▁உள்ளடக்கியது	-10.4592
▁ஏறக்குறைய	-10.4602
லாய்	-10.4605
செய்யப்பட்ட	-10.4609
மீட்டர்	-10.461
▁ராவ்	-10.461
ப்பாடி	-10.4612
▁ஆண்களின்	-10.4613
▁என்பவற்ற	-10.4622
பாக	-10.4626
▁ஆகியவற்றைக்	-10.4626
▁பொருட்களின்	-10.4628
no	-10.4632
ஊ	-10.4634
விளை	-10.4634
▁கான	-10.4637
வர்மன்	-10.4639
▁சிக்கி	-10.4642
▁உத	-10.4645
▁தோற்கடித்த	-10.4652
▁சுழல்	-10.4653
▁நாயக்கர்	-10.4653
▁ஈடுபட்டு	-10.4656
▁பெருங்கடல	-10.4664
▁அடிப்படையிலான	-10.4668
▁வென்றது	-10.4672
▁ஒன்றியத்தின்	-10.4674
ach	-10.4675
▁அமர்	-10.4675
▁படித்த	-10.4676
iv	-10.468
▁இறங்க	-10.4681
▁அசிட்ட	-10.4683
▁கிட்ட	-10.4683
ord	-10.4684
▁ஒழுங்கு	-10.4687
▁(3	-10.4691
▁ஜெய்	-10.4693
▁மாறும்	-10.4694
▁மூலவர்	-10.4695
▁பிரான்ச	-10.4697
▁பேசி	-10.4697
▁மண்டலத்தில்	-10.47
▁நிற்க	-10.4701
▁பீகார	-10.4703
▁மெதுவாக	-10.4707
▁நுரையீரல்	-10.471
ம்போ	-10.4713
▁தியாக	-10.4718
▁போருக்கு	-10.4718
ாவை	-10.4719
▁நாட்டுப்	-10.4723
களுக்க	-10.4724
▁உடலின்	-10.4724
னவாக	-10.4724
▁தோன்றியது	-10.4725
▁அதிகரிக்கும்	-10.4726
த்தூ	-10.4727
▁தேர்ந்தெடுத்த	-10.4727
▁உதய	-10.4728
▁ஆரோக்கிய	-10.4728
▁குளிர்கால	-10.4731
5,000	-10.4731
▁தரநிலை	-10.4731
▁கோபால	-10.4733
▁ஸ	-10.4734
▁கற்பித்த	-10.4735
▁வாழ்க்கையில்	-10.4736
▁பிரதிநிதி	-10.4736
▁சுருக்கமாக	-10.4743
▁சுரப்பி	-10.4743
▁ஈர்ப்பு	-10.4744
▁தாக்கி	-10.4744
▁சார்ப	-10.4746
▁ஆப	-10.4748
▁குடும்பத்தைச்	-10.4748
▁வச	-10.4749
▁கார்பன	-10.4749
▁ஈர்க்க	-10.475
▁1959	-10.4756
▁தூரம்	-10.476
▁வீத	-10.4761
▁மேம்பாட்டு	-10.4767
▁கருத்தில்	-10.4771
▁நிகழ்ச்சியில்	-10.4777
ரியல்	-10.4777
ess	-10.4779
▁வேகம்	-10.4781
▁இப்படம்	-10.4784
▁இசையமைத்த	-10.4788
▁நிலையத்தில்	-10.4788
பீட	-10.4788
▁வைத்தார்	-10.4789
வாச	-10.479
இந்திய	-10.4791
▁புற்று	-10.4792
▁அடித்தள	-10.4793
▁பொருள்படும்	-10.4796
▁வாயில்	-10.48
▁நடக்கின்றன	-10.4811
▁வடிவத்தில்	-10.4812
▁பாடலை	-10.4813
களிலேயே	-10.4813
ass	-10.4814
▁இரக	-10.4817
▁அமைச்சரவை	-10.4817
iya	-10.4819
யடி	-10.482
▁1946	-10.4821
▁நாட்களுக்கு	-10.4825
ச்சொல்	-10.4829
▁உறுப்பினராகவும்	-10.4831
▁மகாபாரத	-10.4834
▁ஆஸ்திரேலிய	-10.4836
▁பெண்களுக்கு	-10.4841
▁இதழில்	-10.4841
▁ஊடுருவ	-10.4844
▁அசோக	-10.4844
ங்களுக்காக	-10.4845
▁தயாரிப்பில்	-10.4846
▁தருகிறது	-10.4852
▁மட்டக்களப்பு	-10.4854
▁கூடாது	-10.4854
▁மக்கட்தொகை	-10.4856
ீசுவரர்	-10.4856
▁ஒற்றுமை	-10.4856
▁தீய	-10.4863
▁லக்	-10.4864
An	-10.4866
▁அவளை	-10.4868
▁மேக	-10.4869
பெயர	-10.4869
▁பவுல்	-10.4871
மல்ல	-10.4873
▁ரீதியான	-10.4874
▁ஆசிரியர	-10.4878
▁படிம	-10.4879
ங்குளம்	-10.4881
ish	-10.4882
▁நரசிம்ம	-10.4882
▁ரவி	-10.4883
▁மத்தியப்	-10.4885
ேல்	-10.4894
▁பிலிப்	-10.4896
▁நிலவு	-10.4897
ஷன	-10.4898
▁எது	-10.4898
▁வாயிலாக	-10.49
▁எடுப்ப	-10.4901
▁கட்டிய	-10.4902
▁அரசால்	-10.4905
▁அவசர	-10.491
▁உத்திர	-10.491
▁இச்சி	-10.4911
▁நெருக்கடி	-10.4914
கதிர்	-10.4916
களுடைய	-10.4917
▁அப்போதைய	-10.4921
▁தென்கிழக்கு	-10.4921
விசை	-10.4922
▁தோல	-10.4923
▁1949	-10.4924
▁திருப்பு	-10.4932
▁சாம்பல்	-10.4932
ப்படுத்திய	-10.4934
▁வள்ள	-10.4935
▁சந்தேக	-10.4936
ala	-10.4937
ber	-10.4938
▁ஊட்ட	-10.4941
▁காஞ்சி	-10.4944
▁மொழிபெயர்ப்பு	-10.4945
▁முகம்மது	-10.4947
▁மோதி	-10.4948
பாடாக	-10.4949
▁தீவில்	-10.495
▁கொட்ட	-10.4951
▁இயலாத	-10.4954
▁பொதுத்	-10.4956
கினி	-10.4959
▁ஐந்தாம்	-10.496
pe	-10.4961
▁பணிபுரிந்தார்	-10.4964
▁இவ்வினை	-10.4966
▁தலைவர்கள்	-10.4972
▁பயன்படுத்தலாம்	-10.4972
▁பழுப்பு	-10.4973
▁Ma	-10.4973
யீடு	-10.4976
▁துவக்கத்தில்	-10.4977
▁மாதங்கள்	-10.4978
▁இவர்களுக்கு	-10.4978
▁வலு	-10.4979
▁ஃப்ர	-10.498
▁லியோ	-10.4984
▁சிக்க	-10.4985
▁ஈடுபாடு	-10.4987
▁உருவாகி	-10.4987
மிட்ட	-10.499
▁பருவத்தில்	-10.499
▁திரும்பிய	-10.499
▁பட்ச	-10.4993
▁குறுக்க	-10.4995
படுத்தி	-10.4996
பரப்ப	-10.4997
▁பராமரிக்க	-10.4999
▁டார்	-10.4999
▁1951	-10.5001
▁ஆண	-10.5003
▁பயன்பாட்ட	-10.5004
▁செயற்பாட்ட	-10.5009
பழ	-10.5013
மூர்	-10.5013
▁பொலி	-10.5014
இது	-10.5016
▁63	-10.5016
▁மன்	-10.5017
யியல	-10.5018
▁விடும்	-10.5025
▁கொடுத்தார்	-10.5025
ie	-10.5026
ence	-10.503
▁நோக்கிய	-10.5034
▁செய்கின்றன	-10.5035
▁அழிந்து	-10.504
வண்ண	-10.5043
▁புத்தகம்	-10.5045
▁பிரம்மா	-10.5046
AT	-10.5048
▁நீராவி	-10.5052
ட்டெ	-10.5052
▁கிரீ	-10.5056
▁பள்ளத்தாக்கு	-10.5061
▁தளம்	-10.5063
▁கார்த்திகை	-10.5065
▁எழுத்துக்கள்	-10.5067
▁விசய	-10.5071
▁நேரு	-10.5077
▁வெண்பா	-10.5078
▁உள்ளடங்க	-10.5078
ial	-10.5079
▁இருபத்த	-10.5082
▁அவர்களுடைய	-10.5088
▁காலத்தை	-10.5089
▁மார்கழி	-10.5091
▁ஆதரிக்க	-10.5091
ஸ்திர	-10.5093
▁1955	-10.5094
▁அரசியலமைப்பு	-10.5095
▁பெயரிட்ட	-10.51
ியற்	-10.5101
▁மெல்லிய	-10.5102
ப்பிடி	-10.5103
▁நாடகம்	-10.5104
▁ஓரளவு	-10.5108
வளி	-10.5108
▁கூறுகின்றனர்	-10.5108
போன	-10.511
▁சிறீ	-10.5111
▁இம்மாவட்டம்	-10.5112
▁மங்கோலிய	-10.5112
▁எண்ணிக்கையில்	-10.5113
▁முன்னரே	-10.5117
▁பங்குனி	-10.5117
▁வீடுகள்	-10.5117
▁செவி	-10.512
▁கட்டிடம்	-10.5125
▁விளைவுகளை	-10.5127
▁சீடர்	-10.513
▁பயன்பட	-10.5131
▁வேல்	-10.5132
▁இயக்கினார்	-10.5133
கோல்	-10.5139
▁இருந்ததால்	-10.5141
▁புரூ	-10.5143
▁பகை	-10.5143
▁திசையில்	-10.5143
▁பெரும்பான்மையான	-10.5145
▁தொகுதியாகும்	-10.5145
▁கலைஞர	-10.5146
▁வேளையில்	-10.5147
▁மருந்துகள்	-10.5147
▁தோழி	-10.5152
▁நம்பி	-10.5152
▁மின்கல	-10.5155
▁அன்றைய	-10.5157
▁வழித்தட	-10.5157
▁சிவபெருமான	-10.5159
டான்	-10.5164
▁கொண்டுவர	-10.5166
▁கரும்பு	-10.5167
▁தற்பொழுது	-10.5171
▁1944	-10.5173
▁1939	-10.5174
▁சத்ய	-10.5176
▁திட்டங்கள்	-10.518
▁மண்டப	-10.5182
ாலோ	-10.5184
ுவதாகும்	-10.5185
▁பொருள்கள்	-10.5186
▁அருந்த	-10.5186
பிரதேச	-10.5186
மிகு	-10.5188
▁விழாவில்	-10.5189
▁இழப்ப	-10.5191
▁கற்றார்	-10.5192
▁அதிர்வெண்	-10.5194
har	-10.5196
நு	-10.5197
▁ஆளுமை	-10.5197
விடுகிறது	-10.5198
200	-10.5201
▁தாக்கத்தை	-10.5203
நான்	-10.5203
ப்பட்டாலும்	-10.5205
▁அத்தி	-10.5206
▁உந்து	-10.5211
▁பாரதி	-10.5214
▁நிர்வாகம்	-10.5215
மேற்	-10.5215
▁பெறுகிறது	-10.5218
▁உயிரினங்கள	-10.5219
தலின்	-10.522
du	-10.5223
▁கருத்துக்களை	-10.5223
▁பின்னாளில்	-10.5224
▁ஆசிரியர்கள்	-10.5225
▁அடித்த	-10.5226
ton	-10.5227
▁ஆரிய	-10.5227
▁வெல்ல	-10.5229
▁வெட்டு	-10.5231
பணி	-10.5232
▁பழம்	-10.5233
▁இந்தோனேசியா	-10.5236
▁பசிபிக்	-10.5238
▁தொழில்முறை	-10.5239
▁சில்ல	-10.524
▁41	-10.5241
ric	-10.5241
▁குடும்பத்தினர	-10.5246
▁அதன	-10.5246
▁Y	-10.5246
▁பொறுத்த	-10.5251
▁மின்னழுத்த	-10.5251
▁x	-10.5251
ப்பட்டிருந்தது	-10.5252
▁CH	-10.5252
▁நிறுவி	-10.5252
ப்பேட்டை	-10.5253
இந்தியா	-10.5256
றுக்க	-10.5257
▁மூச்சு	-10.5258
▁அஞ்ச	-10.5258
yl	-10.5262
▁வகைகளில்	-10.5263
▁மலையில்	-10.5264
▁குறைப்ப	-10.5267
▁ஆரம்பமான	-10.5269
▁பற்றிக்	-10.5269
▁நிலையங்கள்	-10.5271
▁இடத்திற்கு	-10.5274
▁விளைவுகள்	-10.5274
▁நுழை	-10.5279
லீன்	-10.5286
▁அதிகாரிகள்	-10.5288
▁ஆணையம்	-10.5289
ண்டெ	-10.529
▁பகிர்ந்து	-10.529
▁ரசிகர்	-10.5291
▁தலங்களில்	-10.5294
▁அடையும்	-10.5296
நத்தம்	-10.5296
▁பெர	-10.5302
க்குட்பட்ட	-10.5305
ஜு	-10.5307
▁வேளாண்	-10.5308
▁உபசன்னதிகள	-10.5311
▁செலுத்தி	-10.5311
aw	-10.5314
த்தொடர்	-10.5317
▁அமைந்திருந்த	-10.5318
▁கொள்வத	-10.5323
▁விளையாடி	-10.5326
▁பிளவு	-10.5327
▁வழிபாட்டு	-10.5335
▁இடங்களை	-10.5343
▁ஒளிப்பட	-10.5344
ight	-10.5345
▁விரைவு	-10.5345
▁கூட்டமைப்ப	-10.5353
ிடமும்	-10.5354
▁உருவாக்குகிறது	-10.5355
▁ஐந்தாவது	-10.5358
▁இயலாது	-10.5359
▁ஆட்சியாளர்	-10.536
ஜோ	-10.5362
▁காகித	-10.5363
▁மேற்கொண்டார்	-10.5363
▁வெளியில்	-10.5364
▁கிருஷ்ணன்	-10.5366
▁இன்ன	-10.5367
▁இக்கால	-10.5368
▁ஆன்மீக	-10.5372
▁மூர்த்தி	-10.5373
▁கவலை	-10.5375
▁அறியப்படுகிறார்	-10.5375
▁ஸ்டார்	-10.5377
யிருந்த	-10.5381
end	-10.5386
▁ஆபத்து	-10.5389
▁இயற்றப்பட்ட	-10.5389
▁மிகுதியாக	-10.5398
▁குறியீட்டு	-10.5403
▁சந்திப்பு	-10.5403
பாடி	-10.5403
▁கண்டறியப்பட்ட	-10.5406
▁கையில்	-10.5407
▁பரா	-10.5407
▁நிர்	-10.541
டெல்	-10.5416
▁பிறந்து	-10.5416
▁கிழக்குப்	-10.5417
▁மாநிலங்களில்	-10.5418
நெறி	-10.5419
தாஸ்	-10.5424
▁கீழ்க்காணும்	-10.5426
▁இழு	-10.5429
▁இட்டு	-10.543
▁அழைப்பர்	-10.5433
▁நடிப்பு	-10.5434
படை	-10.5434
act	-10.5435
▁இங்கிலாந்தில்	-10.5438
▁போராட்டம்	-10.5438
[	-10.5439
க்காலம்	-10.5441
▁பார்வதி	-10.5444
▁நீங்க	-10.5446
▁சுவர	-10.5447
▁அமைந்து	-10.5453
▁செல்கின்றன	-10.5454
▁குண்ட	-10.5455
▁அதிகரித்து	-10.5458
ப்பாட்டு	-10.5458
▁பண்புகளை	-10.5465
பரப்பு	-10.5466
▁தென்மேற்கு	-10.5468
▁அலெக்	-10.547
ace	-10.5472
புல்	-10.5472
▁புனை	-10.5473
▁விபத்து	-10.5473
▁உடலை	-10.5474
▁பெரும	-10.5475
▁முகமது	-10.5481
▁நகரங்கள்	-10.5484
▁விட்டது	-10.5485
▁தரவரிசை	-10.5488
மூன்ற	-10.5489
மறை	-10.5491
வலை	-10.5495
▁எகிப்த	-10.5501
▁பந்தய	-10.5512
▁மெர்	-10.5513
▁சிலுவை	-10.5513
▁தளத்தில்	-10.5515
▁தள்ள	-10.5515
▁நூ	-10.5516
▁கொண்டுவந்த	-10.5518
▁அளிக்கும்	-10.5522
▁விளையாடினார்	-10.5522
▁மனு	-10.5528
பான்	-10.5532
▁வெளியேறி	-10.5535
▁ஹென்றி	-10.5536
▁ஆய்வாளர்	-10.5536
ப்பொருட்கள	-10.5537
▁பெரும்பகுதி	-10.5541
▁மில்லியன	-10.5544
களோ	-10.5545
der	-10.5547
▁விளங்கினார்	-10.5548
ரேட்	-10.5553
க்கோடு	-10.5554
▁நீரின்	-10.5555
ens	-10.5556
▁78	-10.5559
▁கற்பிக்க	-10.5559
▁மையத்தில்	-10.5562
கோயில்	-10.5562
▁நீங்கள்	-10.5563
▁கூடுதலான	-10.5563
▁விமர்சகர்	-10.5564
ேசன்	-10.5578
ுவதே	-10.5578
▁பின்பற்றி	-10.5579
▁பெண்களும்	-10.5583
வேளை	-10.559
▁பதினெட்டாம்	-10.5591
▁சார்ந்து	-10.5592
ப்பதற்கான	-10.5592
▁சாய	-10.5594
▁இதற்காக	-10.5597
▁ரெட்டி	-10.5597
▁பட்டது	-10.5597
▁வலிமையான	-10.5598
▁வட்டத்தின்	-10.5603
▁மன்ன	-10.5603
ரம்ப	-10.5604
ட்டீ	-10.5607
லியோ	-10.5616
▁படைகளை	-10.5622
▁இயக்கி	-10.5623
ஃபோ	-10.5624
▁இருப்பிட	-10.5625
▁வளர்ப்ப	-10.5626
▁ஒழுக்க	-10.5636
ப்படுவதாக	-10.5637
▁மைசூர்	-10.5641
▁முடித்து	-10.5643
அமெரிக்க	-10.5647
▁குர்	-10.5648
குப்த	-10.5648
இல	-10.5652
▁பொதுமக்கள	-10.5654
▁கொரியா	-10.5654
▁பெய்	-10.5657
ோட்டம்	-10.566
▁ஒன்றின்	-10.5667
▁பெயரிடப்பட்ட	-10.5672
தற்கும்	-10.5672
▁பூத	-10.5673
▁பகுதிகளுக்கு	-10.5673
▁ஏதேனும்	-10.5674
▁படங்கள்	-10.5675
▁விவசாயம்	-10.5676
▁கோயிலில்	-10.5677
▁தற்	-10.5678
▁வர்ண	-10.5679
▁முத்த	-10.5682
▁ஆக்சிசன்	-10.5685
▁சேர்மம்	-10.5686
▁என்கிறார்	-10.5687
▁ஹொங்கொங்	-10.5688
▁காப்புரிமை	-10.5689
▁மஹா	-10.5696
ஞர்	-10.5701
▁உணவை	-10.5706
▁பிரிட்டன	-10.5708
▁உமிழ்	-10.5711
▁செய்யலாம்	-10.5712
▁சிறப்புப்	-10.5713
▁மாற்றாக	-10.5714
▁1953	-10.5719
▁பாக்கித்தான	-10.5722
▁விளையாடிய	-10.5722
▁உலர்	-10.5726
▁பட்	-10.5727
▁எடுத்தார்	-10.5728
adi	-10.5729
▁பிரதேசத்தில்	-10.5729
▁பெற்றுக்	-10.573
▁சூர	-10.5731
வல்லி	-10.5734
▁இடர்	-10.5734
▁இறைய	-10.5736
ங்களாகப்	-10.5739
பூண்டி	-10.574
▁ஹூ	-10.5741
▁செயற்கைக்கோள்	-10.5745
▁புலிகள்	-10.5745
▁லாஸ்	-10.5749
▁கணவன	-10.575
யாகவே	-10.5751
க்குறிச்சி	-10.5754
▁தொண்ட	-10.5755
க்குளம்	-10.5758
▁நூலகம்	-10.5758
ுநர்	-10.576
ப்படுவதை	-10.5762
▁மீற	-10.5763
▁அடைந்தது	-10.5764
▁ரங்க	-10.5768
▁ராமநாதபுரம்	-10.5773
▁அறுவடை	-10.5773
▁பூஜை	-10.5773
▁தற்காலத்தில்	-10.5773
▁நிழல	-10.5774
▁செயல்பாட்ட	-10.5779
▁உருவாகிய	-10.578
▁அலக	-10.5781
திலிருந்து	-10.5781
▁படித்தார்	-10.5784
மளிக்க	-10.579
பேர	-10.5793
mi	-10.5793
ளூர்	-10.5796
▁காலத்தின்	-10.5796
▁இரசாயன	-10.5801
▁பிரதம	-10.5803
▁விதமான	-10.5804
au	-10.5805
▁பாகிஸ்தான	-10.5807
▁அவதார	-10.5812
ுவோர்	-10.5815
▁இதன	-10.5816
va	-10.5816
▁அளவீடு	-10.5817
▁ஆரம்பிக்க	-10.5818
ப்பாளையம்	-10.5821
ிலே	-10.5822
▁ஜோன்	-10.5823
▁இருப்பத	-10.5826
▁தந்தையின்	-10.5826
▁பக்கத்தில்	-10.5826
▁பொதுமக்கள்	-10.5827
▁முதன்மையாக	-10.5828
▁இயங்கு	-10.5829
▁டெல்லி	-10.5832
யின்படி	-10.5833
▁சூழ்ந்த	-10.5834
▁பூமியின்	-10.5834
ம்பாக்கம்	-10.5837
▁பள்ள	-10.5837
▁வரையிலும்	-10.5838
res	-10.584
ூன்	-10.5843
▁தொலைவு	-10.5845
▁வெற்றியை	-10.5846
▁இருக்கை	-10.5846
▁1936	-10.5847
▁தொடங்கும்	-10.5851
▁சாகி	-10.5853
ite	-10.5856
▁கூறலாம்	-10.5857
▁விண்டோஸ்	-10.5858
mm	-10.5859
▁பொருத்தமான	-10.5861
▁வலுவான	-10.5864
▁தேன்	-10.5864
▁உருவாகின்றன	-10.5865
▁அறிகுறிகள்	-10.5866
ுமாவார்	-10.5867
▁நூற்	-10.5869
ரோன்	-10.5871
விட்டது	-10.5871
▁ஆளுநர்	-10.5873
▁தோல்வியடைந்த	-10.5873
▁அனைத்தையும்	-10.5874
▁மந்த	-10.5875
▁தொகுதியிலும்	-10.5878
மோர்	-10.5878
▁மூலமும்	-10.588
▁தயாரித்து	-10.5881
▁வடமேற்கு	-10.5881
▁சந்தி	-10.5882
▁பண்பாட்ட	-10.5885
▁ஆறாம்	-10.5887
▁கொள்ளை	-10.5894
யப்பன்	-10.5894
▁தொகுத்து	-10.5896
▁சரக்கு	-10.5897
▁இடைய	-10.5898
களுக்குள்	-10.5899
ory	-10.59
▁எடுத்துக்கொள்ள	-10.59
▁அகர	-10.5901
▁நாளை	-10.5901
ொன்றை	-10.5906
▁பார்ப்ப	-10.591
ண்மை	-10.5911
▁செய்துகொண்ட	-10.5913
sc	-10.5917
க்கூடாது	-10.5918
வேல்	-10.5918
hy	-10.5922
▁பள்ளிகள்	-10.5922
▁பெற்றனர்	-10.5922
tu	-10.5927
▁தாயக	-10.5927
▁எந்திர	-10.5928
▁ஆய்வில்	-10.5928
▁நாளிதழ	-10.5928
NA	-10.5931
ிதழ்	-10.5931
▁பார்க்கும்	-10.5932
▁சொந்தமான	-10.5933
▁பொம்மை	-10.5934
தனி	-10.5936
▁கொடுக்கும்	-10.5936
▁மறுத்த	-10.5937
▁இதைப்	-10.5938
uk	-10.5939
▁இழக்க	-10.5942
▁நிறுவனமாக	-10.5942
▁வசிக்கின்றனர்	-10.5946
▁ஆசை	-10.5947
▁ஜனநாயக	-10.5949
▁டான்	-10.5953
▁அமர்ந்த	-10.5954
வுள்ள	-10.5955
▁காலப்பகுதியில்	-10.5956
▁மேம்பட்ட	-10.5957
கோட்ட	-10.5959
மாத	-10.596
▁ஓட்டங்களை	-10.5961
போதே	-10.5961
▁வந்துள்ளது	-10.5962
▁அமர	-10.5968
▁நாடுகளிலும்	-10.5971
▁திருச்சபையின்	-10.5974
▁பொதி	-10.5976
ட்டே	-10.5977
▁மொழியின்	-10.5979
▁கற்றல்	-10.5982
கோள	-10.5982
ராணி	-10.5983
▁வறுமை	-10.5987
▁திரைப்படத்தை	-10.5992
ண்டின்	-10.5993
▁உகந்த	-10.6
டங்க	-10.6001
▁அகாதமி	-10.6001
▁ஜெர்மன்	-10.6001
க்கூடியதாக	-10.6007
▁சின்	-10.6008
Ar	-10.6011
▁குரூ	-10.6015
▁கரையோர	-10.6016
▁இளமை	-10.6016
▁வளர்த்த	-10.6018
▁போன்றவற்றில்	-10.6018
▁வாழை	-10.6019
▁எல்லைகளாக	-10.6019
ாயி	-10.602
▁ஹெர்	-10.6027
▁படுகிறது	-10.6033
▁தலைமையகம்	-10.6034
▁பொருளாதாரம்	-10.6035
▁நுண்ண	-10.6037
▁நாடாளுமன்றத்	-10.6045
க்கொள்ளும்	-10.6047
▁சங்கத்தின்	-10.6049
யின்றி	-10.6052
த்திற்	-10.6052
▁உருசியா	-10.6052
▁இன்றி	-10.6052
▁தியான	-10.6054
ுபவர்கள்	-10.6057
▁நரம்ப	-10.6061
▁உழைப்ப	-10.6066
▁ஓவியங்கள்	-10.6068
▁திரட்ட	-10.6074
▁கும்பகோணம்	-10.6074
▁பாசி	-10.6074
▁ஐதரோ	-10.6076
▁நடவடிக்கைகளை	-10.6082
ளிப்பு	-10.6087
▁தவறாக	-10.6087
ox	-10.6089
▁அவசியம்	-10.6089
ளித்த	-10.6091
▁அளித்தார்	-10.6092
▁தெரிந்து	-10.6093
▁அதிபர்	-10.6095
▁போட்டியிட	-10.6096
▁கருதப்பட்ட	-10.6097
விட்டன	-10.6097
▁பலகை	-10.6099
▁விஞ்ஞான	-10.61
பயண	-10.6101
▁வயிற்று	-10.6103
ராஷ்டிர	-10.6103
▁1942	-10.6106
▁தகுந்த	-10.6106
▁சூட	-10.6109
▁வேறுபாடுகள்	-10.6115
▁ரத்த	-10.6117
▁அச்சுறுத்த	-10.6118
▁புலம்	-10.612
ிருப்பதால்	-10.6122
▁புனே	-10.6122
▁நடக்க	-10.6124
த்தீவு	-10.6124
▁சேகரிப்ப	-10.6127
▁இடைக்கால	-10.6127
▁விளையாட்டுப்	-10.6128
▁பயனுள்ள	-10.6128
▁மேற்பார்வை	-10.6132
▁ஆதிக்க	-10.6133
▁சேமிப்பு	-10.6134
▁பணிகளை	-10.6134
▁di	-10.6136
ron	-10.6137
கென்	-10.6144
போர்டு	-10.6145
▁மின்னோட்ட	-10.6146
▁துரு	-10.6148
▁பழமை	-10.6151
▁உடனே	-10.6157
str	-10.6157
▁வெளியீட்ட	-10.6158
ிருந்தால்	-10.6158
▁முன்னேற்றக்	-10.6161
▁இமயமலை	-10.6161
▁இவரும்	-10.6163
▁1937	-10.6165
▁இவ்விட	-10.6166
▁வில்லை	-10.6167
▁இதைத்	-10.6167
wa	-10.617
▁காணும்	-10.6174
▁ஆள்	-10.6178
▁மக்களிடையே	-10.6178
நிறுவன	-10.6179
▁கொத்த	-10.6181
▁கிடைக்கின்றன	-10.6188
சரி	-10.6189
www	-10.6191
▁கொல்லப்பட்ட	-10.6192
▁அளவி	-10.6193
▁படல	-10.6194
▁பட்டா	-10.6194
▁நிகழ்ச்சிகள்	-10.6197
படுகிறது	-10.6199
ome	-10.62
udi	-10.6207
ark	-10.6208
▁தொழில்துறை	-10.621
▁பாதுகாப்புச்	-10.6214
▁பிணை	-10.6214
▁பாலை	-10.6218
திரி	-10.6219
▁நடத்தினார்	-10.6219
▁எரிபொருள்	-10.622
▁உறவ	-10.622
▁ஒல்லாந்த	-10.6221
▁செய்கிறார்	-10.6223
▁வாசிப்ப	-10.6224
▁நிதிய	-10.6224
▁ஆட்சியை	-10.6225
▁வைத்திருக்க	-10.6228
▁இடையேயான	-10.623
▁செய்யப்பட்டன	-10.6231
வனாக	-10.6235
▁கர்தினால்	-10.6235
க்ஸி	-10.6235
▁ஆய்வாளர்கள்	-10.6237
ையூர்	-10.6238
▁செயலக	-10.6239
▁அமைகின்றன	-10.6242
▁ஆகியோருக்கு	-10.6242
சிறு	-10.6243
▁மாற்றிய	-10.6243
வாள்	-10.6246
மல	-10.6246
▁காங்கிரச	-10.6248
▁எழுச்சி	-10.6249
▁அவ்	-10.6253
one	-10.6254
▁கோவிலில்	-10.6254
▁முதிர்	-10.6255
▁நாசி	-10.6255
ியலில்	-10.6256
▁வகையாகும்	-10.6258
▁செயல்திறன்	-10.6258
▁சமமாக	-10.6261
ந்துறை	-10.6261
▁மாற்றங்களை	-10.6262
▁72	-10.6264
▁உலை	-10.6266
▁பாரிச	-10.6269
பயன்	-10.627
▁பிரபலமாக	-10.6271
▁கட்டிடங்கள்	-10.6272
▁பாயும்	-10.6275
நிதி	-10.6276
▁ஒருவன்	-10.6277
▁காடுகள்	-10.6278
▁நிலக்கரி	-10.628
▁மோட்டார்	-10.628
▁பதவியில்	-10.6282
▁அத்த	-10.6282
▁ஹில்	-10.6286
மன்ற	-10.6286
▁லோக	-10.6287
▁யாழ்	-10.6288
tri	-10.6289
▁விக்கி	-10.629
▁இப்பெயர்	-10.6292
▁இசைத்தொகுப்ப	-10.6294
▁தேயிலை	-10.6295
▁கணிப்ப	-10.6296
மூலம்	-10.6296
த்தில	-10.6297
▁காலகட்ட	-10.6298
▁மோர்	-10.6299
▁தடவை	-10.6301
▁ஹு	-10.6305
டுக்கு	-10.6311
▁மூலதன	-10.6314
▁தவறு	-10.6315
▁கொங்கு	-10.6315
▁உறுப்ப	-10.6319
ப்படுவத	-10.6319
▁மதிப்பை	-10.6324
▁மலாயா	-10.6325
▁66	-10.6325
ியதால்	-10.6326
ுவதாகவும்	-10.6329
▁பெருங்க	-10.6329
▁விருதுகளை	-10.633
▁தங்களை	-10.633
▁காண்பிக்க	-10.6331
▁புத்தர்	-10.6332
புதூர்	-10.6332
▁பிளாக்	-10.6335
▁விருத்தி	-10.6339
▁இதனுடைய	-10.634
▁நிக்கோ	-10.6341
▁விடுத்த	-10.6343
பந்தாட்ட	-10.6348
▁சர்வ	-10.6348
ய்ய	-10.6351
▁கனி	-10.6352
amb	-10.6354
ரிங்	-10.6359
▁தாமத	-10.636
ism	-10.6364
▁தொடங்கினர்	-10.6367
▁கற்றுக்	-10.6369
100	-10.6371
▁நினைத்த	-10.6373
▁பாதையில்	-10.6373
▁உயர்நிலைப்	-10.6375
▁வேட்டை	-10.6377
▁அளக்க	-10.6377
▁மேற்பரப்பு	-10.6379
குமார	-10.6379
ினைப்	-10.638
▁மைதான	-10.6382
▁பதக்க	-10.6382
குளோரோ	-10.6383
▁விமானம்	-10.6385
▁தொகுப்புக்	-10.6387
▁இருந்ததாக	-10.6389
வருகிறது	-10.6391
▁முடித்தார்	-10.6393
▁ஆழ்	-10.6393
▁பண்புகள்	-10.6398
▁ஊசி	-10.64
▁வசிக்கும்	-10.6405
ts	-10.641
▁வலுவ	-10.6411
tra	-10.6411
▁நிறுவனமான	-10.6412
காரம்	-10.6413
ank	-10.6413
▁ஜோசப்	-10.6415
ஸ்ரீ	-10.6417
▁குட்டி	-10.6417
▁ராதா	-10.6421
▁மேற்கே	-10.6424
▁தொடங்கின	-10.6424
▁காலமாக	-10.6424
▁தம்மை	-10.6424
▁அலுமினியம்	-10.6425
▁சென்றது	-10.6429
லுடன்	-10.6429
▁சாகுபடி	-10.6429
▁போரிட்ட	-10.643
கிருத	-10.643
▁தரவுத்தள	-10.643
▁தொல்காப்பிய	-10.6436
▁56	-10.6439
▁85	-10.6439
சனை	-10.644
▁உருவாக்கியது	-10.6447
▁புராணம்	-10.6448
▁சான்றுகள்	-10.6451
னொ	-10.6451
▁முறையாகும்	-10.6458
▁சமிக்ஞை	-10.6459
▁மால்	-10.6462
▁காட்டிய	-10.6467
▁கவனிக்க	-10.6469
▁குழந்தைகளுக்கு	-10.647
▁சண்முக	-10.6474
▁லண்டன்	-10.6474
முறையில்	-10.6475
ஜிய	-10.6476
▁II	-10.6481
▁ஜோடி	-10.6481
லானது	-10.6487
க்காய்	-10.6489
▁பிந்தைய	-10.649
▁கண்டுபிடிப்ப	-10.6492
▁நிபுணர்	-10.6494
▁சமமான	-10.6495
▁சீனாவில்	-10.6498
▁படத்தை	-10.6501
▁பாட்டி	-10.6504
▁சேவைகளை	-10.6505
சட்டமன்றத்	-10.6508
▁இராமநாதபுரம்	-10.6509
▁கொரிய	-10.6514
▁பிரகாச	-10.6514
▁வருவது	-10.6516
▁மரியாதை	-10.6517
▁மோதல்	-10.6519
Mar	-10.6519
▁மலேசியாவில்	-10.652
▁பாலூட்டி	-10.652
▁இப்படத்தை	-10.652
▁பங்காற்ற	-10.6522
தமிழ்நாடு	-10.6526
▁ஏறி	-10.6533
▁இக்கோயில	-10.6535
▁சூறாவளி	-10.6535
▁பிரித்தானியர்	-10.6538
▁நட்பு	-10.654
pp	-10.6541
▁நோக்கில்	-10.6542
புத்திர	-10.6545
▁இக்கோயிலின்	-10.6547
▁அங்கீகார	-10.655
▁சமஸ்கிருத	-10.655
▁தோற்றுவித்த	-10.655
சமய	-10.6551
▁இவ்வூரின்	-10.6551
▁மாதங்களில்	-10.6551
▁நடுத்தர	-10.6553
▁விலக	-10.6554
▁பேரூராட்சி	-10.6557
▁Al	-10.6563
▁போதி	-10.6563
▁சிதைவு	-10.6564
▁அடங்க	-10.6566
▁அமைவிடம்	-10.6568
▁போதிய	-10.6572
▁விடை	-10.6573
▁ஆட்டம்	-10.6579
ியலாளர்	-10.658
▁ஆகஸ்டு	-10.6581
▁வானிலை	-10.6583
ari	-10.6584
▁பிள்ளையார்	-10.6588
▁முயற்சிகள்	-10.6589
▁நடைபெற்று	-10.6591
▁ஏதும்	-10.6592
▁பெறப்படும்	-10.6592
▁53	-10.6592
▁நாட	-10.6596
▁இயல்பான	-10.6596
▁அதற்கான	-10.6596
▁கையெழுத்த	-10.6598
▁பங்களிப்ப	-10.6598
▁நிலைகளில்	-10.6599
▁திகழ	-10.6599
ாற்றல்	-10.6601
▁சப்த	-10.661
▁கணேசன்	-10.661
▁ஒன்றுக்கு	-10.6612
▁முனைய	-10.6614
▁54	-10.6615
▁அங்குள்ள	-10.6617
▁மெய்யியல்	-10.6619
க்கட்டி	-10.6621
▁நியூசிலாந்து	-10.6621
யிட்	-10.6622
▁விதிமுறை	-10.6622
▁தங்களின்	-10.6622
▁செட்டி	-10.6622
▁வலய	-10.6625
▁உட்கொள்ள	-10.6632
▁புள்ளிகள்	-10.6636
▁வியா	-10.6636
▁தங்கிய	-10.6636
▁புரு	-10.6637
டியன்	-10.6638
▁பாண்டியர்	-10.6646
▁அளித்து	-10.665
▁பெறுகின்றன	-10.665
▁சந்த	-10.6652
ோருக்கு	-10.6655
▁காவிய	-10.6658
ong	-10.6659
▁அமீ	-10.6664
▁பறக்கும்	-10.6665
▁வேறுபட	-10.6668
▁டெல்	-10.6673
▁ஐதராபாத்	-10.6673
▁முற்பட்ட	-10.6673
▁தலைமையிட	-10.6676
ப்படுகிற	-10.6677
▁Mo	-10.6682
▁சல	-10.6684
▁பணத்தை	-10.6687
▁பெற்றன	-10.6693
▁கழ	-10.6695
னிங்	-10.6696
▁சந்தையில்	-10.6697
▁நபி	-10.6697
▁செயற்பட	-10.6699
பருவ	-10.67
ேஸ்வரி	-10.6707
கோவில	-10.6708
▁மகிழ	-10.6711
▁துர்	-10.6714
▁அமினோ	-10.672
▁பைரவர்	-10.672
▁தாமரை	-10.672
ver	-10.6722
▁போத	-10.6723
▁பற்று	-10.6723
▁கண்டுபிடித்தார்	-10.6728
▁இயக்கத்தை	-10.6729
▁குறைய	-10.6731
pa	-10.6739
ிழை	-10.6741
▁வருடங்களுக்கு	-10.6745
பிறகு	-10.6746
▁இடத்தைப்	-10.6749
▁உற்சவ	-10.6751
க்கென	-10.676
▁சிர	-10.6762
கார்பன	-10.6762
▁மணம்	-10.6763
ies	-10.6763
▁62	-10.6764
▁முன்னிலையில்	-10.6765
▁தோராயமாக	-10.6766
▁விஞ்ஞானி	-10.6769
▁அடித்து	-10.6776
▁பின்புற	-10.678
▁பகுதிகளாக	-10.6781
▁அரிதாக	-10.6789
▁நிலத்தில்	-10.679
யுடனும்	-10.6796
▁பயின்று	-10.6799
▁நேரத்தை	-10.6808
▁மன்னர்கள்	-10.6812
▁தடுத்து	-10.6812
விலேயே	-10.6815
▁பாச	-10.6818
▁காண்ட	-10.682
ond	-10.6824
▁போன்றே	-10.6827
ியுள்ளனர்	-10.6827
▁தெளிவான	-10.6827
களாவர்	-10.683
▁வாழ்நாள்	-10.683
▁தொங்க	-10.6832
▁Ar	-10.6833
▁மல்ல	-10.6833
மற்றும்	-10.6833
கவுண்ட	-10.6837
மெய்	-10.684
▁இடங்களுக்கு	-10.684
▁வரவேற்ப	-10.6842
▁நிபந்தனை	-10.6844
▁வளைகுடா	-10.6844
▁கால்சியம்	-10.6846
▁1941	-10.6847
பத்திர	-10.6848
▁கோரி	-10.6848
▁அரசுக்கு	-10.685
▁வெளிவர	-10.6854
▁தனித்துவமான	-10.6857
▁தமிழீழ	-10.686
▁சுட்டிக்காட்ட	-10.686
▁கூறப்பட்ட	-10.6861
தாரர்	-10.6863
▁இங்கிலாந்தின்	-10.6864
▁மருத்துவமனையில்	-10.6864
▁முன்னால்	-10.6867
▁வோல்	-10.6867
யென	-10.687
▁ஜப்பான்	-10.6872
▁நீண்டகால	-10.6874
▁பாலா	-10.6874
▁ஆகையால்	-10.6876
▁படுக்கை	-10.6876
▁பெருநகர	-10.6877
▁எகிப்திய	-10.6879
திகார	-10.6881
▁பசி	-10.6881
▁மாறுபட	-10.6883
மூட்ட	-10.6884
▁சிந்தி	-10.6885
▁பாடியுள்ளார்	-10.6889
IV	-10.6892
▁கருதப்படுகிறார்	-10.6895
▁படையெடுப்பு	-10.6899
நெல்	-10.6904
▁இறைச்சி	-10.6905
▁அண்மை	-10.6906
வார்ட்	-10.6907
▁மாலி	-10.6907
ore	-10.6908
▁செயலாளராக	-10.6909
ப்பாளர்	-10.6914
▁இரும	-10.6915
▁கோவில	-10.6916
யாறு	-10.6917
▁இரவில்	-10.6922
▁அரசியலில்	-10.6925
▁பெருங்கடல்	-10.6926
▁ஆட்சிக்கு	-10.6931
▁தழுவி	-10.6933
▁இயல்ப	-10.6934
▁பாண்ட	-10.6936
▁அற்ற	-10.6938
▁எவ்வளவு	-10.6939
▁இப்படத்தில்	-10.694
▁எளிமையான	-10.694
▁துல்லியமாக	-10.694
▁1934	-10.6942
▁புரிய	-10.6944
▁திட்டத்தில்	-10.6946
▁ஏற்படுத்தியது	-10.6946
▁ஷே	-10.6946
▁இடங்களிலும்	-10.6949
▁கூறியுள்ளார்	-10.695
▁கூடியது	-10.695
▁செறிவு	-10.6951
▁அணிந்த	-10.6952
▁இந்தோ	-10.6954
▁நகரமாகும்	-10.6955
▁கடலோர	-10.6955
▁சீனிவாச	-10.6955
▁சினிமா	-10.6955
▁பிரிந்த	-10.6959
▁விண்கல	-10.6962
யாலும்	-10.6962
▁தெரியாத	-10.6967
▁சந்தித்து	-10.6968
ous	-10.6969
▁படையெடுத்த	-10.6972
ern	-10.6981
▁எகிப்து	-10.6984
▁இம்மாவட்டத்தில்	-10.6984
▁பாரத	-10.6985
▁ஆயிரக்கணக்கான	-10.6987
▁ஃபே	-10.6989
▁மந்திரி	-10.6989
கற்	-10.6989
மெண்ட்	-10.699
▁67	-10.6993
▁காஷ்மீர்	-10.6994
▁இறக்கை	-10.6996
▁இலவச	-10.6998
ராயர்	-10.7
▁ஆத்திரேலியா	-10.7001
▁படிப்பறிவு	-10.7003
வேலி	-10.7004
▁கள்ள	-10.7006
வேலு	-10.7007
▁உணர்வ	-10.7007
▁கப்பல்கள்	-10.7011
▁லட்சம்	-10.7015
▁குறிப்பிடும்	-10.7016
▁சரணாலய	-10.7019
புரோ	-10.7021
▁வேதியியல	-10.7021
▁சட்டசபை	-10.7024
▁மேற்கொண்டு	-10.7031
▁பட்டமும்	-10.7032
▁எல்லையில்	-10.7033
▁வன்னி	-10.7034
▁நியமித்த	-10.7037
▁கூட்டுறவு	-10.7038
SO	-10.704
▁சிதைவ	-10.704
▁ஆஞ்சநேயர்	-10.7041
▁சாப்பிட	-10.7045
▁முறைகளை	-10.7049
றுப்பு	-10.7049
▁பிரிவுகள்	-10.705
▁இயக்கத்தின்	-10.705
ain	-10.7056
▁படிநிலை	-10.7056
▁கமல	-10.7058
▁கூறுகின்றன	-10.7061
▁பக்தர்கள்	-10.7064
▁சுதந்திரம்	-10.7066
▁பத்தாண்டு	-10.7067
▁முல்லை	-10.7068
ச்சாலை	-10.7069
▁1938	-10.707
▁விரிவாக	-10.7073
நைட்ர	-10.7073
▁ஏற்படலாம்	-10.7075
▁மதி	-10.7078
▁வலையமைப்பு	-10.7078
▁வாழ்வில்	-10.7079
▁விருத	-10.7082
▁இத்திரு	-10.7083
ani	-10.7083
ராயன்	-10.7087
▁நகர்த்த	-10.7094
▁ஏனென்றால்	-10.7099
▁முனி	-10.7104
▁கோட	-10.7104
▁வடக்க	-10.7105
▁வரம்பு	-10.7106
▁அதைத்	-10.7106
▁ஏற்பட்டு	-10.7111
og	-10.7111
▁யுத்த	-10.7115
வாய்ந்த	-10.7115
த்தின்படி	-10.7115
▁நிலநடுக்க	-10.7115
▁விதத்தில்	-10.7119
▁கூறுவர்	-10.712
▁ஏல	-10.712
▁பூனை	-10.7121
▁முதுகு	-10.7121
யளித்த	-10.7124
▁தொடர்பில்	-10.7127
▁இப்பறவை	-10.7131
க்கொடி	-10.7134
ிற்	-10.7138
ிறக்க	-10.7143
▁எல	-10.7144
▁மாணவர்களுக்கு	-10.7147
வியலாளர்	-10.7148
▁குறுக்கு	-10.7149
சிற்றிதழ்	-10.7151
ங்களி	-10.7155
▁திருப்பி	-10.7155
வாழ்வு	-10.7156
வாகவும்	-10.7169
▁திறக்க	-10.7169
▁ராயல்	-10.7172
ட்டிற்கு	-10.7174
▁st	-10.7174
ஃபெ	-10.718
▁எருசலேம	-10.718
▁படப்பிடிப்பு	-10.7181
▁கருவ	-10.7181
▁நிறுவனங்களின்	-10.7182
▁கிரிக்கெட்	-10.7183
விளக்க	-10.7184
▁பேரின	-10.7185
▁வழு	-10.7185
பரா	-10.719
▁நிலைத்த	-10.7194
▁இடத்தையும்	-10.7194
▁இழந்து	-10.7196
▁முள்ள	-10.7197
▁உறவினர்	-10.7198
▁கதையை	-10.7199
தீர்	-10.7201
▁மணல்	-10.7205
▁வாட்	-10.7205
▁விடுமுறை	-10.7213
▁ஆரம்பித்தார்	-10.7214
▁ஆதரவாக	-10.7215
▁1943	-10.7216
மக்கள்	-10.7217
▁மூடப்பட்ட	-10.7217
▁ஈடுபட்டார்	-10.7222
▁குளிர	-10.7225
▁தூக்கி	-10.7225
▁எனப்படுவது	-10.7226
ப்பதை	-10.7226
ப்பதிவு	-10.7227
▁செய்துள்ளார்	-10.7227
▁மில்லி	-10.7228
ke	-10.7228
த்துக்காக	-10.723
int	-10.7233
னீசிய	-10.7234
▁இயற்கையாக	-10.7236
▁விட்டார்	-10.7237
▁வடிவங்கள்	-10.7239
▁பரவி	-10.724
▁வாய்ப்பாட்ட	-10.7243
▁நிறுவனத்தால்	-10.7244
▁ஏவுகணை	-10.7245
▁காய்கறி	-10.7245
▁அத்தகைய	-10.7245
▁இடம்பெற	-10.7246
▁தலைநகரமாக	-10.725
▁கங்கா	-10.7252
ீஸ்வர	-10.7255
▁கூற்று	-10.7257
டியோ	-10.7258
ரீதியாக	-10.7258
▁திங்கள்	-10.726
▁சாம்ப	-10.726
▁இழைய	-10.7262
ரீதியான	-10.7271
▁முன்னேற	-10.7274
ஜூ	-10.7276
▁விஸ்வநாத	-10.7278
பர்ட்	-10.728
▁குடிமக்கள்	-10.7289
▁நிகர	-10.7289
▁அணுக்கள்	-10.7291
▁போதை	-10.7292
த்தாலும்	-10.7295
▁யோவான்	-10.7299
▁இரகசிய	-10.73
▁சிறுகதைகள்	-10.73
▁கடத்தி	-10.7301
▁நாட்காட்டி	-10.7303
▁கூடி	-10.7307
ிப்பது	-10.7308
▁தேர்ச்சி	-10.731
▁நிச்சய	-10.7311
ப்பேர	-10.7313
▁வெண்கல	-10.7314
▁1935	-10.7315
▁வெறும்	-10.7317
▁வடிவமைக்க	-10.7324
▁மங்க	-10.7326
▁தீபகற்ப	-10.7327
▁துருக்கிய	-10.7328
▁துவங்கி	-10.733
▁உயிரினங்கள்	-10.7331
pi	-10.7332
த்திற்குள்	-10.7332
▁பிரிவினை	-10.7334
▁மேலான	-10.7335
▁பயின்ற	-10.7336
▁ஆரம்பகால	-10.7338
lan	-10.7341
▁திசு	-10.7341
▁சிரம	-10.7344
ரென்	-10.7344
▁போட்டு	-10.7346
-4	-10.7347
யாவார்	-10.7347
▁ரக	-10.7347
▁வணிகர்	-10.7353
▁கொல்லப்பட்டனர்	-10.7355
கோடு	-10.7357
குழல்	-10.7357
▁மின்சாரம்	-10.7358
▁வைக்கப்பட்டது	-10.7358
▁ஆற்றில்	-10.7361
▁1929	-10.7364
▁இப்பிரிவு	-10.7369
▁சித்தர்	-10.7372
▁எவ்வித	-10.7377
▁இயங்குதள	-10.7377
▁பிரச்சார	-10.7377
▁வந்தவர்	-10.7378
▁பிற்கால	-10.7378
▁ஆதிக்கம்	-10.7378
▁மோகன்	-10.7384
▁வாழ்வு	-10.7384
நிகழ்	-10.7385
▁மெகா	-10.7387
▁சம்பா	-10.7387
▁அடக்கம்	-10.7391
▁பல்லவ	-10.7403
▁பிரை	-10.7403
▁தரும	-10.7405
ஜென்	-10.7408
▁துவார	-10.7409
mon	-10.7409
▁தொலைநோக்கி	-10.7411
▁org	-10.7413
▁அறிவியலாளர்	-10.7414
▁புறநகர்	-10.7415
▁பரவலான	-10.7416
OH	-10.742
▁புரிந்தார்	-10.7425
▁திட்டமிடப்பட்ட	-10.7427
நெட்	-10.7429
ருள	-10.743
▁இக்கல்லூரி	-10.7437
▁பாத்திரத்தில்	-10.7437
▁தேர்தல்களில்	-10.7438
ear	-10.7442
றீ	-10.7445
▁ரஷ்ய	-10.7446
சொற்	-10.7447
▁Na	-10.7448
ca	-10.7449
ாக்சி	-10.7452
▁ஃபார்	-10.7453
▁வெல்	-10.7456
▁பாரிய	-10.7456
so	-10.7456
ாண்மை	-10.7458
io	-10.7458
▁77	-10.7462
▁ஏற்பாட்ட	-10.7464
▁மாநாட்டில்	-10.7466
▁இயக்குநராக	-10.7469
▁ஜப்பானிய	-10.747
யற்	-10.7471
▁மலாய்	-10.7473
▁காப்பக	-10.7475
▁எழ	-10.7476
▁தீவிரமாக	-10.7478
▁பிரான்சின்	-10.7478
▁புலமை	-10.7481
▁வெளியாகி	-10.7483
▁ஒட்டு	-10.7483
▁கவர்ந்த	-10.7484
▁பேசப்படுகிறது	-10.7485
ிலிருந்தே	-10.7489
▁ஐயர்	-10.7489
▁சரண	-10.7492
▁அதிகப்படியான	-10.7493
▁சூடான	-10.7494
▁கலக்க	-10.7495
▁ஒருவரான	-10.7498
ிறேன்	-10.75
▁ஆயர்	-10.75
ப்படாமல்	-10.7501
ருள்	-10.7504
▁58	-10.7505
▁கணிசமான	-10.751
▁வாலி	-10.751
▁குறைந்தபட்ச	-10.7512
▁எதிர்த்த	-10.7514
தென	-10.7516
களின்படி	-10.7517
▁மாணிக்க	-10.7517
▁அசுர	-10.7518
▁நியாய	-10.752
▁இந்நிறுவனம்	-10.7521
▁உருளை	-10.7521
IS	-10.7525
▁சுவா	-10.7528
▁இன்ப	-10.753
▁எடுத்துக்கொண்ட	-10.7531
▁சிற்பங்கள்	-10.7531
▁பொறுப்பேற்ற	-10.7532
▁ஏற்படுத்திய	-10.7534
min	-10.7535
நாய்	-10.7539
▁ஆண்களுக்கு	-10.7539
sa	-10.7541
▁கோயில	-10.7543
▁இயற்பெயர்	-10.7544
▁பலவீன	-10.7544
▁சிறுநீரக	-10.7545
▁கைப்பற்றிய	-10.7548
யிலே	-10.7548
▁கிராமங்கள்	-10.7551
ப்படுவதற்கு	-10.7553
லெட்	-10.7553
▁காப்பு	-10.7556
▁மறுமலர்ச்சி	-10.7561
▁ஆதரித்த	-10.7562
▁சேகரித்த	-10.7563
பெண்	-10.7567
வெட்டி	-10.7569
ோரின்	-10.7572
▁வாசிக்க	-10.7572
ப்பதில்	-10.7574
▁பியூ	-10.7576
▁தெற்க	-10.7577
நாட்டின்	-10.7578
▁கண்காட்சி	-10.7579
▁நிற்கும்	-10.7581
▁ஆகியோருடன்	-10.7582
▁விளங்கும்	-10.7584
▁முடிவடைந்த	-10.7586
▁தூது	-10.7599
பாணி	-10.76
▁நினைவக	-10.7601
▁கருதப்பட்டது	-10.7602
லகு	-10.7602
▁கிறிஸ்துவ	-10.7603
▁தாண்டவ	-10.7607
▁நடனம்	-10.7607
▁கூரை	-10.7608
▁இருந்தே	-10.7609
▁உரிமையாளர்	-10.7611
▁நிறுவனங்களில்	-10.7611
▁விடுவிக்க	-10.7612
ாததால்	-10.7613
▁கொடுமை	-10.7615
▁செய்திகளை	-10.7616
▁பிணைப்ப	-10.7616
▁வளைவு	-10.7617
▁இரயில்வே	-10.7621
▁அணிந்து	-10.7625
▁மார்க்க	-10.7628
▁50%	-10.763
▁சமன்பாட்ட	-10.7631
▁தேக்க	-10.7632
▁நீலகிரி	-10.7633
▁வெர்	-10.7634
amp	-10.7638
ம்பட்டு	-10.764
▁குழுவை	-10.7644
▁ஏதாவது	-10.7646
▁ஷோ	-10.7654
னாய்	-10.7655
▁தோன்றினார்	-10.7657
▁கார்ல்	-10.7657
அதாவது	-10.7658
பகுதியில்	-10.7663
▁திரைப்படமான	-10.7664
▁120	-10.7664
▁மீன்பிடி	-10.7667
▁மகனான	-10.7667
▁தூக்க	-10.7672
செய்து	-10.7672
வாக்கம்	-10.7674
ருத்தி	-10.7675
▁முரண்	-10.7678
▁படைப்புகள்	-10.7679
▁கொலம்பியா	-10.768
▁உறுப்பினர	-10.768
▁வெளிச்ச	-10.7684
யிலிருந்த	-10.7691
▁ஊற்ற	-10.7692
_2	-10.7693
▁தொழு	-10.7694
▁இங்கிருந்து	-10.7697
▁செறிவ	-10.7698
800	-10.7698
▁மேய்	-10.77
▁நகரத்தை	-10.7702
ப்பிரிவு	-10.7707
▁அடைந்தார்	-10.7709
▁அற்புத	-10.7714
▁அலுவல்	-10.7714
▁அவ்வப்போது	-10.7714
▁மதிப்பீட்டின்	-10.7715
▁is	-10.7716
▁சூல	-10.7721
தொடர்பு	-10.7722
▁பரத	-10.7724
ick	-10.7732
▁கருதப்படுகின்றன	-10.7735
▁கலவர	-10.7736
▁தேர்வ	-10.774
வசிக்கின்றார்கள்	-10.7748
▁சிறி	-10.7749
▁சத்து	-10.7749
▁கூறியது	-10.775
▁எல்லோர	-10.7752
▁250	-10.7752
bi	-10.7752
குறியீட்ட	-10.7753
▁செய்யுள்	-10.7757
தொழில	-10.776
▁இறைவி	-10.7761
▁பெற்றோர	-10.7762
▁விருதினை	-10.7763
மொன்ற	-10.7765
▁சிக்கல	-10.7765
▁பெல்ஜிய	-10.7766
▁போகும்	-10.7768
வழக்க	-10.7768
▁தயாரிக்கும்	-10.7769
▁நமக்கு	-10.7769
▁மொத்தமாக	-10.7773
பாலி	-10.7782
▁போராளி	-10.7784
▁அதிலிருந்து	-10.7785
▁அழைப்பு	-10.779
▁முக்கோணத்தின்	-10.7791
und	-10.7792
▁பின்னால்	-10.7797
கோடி	-10.7798
▁அப்பகுதி	-10.7799
த்தின்போது	-10.7799
▁வழிநடத்த	-10.78
ூடாக	-10.7801
▁அப்பொழுது	-10.7801
▁செயல்பாடுகள்	-10.7803
▁புற்றுநோய	-10.7804
▁போதனை	-10.7805
▁எடுத்துக்காட்ட	-10.7807
▁காசு	-10.7809
▁ஓவியம்	-10.7809
▁இணையாக	-10.7811
▁தாங்கள்	-10.7816
▁தங்களுக்கு	-10.7816
▁விக்டோரியா	-10.7817
▁சாளுக்கிய	-10.7817
▁வைகுண்ட	-10.7817
▁துண்ட	-10.7822
▁வளாகத்தில்	-10.7828
▁கொம்பு	-10.7828
▁கணிதத்தில்	-10.7828
▁இருந்துள்ளார்	-10.783
கேட்	-10.7835
▁ஆறாவது	-10.7835
▁1931	-10.7838
▁கதிர்வீச்சு	-10.784
▁சுமை	-10.784
வாசக	-10.7841
▁மறைந்து	-10.7844
▁விண்ணப்ப	-10.7845
▁கவனத்தை	-10.785
▁வைகாசி	-10.7852
▁சமச்சீர	-10.7853
▁வாங்கிய	-10.7856
▁பிரான்ஸ்	-10.7858
▁உலகளவில்	-10.7859
ிருப்பதை	-10.7865
குழந்தை	-10.7867
▁ஆட்டோ	-10.7871
▁அறிவுரை	-10.7871
▁பிரேசில்	-10.7871
▁அரியலூர்	-10.7871
▁வயதான	-10.7874
▁ஆக்சி	-10.7876
▁நிரல	-10.7878
மண்டப	-10.7881
▁குற்றவாளி	-10.7887
van	-10.7887
▁அகராதி	-10.7887
▁குடியேறிய	-10.789
▁இசையமைப்பாளர்	-10.7893
▁அனைவர	-10.7894
▁95	-10.7896
aj	-10.79
▁ஜன	-10.7901
▁தெளிவு	-10.7902
▁ரஷ்யா	-10.7903
con	-10.7903
▁ஆண்களும்	-10.7903
▁பாட்டு	-10.7909
ture	-10.791
▁பாகு	-10.791
▁சிதம்பரம்	-10.7912
▁இயங்குகிறது	-10.7912
▁வேறுபாட்ட	-10.7914
▁ஆண்டிலிருந்து	-10.7914
யுற்ற	-10.7916
▁விவரித்த	-10.7918
ராவ்	-10.7919
கொள்கின்றனர்	-10.7923
▁பகா	-10.7924
▁மலைத்தொடர்	-10.7928
▁ஆட்டத்தில்	-10.7938
▁தெரியும்	-10.7939
▁டைம்ஸ்	-10.7941
▁ஒளிப்பதி	-10.7941
▁மட்டத்தில்	-10.7941
▁என்பதோடு	-10.7942
▁விழுந்த	-10.7943
ich	-10.7944
▁சுல்தான	-10.7945
▁எண்ணிக்கையை	-10.7953
▁pro	-10.7954
சீர்	-10.7958
▁ஏற்றி	-10.7961
▁வெளிப்பாடு	-10.7964
▁நாட்காட்டியில்	-10.7966
குவா	-10.7967
ிலிருக்கும்	-10.797
▁கண்டது	-10.7971
▁அறிவுறுத்த	-10.7976
குளோர	-10.7978
ty	-10.7979
▁வேற	-10.7984
gi	-10.7987
ஜே	-10.7987
▁முதலியன	-10.7988
▁வளி	-10.7989
▁மீன்கள்	-10.799
▁அழகான	-10.799
▁மேளகர்த்தா	-10.7992
▁ரிச்சர்ட்	-10.7992
▁நெருப்ப	-10.7997
▁நாடுகளை	-10.7997
▁ஆகம	-10.7998
▁வகித்தார்	-10.7999
▁முடியாமல்	-10.7999
▁இணைக்கிறது	-10.8001
▁ஆழமான	-10.8004
▁அபிவிருத்தி	-10.8009
மகா	-10.8019
▁வெண்மை	-10.8021
▁விளையாடும்	-10.8024
▁மரணம்	-10.8026
▁சுற்றுப்பயண	-10.8027
▁கறுப்பு	-10.8028
▁சிரி	-10.8028
▁இவா்	-10.803
az	-10.8031
றுத்த	-10.8033
▁கதிர	-10.8033
▁பற்ற	-10.8036
ரெய்	-10.8042
▁கோயிலுக்கு	-10.8044
▁காற்பந்து	-10.8045
▁மொழிபெயர்க்க	-10.8046
▁கர்ப்ப	-10.8046
▁அநேக	-10.8047
▁மின்காந்த	-10.8049
லுக்கான	-10.8056
ue	-10.8057
▁இந்தியாவை	-10.8057
பேட்	-10.8062
▁தீவின்	-10.8062
▁சீதை	-10.8068
கதை	-10.807
gen	-10.807
▁இவ்வமைப்ப	-10.8071
போத	-10.8072
▁முயல்	-10.8075
▁விரும்பிய	-10.808
களில	-10.808
▁பிரான்சிசு	-10.808
▁பிரிவுகளாக	-10.8081
▁உற்பத்தியில்	-10.8082
▁உணர்ந்து	-10.8084
▁கணபதி	-10.8087
▁இலக்குகளை	-10.8088
▁பொற்	-10.8091
▁நந்த	-10.8094
▁வழக்கறிஞர்	-10.8098
▁தெற்காசிய	-10.8098
▁செயற்	-10.8099
▁தலைவரான	-10.8103
▁அமர்த்த	-10.8107
▁ஊதிய	-10.8107
தாகவே	-10.811
▁திருமலை	-10.8112
▁சென்றனர்	-10.8112
யிலை	-10.8118
▁மாறிலி	-10.8118
▁மூடிய	-10.8119
▁நடக்கிறது	-10.812
▁திரும்பினார்	-10.8122
யடைய	-10.8135
▁கிராமப்புற	-10.8141
▁சிறுநீர்	-10.8144
▁ஆராய்ச்சியாளர்	-10.8146
▁நடராஜ	-10.8148
▁An	-10.8148
▁பொழுதுபோக்கு	-10.8152
வந்தார்	-10.8153
பட்டது	-10.8156
சேகர	-10.8162
▁கழித்த	-10.8162
ப்பாய்	-10.8163
▁தலைப்ப	-10.8166
▁வெளிவரும்	-10.8167
▁குஞ்சு	-10.8167
வராய	-10.8169
▁சனிக்கிழமை	-10.817
▁பக்த	-10.8172
▁பஞ்சா	-10.8173
நூல	-10.8175
உலக	-10.8177
▁பாரா	-10.8177
▁பொருள்களை	-10.8179
▁கொள்கையை	-10.818
▁வளர்ச்சியை	-10.8184
▁துவங்கியது	-10.8187
▁அகவையில்	-10.8188
பிளா	-10.8189
▁(17	-10.8189
the	-10.819
பாண்டிய	-10.8192
▁ஆழ்ந்த	-10.8192
▁சமாதி	-10.8193
வேறு	-10.8201
▁00	-10.8206
▁சேகரிக்க	-10.8206
▁முற்கால	-10.8206
சவ்வ	-10.8209
▁அழைக்கின்றனர்	-10.8209
▁நெஞ்ச	-10.8212
செட்	-10.8213
றிதல்	-10.8215
▁அனுப்பப்பட்ட	-10.8217
▁கண்டறியப்பட்டது	-10.8218
குழாய்	-10.8218
றிஞர	-10.8222
▁வல்லுநர்	-10.8223
▁அறநிலைய	-10.8223
▁மலையாளம்	-10.8223
▁திகழ்கிறது	-10.8224
ாச்சாரி	-10.8224
▁மேம்பாடு	-10.8224
▁பிரான்சிஸ்	-10.8224
▁பெயரும்	-10.8225
ree	-10.8226
▁அப்போ	-10.8229
சேவை	-10.823
த்தொகுதி	-10.8232
▁கட்சியில்	-10.8232
▁வெற்றிபெற்ற	-10.8234
பொரு	-10.8234
▁பேரில்	-10.8236
▁உண்டாகும்	-10.8237
▁அல்லாமல்	-10.8238
▁புனைவு	-10.8239
▁சொற்பொழிவ	-10.8242
▁ஜம்மு	-10.8242
த்திறன	-10.8243
கூறு	-10.8245
▁மிகுதி	-10.8246
▁ஈரப்பத	-10.8246
▁காரணிகள்	-10.825
▁நீக்கி	-10.8255
▁வாக்குகள்	-10.8257
▁எச்சரிக்கை	-10.826
▁பட்டியலிட	-10.826
▁அழிவு	-10.8261
▁ஹார்ட்	-10.8261
குறிச்சி	-10.8268
▁கரைசல்	-10.827
யிற்	-10.8273
▁தற்காலிக	-10.8274
▁கிடைப்பத	-10.8275
▁இராமாயண	-10.8278
ராய்டு	-10.828
▁கண்டறி	-10.8282
▁போனது	-10.8283
▁சிட்டி	-10.8284
▁பாளைய	-10.8285
▁இடைமுக	-10.8287
▁அளிக்கிறது	-10.8287
▁இலைகள்	-10.8288
▁நூலாக	-10.8288
நீதி	-10.8289
▁கவச	-10.829
▁அழைக்கப்படுகிறா	-10.8293
▁சொல்லும்	-10.8293
▁அவனுக்கு	-10.8293
▁மிதமான	-10.8295
குடும்ப	-10.8296
▁அதன்படி	-10.8297
விட்டனர்	-10.8297
▁ஏமாற்ற	-10.8299
▁அலைவரிசை	-10.8299
கணித	-10.8299
▁அதுவே	-10.83
▁துரை	-10.83
▁மாதங்களுக்கு	-10.8301
னேட்டு	-10.8301
▁முந்திய	-10.8302
க்கல்லூரி	-10.8303
▁அமல	-10.8303
ja	-10.8303
▁சான்றிதழ்	-10.8303
▁நான்க	-10.8305
▁மயக்க	-10.831
▁செல்சியசு	-10.8314
▁மில்	-10.8316
▁ஆத்திரேலிய	-10.8316
▁பொறுத்தவரை	-10.8317
ust	-10.8319
▁இக்குழு	-10.8323
▁கொள்கைகளை	-10.8325
▁அரசை	-10.8326
கடல்	-10.8328
ava	-10.8328
▁உண்ணும்	-10.833
▁இக்காலத்தில்	-10.833
▁உள்நாட்டுப்	-10.8331
க்காட்சி	-10.8331
ஜ்ஜ	-10.8333
▁தாமஸ்	-10.8333
குழி	-10.834
▁அவருடன்	-10.834
▁பயன்படுத்துவது	-10.8343
▁வளர்ச்சியடைந்த	-10.8343
▁குடும்பத்தின்	-10.8344
▁கூத்த	-10.8348
▁விளைவ	-10.8349
▁சொல்லை	-10.835
▁பெண்மணி	-10.835
▁நினைக்க	-10.835
▁மையமாகக்	-10.8356
▁வடிவத்தை	-10.8358
▁நடிகர	-10.8358
▁பன்றி	-10.8358
▁சுருங்க	-10.8363
▁சுவிட்சர்லாந்த	-10.8369
▁மூலிகை	-10.8369
▁மைக்ரோ	-10.8369
ில்லாத	-10.8369
▁சிவா	-10.837
▁பெயரிட	-10.837
▁இவ்வூரில்	-10.8371
▁வெற்றிட	-10.8371
▁என்பவன்	-10.8371
▁அக்கா	-10.8376
▁சேர்ப்ப	-10.8377
▁நண்பர	-10.8377
ந்ந	-10.8378
ில்லாமல்	-10.8379
▁மயில	-10.8381
ிருக்கின்றது	-10.8381
ென்ற	-10.8384
▁பாய்ம	-10.8384
▁மறைமாவட்ட	-10.8387
மடைய	-10.839
▁முன்வைத்த	-10.8391
ிறோம்	-10.8392
▁தனித்து	-10.8394
▁பயன்படுத்தினார்	-10.8397
ith	-10.8397
▁அடுத்தடுத்த	-10.8398
வீச்ச	-10.8401
▁600	-10.8402
▁தங்களுடைய	-10.8406
▁துர்க்கை	-10.8408
▁இசைக்கருவி	-10.8411
▁தினமும்	-10.8414
க்கொள்வத	-10.8414
▁தாய்லாந்து	-10.8415
▁இயற்கையான	-10.8417
▁செலுத்தும்	-10.8418
மாதிரி	-10.8422
St	-10.8423
▁விரிவுபடுத்த	-10.8424
▁பூர்த்தி	-10.8426
▁கொண்டாட்ட	-10.8426
▁1932	-10.8428
▁வருமானம்	-10.843
▁கிண்ண	-10.8431
▁ஒதுக்கப்பட்ட	-10.8432
ாண்டில்	-10.8432
▁ஒன்	-10.8435
▁பெண்ணை	-10.8435
▁நகரமாக	-10.8435
▁துரித	-10.8436
▁பற்றாக்குறை	-10.8442
ft	-10.8448
▁கிருஷ்ணா	-10.8451
▁தொடங்குகிறது	-10.8451
ett	-10.8453
▁ஐதராக்சைடு	-10.8455
வோர்	-10.8458
▁வினையூக்கி	-10.8461
▁பரிமாற	-10.8463
▁நுண்ணுயிரி	-10.8464
▁57	-10.8465
▁கோபி	-10.8466
▁மூடி	-10.8471
புளோரைட	-10.8475
புராண	-10.8485
In	-10.8487
▁பொருளில்	-10.8489
ப்பொருளாக	-10.849
tor	-10.849
▁காவல	-10.8495
uth	-10.8497
▁ஆண்டுக்கான	-10.8503
▁சத்த	-10.8506
q	-10.8509
▁பாதிக்கப்பட	-10.8514
▁ஜனாதிபதி	-10.8516
▁ஏழாம்	-10.8517
▁பரப்பளவைக்	-10.8518
▁காப்பிய	-10.8522
ினதும்	-10.8526
க்கேற்ப	-10.8526
▁இயக்கியுள்ளார்	-10.853
▁பொறுப்பை	-10.8533
▁எபிரேய	-10.8535
▁உலகக்கோப்பை	-10.8535
வதற்காக	-10.8536
▁வேகத்தில்	-10.8538
▁நிகழ்ந்தது	-10.8549
▁தலைவன	-10.8551
▁அதிகாரபூர்வ	-10.8553
▁நெட்வொர்க்	-10.8554
▁அன்றாட	-10.8554
▁கைப்பற்றினார்	-10.8554
▁இசுரேல	-10.8556
க்கிட	-10.856
▁ஹொ	-10.856
க்கொண்டிருந்த	-10.8562
ுபவை	-10.8562
கின்றார்	-10.8567
▁தலைமையக	-10.8569
▁நிரலாக்க	-10.8574
▁குரல	-10.8574
▁கோதுமை	-10.8574
ிக்கொள்ள	-10.8579
▁காளை	-10.8579
மெத்தில்	-10.858
நாட்டில்	-10.8588
▁குஜராத்	-10.8591
▁பரிணாம	-10.8591
▁வேற்றுமை	-10.8591
நாராயண	-10.8591
ரத்தினம்	-10.8591
IC	-10.8593
▁மலேசியாவின்	-10.8597
▁செயல்திறன	-10.8602
▁செலவில்	-10.8602
▁தனிமங்கள்	-10.8606
▁தொகுப்பில்	-10.8607
▁ஈராக்	-10.8608
▁பழங்குடியினர	-10.8608
▁கிழமை	-10.8609
▁ஆக்கிரமிப்ப	-10.861
▁சமீபத்திய	-10.861
▁தங்கியிருந்த	-10.8612
▁விளங்குகின்றது	-10.8612
ஸன்	-10.8613
▁குறைவ	-10.8613
▁திரையரங்க	-10.8615
▁மீதி	-10.8617
▁பாம்ப	-10.8618
கோபால	-10.8618
தெய்வ	-10.8619
முதல	-10.8622
செல்ல	-10.8624
▁81	-10.8625
▁சந்திப்ப	-10.8627
▁கூறப்படும்	-10.8627
▁வட்டி	-10.8628
▁விவகார	-10.8629
ஸெ	-10.863
▁ஆதாரமாக	-10.8631
▁கூறுகள்	-10.8633
▁கனவு	-10.8633
▁பாங்க	-10.8635
▁சதி	-10.8639
ருமேனிய	-10.8641
▁Sh	-10.8644
▁வருடங்கள்	-10.8649
▁மலையின்	-10.8651
ook	-10.8655
▁நிகழ்கிறது	-10.8655
▁சகோதரர்கள்	-10.8656
▁ஒவ்வொன்றும்	-10.8656
▁விசாக	-10.8661
▁தமக்கு	-10.8663
▁சபையின்	-10.8665
வெர்	-10.8666
▁மைக்ரோசாப்ட்	-10.8666
▁கனக	-10.867
▁இறுக்க	-10.8671
▁பள்ளத்தாக்க	-10.8672
Per	-10.8672
▁குறைவாகவே	-10.8673
▁எண்ணை	-10.8678
▁பொறியாளர்	-10.868
▁உயிரிழந்த	-10.8686
▁சொத்துக்கள	-10.8688
▁பிணைய	-10.8689
▁வழிபாட்ட	-10.8691
▁88	-10.8693
Si	-10.8693
▁நிர்ணய	-10.8699
▁1900	-10.87
▁குழந்தைகளின்	-10.8701
▁வானியலாளர்	-10.8701
▁மகாராட்டிர	-10.8705
ance	-10.8705
▁பாக்டீரியா	-10.8707
▁துருக்கி	-10.8709
▁நுகர்வோர்	-10.871
▁சொற்களை	-10.8711
iss	-10.8712
▁திட்டங்களை	-10.8712
▁பக்தர்	-10.8713
▁கட்டுரைகளை	-10.8714
▁பெயரிடப்பட்டது	-10.8714
▁தயார்	-10.8714
னியன்	-10.8716
▁சித்தி	-10.8717
eri	-10.8718
மலர்	-10.8722
▁இதழ்களில்	-10.8722
▁up	-10.8722
▁கம்யூனிஸ்ட்	-10.8723
▁ஸ்டுடியோ	-10.8723
▁இந்நூலில்	-10.8724
▁நுழைவாயில	-10.8725
▁கூலி	-10.8725
▁ஊதா	-10.8728
▁(0	-10.8729
▁ரோஜா	-10.8734
▁சிவராத்திரி	-10.8742
▁பிரீமியர்	-10.8742
▁வைட்டமின்	-10.8742
▁விரிகுடா	-10.8742
▁இயற்கணித	-10.8742
▁கிரெ	-10.8745
▁வாகை	-10.8748
▁நாடி	-10.8752
▁பதிப்பகம்	-10.8754
▁கிரீன்	-10.8755
▁குறிப்பிட்டார்	-10.8757
▁சான்ற	-10.8757
▁நிலப்பரப்பு	-10.8757
▁நொடி	-10.8758
▁பொதுநலவாய	-10.8761
▁கடன	-10.8766
▁மாண்ட	-10.8768
ிருப்பு	-10.8771
▁நிகழ்ச்சிகளை	-10.8773
▁தொழிலாளர்கள்	-10.8774
▁வகுக்க	-10.8777
ga	-10.8777
▁தாவரவியல்	-10.8778
▁கொள்கின்றன	-10.8782
ப்படல	-10.8783
▁ஆதாரங்கள்	-10.8786
▁கௌதம	-10.8788
▁ஜப்பான	-10.8789
ாலான	-10.8791
▁De	-10.8791
▁விண்	-10.8792
களிலுள்ள	-10.8794
த்திணை	-10.8794
பிள	-10.8795
▁சிறிதளவு	-10.8795
▁அரபி	-10.8797
▁வாழ்கின்றன	-10.8798
▁நெகிழி	-10.8799
சல்பைடு	-10.8802
▁61	-10.8804
▁விபத்த	-10.8804
ருடைய	-10.8805
▁நெதர்லாந்து	-10.8808
▁பண்டார	-10.881
John	-10.8818
▁தெரிவிக்கின்றன	-10.8821
▁எடுக்கும்	-10.8822
▁முயற்சியில்	-10.8822
▁வீசி	-10.8825
▁செய்கின்றனர்	-10.8828
▁இரத்தின	-10.8828
▁வருகின்ற	-10.8832
▁நடுவ	-10.8833
▁ஸ்டெ	-10.8834
▁ஆற்காடு	-10.8837
▁பாண்டவர்	-10.8838
▁அச்சிட	-10.8839
▁வாரிசு	-10.884
▁குழாய	-10.884
பூரில்	-10.8843
▁பிரிவினர	-10.8845
▁வடமேற்க	-10.8847
▁ஆரம்பித்து	-10.8849
▁கோவிலின்	-10.8851
▁நடத்தப்பட்டது	-10.8853
▁செய்முறை	-10.8854
▁அரக்கோணம்	-10.8856
▁கோலாலம்பூர	-10.8856
▁முதுகெலும்ப	-10.8856
▁ஆகியவற்றுக்கு	-10.8856
▁சித்தாந்த	-10.8857
▁புதுப்பிக்க	-10.8858
▁டெர்	-10.8858
எஃப்	-10.8858
▁அமைப்பாகும்	-10.886
▁74	-10.8862
ச்சொல்ல	-10.8862
▁பிரசுர	-10.8864
▁69	-10.8865
▁உறுதியாக	-10.8865
▁தொல்காப்பியம்	-10.8866
▁இருக்கும்போது	-10.8866
▁அம்பு	-10.8867
▁குழல	-10.8868
▁கருத்துக்கள்	-10.8869
பொழி	-10.8874
கொள்வதற்கு	-10.8875
▁ஊட்டச்சத்து	-10.8876
▁உருவாக்கப்படும்	-10.8877
▁வழிகாட்டி	-10.888
ிணைப்பு	-10.8883
▁காலத்துக்கு	-10.8883
▁அம்ப	-10.8885
▁நேர்ந்த	-10.8887
ஹே	-10.8889
▁பிரித்தெடுக்க	-10.8889
னிலை	-10.889
▁கிறித்துவ	-10.8892
▁திருமால்	-10.8894
ோடி	-10.8896
ஆக்சைட	-10.8898
▁அமைந்திருந்தது	-10.8902
▁கூறுவது	-10.8903
▁தோன்றுகிறது	-10.8906
▁எழுத்தாளர	-10.8909
ச்செயல	-10.8909
▁அருட்	-10.8911
▁விரல்	-10.8912
▁திருத்தல	-10.8914
▁ஆலோசகர	-10.8914
▁எழுதப்பட்டது	-10.8914
▁புத்தகங்கள்	-10.8915
▁உப்ப	-10.8917
ஷே	-10.8918
▁விநாயக	-10.8923
▁அடங்குவர்	-10.8935
▁சங்கீத	-10.8935
▁யாரும்	-10.8936
▁கிடைக்கவில்லை	-10.8943
▁புகார	-10.8953
த்திற்க	-10.8953
▁இன்றியமையாத	-10.8953
▁வெற்றிகரமான	-10.8953
▁தினசரி	-10.8954
▁மகேந்திர	-10.8957
த்தோற்ற	-10.8961
ஸோ	-10.8963
▁பகிர	-10.8965
▁பல்லவர்	-10.8965
▁அனந்த	-10.8968
▁மெக்சிக்கோ	-10.8972
▁வடிவங்களில்	-10.8973
AS	-10.8974
▁யூனியன்	-10.8974
▁ஞாயிற	-10.8977
▁1928	-10.8977
▁ஆலி	-10.8983
ice	-10.8984
▁கர்நாடகா	-10.8985
▁வீச்சு	-10.8992
▁வாக்காளர்	-10.8992
▁குன்று	-10.8997
▁விருதுநகர்	-10.8997
▁போன்றோர்	-10.8998
▁சக்கரத்தின்	-10.8999
▁என்பவற்றை	-10.9001
▁சேர்மங்கள	-10.9002
▁ஆகியோரால்	-10.9004
தமிழ	-10.9007
▁சாட்சி	-10.9008
▁பதக்கம்	-10.9008
▁எலிசபெத்	-10.9011
▁ஊக்குவிக்க	-10.9011
▁பதவியேற்ற	-10.9014
க்ளோ	-10.9019
▁இதழின்	-10.902
▁வெடிப்பு	-10.9024
▁இடம்பெறும்	-10.9025
nal	-10.9028
▁என்னுமிடத்தில்	-10.9031
▁இலண்டன்	-10.9031
▁வான்படை	-10.9032
▁நேர்மறை	-10.9032
▁தீர்ப்பு	-10.9037
நாட்	-10.9038
▁வகிக்க	-10.9041
▁எதிர்மின்	-10.9042
▁மட்டுமன்றி	-10.905
▁மெய்யெண்	-10.9051
▁ஆபிரிக்க	-10.9053
▁US	-10.9065
▁அட்லாண்டிக்	-10.907
▁நிரூபிக்க	-10.907
▁நுண்ணுயிர்	-10.907
▁பீரங்கி	-10.907
▁வேண்டுகோள	-10.907
▁இறகு	-10.907
▁வயதிலேயே	-10.9072
▁காரணங்கள	-10.9072
ப்பொருட்கள்	-10.9074
▁இட்ட	-10.9075
▁வைக்கும்	-10.9076
▁இனப்பெருக்கம்	-10.9077
oll	-10.9078
▁தேவைப்படுகிறது	-10.9081
▁முடிவுகளை	-10.9085
▁எசுப்பானியா	-10.9087
▁பணியாற்றியவர்	-10.9094
700	-10.9102
▁முழுதும்	-10.9104
ood	-10.9107
▁பிரிவின்	-10.9107
▁உறுதியான	-10.9109
▁பூஞ்சை	-10.911
▁மௌ	-10.911
▁படைத்துறை	-10.9111
வளைய	-10.9111
ட்ரீ	-10.9113
▁1924	-10.9114
▁மனிதனின்	-10.9115
▁வயல்	-10.9116
▁1919	-10.912
▁கொண்டுவரப்பட்ட	-10.912
▁ஆண்டிற்கு	-10.9127
▁நடத்தும்	-10.9128
▁சிலப்பதிகார	-10.9129
▁நடுக்க	-10.9131
ெறி	-10.9132
▁தொழிலை	-10.9132
▁குறிப்பிடுகின்ற	-10.9135
▁மும்பையில்	-10.9135
▁பின்வாங்க	-10.9137
les	-10.9139
▁வயதுக்கு	-10.9141
▁இடம்பெற்றது	-10.9141
கொழு	-10.9141
▁கனடிய	-10.9142
▁ஒருவரின்	-10.9143
▁சிகர	-10.9144
▁வேளை	-10.9144
▁நுழைவு	-10.9148
▁விளக்குகிறது	-10.915
▁முதலாளி	-10.9152
▁ஆகியவற்றுடன்	-10.9157
▁எண்ணற்ற	-10.9157
▁ஆதரவை	-10.9159
ெடுக்கப்பட்ட	-10.9161
▁73	-10.9162
▁வாசித்த	-10.9163
▁பாதுகாக்கப்பட்ட	-10.9165
▁நற்	-10.9166
வொரு	-10.9169
▁அதற்க	-10.9169
▁1933	-10.9172
bo	-10.9175
தூதர்	-10.9176
▁நாடா	-10.9187
மேடு	-10.9188
▁கேரளத்தின்	-10.9188
▁மாறுபாடு	-10.919
ச்செல்ல	-10.9191
▁அம்சங்களை	-10.9193
▁நகர்வு	-10.9197
▁சமயத்தை	-10.9198
▁இணைந்தார்	-10.9198
ung	-10.92
▁பிராட்	-10.92
▁சம்ப	-10.9201
▁வித்யா	-10.9207
▁இறங்கி	-10.9208
▁பெங்களூர்	-10.9208
▁அதன்பின்	-10.9209
▁வேண்டுமென	-10.921
▁தழுவ	-10.921
ப்பெண்	-10.9214
மதிப்பு	-10.9217
▁71	-10.9219
▁கட்டமைப்பை	-10.9222
▁அரண்	-10.9224
▁அறியப்பட்டது	-10.9226
▁ஜொ	-10.9228
▁என்னை	-10.9228
▁அருகாமையில்	-10.9228
▁வினைபுரிந்து	-10.9228
▁கணக்கெடுப்பு	-10.9228
▁வேளைகளில்	-10.9229
▁அறியலாம்	-10.923
ுதலுக்கு	-10.9233
▁நிர்ணயிக்க	-10.9234
▁தொகுத்த	-10.924
▁காரிய	-10.9241
Man	-10.9241
மட்டத்திலிருந்து	-10.9243
ங்களாகவும்	-10.9247
▁மாபெரும்	-10.9248
▁இப்பாடல	-10.9254
▁சந்தா	-10.9256
▁கொண்டவையாக	-10.9258
லத்தீன	-10.9261
▁பராமரிப்பு	-10.9265
டெய்	-10.9266
▁செயல்பாட்டு	-10.9266
▁நன்கொடை	-10.9268
▁முழுவதிலும்	-10.9268
▁சற்றே	-10.9268
ப்படும்போது	-10.9271
▁கொங்க	-10.9271
▁செய்வதற்காக	-10.9273
▁இந்நிலையில்	-10.9273
▁உரிமையை	-10.9273
▁விஷயங்கள	-10.9274
ஹீ	-10.9274
▁பாடல்களில்	-10.9277
▁இறைவனை	-10.9278
மண்ட்	-10.9278
▁தொடர்ந்தார்	-10.9284
▁பிரகடன	-10.9288
▁அதிர்ச்சி	-10.9288
chi	-10.9289
த்தொடங்க	-10.9289
▁நிகழ்வுகளை	-10.9292
நியூ	-10.9296
ிவிடும்	-10.9297
▁கழுத்து	-10.9298
▁சுருள்	-10.9302
▁பர்மா	-10.9304
▁திமுக	-10.9307
▁மட்டுமல்லாமல்	-10.9308
▁வான்காணக	-10.9308
▁அதனுடைய	-10.931
▁கன்ன	-10.9312
hu	-10.9312
▁அம்சங்கள்	-10.9314
▁1925	-10.9315
▁எண்ணிம	-10.9315
▁ஜோதி	-10.9318
▁அக்கறை	-10.9329
▁தொடரை	-10.9329
▁வெளிப்படையாக	-10.9329
▁புகையிலை	-10.9329
▁அண்ணாமலை	-10.9332
▁அவசியமாக	-10.9332
▁விளைபொருள	-10.9332
▁நடைமுறைப்படுத்த	-10.9333
▁தங்கை	-10.9336
▁பதவியை	-10.9336
▁Pro	-10.9341
▁வழிவகுத்தது	-10.9345
த்தன்மையை	-10.9348
சுப்ரமணிய	-10.9349
▁செயற்பட்ட	-10.9349
▁இந்நிகழ்வ	-10.9349
▁கவர்ச்சி	-10.9349
▁பரிமாண	-10.935
▁வணக்க	-10.935
▁மக்களாட்சி	-10.9351
ock	-10.9352
▁முனிவர	-10.9352
பின்னர்	-10.9354
▁நேர்மின்	-10.9356
▁மூவர	-10.9357
▁ஹால்	-10.9359
▁அனைத்த	-10.9361
சமுத்திரம்	-10.9364
▁பாடினார்	-10.9365
▁நுகர்வ	-10.9366
ாயினும்	-10.9367
▁பத்தாம்	-10.937
▁புல்ல	-10.938
▁தமிழ்நாட்டு	-10.9382
▁கொள்வது	-10.9383
▁அளித்தது	-10.9385
▁தந்தையார்	-10.9386
▁உருது	-10.9386
▁கண்காணிக்க	-10.9389
▁இளவரசி	-10.9389
ஷ்டி	-10.939
யதுக்குட்பட்டோர்	-10.939
த்திலே	-10.9392
thi	-10.9396
pur	-10.9403
அரச	-10.9403
ுமானால்	-10.9403
▁இப்படத்தின்	-10.941
▁பெங்களூரு	-10.941
▁எக்சு	-10.9414
▁விருத்த	-10.9415
▁பயணிக்க	-10.9417
▁முதலியார்	-10.9419
▁இருக்காது	-10.9423
▁காலப்போக்கில்	-10.943
மில்லாத	-10.943
▁முதலமைச்சர்	-10.9432
▁நிறமாலை	-10.9435
app	-10.9438
▁புதுமை	-10.9445
▁இருப்பார்	-10.9445
▁பேதுரு	-10.945
▁விலங்குகளின்	-10.9451
பாடல்	-10.9454
NO	-10.9456
▁பொங்கல்	-10.9456
▁ஆத்ம	-10.9459
ங	-10.9466
ிருக்கின்றனர்	-10.9468
▁கண்டறிந்தார்	-10.9469
▁வேறொரு	-10.9471
▁நாட்டிய	-10.9473
▁முனையில்	-10.9476
▁செல்வாக்க	-10.9478
பெரிய	-10.9481
▁ஹாரி	-10.9481
▁மற்றொன்று	-10.9482
▁அந்நாட்ட	-10.9484
▁மூன்றில்	-10.9488
▁பவள	-10.9488
▁வசிப்ப	-10.949
▁ஒடிசா	-10.9491
▁செயல்பாடுகளை	-10.9491
▁தகடு	-10.9491
▁இயல்பாக	-10.9492
▁மீட்க	-10.9495
▁தொட்ட	-10.9496
▁நடைபெறுகின்றன	-10.9498
▁பூக்கள்	-10.9498
▁இம்மலை	-10.9498
▁சேவையை	-10.9499
▁கலந்துகொண்ட	-10.95
த்தாள்	-10.9501
▁வெடித்த	-10.9503
▁நடத்தப்படும்	-10.9504
கீழ	-10.9507
▁மேற்பரப்பில்	-10.9509
▁காற்றில்	-10.951
▁இருபதாம	-10.9512
க்கொண்டே	-10.9514
▁ஆசியாவில்	-10.9514
▁தள்ளி	-10.9514
▁இதுவாகும்	-10.9515
▁1926	-10.9516
▁குடியரசின்	-10.9517
▁கைதி	-10.9519
▁சம்பந்தப்பட்ட	-10.952
▁அமிலங்கள்	-10.952
▁அளிக்கப்பட்ட	-10.9525
aya	-10.9526
▁அறிவை	-10.9529
களாவன	-10.953
யிலோ	-10.953
▁மலைத்தொடர	-10.9531
akka	-10.9531
ology	-10.9532
பேறு	-10.9533
▁ஆப்பிள்	-10.9535
▁கம்பனி	-10.9537
▁சவால	-10.9538
▁சக்தியை	-10.9538
▁மிருக	-10.9541
ாயுத	-10.9547
கார்ட்	-10.9547
▁பூக்கும்	-10.9548
▁செய்தவர்	-10.9549
▁நிமிடங்கள்	-10.955
▁மட்டுமின்றி	-10.9552
▁மகாத்மா	-10.9553
▁நிலத்தை	-10.9554
▁ஒன்றே	-10.9554
▁கருதுகோள	-10.9555
▁புளோரைடு	-10.9555
▁அதேவேளை	-10.9556
▁வரையப்பட்ட	-10.9558
che	-10.9558
▁அரசாங்கத்தின்	-10.9559
▁திசையன்	-10.9563
▁கண்டார்	-10.9567
▁கூட்டி	-10.9568
ack	-10.9569
▁பாசன	-10.957
▁ஜெர்மனியின்	-10.9572
▁அங்கமாக	-10.9572
▁இப்பொழுது	-10.9576
▁தயாராக	-10.9576
▁1921	-10.9578
▁சிப்பாய்	-10.9583
▁கேட்ப	-10.9587
▁இருத்தல்	-10.9591
▁இளவரசர்	-10.9592
▁வாயில	-10.9592
▁கபில	-10.9592
▁பூமியில்	-10.9595
▁நாடகங்கள்	-10.9599
▁யுனி	-10.9599
▁இணக்க	-10.9599
▁உருவாக்குகின்றன	-10.9601
▁திருப்பதி	-10.9603
▁நூற்றாண்டுகளில்	-10.9609
ச்சர	-10.9612
யூட்டி	-10.9612
▁மேட்டு	-10.9612
▁திருகோணமலை	-10.9614
National	-10.9615
▁பிடாரி	-10.9615
▁திபெத்திய	-10.9615
▁லட்ச	-10.9625
▁பட்டியலிடப்பட்ட	-10.9625
▁76	-10.9626
▁வெளிநாடு	-10.9626
▁பரவியது	-10.9628
▁இந்நிலை	-10.9631
▁ஓவர்	-10.9632
▁குடும்பங்கள்	-10.9633
▁செருமானிய	-10.9635
▁அலெக்சாண்டர	-10.9635
hal	-10.9635
▁ஓவியர்	-10.9636
▁ஒப்பிடுகையில்	-10.9636
▁மென்மையான	-10.9637
sis	-10.9642
▁சாதனையை	-10.9644
▁போற்றி	-10.9644
▁கிருமி	-10.965
▁துல்லியமான	-10.965
▁கல்வெட்ட	-10.9654
▁துவங்கிய	-10.9655
▁கண்காணிப்ப	-10.9657
▁கட்சியைச்	-10.9659
ப்போட்டி	-10.9662
▁ஸ்பெயின	-10.9662
ham	-10.9664
▁குடியரச	-10.9666
▁சொல்லுக்கு	-10.9666
▁மராத்திய	-10.9667
▁மூலக்கூற	-10.967
▁அரசியலமைப்ப	-10.9672
▁தொழிலில்	-10.9673
மனித	-10.9674
▁பயன்படுத்தினர்	-10.9676
▁அதிரடி	-10.9677
▁புத்தகத்தில்	-10.968
▁நாட்டைச்	-10.9682
▁பூச்சிய	-10.9683
நல	-10.9683
300	-10.9684
என	-10.969
▁சத்திர	-10.9692
▁ஹோட்டல்	-10.9694
▁பின்னரே	-10.9694
▁அழித்த	-10.9695
▁நார்வே	-10.9696
▁சமாதான	-10.9698
▁சாந்தி	-10.9699
▁வகிக்கிறது	-10.97
▁பயன்படுகின்றது	-10.97
▁போராட்டத்தில்	-10.9705
ுணர்ச்சி	-10.9707
▁இன்னமும்	-10.9708
rit	-10.9711
▁இத்தொகுதி	-10.9711
▁ஏஞ்சல	-10.9715
▁தியோ	-10.9716
▁கொண்டதாகும்	-10.9717
▁Li	-10.9723
▁பண்ண	-10.9728
▁நீளமும்	-10.973
▁படங்களை	-10.9738
▁திபெத்	-10.9738
▁இறக்குமதி	-10.974
▁பேரி	-10.974
PA	-10.9743
▁படைப்பிரிவு	-10.9743
▁திருமால	-10.9744
▁இசையை	-10.9746
▁நெருக்கமாக	-10.9746
▁1927-	-10.9747
▁தாக்கிய	-10.9752
▁சிரியா	-10.9753
பிடிக்க	-10.9755
▁தரையில்	-10.9756
▁இதன்படி	-10.9757
▁சொல்லப்படுகிறது	-10.9757
▁டெட்ரா	-10.9757
▁தேவைகளை	-10.9757
▁மூழ்க	-10.9758
▁தாள்	-10.976
▁தகவலை	-10.976
▁உருமாற்ற	-10.9761
▁ஆழ்வார்	-10.9762
▁ஒழுங்குபடுத்த	-10.9767
இதழ்	-10.9768
▁1912	-10.977
▁ஈடுபடுத்த	-10.9772
▁கடற்கரையில்	-10.9774
▁காட்டுகின்றன	-10.978
▁கல்கத்தா	-10.9782
▁குரங்கு	-10.9782
▁செவ்வாய்	-10.9785
▁ரயில்வே	-10.9787
▁கைவிடப்பட்ட	-10.9791
தாவர	-10.9794
▁இச்சொல்	-10.9802
▁கருணாநிதி	-10.9803
▁உருவாவத	-10.9804
▁கணவர்	-10.9806
Di	-10.981
▁நீதிமன்றத்தில்	-10.9811
▁கட்சியை	-10.9813
▁தேய்	-10.9814
ஃபர்	-10.9814
ெண்ண	-10.9814
▁சிதம்பர	-10.9815
▁கிராமத்தின்	-10.9818
▁மேலை	-10.982
▁பெரிதாக	-10.9821
▁இசுலாமியர்	-10.9823
▁குணப்படுத்த	-10.9824
▁சுண்ணாம்பு	-10.9824
▁தேங்காய்	-10.9824
▁பிரபஞ்ச	-10.9824
▁முழுவதுமாக	-10.9824
▁பெறுவதற்கு	-10.9826
ase	-10.9826
ng	-10.9827
▁சமகால	-10.9829
▁கணிப்பு	-10.9831
▁கோயிலை	-10.9836
▁இனக்குழு	-10.9837
▁டவுன்	-10.9837
காட்சி	-10.9839
▁சாம்பியன்	-10.9845
▁மகரந்த	-10.9845
▁மங்கல	-10.9845
▁ரோமானிய	-10.9847
AD	-10.9849
▁தகவல	-10.985
▁1922	-10.985
ாமலும்	-10.9852
பார்க்க	-10.9852
rin	-10.9853
nam	-10.9853
▁கருவிகளை	-10.9854
▁திணை	-10.9854
▁யுக	-10.9855
▁ஸ்டே	-10.9856
▁உரையாடல்	-10.9861
த்தினுள்	-10.9862
▁போட்டியின்	-10.9862
▁வியட்நாம்	-10.9863
ுயிரி	-10.9863
▁தணிக்கை	-10.9866
▁அகன்ற	-10.9871
▁இலக்கியங்கள்	-10.9872
▁மறுத்து	-10.9874
▁செய்கின்ற	-10.9881
▁350	-10.9882
▁பாதுகாப்பான	-10.9883
ஃபே	-10.9883
▁பச்ச	-10.9884
யியலில்	-10.9885
▁தாமிர	-10.9886
குமாரி	-10.9887
▁பொள்ளாச்சி	-10.9888
▁முஸ்லீம்	-10.9888
▁சப்பானிய	-10.9888
▁சிவலிங்க	-10.9889
▁வீட்டிற்கு	-10.9889
▁அடிப்படையான	-10.9889
▁பெறவில்லை	-10.989
▁ஆதரவாளர்	-10.9892
▁வாசகர்	-10.9894
las	-10.9903
▁con	-10.9903
ிதழ	-10.9905
▁Jump	-10.9909
▁பௌ	-10.991
விட்டால்	-10.9911
▁அனைவருக்கும்	-10.9911
▁எங்கும்	-10.9911
▁கெய்	-10.9912
▁அரசியல	-10.9914
▁அன்றி	-10.9914
▁பள்ளிவாசல்	-10.9915
▁காடுகளில்	-10.9915
ost	-10.9916
▁பயிர	-10.9916
▁அன்னா	-10.992
▁ஆட்டக்காரர்	-10.9922
▁முன்வைக்க	-10.9924
▁ஆகியவற்றால்	-10.9927
▁இராணி	-10.9928
▁நிலத்தடி	-10.9931
▁வருகின்றார்	-10.9931
are	-10.9931
▁பாராட்டி	-10.9935
▁பேட்	-10.9936
ப்படுபவர்	-10.9937
▁எப்போது	-10.9939
▁உயர்நிலை	-10.9943
▁கருத்துரு	-10.995
ினூடாக	-10.9951
▁புறா	-10.9952
த்தொழில்	-10.9952
▁மொழிபெயர்த்த	-10.9953
▁நகர்ப்புற	-10.9957
▁தீவுகளில்	-10.9959
உரு	-10.9961
▁அப்படியே	-10.9962
▁திரிபு	-10.9963
HO	-10.9965
▁வசிக்க	-10.9966
▁குழுவினர்	-10.9972
வள்ளி	-10.9972
▁துத்தநாக	-10.9973
▁வணங்கி	-10.9974
▁இக்கோவில்	-10.9976
▁அரேபிய	-10.9976
Mo	-10.998
▁கடினமாக	-10.9984
▁காரணமான	-10.9986
ica	-10.9991
▁வருமாறு	-10.9993
▁ஃப்ள	-10.9995
▁நிறமற்ற	-10.9999
▁ஓலை	-11.0001
▁மேலதிக	-11.0007
▁எழுத்தாளரும்	-11.001
▁காவலர்	-11.0012
▁காலத்திலேயே	-11.0012
▁கோளாறு	-11.0018
▁இருக்கிற	-11.0019
▁அழைத்துச்	-11.0026
▁பரந்து	-11.0028
▁படையெடுப்ப	-11.0028
go	-11.0029
▁ஜீவ	-11.003
▁மேற்படி	-11.0032
▁கூறப்பட்டுள்ளது	-11.0033
▁நேர்த்தி	-11.0035
▁ஊரின்	-11.0035
▁வரம்ப	-11.0037
▁செலுத்திய	-11.0039
▁தொழிற்துறை	-11.0039
▁சீரான	-11.004
▁பண்டித	-11.0041
▁சந்தன	-11.0043
fer	-11.0044
▁ரகசிய	-11.0045
▁கூற்ற	-11.0051
▁முடுக்க	-11.0053
▁நச்சுத்தன்மை	-11.0055
ata	-11.0057
▁வீரராக	-11.0058
▁விளிம்பு	-11.0059
▁செங்கிஸ்	-11.006
▁எட்டாம்	-11.0061
▁புரிந்துகொள்ள	-11.0062
▁வரதராஜப்பெருமாள	-11.0064
▁அதேபோல	-11.0066
▁தந்திர	-11.0067
▁வேறுபடுத்தி	-11.0071
▁1910	-11.0073
கருதப்படுகின்றது	-11.0075
ாழ்வார	-11.008
▁மிகச்சிறந்த	-11.0082
ிருக்கவில்லை	-11.0082
▁புல்வெளி	-11.0083
▁அகதி	-11.0084
▁வடிகட்ட	-11.0089
▁ஊரை	-11.009
▁திசுக்கள	-11.0093
▁குமர	-11.0098
▁ரீதியில்	-11.0103
▁வார்டு	-11.0103
▁சாம்பியன்ஷிப்	-11.0104
▁அதிகாரத்தை	-11.0104
▁காட்சிப்படுத்த	-11.0106
▁இணையதள	-11.0106
▁1923	-11.0108
▁நினைத்து	-11.0109
▁ஆகியோரை	-11.011
▁விஜயநகர	-11.0113
▁மதிப்பெண்	-11.0113
▁மனதில்	-11.0114
இலங்கை	-11.0114
▁பகுதியிலும்	-11.0114
▁கொள்கிறார்	-11.0115
▁காரணங்கள்	-11.0116
▁செயலாற்ற	-11.0121
பயிற்சி	-11.0122
▁ஆலன்	-11.0123
▁ஊர்தி	-11.0124
▁நூலாசிரியர	-11.0125
ட்டூர்	-11.0126
tal	-11.0126
▁ராஜஸ்தான்	-11.0128
▁கோடைக்கால	-11.0128
▁விவேக	-11.0132
▁அவ்விட	-11.0133
▁குழந்தைகளை	-11.0135
▁கலிங்க	-11.0139
▁இந்நோய்	-11.0145
▁ஆளும்	-11.0147
▁வேப்ப	-11.0149
▁புழு	-11.0151
▁முன்னோடியாக	-11.0155
▁அழித்து	-11.0163
▁கல்லீரல்	-11.0166
▁தீவிரவாத	-11.0168
▁பங்கேற்ப	-11.0168
▁சனத்தொகை	-11.0168
▁இதுபோன்ற	-11.0169
▁எதிர்மின்னி	-11.0169
▁சமையல்	-11.017
▁அழைக்கப்பட்டார்	-11.0171
▁பைசா	-11.0173
▁அதிகரிக்கிறது	-11.0175
▁வளர்த்து	-11.0176
▁தமிழ்நாட்ட	-11.0182
ல்லர்	-11.0185
▁இங்கிலாந்த	-11.0185
▁நலன்	-11.0186
▁கரடி	-11.0186
▁பெருமான	-11.019
▁டபிள்யூ	-11.019
▁குடியுரிமை	-11.019
▁வளர்சிதை	-11.019
▁இவர்களது	-11.0191
▁சதுப்பு	-11.0191
▁லூயி	-11.0194
▁நடுவே	-11.0198
▁ஆளுனர	-11.0198
ச்சேர்ம	-11.0198
▁இந்தியாவிற்கு	-11.02
▁பழங்கள்	-11.0202
▁நோயை	-11.0209
▁வாட்டர்	-11.0212
▁எக்ஸ்பிரஸ்	-11.0212
▁வறண்ட	-11.0214
▁வெறுப்ப	-11.0216
▁துறந்த	-11.0218
▁உதவியாக	-11.0226
▁சான்றாக	-11.0227
▁விளங்கி	-11.0228
▁நிகழ்ச்சியை	-11.0231
கடவுள	-11.0232
▁மாற்றியமைக்க	-11.0234
▁கல்வியறிவான	-11.0234
▁கவிஞர	-11.0236
ுவதுடன்	-11.0237
▁துடுப்ப	-11.0238
சயன	-11.024
▁மணிநேர	-11.0243
▁கூழ்	-11.0244
▁மண்டலத்தின்	-11.0247
▁கலக	-11.0248
▁நீடிக்க	-11.0251
▁இயற்பியல	-11.0251
▁தாக்குதலை	-11.0252
▁பயில	-11.0252
▁அவரிடம்	-11.0253
▁செயல்படுகின்றன	-11.0254
▁குற்றச்சாட்டு	-11.0256
▁மசூதி	-11.0256
▁வீட்டை	-11.0257
▁அடர்ந்த	-11.0259
▁உவமை	-11.026
▁செய்தியை	-11.0261
▁1914	-11.0265
▁தீவிரமான	-11.0268
▁வாயுக்கள	-11.027
▁இறக்கும்	-11.0272
▁வேட்பாளர்	-11.0275
▁நிகழ்த்திய	-11.0275
Am	-11.0278
▁கையொப்ப	-11.0279
▁அட்டவணையில்	-11.0279
தன்மை	-11.028
▁கூற்றுப்படி	-11.0281
we	-11.0283
▁விரட்ட	-11.0283
▁வழங்குகின்றன	-11.029
▁போரை	-11.029
▁வில்லி	-11.029
யாக்கி	-11.0294
▁பழுத	-11.0296
▁கலாசார	-11.0301
▁நாயுடு	-11.0301
war	-11.0303
▁விளையாட்டரங்க	-11.0304
மருந்து	-11.0304
▁இணையான	-11.031
▁சமீபத்தில்	-11.0314
▁நிறுவனத்திற்கு	-11.0317
▁பூரண	-11.0319
▁தொடர்பை	-11.032
▁க்ள	-11.0321
▁துல்லிய	-11.0328
▁அதிகாரியாக	-11.0329
BC	-11.033
▁குறிக்கோள்	-11.0331
▁1911	-11.0332
▁ஒவ்வொன்ற	-11.0334
தேசிய	-11.034
▁குழுவினர	-11.0342
▁சஞ்சிகை	-11.0345
▁நம்பிய	-11.0346
▁அரியானா	-11.0347
▁அமர்ந்து	-11.0348
▁நூலாகும்	-11.0348
▁திருக்குறள்	-11.0351
▁நுண்ணிய	-11.0355
▁இலகு	-11.0356
நீக்க	-11.0361
▁பலவகை	-11.0363
கடத்த	-11.0366
▁முசுலிம்	-11.0367
▁மீதமுள்ள	-11.0368
▁உண்ப	-11.0368
▁அம்பல	-11.0369
▁அகத்திய	-11.037
▁மேற்பரப்ப	-11.0381
▁நாளாக	-11.0385
▁நகை	-11.0388
▁உலகிலேயே	-11.0388
▁பாரிஸ்	-11.0389
▁அண்ணன்	-11.039
▁குவிய	-11.0394
▁குறைத்து	-11.0399
▁கண்ணகி	-11.0401
பற்றி	-11.0407
▁கட்டற்ற	-11.0407
யில்லாத	-11.0407
த்தாள	-11.0409
▁அவரால்	-11.0412
▁பாதுகாவல	-11.0412
▁அடையாளப்படுத்த	-11.0412
▁தோன்றின	-11.0413
▁அமிர்த	-11.0413
▁தென்னிந்தியாவில	-11.0422
▁கோடைகால	-11.0425
▁குறிப்பிடலாம்	-11.043
▁சமசுகிருத	-11.0435
▁பஞ்சாயத்து	-11.0435
ராவார்	-11.0436
▁1500	-11.0437
ஜன்னிய	-11.0438
▁நிலைநிறுத்த	-11.0439
▁இதழாகும்	-11.0445
▁மூர்	-11.0448
ure	-11.045
▁ஈழத்து	-11.0451
▁அவரே	-11.0452
▁களிமண்	-11.0452
▁பொருளாகும்	-11.0454
ுவதோடு	-11.0457
▁மலேரியா	-11.0457
▁வாடகை	-11.0457
▁இருப்பதில்லை	-11.046
▁மாவட்டமும்	-11.046
▁போர்த்துக்கேய	-11.0461
▁முதலை	-11.0464
▁வலையமைப்ப	-11.0464
▁மூக்கு	-11.0464
பேரூராட்சி	-11.0469
▁தழுவிய	-11.047
▁கச்சேரி	-11.0471
▁தரவுகளை	-11.0471
apuram	-11.0472
▁பாபிலோன	-11.048
▁நெருங்க	-11.0484
ிறாள்	-11.0485
▁பொருந்தும்	-11.0488
▁ராமசாமி	-11.049
-17	-11.0495
ிருத்தல்	-11.0502
▁விழிப்புணர்வு	-11.0503
▁மண்ணில்	-11.0503
adu	-11.0504
log	-11.0508
▁இனத்தவர்	-11.0508
▁காரணங்களால்	-11.0513
▁தானியங்கி	-11.0515
▁Con	-11.0516
▁பில்லி	-11.0518
▁1927	-11.0522
▁கருத்தியல	-11.0522
▁பிரசாத்	-11.0527
▁பறக்க	-11.0528
▁சோதிட	-11.0528
▁தேவா	-11.0529
▁கொண்டிருந்தன	-11.0531
செலுத்த	-11.0532
▁தீங்கு	-11.0533
▁வல்லுனர்	-11.0544
▁பாராட்டு	-11.0546
▁சார்லஸ்	-11.0549
▁கைப்பற்றியது	-11.0551
▁புயல்	-11.0556
ப்படுகின்றார்	-11.0557
▁முதலீட்டு	-11.0558
தல்ல	-11.0558
▁தெரிவ	-11.0561
▁மண்டபத்தில்	-11.0565
iz	-11.0566
▁அழகி	-11.057
▁மாறுகிறது	-11.0574
▁வியட்நாம	-11.0574
▁இனிப்பு	-11.0576
▁அதிகளவில்	-11.0581
▁வைரஸ்	-11.0585
பொழுத	-11.0586
▁புகுந்த	-11.059
▁அசல்	-11.059
சக்கர	-11.0591
▁மர்ம	-11.0593
▁மலாக்கா	-11.0594
▁ஐதர	-11.0595
▁வேகத்தை	-11.0595
▁வேதாந்த	-11.0596
▁அகழ்வ	-11.0597
▁விரும்பினார்	-11.0602
–19	-11.0611
நீல	-11.0616
▁பொதுவுடமை	-11.0616
▁திரௌபதியம்மன்	-11.0617
▁இக்கோட்டை	-11.0617
▁சுவீடன	-11.0618
▁காட்டினார்	-11.062
▁என்பவருக்கு	-11.0621
▁கதிரவ	-11.0621
▁ஸ்ரீதேவி	-11.0621
▁நியூட்டன	-11.0622
▁அலுவலரால	-11.0628
▁இதன்மூலம்	-11.0628
போலி	-11.0628
▁கருதினார்	-11.0633
▁தொகுக்க	-11.0634
▁உத்தம	-11.0634
▁மங்கோலியர்	-11.0638
▁சாதாரணமாக	-11.0638
▁ஏகாதசி	-11.0639
▁பாக்ஸ்	-11.064
▁பேசப்படும்	-11.064
▁வாழ்வை	-11.064
▁சாத்திர	-11.064
▁ஊழல்	-11.0641
▁புண்	-11.0641
▁ராஜேந்திர	-11.0644
▁இயற்	-11.0644
▁பேட்டி	-11.0645
▁வெகுவாக	-11.0645
▁நவாப்	-11.0646
▁முன்னேறி	-11.0647
▁நகரத்திற்கு	-11.065
கொள்கிறார்	-11.0656
▁கனடாவில்	-11.0656
▁நறுமண	-11.0662
▁இருந்தபோதிலும்	-11.0666
▁உயர்வு	-11.0675
▁நகரியம்	-11.0677
முழு	-11.068
rop	-11.0681
▁தெலுங்க	-11.0682
▁பிடிப்ப	-11.0684
▁இலித்தியம்	-11.0685
▁மிகப்பெரும்	-11.0686
▁பிரிவை	-11.0687
பாட்டில்	-11.0692
port	-11.0694
▁குன்ன	-11.0695
▁இணங்க	-11.0696
▁அதிகரித்தது	-11.0697
▁பிராமண	-11.0699
▁கொடுக்கிறது	-11.0699
▁வரதராஜ	-11.0704
▁வாசனை	-11.0708
▁ஆதலால்	-11.0708
▁கிணறு	-11.0709
▁சுற்றுப்பாதை	-11.0711
ரெட்டி	-11.0713
▁உதவுகின்றன	-11.0716
▁போட்டியாளர்	-11.0716
▁எழுத்துக்களை	-11.0718
▁இத்தொடர	-11.0719
▁தாயார	-11.0723
▁தொண்டு	-11.0723
▁பதப்படுத்த	-11.0727
▁அயர்லாந்து	-11.0728
▁ஓய்வூதிய	-11.0732
▁மகாராஷ்டிரா	-11.0732
▁நிர்வாகி	-11.0739
AN	-11.074
பாட்டின்	-11.0743
▁நகரமும்	-11.075
▁நிக்கல்	-11.0754
▁தட்சிணாமூர்த்தி	-11.0755
ச்சேர்க்கை	-11.0755
▁கணிதவியலாளர்	-11.0756
▁திரைப்படங்களை	-11.0758
▁ஆற்றிய	-11.0758
▁ஏதுவாக	-11.076
▁சுரங்கள்	-11.0761
▁பன்முக	-11.0762
▁பேய்	-11.0764
▁ஆவணி	-11.0764
▁விரிவுரை	-11.0777
▁திரையிட	-11.0778
▁சூரியனை	-11.0788
வயல்	-11.0792
▁கடவு	-11.0794
▁உளவு	-11.0795
▁எய்த	-11.0797
ஃபீ	-11.0798
▁பகல்	-11.08
▁தானுந்து	-11.0801
▁சேமித்து	-11.0802
▁He	-11.0802
▁பனிக்கட்டி	-11.0803
▁லவ்	-11.0808
▁கொல்லப்பட்டார்	-11.0816
▁பிரதமராக	-11.0818
▁வழிகாட்ட	-11.0819
▁ஏற்படுகின்றன	-11.0821
2,000	-11.0822
▁தென்காசி	-11.0825
▁கார்பனேட்டு	-11.0826
▁கீழை	-11.0829
செயல	-11.083
▁இவ்வகையான	-11.0834
தொடர்	-11.0836
ிவிட்டது	-11.0837
▁ஆளுநராக	-11.0839
▁கழுவ	-11.084
ுவதிலும்	-11.084
▁நிலையங்களில்	-11.0841
▁கோட்டையை	-11.0841
வெடி	-11.0842
▁நுழைய	-11.0843
▁விழுந்து	-11.0845
▁அகாடமி	-11.0848
▁பூர்வீக	-11.0848
▁கூறுகளை	-11.085
பிறழ்	-11.0851
▁இத்துறை	-11.0852
▁பேசிய	-11.0854
வெற்றி	-11.0856
செய்தி	-11.0859
▁ஜாவா	-11.086
▁மதத்தை	-11.0861
▁போக்குவரத்த	-11.0863
▁வாய்ப்பை	-11.0865
▁பிரதிபலிக்க	-11.0872
▁மொபைல்	-11.0872
ner	-11.0874
▁விக்கிரம	-11.0877
▁மகாதேவ	-11.0891
▁மிதி	-11.0894
▁குவாண்டம்	-11.0895
▁மலைப்பகுதி	-11.0897
▁அனுப்பினார்	-11.0899
▁தனித்தன்மை	-11.09
▁இக்கட்சி	-11.0901
▁சந்தித்தார்	-11.0904
▁தொடர்ந்தது	-11.0905
▁மரபியல்	-11.0905
▁உதவியது	-11.0907
hen	-11.0908
▁வளைந்த	-11.0908
▁இருக்கின்ற	-11.091
▁பகதூர்	-11.0919
▁சுற்றிலும்	-11.0919
▁எத்தனை	-11.0919
rea	-11.0926
▁சுதேச	-11.0935
▁மூக்க	-11.0939
ுவிட்டது	-11.0939
▁பேரரசை	-11.094
வீரர்	-11.0942
▁களஞ்சிய	-11.0943
▁சிட்னி	-11.0943
▁காரணத்தினால்	-11.0945
▁பாதிக்கும்	-11.095
▁துடிப்ப	-11.0954
புளோரோ	-11.0955
▁அங்கிருந்த	-11.0957
கூட்ட	-11.0957
old	-11.0957
ப்படுவார்	-11.0959
▁பாபு	-11.0961
க்கணிப்ப	-11.0967
▁யூரோ	-11.0969
ங்களோடு	-11.097
▁அயன	-11.0972
▁1917	-11.0973
▁போன்றவற்றின்	-11.0978
▁தளர்ச்சி	-11.099
▁இஸ்லாம்	-11.0991
கொல்ல	-11.0992
▁அப்பால்	-11.0994
▁மொழியியல்	-11.0998
400	-11.0999
600	-11.1005
▁கல்லூரியிலும்	-11.1005
▁சார்பின்	-11.1006
▁இனத்தைச்	-11.1012
▁இழுத்து	-11.1013
▁முதலீட்டாளர்	-11.1015
▁நன்றி	-11.1018
▁பணியாற்றியுள்ளா	-11.1019
▁இயலவில்லை	-11.1019
▁ஒட்டிய	-11.1022
▁தந்தி	-11.1023
▁எரிபொருள	-11.1025
▁முடிவை	-11.1025
▁விசுவநாத	-11.1026
▁வாழ்த்து	-11.103
net	-11.103
cul	-11.1031
▁ஸ்மித்	-11.1033
▁இதிலிருந்து	-11.1034
பட்ச	-11.1034
▁உடையவர்	-11.1035
▁பெறலாம்	-11.1036
ிழந்த	-11.1036
▁மார்பக	-11.1039
ோவிய	-11.104
▁காரணங்களுக்காக	-11.104
▁ஒலிபரப்ப	-11.1041
▁அதனுடன்	-11.1043
ாசிரியராக	-11.1045
▁மார்ட்டின்	-11.1045
▁பால்வெளி	-11.1046
தொலை	-11.1048
val	-11.105
க்குள்ளாக	-11.1055
▁பிரீ	-11.1055
▁இத்தீவு	-11.1057
ound	-11.106
▁நிதியுதவி	-11.1061
▁குடிபெயர்ந்த	-11.1062
▁செயின்ட்	-11.1063
gar	-11.1063
▁வியாழன	-11.1064
▁140	-11.1064
▁உலகெங்கும்	-11.1065
ST	-11.1067
▁அடைக்கப்பட்ட	-11.107
▁ஒப்பிட்டு	-11.1071
▁நுனி	-11.1072
ஞ்சேரி	-11.1074
mal	-11.1077
▁அயல்	-11.1077
▁நாட்டிற்கு	-11.1082
▁செங்குத்து	-11.1086
▁ரேடியோ	-11.1087
ொட்ட	-11.1088
▁அம்பாள்	-11.1093
▁1918	-11.1094
▁எதிர்வினை	-11.1095
▁ஏழாவது	-11.1109
▁திரையுலக	-11.111
▁உபயோகிக்க	-11.111
தூர	-11.1111
▁மன்னார்	-11.1112
▁பதிப்பக	-11.1114
▁1905	-11.1116
வகையான	-11.1116
▁அந்தமான்	-11.1117
▁எதிர்கொள்ள	-11.1119
▁சரித்திர	-11.1122
கொள்கின்ற	-11.1124
▁அமைப்பாக	-11.1124
▁கொல்லி	-11.1125
▁பாலிவுட்	-11.1127
▁கவனிப்ப	-11.1129
ஃபோர்ட்	-11.1131
▁அறிமுகமான	-11.1132
▁சந்திரசேகர	-11.1135
▁பல்வகை	-11.1136
▁சந்தைப்படுத்த	-11.1136
▁சுற்றுப்புற	-11.1137
▁ஊருக்கு	-11.114
▁கொள்கிறது	-11.1141
ame	-11.1142
▁காலத்திலும்	-11.1143
▁ஓய்வ	-11.1145
▁கொச்சி	-11.1148
▁வருந்த	-11.1155
கேசரி	-11.1156
▁ஆப்கானிஸ்தான	-11.1158
ஷிய	-11.1159
▁வெப்பமண்டல	-11.1163
▁இயக்குனராக	-11.1163
என்ற	-11.1164
▁பாய்கிறது	-11.1166
▁விதிக்கப்பட்ட	-11.1169
ave	-11.117
▁சிறுமி	-11.1172
செட்டி	-11.1176
▁விக்கிப்பீடியா	-11.1182
▁மெக்சிகோ	-11.1182
▁கணித்த	-11.1184
▁பாகவத	-11.1187
▁தாத்தா	-11.1194
▁அமுத	-11.1195
▁தனித்தனியாக	-11.12
▁வஞ்சி	-11.1203
▁மல்லி	-11.1205
▁தொட்டு	-11.1205
▁கண்காணிப்பு	-11.1206
▁பேச்சுவார்த்தை	-11.1206
▁டென்மார்க்	-11.1206
ாவிட்டால்	-11.121
▁சாவக	-11.1212
2011	-11.1213
▁புளூ	-11.1216
red	-11.122
ளீ	-11.1226
▁நூற்றுக்கணக்கான	-11.123
▁ஆசிரம	-11.1231
▁நீர்த்தேக்க	-11.1231
ரௌ	-11.1231
விளைவு	-11.1231
▁பெயருடன்	-11.1233
▁இம்முறையில்	-11.1236
▁தோறும்	-11.1238
விடுகிறார்	-11.1239
CC	-11.124
▁ஊர்வல	-11.1241
பாறை	-11.1241
▁கண்டெடுக்க	-11.1242
▁சண்டிக	-11.1243
▁காலப்பகுதி	-11.1248
▁பொறிக்கப்பட்ட	-11.126
▁பிராமணர்	-11.1262
NH	-11.1264
▁கிராண்ட்	-11.1264
▁இலவசமாக	-11.1264
ஃபீல்ட	-11.1266
சோழ	-11.1266
▁இடமாற்ற	-11.1267
▁பலவற்றை	-11.1275
▁முதலாவதாக	-11.1279
▁இலத்திரன்	-11.1279
▁வழிவகுக்க	-11.128
▁அருள்மிகு	-11.128
lic	-11.128
யெல்லாம்	-11.1281
▁தன்னார்வ	-11.1282
▁கிடக்க	-11.1282
▁செய்வதன்	-11.1288
▁புளிய	-11.1289
▁ஆறுமுக	-11.1295
▁உள்ளடக்கி	-11.1301
ந்தீ	-11.1303
▁பண்டிகை	-11.1304
▁காவேரி	-11.1305
▁செட்டியார்	-11.1306
▁இவ்வாலய	-11.1309
▁ரிஷி	-11.1313
▁1916	-11.1314
வியலாளர	-11.132
▁ஒலிபரப்பு	-11.1321
▁இயங்கிய	-11.1324
கட்சி	-11.1326
▁ஜெயலலிதா	-11.1328
▁பாதரச	-11.1331
▁உரையாட	-11.1333
▁விரிந்த	-11.1334
▁திவ்ய	-11.1336
ுகிறேன்	-11.1341
▁கோவிலுக்கு	-11.1342
eng	-11.1345
▁கடலை	-11.1346
▁பெரும்பான்மையாக	-11.1346
ரத்தின	-11.135
▁இசுலாம்	-11.135
▁காந்தாரம்	-11.1353
▁நாட்டார்	-11.1354
ெலும்பு	-11.1355
▁வாழிட	-11.1358
ாவத	-11.1366
▁மேலவை	-11.1371
▁வெளியீட்டு	-11.1374
ெங்கும்	-11.1377
▁அருணாசல	-11.1378
▁உலகக்கிண்ண	-11.1378
▁ஒன்றுக்கொன்று	-11.1378
▁ஜேர்சி	-11.1378
▁கவுன்சில	-11.1379
▁நெல்லை	-11.138
▁உளவியல	-11.138
▁இராகங்களில்	-11.1381
▁தூண்டுதல	-11.1384
▁பிரிவுகளைக்	-11.1384
▁அளவிலும்	-11.1395
▁மல்யுத்த	-11.1402
▁சரஸ்வதி	-11.1402
▁ஜெனரல்	-11.1402
▁ஒய்	-11.1407
▁பாதுகாத்து	-11.1415
▁உறவை	-11.142
Un	-11.1421
ட்மேன்	-11.1422
▁ப்ளூ	-11.1427
▁மனநிலை	-11.1434
▁சிற்றின	-11.1436
▁வைத்திய	-11.1437
▁நீட்சி	-11.1437
▁விளைவை	-11.1437
▁கருணை	-11.1438
▁திருப்பணி	-11.1439
▁ஆசியாவின்	-11.144
▁இப்போர	-11.1443
▁அனுமதிக்கப்பட்ட	-11.1446
ரீனா	-11.1452
▁சிற்றிலக்கிய	-11.1452
▁ஆற்றங்கரை	-11.1452
▁முரண்பாடு	-11.1456
▁கர்ணன	-11.1461
▁நடித்திருந்தார்	-11.1463
▁இப்போட்டி	-11.1466
▁வகைப்பாடு	-11.1469
▁பெயர்பெற்ற	-11.1474
ிழைய	-11.1475
▁கடைப்பிடிக்க	-11.1477
தையடுத்து	-11.1479
▁நிறுவனங்களுக்கு	-11.1481
வொர்	-11.1481
▁தமனி	-11.1482
ley	-11.1482
▁அறிஞர	-11.1483
▁குசராத்	-11.1484
▁மதிக்க	-11.1484
▁மண்டை	-11.1484
களுமே	-11.1486
mer	-11.1489
ருகே	-11.149
மாதேவி	-11.1491
▁தேவதை	-11.1493
▁இம்மர	-11.1494
கொலம்ப	-11.1496
▁மார்பு	-11.1498
▁குடியிருப்ப	-11.1499
▁நெகிழ்	-11.1502
▁வினாடி	-11.1503
▁அனுப்பிய	-11.1503
க்குள்ளான	-11.1508
▁சமஸ்தான	-11.151
▁படைத்தார்	-11.1513
▁குடிமக்கள	-11.1514
புத்தூர்	-11.1517
▁மாறுபடும்	-11.1521
▁தோற்கடிக்க	-11.1527
▁ஓசோன்	-11.1527
▁வீழ்ந்த	-11.1528
▁தோல்வியுற்ற	-11.1528
▁கையெழுத்திட்ட	-11.1528
▁கரண	-11.1533
▁பரப்புரை	-11.1534
களுக்கே	-11.1536
▁வாதிட	-11.1536
▁நெருக்கமான	-11.1541
▁வளரக்கூடிய	-11.1541
▁விசுவாச	-11.1544
கூடிய	-11.1545
▁இரண்டையும்	-11.1546
▁செல்லும்போது	-11.155
▁பாய்ந்து	-11.1551
line	-11.1552
▁அவ்வாறே	-11.1552
▁திருவனந்தபுரம்	-11.1552
▁தொலைத்தொடர்பு	-11.1552
▁மறுபடியும்	-11.1552
▁இராவணன	-11.1553
கொண்டான்	-11.1557
▁பேராசிரிய	-11.1558
ிருக்கிற	-11.1561
▁வல்லமை	-11.1565
த்துடனும்	-11.1565
vers	-11.1566
▁இடம்பெற்றுள்ளன	-11.1567
pro	-11.157
▁கவனித்து	-11.1572
▁டிஜிட்டல்	-11.1577
▁நீதிக்கட்சி	-11.1577
▁மூங்கில்	-11.1578
▁மணந்தார்	-11.1582
▁மூழ்கி	-11.1582
▁ஆர்வலர்	-11.1582
▁ஐசோ	-11.1584
ult	-11.1586
வியலின்	-11.1593
▁தலித்	-11.1594
▁அதிர்வு	-11.16
▁வறட்சி	-11.1603
▁இராகமாகிய	-11.1603
▁அருச்சுனன	-11.1603
▁அவையாவன	-11.1603
▁நுணுக்க	-11.1603
▁கழுகு	-11.1603
▁இறால்	-11.1603
ென்றால்	-11.1606
ated	-11.1607
▁இணையத்தள	-11.1607
▁10,000	-11.1612
▁விவரங்கள்	-11.1617
▁ஈரான்	-11.1618
ID	-11.1619
AM	-11.1622
▁முடிவெடுத்த	-11.1622
▁தரப்பட்டுள்ளன	-11.1626
form	-11.1627
▁விளையாட்டில்	-11.1629
▁நண்பன	-11.1629
▁செதுக்க	-11.1634
▁ஒருங்கிணைக்க	-11.1634
▁கீழுள்ள	-11.1634
▁மேற்கிந்திய	-11.1635
▁என்றழைக்கப்பட்ட	-11.1636
ப்பலகை	-11.1636
▁நாடார்	-11.1642
நூற	-11.1643
ெதிர்	-11.1643
அறிவ	-11.1646
களினதும்	-11.165
▁பொதுவுடைமை	-11.1653
▁வனவிலங்கு	-11.1653
▁ஐம்பது	-11.1654
▁நிவாரண	-11.1654
க்குறிப்பு	-11.1656
▁திணைக்கள	-11.1656
பிரகாச	-11.1656
▁காயமடைந்த	-11.1657
▁திருமுறை	-11.1661
▁பாடலில்	-11.1661
oph	-11.1662
▁கொண்டிருந்தனர்	-11.1663
▁இவ்வூர	-11.1663
▁அதிமுக	-11.1666
▁திறக்கப்பட்டது	-11.1667
ரத்ன	-11.1669
▁விற்ப	-11.1671
▁மாதிரியான	-11.1675
▁ஆக்சிசன	-11.1677
▁பலவகையான	-11.1677
▁பின்தங்கிய	-11.1679
▁மூதாதை	-11.1679
▁முதன்முறையாக	-11.1679
▁ஆரஞ்சு	-11.1681
▁உறங்க	-11.1682
▁1908	-11.1685
▁சிவாலய	-11.1685
▁மக்களிடம்	-11.1687
வரிடம்	-11.1688
▁மாநிலத்திலுள்ள	-11.1692
▁துயர	-11.1692
▁புன்ன	-11.1696
▁எளிமையாக	-11.1696
Ne	-11.1699
International	-11.1704
▁புள்ளிவிவர	-11.1704
▁மூட்டு	-11.1705
▁பாக்கிஸ்தான	-11.1705
▁மதிய	-11.1707
▁சந்தர்ப்ப	-11.1714
▁அடையாளமாக	-11.1719
ாம்பிகை	-11.1719
▁இந்தியாவுக்கு	-11.172
dy	-11.1724
▁இளநிலை	-11.1727
▁குறுக்கே	-11.1727
▁பிலிப்பைன்	-11.173
▁உடற்பயிற்சி	-11.173
எதிர்	-11.1733
ங்களிலேயே	-11.1734
கொண்டிருக்கின்றன	-11.1734
▁நூற்ற	-11.1739
▁அளிக்கப்படும்	-11.1749
▁மலர	-11.1753
▁சொற்றொடர	-11.1756
▁பன்னிரண்டு	-11.1756
▁தாழ்த்தப்பட்ட	-11.1756
▁எருமை	-11.1756
▁செய்வதில்	-11.1757
▁சம்மத	-11.1774
▁அங்குலம்	-11.1774
▁சதுக்க	-11.1775
▁மானிட	-11.1775
முயற்சி	-11.1777
▁பல்லி	-11.1778
சாதன	-11.1778
▁முற்பகுதியில்	-11.1781
▁வற்புறுத்த	-11.1781
▁செயிண்ட்	-11.1781
2008	-11.1782
க்கண்ண	-11.1782
▁திடீர்	-11.1783
▁பவானி	-11.1784
ope	-11.1785
▁நாளன்று	-11.1786
IN	-11.1788
▁மாஸ்கோ	-11.1788
▁1913	-11.179
▁மங்கள	-11.1792
▁கொள	-11.1796
▁மாகாணங்களில்	-11.1797
▁டிகிரி	-11.1801
நூறு	-11.1803
▁அனுராதபுர	-11.1807
▁வானியற்பியல	-11.1807
▁ஐந்தாண்டு	-11.1807
▁புரொ	-11.1809
▁எண்ணிக்கையிலான	-11.1814
▁நஞ்சு	-11.182
SI	-11.1828
▁விலகிய	-11.1829
▁தானாகவே	-11.1833
▁படுகின்றன	-11.1836
ுணர்வ	-11.1837
▁புள்ளியியல்	-11.1842
▁அர்ச்ச	-11.1846
▁ஸ்டேட்	-11.185
▁உருவாக்கினர்	-11.185
க்காரணி	-11.1853
my	-11.1855
▁பட்டப்படிப்பு	-11.1859
▁அகமது	-11.1859
பைரவ	-11.186
▁விரத	-11.1862
▁பிரிவாக	-11.1866
EC	-11.1866
▁நெட்ட	-11.1869
▁நடுவர்	-11.1871
ப்படுபவை	-11.1871
யினுள்	-11.1883
▁அதிசய	-11.1885
▁புலவர	-11.1887
land	-11.1887
Par	-11.1887
▁அந்தோனி	-11.1888
▁நோயாளிகளுக்கு	-11.1889
IT	-11.1889
▁இயக்கவியல்	-11.1898
anth	-11.1903
▁ஆப்பிரிக்காவில்	-11.1905
▁செய்வதை	-11.1907
ச்சூழல	-11.191
▁குஜராத்தி	-11.1912
▁தலைசிறந்த	-11.1913
▁எதிர்பார்ப்ப	-11.1913
பூர்வமான	-11.1921
யோட்ட	-11.1921
ஹைட்ர	-11.1928
▁தீவிரவாதி	-11.193
▁வருவாய	-11.1932
▁கடக்க	-11.1933
▁அமுக்க	-11.1936
▁மேளமாகிய	-11.1937
▁தைவதம்	-11.1937
▁மீற்றருக்கு	-11.1937
▁துணைக்கண்ட	-11.1937
▁நெசவு	-11.1937
▁சூடுபடுத்த	-11.1937
▁பட்டுக்கோட்டை	-11.1939
▁தவிர்த்த	-11.1941
▁பாடத்திட்ட	-11.1944
▁அழிக்கப்பட்ட	-11.1948
▁இற்கு	-11.1949
▁அண்மைய	-11.1949
▁இச்சட்ட	-11.1951
ake	-11.1953
ப்படுவர்	-11.1953
▁நீரிணை	-11.1957
▁பிரிக்கலாம்	-11.1961
▁வினவ	-11.1963
▁சாஸ்திரி	-11.1963
▁ஆன்மா	-11.1964
▁தவிர்ப்ப	-11.1966
▁ஆராய்ந்து	-11.1966
▁நீர்நிலை	-11.1967
▁தியாகராஜ	-11.1968
▁வேதியியலில்	-11.197
ென்பது	-11.1971
▁அழைத்தனர்	-11.1972
▁அனுமதிக்கிறது	-11.1973
▁தலைவரும்	-11.1974
▁கூடியதே	-11.1976
▁கெட்டி	-11.1989
▁பிறப்பிடமாகக்	-11.1989
▁வரையறுத்த	-11.1991
▁ஒப்படைக்க	-11.1993
திரைப்பட	-11.1993
▁நீரோட்ட	-11.1994
▁தொழிலாக	-11.1994
▁கதவு	-11.1996
▁கிழங்கு	-11.1996
▁1901	-11.1998
திருத்த	-11.2001
▁பேசுகின்றனர்	-11.2002
▁மகனும்	-11.2005
▁திரள	-11.2006
▁தலைமையிடமாக	-11.2006
▁அடைகிறது	-11.201
▁குலோத்துங்க	-11.2016
▁காய்ச்சல்	-11.2018
▁தியேட்டர	-11.2018
▁தருண	-11.203
▁ஆளாக	-11.2031
ப்புத்தக	-11.2032
▁புதர்	-11.2035
▁கருத்துப்படி	-11.2036
போலவே	-11.2039
▁மறுசீரமைப்ப	-11.2042
▁மத்திமம்	-11.2042
▁சிவபெருமானின்	-11.2042
▁திறனாய்வு	-11.2045
த்திலான	-11.2058
ET	-11.206
AR	-11.2062
த்துக்குரிய	-11.2064
வேண்டுமென்ற	-11.2068
▁முறியடித்த	-11.2069
▁ஒதுக்கீடு	-11.207
▁ஆகியவற்றிற்கு	-11.2072
▁சிகாகோ	-11.2073
களுடனான	-11.2076
▁பிரஞ்சு	-11.2079
▁பணக்கார	-11.2079
▁பங்கேற்றார்	-11.2083
▁காஷ்மீர	-11.2083
மங்கல	-11.2087
Ad	-11.2091
▁சகல	-11.2092
▁எட்டாவது	-11.2096
▁பயன்பாட்டை	-11.2097
▁அயோத்தி	-11.2099
▁இவ்விழா	-11.2099
▁ஆண்டளவில்	-11.2101
▁லூயிஸ்	-11.2101
▁பயனாக	-11.2104
▁விவாதிக்க	-11.2105
▁இராமசாமி	-11.2109
▁தெருவில்	-11.2111
▁எட்டி	-11.2117
▁ஒருங்கிணைப்பு	-11.2118
▁கண்டிப்பாக	-11.2124
▁குடிநீர்	-11.2129
▁அரியணை	-11.2129
▁தஞ்சாவூர	-11.2137
▁சீக்கியர்கள	-11.2137
▁மட்டுமல்லாது	-11.2148
▁லண்டனில்	-11.2148
▁நிரம்பிய	-11.2148
▁[1]	-11.2149
▁சூழப்பட்ட	-11.215
ப்படுவதுண்டு	-11.2151
▁அசைவு	-11.2152
▁அழைத்த	-11.2153
▁உலாவி	-11.2154
▁வயதிற்கு	-11.2156
▁முதுநிலை	-11.2157
▁பிரதிநிதியாக	-11.2157
▁கையாண்ட	-11.2158
▁தீட்ட	-11.2159
▁கூட்டாளி	-11.2162
▁உபயோகப்படுத்த	-11.2164
▁பின்னரும்	-11.2164
▁லூக்கா	-11.2165
நாடக	-11.2171
▁சனநாயக	-11.2175
▁கோட்பாட்டை	-11.2176
ஷியா	-11.2176
▁புரோமைடு	-11.2177
▁உயரிய	-11.2177
▁உயர்நிலைப்பள்ளி	-11.2177
▁நிறைவேற	-11.2177
▁1907	-11.2182
▁நிற்ப	-11.2185
▁புத்தகங்களை	-11.2185
▁உபதேச	-11.2188
▁திரட்டி	-11.2201
▁சந்நிதி	-11.2202
▁இரண்டாவதாக	-11.2202
புதிய	-11.2203
▁தர்க்க	-11.2205
▁எழுத்துமுறை	-11.2206
சந்திர	-11.2226
▁மகிழ்வ	-11.2229
▁என்பதற்கான	-11.2229
சிகிச்சை	-11.223
▁நெல்லி	-11.2231
▁முன்னிலை	-11.2235
▁இருக்கவில்லை	-11.2235
▁பிலிம்	-11.2236
▁புத்தி	-11.2238
▁கற்கால	-11.2249
▁மருந்தாக	-11.2249
▁உறுப்பினர்களாக	-11.2255
▁இளவரசன	-11.2256
▁பருமன	-11.2261
1,000	-11.2267
Or	-11.2269
▁இவள	-11.2272
▁ஏற்படுத்துகிறது	-11.228
▁தற்காப்பு	-11.2283
▁பிரகாஷ்	-11.2283
▁சம்பள	-11.2289
▁அளிக்கப்பட்டது	-11.2291
▁இயற்பியலாளர	-11.2294
▁சூழலை	-11.2295
▁முன்னோர்	-11.2302
த்தலைவராக	-11.2308
NS	-11.231
▁தற்காலிகமாக	-11.2315
▁ஆண்டிற்கான	-11.2319
▁தூபி	-11.2328
Kar	-11.2336
▁முப்பரிமாண	-11.2337
▁எஃகு	-11.2337
▁மணந்து	-11.2339
▁இல்லாததால்	-11.2339
▁உடலுக்கு	-11.234
▁காமிக்	-11.234
▁பராமரிப்ப	-11.2341
▁யாதவ	-11.2351
விட்டதாக	-11.2353
▁பாடகர	-11.2356
▁ஹார்டி	-11.2359
▁உடைமை	-11.2362
▁அமாவாசை	-11.2364
▁முற்போக்கு	-11.2364
▁அத்தியாயங்கள	-11.2364
▁இக்கதை	-11.2366
▁சுழற்	-11.2366
▁துரத்த	-11.237
▁இந்நிறுவன	-11.2376
▁தீர்மானித்த	-11.2378
▁சோசலிச	-11.2392
கிளை	-11.24
▁இயக்குனர	-11.2403
▁பொறியியல	-11.2408
▁இருப்பவர்	-11.241
▁பெயராலும்	-11.2414
▁இயற்பியலில்	-11.2416
▁நீர்வீழ்ச்சி	-11.2419
▁பின்வருவன	-11.2419
▁ஒத்துழைப்ப	-11.2419
▁மீட்பு	-11.242
▁ஆபத்தான	-11.2421
▁சேர்மங்களை	-11.2422
▁உள்வாங்க	-11.2422
▁இருக்கக்கூடும்	-11.2425
ces	-11.2428
க்கொடுத்த	-11.2429
▁கண்ணோட்ட	-11.2431
▁விலகினார்	-11.2433
▁பேட்மேன	-11.2441
ott	-11.2441
விளையாடியுள்ளார்	-11.2442
▁பறப்ப	-11.2443
tin	-11.2445
▁காரைக்குடி	-11.2446
▁எதிர்பார்த்த	-11.245
▁சிறுபான்மை	-11.2458
எழு	-11.2459
▁பெயரான	-11.2459
நாதசுவாமி	-11.2465
lam	-11.2466
பூர்வமாக	-11.2473
வளர்ச்சி	-11.2474
▁ஷட்ஜம்	-11.2474
▁பூர்வ	-11.2475
வீட்ட	-11.2485
▁ஆற்றை	-11.2497
▁மின்னஞ்சல்	-11.2502
▁குடைவரை	-11.2502
▁1800	-11.2503
▁இம்மாவட்ட	-11.2504
▁வசித்த	-11.2506
ளவிலான	-11.2506
▁ஆளுகை	-11.2513
▁நெடுங்க	-11.2514
▁நால்வர	-11.2524
ull	-11.2527
▁ஒன்பதாம்	-11.2529
▁யுனைடெட்	-11.2529
▁எட்வர்ட்	-11.253
▁பீட்டா	-11.2532
முதன்மை	-11.2535
மருத்துவ	-11.2536
▁கருத்தாக்க	-11.254
படியான	-11.2541
▁மாணவி	-11.2542
சதுர	-11.2548
▁குறிக்கோள	-11.2552
▁அரேபியா	-11.2553
▁பெட்ரோ	-11.2553
▁மோசமாக	-11.2554
▁முழங்க	-11.2557
▁கிருட்டிணகிரி	-11.2557
▁தரையிறங்க	-11.2557
▁அலைநீள	-11.2557
▁அலகுகளாக	-11.2559
▁இசைக்குழுவின	-11.2569
▁குமரி	-11.2573
▁கொழும்பில்	-11.2574
மில்லாமல்	-11.2581
▁கலைக்களஞ்சிய	-11.2585
▁பதினாறாம்	-11.2585
▁யுனெஸ்கோ	-11.2585
▁மேல்நிலைப்பள்ளி	-11.2585
ிற்கே	-11.2585
▁சல்பேட்டு	-11.2586
▁காசுமீர	-11.2586
▁வேறுபடுத்த	-11.2589
▁அமைச்சராகவும்	-11.259
▁மேலாளர்	-11.2594
▁எந்தவித	-11.2594
▁குழுவாக	-11.2597
▁மாத்திரை	-11.26
▁இலகுவாக	-11.2602
▁உதவினார்	-11.2611
▁India	-11.2611
▁கனடாவின்	-11.2612
▁மக்னீசியம்	-11.2613
▁மாநிலங்களவை	-11.2613
▁இஸ்ரேல	-11.2613
▁கடைபிடிக்க	-11.2614
▁இயக்குநர	-11.2617
ப்பண்பு	-11.2621
Ac	-11.2621
▁சீர்தர	-11.2622
▁பரிசை	-11.2639
▁நீர்மூழ்கி	-11.2641
▁நோர்வே	-11.2641
▁பெருங்குடல	-11.2642
உயிர	-11.2642
▁பகவதி	-11.2644
▁அம்மையார	-11.2644
▁திருப்பத்தூர்	-11.2646
▁மேற்புற	-11.2646
▁1909	-11.2648
▁அழைக்கிறார்கள்	-11.2648
▁1906	-11.2648
▁மரபணுக்கள	-11.2652
▁அதன்பிறகு	-11.2652
▁ஆல்பா	-11.2662
▁ரூபா	-11.2668
palayam	-11.2669
▁இளையராஜா	-11.2671
▁ஆதாய	-11.2672
▁வரவேற்பைப்	-11.2674
▁வேதிப்பொருள	-11.2687
▁பேரியம்	-11.2688
▁தனிப்பாடல	-11.2688
ash	-11.269
▁திம்ம	-11.2697
▁மராட்டிய	-11.2697
▁இடம்பெயர்ந்த	-11.2698
▁கும்பகோணத்த	-11.2699
▁மென்பொருட்கள	-11.2699
▁முதலமைச்சராக	-11.2701
▁வருடத்திற்கு	-11.2704
▁வழிகாட்டுதல	-11.2706
▁மெய்யியல	-11.2717
▁நவராத்திரி	-11.2725
▁சாமுவேல்	-11.2725
▁திரைப்படத்துறை	-11.2734
▁தெருக்கள	-11.2735
கொள்வதற்காக	-11.2741
லேண்ட்	-11.2743
▁மொழிபெயர்ப்ப	-11.2744
▁கோவிலை	-11.2748
▁சாத்தியமான	-11.275
▁University	-11.2754
▁டேனியல்	-11.2754
▁பிரசித்தி	-11.2754
▁செல்கிறார்	-11.2761
▁சீரமைப்ப	-11.2761
▁மருவி	-11.2767
▁சேமிப்ப	-11.2775
▁அங்கேயே	-11.2779
▁பிரபந்த	-11.2782
▁விகடன்	-11.2783
▁சரவண	-11.2784
▁படைவீரர்	-11.2786
▁குறிக்கின்றது	-11.279
▁மெட்ரோ	-11.2794
RI	-11.28
Ko	-11.2807
▁வாக்கிய	-11.2807
▁பயிற்று	-11.281
▁பதினான்கு	-11.2811
மாட்டார்	-11.2814
▁முடியாட்சி	-11.2815
▁சல்ப	-11.2819
▁விலங்க	-11.282
▁அக்பர்	-11.2828
▁மற்றைய	-11.2837
▁துன்புறுத்த	-11.2839
ாவிட்டாலும்	-11.284
▁அரவிந்த	-11.2841
▁பஞ்சமம்	-11.2845
த்தொடர	-11.2855
ச்சென்ற	-11.286
▁திருக்குறள	-11.286
▁ஈர்த்த	-11.2867
▁அயோடைடு	-11.2868
▁பிலிப்பீன்ச	-11.2868
▁நெப்போலியன	-11.2868
▁பட்டதாரி	-11.2868
▁ஒட்டுண்ணி	-11.2869
▁வேடங்களில்	-11.2869
▁செய்தித்தாள்	-11.287
▁உத்தரவிட்ட	-11.287
▁பிரான்சிய	-11.2871
▁தனித்துவ	-11.2873
▁1898	-11.2874
த்திலிருந்த	-11.2877
▁மகிழ்ந்த	-11.2881
▁எண்ணெய	-11.2881
குறைந்த	-11.2885
▁by	-11.2896
▁திருத்தூதர்	-11.2897
வருமான	-11.2901
▁உற்பத்தியாளர்கள	-11.2905
த்தொகுப்பு	-11.2909
▁முருகன	-11.2909
▁பகுப்பாய்வ	-11.2913
▁பெருமையை	-11.2913
▁ப்ரா	-11.2916
மேற்கு	-11.2916
▁Retrieved	-11.2925
▁கைலாசநாதர்	-11.2926
▁1896	-11.293
3,000	-11.2933
ாமலேயே	-11.2933
▁3000	-11.2938
▁பொருத்தப்பட்ட	-11.2939
▁செதுக்கப்பட்ட	-11.2942
விகித	-11.2953
▁வெள்ளிக்கிழமை	-11.2954
▁புவன	-11.2954
▁புத்தாண்டு	-11.2959
▁சந்ததி	-11.2961
வருட	-11.2962
யீட்டு	-11.2965
▁நிலவுகிறது	-11.2967
முன்ன	-11.2976
▁பீடபூமி	-11.2983
ச்செல்வ	-11.2985
▁முன்னுரிமை	-11.2986
▁பெர்லின	-11.2993
▁தம்பதி	-11.2998
▁மௌரிய	-11.2999
▁முதிர்ந்த	-11.2999
0°	-11.3002
ஹள்ளி	-11.3005
▁கையகப்படுத்த	-11.3012
▁கோதாவரி	-11.3012
▁வருண	-11.3014
▁இரட்டையர்	-11.3016
▁அமைச்சர	-11.3016
▁உபநிடத	-11.3016
▁உண்மையாக	-11.3018
நிறுத்த	-11.3018
▁நூலான	-11.3018
▁தெரிவித்தனர்	-11.302
▁மதிப்பிடப்பட்ட	-11.3028
▁அழுக	-11.3038
▁சிம்பாப்வே	-11.3042
▁வகைக்கெழு	-11.3042
▁தட்பவெப்ப	-11.3042
டபிள்யு	-11.3042
▁தொடராக	-11.3043
▁நூலுக்கு	-11.3044
$	-11.3044
▁ஜூலி	-11.3069
▁நவக்கிரக	-11.3071
▁ஹாலிவுட்	-11.3071
▁நீர்ப்பாசன	-11.3071
▁நாகரீக	-11.3071
▁தொன்மையான	-11.3071
▁செயல்பாட்டை	-11.3075
▁சிறுகோள்	-11.3079
2007	-11.3079
▁வான்வழி	-11.3083
ள்ளேயே	-11.3094
▁பொறுப்பேற்றார்	-11.3094
த்திலிருந்தே	-11.3096
கொடுக்க	-11.3099
▁கலப்பின	-11.3099
▁எதிர்பாராத	-11.31
▁பெருமாள	-11.3102
▁நியமனம்	-11.3104
▁இருவருக்கும்	-11.3104
▁ஒப்படைத்த	-11.3107
▁கூகுள்	-11.313
▁வேள்வி	-11.313
▁விரிவடைந்த	-11.313
▁பிலிம்பேர்	-11.313
▁அதிகாலை	-11.313
▁மன்னிப்பு	-11.3131
▁யாத்திரை	-11.3134
▁டிரான்ஸ்	-11.3134
▁ஓராண்டு	-11.3134
▁பாடலாக	-11.314
இலிருந்து	-11.3146
▁ஒளியியல்	-11.3149
ster	-11.3155
▁தொழிலதிபர	-11.3159
▁அக்கட்சி	-11.3161
▁காப்பீட்டு	-11.3161
▁அடமான	-11.3161
ரண்ய	-11.3163
▁நடராச	-11.3165
▁உருண்டை	-11.3165
▁வருத்த	-11.3168
▁சீடர	-11.3169
டைதல்	-11.317
▁செல்வதற்கு	-11.3181
▁திரிபுரா	-11.3183
2010	-11.3183
புள்ளி	-11.3184
World	-11.3189
▁நாற்பது	-11.3189
▁அமீரக	-11.3191
களுக்கிடையில்	-11.3193
▁புரிதல	-11.3205
▁சரணடைந்த	-11.3206
க்கொள்கை	-11.321
▁கார்த்திக்	-11.3214
Tamil	-11.3219
▁ஈரானிய	-11.3219
que	-11.3219
Indian	-11.3221
வேதியியல்	-11.3222
▁ஒப்புமை	-11.3227
பெண்ண	-11.3229
over	-11.3236
புகழ்	-11.3237
▁எத்தனால	-11.3246
▁பாபநாசம்	-11.3248
▁மிகச்சிறிய	-11.3248
▁உரைநடை	-11.3248
▁திசைவேக	-11.3251
▁ஈடுபட்டிருந்த	-11.3253
▁நம்புகின்றனர்	-11.3258
▁பகல	-11.3263
▁கிடந்த	-11.3265
▁ராணா	-11.3268
▁இதேபோல	-11.327
▁ஜானகி	-11.3275
▁விளங்குகின்றன	-11.3278
▁from	-11.3278
▁துறவற	-11.3278
▁நிஷாதம்	-11.3278
▁வால்வெள்ளி	-11.3278
▁பன்னிரு	-11.3278
▁புழக்கத்தில	-11.3278
▁கணக்கிட்ட	-11.3286
▁போரிட	-11.3286
▁கணவர	-11.3288
▁தொப்பி	-11.3289
▁தடிமன	-11.3292
ினாள்	-11.3302
▁சைமன்	-11.3302
[[	-11.3307
▁தாலுகா	-11.3308
கிரிகோரியன்	-11.3308
thumb	-11.3309
▁நிலைநாட்ட	-11.3309
▁அலகான	-11.3312
▁முன்மாதிரி	-11.3312
▁உண்டாக	-11.3313
▁ஸ்பை	-11.3314
▁இரைப்பை	-11.3314
▁1904	-11.3316
▁கணவாய்	-11.3318
▁முடக்க	-11.3319
▁உடன்பாடு	-11.3328
கட்டமைப்ப	-11.333
▁மத்தேயு	-11.3338
▁நிலைப்புத்தன்மை	-11.3338
▁அசிரிய	-11.3339
▁உக்ரைன	-11.3339
▁உபகரணங்கள	-11.334
நல்ல	-11.3343
ூடக	-11.3349
▁இந்தியாவிலும்	-11.3355
▁சாசன	-11.336
▁வேலைப்பாடு	-11.3362
▁நீள்வட்ட	-11.3368
▁முன்மொழிந்த	-11.3369
▁தேர்ந்த	-11.3375
▁பிரித்தானியாவ	-11.3382
மதிப்பீட்ட	-11.3382
மென்று	-11.3384
▁இன்றளவும்	-11.3398
▁பல்கலைகழக	-11.3398
▁ஊக்குவிப்ப	-11.3398
▁ஒப்பீட்டளவில்	-11.3398
▁வளங்களை	-11.34
▁வேறுபடுகின்றன	-11.3403
221	-11.3411
▁குறிஞ்சி	-11.3413
▁அவதான	-11.3415
யொட்டி	-11.3419
▁நிர்வகித்த	-11.3428
▁அர்ப்பணிக்க	-11.3429
▁முக்தி	-11.3434
▁திலக	-11.3435
▁செய்கை	-11.3436
▁அபிஷேக	-11.3436
▁கலக்கிறது	-11.344
பழைய	-11.3442
கோபுர	-11.3446
▁கணிதவியல்	-11.3446
▁குறைகிறது	-11.3449
▁என்பவன	-11.3456
ிராத	-11.3456
▁கம்போடியா	-11.3459
▁ஏவூர்தி	-11.3459
▁சதுஸ்ர	-11.346
▁மின்னூட்ட	-11.3463
மங்கை	-11.3463
▁நீச்சல்	-11.3464
▁குறிப்பதாகும்	-11.347
▁சோதிக்க	-11.3477
▁கதிர்வீச்ச	-11.3481
▁காணப்படுவது	-11.3483
கணினி	-11.3483
▁செய்வதாக	-11.3487
▁அஞ்சலி	-11.3488
▁திருமுழுக்கு	-11.3489
▁அந்நிய	-11.349
▁1915	-11.3503
▁கதாநாயகனாக	-11.3508
▁பேராய	-11.3513
▁சிக்கலெண்	-11.3514
▁மணிமேகலை	-11.352
▁பதினாறு	-11.352
▁செங்கோண	-11.352
▁பள்ளிக்கூட	-11.3532
▁உடம்ப	-11.3534
▁இன்றுவரை	-11.3541
▁தடுத்த	-11.3542
▁பாஸ்கர	-11.3548
நுட்ப	-11.3548
▁அதிபர	-11.355
ப்பெட்டி	-11.3553
▁படுகை	-11.3554
▁யோகா	-11.3556
▁சாகித்திய	-11.3556
மளித்த	-11.3562
பிடிப்பு	-11.3563
▁தாய்மொழி	-11.3568
▁கூறுவத	-11.3571
▁எதையும்	-11.3576
▁விண்மீன	-11.3578
▁இதிகாச	-11.3581
▁தொழிற்சங்க	-11.3583
▁ஆயுள்	-11.3584
▁ஜெமினி	-11.3586
▁இதனுடன்	-11.3588
மீத்தேன	-11.3589
▁சௌந்தர	-11.359
▁அரங்கேற்ற	-11.3592
cent	-11.3606
▁இலையுதிர்	-11.3612
▁கூகிள்	-11.3612
▁தடகள	-11.3614
▁எதிர்கொண்ட	-11.3621
▁சொல்வத	-11.3623
▁வெளியிட்டுள்ளார	-11.3625
▁உதாரணத்திற்கு	-11.363
▁நடிகராக	-11.3643
▁தேர்தலுக்கு	-11.3643
▁எதிர்க்கட்சி	-11.3643
▁சக்கரவர்த்தி	-11.3643
▁தெலுங்கானா	-11.3643
▁யோசனை	-11.3645
ப்பழக்க	-11.3646
▁தெரிவிக்கிறது	-11.3652
▁வாக்கில்	-11.3658
▁அரிதான	-11.3659
▁லாகூர	-11.3665
▁தென்கிழக்காசிய	-11.3674
▁அவற்றுக்கு	-11.3675
▁இல்லாமல	-11.3678
▁முயல	-11.3678
▁1903	-11.3682
▁என்பதனை	-11.3682
▁சாகச	-11.3682
▁மராத்தி	-11.369
▁யப்பான	-11.3702
▁சுற்றுச்சூழல	-11.3704
▁ரிஷபம்	-11.3705
▁சனாதிபதி	-11.3705
▁ஒரேயொரு	-11.3705
▁இவரால்	-11.3706
▁நாடோடி	-11.3706
▁சமையல	-11.3707
▁குலசேகர	-11.3707
▁நன்னீர்	-11.3707
▁கணக்கீட்ட	-11.3708
ative	-11.3711
▁மூலவராக	-11.3717
▁திராட்சை	-11.3737
▁திருவிதாங்கூர	-11.3737
▁மேற்கூறிய	-11.3737
▁எரிவாயு	-11.3737
▁பிரதிபலிப்ப	-11.3737
▁அழைத்தார்	-11.3744
▁எழுந்தருளி	-11.3746
▁செலவிட	-11.3746
ஐதராக்சி	-11.3746
291	-11.3746
▁என்கின்றனர்	-11.3751
▁தலமாக	-11.3752
▁பரிவர்த்தனை	-11.3768
▁அமோனியம்	-11.3768
▁ஒலிவாங்கி	-11.3768
▁இசைக்கலைஞர	-11.3768
▁அவனுடைய	-11.3772
நம்பிக்கை	-11.3775
▁குழம்ப	-11.3784
▁நட்ப	-11.3784
▁நுண்ணறிவு	-11.38
▁சார்பற்ற	-11.3802
▁செய்வதற்கான	-11.3805
831	-11.3807
▁தெய்வானை	-11.3831
▁கயிறு	-11.3831
ந்தோறும்	-11.3836
தற்கென	-11.3837
▁விவரிப்ப	-11.3838
▁பிற்பகுதி	-11.3838
▁பங்களித்த	-11.3842
▁ஆவியாக	-11.3846
dia	-11.385
▁கூறப்படுகின்றது	-11.3853
ிழப்ப	-11.3854
▁எனுமிடத்தில்	-11.3863
பண்ப	-11.3867
▁குருக்கள	-11.3867
▁இடைவினை	-11.3871
▁வீச்சாளர	-11.3876
▁வீரபாண்டி	-11.3884
▁நீரினால	-11.3885
▁மேற்பகுதி	-11.3888
▁வருவதாக	-11.3893
▁புலனாய்வு	-11.3894
▁ஸ்காட்	-11.3898
▁என்பனவாகும்	-11.3899
▁வருபவர்	-11.3899
▁பரப்பளவ	-11.3909
சிறந்த	-11.3913
way	-11.3916
▁பதிப்பித்த	-11.3919
▁ப்ரோ	-11.392
out	-11.3923
▁குளிர்ந்த	-11.3924
▁சீர்காழி	-11.3926
நாயக்கன்பட்டி	-11.3926
▁பவுண்டு	-11.3926
ுகிறோம்	-11.3932
FA	-11.3933
▁வெங்கடேச	-11.3938
▁சடங்க	-11.3938
▁துவங்கினார்	-11.3944
▁பவுல	-11.3947
▁வருடாந்திர	-11.3958
▁வெளியுறவு	-11.3958
▁பதினைந்து	-11.3958
ator	-11.3958
▁சலுகை	-11.396
வகுப்ப	-11.3963
▁உலர்ந்த	-11.3964
▁சாதியினர	-11.3965
▁ஒப்புக்கொண்ட	-11.3965
ாம்பாள்	-11.3965
▁இருக்கவேண்டும்	-11.3973
வாழ்க்கை	-11.3974
▁கட்டமைக்கப்பட்ட	-11.3976
emb	-11.3978
▁மரணமடைந்தார்	-11.399
▁இப்பூங்கா	-11.399
▁முழுவதையும்	-11.399
▁ஆபிரகாம	-11.399
குர்ஆன	-11.3995
▁ஏற்றவாறு	-11.3997
▁தேவையற்ற	-11.4007
▁வைத்திருப்பத	-11.4008
▁மார்க்சிய	-11.4011
ுருவாக்க	-11.4012
vel	-11.4018
William	-11.4022
▁நைட்ரேட்டு	-11.4022
▁அடுத்தபடியாக	-11.4022
▁அனைவரையும்	-11.4028
▁விமர்சிக்க	-11.403
▁தன்மையுடைய	-11.4031
▁இழுக்க	-11.4031
▁கிடைக்கப்பெற	-11.4044
▁கிளப்ப	-11.4045
▁காலக்கட்டத்தில்	-11.4055
▁தேவையில்லை	-11.4055
▁காளான்	-11.4055
▁இந்தோனேசிய	-11.4056
▁உள்ளடக்கியதாக	-11.406
▁மலையக	-11.4062
▁சந்தர்ப்பங்களில	-11.4075
▁நடாத்த	-11.4078
▁பயன்பாட்டிற்கு	-11.4082
▁விமர்சனங்களை	-11.4086
▁அனைத்திந்திய	-11.4087
சமூக	-11.409
▁ஆளுநர	-11.41
குறியீட	-11.4107
Fe	-11.4117
Ag	-11.4118
ிரண்டு	-11.4118
▁கொழும்ப	-11.4119
▁பௌர்ணமி	-11.4119
▁முன்னுரை	-11.412
▁மன்னார்குடி	-11.4121
▁அடிப்பகுதி	-11.4121
▁1902	-11.4127
▁ஆவணப்படுத்த	-11.4128
2009	-11.413
▁சுயம்பு	-11.413
▁போன்றோர	-11.413
▁ஆவணப்பட	-11.414
▁இயக்குநீர்	-11.4152
▁சிறைச்சாலை	-11.4153
▁பேராலய	-11.4158
▁திருப்தி	-11.4159
▁போர்க்கள	-11.4163
▁படமாக்க	-11.4184
▁வலைப்பின்னல	-11.4185
ுறிப்பிடத்தகுந்த	-11.4185
▁ஆகாய	-11.4185
▁புண்ணிய	-11.4185
▁உருவகப்படுத்த	-11.4186
▁ஜூலியன்	-11.4188
▁தரைப்படை	-11.419
▁சமுத்திர	-11.4193
▁எளிமை	-11.4195
▁விவரிக்கிறது	-11.4199
Comp	-11.4209
▁செங்குத்தாக	-11.4218
▁அளவாக	-11.4227
தோஷ	-11.4229
▁ஒன்பதாவது	-11.425
▁பெருங்கோவில்	-11.425
▁ஆர்க்டிக்	-11.4251
▁ஈஸ்வர	-11.4263
▁கொழுப்ப	-11.4271
▁செழிப்ப	-11.4279
▁சட்டப்பேரவை	-11.4283
▁நிரூபித்த	-11.4284
▁அமோனியா	-11.4284
tro	-11.4285
▁தரப்பினர	-11.4288
▁வேங்கட	-11.4291
▁மெட்ரிக்	-11.4294
▁ஆல்பர்ட்	-11.43
▁அம்சங்கள	-11.4305
▁போர்த்துக்கேயர	-11.4311
ிணைய	-11.4312
க்கொண்டிருக்கும்	-11.4312
▁புனைப்பெயர	-11.4312
▁ஆராய்ந்த	-11.4316
▁என்னவென்றால்	-11.4317
▁நீரிழிவு	-11.4317
▁பொருண்மை	-11.4317
▁திருவையாறு	-11.4317
▁இடதுசாரி	-11.4318
▁பூங்காக்கள	-11.4319
▁விளைச்சல	-11.4324
▁புணர	-11.433
▁மாரடைப்ப	-11.435
▁ஆதீன	-11.435
▁யுரேனியம்	-11.435
▁விளிம்ப	-11.4352
▁காவல்துறையினர	-11.4352
▁ஆந்திரா	-11.4353
▁புதுப்பித்த	-11.4356
▁புழுக்கள	-11.4359
▁தட்ப	-11.4362
போதிலும்	-11.4375
▁லிமிடெட்	-11.4383
▁சுழலும்	-11.4383
ஃபோர்டு	-11.4388
▁உட்கரு	-11.4389
முக்கியத்துவத்தை	-11.439
▁மறுநாள்	-11.4391
▁மதுராந்தக	-11.4417
▁வாசிங்டன்	-11.4417
▁ஊக்குவித்த	-11.4417
▁திடீரென	-11.4417
▁தொல்பொருள்	-11.4419
ெல்லை	-11.4422
▁அடைவத	-11.4429
▁ஆட்சிக்காலத்தில	-11.4435
▁செயற்படுத்த	-11.4439
▁இதற்கிடையில்	-11.445
▁மாதவிடாய்	-11.445
▁சார்லசு	-11.445
▁மெட்டல்	-11.4451
▁டிஸ்னி	-11.4452
▁காஞ்சிபுரத்த	-11.4452
▁கோபால்ட்	-11.4456
▁பிரயோக	-11.4457
▁வாய்வழி	-11.446
▁900	-11.4463
▁மும்ம	-11.4463
▁லிட்டர்	-11.4464
▁வெடிக்க	-11.4464
▁கிளார்க்	-11.4465
able	-11.4468
540	-11.4482
▁ஐதரசன	-11.4482
▁டென்னிஸ்	-11.4484
குறிப்பாக	-11.4485
ஆங்கில	-11.4504
▁வேணுகோபால	-11.4518
▁இவருடன்	-11.4518
▁பலதரப்பட்ட	-11.4519
▁அதிவேக	-11.452
▁சுரக்க	-11.4525
▁இறந்துவிட்ட	-11.4529
▁உச்சரிப்ப	-11.4532
▁தூள	-11.454
▁வரிசைப்படுத்த	-11.4543
மாரியம்மன்	-11.4545
▁எப்பொழுதும்	-11.4551
▁பதினேழாம்	-11.4551
▁வெண்ணிற	-11.4552
▁தெய்வீக	-11.4552
▁ஒவ்வோர	-11.4552
▁விரைவான	-11.4552
▁கால்பந்தாட்ட	-11.4554
நுண்	-11.4559
▁வகுப்பறை	-11.4559
▁பெட்ரோலிய	-11.4571
▁தென்பகுதி	-11.4577
▁கதாபாத்திரங்கள	-11.4579
▁ஸ்டூடியோ	-11.4585
▁இடப்பெயர்ச்சி	-11.4585
▁முன்மொழியப்பட்ட	-11.4585
▁வாக்களிக்க	-11.4586
▁சமாளிக்க	-11.4586
press	-11.4587
ுறுதி	-11.4587
▁தேசிக	-11.4587
▁வாதிட்ட	-11.4605
▁எலும்ப	-11.4619
▁குரோமியம்	-11.462
▁கவுன்டியில	-11.462
▁புஷ்கர	-11.4621
▁உட்பகுதி	-11.4624
outh	-11.4628
▁தொடர்புபடுத்த	-11.4635
▁இந்நோய	-11.4636
▁சிதைந்த	-11.464
▁பம்பாய்	-11.4654
தமிழ்நாட்டிலுள்ள	-11.4655
ode	-11.4664
▁பங்குபற்ற	-11.4674
▁பாவிக்க	-11.4684
▁சுற்றுவட்ட	-11.4693
▁இயங்குகின்றன	-11.4694
▁பார்ப்பதற்கு	-11.4707
▁அச்சுப்பொறி	-11.4723
▁தூதரக	-11.4723
▁ஒரிசா	-11.4723
▁அங்காடி	-11.4723
▁நிலத்தினால	-11.4726
▁ராமகிருஷ்ண	-11.4727
▁விலங்கின	-11.4727
▁விமர்சித்த	-11.473
▁ஈர்ப்ப	-11.473
▁வேறுபடுகிறது	-11.4734
▁என்பதிலிருந்து	-11.4735
▁உற்சாக	-11.4757
▁சாதகமான	-11.4757
▁அதிபராக	-11.4759
▁ஒப்பிடும்போது	-11.4762
குளோரைடு	-11.4771
▁பெற்றுக்கொண்ட	-11.4776
▁கிடைக்கக்கூடிய	-11.4782
▁எடுத்துரைக்க	-11.479
▁ISBN	-11.4792
▁கணக்கெடுப்பில்	-11.4792
▁வைகானசம்	-11.4792
▁ஏப்பிரல்	-11.4792
▁அடங்குகின்றன	-11.4795
▁இராஜராஜ	-11.4798
▁நடுப்பகுதியில்	-11.4799
▁நெடுங்கால	-11.4799
▁அனேக	-11.48
▁கருத்தரங்க	-11.4806
▁ஒழுங்குமுறை	-11.481
▁திருவரங்க	-11.4815
▁சூடாக்க	-11.4815
▁ஒவ்வாமை	-11.4827
▁வடகிழக்கில்	-11.4827
▁தடுப்பூசி	-11.4827
▁பழிவாங்க	-11.4827
▁அடிவாரத்தில்	-11.4827
▁ஐப்பசி	-11.4827
▁கள்ளக்குறிச்சி	-11.4827
▁சார்ல்ஸ்	-11.4828
▁பொம்ம	-11.4828
▁திணிவு	-11.483
பென்சீன்	-11.4832
▁நீளமுள்ள	-11.4836
▁நெருக்க	-11.4844
▁நெதர்லாந்த	-11.4846
டவுன்	-11.4848
▁உபகரண	-11.4859
▁குறும்பட	-11.4862
▁புலம்பெயர்ந்த	-11.4862
▁பெறுமதி	-11.4862
▁தொழிலாளி	-11.4865
▁மனநல	-11.4865
▁சுமேரிய	-11.4866
▁சுமத்த	-11.4868
▁இடம்பெறுகின்ற	-11.4874
▁நெற்றி	-11.488
▁வகிக்கின்றன	-11.4884
▁அசாதாரண	-11.4897
▁கிராஃபிட்டி	-11.4897
▁புறக்கணிக்க	-11.4897
▁வேண்டாம்	-11.4898
▁நிருப	-11.4902
▁சுயாட்சி	-11.4903
▁விழுங்க	-11.4908
▁மட்டுப்படுத்த	-11.4908
row	-11.4909
formula	-11.4912
▁மீட்ப	-11.4919
▁சிலிக்கான்	-11.4932
▁லத்தீன்	-11.4933
▁with	-11.4933
▁லலித	-11.4933
▁செய்யுள	-11.4952
▁முதலீட்ட	-11.4953
▁மீனவர்	-11.4955
▁பிரதமர	-11.496
▁அளவான	-11.4963
▁நற்கருணை	-11.4967
▁சீர்குலை	-11.4967
▁அணிகலன்	-11.4968
▁மியான்மர	-11.4968
▁அச்சிடப்பட்ட	-11.5001
▁ஞாயிற்றுக்கிழமை	-11.5003
▁சஞ்சீவ	-11.5003
▁வம்சாவளி	-11.5003
▁நேர்மாறு	-11.5003
▁எசுத்தர்	-11.5005
ூரிலிருந்து	-11.5008
▁இன்ஃபோ	-11.501
4,000	-11.501
▁அவதானிக்க	-11.5011
▁நியூசிலாந்த	-11.5015
ோருக்கான	-11.5019
▁இனத்தவர	-11.5026
▁வெளிப்பாட்ட	-11.5029
▁தடித்த	-11.5031
▁அக்டோபரில்	-11.5039
▁நாளடைவில்	-11.5039
▁செல்சியஸ்	-11.5039
▁இக்கட்டுரை	-11.5039
▁ஃவுளூரைட	-11.5074
▁கடல்மட்டத்தில்	-11.5074
▁வெளிப்படையான	-11.5074
▁பிரிட்டானிய	-11.5074
▁பிரமிடு	-11.5075
மீட்டர	-11.5076
▁வாய்பாடு	-11.508
▁பிட்காயின	-11.5082
▁செயற்குழு	-11.5085
பிடிப்ப	-11.5094
umb	-11.5097
▁குறியீடாக	-11.51
▁பகிர்வ	-11.5105
▁முற்றிலுமாக	-11.511
▁மெய்யெழுத்து	-11.511
▁பொன்னம்பல	-11.511
ாதிபதி	-11.5133
இயக்க	-11.5136
▁கிளம்ப	-11.5137
▁Division	-11.5146
▁கிரிக்இன்ஃபோவில	-11.5146
▁பூச்சிக்கொல்லி	-11.5146
▁போர்த்துகீசிய	-11.5146
▁இசுரயேல	-11.5146
▁ஆன்மிக	-11.5146
▁மறுத்துவிட்ட	-11.5151
▁மேற்கண்ட	-11.5153
▁சிறப்பிக்க	-11.5162
ஸ்டைன்	-11.5165
▁வாணிக	-11.5167
▁தனிமனித	-11.5171
▁சாதகமாக	-11.5182
▁கிறிஸ்தவர்கள	-11.5182
ிருப்பினும்	-11.519
▁முழக்க	-11.5192
இடம்பெற்றிருந்தன	-11.5192
▁ஹோட்டல	-11.5197
▁இடையூறு	-11.5218
▁உயர்நீதிமன்ற	-11.5218
▁விசேட	-11.5219
kulam	-11.5219
▁சிறப்பித்த	-11.522
▁இவ்விரண்டு	-11.522
▁செல்லியம்மன்	-11.5227
▁கணேச	-11.5228
▁அலுமினிய	-11.5228
வள்ளுவ	-11.5236
த்தூண்	-11.5236
▁பதிப்பிக்க	-11.5239
▁அறுதியிட	-11.524
ப்போராட்ட	-11.5241
▁உழைத்த	-11.5244
▁அலுவலர	-11.5245
And	-11.5253
▁புளோரின	-11.5253
▁ஸ்டீபன்	-11.5257
▁திறம்பட	-11.526
▁பிராங்க்	-11.5263
iva	-11.5285
▁புறநானூற்ற	-11.5291
▁விரைவுவண்டி	-11.5291
▁நிராகரித்த	-11.5291
▁காரணாகம	-11.5291
▁பத்தாவது	-11.5291
▁வயிற்றில	-11.5291
▁விவேகானந்தர	-11.5291
▁பாகுபாடு	-11.5293
▁தொலைவிலுள்ள	-11.5295
▁கணக்கீடு	-11.5295
▁கிறித்து	-11.5298
▁கழிமுக	-11.5298
ேஷ்வர	-11.5299
புலியூர்	-11.5314
▁லடாக்	-11.5318
▁இசையமைப்ப	-11.5321
▁உயர்கல்வி	-11.5328
▁அராபிய	-11.5329
▁நியமிக்கப்பட	-11.533
▁அலகாபாத்	-11.5331
▁இப்பிரதேச	-11.5331
▁சரும	-11.5332
▁உள்வட்ட	-11.5333
▁இரண்டிற்கும்	-11.5334
▁வேதிவினை	-11.5334
▁வைத்தியநாத	-11.5338
▁கட்டமைக்க	-11.5353
அதிகாரப்பூர்வமாக	-11.536
▁மட்பாண்ட	-11.5365
▁பதினெட்டு	-11.5365
▁வவுனியா	-11.5365
▁அடைவதற்கு	-11.5374
▁வர்மா	-11.5389
▁திருமேனி	-11.5398
▁சட்டவிரோத	-11.5402
▁மணியளவில்	-11.5402
▁வாசுதேவ	-11.5402
▁நம்பகத்தன்மை	-11.5402
▁அர்ஜுன	-11.5402
▁தொலைதூர	-11.5403
▁புரோட்டான்	-11.5404
▁யுரேன	-11.5406
Ind	-11.5418
▁தளவாட	-11.5431
ல்லுறுப்புக்கோவை	-11.5439
▁நாகர்கோவில்	-11.5439
▁எறும்பு	-11.5439
▁பேரழிவு	-11.5439
▁உண்டாகிறது	-11.5441
▁கொள்கலன	-11.5441
▁மேலோட்ட	-11.5449
6,000	-11.5461
comp	-11.5473
▁வருங்கால	-11.5476
▁காந்தியடிகள	-11.5479
▁வேண்டுமென்று	-11.5482
▁ஆராய்வ	-11.5491
▁புரோமின	-11.5501
▁அவுஸ்திரேலிய	-11.5513
▁இந்நிகழ்ச்சி	-11.5513
▁கணிப்பொறி	-11.5513
▁விவாகரத்து	-11.5513
▁குளோரைட	-11.5513
▁மாணாக்கர	-11.5514
▁நைட்ரஜன	-11.5514
▁இராபர்ட்	-11.5518
▁வடிநில	-11.5519
▁கட்டாயப்படுத்த	-11.5521
▁துறையினர	-11.5538
▁கால்வாய	-11.5545
▁உணவகங்கள	-11.5545
▁வியப்ப	-11.5548
▁எவ்வாற	-11.5549
▁நோய்த்தொற்று	-11.555
▁மனப்பான்மை	-11.5551
▁என்பதற்காக	-11.5551
▁[2]	-11.5551
▁இராஜேந்திர	-11.5554
களாலான	-11.5556
ரிட்ஜ்	-11.5559
▁நீராடி	-11.5559
▁வேதிப்பொருட்கள	-11.5572
▁அகமதாபாத்	-11.5588
▁இப்பாடசாலை	-11.5588
▁குடமுழுக்கு	-11.5588
▁ராஜகோபுரம்	-11.5588
▁பராமரித்த	-11.5588
▁கட்டடக்கலை	-11.5591
▁கணேஷ்	-11.5593
ுவோம்	-11.5596
▁நுகர	-11.5612
▁செலவின	-11.5614
▁வடுக	-11.5623
▁பழைமையான	-11.5626
▁பாலசுப்பிரமணிய	-11.5627
▁பாடலாசிரியர்	-11.5627
▁பகிர்ந்த	-11.5628
▁அயர்லாந்த	-11.5632
▁ப்ளா	-11.5634
▁நினைவுகூர	-11.5635
புதினம்	-11.5636
▁வடிவமைப்பாளர	-11.5639
ுபவராக	-11.5641
▁உயிரியல	-11.5644
▁சுழலி	-11.5649
வெள்ளீய	-11.5656
▁Nobel	-11.5664
▁அம்பேத்கர	-11.5664
▁மான்செஸ்டர்	-11.5664
▁வாக்குரிமை	-11.5664
▁தாமசு	-11.5665
▁சதுர்த்தி	-11.5665
▁அரவான	-11.5667
▁விளங்கின	-11.5679
▁பாதுகாத்த	-11.5683
▁பிணைக்கப்பட்ட	-11.5699
▁ஐரோப்பாவின	-11.5702
நீராற்பகு	-11.5702
▁முடிசூட்ட	-11.5703
ஞ்ஞா	-11.5733
George	-11.574
▁ஆக்கிரமித்த	-11.574
▁ஒரத்தநாடு	-11.574
▁நாயனார்	-11.574
▁அசிட்டிக்	-11.5747
ராட்டிர	-11.5761
▁நீரிலி	-11.5772
▁பொருளியல	-11.5777
▁ஆடித்திருவிழா	-11.5778
▁சிந்தாமணி	-11.5778
▁சேதுபதி	-11.5778
▁தோழர்	-11.5779
▁தம்பதியர	-11.5781
▁வரலாற்றாளர்	-11.5786
விடுதி	-11.5786
▁குறள	-11.579
▁மாங்கனீசு	-11.5817
▁நிகழ்தகவு	-11.5817
▁முற்றொருமை	-11.5817
▁இருபுறமும்	-11.5817
▁காரைக்கால்	-11.5817
▁இராமானுச	-11.5817
▁பினாங்கு	-11.5817
trans	-11.582
▁அங்கத்தினர்	-11.5821
▁அண்டர்டேக்கர	-11.5855
▁வியாழக்கிழமை	-11.5855
▁வாழ்கிறார்கள்	-11.5855
▁செயல்திட்ட	-11.5856
▁விலங்கியல்	-11.5859
▁பின்தொடர	-11.5859
▁பிரசன்ன	-11.5883
▁எத்தியோப்பிய	-11.5894
▁வத்திக்கான்	-11.5894
ுத்தீன்	-11.5911
▁பதினாறாவத	-11.5933
▁நிராகரிக்க	-11.5933
▁தீநுண்ம	-11.5933
▁ரகுமான்	-11.5933
▁அம்பிகை	-11.5933
▁நேசநாட்டு	-11.5936
▁ஃபியட்	-11.5966
▁சிலவேளைகளில்	-11.5972
▁மொழிக்குடும்ப	-11.5972
▁தேர்ந்தெடுப்ப	-11.5973
▁தருமபுரி	-11.5974
▁பிளாஸ்டிக்	-11.5974
▁கைலாச	-11.598
▁சமயத்தவர	-11.5984
▁சமீப	-11.5987
▁சிறுபான்மையினர	-11.5995
▁நாச்சியார்	-11.6011
▁ஆய்வாளர	-11.6016
ஹங்கேரி	-11.6018
திருத்தந்தை	-11.6036
▁குறைபாட்ட	-11.6044
▁திருச்சுற்றில்	-11.6051
▁பிரத்யேக	-11.6051
▁காலனித்துவ	-11.6051
▁பிடாரியம்மன்	-11.6052
4475	-11.6067
▁வினைத்திறன	-11.608
▁திருவிடைமருதூர்	-11.609
▁jpg	-11.609
▁ஆவாா்	-11.609
பீனைல்	-11.6117
▁சுத்திகரிப்பு	-11.613
▁வீழ்படிவ	-11.613
▁சுனாமி	-11.613
▁தம்பதியினர	-11.6166
▁இவ்வுலக	-11.617
▁விரிவுரையாளராக	-11.6171
▁பரமக்குடி	-11.6172
▁பிரசவ	-11.6173
▁பளபள	-11.621
▁விழுக்காட்ட	-11.621
▁சகாப்த	-11.621
Thiru	-11.621
▁கொதிநிலை	-11.621
▁விடுவித்த	-11.6211
▁மட்டையாளர	-11.6224
▁அனுபவித்த	-11.6243
▁பதிவிறக்க	-11.625
▁எட்வர்டு	-11.625
▁முழுஎண்	-11.6251
▁சித்திரவதை	-11.6252
▁நடனமாட	-11.6257
▁அருணாச்சல	-11.629
▁நினைவுச்சின்ன	-11.629
▁பதின்ம	-11.6295
மதுரை	-11.631
களிடத்தில்	-11.6315
▁சிலநேரங்களில்	-11.6331
▁போலன்றி	-11.6331
▁சண்டிகேஸ்வரர்	-11.6332
த்தெரு	-11.6332
▁விசாரிக்க	-11.6333
அதிக	-11.6335
▁டாலர	-11.6354
▁ஹைட்ரஜன்	-11.6371
▁விரைவிலேயே	-11.6371
▁பிளாட்டினம்	-11.6372
▁தாகூர	-11.6375
ச்சரிவு	-11.6375
▁நுரையீரல	-11.6388
▁District	-11.6412
▁வேர்ல்ட்	-11.6415
▁நுண்ணோக்கி	-11.6416
▁தக்கவைத்துக்	-11.6417
▁மணிப்பூர	-11.645
▁தென்னிந்தியாவின	-11.645
▁இளைஞன	-11.6453
▁பந்துவீச்சில்	-11.6453
▁வழக்கறிஞராக	-11.6453
▁விரைந்து	-11.6453
▁அபராத	-11.6454
▁சைபீரிய	-11.6454
ுவேன்	-11.6454
▁முன்பிருந்த	-11.6454
▁எதிரொலி	-11.6455
▁இட்லர	-11.6455
▁குறியீட்டை	-11.6459
▁முன்னெடுத்த	-11.6462
▁அலங்கரிக்க	-11.6466
▁செலீன	-11.6467
▁உரிமையாளர	-11.6487
▁அகச்சிவப்பு	-11.6494
▁அங்கீகரித்த	-11.6494
▁திமிங்கில	-11.6494
▁நவம்பரில்	-11.6494
▁மற்றுமொரு	-11.6494
▁மானாமதுரை	-11.6494
▁பண்டைக்கால	-11.6494
▁வீட்டில	-11.6496
▁பாடுபட்ட	-11.6497
▁பயங்கரவாத	-11.6506
▁புளோ	-11.6507
▁குறுந்தொகை	-11.6536
▁திங்கட்கிழமை	-11.6536
▁தென்னாபிரிக்க	-11.6536
▁தொழினுட்ப	-11.6536
▁மிதிவண்டி	-11.6536
▁சுமந்து	-11.6538
▁நிசாம	-11.6557
ோதய	-11.6567
mangalam	-11.6577
▁உத்திரமேரூர்	-11.6577
▁செப்டம்பரில்	-11.6577
▁நாயன்மார்	-11.6577
▁ஆப்கானிய	-11.6577
work	-11.6577
▁கனசதுர	-11.6578
▁நடிகருக்கான	-11.6579
மடங்காக	-11.6596
புளோர	-11.66
▁பயங்கர	-11.6607
▁பூர்ண	-11.6616
▁அத்தியாவசிய	-11.6619
▁அறந்தாங்கி	-11.6619
▁கணிசமாக	-11.6619
▁குளுக்கோச	-11.6619
▁பரஸ்பர	-11.6619
▁கொடூர	-11.6619
▁திருக்கோவில்	-11.6619
▁குத்தகை	-11.6619
8,000	-11.6632
ிணைப்ப	-11.6639
▁சுரேஷ்	-11.6647
▁Institute	-11.6661
▁Secretariat	-11.6661
▁தற்சமயம்	-11.6661
▁திருவள்ளுவர்	-11.6661
ization	-11.6663
▁இசையமைத்திருந்த	-11.6667
▁அரக்கன	-11.6668
▁அண்மைக்கால	-11.6674
▁புயல	-11.6682
▁பாக்டீரியாக்கள	-11.6695
ப்ளோ	-11.6699
▁உச்சநீதிமன்ற	-11.6703
▁வாஷிங்டன்	-11.6703
▁காற்பந்தாட்ட	-11.6703
▁ராஜீவ்	-11.6703
▁பளிங்கு	-11.6703
▁மிளகு	-11.6703
▁துளசி	-11.6704
▁மாற்றியமைத்த	-11.6706
▁ஆணையிட்ட	-11.6736
▁தென்கிழக்கில்	-11.6745
▁வயதிற்குட்பட்ட	-11.6745
▁செங்கல்பட்டு	-11.6745
▁நிலவரப்படி	-11.6745
▁விசுவ	-11.6749
▁கிளிநொச்சி	-11.6787
▁கிலோகிராம்	-11.6787
▁codic	-11.6787
▁ஹென்ரி	-11.6788
அகநானூற	-11.6792
▁கருத்தரிப்ப	-11.6796
▁வாய்ப்பாட்டால	-11.6805
புனித	-11.6829
▁வாழ்நாளில்	-11.683
▁மியூசிக்	-11.683
hydr	-11.683
▁தெரியவருகிறது	-11.6831
▁குடிமகன	-11.6833
▁ஸ்காட்லாந்த	-11.6849
▁கஸ்தூரி	-11.6872
▁ஜெர்ரி	-11.6873
▁சொர்க்க	-11.6874
க்கொள்கிறது	-11.6878
▁மெய்நிகர்	-11.6915
▁பெங்களூரில்	-11.6915
▁சூதாட்ட	-11.6916
▁சௌராட்டிர	-11.6916
▁கேப்டன்	-11.6917
▁முத்தையா	-11.6923
▁பத்மநாப	-11.6928
நாராயணப்பெருமாள்	-11.6947
▁நோயெதிர்ப்பு	-11.6958
▁பிரார்த்தனை	-11.6958
▁ஜார்க்கண்ட	-11.6958
▁புராதன	-11.6959
▁புகலிட	-11.6959
▁ஆர்சனிக்	-11.6964
நவீன	-11.6991
ொழுக்க	-11.6996
▁பட்டாம்பூச்சி	-11.7002
▁குத்துச்சண்டை	-11.7002
▁ஃபிளாஷ்	-11.7002
▁ஏர்லைன்ஸ்	-11.7002
▁பேசுவோர	-11.7029
“	-11.7033
▁மரபினர	-11.7034
matic	-11.7037
Robert	-11.7045
▁மன்ஹாட்டன	-11.7045
▁கூட்டிணைவு	-11.7046
▁முத்துமாரியம்மன	-11.707
graph	-11.7089
▁இளஞ்சிவப்பு	-11.7089
▁சிறப்பியல்பு	-11.7089
▁வரைவிலக்கண	-11.7089
‘	-11.8241
