<unk>	0
<s>	0
</s>	0
.	-2.92594
,	-3.61527
亇	-4.55896
▁	-4.78647
令	-4.91707
仠	-4.96044
五	-4.99045
亢	-5.0469
亖	-5.30112
)	-5.32518
伺	-5.33695
▁(	-5.35992
▁云互亇	-5.36015
▁仈亭	-5.43631
予亐	-5.46374
亟	-5.636
▁"	-5.66686
"	-5.71493
▁价佛	-5.79618
▁亓	-5.82885
于	-5.89753
仡	-5.91496
伧亖	-5.91554
仜	-5.93903
仇	-5.99537
予	-5.99946
-	-6.01752
▁价	-6.0777
仌亖	-6.08067
▁仦	-6.10725
▁倧仱俔	-6.1164
了	-6.13727
▁价于	-6.14407
伧五	-6.16933
亾	-6.19362
些	-6.22179
亏亐	-6.22232
▁仦仾	-6.22258
▁二亼	-6.25694
:	-6.26796
▁予	-6.27641
▁仦亪亇	-6.28493
亃	-6.29203
▁井产	-6.31123
仕亇	-6.33072
伈	-6.34357
亳	-6.35361
▁亷	-6.36184
▁仦亇	-6.3684
亣	-6.39894
▁亅	-6.41397
仱	-6.4451
亝	-6.46276
云	-6.46535
仅	-6.4723
会	-6.48729
▁二亍于	-6.49193
仌五	-6.50128
▁亅仄	-6.52031
▁井	-6.52834
▁付	-6.52964
佘	-6.53002
▁亓仹于	-6.53356
予什亖	-6.54343
▁二	-6.54877
予亚	-6.5522
佃	-6.55675
▁井产于	-6.57905
仓	-6.58157
亜	-6.5835
仉	-6.59133
▁价些伺	-6.5915
亙	-6.59471
仄	-6.59532
▁伇	-6.59535
亷	-6.60567
▁仧	-6.62419
▁云了亐	-6.62723
亅	-6.63815
仮	-6.64446
▁二仿	-6.64455
仡亇	-6.64464
仯	-6.64513
▁价亭伟	-6.65896
亊	-6.66065
亱	-6.66819
仳	-6.67555
人	-6.67993
侫	-6.68804
▁仉	-6.69029
今	-6.69395
仮予	-6.70746
仦亇	-6.72945
▁价佇亟	-6.73844
亴	-6.74266
▁亂	-6.7432
亿亐	-6.75054
▁("	-6.75221
伇	-6.75245
▁云	-6.75364
▁亂亃亖	-6.75497
亭	-6.75722
▁亴	-6.75963
亗	-6.76706
交	-6.78687
伂	-6.7881
介	-6.78948
亹	-6.79253
亥	-6.7942
▁二仇	-6.80863
佛	-6.81756
▁亃	-6.8241
佶	-6.8332
▁亞	-6.85508
伡	-6.861
▁仮	-6.87249
仂	-6.87299
亻	-6.87587
事	-6.88651
▁仁	-6.8943
▁二伖亇	-6.90049
傱	-6.90622
伂亇	-6.92315
些伺	-6.93098
▁伲亼	-6.93141
▁7	-6.93601
仅予	-6.93648
伧	-6.94097
予什五	-6.95307
仮仇	-6.95649
▁价亭	-6.96093
▁侍伧亖	-6.97972
争	-6.98176
仉五	-6.98224
▁亴仄	-6.99052
仌	-6.99273
▁亽	-6.99494
付	-7.01395
▁仵伎	-7.01478
▁佖	-7.01522
▁亓亘伟产	-7.01556
▁伲	-7.01839
▁仢亰亇	-7.02146
▁今	-7.02185
▁亩	-7.02894
亩	-7.04128
份	-7.06951
亪	-7.0697
仇伺	-7.09194
▁-	-7.09596
亏什亖	-7.09619
什	-7.10074
▁亓些伺	-7.10703
▁价亖	-7.10792
仉亖	-7.11011
▁亻	-7.11076
亘	-7.11355
亐	-7.11699
▁18	-7.11723
亨	-7.11724
亰亇	-7.11981
▁侍	-7.12078
▁任伿	-7.12481
▁仢	-7.12564
▁些介	-7.12952
▁亪	-7.13969
s	-7.1906
仧	-7.21568
▁仦仼亖	-7.22005
;	-7.23108
仆	-7.23144
亾五	-7.23839
仅仇	-7.23893
▁亮	-7.24465
▁仍	-7.25381
伟	-7.25636
享	-7.25876
▁亓亘伟产于	-7.25944
▁井产仇	-7.27749
▁价俌伧亖	-7.28123
予伽亇	-7.28677
仁	-7.28924
亏亚	-7.28977
伡伺	-7.29233
▁云亼	-7.29234
),	-7.2927
▁价亃五	-7.29559
仌侀	-7.29913
▁仧亵伺	-7.30764
亸	-7.30892
亂亇	-7.31195
仏	-7.31695
▁任仾	-7.32523
亩予	-7.33577
仺	-7.35212
伵	-7.35317
▁价亭仡亇	-7.3646
伆	-7.37184
▁仃仄亇	-7.37523
仢	-7.38114
仯五	-7.38628
亏	-7.3866
▁亣	-7.39542
▁1	-7.4006
▁仮些亗亇	-7.4072
▁仵亪亣仡亇	-7.40986
亹亗	-7.4159
▁仦伡亖	-7.41609
▁侫	-7.41852
▁佰亭亇	-7.41958
些于	-7.42077
")	-7.42474
伮	-7.42558
众	-7.43054
▁住优	-7.43166
▁仦亻亟	-7.4377
▁亃仇于	-7.43909
▁亜	-7.44117
亓	-7.45005
▁些	-7.45491
▁价亳仾	-7.45677
佦	-7.4605
▁仮些亗仌亖	-7.46281
▁任	-7.4631
▁伃	-7.46581
▁亂亨亟	-7.46673
▁2011	-7.47455
侍	-7.47608
伎	-7.47648
▁亓亃五	-7.4816
▁仐事	-7.48225
▁些仆侕	-7.48539
▁亓佛	-7.50002
▁伕	-7.50639
侪	-7.52023
伿	-7.52341
▁伲于	-7.52888
▁侲	-7.52995
伨	-7.53031
▁2	-7.53154
佥	-7.53702
位	-7.54197
▁佽	-7.54491
▁价伟	-7.54615
亭亇	-7.54928
▁仈	-7.55218
仭	-7.55299
▁侼	-7.55593
亻仏于	-7.56679
▁任仾产于	-7.56921
▁亣亭	-7.57013
仕	-7.57213
▁3	-7.57686
▁交	-7.57928
'	-7.58194
互	-7.59161
▁亃交僴人	-7.59327
亹亥	-7.59948
▁仦今伺	-7.59968
仾	-7.60373
▁价佃	-7.60609
予伽仡	-7.61094
▁价俌伧仓亖	-7.61107
伄	-7.61694
▁亂亡	-7.61769
优	-7.61819
▁佭	-7.6209
亊五	-7.62291
▁亓于	-7.62419
亦	-7.6246
▁佢	-7.62677
▁住亝	-7.62765
▁于人伨亗令	-7.62824
倿	-7.63565
亂	-7.63589
伅	-7.63784
%	-7.63845
e	-7.63949
▁5	-7.64591
作	-7.64707
▁亮侻亐	-7.65466
▁佰	-7.65533
▁二仿亇	-7.65992
▁亮亾亟	-7.66045
侘	-7.66251
▁侈亴亟	-7.66574
▁亃交侃	-7.66667
▁亓些亳于	-7.67314
了亐	-7.67359
仼	-7.67698
▁仈仿	-7.67989
▁于	-7.68741
亹人亇	-7.68896
(	-7.69675
亹亗于	-7.69921
▁亷仄	-7.70259
▁些伎	-7.70262
仒	-7.70821
▁亅亪亣	-7.71834
▁倧	-7.72015
亡	-7.72234
▁伇亗云亼亢	-7.72332
▁亓亳侫	-7.72817
▁份仾亇	-7.72899
▁交予伂亇	-7.73141
仞	-7.73256
S	-7.73314
▁亂亃佁	-7.73414
y	-7.73442
亃亖	-7.7374
伉	-7.73786
▁价佉	-7.73792
▁仃仿	-7.74326
▁井产仇伺	-7.74612
▁仫	-7.75118
▁4	-7.7543
使	-7.75553
似	-7.7558
▁佡	-7.75868
侐	-7.76032
仱予	-7.76128
亏什五	-7.76173
产	-7.76722
▁仧仏	-7.7746
▁佡伥	-7.77866
价亖	-7.77958
▁价亭佛	-7.78012
▁修	-7.78085
C	-7.79047
价	-7.79053
▁10	-7.79249
▁予侚	-7.79447
亾亟	-7.80472
▁份	-7.80614
俄	-7.80741
亰	-7.80859
▁仐	-7.81329
▁6	-7.81397
▁亞侶	-7.81432
▁亅争亟亖	-7.819
▁伎	-7.81976
仮亪亇	-7.82017
亚	-7.8209
仓五	-7.82258
仛	-7.82988
佉	-7.83381
▁亃交僴争亖	-7.83382
A	-7.83523
佇	-7.83558
▁云了仆佃亢	-7.84036
▁亓亣予	-7.84112
▁亓侲亾了	-7.84159
▁亅亜	-7.84472
▁交予	-7.84578
▁仱	-7.84641
▁亓佃	-7.85032
亱亇	-7.85033
▁二伐亇	-7.85291
亹人亻仏于	-7.86131
仟	-7.86131
▁亓众	-7.86337
▁倧亾亖	-7.86379
▁亃予些亖	-7.86471
▁2015	-7.86476
▁仦侻亐	-7.87027
▁价伥	-7.87039
▁价亭佛于	-7.87302
二	-7.87834
些亿亐	-7.88394
▁亞伤	-7.88454
▁佂	-7.88482
n	-7.88697
▁予仄伟	-7.88765
亭仡	-7.88824
亿什五	-7.89239
伅伺	-7.89276
伥	-7.89613
/	-7.89786
▁亃交僴争五	-7.90073
仅亪亇	-7.90283
▁侈	-7.90354
伕	-7.90444
▁云仯亃	-7.905
伡亖	-7.90631
▁亓亜	-7.9066
▁价些伫亖	-7.90871
▁价亣亖	-7.90967
仓亖	-7.91323
P	-7.9135
▁17	-7.91492
▁'	-7.917
仦	-7.91823
予亚仕亇	-7.92435
▁仮亃亇	-7.92464
▁伕亣亟	-7.92474
亽	-7.92582
▁亮仒	-7.92764
▁亅传仺	-7.93251
▁住亝亇	-7.93383
▁予亸偼人伮亍亜	-7.93473
伦	-7.93965
伊	-7.94118
▁佂什	-7.94308
俌	-7.94696
亏伽亇	-7.9477
▁仦仺	-7.94922
▁京	-7.95024
▁京于今予	-7.95155
▁仧亾	-7.95206
▁佞	-7.9523
▁予亭	-7.95498
▁亮亟伺	-7.95663
▁15	-7.9585
亩亖	-7.96251
o	-7.96277
侸	-7.96384
▁8	-7.96413
▁12	-7.9646
▁予亥伨争亖	-7.96667
▁侩	-7.97394
",	-7.97667
伵仇	-7.97871
侀	-7.97978
▁京于	-7.9812
▁仫们于	-7.98401
侜	-7.98488
▁亓亘亙	-7.98998
a	-7.99117
▁价些亿什亖	-7.99616
▁侍伧亱亪亇	-7.99639
▁16	-8.0007
"),	-8.00212
▁仫们	-8.003
▁亅享	-8.00493
▁亅众	-8.00507
al	-8.00609
▁仨仩仪仜	-8.01015
▁佂伫	-8.0153
佋亐	-8.02004
予亚仠	-8.02507
▁价亊	-8.02648
2	-8.02765
M	-8.02774
▁仐仄	-8.02812
▁些伎伨争亖	-8.02962
伧亰亇	-8.03094
▁于亡伧五	-8.03172
▁仐們亻了亹人亻仏于	-8.03196
▁亃五	-8.03521
伔	-8.03623
亟伺	-8.03937
▁佃	-8.04047
亹亊	-8.04163
▁亓仆伂	-8.04218
侈	-8.04654
▁价些亳于	-8.04881
▁亓仿	-8.05018
▁亓仏仐事亟会亡伧	-8.05097
▁侼伺	-8.0527
▁仈亭亷仄	-8.05555
▁仸	-8.05636
an	-8.0599
▁仧仏亪	-8.06087
▁9	-8.06422
t	-8.0645
亞	-8.06726
▁井仺伮仇亿亚	-8.06903
▁亓些亿亐	-8.07
▁侬侃	-8.07269
▁亣亭俌伧亖	-8.07353
仍	-8.07522
▁侈俕	-8.07748
▁价仄偢	-8.08357
亹人亻亼仇	-8.08459
▁仦倌	-8.08751
仱仇	-8.0876
亾亖	-8.08921
▁些佛	-8.08933
▁井仄予	-8.09021
▁亅亪亣伧亖	-8.09246
▁亮亭	-8.09343
▁仵亊侑	-8.09416
▁侬僑伿	-8.09433
▁伏	-8.09437
▁予亊	-8.09564
▁仦俔	-8.09567
亟亇	-8.0961
▁倧亳予	-8.09784
▁仧亳	-8.10119
亮	-8.10319
▁云事	-8.10878
▁亣介亹亊	-8.1103
▁伇仃予	-8.11067
亟亖	-8.11119
仅仇于	-8.11329
▁亅侏	-8.1136
伈仠	-8.11436
▁仃	-8.11973
▁仵亪亣予亚	-8.11983
▁亷亳亸仮予	-8.12023
偞	-8.12082
▁仵亪了亹亥产于	-8.12158
▁亃亳	-8.12347
仅亖	-8.12607
俽	-8.12626
仕亊五	-8.12668
仿	-8.1272
予亇	-8.12754
▁Gram	-8.12775
▁侈僧人亨亼仇伺	-8.12811
予亶予	-8.12847
▁Panchayat	-8.13056
▁亴副亿什	-8.1308
▁倧仱俔伧亖	-8.13137
▁亃仯	-8.13216
▁价佇仅仉五	-8.13244
▁亃亳仉亍亜	-8.13326
E	-8.13489
▁仈什	-8.1358
▁云仒	-8.13751
▁亷仄仌亖	-8.13881
▁予事	-8.14023
便	-8.1406
▁仵	-8.14281
了亹亗	-8.14571
▁仈伭亭	-8.14834
倐	-8.15092
▁些作亳仌亖	-8.15542
亟于	-8.15586
▁亳	-8.15754
▁些优	-8.15902
▁亩五	-8.16154
▁S	-8.16216
c	-8.16354
伓亗亩亪亇	-8.16432
▁亴仺	-8.16546
仌亰亇	-8.16648
▁亻仱云	-8.16732
▁井仙仌	-8.16767
▁亽倈	-8.17059
亻亼仇	-8.17235
▁亓仂会	-8.17422
▁俸	-8.17551
▁佳	-8.17623
会仡	-8.17738
亹亥产于	-8.17915
▁亅亳侐介	-8.18043
▁佧	-8.18076
▁仍亊亨亼于	-8.18393
▁偓	-8.18398
▁仮仐仄	-8.18913
俟	-8.19244
▁亪伄	-8.19294
▁仧五	-8.19368
佝	-8.19499
▁伃于	-8.19518
伵予	-8.19767
▁些亊	-8.19906
▁于倖	-8.19972
▁亅伫	-8.20156
▁11	-8.20186
▁20	-8.20239
▁仍予亳	-8.20436
▁云亥仢	-8.20702
▁亞偮	-8.20835
亨仏于	-8.21047
3	-8.21072
些亃侀	-8.21257
▁伱	-8.21401
▁亪亡	-8.21578
▁仵亪亣	-8.21717
佬	-8.21924
▁亴仏佛	-8.22019
▁价倖	-8.22134
▁亅佼亍亩亇	-8.22242
伧仓亭伟	-8.22694
▁亓伔亃	-8.23083
▁二仳	-8.23168
佂	-8.23172
▁14	-8.23273
i	-8.23507
▁伇亗	-8.23582
侰	-8.23698
▁亪仛	-8.23827
▁仝	-8.23905
伲	-8.249
亏伽仡	-8.24945
傊	-8.25381
仓亭伟	-8.25402
俔	-8.25524
u	-8.25643
er	-8.25703
R	-8.25711
▁亅亣	-8.25875
伫	-8.26315
4	-8.26427
仯亟	-8.26434
▁仁们	-8.2646
亵	-8.26908
▁价亃伡亖	-8.26942
ar	-8.27143
▁13	-8.27336
▁价佇仅	-8.27339
▁亽亐	-8.27495
r	-8.27532
伐	-8.28038
倀	-8.28232
以	-8.28272
侲	-8.28291
倖	-8.28317
▁亴伄亟	-8.28434
伐亇	-8.28747
D	-8.29141
]]	-8.29474
▁偫	-8.29597
▁仉亊	-8.29769
▁伃仾亇	-8.29967
亾仅	-8.30026
1	-8.30144
▁仉仂	-8.30167
亿亚	-8.30573
▁亓亳伇	-8.3061
▁亃事	-8.30631
▁亮仩伺	-8.30661
▁俍	-8.3068
伈令	-8.30681
仮仇于	-8.30802
T	-8.3091
B	-8.31025
▁价亭伮伐亇	-8.31108
m	-8.31134
亂亡	-8.31526
k	-8.31564
▁佂什些佛	-8.32032
仉佴	-8.32089
▁亅伫亟	-8.32099
余亜亟	-8.32114
侖	-8.32173
亝亖	-8.32253
▁付亊	-8.32362
▁側	-8.3249
▁仢侀	-8.32492
▁份事	-8.32496
▁予俔	-8.32722
▁价亦	-8.32786
▁佭亨亟	-8.32812
偃	-8.32921
▁仈侘	-8.33565
▁C	-8.33569
俸	-8.33598
▁侬	-8.33613
些五	-8.33665
佽	-8.34049
▁亓亘伨亖	-8.34132
▁P	-8.3419
▁些众予	-8.34376
亹于	-8.3446
▁些亭亇	-8.34493
▁云亭会些	-8.3456
享亟	-8.3473
亰仡	-8.34792
O	-8.34818
▁亓亘	-8.34946
▁仐仺些仇	-8.35364
▁亓仏似些仄伺	-8.35619
▁仮些亗	-8.35812
了亹亗于	-8.35934
▁亓些	-8.362
偓	-8.36209
▁伲争予什亖	-8.36225
▁井亃仉	-8.36244
側	-8.36256
仙	-8.36617
▁亻仞仡	-8.36803
▁价仇	-8.37167
▁[[	-8.37182
亶	-8.3729
亩亪亇	-8.37395
▁侈佃	-8.37596
▁佤亳	-8.37646
▁亂亜	-8.37827
▁亓侈	-8.38026
▁仧仏亙	-8.38132
伈仕亇	-8.38204
▁B	-8.38432
▁于亡	-8.38517
仌仓亭伟	-8.38663
▁二人会	-8.38767
▁仍享亮仺亻仏于	-8.38887
井	-8.38898
▁佤	-8.3897
▁价佴	-8.38986
▁亷亸	-8.39015
会亊五	-8.39107
▁亴仏亙	-8.39199
▁儝	-8.39233
仐事	-8.39346
亊亇	-8.39355
b	-8.39415
仯亖	-8.39533
俬	-8.39605
▁云亳	-8.39628
▁A	-8.40021
产于	-8.40107
亻亼于	-8.4011
▁二亍些伺	-8.40186
▁亅亊	-8.40467
仹	-8.40532
▁亓予	-8.40663
▁予亦	-8.40719
値	-8.40937
▁亅亟亍人仌	-8.40946
亯	-8.41627
▁价亃仂	-8.41709
伅亖	-8.41812
▁信	-8.41939
▁位	-8.41945
伕亳亇	-8.42133
伴	-8.42263
▁亮亟	-8.42313
▁价亳倐亇	-8.42372
估亐	-8.42671
▁云仺	-8.42712
予什亰亇	-8.42763
▁些仆	-8.42847
▁井亭今了	-8.42863
▁份仺	-8.42878
▁亪仞倾	-8.42928
伐仡	-8.42942
促	-8.42999
予亚令	-8.4307
债	-8.43149
俜	-8.43182
▁亮互	-8.4319
▁价亟了	-8.43249
▁云仌亟	-8.43306
仌亟	-8.43462
卢	-8.4349
了亇	-8.43528
亪亇	-8.43596
▁井亸伂	-8.43849
▁伲争	-8.43953
▁亃代于	-8.44005
▁俖	-8.44231
亍	-8.44267
en	-8.44639
5	-8.44689
▁亅佉	-8.44819
▁仦亻亟佃	-8.44982
▁亽人	-8.45122
▁予僂亾	-8.45133
▁亱	-8.45155
些介	-8.45213
▁19	-8.45243
L	-8.45357
d	-8.45505
F	-8.4557
▁亷亸亹人亇	-8.45859
▁亴些	-8.45889
▁仐仏	-8.46133
▁价仄亨亟	-8.46528
▁亓伄仉亟亖	-8.46653
▁京亭亐	-8.46769
▁云亷	-8.47167
▁仈仓	-8.47373
仄亇	-8.47571
in	-8.47659
傒	-8.47687
▁of	-8.47837
▁侺	-8.48067
亩予伂亇	-8.48136
▁亂亜仕亇	-8.48226
▁伋	-8.48228
▁偃	-8.48331
▁仸亜亟	-8.48375
仉亟亖	-8.48432
▁任产	-8.48522
H	-8.4907
,000	-8.49128
▁些亳	-8.49491
兹	-8.49499
▁亓仆仉亖	-8.4958
▁云众	-8.49698
亿伽仡	-8.49797
I	-8.49877
▁亓亦	-8.49931
係	-8.49991
▁云仇	-8.50129
伇五	-8.50133
俎	-8.50158
▁价倖伟	-8.50266
▁井亊	-8.50315
▁亓佉	-8.50346
今予	-8.50603
▁仮仒	-8.50607
▁亓健亅伺	-8.50781
▁予仄	-8.50818
亝于	-8.50838
▁仉亚仅亥	-8.50871
▁伇云亟	-8.5096
ur	-8.51022
予亶亖	-8.51068
任	-8.51137
▁亃倾	-8.51275
▁仃仄	-8.51299
佘仕亇	-8.51314
h	-8.51332
▁二亍亦	-8.51457
仫	-8.5172
▁亪亭	-8.51741
▁亮亭亇	-8.51819
們	-8.51901
▁伲仄	-8.5207
▁仐事伧亖	-8.521
▁M	-8.52286
亹争	-8.52444
伃	-8.5246
伀	-8.5249
▁佔	-8.52512
亟五	-8.52584
▁任伿于	-8.52674
▁二亇	-8.52705
▁亮亭亯亰亇	-8.52788
▁佭伟	-8.52797
or	-8.52902
亴亟	-8.52985
▁仅	-8.53211
▁予亭会	-8.53223
▁亓享	-8.53235
▁仫佃	-8.53242
▁保	-8.53286
佷	-8.53446
▁侫仮伺	-8.53676
▁价亭亨仏于	-8.53683
仇亇	-8.53745
▁亽亥	-8.53842
▁仈佚亪亇	-8.54049
▁仐仺些仇亇	-8.54054
▁伕仏	-8.54079
▁亓亜亹享伧亖	-8.54082
▁亪伄伮亗	-8.54224
▁亓俤五	-8.54371
▁亂亃俶亳	-8.54455
p	-8.54493
am	-8.54592
▁亘亟	-8.54706
▁亽争五	-8.54749
▁亞仿	-8.5481
N	-8.54823
▁亂亃仓亖	-8.55019
▁伇云	-8.55346
▁价亃侀	-8.55361
l	-8.55506
仉亟	-8.55604
亼	-8.55705
▁亪亜	-8.55712
f	-8.55754
▁侳	-8.55762
6	-8.55835
亿伽亇	-8.55866
▁亓亳亴亟亖	-8.56039
▁二仇份	-8.56126
伮亖	-8.56227
伲于	-8.56311
▁井仾	-8.565
▁仵亊	-8.56831
佐	-8.56839
▁傱	-8.57011
▁仍些侐伺	-8.57135
▁伏亨	-8.57259
亻佬伺	-8.57291
亳亇	-8.57424
佘仠	-8.57495
▁佂亹	-8.57548
▁亂仛	-8.57786
偛	-8.57842
▁亞伾	-8.57842
些亦	-8.57964
▁些亭	-8.58028
▁)	-8.5831
20	-8.58547
▁佢伺	-8.58571
▁二仇亹人亇	-8.58645
▁仨	-8.58659
▁亓亭	-8.58914
些亭亇	-8.59004
▁价亊亇	-8.59046
▁仵亊伛	-8.59093
g	-8.59132
▁亷俔	-8.59465
▁倬	-8.5948
佰	-8.59566
▁仦伺	-8.59642
▁亅亗	-8.59644
▁30	-8.59751
▁价佇仅仉亖	-8.59787
▁佃会	-8.59788
伂仡	-8.59926
▁卡	-8.60046
仉亊	-8.60137
▁亊	-8.6018
▁亓亃侀	-8.60286
仓亟	-8.60326
争亖	-8.6034
倇	-8.60402
▁亓伪	-8.60468
亏亚仕亇	-8.60542
▁二佛	-8.61117
▁仦仾予什亖	-8.61668
▁亓众伧五	-8.61782
▁亂予	-8.62161
▁仍人	-8.62247
▁云亡	-8.62368
亹亥产仇	-8.62426
x	-8.62945
佚	-8.63142
亹人亝	-8.63215
▁侰	-8.6338
▁井亾亘	-8.63486
▁二仯伐亇	-8.63529
▁云亃	-8.63606
▁价亭佝伺	-8.63828
▁京亭	-8.63887
予伽亊五	-8.63958
ri	-8.64119
▁二亣	-8.6433
▁仓	-8.64419
▁云于介	-8.64461
▁亽亊予	-8.64546
▁仢亖	-8.64577
▁仉仮仇	-8.64636
▁些伟	-8.6464
▁亷仄亇	-8.64719
▁仸亊	-8.64885
▁偠	-8.64923
▁亂亡伧亖	-8.64969
▁些亭亻仏于	-8.64979
佈	-8.65019
▁25	-8.6502
▁亓亣亖	-8.65025
仐	-8.6517
on	-8.65324
▁亅债亥	-8.65455
▁亮仒于	-8.65488
伽	-8.65545
僜	-8.65721
▁亅亾	-8.65915
▁价仺亣	-8.65918
▁仉亭于	-8.65949
)"	-8.66156
儀	-8.66213
▁伕仯亃	-8.66473
▁亪亡佛	-8.66528
们	-8.6667
▁仨亖	-8.6706
▁井伧	-8.67067
▁二五	-8.67191
▁仦予	-8.67375
修	-8.674
▁付于亷亙	-8.67444
▁伇亏	-8.67476
▁伃亗伺	-8.67477
▁亃佁	-8.67524
▁亪人侐	-8.6756
俧	-8.67622
▁伇于亳	-8.6765
▁亞佩	-8.67673
▁予亗	-8.67698
亲	-8.67719
G	-8.67789
▁仉亣	-8.68125
▁亻俄	-8.68226
亏亶予	-8.68246
亨亼仇	-8.68292
▁仐倹予	-8.68339
▁予伿	-8.6845
▁价佛令	-8.68453
▁仧亾伂	-8.68479
▁2008	-8.68501
▁H	-8.68557
0	-8.68786
le	-8.688
▁伲争伧亖	-8.68905
▁仦伉仄	-8.691
▁仄	-8.69106
仡令	-8.6916
▁二仇伂亇	-8.69261
▁亪伄伨予	-8.69296
伬于	-8.69396
会亡	-8.69565
▁予介	-8.69694
亜亟	-8.69711
▁亂亟侇	-8.69929
▁些优仅予	-8.70093
亹人	-8.7016
▁仭	-8.70193
▁亓亜亹享	-8.70216
▁些亜些	-8.70235
侣	-8.70459
仉侀	-8.70661
▁价亳倐些于	-8.70824
▁亞仹	-8.70957
▁仦仱俵	-8.70962
▁云予	-8.711
仱亖	-8.71256
▁亣亭仉做今予	-8.71335
▁亮値	-8.71521
円	-8.7155
▁仧亳侈伇	-8.71658
伮五	-8.71684
仇于	-8.7177
▁亞儼侐伺	-8.71774
▁仐亣	-8.71808
亹亜	-8.71809
▁"(	-8.71905
倫	-8.71912
亏什亰亇	-8.71997
▁仐事亟亇	-8.72021
ing	-8.72035
亃亇	-8.72044
▁仝亾亟	-8.72044
亿什亖	-8.72053
▁些伎伧亖	-8.72153
▁仧亾伅仯亟	-8.72185
佤	-8.72356
▁价伉亱伟	-8.7244
▁亮亭亯亱仇	-8.72463
些亳	-8.72514
了亹亥	-8.72604
亄	-8.72611
▁亣仏	-8.72652
▁仸仺	-8.72737
佘令	-8.72857
伈亢	-8.72923
▁亅亪亣予什亖	-8.72961
亏亚仠	-8.7303
▁二仛亣亟	-8.73317
▁京亭亶亩亳	-8.73403
▁仃仄仮予	-8.73614
伪	-8.73624
▁亞亟	-8.7366
▁剏	-8.7375
▁亞俀亇	-8.73885
▁亃事亘	-8.73969
▁亴亻偿	-8.74006
▁僵	-8.74019
▁亂亨亟仮仇	-8.74157
亰产	-8.74241
▁二佴	-8.74292
▁佖仙人亇	-8.74296
倱	-8.7433
伊伆	-8.74451
▁亮仏	-8.74457
▁他	-8.74459
些伎	-8.74499
亿亶亖	-8.74505
▁(19	-8.74689
▁亽人予什亖	-8.7472
_	-8.74801
▁于人伨亗	-8.75103
佋	-8.75118
▁任仾俥伺	-8.75165
▁亅伧侇	-8.75248
▁亓人亝	-8.75285
▁仐侰	-8.75382
▁云亥亇	-8.75473
▁二仛	-8.7552
▁些亊仡	-8.7568
偁	-8.7568
▁仉人亃事	-8.75693
亭仡亇	-8.75745
侩	-8.75844
▁亃仆	-8.75862
▁仧仏佛	-8.7603
▁价亊仌亖	-8.7614
▁二仛会	-8.76277
俞	-8.76314
▁亾	-8.76333
▁伲亼佃	-8.76454
K	-8.76463
▁予亭仉	-8.76539
了亚	-8.76547
▁仕	-8.76579
▁仦亻佦伺	-8.7661
▁亞佺亇	-8.76643
▁亩些亳	-8.76644
▁仍予亳亇	-8.76676
佛于	-8.76802
▁价亟侽	-8.76835
仅予伂亇	-8.77265
V	-8.77331
8	-8.77358
▁亷亸亹人亻仏于	-8.7756
偳	-8.77567
亹亪亣	-8.77605
▁予亊亖	-8.77646
佝伺	-8.77799
7	-8.778
▁付仄	-8.77854
▁仮亃	-8.77987
▁亅亃仉	-8.78034
at	-8.78205
伱	-8.78466
亿	-8.78478
▁0	-8.78658
▁亓伄亟	-8.78684
▁云亸	-8.78739
▁侭	-8.78864
▁些亳亱互	-8.78991
▁亅亟亍人亝	-8.79028
▁佖偷亖	-8.79075
▁仍亊佛	-8.79108
亃侀	-8.7926
▁于人伨亗伵亳伺	-8.79277
▁交偞亟五	-8.79327
▁仧仏佝伺	-8.79444
▁仦仼五	-8.79517
▁D	-8.79574
仁交	-8.79701
仪	-8.79758
亃五	-8.80075
伞	-8.8034
佳	-8.80366
▁仨仩仾	-8.8041
亱予	-8.80439
▁G	-8.80493
伸	-8.80558
▁亃交兕	-8.80618
伝	-8.80629
佁	-8.80805
as	-8.81009
▁仍享亮仒	-8.81026
▁亅了	-8.81163
▁伲伺	-8.81274
▁亅仞	-8.81368
▁侍佥	-8.81462
▁井仺亣	-8.81579
▁今儘	-8.81718
亹亃侀	-8.81747
▁仍予	-8.81767
些亩予	-8.81835
▁21	-8.82139
倰	-8.82198
▁二仇仠	-8.8223
▁仈亭些伺	-8.8246
仕产	-8.82495
佭	-8.82549
▁亅以亟	-8.82648
佋亚	-8.82709
亹人亻亼于	-8.8277
▁价亭了	-8.82879
▁亣予亣	-8.82932
▁些佛于	-8.82946
▁仉亥	-8.83008
▁2009	-8.83111
▁仸亗	-8.83197
偈	-8.83261
▁井亭	-8.83269
亃亳	-8.8349
▁仨仩仼亖	-8.83547
▁24	-8.83566
▁享	-8.83696
is	-8.8373
伡予	-8.83933
仝	-8.84159
▁侈些	-8.84175
ed	-8.84199
▁价五	-8.8423
▁二伔	-8.84305
▁R	-8.84484
▁伇偠	-8.84617
亱仇	-8.84642
▁亃亏亐	-8.84681
▁亓亣予仮予	-8.84694
|	-8.84734
▁价仱	-8.84822
▁T	-8.84826
▁亣介亹亊亇	-8.84833
▁亷亸亹人亻亼仇	-8.84888
仮予伂亇	-8.84934
▁亞倰	-8.85164
re	-8.85386
▁仵优伙伓	-8.85495
▁2010	-8.85524
侏	-8.85565
亹人仌	-8.85658
▁井亟伺	-8.85725
]	-8.85828
仅伺	-8.85848
▁佰伺	-8.85981
▁亃交仞予	-8.86013
▁22	-8.86073
▁典	-8.86092
刻	-8.86138
▁亓亭亻亖	-8.86163
侃	-8.86261
ra	-8.86393
▁亓些亭享亟	-8.8657
▁修伂	-8.86604
偢	-8.86699
▁伲争予什亰亇	-8.86745
▁仵优	-8.86752
亩五	-8.86893
▁亂五	-8.86905
▁亅亣伂	-8.87182
仆伂	-8.8721
争五	-8.8727
了亹人亇	-8.8733
▁侫伫	-8.87385
儣	-8.87389
▁2007	-8.87591
倾	-8.87615
▁=	-8.87624
侂	-8.87633
▁俲	-8.87676
仅仆	-8.87695
▁亃云于	-8.878
▁任僰	-8.87805
▁些仞仡	-8.87849
▁些仞亏	-8.87851
▁二仛亣	-8.87885
▁F	-8.87936
▁仐予僭	-8.87965
佡	-8.88105
▁二値	-8.88123
10	-8.8813
倨	-8.88245
▁予众仯	-8.88302
亨佬伺	-8.88577
▁亂亡亹亜	-8.88653
佮	-8.88708
倹	-8.88742
▁井介	-8.88829
伧仇	-8.88878
▁井亸	-8.88893
▁亮亟亾亖	-8.88895
▁仧仱	-8.88925
今仇	-8.89235
佔	-8.89474
▁亓交仄	-8.89501
▁亃享	-8.89557
▁侈亣	-8.89665
倬	-8.89682
00	-8.89738
▁亓些亭仡	-8.89772
▁亘	-8.89808
▁亂亃	-8.89836
▁亓侲亾伵	-8.90051
佴	-8.90088
予伺	-8.90091
▁亣亗	-8.90124
▁亂仂	-8.9014
俤	-8.90258
▁仐事亟	-8.90404
你	-8.90494
▁二個伴	-8.90499
▁仁事	-8.90666
▁仫侑	-8.90749
us	-8.90802
▁二佛刞亭	-8.9087
▁L	-8.90949
▁仍享亂亡	-8.90972
▁亴亵	-8.91322
▁伥	-8.91446
佢	-8.91525
伓	-8.91655
▁亓优	-8.91738
▁亪伄仡亇	-8.91757
▁E	-8.91791
▁亞偄伺	-8.91848
伈仜	-8.9192
▁些亾伥	-8.91946
▁亪伄会	-8.91995
▁伏倿	-8.92018
▁亮亭仮亐	-8.92082
▁仵事伵俔	-8.92123
▁伕侏	-8.92194
▁些亾	-8.92286
了亹人亻仏于	-8.92355
▁侩仇	-8.92403
▁价享	-8.92414
▁仍予亾亖	-8.9248
▁价些亿亐	-8.92498
▁2006	-8.92725
▁佖亾	-8.92786
▁伇亗云亼	-8.92878
亂予	-8.92925
▁井亊亖	-8.93035
佖	-8.9305
▁佳侀	-8.93069
▁云亣亙	-8.93195
▁亓些介	-8.93272
▁价些亭仡	-8.93312
估	-8.93322
▁仈佚予	-8.93612
▁仮伄	-8.93614
▁亓亘佛	-8.93624
▁仵优亖	-8.93704
▁亓亩些于	-8.93751
▁佖仙亗	-8.93919
▁予亭亃亹人亻仏于	-8.9396
▁仵事仉亖	-8.9417
▁亂仛些于亇	-8.94181
伂亊五	-8.94182
▁仮仐仄仌亖	-8.94183
僣	-8.94211
▁云仂仉	-8.9423
▁俸亃仂	-8.94291
▁予亥	-8.94307
il	-8.94312
▁23	-8.94389
▁仍仹	-8.94453
亅亜	-8.94581
ic	-8.94743
▁伇仱伇亾	-8.94784
佘仜	-8.94948
仸	-8.95017
▁些亗	-8.95054
▁亮仺	-8.95085
▁仉做	-8.95126
亸亇	-8.95126
▁仦亻亟些仔	-8.95166
▁亓事	-8.95194
▁N	-8.95222
▁价佻仺	-8.95236
▁付亊亖	-8.95295
▁价亊亏什亖	-8.95501
▁二亾	-8.95543
俻	-8.95558
▁井侏亗	-8.95588
▁付亣	-8.95605
伧亟亖	-8.95645
俍	-8.95724
▁伲争伧亰亇	-8.95855
仃	-8.95863
▁亓以了亹人亻仏于	-8.95917
仌亳	-8.95939
19	-8.95949
ol	-8.9598
▁云了什五	-8.9599
▁价仱伪些	-8.96069
it	-8.96155
▁formula	-8.96273
仯仅	-8.9636
▁亅亭些	-8.96397
傈	-8.9642
▁些亳亱仺	-8.96447
亶予	-8.96451
俆	-8.96509
佇亳	-8.96852
▁伇儋	-8.96973
▁井仄亻五	-8.97014
▁予享亴仅予	-8.97144
亷仄	-8.97188
▁亃仉亳	-8.97376
▁仮亷亸	-8.97408
▁亻亾	-8.97538
佺	-8.97927
人亇	-8.97977
云事	-8.98002
▁些伉	-8.9814
▁些亟于	-8.98236
▁佢伿	-8.98444
▁佭仭伮亟	-8.98496
▁亅亳	-8.98521
▁亂亜伂	-8.99
▁价佛仠	-8.99028
倻	-8.99077
▁住	-8.9908
▁亓亳	-8.9915
傘	-8.99203
▁价享伆	-8.99278
▁亪仺	-8.99286
▁予争	-8.99389
仕产于	-8.9943
▁仦仾予亐	-8.99443
▁侍仉亖	-8.99626
▁价些	-8.99722
▁井仺伮仇仱予	-8.99726
▁仉人	-8.99752
▁亓俽于	-8.99805
▁仫偋	-8.9983
▁仦亜	-8.99851
ch	-8.99871
th	-8.99973
▁仢仙亗	-8.99999
▁亅亟亍人亝亹人亻仏于	-9.00159
価	-9.00353
会些	-9.00408
▁二亣仱予	-9.00492
▁亓亃仂	-9.00513
些亭	-9.00538
亻亼仇伺	-9.00547
▁价亳	-9.00547
el	-9.01002
▁佳五	-9.01074
▁云亵	-9.01348
▁亃事些伺	-9.01411
▁仍亊些亜伴	-9.01491
信	-9.01581
▁仮亣亾	-9.01622
▁亓些伫五	-9.0164
st	-9.01713
亭亊五	-9.01718
▁亓亣	-9.01796
▁云傞亭	-9.0181
▁仍俟伴	-9.01846
▁亞伤亹亗	-9.02095
僫	-9.02106
亝仇伺	-9.02164
▁仮互	-9.02272
▁亅佉任倐伺	-9.02411
▁亪伄伮亊	-9.02411
▁仮仐仄仌五	-9.02442
依	-9.02695
▁the	-9.02858
俥伺	-9.02869
▁偽	-9.02999
個	-9.03154
▁些伇亣	-9.03154
▁仮偪	-9.03488
▁任人	-9.03519
▁仍亊	-9.03556
▁亃仅亾	-9.03645
es	-9.03662
▁亪什	-9.03739
伽亇	-9.03816
▁仵亪亙	-9.0389
▁亣亭云亸亇	-9.04095
仡亐	-9.04125
▁亅亟	-9.04144
▁亅佋事了仞予	-9.04248
▁仦亗	-9.04323
云五	-9.04337
▁亷亥	-9.04371
侻	-9.04371
ation	-9.04503
伧仂	-9.04547
▁亻亚	-9.04623
▁予众	-9.04713
▁价亟	-9.04747
仌仂	-9.05145
▁付侂亹亗	-9.05172
▁伕于	-9.05247
▁今債	-9.05249
▁价仄偢伧五	-9.05258
▁仐亳	-9.05331
作伺	-9.05344
▁亃亏	-9.05392
亣亖	-9.05503
▁亅亗亇	-9.05522
▁[	-9.05528
▁亽人予亐	-9.05545
▁价仏亙	-9.05606
▁亪伄亝	-9.05607
些仱予	-9.05708
▁价倖亟	-9.05776
了亖	-9.05882
些亩亖	-9.05934
▁亓亳亴五	-9.0603
▁仉仆了	-9.06401
▁亓伄仉	-9.06566
▁2001	-9.06669
9	-9.0669
亨亟	-9.06714
亹享	-9.0672
仩	-9.06727
▁价亳亝	-9.06922
▁些亜	-9.07083
▁亂债亐	-9.07114
侰伺	-9.07219
▁仦仾予伽仡	-9.07246
▁二仛亃	-9.07257
▁I	-9.0728
▁俖亳	-9.07355
▁亣亭仉做	-9.07412
予什	-9.07551
▁亓伐云亣	-9.07564
倛	-9.07566
了什五	-9.07656
予伽仡亇	-9.07686
做	-9.07983
▁亓伄	-9.08004
亹亗仇	-9.0812
▁仉事	-9.08318
▁仉亚仅亥佤亳	-9.08394
▁井享	-9.08406
▁仦亳侐	-9.08487
亗亇	-9.08574
▁2014	-9.08679
▁亣介亹亊仮亪亇	-9.08706
亹作伺	-9.08756
刷伺	-9.08938
▁仉仙仂	-9.08967
▁仧冃	-9.09104
▁仉亅亳仡伄亙	-9.0912
俥	-9.09123
凖	-9.09252
佑	-9.0931
▁付于亷	-9.09321
亟俤五	-9.09344
▁住优伧亖	-9.09367
▁亓仆	-9.09367
▁26	-9.09411
▁仦仒亖	-9.09529
▁仸伄	-9.09533
了什亖	-9.09551
侾	-9.09566
▁予亸	-9.09569
▁仵亊了	-9.09575
云亖	-9.09622
云众	-9.09799
▁云伿仄	-9.09829
儝	-9.09842
凇	-9.09891
什五	-9.1004
▁佂冃	-9.10125
傠	-9.10127
吮	-9.10325
仆亇	-9.1046
▁佐	-9.10495
亭伟	-9.10496
▁亓些亿什五	-9.10498
ad	-9.10577
▁1,	-9.10607
些优	-9.10634
▁27	-9.10672
▁亓亾	-9.10757
ro	-9.10761
▁儣	-9.10775
▁亣亗仌五	-9.10791
▁亓亃伡亖	-9.1082
▁俸仞	-9.10844
仱云	-9.10899
▁亓人会	-9.10917
今五	-9.10919
▁仵亊伍仇	-9.10965
伅五	-9.11001
▁侫亃佇亳	-9.11074
▁伕仉	-9.11093
▁100	-9.11116
▁任产仉佴	-9.11183
冫亳伺	-9.11199
▁些伎仅仇	-9.11536
▁价亃	-9.11573
▁井俄予	-9.11582
仐仄	-9.11751
▁亻侘了	-9.11895
▁予仆	-9.11927
▁价亭亹亩亖	-9.12057
佮仾	-9.12112
▁你	-9.1222
ul	-9.12307
亏亚令	-9.12373
▁佷	-9.12429
▁伇亾	-9.12444
今亪亇	-9.12528
▁亴些五	-9.12554
亹伺	-9.12559
▁任倐伺	-9.12607
▁些仞伉	-9.12821
▁今亳	-9.12821
▁侫今交	-9.12822
侳	-9.12905
▁价仿	-9.12924
仮予仠	-9.12933
ir	-9.12954
余	-9.13186
▁佖仛	-9.1324
些亃佱予	-9.13309
仅仆伺	-9.13312
些仇	-9.13315
▁价佲	-9.13319
伨予	-9.1334
▁28	-9.1347
亴仅	-9.13708
▁今仛亇	-9.13714
仱亟	-9.13719
傅	-9.13775
▁K	-9.13778
▁亂僃	-9.13875
▁伕仄	-9.13931
▁仈侅	-9.14217
▁伱仒	-9.14271
仑	-9.14491
▁仵亊伺	-9.14598
▁付亳侐亾亟	-9.14644
?	-9.14677
▁侫互	-9.14768
份仾亇	-9.14795
僛	-9.14934
▁份亣	-9.15005
云亳	-9.15013
偗	-9.15077
▁井享亟	-9.15236
▁侈倘仓亖	-9.15311
▁亜伇侐伺	-9.15361
仱予伂亇	-9.15377
予五	-9.15444
会仠	-9.15517
▁交予侦亾亟	-9.15819
▁价伔亃	-9.15839
今伺	-9.15876
▁2012	-9.16008
▁伇仇些亾	-9.16115
兽	-9.16148
▁亻伄亝些	-9.16154
亹亊仉佴	-9.16224
▁伕亝予	-9.1623
▁仍佤仇	-9.16313
▁份仼亟	-9.16381
▁予众亃	-9.16397
亩予仠	-9.1661
▁伇倾	-9.16622
▁井俥伺	-9.16704
U	-9.16744
▁些佝伺	-9.16894
▁佖仒	-9.16965
仮五	-9.17006
▁云亳伕	-9.17023
傫	-9.17085
亹亥产	-9.17144
▁佂亹仐事	-9.17179
▁二仇令	-9.17289
▁价亟了仌亖	-9.17356
▁价仏	-9.17365
▁侼仉亟	-9.17386
▁亃倚冚伺	-9.17387
仉亰亇	-9.17428
伽仡	-9.17434
z	-9.17447
▁今佌僸	-9.17475
▁俖亳仌亖	-9.17495
▁偁仧	-9.17526
um	-9.1763
▁傃	-9.17708
▁:	-9.17745
▁佡似	-9.17785
▁2005	-9.17807
▁云予五	-9.17841
仌佱仇	-9.17926
▁仸亥	-9.17941
侦	-9.17944
▁价亭佛仇	-9.17975
亃事	-9.1799
▁今僇	-9.17991
倉	-9.18279
▁伇們侈伇	-9.18314
▁亪伄伮亊亝了	-9.18315
▁京于今仇	-9.18359
予亶仇	-9.18427
亅亣	-9.18448
些亃佱仇	-9.18463
▁予争亊	-9.18469
▁价亭亨亼仇	-9.18616
▁佧人倚事	-9.18616
▁云以	-9.18669
▁亣介	-9.18754
亹人会	-9.18831
停	-9.18843
仄予	-9.18977
▁亓云	-9.1902
伧仇伺	-9.19025
50	-9.19045
▁仱側	-9.19123
▁亃交	-9.19155
▁价仄	-9.19162
▁仃佚亇	-9.19229
▁价伆侫	-9.19269
▁亓亣予仮仇	-9.19432
佘亢	-9.19497
▁W	-9.19528
▁亷佇	-9.19536
▁价亭了亱亇	-9.19547
▁伋亖	-9.19559
亳亸	-9.1959
▁予亊伝介	-9.196
▁仐仂	-9.19646
▁井伩	-9.19678
▁亪亸	-9.19712
▁伏了	-9.19714
▁价侫	-9.19803
▁亅亪亣予亐	-9.19809
仈	-9.19923
位予	-9.20007
▁仉亚	-9.20019
▁亂亵伺	-9.20033
15	-9.20082
亊亖	-9.20096
▁仨仩仼五	-9.20152
佅	-9.20254
▁伲亖	-9.20277
▁井仺亙	-9.20319
▁佂什伆	-9.2038
估亚	-9.20475
▁仮伫	-9.20491
!	-9.20594
▁些仞佉	-9.20691
et	-9.20826
▁份亣伧亟亖	-9.2089
▁亃亭	-9.20924
▁今倜	-9.20996
佋什亖	-9.21121
▁亣伥	-9.21174
侑	-9.21203
了亱亇	-9.21343
些仔	-9.21542
▁些亭亊	-9.2164
▁云仄	-9.2169
仉亥	-9.21764
▁亓什	-9.21845
▁亅仯	-9.21886
▁伇佇	-9.2193
▁亪亡今仇	-9.2196
▁仦些亸	-9.21989
▁亻仱	-9.22235
▁仦亴亾亟伺	-9.22308
▁井亭些	-9.22555
▁伇亗亇	-9.22588
亳侫	-9.22674
亻亼	-9.22856
▁佃了	-9.22874
▁价些亾五	-9.22897
▁侈倘亖	-9.22952
▁些亜些亘	-9.22956
亩仇	-9.23001
▁2004	-9.23003
▁二亣仱仇	-9.23021
▁亓倖	-9.23025
▁井亭今亨	-9.23164
un	-9.23166
伧亭	-9.23224
俕	-9.23261
侯	-9.23423
▁免	-9.23488
亨亼于	-9.23518
▁亅佋事了仞予仌亖	-9.23524
侐争	-9.23598
▁亓亘了	-9.23625
佌伺	-9.23795
▁2013	-9.23798
云亏仄亇	-9.23891
▁仅儤亸	-9.23918
▁亃伖享亟	-9.23992
▁仮些亗仌五	-9.23998
▁二亍仇	-9.24028
▁亃事些仱予	-9.24194
▁仉伥	-9.24231
ter	-9.24277
▁仝仞	-9.24288
▁仸仏	-9.24413
▁付亊佋亐	-9.24432
亃佱予	-9.24432
▁伋佛	-9.24521
▁伲仱亗	-9.24535
▁佔五	-9.24667
▁亪亜亟亳侫	-9.24779
▁2000	-9.24804
偼	-9.2482
仵	-9.24868
▁亓些仔	-9.24885
刡	-9.24914
伵亳	-9.24917
▁仵亊伉	-9.25049
▁付俹	-9.25198
▁亅亳些亱予	-9.2522
▁任仼亭仡亇	-9.25344
伖	-9.25351
▁亅亟仴人	-9.25391
▁c	-9.25482
偆	-9.25536
▁亃事些	-9.25559
侀亇	-9.25572
▁云亭	-9.25947
▁井亟	-9.26042
▁s	-9.26068
▁亅亾伟介	-9.26153
▁29	-9.26164
▁仍亜亝	-9.26195
▁井亭今了亹亗	-9.26209
▁价亟佇亳	-9.26243
▁亅伧	-9.26442
▁亃仄	-9.26471
▁价仺亣伧亖	-9.26501
▁伇仪	-9.26553
30	-9.26568
倲	-9.26627
▁些俧予	-9.26739
▁亽争亖	-9.26803
億	-9.2686
12	-9.2687
什亖	-9.26946
▁佰亳	-9.27123
▁亽位伽云亼	-9.27125
▁价亝伎亟	-9.27288
▁亃交优亖	-9.27312
▁亓伄伴	-9.27364
來	-9.27368
▁亻享	-9.2738
▁亅亟亍人会	-9.27438
▁价倕	-9.27519
▁仁亩亳亸	-9.27583
▁亅仏佃	-9.27693
▁二亍些	-9.27741
▁亓享仅仆	-9.27832
▁亓会亊五	-9.27847
▁50	-9.27888
俼	-9.28027
▁亓侲亾伵仉亖	-9.28074
▁京亭侵亐	-9.28111
侄	-9.28126
▁仵亊伛享亟	-9.28226
▁亣亭亝倾	-9.2826
予伽伵仇	-9.28366
▁予仾	-9.2839
▁仉亾	-9.28399
件	-9.28427
▁仦伿	-9.28452
▁伇佇亳	-9.28455
▁予亾云	-9.28558
▁亂亃亱亇	-9.2887
亅亳	-9.28887
偠	-9.28952
▁二亥	-9.28976
予亳	-9.29088
▁今予仇	-9.29133
▁劃	-9.29159
▁亃偮	-9.29193
僾	-9.29299
▁2016	-9.29396
▁b	-9.29416
▁予仇	-9.29464
17	-9.29636
j	-9.29688
今亖	-9.29698
伧亰产	-9.29699
-19	-9.29707
▁亅众仅伫伡伺	-9.29784
W	-9.2998
▁亓伐	-9.30013
▁仦伴	-9.30088
予亚亢	-9.30104
▁亓以了亹人亇	-9.30175
亹人些于	-9.30237
▁侈佃仅仇	-9.30367
▁亃会些	-9.30506
▁任仼亭佛	-9.30684
▁价亡	-9.30768
仌侀亇	-9.3077
▁予亳	-9.30888
亟仒	-9.3101
▁仫侂	-9.3105
▁价亳佥	-9.31077
亾亊亇	-9.31084
仔	-9.31169
▁价于份	-9.31264
亂产	-9.31307
亹侏	-9.31316
▁价事	-9.31366
▁价仱云	-9.31379
▁伲仿	-9.31523
▁仧亜	-9.31621
亏伽亊五	-9.31623
▁亓亡	-9.31689
俒	-9.31769
仴	-9.31779
▁40	-9.31839
▁仐亡	-9.31919
亴五	-9.31948
▁侬僿	-9.32004
侚	-9.32013
▁云了倪伎	-9.32117
▁亅亟亸	-9.32136
▁亓亳仁亏	-9.322
亻佬亿亐	-9.32203
▁仍俯	-9.32286
于亇	-9.32287
▁伲仡些亳会	-9.3229
仅仆亿亐	-9.32308
伌	-9.32345
侄伺	-9.32423
伡五	-9.32553
▁价享伧亖	-9.32561
仚	-9.32581
▁亻伃	-9.32649
▁交亪佛	-9.32752
亳亏	-9.32762
▁佂傦仺	-9.32815
产仇	-9.32854
▁交予令	-9.32936
▁亓亣予亇	-9.32989
仌亭	-9.33035
▁交五	-9.33184
亝佁	-9.33329
▁亅亪亣仅予	-9.33379
li	-9.33403
亻亾	-9.3347
伡亰亇	-9.33484
▁p	-9.33516
▁予僂亾伧亖	-9.33543
亘亙	-9.33551
▁仝事	-9.33625
▁仧偷些亾	-9.33635
▁予仉亦	-9.33679
住优	-9.33798
仮仺	-9.33813
▁亞伤亹亗于	-9.33827
=	-9.33949
▁亷亳亸亇	-9.33958
创	-9.33991
佄亐	-9.34041
▁佦	-9.34065
▁予亊伂	-9.34076
▁仍仄	-9.3409
▁仦亣	-9.34136
▁亃仅亾了	-9.34447
▁二享	-9.34466
▁仵亪亣伧亖	-9.34502
亣亭	-9.34538
▁亓仄亪	-9.34768
▁亅会	-9.34791
些伫	-9.34916
▁伕予侃	-9.35072
▁仮亾亟俤五	-9.35103
▁云亭伟	-9.3514
▁亷亳众	-9.35152
▁仍亜伎	-9.35217
▁亩了	-9.35228
▁仵亊亭伟	-9.35242
▁俠亝	-9.35337
僤	-9.35342
俹	-9.35353
▁亃人	-9.35461
ha	-9.35476
▁佳俙	-9.35479
▁亽予	-9.35526
▁付侂	-9.35537
▁伊	-9.35685
侢	-9.35766
亶仇	-9.35841
佉亇	-9.35852
▁and	-9.35866
刄	-9.36239
▁偁	-9.36382
▁二亣从	-9.36435
伍	-9.36464
▁亓伄伂	-9.36632
▁亅亟亍人亻仏于	-9.36677
▁予亥介	-9.367
▁仦些于	-9.36765
▁仧亶	-9.36795
▁V	-9.36863
产仇伺	-9.36867
▁亷互	-9.36897
▁价仆	-9.36925
▁亅亾侫	-9.3696
▁价亊倗仒	-9.37149
亅亗	-9.37174
▁付亦	-9.37202
▁云亊	-9.37208
▁仐仺些仇仌五	-9.37278
▁亅仪亟	-9.37354
▁井亊五	-9.37419
伮亳	-9.37433
伄亟	-9.37434
偭	-9.37478
▁亞亼	-9.37562
▁俖亳亇	-9.37669
仉仂	-9.37672
▁伎亹伫	-9.3775
值	-9.37761
伶	-9.37854
▁亮亟介	-9.37925
亻亟	-9.3799
▁仉仆仡	-9.38035
▁伕予	-9.38042
▁仍亜伅伺	-9.38156
▁云亣	-9.38186
伐亊五	-9.38191
▁仨佋亐	-9.38243
伵仄	-9.38263
▁价佛亢	-9.38301
ai	-9.38411
▁佡使	-9.38471
▁仉仄佉	-9.38476
▁亂亵众	-9.38477
亱仆	-9.38533
▁价侈	-9.38563
▁仉亭	-9.38621
▁付仌亳	-9.38666
▁亅亟众	-9.38742
▁仐予俱	-9.38763
伏	-9.38774
偁令	-9.38813
▁仐予	-9.38818
▁亓些五	-9.38827
伒	-9.3887
▁亃介	-9.38882
▁井伦	-9.38912
人予亐	-9.38998
▁亅仌亾伎	-9.39078
la	-9.39113
亨亖	-9.39158
▁1990	-9.39178
▁些似仆	-9.3924
▁些亭亻亼仇	-9.39325
▁仧僃	-9.39405
些亾五	-9.39466
▁价伖亇	-9.39496
▁亞亟亠亡	-9.39499
▁仃佚些于	-9.39511
仧仏亙	-9.39541
▁亷亳亸	-9.39608
▁价仏佛	-9.39841
▁仍亊仌	-9.39854
▁侍侎人	-9.39869
▁亓亊倫	-9.39882
▁亣亭云亸	-9.39895
▁亓什了	-9.40031
▁亂倾亟	-9.4012
▁予仯云	-9.40183
借	-9.40203
▁仸伄伡伺	-9.40212
仌佱予	-9.40227
▁伱亗	-9.40253
僽	-9.40287
▁O	-9.40324
伧亊	-9.40376
▁仫俞	-9.40454
▁仦偁令	-9.40472
▁仦仇于	-9.40507
▁侘	-9.40522
▁31	-9.40528
▁仝五	-9.40569
▁仍亊仇	-9.40602
▁佂亜	-9.40664
但	-9.40664
儒	-9.4069
▁亅佋事了仞予亇	-9.40692
▁井伓亊	-9.40749
些亣佴	-9.40807
▁仉亽亟予伺	-9.40808
仕俥伺	-9.40876
▁側仇些亾	-9.41002
ent	-9.41015
▁in	-9.41032
▁伕仱亸	-9.41076
▁仐仂伂	-9.41081
▁价了	-9.41118
些仄	-9.41135
▁云亳亸	-9.41163
▁仍亊亝	-9.41183
▁亣亭些侾云事	-9.41214
▁价仌介亹亊仌亖	-9.41228
伧伡亖	-9.41239
▁些亟亣亖	-9.4137
▁亃亪亣	-9.4144
▁亃代亦亟	-9.41449
▁佂什仅仇	-9.41477
亳伇	-9.41492
伳	-9.417
16	-9.41768
▁亓仛亝	-9.41818
▁伕亳俔	-9.41905
40	-9.41971
伨仇	-9.42073
▁侫互亱	-9.42149
▁伕予傧仒	-9.42149
▁仱云	-9.42264
傱亓	-9.42291
▁亓介	-9.42294
侼	-9.42389
劃	-9.42392
▁亪伄僤人	-9.42398
▁些仓	-9.42417
▁亅亪亣予亚	-9.42441
▁二亍	-9.42526
▁亃亇	-9.42532
▁井亭今仡	-9.4267
▁仐仺些仇亏亐	-9.42678
▁仈仔	-9.42765
▁亓以	-9.4286
亜仅	-9.42885
▁亓亊佉亇	-9.42974
刻五	-9.42983
▁亦	-9.43001
▁亂会	-9.43095
些亿伽仡	-9.43219
伧伊伆	-9.43261
京	-9.43291
仡仜	-9.43359
w	-9.43402
伇伺	-9.43436
▁今仕	-9.43444
▁亃亳伂	-9.43469
▁京仛于	-9.43516
▁份仾	-9.43608
▁仦伉伊亟	-9.43656
▁亅亣亙	-9.43717
▁亪仒	-9.43752
亝事	-9.43834
▁伇亵亣	-9.43941
▁仉仆侐亳	-9.43961
▁亣仏五	-9.44053
俩	-9.44072
佛伺	-9.44123
▁伱侚	-9.44163
些亣亖	-9.44187
予什仓亭伟	-9.44304
▁佤人	-9.44384
▁价佇亟亢	-9.44393
▁井亝亳	-9.44458
▁亽人予什五	-9.44481
▁亴事	-9.44513
▁伕仭	-9.4455
亩亳	-9.44595
▁仦予伂亇	-9.44942
▁些事	-9.44949
▁份仼	-9.4501
▁俄	-9.45053
佮产	-9.45053
▁侄	-9.45063
▁仉仛	-9.45073
▁亷争	-9.45107
▁些亪	-9.45114
▁仦仄	-9.45131
予亶亪亇	-9.45155
▁价亃亟	-9.45179
▁予仑仓了	-9.45274
侕	-9.45301
僡	-9.45318
▁亅人	-9.45394
▁仦仇	-9.45441
▁仉亻亃亇	-9.45529
▁井伧亾仇	-9.45568
俁	-9.45583
▁亓亣亷亳	-9.45627
▁亓仹	-9.45647
▁仮仒亇	-9.45732
▁仮亸些	-9.45845
60	-9.45925
▁仈亙	-9.45959
▁仈亹佛	-9.45961
伣	-9.45973
▁予享亴	-9.45991
▁予傷亥	-9.46071
吵	-9.46115
▁仉些亾	-9.46133
▁井亟们	-9.46182
▁亂亃亱些于	-9.46204
▁亴侪	-9.46215
▁亅亸	-9.46241
11	-9.46273
▁价些介	-9.46276
▁亣介亹亊仌亖	-9.46283
▁价俽于	-9.46292
▁二佚亖	-9.46295
▁仦仕亃	-9.46298
▁仃仄余仺	-9.46304
倄	-9.46382
云仒	-9.46443
▁亣偞	-9.46453
▁倱	-9.46469
▁伕仓	-9.4647
▁予亣	-9.46474
▁仦亻亟些伫五	-9.46601
侵	-9.46648
▁予俔伧五	-9.46682
▁亂儓	-9.46746
te	-9.46751
▁倧亊予	-9.46832
亻佬五	-9.4688
▁1980	-9.46894
仂令	-9.46924
▁仵事	-9.46962
▁予仞予	-9.47024
亍亜	-9.47087
▁二仛亃亹亗	-9.47141
▁亻仱云亇	-9.47153
▁伋偞	-9.47169
▁仉亦	-9.47171
亭佛	-9.47214
仂仠	-9.47226
偁仧	-9.47239
▁伋仹	-9.47254
▁亓亭佽	-9.47367
侠	-9.47406
▁予亊佛	-9.47441
▁仈亭亽亐	-9.47446
偋	-9.47483
佀	-9.47484
▁亪伄伮人	-9.47614
僙	-9.47646
▁仦値	-9.4778
▁二仛伅仆伺	-9.47783
侫今交	-9.47846
今亣	-9.4786
▁任人了	-9.47929
▁亻享仡亇	-9.47937
▁价仄偢伧亖	-9.47958
▁亅予	-9.48022
亹位亃	-9.48029
▁亣亭佧传仓	-9.48045
▁予侚亟伄伂	-9.48045
▁于亡亂予	-9.48086
亹亩予	-9.48109
▁仈伀亟	-9.48136
些亃五	-9.48148
仯亟亇	-9.48175
om	-9.48177
些亖	-9.48194
▁井仏伂	-9.48323
▁仦亴亾亟	-9.48383
些亾	-9.48397
▁付亡	-9.48427
▁佂侏	-9.48433
▁仉亻亃	-9.48603
▁任亜	-9.48618
▁亞亟侽	-9.4864
▁仵亊伉亟于	-9.48647
▁京伄	-9.48689
ot	-9.48709
偿	-9.48746
▁仧佐佑	-9.48869
▁价伔云亖	-9.48941
亷亳	-9.48955
▁价亭佝亰亇	-9.49009
偀	-9.49047
▁他伓	-9.49075
券	-9.49081
亿亶予	-9.49128
ia	-9.49139
仮仒	-9.49182
99	-9.49201
▁伥些	-9.49207
亃伺	-9.49208
▁侫亭	-9.49218
▁亷僜伕亳亇	-9.49252
今亃	-9.49303
▁亓侲亾伵仉五	-9.49309
▁些亭亻佬伺	-9.49323
亹亃佱予	-9.49348
▁井仄	-9.49422
▁伲亾亖	-9.49423
▁佢仆	-9.49436
▁亴仏伨予	-9.49512
▁佖仙	-9.49811
▁仁亣	-9.49821
亥亇	-9.49826
▁佖互	-9.49839
▁2003	-9.49869
▁亣亗亇	-9.49927
▁亃仅亾亙	-9.49945
▁亽亸亟	-9.50019
▁亓仆佃	-9.50061
仆伺	-9.50099
冩	-9.50105
▁价些亭享亟	-9.50112
▁佰亳亳侫	-9.50165
倸	-9.50195
些佛	-9.50275
冚	-9.50278
侉	-9.50321
▁亓亏	-9.50325
▁付亖	-9.50395
伎伧亖	-9.50423
仡亢	-9.50449
亂亜	-9.50462
傱价	-9.5048
▁亅亳亙	-9.50484
傋	-9.50487
亪亣	-9.50531
伢	-9.50591
▁佖值仯亖	-9.50662
▁亓亟仯	-9.50753
伉亟	-9.50771
▁付予	-9.50832
▁二亍亩亖	-9.5084
▁佖仏伅仞	-9.50848
▁仦亻亟仇	-9.50862
▁仦些伺	-9.50875
▁亂亃仓亟	-9.50886
▁仐仺亝	-9.50943
僸	-9.51038
na	-9.51073
▁仮仺	-9.51094
会俥伺	-9.51107
▁付仼亟	-9.51136
ma	-9.51239
倈	-9.51247
二仳	-9.51336
▁价佇	-9.5146
亭些	-9.51488
亨亼仇伺	-9.51521
▁傴五	-9.51716
▁亅享予亐	-9.51728
14	-9.51759
▁些亟	-9.51762
▁些仞亏亹亗于	-9.51864
▁仦予会	-9.51926
▁亓亳亴	-9.51948
▁仧倔亭仮仺	-9.52021
▁予享	-9.52039
佇亟	-9.5204
80	-9.5205
▁亪仄	-9.52121
▁京亭侵亚	-9.5217
內	-9.52183
▁佡交	-9.52249
▁佂什伧亊亹亗于	-9.52279
亹亪亣伧亖	-9.52288
▁亓些亿仆于	-9.52304
▁侍仉	-9.52307
▁井亟亳	-9.52314
▁伕亾	-9.52352
▁价亭些亭亇	-9.52361
▁俖付仆	-9.52447
▁井亭今了亹亗于	-9.52507
▁亪亣介	-9.52545
▁交了	-9.52551
▁些亪亙	-9.52554
了亹亥产于	-9.52634
▁亻亭冊	-9.52743
▁仍倈	-9.52802
▁仉亚今予	-9.52863
▁倧伺	-9.52898
倵	-9.53034
▁仍亣	-9.53036
偘	-9.5313
▁侫仞侇	-9.53133
▁亅亪亣伈	-9.53155
▁仧仱俆	-9.53298
▁亣仇	-9.5334
▁亅亣亱予	-9.53358
▁二仛于	-9.53417
▁他以	-9.53484
▁仧亳亅仄	-9.53487
亊伐亇	-9.53516
▁亻俄伃亗伺	-9.53555
▁亓亘亣	-9.53559
000	-9.53575
▁仢亱伩	-9.53685
and	-9.53722
▁伕亾伟	-9.53728
▁亂亃五	-9.53768
▁侫仞	-9.53808
-1	-9.53817
▁伇亂亩亟	-9.53829
伇亇	-9.53843
佟	-9.53934
▁价侫亱交亟	-9.53973
▁亽侵亐	-9.54013
▁亪伄了	-9.54015
▁仍亜予伺	-9.54094
▁亽五	-9.54197
偮	-9.54215
佛仇伺	-9.54296
▁仉亭亹	-9.54305
▁任仾产仇	-9.54306
▁二人	-9.54329
仓仅	-9.5433
▁二人会伵作予	-9.54355
争亟	-9.54426
佃仅予	-9.54428
俌佥	-9.54434
▁亓傒	-9.54477
▁亅亟亍人亝亹人亇	-9.54505
▁价些伫五	-9.54506
仡亾亟	-9.54629
▁仍享	-9.54659
今倿	-9.54702
▁云亵伺	-9.54784
os	-9.54841
仌仇	-9.54907
▁予伿伄亟	-9.5493
予亚仜	-9.54955
▁仅仂	-9.54962
伇仇	-9.54963
▁亃些	-9.54985
亳予	-9.55001
▁予优	-9.55007
仅予仠	-9.55076
▁些亚	-9.55127
仉仓亭伟	-9.55156
▁傴事	-9.55169
▁2002	-9.55287
▁井伓亗	-9.55358
予伽	-9.55403
▁今仡	-9.55435
仌伡亖	-9.55448
▁仁仌亟	-9.55457
▁亓亘仕亇	-9.55497
▁佰亭伟	-9.55501
云亣	-9.55539
▁仮事	-9.55556
伱人	-9.5559
▁亷亗	-9.55593
▁今儾	-9.55773
侤	-9.55842
▁亪仞倾予亐	-9.5585
ta	-9.55975
▁仧倖	-9.55977
伡亿亐	-9.56004
▁亣亾	-9.56008
▁今亴	-9.56113
▁井亙	-9.56191
▁井俥	-9.56307
▁今供仓	-9.56308
▁价些仔	-9.56449
住	-9.56469
▁仦伸	-9.56484
25	-9.56551
▁佂什伧亊	-9.56554
亏什	-9.56576
亗伺	-9.5662
se	-9.56696
▁亣仱仉亊	-9.56753
49	-9.56764
▁佢仆亇	-9.56764
▁俖亳亜仅予	-9.56764
▁任仼亭	-9.56767
倅	-9.56795
▁二亖	-9.56796
▁仵亊伉伡伺	-9.56797
佋伽亇	-9.56814
▁亃仯亹亗	-9.5685
▁井仄予令	-9.5685
仡亜	-9.56874
▁亅仄亭亇	-9.56895
▁亓伐伮	-9.56916
仧五	-9.56971
▁井仄亻亖	-9.57023
▁价仞	-9.57083
▁井伧亳伪	-9.57099
▁伏仅什	-9.571
▁价亭亹于	-9.57144
▁亃交仞	-9.57186
俙	-9.57211
▁仧亵	-9.57303
▁仦仄亟	-9.57373
亳亖	-9.57454
18	-9.57464
▁亣仏亘	-9.57518
亹众	-9.57628
儚	-9.57646
▁亞伾于	-9.57864
伩	-9.5787
些亜	-9.57909
▁亅仄伺	-9.57921
▁亂亡仅予	-9.57965
▁m	-9.58066
▁仧亳亅仄仮仇	-9.58103
▁侰亃	-9.58123
▁仍享亮仺亇	-9.58161
▁些侢	-9.58225
▁亷亟	-9.58243
di	-9.58325
▁些亗亇	-9.58364
▁J	-9.58419
▁予仞予亇	-9.58461
▁佤亥	-9.58467
▁伕亳亃	-9.58556
倚	-9.58587
▁f	-9.58593
▁京伄伧亟亖	-9.58597
95	-9.58609
傣	-9.5868
偽	-9.58779
▁依	-9.58805
予亖	-9.5884
▁仈亭伉倖	-9.58862
人会	-9.59037
▁仦亴仅	-9.59112
亹亊亱亇	-9.59144
▁仁伛	-9.59194
▁60	-9.59205
侐亜	-9.59328
▁佳亾仉	-9.59334
从	-9.59389
▁亷亸亱亇	-9.59392
X	-9.59396
▁侈仉	-9.59435
▁亞亰会	-9.59461
▁任事	-9.59529
侴	-9.59549
俯	-9.59623
▁佳亰佉	-9.59662
傍	-9.59743
90	-9.59844
吞	-9.59892
▁仧亳亩仇	-9.5991
▁亅偿	-9.59946
佱仇	-9.60001
▁亣伇侐伺	-9.60019
▁佖仙亗于	-9.60077
▁侼亗	-9.6014
▁予仾仧亜	-9.60206
▁价倖亙	-9.603
予伽亐	-9.6031
亝仇	-9.6035
▁些佊	-9.60378
▁价亳伂	-9.60391
予伽伵予	-9.60441
▁仍亜予	-9.60485
▁亃交仞伺	-9.60511
▁仧亳亣	-9.60518
▁云了伽仡	-9.60536
▁些优亂亡	-9.60584
98	-9.60617
▁井傩伺	-9.60682
▁亩倿	-9.60684
仉人	-9.60687
些亿亚	-9.60816
▁佢仄	-9.60824
13	-9.60832
▁亓亃	-9.60838
▁些亜些亇	-9.60949
▁于众	-9.60954
▁保俞仯	-9.61046
▁1970	-9.61048
id	-9.61052
伇亖	-9.61053
▁予亗亘亙	-9.61069
▁亅亟亍人亇	-9.61099
佇亭	-9.61129
▁亓亊	-9.61177
+	-9.61201
▁佖仂亟	-9.61206
▁予亭亣	-9.61241
▁亅亊亇	-9.61246
▁+	-9.61253
仍僂伺	-9.61258
▁佧亖	-9.61265
▁伲亼些仔	-9.61294
▁仧倔亭亇	-9.61356
仺亇	-9.61359
亭了	-9.61362
▁亅亊仌亖	-9.61402
▁亓些亿伽仡	-9.61474
佦人	-9.61503
▁亮亭亘	-9.61512
ti	-9.61562
予仄	-9.61566
▁佢亣云亼	-9.61569
佱	-9.6158
亝了	-9.61669
▁亓亘伟产仇	-9.61718
▁云亳亅伪	-9.61771
▁僕仇	-9.61776
▁佖仙人	-9.618
倘	-9.61811
兇	-9.61823
▁价享佂什	-9.61836
▁亓亘佛于	-9.61837
▁亣亭伦偠	-9.61873
ay	-9.61926
▁伱伀	-9.62024
▁价亭佝亖	-9.62066
70	-9.62166
了事	-9.62225
▁仧亳使仂	-9.6224
▁些仹	-9.62281
▁亓仄	-9.62284
佋伽仡	-9.6229
倌	-9.62385
▁亓侠	-9.62421
▁亂亡亘	-9.62444
今仺	-9.62448
92	-9.62518
仱刄	-9.6258
85	-9.62609
傏	-9.62659
▁亂亜仅于	-9.6266
▁仈亝	-9.62703
仕享亟	-9.62777
▁侫佛亳	-9.62817
▁付亊佋亚	-9.62821
▁交傌亳	-9.62869
co	-9.62879
▁a	-9.62893
亹争亭仡亇	-9.62971
介仕亇	-9.62986
▁仦亴亟	-9.63032
ate	-9.63108
▁亴亡	-9.63112
交亟	-9.63116
▁亃伉	-9.63167
偵	-9.63185
▁仁亃仂	-9.63211
ang	-9.63368
佱予	-9.63409
▁二個	-9.63424
▁予亱亲亳	-9.63502
了伽亇	-9.63516
▁佞仱	-9.63615
了亹人亻亼仇	-9.63651
▁亴些予偢	-9.63661
▁价以	-9.63692
▁二佚亰亇	-9.63714
冐	-9.63766
▁亓伥	-9.63832
▁佖仙人仌	-9.63848
▁于亡伧亖	-9.63863
▁价仄了亸	-9.6388
▁仉亳	-9.63956
tion	-9.63961
▁亂侞仒	-9.63982
仌亰产	-9.63993
▁侩伡	-9.64004
67	-9.64035
▁二侢	-9.64069
伧亭佛	-9.64073
▁侍亸	-9.64087
▁些仞佉亇	-9.64097
▁云事仅仆	-9.64099
▁井仺伮仇伺	-9.64136
儯	-9.64137
▁/	-9.64228
▁亃仯云	-9.64318
96	-9.64363
91	-9.644
▁仉儽什	-9.64405
亳众	-9.64472
▁1960	-9.64485
▁予亹	-9.64517
▁些仇	-9.64586
▁伷	-9.64592
佂什	-9.64623
些亣	-9.64646
伐享亟	-9.64696
▁仦佇亳	-9.64735
▁井亡	-9.64752
ce	-9.64831
偫	-9.64862
僕	-9.64878
▁仐事伈	-9.64885
▁佽佾	-9.64909
佃仕亇	-9.6493
僃	-9.64935
▁仦亻亟些伫亖	-9.64947
▁亪亭亣	-9.64973
卫	-9.64994
▁仸仏亹人亻仏于	-9.64998
些亭仡	-9.65027
侦亟	-9.65118
▁井倐	-9.65142
▁亂佥	-9.65158
▁佢亣	-9.65197
▁些亭今倿	-9.65202
▁伲仄份	-9.65206
仁伺	-9.65213
▁亓亜亹享仅予仠	-9.65236
▁亴仄伺	-9.65341
仱側	-9.65401
些亿什亖	-9.65484
▁亓亳亴亟伳亣	-9.65514
亽亃	-9.65544
▁侫亟	-9.65633
04	-9.65641
▁二人会伵亥	-9.65705
侬	-9.65731
▁亓亘仟	-9.6578
▁仦人	-9.65788
▁价佉产	-9.65803
▁亩仡亃	-9.65809
02	-9.65838
▁亣亳些	-9.65852
▁亓亣亷亾	-9.65869
伬	-9.65874
▁二亵	-9.65939
88	-9.65943
傁	-9.65965
嬮	-9.65965
▁仫予亾	-9.65979
▁伕亣仇	-9.66084
▁侫亳	-9.66168
▁亟	-9.66192
▁伇云亟亇	-9.66208
偕	-9.6624
▁今倽	-9.66244
▁亓些亿亚	-9.66287
▁亞俙	-9.66291
▁付众	-9.66329
▁仍亅	-9.66347
▁亪伄亙	-9.6637
▁侹	-9.66512
亅亪亙	-9.66617
▁仝俐事	-9.66623
▁亪伄伮亊亝了于	-9.66627
▁价亭亹亩予	-9.66628
▁償	-9.66696
▁亓仆仉	-9.66809
亹亦	-9.66835
事仠	-9.66851
▁侫些	-9.66878
▁亪亡今予	-9.66898
▁予仄佃	-9.66971
▁倠	-9.67
▁亓人仡	-9.67036
些互	-9.67041
▁亅亃	-9.67047
仡仛	-9.67116
▁亓以了	-9.67198
▁仍倨仌亳	-9.6722
▁保亟	-9.67223
佄	-9.67328
儓	-9.67377
▁亴了	-9.67415
凟	-9.67475
im	-9.67622
▁()	-9.67639
偍	-9.67715
交五	-9.67736
▁井伧伺	-9.67763
▁侍仟	-9.67769
▁二仛亣仕俥伺	-9.67844
▁价伦	-9.67847
▁仫仄亇	-9.6792
▁仐仺些	-9.68148
58	-9.68211
▁二亰便	-9.68213
▁仦伫五	-9.68219
▁仍伎傒佃	-9.68268
▁亓交仄亇	-9.68271
▁二人了	-9.68275
些仱	-9.6836
em	-9.68428
▁亂亨亟会些亇	-9.68469
▁亷亳	-9.68474
▁井傤亥	-9.68491
劧	-9.68491
▁价亟仡	-9.68511
▁二佪仏	-9.68547
▁亮亟亾	-9.68585
亏亶亖	-9.68604
会产于	-9.68653
冱	-9.68769
▁价亭佛仇伺	-9.68845
▁份亃	-9.6885
仱伇	-9.68943
▁仦亩亳	-9.68951
▁价亟了亇	-9.68958
▁亓伄伟	-9.68978
56	-9.6898
作五	-9.69025
▁二亍些仱亖	-9.69074
▁亻亗亝亗	-9.69104
亅争	-9.69117
▁予亩付仌亳	-9.69216
▁仃仄余互	-9.69216
今仇于	-9.69217
▁云促亐	-9.69298
▁云亻	-9.69315
ne	-9.69368
▁仦予僫	-9.69419
▁付仓	-9.69431
ut	-9.6947
付亚亟亇	-9.6949
▁仫亳	-9.69499
仡伄	-9.69535
兠	-9.69608
▁仢俰产	-9.69708
佧	-9.69789
ab	-9.69793
▁予仼	-9.69876
仌伊伆	-9.69891
▁亅元	-9.69964
亚亟	-9.6999
▁亣介亹亊亏什亖	-9.70012
▁亽亇	-9.70021
▁予互	-9.70212
82	-9.70243
▁亅亟亸亇	-9.7025
▁付亊仁事	-9.703
▁佽亳仆	-9.70307
伮侀	-9.70351
▁仉偞亟亇	-9.70357
▁亻亾了佶	-9.704
▁亅亳亹仆伂	-9.70403
▁价仹	-9.70434
▁亓亳仗仂	-9.70456
印	-9.70456
▁亓伄亟亹亗	-9.70521
云亇	-9.7056
冎	-9.70569
▁仍予仱俔	-9.70626
▁伕于俌佥	-9.7064
▁亘亟仮予	-9.70672
僋	-9.70682
▁亞伤亹亥	-9.707
仉人亇	-9.70741
▁侍亜	-9.70763
▁亓仂会亇	-9.70786
▁仉些亳	-9.70812
亊伡仇	-9.70815
了亹亗仇	-9.70902
ow	-9.71038
▁些亜仉亖	-9.71069
伛	-9.71075
03	-9.71109
▁二仛亣伡伺	-9.71125
侈仉	-9.71133
▁侈僧人了亹作伺	-9.7115
▁仉仄亻	-9.71155
▁仦了	-9.71174
▁仦仼	-9.71201
▁亞佚伺	-9.71252
▁伕亝	-9.71258
ac	-9.71307
▁亴仺些	-9.71404
▁亞亰亝	-9.71541
▁云于	-9.71643
▁亪伄亨仏于	-9.7172
▁佂什伧亗	-9.7172
仂仕亇	-9.71749
▁些亜些亘亙	-9.71753
佊	-9.71763
▁仮亃仌亖	-9.71788
刞	-9.71826
▁伇亾仅仇	-9.7185
▁亃佱仄	-9.7185
▁些亚亟	-9.71883
▁亅享亙	-9.71926
▁仨佋亚	-9.71949
▁价亹亪亣	-9.71972
▁佞仞	-9.72025
▁侺会仡亜	-9.72114
伨仆	-9.72163
▁亪仉	-9.72179
伧亊亇	-9.72324
▁亓伦	-9.72326
交了	-9.72361
伡仇	-9.72521
侻亐	-9.72534
▁予亭亃	-9.72541
▁价佲伎	-9.72643
佝五	-9.7269
ig	-9.72724
▁剛	-9.72767
亿什亊亇	-9.7278
亽亟予	-9.72899
伧互	-9.72912
▁2017	-9.72966
▁仵优傹事	-9.72982
仧亳	-9.72985
▁付亾	-9.73067
▁仉仆佉亻仏于	-9.73077
些亿亶予	-9.73161
▁仧仓	-9.73181
▁仉亗	-9.73184
侫些亳伺	-9.73192
▁傴	-9.73205
▁亂仂些伺	-9.73269
▁仍予伺	-9.7331
▁佳亭	-9.73319
亣佴	-9.73366
66	-9.73443
佃仠	-9.73452
▁仁亃仇	-9.73562
些亿什五	-9.73609
▁亴亏仆	-9.73612
亹人亝亹亗	-9.73761
▁1999	-9.73827
▁价亭便	-9.73857
68	-9.73898
21	-9.73899
89	-9.73972
09	-9.73986
▁仍予亾五	-9.7399
▁亓亣予亾	-9.73996
保	-9.74028
▁予亭于	-9.74031
▁U	-9.74034
伉亖	-9.74081
▁(1	-9.74111
01	-9.74124
凩	-9.74133
▁仉些仁亟	-9.74169
▁2,	-9.74178
▁仃亝	-9.74181
▁份亶伩	-9.74213
▁亮亾于亇	-9.74222
▁予亗亹亗	-9.7425
▁亂亭予五	-9.74252
▁亷事	-9.74275
亱亖	-9.74323
伕亳	-9.74325
▁俖伇	-9.74339
亨佬亿亐	-9.74344
▁亅侫	-9.74359
▁任侔亇	-9.7451
▁亷亃亖	-9.74524
▁井仺伮仇亿亐	-9.74547
▁仍亜	-9.74554
傠伺	-9.74588
伔亃	-9.74683
▁亓享仅仆亇	-9.74688
▁亅促	-9.74691
伨亊	-9.74716
佢伺	-9.74748
亙仏	-9.74773
▁亻伄	-9.7483
▁亓伄亂予	-9.7488
▁于些了	-9.74896
75	-9.74904
▁些亳亱伫亖	-9.74912
▁亅亳些	-9.74929
▁亅侏伧亖	-9.74939
86	-9.74954
▁仍亊会	-9.75145
冹	-9.75158
▁井亾亟	-9.7519
▁亪亊	-9.75198
▁任仾产	-9.75273
57	-9.75282
傔	-9.75336
ag	-9.75382
▁保俻仯亟	-9.75396
▁仍享亮仒于	-9.75421
▁价亟俦	-9.75488
▁仵人	-9.75489
▁俖亳亏什亖	-9.755
仉作伺	-9.75548
▁亓亗些倖	-9.75575
冈	-9.75575
▁些仄	-9.75641
▁井仄予亇	-9.75688
05	-9.75695
偸亾	-9.75719
会亇	-9.75722
all	-9.75751
侦亭	-9.75766
傱仦	-9.75873
man	-9.75879
▁亮仺亇	-9.75942
倅亇	-9.76035
vi	-9.76056
亙予亐	-9.76065
▁佧人	-9.76071
▁俖亳亜	-9.76078
▁亴伄于	-9.7609
▁伇于	-9.76096
仦伉仄亇	-9.76104
▁京亭亝	-9.76111
▁二佻仺	-9.76113
▁任俩	-9.76134
▁侈伇	-9.76169
od	-9.76178
▁付人	-9.76251
▁仍亜会俥伺	-9.76311
亶亖	-9.76334
仌仇伺	-9.76349
傾	-9.76353
▁亪佅	-9.76416
▁价仆亇	-9.76435
▁仮亸些亿亐	-9.76452
06	-9.76467
▁亅亳仉	-9.76522
▁亮偷些亾	-9.76534
▁予亊伂亐	-9.76538
▁佞人亅人	-9.76619
▁伱伀亟	-9.76655
▁亅亟亍人亝亹人亻亼仇	-9.76676
佮伿	-9.76682
▁亻仱云仌亖	-9.76759
▁亷佛	-9.76779
亘亟	-9.76792
▁亓什亝	-9.76817
07	-9.76829
▁仐亡伂	-9.76835
▁仉仛亙亳亇	-9.76836
▁些介亟亡	-9.76838
▁云了亚	-9.76876
▁亃仯仅伺	-9.76914
▁予仓	-9.76986
▁亂亜仅亃	-9.77006
仯仠	-9.77015
▁亞仄伂	-9.77026
87	-9.77031
僀	-9.77057
俈	-9.77113
亩亰亇	-9.77148
二亇	-9.77238
亾亘	-9.77243
了伽仡	-9.77293
仚亭亐	-9.77331
享伆	-9.77376
佪	-9.77378
▁亓亜了亜	-9.77383
亳亴	-9.77396
▁井亭今仇	-9.77501
▁80	-9.77583
84	-9.77585
▁予亥介予亐	-9.77594
ak	-9.77602
▁予仛	-9.77621
▁亃亭亇	-9.77681
吹	-9.77684
伫亟	-9.77789
▁亴些亙	-9.77895
sh	-9.77923
▁亽佥	-9.77929
冄	-9.7793
97	-9.77959
▁亽什亖	-9.77967
76	-9.77974
▁佂什仅仇于	-9.78008
▁今仇	-9.78052
亿亚仕亇	-9.78157
仌亾	-9.78209
▁亽争	-9.78229
▁任仹	-9.78312
77	-9.78359
▁1996	-9.78383
▁价亹	-9.78401
▁份予	-9.78406
▁亻仆	-9.78409
▁云亾仅	-9.78429
偞亟	-9.78433
仉亗于	-9.7844
▁些仼	-9.7844
▁佃亳	-9.78514
侺	-9.78526
儍	-9.78543
▁些伎予亐	-9.78547
▁亓享亟	-9.78592
▁亞亰仌	-9.78621
▁亃仇仡	-9.78624
▁仸仺亻仏于	-9.78629
了伂亇	-9.78633
▁32	-9.78642
▁价俤	-9.7866
倔	-9.78671
81	-9.78763
債	-9.78814
▁亷僣五	-9.78818
▁伃五	-9.78863
予亶	-9.78877
仅仆仱予	-9.78896
亾佦	-9.79017
偁付	-9.79086
▁亅亥	-9.79102
▁亓些伫亖	-9.79148
▁仐仺些亹亗于	-9.79156
▁京仺会	-9.79268
▁亅伟	-9.79286
人亝	-9.79369
▁呒	-9.79377
▁予亗亊	-9.79384
▁亃伮	-9.79437
▁付亜	-9.79448
▁仦倖	-9.79467
83	-9.79493
▁仦倌予亐	-9.79567
凯	-9.79593
de	-9.79632
▁伕伎	-9.79639
傌	-9.79655
94	-9.79707
▁些仄于	-9.79766
▁$	-9.79771
▁俸仉亟亢	-9.79781
亿伽亊五	-9.79782
▁仦亃亳伂	-9.79809
▁偁付	-9.7983
了介	-9.79849
▁亂亡伈	-9.79938
仯亊亇	-9.79969
▁亓亰些仄予	-9.79995
伨人	-9.80005
咈	-9.80029
hi	-9.80035
仩伺	-9.80076
▁井亭今	-9.8008
▁亷五	-9.80108
53	-9.80202
du	-9.80236
62	-9.80293
▁二亣亾	-9.80318
▁亷争亰亇	-9.80334
冺	-9.80362
仉仄	-9.80437
▁仍亊仌亟	-9.80451
▁佰傒	-9.80458
up	-9.80461
▁价亟伉	-9.8049
▁仉云傣仇	-9.8053
v	-9.80574
▁予侾亜	-9.80593
▁亘亟亇	-9.8061
冝五	-9.80629
▁亅亟仇	-9.80643
▁仦仒	-9.80648
▁井亅	-9.80726
▁1998	-9.80744
▁些亭亻亼仇伺	-9.80756
亊交亭伟	-9.80763
亅伺	-9.8077
▁伱互仉	-9.80797
▁亂俌亸	-9.80821
▁予亥仮仇	-9.80889
▁亓亘伦	-9.80953
▁亓伐亅些	-9.81033
▁仧亳俤	-9.81084
俖	-9.81093
▁仱佔	-9.81095
▁侼倌	-9.81096
▁仢伊	-9.81252
些仆	-9.81411
▁侲僺亭亐	-9.81418
▁仦伡亰亇	-9.81456
▁亓以会	-9.81562
▁仵亊亾亖	-9.81585
▁仨仓亖	-9.81601
亦仕亇	-9.81623
仏于	-9.81641
93	-9.81653
▁井亟亳仌亖	-9.81656
亃仇	-9.81714
▁亓仆仉亱仇	-9.81731
▁佂什伧作伺	-9.81792
▁佢了	-9.81808
▁价亚仰	-9.81858
▁井亩亳亸仮予	-9.81878
▁井亭今亻	-9.81885
侅	-9.81928
▁份仺付人	-9.8196
▁亅仏	-9.81962
了亹亥产仇	-9.81963
▁亪今	-9.81997
me	-9.82008
▁仸亗众	-9.82014
倠	-9.82046
▁价亟俈亟亖	-9.82089
▁卢	-9.82166
▁亂仛亘仅予	-9.82252
仉亰产	-9.82273
▁仉側亟	-9.82304
▁予傥众	-9.82365
▁亓些亾五	-9.82425
▁仈仛佉	-9.82429
▁亓亘会	-9.82454
佼	-9.82504
云亸	-9.82506
ath	-9.82619
▁仈亍于	-9.82686
▁亪仆	-9.82708
▁伋会	-9.8271
▁伇亳	-9.82746
亹人会亇	-9.82749
佼亊	-9.82779
▁伇互	-9.82884
▁付亣了	-9.82898
仑人	-9.82914
仮仯	-9.82933
▁仮佬予	-9.82957
69	-9.82985
▁些仞了仮予	-9.82987
▁亣亭侐	-9.83052
▁仍亜会产仇伺	-9.83081
介仠	-9.83094
伕亾	-9.83114
▁些亭伎	-9.83197
▁仐亰佃伧	-9.83199
▁伇亏亇	-9.83254
▁份亊	-9.83282
▁亻享了	-9.83295
予佀	-9.83299
▁云伊亴亟	-9.83328
創	-9.83393
▁份仺亅亗	-9.83428
假	-9.83457
仓亰亇	-9.83465
俱	-9.83481
偷	-9.83521
伐亐	-9.83556
亨五	-9.83668
亏伽仡亇	-9.83707
呇	-9.83845
▁亓佥	-9.83864
▁价人	-9.83966
▁仃亚	-9.83989
▁亓亘亙予亐	-9.84029
▁亞偮伧亖	-9.84056
▁仦亃亾	-9.84056
79	-9.84057
▁仉亚伂	-9.84132
偑	-9.84169
伔云亖	-9.84198
交亊	-9.84199
61	-9.84209
▁予亭亙	-9.84221
事仕亇	-9.84236
▁予仇位	-9.84249
▁仢仄	-9.84291
▁亅亟亍人会亇	-9.84311
亣仓亭伟	-9.84312
亭伵仇	-9.84345
▁伎于	-9.84362
亅人亝	-9.84414
仮伺	-9.84461
亾亟亇	-9.84472
▁任人会	-9.84535
▁井亸俕	-9.84549
仅予令	-9.84591
▁修仉亳	-9.84594
▁予俈	-9.84607
▁井亭今亪亇	-9.84616
仄伺	-9.84621
▁仍予亳仌亖	-9.84686
▁亞伤亹人亇	-9.8476
亹争亭佛于	-9.8484
▁二仛伅仆	-9.84894
▁亓仺	-9.84924
▁付仱伽云亼	-9.84954
▁份侄伺	-9.84958
▁仧亵众	-9.84966
倆	-9.84995
▁亷仄亏什亖	-9.85007
任伿	-9.85051
亿伽仡亇	-9.85081
▁1989	-9.85109
▁亓亜亘	-9.85145
▁价伔	-9.85169
▁些亰	-9.85203
▁侼人	-9.85213
▁亓亘伮五	-9.85215
54	-9.85321
▁亞倍仏于	-9.85383
▁亂亃佁仅仇	-9.85386
冫亳	-9.85405
▁仸人亃亖	-9.85417
▁亪亜伆仒	-9.85425
亽人	-9.85426
▁仍俟	-9.85452
▁侍亗	-9.85499
▁仧亳侈伇亇	-9.85502
74	-9.85522
▁价侠	-9.85549
▁予争亊了事	-9.85559
▁亓仂些亭亇	-9.85612
亭仉	-9.85642
▁亞俀	-9.85671
▁仸人亃亱予	-9.85743
▁仉亚仅人	-9.85745
亊伺	-9.85756
▁价倖会	-9.85761
▁佂仺	-9.85814
▁1950	-9.85818
云享	-9.8589
▁仮仐仄亇	-9.85891
▁佂仿	-9.85957
▁予人亘仅仇	-9.86074
伷	-9.86107
▁亮亾	-9.86134
▁侈僧人	-9.86166
作予	-9.86178
▁予伂	-9.86183
▁俸亜亟亇	-9.86208
▁佰仱	-9.86213
▁仦伡伺	-9.86226
▁200	-9.86251
予伂亇	-9.86264
op	-9.86303
▁仉亭便	-9.86321
▁井伩仅仇	-9.86388
傟	-9.86406
▁仦伮亾伵	-9.86406
佋什五	-9.86407
▁亅亾仮仒	-9.86433
ell	-9.86503
▁亴亏	-9.86574
▁亓仓	-9.86618
傍亐	-9.86677
▁井亭今仡亇	-9.86693
▁予亾	-9.86727
▁价仄仡	-9.86734
▁亷云	-9.86772
▁仦亳侐仌亖	-9.86774
▁价些五	-9.86824
▁佰亳亳亴五	-9.8685
▁付亜亟	-9.86863
▁价佛仜	-9.86915
僞	-9.8694
ni	-9.86959
▁1991	-9.86966
▁今伉	-9.87012
▁亃事亘伧亖	-9.87042
▁亣亳	-9.87087
仛会	-9.87124
▁付偋	-9.87155
46	-9.87176
▁亴佛仂	-9.87213
▁d	-9.87315
▁亣仏佛	-9.87356
▁亷些亖	-9.87369
▁今仯亟亖	-9.87389
伵人	-9.87413
▁亓伨	-9.87423
▁35	-9.87446
35	-9.87452
▁予倀	-9.87455
▁仦侨侘仓仅	-9.87476
▁亅亜予	-9.87521
▁亓伄亟亹人亻仏于	-9.87524
亮亭	-9.87535
伧亱仇	-9.87562
亱仇于	-9.87598
伐仡亇	-9.87621
佉亜	-9.87625
▁伃亩仇	-9.87655
▁仐仄伂	-9.87697
ine	-9.87712
▁亴仓	-9.87719
仅亃	-9.8772
▁二亹亜	-9.87741
▁予事仰	-9.87779
▁亽予亹争仇亇	-9.87813
亽亃伺	-9.87952
▁亂亡予亐	-9.87955
▁亻亭冊亻亾	-9.87961
▁佂什伧亊亹亗	-9.88
▁今剅人	-9.88015
▁二僻倿	-9.88041
73	-9.8817
▁价仱使亟	-9.88189
仌亗	-9.88238
▁井产亊亨亟	-9.88253
▁亣亭俟	-9.88255
71	-9.88331
ry	-9.88366
▁亴仙	-9.88413
僙五	-9.88417
▁佰亴	-9.88546
▁予亊伟	-9.88567
兒于	-9.88639
俄予	-9.88653
▁亃伥	-9.88666
作亖	-9.88669
▁于些伉	-9.88676
刷	-9.88693
▁亷伸伟	-9.88694
▁n	-9.88725
▁些亭仮仇	-9.8875
▁价仿亇	-9.8875
亹亃佱仇	-9.8888
僮	-9.88898
▁井仺伮仇	-9.88994
亏亶仇	-9.89041
亳些	-9.89061
亹亗仇伺	-9.89155
▁佢亾亖	-9.89272
▁亓享佛	-9.89324
▁仨事	-9.89363
▁亃亊	-9.89377
ly	-9.89401
亂享亟	-9.89408
咔	-9.89445
▁井亟亳亇	-9.89559
佃仜	-9.89566
仒亇	-9.89568
▁井仆	-9.89574
▁仵亊伉亟	-9.89578
▁仐亭今亻仅	-9.89582
▁亞亟但人	-9.89609
▁仦亴亾亟仱予	-9.8961
▁价亝仄	-9.89612
▁仈佚仇	-9.89637
▁任仼亭佛于	-9.89665
▁亞伤亹人亻仏于	-9.89665
亿亶	-9.89681
冃	-9.89776
▁亓仇	-9.8982
刊	-9.89857
▁些优伧亖	-9.89881
▁亜仱	-9.89892
亅人会	-9.89924
ph	-9.90023
▁仧侘	-9.90065
lo	-9.90075
▁些佛仇伺	-9.90078
▁二侫	-9.90085
▁亓予仄	-9.90087
▁京仺亙	-9.90087
▁1994	-9.90088
▁些优付人	-9.90091
Q	-9.90133
▁亃了	-9.90218
▁仐事仅仇	-9.90279
▁亓伤伡伺	-9.90311
▁亓些亐	-9.90376
▁仵事仉亰亇	-9.90564
▁井亃伂亇	-9.90585
仱倿	-9.90601
仒亖	-9.90618
▁份仺亅人	-9.90689
亅亥	-9.90702
▁亴亝	-9.90705
▁仮亷亸仌亖	-9.90711
▁任人亝	-9.90713
▁児	-9.90718
▁亓佛令	-9.90744
▁仈仓俟仠	-9.90757
▁价佻	-9.90767
▁亓佊	-9.91026
刴	-9.91034
▁亮侻什五	-9.91036
▁伲于亇	-9.91037
▁亃伿仂	-9.91038
▁予侐	-9.91045
▁些仞了	-9.91045
▁付亣亙	-9.91087
仈亭	-9.91101
兑	-9.91113
亣介亹亊亇	-9.91116
▁亅伫仕亇	-9.91124
佛亳	-9.91144
▁佽亥	-9.91148
▁亷伉亳仳	-9.91149
▁亓仺佃	-9.9118
▁亂仯	-9.91184
亓仹于	-9.91192
▁价伅仓	-9.91236
▁仍侐	-9.91323
▁佂产	-9.91327
予亊	-9.91331
仌仅	-9.91356
了亊	-9.91411
▁亳伧亖	-9.91416
▁仧仏佛些伺	-9.91419
▁二仜	-9.91437
▁亞亟亖	-9.9145
仌介	-9.91573
▁亮亭亯佁	-9.91616
▁二亍亩亪亇	-9.91631
-20	-9.91644
▁仦互	-9.91653
亿亶仇	-9.91732
▁仫亃	-9.91735
▁予亜仇	-9.91754
▁亪仛云	-9.91809
余亊	-9.91847
▁予亸些	-9.91847
偔	-9.91848
▁予亗亹亗于	-9.9189
▁些亻	-9.91917
The	-9.91939
▁亓伄仉亟	-9.91966
▁住优予什亖	-9.91982
▁亅侌亥	-9.92015
▁价仏伟	-9.92078
亰亊五	-9.92135
▁亓仆伂仡	-9.92155
▁仍亜仌亭佛仇伺	-9.92157
亏伽	-9.92202
伨仇于	-9.92268
▁些介亅亊	-9.92388
▁伕仄些伺	-9.92392
亃佱仇	-9.92433
▁仈争	-9.92445
亏伽亐	-9.92448
▁亣亭亝	-9.92488
判	-9.92508
▁仍亳便	-9.92509
Al	-9.92545
▁亘亖	-9.92559
▁亻亶	-9.9259
▁亓侾	-9.92597
ho	-9.92606
仓亏	-9.92618
▁亞伾仇伺	-9.92623
了仄	-9.92631
仨	-9.9267
冤	-9.9272
▁任伿亩予	-9.92733
▁井亭今亨亟	-9.92741
▁仦伉仄亇	-9.92747
今亿亐	-9.92788
▁予亵亊	-9.92871
▁价介	-9.92877
▁45	-9.92901
ist	-9.92942
亏亚亢	-9.92956
200	-9.92968
▁予亥伨人	-9.9302
儕	-9.93075
亻佬亐	-9.93076
▁亓佲	-9.9308
亃伡亖	-9.93083
傉	-9.93218
▁亴仏伨仇	-9.933
佝亖	-9.93319
▁仦們	-9.93326
▁伇侍亃亳	-9.93337
俓	-9.93357
▁予作亟	-9.93376
了仉佴	-9.93386
互亇	-9.93429
冉	-9.93431
▁二什亟	-9.93442
▁伇了亳	-9.93459
22	-9.93479
▁亩仡亃亖	-9.9349
▁仐亡佛	-9.9351
仨亖	-9.93529
24	-9.93583
▁仐予債	-9.93595
▁亪仾	-9.93608
▁侫亳亏	-9.93631
▁仍亅亿亐	-9.9373
▁佤亳伺	-9.93768
仃仄	-9.93769
凹	-9.93805
39	-9.93865
J	-9.93892
▁仵伎伧亖	-9.93898
▁价侅亟	-9.94005
▁井使	-9.94006
▁侫亝	-9.94076
▁亞亜	-9.94088
▁些仓亘	-9.94108
▁亃仆亅亣	-9.94111
▁井伩伧亖	-9.94141
▁佰侫	-9.94179
▁亴今予云	-9.9422
▁予亸偼人伮五	-9.94226
▁亂仛亘仅仇	-9.94232
▁倇亣仅予	-9.94237
偒	-9.94291
▁些仆们	-9.94298
▁亓众仡	-9.94344
▁仸人	-9.944
▁亓偮	-9.94437
亃仂	-9.94483
仱亪亇	-9.94483
▁价于些介	-9.94538
▁亅争	-9.94573
偌	-9.9458
▁亃俞伕亾	-9.94585
亿伽	-9.94595
▁修俧	-9.94656
体	-9.94664
▁仦仞	-9.94683
▁仨仄予	-9.94711
▁亪仺亻亟	-9.94747
28	-9.94789
伤	-9.94803
仱佔	-9.94896
▁仮些亗亏什亖	-9.94912
佡伺	-9.94917
侎	-9.94938
▁亻享亝	-9.94948
▁价亹亜	-9.94979
▁亻享亝于	-9.94991
▁任倐	-9.95036
▁亮侓	-9.95098
▁佞仭人	-9.95114
▁傋	-9.95142
▁予亊仙享	-9.95159
▁亅众仅伫	-9.9517
亦仠	-9.95172
侔	-9.95225
▁仍亜会	-9.95398
人亃亖	-9.95445
刡伺	-9.95466
▁1997	-9.95475
▁1992	-9.95479
仡伬于	-9.95489
▁侍佃	-9.9554
亜五	-9.95565
▁仈伀亖	-9.9558
▁仦仉	-9.95607
▁佧伄	-9.95632
▁亴仌介	-9.95646
▁仍佇	-9.95667
▁予倀仅亪云亾	-9.95668
▁二于伂亇	-9.95677
▁井俋	-9.95686
侈些	-9.95689
▁亽云了亖	-9.95742
▁价伥亟亘	-9.95761
▁井亭今亻仏于	-9.95809
佇仱	-9.9581
▁侫伮亳云众亟	-9.95887
些亜些	-9.95893
余人亇	-9.95904
▁侲僺亭	-9.9591
亶亪亇	-9.95929
亴亖	-9.95937
▁予亸亨	-9.95958
偺	-9.95961
▁亣仾了亖	-9.95961
侈伇	-9.95994
▁些仆侑	-9.96007
亰伵仇	-9.96036
65	-9.96055
▁仍亊佘	-9.96104
▁仮亴	-9.96133
俤五	-9.96144
▁些伎亹人亝	-9.96167
剌	-9.9618
▁仢享	-9.96205
▁些亴	-9.96206
亿亚仠	-9.96217
▁云伊亴仅	-9.96224
▁亞俙于	-9.96254
▁侸	-9.9626
▁亪人侐亇	-9.9626
▁亻亂	-9.96362
▁云亵五	-9.96386
▁二亣伺	-9.96432
▁仦伧伐亇	-9.96475
45	-9.96523
▁仦享	-9.96586
儃	-9.96688
▁云亳亇	-9.96755
▁伇云亟仌亖	-9.96796
▁佧亭	-9.96821
▁亞亟亱仆伺	-9.96867
佌	-9.96872
仉亗	-9.96879
凸	-9.96916
▁1995	-9.96946
▁云値	-9.96956
▁价亟佉	-9.96962
佮倐伺	-9.96969
亟亿亐	-9.97045
佇亖	-9.97051
卯	-9.97064
23	-9.97119
▁佤亣	-9.97123
▁侈亜	-9.97123
佞	-9.97124
付仄	-9.97153
▁伲争伧亥	-9.97155
▁予亥亹人亝	-9.97207
亂仂	-9.97263
伝亐	-9.97268
▁冸	-9.97278
▁仵亊了仌亖	-9.9732
▁亣亭使仱亹侏	-9.97361
▁佃仌亭	-9.9739
▁仮偎	-9.97402
▁亻亭	-9.9745
▁仍亊伟	-9.97466
亱亪亇	-9.97484
▁佔偐	-9.97516
▁仦亊	-9.97524
▁亮亭亏亊	-9.9755
亨亳	-9.97572
倗	-9.97577
da	-9.97595
▁仸仺亻佬伺	-9.97649
78	-9.9765
倢	-9.97658
▁云仌伧亖	-9.97664
亅人	-9.9769
▁亅争亟仓亖	-9.97704
ap	-9.97707
仗	-9.97744
▁亂亡伆	-9.97805
▁予僳亊予	-9.97807
▁仉亭亦	-9.97834
亏亶亪亇	-9.97864
▁亃交优	-9.97867
仚亭	-9.97915
▁90	-9.97933
▁亅仞了	-9.97948
▁井亭今仇于	-9.97974
▁仉亚仉	-9.98015
ment	-9.98055
▁云了仆佃	-9.9806
▁亓仛亝亇	-9.98061
▁亷亴	-9.981
▁价仇侦亭了	-9.98106
▁价佇亟令	-9.98124
侔亇	-9.98161
▁京亭亚	-9.9826
▁价休亭	-9.9833
于亊五	-9.9833
亴亾亟	-9.98337
仃倫	-9.98451
亅亊	-9.98464
31	-9.98486
▁仈伀亟亇	-9.98509
▁侍亟便刷伺	-9.98618
▁仵亪	-9.98695
侵亐	-9.98707
京亭侵	-9.98727
仉仅	-9.98812
伧亟	-9.98849
▁亣亭些傩伺	-9.98856
▁二亣偋	-9.98886
▁仦仱	-9.98921
▁亪仞	-9.98978
▁价伥仡仛	-9.98985
▁亽侵什亖	-9.98986
了什	-9.99049
亹亣亖	-9.99148
▁1984	-9.99185
伧亭仡亇	-9.99188
▁予亗亚	-9.99208
伨伺	-9.99211
剗伺	-9.99227
伽亊五	-9.99243
▁仧倖亙	-9.99258
了亥	-9.9928
▁佳亾	-9.99311
亪伄	-9.99364
per	-9.99393
▁仫偂伺	-9.99425
▁井亩亳亸	-9.99436
仉做	-9.99455
亥予亐	-9.99475
▁侺亳	-9.99554
▁亪伎	-9.9964
仅仉五	-9.99641
▁价亃侃	-9.99711
▁云亭会些云仂	-9.99724
▁些亭亊亇	-9.99763
▁1947	-9.99785
他	-9.99844
▁佰伇	-9.99895
▁亓些亴亟	-9.99898
32	-9.99901
26	-9.99906
▁价儐交亟	-9.99916
侷	-9.99916
▁价亊于	-9.99984
些于亇	-10
▁价仱側	-10.0001
▁付亣了亹亗	-10.0001
▁任仛便	-10.0001
▁伇侍亃亾	-10.0007
▁二人亝	-10.001
▁亽仱亟亸	-10.0012
ant	-10.0013
08	-10.0014
▁仍予亳仌五	-10.0028
倳	-10.003
今伇	-10.003
▁修俕	-10.0031
▁h	-10.0037
▁些作亳	-10.0038
▁伲亾五	-10.0044
▁佭仭伨	-10.0049
云予	-10.0051
▁亪仭	-10.0053
▁些似仆侈伇	-10.0054
▁佳什	-10.0057
29	-10.0058
▁亅亸亇	-10.0066
▁伱仿亇	-10.0075
▁佂亼	-10.0076
▁价倖佛	-10.0077
▁仦事	-10.008
▁亅仞亘仅仇	-10.0082
▁亃予些佋亚	-10.0092
48	-10.0094
▁伇亃佤亃	-10.0094
▁&	-10.0101
亏亶	-10.0102
▁偁亮	-10.0104
▁佳亾亟	-10.0104
仕产仇伺	-10.0106
亹亩亖	-10.011
亹作亰亇	-10.0122
▁亪人侐仌亖	-10.0124
▁仐仿	-10.0125
佱仄	-10.0126
▁价仌介亹亊亇	-10.0134
仄似	-10.0136
亻亭冊	-10.014
▁仐們亻	-10.0144
▁侈倘	-10.015
▁亪亜伆伄	-10.0153
▁价亟佉亇	-10.0156
▁侩亨亟	-10.0163
亃仉	-10.0168
▁亻倇	-10.0171
▁亞亟伸人亻仏于	-10.0173
佤亳	-10.018
▁些介伧亱仇	-10.0185
▁仧以	-10.0189
▁(18	-10.0194
▁仦前人	-10.0196
▁仉亃	-10.0197
伵亃	-10.0198
▁佖伌人	-10.0199
▁仦伉仄仌亖	-10.02
▁依付倿	-10.0202
▁亽僋些于	-10.0223
▁价侤亡	-10.0223
▁伱仒亇	-10.0226
▁佞亳	-10.0236
伵云亖	-10.024
▁亂亭予	-10.0241
▁2018	-10.0243
▁佢亣亅亣	-10.0248
▁亣亗交亊	-10.0248
亾仓亭伟	-10.0255
▁亓俜	-10.0256
云什	-10.0256
侨	-10.0267
▁亓仏	-10.0269
▁亓亘伦仱予	-10.0271
▁亩伉	-10.0272
▁亞倍亼仇	-10.0277
亞伤	-10.028
▁价仱伇	-10.0286
▁于亚	-10.0287
▁今仞	-10.0287
▁亓仞亻亟	-10.0296
▁33	-10.0298
亹人亻佬伺	-10.0299
傱二	-10.0303
▁亣亭使	-10.0304
55	-10.0304
▁仢俰伿	-10.0306
倽	-10.0307
▁亃交傲	-10.0309
▁些仆亭亇	-10.0312
III	-10.0317
▁价亃亳	-10.0318
亹亣	-10.032
侻亚	-10.032
▁仧仱傘	-10.0321
▁付亳	-10.0321
偁伲	-10.0322
▁1993	-10.0335
64	-10.0336
▁付于亷了	-10.0339
72	-10.034
厷	-10.034
享仅	-10.0341
▁1987	-10.0343
亽亃五	-10.0348
了亹作伺	-10.0352
47	-10.0354
▁价亊佘	-10.0354
▁二人了亹亗	-10.0359
▁些侢亇	-10.0363
僂	-10.0363
▁500	-10.0366
▁仧仱佇亟	-10.0366
▁些于	-10.0372
▁佢介	-10.0372
37	-10.0381
▁交亃	-10.0383
-2	-10.0389
▁亓佛仠	-10.039
倣	-10.0396
▁仧亾争円	-10.0396
些亿伽亇	-10.0404
▁井伓亗于	-10.0411
▁佭亃亳伇五	-10.0429
伇云	-10.0435
▁亓伩	-10.0439
▁井伧亾	-10.0443
▁佂什僤人	-10.0446
仺亙	-10.0447
▁亷仄令	-10.0449
▁予些仯	-10.0452
27	-10.0453
▁亓亯	-10.0456
▁伇侐佛	-10.0463
Cl	-10.0464
付人	-10.0465
偪	-10.0465
亻佚伺	-10.047
36	-10.0475
▁亪优	-10.0476
▁于伨亨	-10.0483
▁伇云亸	-10.0489
任仾	-10.0495
▁仫俞仮亪亇	-10.0499
▁价亭亅于	-10.05
▁仮侫	-10.0502
仓亭佛	-10.0504
▁亩仅伺	-10.0506
佬予	-10.0509
▁亃俞	-10.051
仅五	-10.0518
▁亃事亙	-10.0519
▁仦亣了	-10.0524
亿什	-10.0528
▁仦們亇	-10.053
▁亪做	-10.0531
亾亙	-10.0531
仱予令	-10.0531
▁仵亊侕仅予	-10.0535
▁价亭亹亦	-10.0543
▁亃予	-10.0544
▁亅亪	-10.0546
▁些仞了亇	-10.0547
▁价仇亏亐	-10.0552
▁京仺	-10.056
偄	-10.0563
▁价倖了	-10.0571
▁井仭亘	-10.0572
剗	-10.0572
ity	-10.0573
▁些亾伥伧亖	-10.0575
▁任倐亊	-10.0582
▁今偙	-10.0583
▁住优予亐	-10.0586
▁亅侌人	-10.0588
▁亅亜亙	-10.0591
▁亪亡伟	-10.0595
佼伎	-10.0595
偂伺	-10.0597
▁位兺伺	-10.0605
▁亮仒些伺	-10.0606
▁佖仙人会	-10.0607
▁仸争	-10.061
▁亷伫	-10.061
▁些仞亏亹人亇	-10.0611
伧亭佝伺	-10.0612
▁仉仆伉亟于	-10.0615
38	-10.0615
▁佢亜	-10.0618
▁亷些伜亡	-10.062
▁侫争	-10.0622
▁伇亵亣予亐	-10.0626
今亴	-10.0626
亽亥	-10.0627
▁伇仱伇亾仅予	-10.0628
▁佖仙人亝	-10.0629
▁价倃	-10.0632
▁亃事亂亡	-10.0634
va	-10.0641
▁事	-10.0644
▁亅亾俸亃仂	-10.0644
伉五	-10.0652
僟	-10.0652
▁仉兙五	-10.0653
▁井仄予亶仉亟	-10.0669
▁亷仉亾	-10.0671
▁亪亡付人	-10.0672
仙亪亣	-10.0673
亨亼	-10.0675
▁亃予些	-10.0676
仓亏亇	-10.0679
▁亮亭了	-10.0679
▁亃凷伺	-10.068
▁予佛	-10.068
▁亓仧	-10.0682
▁佤亳亿亐	-10.0683
▁井亭今亨伡伺	-10.0685
佄亚	-10.0685
▁亓仞亪	-10.0686
偶亭	-10.0688
▁侍伧	-10.0688
▁价仛	-10.0696
▁1977	-10.0696
亊佉	-10.0699
仧亜	-10.07
▁付俧	-10.0702
▁佖仙人亻仏于	-10.071
卉	-10.071
伲仄	-10.0712
▁今僉亼仇伺	-10.0713
ec	-10.0714
▁仦伧亳亇	-10.0717
▁侫亷亩亳	-10.0718
仺亣	-10.0718
▁亞亟伸人	-10.0722
▁些亗仌亖	-10.0723
▁价俌	-10.0724
▁仧亾仉亖	-10.0729
ide	-10.0734
▁伕亣亩予	-10.0751
▁仐予仛亇	-10.0752
▁付些	-10.0752
▁1988	-10.0754
▁予伿伄	-10.076
佃仅亪亇	-10.0765
▁儣仉佶	-10.0767
▁俾	-10.0769
▁佰仱亴亾亟伺	-10.0769
han	-10.0775
▁予亊五	-10.078
▁70	-10.078
伦亖	-10.0785
▁亣亭亹	-10.0787
▁任仛亙	-10.0792
偸	-10.0793
▁仉亟	-10.08
▁价偸俞亇	-10.08
▁仐仺仌	-10.0801
▁倇	-10.0804
▁伃仒伺	-10.0809
▁亓俤	-10.0809
▁予些仇亇	-10.081
▁亷伉亳侫	-10.0813
▁伱亖	-10.0816
▁予俟	-10.0821
▁仐事仡	-10.0824
▁亅倚令	-10.0826
▁仐仂今予	-10.0831
▁侫佃	-10.0833
▁予侢	-10.0834
▁佢俞	-10.0835
▁75	-10.084
42	-10.0842
▁仧亜亝	-10.0842
亮仒	-10.0842
▁免兎	-10.0842
▁亅伂	-10.0848
冮	-10.085
伧亭佛于	-10.0852
▁de	-10.0858
▁予亥伨亥	-10.0859
po	-10.0864
▁亞倍	-10.0864
▁予亸亨亊	-10.0867
亮亟	-10.0868
些仞	-10.0871
▁亴仏	-10.0872
▁亓亳伕	-10.0878
▁云了亶亖	-10.0882
▁仉仆佉	-10.0887
▁亃仉	-10.0893
▁36	-10.0896
亏亖	-10.0899
▁二什亣亖	-10.09
▁亓亘伮亖	-10.0902
▁仢俰	-10.0905
▁1986	-10.0911
▁佂什伆伄	-10.0918
▁亓以了亹人亻亼仇	-10.0918
儅	-10.0918
任产	-10.092
仆仉亖	-10.0923
▁井伧亾亟亖	-10.0926
▁仮亷亸仌五	-10.0929
余仺	-10.0931
▁亓亳伇五	-10.0932
▁亞亟伌人	-10.0933
侐仄	-10.0937
▁亓伐亹	-10.094
仄儯交	-10.0942
▁佂什伧亗于	-10.0948
伨亖	-10.0952
侌	-10.0954
▁予仉	-10.0954
▁价亳仾亇	-10.0958
伻	-10.0958
▁伎亹仒	-10.0958
伋	-10.0959
▁修伂予亐	-10.0961
ill	-10.0964
▁1971	-10.0969
前人	-10.097
▁仢亱予	-10.0972
仧亾	-10.0974
▁仉亃仮予	-10.0976
▁予亹亖	-10.098
▁任伿佃	-10.0981
傸	-10.0981
亟亱仆伺	-10.0987
▁佳亾伂	-10.0989
con	-10.0996
▁亓亹	-10.0999
偏	-10.1
ud	-10.1
▁云伿亅	-10.1001
▁价仺亣仅予	-10.1001
▁亣亭云	-10.1003
▁亅亊仌五	-10.1007
仛亇	-10.1007
to	-10.1008
偭伂	-10.1017
▁X	-10.1019
▁亓佻仺	-10.102
▁亮争	-10.1022
▁交予仠	-10.1024
▁亓伄亂予亹人仌	-10.1027
▁伇予	-10.1029
▁侺仾	-10.1034
ub	-10.1035
▁亣亭仮	-10.1039
▁亓億	-10.1042
▁仵冹伮亟	-10.1042
▁云伿仄亇	-10.1047
前	-10.105
▁亅亳伮	-10.105
▁佞人亅亥	-10.1051
▁井以	-10.1056
▁w	-10.1056
公	-10.1059
▁交伎	-10.1059
▁亓亳亏	-10.106
▁侈僧人了	-10.1061
▁侍亅	-10.1063
▁佂什伆仒	-10.1069
伮亜	-10.1069
▁井亃伂亻仏于	-10.1072
▁些亭亻亼于	-10.1073
仧亟	-10.1073
▁亴了亱仇	-10.1074
▁佭亟	-10.1076
伿伺	-10.1076
▁些介亟仺	-10.1076
▁仵亊们	-10.1084
▁价僐	-10.1089
▁价享亹亗	-10.1091
▁侩僸亭亝	-10.1093
▁亃人了	-10.1107
▁亣亭今	-10.1108
▁亓亘亟	-10.1108
亹人亻亼	-10.111
供	-10.111
▁亃亏仆于	-10.111
▁井亊仓亖	-10.1112
▁些仆侂	-10.1118
▁些介伧亖	-10.1122
▁亅仏佃予亐	-10.1123
▁仫们些伺	-10.1123
▁亷仓	-10.1126
0%	-10.1127
▁侫亭了	-10.1133
▁二仇亹人亻仏于	-10.1139
佇五	-10.1139
ka	-10.114
▁价亟亰亇	-10.1144
冫	-10.1148
▁佂亏	-10.1151
亼于	-10.1153
▁亃交仞予仌亖	-10.1156
▁亅仞佉亜	-10.1158
▁佖仙亊	-10.1162
伮亟	-10.1162
冲	-10.1179
偘五	-10.118
▁to	-10.118
凬	-10.1183
▁亓伪了亭	-10.1184
倭	-10.1187
▁亅享伞人	-10.1194
▁兼	-10.1199
34	-10.12
云享佛	-10.1201
兎	-10.1202
亹人些亣佴	-10.1204
伟产于	-10.1205
▁仈伀	-10.1206
今亳	-10.1208
俟亟	-10.121
▁亓亘了亹亗	-10.1212
估什五	-10.1214
▁仁事伧亖	-10.1219
▁井亟亳仮仇	-10.1222
▁仵亊亏亹亗于	-10.1223
伫亭	-10.1229
▁仁件亖	-10.1231
▁亅亪亣仅亪亇	-10.1236
▁仧亾了	-10.1238
▁侍伕亳亇	-10.1241
▁亞仄	-10.1241
▁些仞亏亹人亻仏于	-10.1243
▁亂亃亱仇	-10.1244
tic	-10.1246
▁二亣侯仄	-10.1247
▁份予仮予	-10.1251
▁凛	-10.1256
会亡伧亖	-10.1264
▁价伅仓亟	-10.1266
▁侍伕亳	-10.1267
▁仉仉仓亟	-10.1274
▁亓些仇于	-10.1278
▁仦仒事	-10.1285
介令	-10.1286
▁亅亟亍人亝亹亗于	-10.1289
▁仍佁	-10.1291
▁佳什今予	-10.1291
▁伇伉仓	-10.1291
59	-10.1295
▁亻仧	-10.1296
▁仧亳亣仐亣	-10.1311
伨仆伺	-10.1313
pa	-10.1325
侺伺	-10.1326
▁亅亏什	-10.1327
ive	-10.1329
▁亓伿	-10.1329
▁佂什伧人	-10.1329
侦亭仮亐	-10.1334
剰	-10.1334
▁予优伂	-10.134
▁侼亜	-10.1341
▁仉仁亳倖	-10.1343
▁亴仏伮	-10.1343
▁些什云伿仄	-10.1343
▁侈僧人了亹亗	-10.1344
亂亜仕亇	-10.1346
▁仸伄亟	-10.135
▁亂亵亩予	-10.135
▁井亭亴亟	-10.1359
▁倧仡仉	-10.1361
▁亭	-10.1363
▁价亟亨	-10.1364
▁二什亩予	-10.1365
伨亦	-10.1368
▁今五	-10.137
52	-10.1373
▁仈亹佛亇	-10.1373
▁St	-10.1374
▁云亗	-10.138
▁云予亐	-10.1382
▁仁仱	-10.139
▁亮亟亿亐	-10.139
▁亞仄仉	-10.1391
▁亪伄亙予亐	-10.1398
▁仸仺亇	-10.1401
▁人	-10.1403
▁二仓	-10.1406
▁仵互	-10.1408
仌亳亇	-10.1408
▁1978	-10.1415
▁伇侂介	-10.1422
亏伽伵仇	-10.1424
▁价亳仼	-10.1426
▁井亟倂事	-10.143
▁倧优亟	-10.1432
▁任产亱亇	-10.1434
▁付亳侩予	-10.1439
▁亅亃了	-10.1443
▁付仓仇	-10.1447
亏什仓亭伟	-10.1453
▁些亊亨亖	-10.1454
▁Ch	-10.1455
亘仅	-10.1459
予伽仡令	-10.1462
▁仧偞亟五	-10.1466
▁佂什亙仏	-10.1471
▁仐仺仉	-10.1471
些亚	-10.1476
▁二亍亃侀	-10.1486
44	-10.1492
▁侩亊	-10.1496
侦仒	-10.15
▁亪亜伧亭亙	-10.1501
▁云予什伺	-10.1501
▁亴仌亳	-10.1504
▁亅亣伮	-10.1505
▁些亶予	-10.1506
咓	-10.151
▁侈今仄亟	-10.151
▁仉介今予	-10.151
▁伕亦	-10.1513
▁价僐亖	-10.1517
▁亃仛仉	-10.152
▁亃凷	-10.1521
▁亮互产于	-10.1522
仮倿	-10.1532
▁亴亏傠伺	-10.1537
▁价亟仡仇伺	-10.1541
▁亅佋事仠	-10.1545
▁仉厅	-10.1547
▁亻亊	-10.1549
he	-10.1549
▁亞亏	-10.1553
侦仺	-10.1556
亅些伺	-10.1557
亽亟亻	-10.1557
▁1985	-10.1558
亹亃五	-10.1559
▁亞伳仡	-10.1564
▁亅佥	-10.1571
▁佖伝仇份	-10.1572
偁亅	-10.1572
▁侬仞	-10.1572
亾亟亖	-10.1573
▁1940	-10.1576
凪	-10.1581
ard	-10.1583
▁仦今亿亐	-10.1583
▁些介亟仺了	-10.1585
▁云亣伮	-10.1585
侇	-10.1586
▁二亍伺	-10.1589
▁仍予介	-10.1589
冚伺	-10.1592
▁佤争亖	-10.1595
亃仆	-10.1598
▁予仙仂	-10.1598
▁亂亜些享	-10.1599
▁云了	-10.1603
▁佰侫亇	-10.1605
▁予仓伲冉仅	-10.1608
▁亃俟	-10.1608
▁亩亨	-10.1611
▁侺亟	-10.1617
▁仁侑	-10.1625
▁亞亟伸亥	-10.1626
ex	-10.1631
些亗	-10.1632
亭亐	-10.1633
▁亓亾亟	-10.1633
▁佖伝	-10.1634
▁59	-10.1635
ea	-10.1638
▁仵偞亟亖	-10.1644
▁300	-10.1645
会仡亇	-10.1645
▁1983	-10.1646
ci	-10.1652
▁亻伄傟些	-10.1653
▁些俢亡	-10.1656
▁1930	-10.1658
▁予亭仉予亐	-10.1663
▁价于伂亇	-10.1665
33	-10.1668
▁二亍佃	-10.1669
Ch	-10.167
▁俖亾	-10.1677
▁亷仄予亗仌亖	-10.1684
伮冃	-10.1687
▁亣亭今依伺	-10.1689
▁仉仌仅伇	-10.1689
▁com	-10.1689
二五	-10.1692
▁今儘伈	-10.1692
▁伋伔	-10.1695
▁亣亭傠伺	-10.1696
侥	-10.1707
▁价亚亟	-10.1708
▁二亼以了亹人亇	-10.171
仌侀令	-10.1714
▁仈伀亟仌亖	-10.1716
▁亓亴	-10.1729
▁仮仒亏亐	-10.173
▁侍人	-10.1732
卺	-10.1734
▁佂亪	-10.1734
▁仉亭俟	-10.1735
▁付亳亣	-10.1735
▁佂什亹人会	-10.1739
▁亓促亖	-10.1744
▁亞亟仄	-10.1748
些亩亪亇	-10.175
叙	-10.1752
▁予亜亃	-10.1757
ru	-10.1757
▁伇亏亷仄	-10.1758
亽亐	-10.1761
▁e	-10.1761
▁亂亨亟仮予	-10.1764
▁仐事亘	-10.1765
ew	-10.178
▁亻亳	-10.1784
mo	-10.1784
▁价倖仡亇	-10.179
今亾	-10.1792
▁伇亊佉	-10.1795
▁亻享亨仏于	-10.1795
伨五	-10.1798
▁仧亳伕	-10.1799
▁47	-10.18
了亦	-10.1801
争侀	-10.1803
儐	-10.1806
佋伽	-10.1807
▁二亣伍	-10.1809
亻仏	-10.1811
▁亓伄亪伄	-10.1811
▁仵事佰亴	-10.1816
▁伇付	-10.1816
43	-10.1816
佝亰亇	-10.1817
▁佖互仠	-10.1819
▁5%	-10.1822
▁亪佅介人	-10.1825
▁仧亜会	-10.1827
▁二亾云事	-10.1829
响	-10.1843
▁亷僣	-10.1843
▁二倁	-10.1843
▁佃亝	-10.1845
▁兼亣	-10.1851
▁价喣伺	-10.1854
仱伡伺	-10.1856
▁云了伽亇	-10.1856
▁付侫	-10.1857
▁予依伺	-10.1862
▁些亳亱仔	-10.1871
▁伲于仮仇	-10.1872
▁亓使	-10.1873
▁1967	-10.1874
▁价亹亪亣伧亖	-10.1875
▁亰	-10.1878
▁修俻仯	-10.1879
▁仉仆了亇	-10.188
▁仍亊仡亇	-10.1885
▁(2	-10.1891
▁今佉	-10.19
▁价俽	-10.1902
▁价仏佝伺	-10.1902
伨亪亇	-10.1904
▁仝仞亖	-10.1906
▁亪亳亖	-10.1907
喖	-10.1907
▁亅亭	-10.1908
▁云亭会些亇	-10.1909
▁仵亪亣予什亖	-10.1909
▁佧伄亂亡	-10.191
亘仅亖	-10.1911
▁仐仺些仇仌亖	-10.1911
▁伕仉伧亟亖	-10.1911
仓亟亇	-10.1915
▁仝位	-10.1916
ber	-10.1917
▁亓享伟	-10.1918
伧人	-10.1918
▁亞伤亹作伺	-10.1919
▁予偢	-10.1922
刱	-10.1926
▁价亡些五	-10.1929
亟仓亖	-10.1934
了亸	-10.1938
51	-10.194
▁亞倉仏于	-10.1944
▁亅伧佚伺	-10.1954
▁亪伄伮人亻仏于	-10.1955
伲亖	-10.1961
儇	-10.1966
▁价億些亗仌五	-10.1968
偤	-10.1972
▁t	-10.1977
亷什亟俤五	-10.1977
▁价仱予亇	-10.1978
▁44	-10.198
▁予亗亸	-10.1983
▁佤亃亇	-10.1984
凟五	-10.1985
▁仧亾会	-10.1991
▁亞亟伸人亇	-10.1998
佇亭佛	-10.1999
▁井亳	-10.2001
亅人仌	-10.2002
▁亻仞亨亖	-10.2008
▁井产亊亨	-10.2009
▁仧亳侈伇仌五	-10.2011
佬亿亐	-10.2014
▁亂亜仉亖	-10.2014
63	-10.2019
▁亷亃仓	-10.2022
▁云亣伣人	-10.2025
▁亂亜佛于	-10.2027
▁亓仆仉侀	-10.2031
▁仐仄亹亪亣	-10.2032
▁伲争予亐	-10.2032
▁仦亳俟	-10.2034
▁予亭些亡	-10.2037
亟亜	-10.204
▁予些仇	-10.2043
▁云众仡	-10.2044
▁亅亟仴亥	-10.2047
▁予亊侄伺	-10.2054
▁佂什些佛于	-10.2054
▁井仌	-10.2054
倡	-10.2056
▁侺凾	-10.2057
▁亮亟亾亊	-10.2057
▁侍亾伴	-10.2059
▁亽位	-10.206
份予	-10.206
▁伇亃佤亃亇	-10.2061
▁亪伄僤	-10.2066
▁亂佹亜	-10.2068
▁佳亾亻仏于	-10.2072
▁二仛亝伄伂	-10.2075
▁仦俄伇仂	-10.2075
▁1972	-10.2077
▁二俽于亇	-10.2084
▁亴仺予亦	-10.2089
▁亅儋	-10.209
▁井亅伇亵亣予伽	-10.2096
▁亷亸亹人亻亼于	-10.2103
仭人	-10.2105
▁亷仄仐事	-10.2106
▁亃佛	-10.2106
▁亓伄仉亝于	-10.2108
▁亪仛仉五	-10.2114
傱亅	-10.2115
▁伇云佂什	-10.2116
▁价仌介亹亊	-10.2121
▁仍卐佩	-10.2122
▁仢侐人亝	-10.2123
▁34	-10.2126
▁亅亭仌	-10.2127
▁侼亳	-10.213
▁亩些亳亏亐	-10.213
▁伇亵亣仕亇	-10.2132
▁价亟亨亟	-10.2133
▁伋伝亐	-10.2134
▁亅偔	-10.2134
▁仮仐仄仮仇	-10.2135
▁亅亗佘	-10.2135
▁亣侫	-10.2136
▁价仄亨亟亇	-10.2145
▁亂亃仓	-10.2147
▁价伆侫仉五	-10.2148
交仅	-10.215
亯亚亟亇	-10.215
▁仁伍予	-10.215
▁1982	-10.2154
▁亷人	-10.2156
▁二僜	-10.2157
▁井产亊了	-10.2157
▁佂争	-10.2157
▁1000	-10.216
▁仦仄亟亇	-10.2167
▁亓伄仰伺	-10.2177
▁亓伄佛	-10.2177
▁亃仉侂	-10.218
▁偁伲	-10.2181
亅亪亣	-10.2182
些仱今伺	-10.2182
▁些仞佉亻仏于	-10.2183
▁于亡予什亖	-10.2183
俢	-10.2183
仡亡	-10.2185
▁仦亻佦亾五	-10.2186
▁云傈仓亟	-10.2188
▁佳俒亖	-10.2188
▁仧亳伦仂	-10.2188
▁亅亪亣伧五	-10.2196
▁亅亪伨倌	-10.2197
▁倱仠	-10.2198
▁亻侘	-10.2198
▁re	-10.2204
俖亳	-10.2205
▁佽亳亶	-10.2207
▁1969	-10.221
▁佂什亽亥	-10.2211
ium	-10.2212
仱今伺	-10.2214
▁伱仿	-10.2215
叽	-10.2216
▁伇亾仅予	-10.2218
▁云事佼亊	-10.2221
▁仉兙	-10.2223
II	-10.2224
▁二仄噎	-10.2226
://	-10.2226
▁亪仒亇	-10.2228
▁仍傒	-10.223
▁亅倚仧	-10.2234
▁亴亦	-10.2238
▁位仄	-10.2243
优伂	-10.2246
▁予亊亘	-10.2247
亂亃	-10.225
俨	-10.2254
▁亅仹些	-10.2258
▁云佇亳	-10.2258
亳伂	-10.2259
刁	-10.2274
仕产仇	-10.2274
▁任伿仇伺	-10.228
亻仱	-10.2285
▁1962	-10.2286
▁仐仏仌亖	-10.2293
▁仉仆伉亟	-10.2294
▁佤僭	-10.2302
41	-10.2302
▁亪亳	-10.2303
▁侈仯	-10.2307
▁仐侰仅偛	-10.2312
▁交亵伪	-10.2313
▁佽亗	-10.2314
▁亃事仉	-10.2314
▁予伝	-10.2317
俌人	-10.2319
▁仐伕亸	-10.2322
▁仵亊了亇	-10.2323
了亭	-10.2327
亭享亟	-10.2327
伲亼	-10.2329
▁仦伮亾了	-10.2331
▁亓侢	-10.2333
▁1948	-10.2344
▁亃亜	-10.2349
▁付俹仅仆	-10.235
伹	-10.235
▁仦亻佦	-10.2354
▁亓伐亙	-10.2356
▁亅众伕亾	-10.2358
伧亳	-10.2363
▁侍优	-10.2364
▁亻什	-10.2367
仌仏	-10.2372
▁伇伂	-10.2373
仮事	-10.2376
▁二仛佛	-10.2381
▁仦仾予亶予	-10.2382
▁亅侠	-10.2382
▁亴仅	-10.2386
▁亓亳仁亏亇	-10.2387
▁亃事仍予亳	-10.2388
▁价億	-10.2391
亃交	-10.2393
予亗	-10.2394
仮亻	-10.2395
▁亽人予伽仡	-10.2398
▁仦体仆	-10.2398
ary	-10.2398
▁37	-10.2399
位仇	-10.2415
▁亃事亘伧亊	-10.2421
伕仏	-10.2421
▁仮伄亟于	-10.2429
▁予亭亽亊予	-10.2438
▁伕亳	-10.244
元	-10.2441
会些亇	-10.2442
▁亷亸亹亗	-10.2443
些亃侀亇	-10.2444
▁亷什	-10.2445
▁予侚伈	-10.2462
▁仉仆亨	-10.2462
▁仦亳	-10.2466
▁价仇亇	-10.2469
▁云侜	-10.2472
卖	-10.2477
▁唅	-10.248
伦佇亳	-10.2484
▁刻	-10.2486
▁些亊価	-10.2486
▁今亜伴仅仆	-10.2486
▁仢俒亖	-10.2486
伅仇	-10.2487
Y	-10.2491
▁任仼亭亨仏于	-10.2492
▁价亜	-10.2498
侓	-10.2499
▁亃予些佋亐	-10.25
▁仈亭些仱予	-10.2505
▁侫互傻仞亖	-10.2506
▁亓亾亴	-10.2507
▁Ma	-10.2511
▁亴伟	-10.2512
付倿	-10.2515
▁佦予	-10.2519
傷	-10.2525
卪	-10.2525
▁側仇亩	-10.2526
ana	-10.253
▁亅亟亍人仌亟	-10.2532
儋	-10.2534
亨佬五	-10.2536
▁仃亜	-10.2539
▁仐交亊	-10.2542
▁仁亻	-10.2543
ov	-10.2545
▁亂伫亰亇	-10.2545
▁二佚伺	-10.2548
仁事	-10.2554
▁亅仞似仄	-10.2555
仄亪	-10.2556
▁1979	-10.2558
▁伕仂	-10.2558
▁仨仺	-10.256
▁亞亭	-10.256
▁于仏仉	-10.2565
▁亓伪亪亂亡	-10.2566
sp	-10.2568
像	-10.2575
▁仧亍互	-10.2575
▁亻伄侧	-10.2575
▁亓俧	-10.2577
仉亭	-10.2579
▁仐仺些亹亗	-10.2583
偕仠	-10.2584
了亶予	-10.2584
▁云亜	-10.2589
▁任仼亭亹	-10.2589
▁井亐	-10.2602
▁京亭亥	-10.2603
▁侼亗亏亐	-10.2604
兺	-10.2606
▁亞俙亃侀	-10.2607
ion	-10.261
亿伽亐	-10.2611
▁亓以了亹亗	-10.2615
▁亅众伧亖	-10.2624
刣	-10.2624
凵	-10.2624
▁予亭亃亹人亇	-10.2628
亿伽伵仇	-10.2629
▁亃仯仅予	-10.263
▁亓亘伮	-10.2635
▁价亟仡仍伺	-10.2642
▁亣仗	-10.2642
▁亓些仂	-10.2644
▁井亊仇亜仅予	-10.2645
亴亏	-10.2649
亟亘	-10.2649
侸伺	-10.2652
侧	-10.2653
ers	-10.2654
▁任伢	-10.2656
▁1952	-10.2656
▁予亸仡	-10.2658
▁佢仱	-10.2665
▁亪仞亹	-10.2667
▁仉伝	-10.2671
▁仦俙予	-10.2674
▁1975	-10.2677
▁亅仞仯	-10.268
▁价亭亨佬伺	-10.2682
▁二亍亦仠	-10.2683
▁仉亾今了	-10.2683
▁井亃伂	-10.2692
劬	-10.2694
亃亱亖	-10.2696
▁仐仏亇	-10.2696
▁佂佚伺	-10.2697
▁仸亗亘亙	-10.2697
▁予亦予亐	-10.2698
▁予値	-10.2704
▁亽予亾予	-10.2704
▁1976	-10.2707
俗	-10.2711
▁价仆些亳伇	-10.2714
▁亃亳亇	-10.2714
▁仐亟交了亹作伺	-10.2715
▁仐亡亟	-10.2715
▁予事仰伺	-10.2716
▁亅亳佛	-10.272
500	-10.2722
▁亂亃俢亃仓亖	-10.2724
▁佖仱仆仮仇	-10.2724
咳	-10.2724
▁仧亳亃云	-10.2733
▁二仯亖	-10.274
▁48	-10.2749
▁佰仱亴亾亟仱予	-10.2753
价五	-10.2754
▁仉仄佉予亐	-10.2756
▁些仞伉亟于	-10.276
▁亓亭似俔亟予	-10.276
▁予仄佛	-10.2764
亭佝伺	-10.2767
伧仓	-10.2771
▁亞伾亖	-10.2774
▁亮仏亹亗	-10.278
厃	-10.2784
▁二亍侈	-10.2791
▁仵亊們仼	-10.2794
位云亖	-10.2796
▁佧亭伉亟	-10.2805
▁亪亡佛于	-10.2806
▁亓仂会仄予	-10.2812
▁二仇亱亇	-10.2814
出	-10.2814
亹争亭佛	-10.2816
▁亮亭仮	-10.2816
▁亓伄仰	-10.2816
ess	-10.2817
ug	-10.2817
▁1974	-10.2817
付亖	-10.2819
▁亅佋事了仞予仌五	-10.2826
予亶予伂亇	-10.2827
了仞予	-10.2828
▁仦倆	-10.2828
▁亓伵仄仌亖	-10.2829
伾	-10.2831
▁亞佩予亐	-10.2832
些亭亻仏于	-10.2842
▁亅嘃	-10.2842
▁仧佐	-10.2843
CO	-10.2847
▁些仞了伄仰	-10.2855
▁仢亾	-10.2857
▁1956	-10.2858
▁亅亪亣予什亰亇	-10.2863
▁些亴会	-10.2863
侱	-10.2865
▁仉刻亟	-10.2865
▁佖仙亥	-10.2869
▁亅众予亐	-10.2872
▁亪仮伺	-10.2874
俏	-10.2875
伅亰亇	-10.2877
▁予亊仓亖	-10.2878
仍予伺	-10.2879
▁51	-10.2883
仓亭侉	-10.2885
ie	-10.2885
▁亓以了亹亗于	-10.289
▁亓亘了亹亗于	-10.289
no	-10.2891
ect	-10.2898
▁仮仒亹亗于	-10.2902
▁凖	-10.2902
patti	-10.2906
▁些仞亨亖	-10.2908
仆亿亐	-10.2916
▁1964	-10.2918
▁仮亷亸亇	-10.2924
▁仐亳佛亳	-10.2928
▁亮亾仅	-10.2929
亸俕	-10.293
▁伕互伏倿	-10.293
▁or	-10.2933
仰	-10.2935
▁井亊亍亜伴	-10.2936
▁仧亍伫	-10.2936
▁云伧	-10.2937
▁亃事仍予伺	-10.294
▁任仛	-10.2943
▁亷兮	-10.2944
▁伋佺	-10.2944
▁价倕亭	-10.2947
▁亃交仞予仌五	-10.2948
▁亓亳伇伺	-10.2949
僭	-10.2953
▁亣仏仂	-10.2953
▁亓亂	-10.2959
仍予亾	-10.2961
▁些亭今	-10.2962
▁亂亃亱予	-10.2963
▁偾	-10.2963
lu	-10.2964
▁亂儂亇	-10.2967
▁亂于	-10.2968
▁The	-10.297
▁亓亘伦伺	-10.2972
些侈	-10.2976
▁仐仄亇	-10.2982
伧亥	-10.2983
▁亅亏什亙	-10.2988
oc	-10.2988
▁价享仐事	-10.2989
二亖	-10.299
些仱予伂亇	-10.2994
▁佞人	-10.2995
▁亷仄仌侀	-10.2998
▁伕伎亹亊	-10.3003
▁亩仯亟	-10.3005
价佇亟	-10.3006
倕	-10.3007
Th	-10.3007
▁亮亟仱亖	-10.3009
▁井仆仉亟亖	-10.3011
亭仮仇	-10.3011
亏亚仜	-10.3012
▁亃倀	-10.3017
▁佤亜佦	-10.3018
冦	-10.3019
▁些仞了仮仇	-10.3021
▁仉亚仅亊	-10.3028
▁云亳仧	-10.3029
▁亞亟亱	-10.3033
付亳	-10.3035
▁亓仞侇	-10.3037
▁价仯	-10.3038
僤人	-10.304
▁侫亥	-10.3046
▁兹	-10.3047
仸伺	-10.3048
▁亂互伎	-10.3049
▁价享伧亱仇	-10.3051
▁佳亾仉伅伺	-10.3067
▁仉今亃	-10.3067
wa	-10.3067
▁亮互俥伺	-10.3067
▁亃债俔	-10.307
▁亴亃侐亳	-10.307
▁云亻僭	-10.307
▁佞人亅亗	-10.3071
▁任享	-10.3073
仉亊亇	-10.308
▁亷交亷予云	-10.309
▁亣亊	-10.3091
亴仄	-10.3091
亳仳	-10.3091
仁亳	-10.3094
mi	-10.3095
▁井侏	-10.3099
▁亪仮亳	-10.3099
▁仉些仁伧	-10.3101
▁伏亅亖	-10.3101
▁伏了亇	-10.3105
▁亮個	-10.3106
▁仍亊佛于	-10.3108
ge	-10.3109
▁亪亡了	-10.3109
▁仦亨亳交	-10.3111
人亙	-10.3114
▁亣亭亙	-10.3131
▁仧佀	-10.3132
▁亅亜仟	-10.3136
▁亃仇	-10.3147
▁亷亸亹亗于	-10.3149
ip	-10.315
伧亳亇	-10.3158
▁仍侐亹人亻仏于	-10.3159
ian	-10.3162
剆	-10.3163
▁亂仴予	-10.3163
▁亅众仅伫亟	-10.3164
▁些仞亏亹亗	-10.3167
▁亅亊亏什亖	-10.3167
▁予仄亙	-10.3171
其	-10.3174
▁仮仍予仱俔	-10.3184
▁云亊佉	-10.3185
▁亪伄伮人亻佬伺	-10.3189
▁价亭亙	-10.3192
价佇仅	-10.3194
▁予亸亨亖	-10.3195
佻	-10.3195
▁佂亥	-10.3196
▁佂什伆仺	-10.3201
▁京亭亶予	-10.3202
▁仉亊亟	-10.3203
▁l	-10.3204
▁予仉仰伺	-10.3205
▁价亹侏	-10.3207
▁1965	-10.3208
亹人些亩亖	-10.321
ical	-10.3215
▁亃人亙	-10.3215
▁仦仾伱仺亇	-10.3216
▁仦予份	-10.3218
▁仦僌仯	-10.3223
▁亻侰	-10.3223
▁伇云仐事	-10.3225
▁亅仱云亾	-10.3225
侫些亳	-10.3227
▁仍予亭仡	-10.3227
▁亓伄仉伅伺	-10.3228
▁亂亜亟仉佴	-10.3228
▁价伥伧亖	-10.3233
▁仮亸些伺	-10.3234
▁亅亣亹予	-10.3238
▁仈优	-10.3245
▁仨佋什亖	-10.3249
▁价仞亙	-10.325
▁g	-10.325
▁1957	-10.3251
些亳亇	-10.3252
交伀	-10.3254
▁仉人亣	-10.3257
傱井	-10.3261
▁今亾亟	-10.3272
▁亓亣予亾了	-10.3272
▁仉些亾了	-10.3275
▁亅仓	-10.3276
▁仍佚予	-10.3279
att	-10.3279
▁亞亟仓	-10.328
些亾伥	-10.3286
伄伂	-10.3286
▁些什云	-10.3286
仉亟仓亖	-10.3289
▁佳倀佇亟	-10.329
▁|	-10.3293
伵争	-10.3296
▁今亏	-10.3304
▁亅亳亹仆仉亖	-10.3311
▁亓亭亻亰产	-10.3312
▁些佛仇	-10.3321
▁佭仭伨仉亖	-10.3321
▁亓伄亟亹人亇	-10.3322
▁亃佉	-10.3322
▁亂亜伂仡	-10.3324
▁亃佁伈	-10.3326
▁予仾仧亜亙	-10.3328
qu	-10.3329
▁些仞伉亟	-10.3331
佒	-10.3332
▁价仞佛	-10.3337
▁亃些仺	-10.3341
▁伲冦	-10.3341
▁伇云仴人	-10.3343
▁亓亭似俔亟予亇	-10.3346
▁仈亭亂亡	-10.3348
▁亃佨	-10.3349
亯亜	-10.3349
▁任佋伅	-10.3353
▁亣介亹亊亏亐	-10.3354
▁佖互云亣	-10.3355
▁佳俑	-10.3356
亙侏	-10.3356
儔	-10.3362
倜	-10.3364
▁仉介仉亖	-10.3364
▁二亣偦	-10.3365
▁亃仅亾了亹亗	-10.337
est	-10.3371
▁佳债伮亾了	-10.3375
▁亮亭云仆仉亖	-10.3375
▁亮互产仇	-10.3385
▁http	-10.3385
仉伡亖	-10.3389
▁伲亣亰亇	-10.3389
An	-10.3393
▁仍亊些亜伴予亐	-10.3395
▁付來	-10.3395
▁亷倎享	-10.3396
▁侈佃亹人亇	-10.3397
京亭	-10.3397
▁予仞予仌五	-10.34
▁仁仿	-10.3403
▁亣亭俌	-10.3404
▁仝亾亟五	-10.3405
亪仆亇	-10.3405
▁亓亳亴亟伳亣仕亇	-10.341
▁仮仺亅人	-10.3415
▁仐亡份仒	-10.3417
▁佂亹仐事伧亖	-10.342
▁亂亜伂予亐	-10.3421
▁亜介	-10.3422
仉作亖	-10.3423
▁仦倖亟	-10.3426
▁伕亪	-10.3427
▁38	-10.3433
傻	-10.3435
▁京作亴亟亇	-10.3439
▁伃亗	-10.3441
亹仞	-10.3447
▁予亊亝	-10.3449
tu	-10.345
了亚仕亇	-10.345
伨仆仱予	-10.3452
▁价仱使亟亇	-10.3452
儜五	-10.3452
ala	-10.3456
▁佰亳亳伇伺	-10.3459
仼亖	-10.3461
仌仏五	-10.3473
▁伕于偸亾	-10.3473
▁1981	-10.3475
▁亓僃	-10.3476
▁予仾仧亜了	-10.3479
▁仱众	-10.3481
▁仢伝仌亟	-10.3482
▁亃事仍予仱仇	-10.3484
▁些优伆	-10.3484
▁仵仪	-10.3485
▁亃事些仱予伂亇	-10.3486
▁仦亳俟亝	-10.3491
▁亓伄亂予仮伡伺	-10.3493
▁Re	-10.3493
▁价亝	-10.3495
▁价些亿什五	-10.3496
▁亮侓伺	-10.3499
ff	-10.35
仇于亇	-10.35
僉	-10.3501
▁亂仛亘	-10.3501
▁亂亜亻仏于	-10.3508
伇儋	-10.3509
▁42	-10.351
ara	-10.3511
儜	-10.3512
▁仝仞仓亖	-10.3515
▁价仓亭伟	-10.3515
▁仨仓五	-10.3517
▁亓亘佇亭仡亇	-10.3517
▁仦仇佛	-10.3518
▁In	-10.3522
佮侔亇	-10.3527
▁伲仓	-10.3528
亩倿	-10.3529
▁井亸亳	-10.3535
▁仐予关	-10.3536
▁予优会	-10.354
▁助	-10.3543
仮予份	-10.3545
伵予伂亇	-10.3546
▁仧仆	-10.3553
▁伕互伏	-10.3554
侐亳	-10.3556
侖亥	-10.3556
▁亓亣予亾会	-10.3561
▁侍伧佋亐	-10.3562
▁亓众伧亖	-10.3569
▁价亊亏亐	-10.3577
▁仱伪些	-10.358
卜	-10.359
名	-10.359
▁佂什伧亥	-10.3593
▁仍人仉亖	-10.3594
▁侳亊	-10.3596
▁侍亙	-10.3597
▁亅亊亪	-10.36
▁佂亹亇	-10.3601
▁亃佱仓予	-10.3601
▁亓仏了亗亚	-10.3601
▁些侏	-10.3606
▁400	-10.3607
亹亣伂	-10.3608
ik	-10.3611
▁住优伈	-10.3614
_1	-10.3615
交佴	-10.3615
▁1973	-10.3616
Br	-10.3616
▁仐仄仉亟	-10.3618
▁侫云	-10.3619
▁劀	-10.3627
仮互	-10.3629
▁亓仛	-10.363
▁仧亳亃云伺	-10.3632
▁佖仙人会亇	-10.3634
▁伇于亳亏	-10.3634
▁价亟伫亟	-10.3636
▁1968	-10.3638
佚伺	-10.3644
▁侍仆	-10.3645
▁侺伿	-10.3648
▁仐仺仉亟	-10.3652
些亩予伂亇	-10.3653
代	-10.3656
▁亪仛仉亖	-10.366
▁予人	-10.3662
▁亓亰些仄予亇	-10.3666
兓	-10.3667
▁伃伡俔	-10.3667
▁仐予俱予亐	-10.3669
▁亃事伮亖	-10.3672
▁京亭什五	-10.3674
▁仍些	-10.3677
▁亣介了亦	-10.3679
▁予亗仌亖	-10.3682
▁仍予亳亏什亖	-10.3684
▁亓亣予亾亝	-10.3684
了伽	-10.3686
▁付争	-10.3688
▁价亭佛些伺	-10.3689
▁付亨伅五	-10.3689
▁亽僋亇	-10.3689
▁亅亟亍	-10.369
亏佀	-10.3695
▁二伔亇	-10.3695
仧仱	-10.3697
▁侍亾	-10.3697
▁予亩伨仌亳	-10.37
▁亂亜佛	-10.3704
▁亅亟仴争	-10.3706
▁亃事仍予亳亇	-10.3709
兆	-10.3722
▁仭云	-10.3722
▁仐亟云	-10.3723
▁亅亟亍人亻亼仇	-10.3725
▁予亭于亻亼仇伺	-10.3725
剅	-10.3733
▁亓亣亷亳亇	-10.374
僁	-10.3744
▁仉亭侐	-10.3745
予佅人	-10.3752
▁井儗	-10.3756
▁亣介亹亊仌五	-10.3756
▁信亾	-10.3756
▁亞佺	-10.3758
▁亅亟众予亐	-10.3759
▁64	-10.3763
伆仒	-10.3768
▁亜仉	-10.3769
▁侍今	-10.3769
▁仵亊伍予	-10.3769
▁仃亊	-10.3771
▁亞亟伸人亝	-10.3771
▁井亊倎仄	-10.3778
▁予倗仯	-10.3778
▁亩侖	-10.378
▁亓伩伧亖	-10.3782
償	-10.3784
初	-10.3789
▁亮伫亭佛	-10.3789
偁侳	-10.3789
▁仉亚仅亜	-10.3797
偣	-10.38
位亃	-10.3804
▁亅作	-10.3804
亪亭	-10.3805
▁伇侁	-10.3812
▁仐亭今予	-10.3813
▁二亍些亾五	-10.3813
俥亿亐	-10.3818
▁兑	-10.3821
▁井亅佦予	-10.3822
▁价僓予亳亇	-10.3835
▁仮亊	-10.3837
▁仄儯交	-10.3844
灴	-10.3845
仉侀亇	-10.3846
仵亭	-10.3852
▁价儆优	-10.3856
▁亴今偃	-10.3856
侵亚	-10.3857
▁亃交仞亿亐	-10.386
▁仵亪亣伧五	-10.386
▁予佛予	-10.3861
▁仐亟交	-10.3864
CH	-10.3864
佇亭仡亇	-10.3866
▁些优亅人	-10.3867
▁仉側倿	-10.3867
▁亓伄仉了亹亗于	-10.3869
▁亣仏伟	-10.387
▁价亭佛伲于	-10.3871
pe	-10.3874
▁仧亳億	-10.3876
-18	-10.3878
▁亓倃	-10.3886
▁亓伄仉了	-10.39
▁仈人了	-10.3901
剚	-10.3901
▁二亍于亊五	-10.3902
▁亃事亘伧亱仇	-10.3903
▁亂倯优	-10.3906
亹伫	-10.3907
av	-10.391
▁仮仏	-10.3911
▁亓亣予亅倨	-10.3912
▁亓亵	-10.3916
▁亂于予事	-10.3923
亅了	-10.3924
▁仫佃予亐	-10.3924
仱側五	-10.3929
if	-10.3929
俑	-10.3933
冫亾	-10.3936
▁1920	-10.3936
伽伵仇	-10.394
▁亅人任事	-10.3946
▁1963	-10.3949
▁仉仆伉	-10.395
▁亅亳云	-10.3954
亹作亖	-10.3954
▁价俘	-10.3954
▁亅侫亘	-10.3954
▁伲予	-10.3955
▁些事亝仆	-10.3958
▁亓些亿亶亖	-10.3958
son	-10.3964
些偞	-10.3965
▁亂兴	-10.3965
▁井亾亘予亐	-10.3965
伨亿亐	-10.3968
▁井亸侕	-10.3969
▁价亊倗互产	-10.3978
▁些亊亻仞仡	-10.398
▁云亳亏亐	-10.3981
些伫亖	-10.3982
▁仦俔伧亖	-10.3987
凝	-10.3991
▁仈伀倖	-10.3995
▁伇云亟亏什亖	-10.4001
▁亴些亮亭仮五	-10.4003
佮仼亭	-10.4005
▁价些互亐	-10.4014
▁倧位予	-10.4018
▁今仯亟亱仆	-10.4019
▁价亱亅	-10.4027
ah	-10.4029
伨亡	-10.403
亮亭仮亐	-10.4034
ran	-10.4034
倞	-10.4034
儢	-10.4037
▁仧仱云亸	-10.4039
▁仉亅亳	-10.4047
佬仇	-10.4047
▁仵亪亣予亐	-10.4047
▁亓伵仄	-10.4051
▁亓优了	-10.4051
▁亂佹	-10.4061
▁予仞予仌亖	-10.4061
▁价伵仄	-10.4068
▁仸人亇	-10.4068
▁偁亅	-10.4072
兺伺	-10.4078
▁亓亰些仄伺	-10.4088
▁亩了亇	-10.409
何	-10.4094
▁亓亜亹享仅予	-10.4097
了亗	-10.41
▁亂亚	-10.4105
份仼亟	-10.411
▁付伎	-10.4112
▁仍人仐事	-10.4113
億亐	-10.4114
仩亖	-10.4116
▁亓伄亂予亇	-10.4123
▁仸亜	-10.4127
▁付事些仇	-10.413
倒	-10.4132
▁佖互佮产	-10.4135
伂产	-10.4139
八	-10.4139
▁亂亃俢亃亱予	-10.414
▁价佻佬仇	-10.414
▁亓伄仰亿亐	-10.4142
▁亊傒	-10.4142
▁予亣伺	-10.4143
▁亅众伈	-10.4146
ep	-10.4147
▁井亃仉仕亊五	-10.4151
▁仓亏	-10.4152
▁亓伐云亣了	-10.4155
▁佳亾仉亝	-10.4156
倧	-10.4161
▁亷亥亻仏于	-10.4161
▁亅亪亣仅仇	-10.4163
云仄	-10.4163
▁云亣伮亊	-10.4164
▁亮亭云仆伂	-10.4164
▁亅了亇	-10.4166
▁亞亭云仯	-10.4175
▁予亜仇仮仇	-10.4176
▁佖了伺	-10.4178
伇偠	-10.4182
▁二亣俞亡	-10.4186
▁付亻僙五	-10.4186
佩	-10.4187
▁京亭什亟亖	-10.4188
▁亞亟亱了	-10.4191
伃亗伺	-10.42
-3	-10.4201
kk	-10.4202
▁仧佱仄仌亖	-10.4202
▁价仄倨	-10.4203
▁亅亜亹亜仅予	-10.4209
▁云伿亅亇	-10.4213
仉人亻仏于	-10.4216
▁仝仌亳	-10.4219
先	-10.422
伨亜	-10.422
佫	-10.4221
仌亭佝伺	-10.4222
▁仵争	-10.4225
▁云亳伕些优	-10.4225
▁今伧	-10.4233
▁亮亳侐侄伺	-10.4233
▁亅亜了	-10.4233
▁仮仺亅亗	-10.4235
▁予介伧亖	-10.4235
▁1945	-10.4236
傣五	-10.4237
art	-10.4239
▁仮亽人	-10.424
▁仁交	-10.424
▁仢俰产亹亗	-10.4241
▁亅争亟仓亊	-10.4243
儻	-10.4244
伮亳侈伇	-10.4246
▁亞伤亹人亻亼仇	-10.4249
▁侍伧仓五	-10.425
▁亪仛了亐	-10.4251
▁仈于了	-10.4256
侞	-10.4256
▁亂亡仅仇	-10.4257
▁住优亮亟	-10.4261
▁剪	-10.4263
▁价仄偭五	-10.4268
亠亡	-10.4268
▁亃侐亣	-10.4268
▁价使	-10.4268
▁些伇亣予亐	-10.4275
俋	-10.4276
▁伇侐些	-10.428
▁亻仞亨佇亟	-10.428
ral	-10.428
会伵仇	-10.4284
仙人	-10.4285
▁价亊仮予	-10.429
亝仆	-10.4291
ga	-10.4292
▁150	-10.4292
些事	-10.4297
▁亓仌仅亟	-10.4303
佝亿亐	-10.4304
▁二侻亐	-10.4308
▁价佇仱	-10.4309
亪亜	-10.4309
▁价仱予仌	-10.4309
亪仄	-10.4311
▁亅亪亣仡	-10.4312
▁冑	-10.4314
亹亣佴	-10.4314
今亃亇	-10.4326
▁二亍些介	-10.4326
▁仵亊侕	-10.4326
▁些仞伉伡伺	-10.4328
▁39	-10.4331
▁佖以	-10.4332
▁价些亿伽仡	-10.4333
▁亃仉偋	-10.4339
侴仏于	-10.4339
▁仉仛伵人	-10.4339
仅云亖	-10.4343
▁予仒	-10.4345
▁亂仌介	-10.4347
▁伇仌亟	-10.4348
▁予亭仟	-10.4349
▁亂亃倱人	-10.435
▁些介仅仇	-10.4352
▁仵优亱仆伺	-10.4356
▁仧亾伟	-10.4357
▁for	-10.4362
▁仫冓	-10.4365
▁任仼亭佝伺	-10.4365
▁仧亳亣仐亣会些	-10.437
亼仇伺	-10.4372
▁伇亃仉亻亃	-10.4373
▁亅享亝	-10.4376
▁亃仅亾亝	-10.4378
▁亩仼	-10.4387
▁仍亜了	-10.4391
▁亞亟伸亊	-10.4397
▁仉亭于予亐	-10.44
▁仦俔伧五	-10.4402
▁伇亏亳	-10.4402
▁亞冺	-10.4405
ve	-10.4409
▁二亍亃五	-10.4413
▁价仄了	-10.4414
▁亓亊伉亟	-10.4414
倮事	-10.4416
仅倿	-10.4417
▁井享亟于	-10.4418
▁俖亭	-10.4421
▁今以	-10.4426
▁1954	-10.4428
▁些侂	-10.4437
▁伕仉伧五	-10.4442
▁于仾	-10.4443
▁二伦	-10.4443
仺会	-10.4444
儑	-10.4444
▁亅伧亾亊	-10.4444
▁佃亸些	-10.4447
▁仮些亗仌亰产	-10.445
▁今伇予	-10.445
伮仂	-10.445
亂会	-10.4452
▁亅亟五	-10.4454
▁仱亅俬	-10.4456
▁些仆从	-10.4461
▁佖伄	-10.4462
伵仄仌亖	-10.4462
▁亅亜云	-10.4465
hy	-10.4465
▁任仿	-10.4467
卑	-10.4468
刪	-10.4468
▁仵亪亣仡	-10.4473
▁价佇亳	-10.4473
仅亻	-10.4474
▁仉亾今仇	-10.4482
▁仦伧亳	-10.4489
▁予人亇	-10.4493
▁佢亣云亼亇	-10.4503
剨	-10.4504
▁仍亊亝亹亗	-10.4504
▁亻仆侕	-10.4505
▁亃事仍予仱予	-10.4507
▁于亭些	-10.4507
▁二亍亣亖	-10.4507
▁亃仾	-10.451
▁价亭亨亼于	-10.4512
▁仝仞亹亥产于	-10.4513
儂	-10.4516
▁井仺伮仇亭亇	-10.4525
▁仵亊侕仅仇	-10.4528
▁亻亳予	-10.4532
▁52	-10.4537
▁仅伺	-10.4539
▁予仹亡	-10.454
▁亻享仅于	-10.454
▁二亼以了	-10.454
▁些伇仇	-10.4548
▁些亊住优	-10.4548
唷	-10.4552
儿	-10.4552
▁佰亳佃	-10.4554
▁伇亗亹亜	-10.4555
ver	-10.4558
▁65	-10.4559
伨亥	-10.4562
▁二侫伨仯亟	-10.4564
▁仍人些値	-10.4564
▁43	-10.4565
age	-10.4566
▁仦俔仅仆	-10.4566
▁侄伧	-10.4566
▁交偞亟	-10.4568
佼优	-10.4573
了亭仉	-10.4575
▁侫今	-10.4577
亿什享伆	-10.4578
▁亓伤	-10.4581
▁予仉亦予亐	-10.4585
俶	-10.4588
▁予亣亾亟了	-10.4588
▁仵亊亾五	-10.4588
▁仮什伎	-10.459
▁亓亭仉	-10.4591
▁二人会仜	-10.4593
Ma	-10.4593
▁侈今亳	-10.4594
▁付仓亟亖	-10.4596
▁55	-10.4596
仧仅	-10.4597
▁份侎仆仱予	-10.4597
▁任伿些伺	-10.4599
健	-10.46
▁仉优	-10.4607
▁仁件	-10.4607
▁亓伉亭伟	-10.4612
▁亴亡伧亖	-10.4614
▁份佥	-10.4616
伫亖	-10.462
▁亓仄似亳	-10.4624
▁伇仯	-10.4627
▁亓亳仁	-10.4634
亟亱仆亿亐	-10.4636
佋亚仕亇	-10.4641
▁云仯亃亿亐	-10.4641
uth	-10.4647
俠	-10.4648
▁仧亳亣亅仓	-10.4648
▁二內	-10.4649
▁些亏	-10.4657
▁价仱使亟仌五	-10.4663
▁亴亨	-10.4665
▁仮人	-10.4665
仼亟	-10.4665
▁佢争	-10.4665
▁井偧仏	-10.4673
▁井仏仉仇	-10.4673
估什亖	-10.4675
▁些伇	-10.4676
▁1966	-10.4677
mb	-10.4678
▁仐仺些仇佘	-10.4679
今亜	-10.4679
▁侩伡仉五	-10.4682
▁伕亳作亴	-10.4685
▁亻仞価	-10.4686
our	-10.4689
亴亾亟伺	-10.4693
▁仁亳	-10.4693
ca	-10.4695
▁亣亾伕	-10.4696
傱傱	-10.4697
▁仅儤亸亇	-10.4698
会产仇伺	-10.4698
▁予仉仰	-10.4699
▁佂什亹人仌	-10.4703
仉亚	-10.4705
亹争亭亨仏于	-10.4709
了亚仠	-10.471
▁偓亣	-10.4712
tor	-10.4716
▁予亱	-10.4716
▁亃些佬仇	-10.4722
予亶亰亇	-10.4725
予亳亇	-10.4726
▁仍享亂亡伧亖	-10.4728
刈	-10.4734
▁予人亘仅予	-10.4734
▁侈仒	-10.4735
▁仵亊佉	-10.474
▁CH	-10.4744
▁仵优伙伓亇	-10.4745
呉	-10.4746
▁仧亍仒	-10.4746
▁亓倥予亾	-10.4746
▁亳亴予	-10.4748
价亟	-10.4748
▁俾亳些	-10.4748
▁亣亭便	-10.475
仮亻亟	-10.4751
▁佢仆仮仇	-10.4752
▁仉仅付亳	-10.4758
▁亓众伵予	-10.4763
▁亃仅亾会	-10.4764
▁仐仺仉伡伺	-10.4768
倥	-10.477
▁亷仄仮伡伺	-10.4771
▁佳亾亟仉佴	-10.4774
▁亃仯亝仯	-10.4779
▁亂仞	-10.4781
▁仁俟亟	-10.4787
▁亻仞	-10.4787
▁井亾云	-10.4787
ram	-10.4788
▁倧了	-10.479
▁价些侘	-10.4791
凎	-10.4795
▁井亃亟	-10.4803
▁俸仞五	-10.4803
唌	-10.4807
▁仈亥住亝	-10.4807
▁仧亾凸人	-10.4807
▁侺亳仌亖	-10.4808
余亗	-10.4808
▁价亃佱仇	-10.4813
▁亅亟仴争亖	-10.4813
▁亃亥	-10.4813
副	-10.4819
侦亟伺	-10.482
▁亅仌亾伴	-10.482
▁亓亹亜	-10.482
▁予亊伂什五	-10.4823
▁伇亵亣予伽亇	-10.4839
▁仧仏伟	-10.4843
▁佂伫予亳仮予	-10.4844
▁亅亜会	-10.4845
▁亽亥亙仏	-10.4849
▁付仼亟五	-10.4851
▁井人	-10.4851
仦些于	-10.4856
▁偲	-10.4865
▁亴伄	-10.4866
▁亪伄伮亥	-10.4868
低	-10.4871
仡亃亖	-10.4872
▁侫仒	-10.4875
har	-10.4879
吭	-10.4881
▁仉云傣予	-10.4882
▁仧仙亪亣伧亖	-10.4882
▁亪仆亇	-10.4889
▁予仾仧亜亝	-10.4891
▁亓些互亐	-10.4894
▁亅人仌	-10.4894
▁价仄亪	-10.4895
併	-10.4899
▁予亭亹	-10.4899
▁仵亪伨	-10.4901
▁亓付亟	-10.4903
偾	-10.4911
▁46	-10.4911
der	-10.4911
▁价亊倗仺	-10.4915
今伇亖	-10.4916
仍予亳	-10.4918
▁价仆亏事	-10.4919
▁亣亗佘	-10.493
伅予	-10.4931
▁亃俰事	-10.4931
▁仐仞	-10.4932
▁亓亘佇亭	-10.4934
ts	-10.4935
▁1958	-10.4936
▁亂予些亾	-10.4936
▁仵亊亏	-10.4937
▁佰亳亳伇	-10.4937
▁亷亳亸伅亖	-10.4938
▁佂什些伟	-10.4939
▁仦侻什五	-10.494
▁仫俞亏亐	-10.494
▁亪亡伂	-10.4942
▁云伧亱人于亡	-10.4944
佣	-10.4945
▁亂予亱亟	-10.4945
▁予亭佘	-10.4945
▁二亍亦仕亇	-10.4951
佐佶	-10.4952
iya	-10.4955
▁亽侵伽仡	-10.4957
▁京亭佄亐	-10.4962
▁云亭会些伺	-10.4963
▁亓什会	-10.4965
剜	-10.4969
▁偓伇仮仇	-10.4969
亏伽伵予	-10.4972
佉仆亇	-10.4973
▁仦亳众	-10.4979
亃亰仡	-10.4979
▁修俻仇	-10.4982
▁仍云于	-10.4982
▁付便	-10.4983
▁1961	-10.4985
ob	-10.4988
佾	-10.4989
▁二僻	-10.5
▁井产亊亨亟于	-10.5001
▁亓亘亻仏于	-10.5001
▁修侂	-10.5003
▁佖仏仡亡亟	-10.5006
▁予亜亷亳	-10.5007
▁(3	-10.5011
▁亮侻伽仡	-10.5014
僙仯	-10.5015
例	-10.5019
▁亓亘伟	-10.5022
▁仦亻亟些仔仠	-10.5024
仌亭佛	-10.5024
▁侍享	-10.5026
凥	-10.5032
▁亓些亚	-10.5032
价于	-10.5039
▁亃事些亿亐	-10.5043
▁亪什侯仄	-10.5044
位仇于	-10.5047
予伿	-10.5047
▁亓亜亹享伧亱仇	-10.5047
▁佂亼于	-10.5052
▁佞从	-10.5053
呂	-10.5057
▁京亭侵什五	-10.5058
▁仢俰仾	-10.5064
▁云予伡予	-10.5067
仝伺	-10.5072
▁侫伫仕产	-10.5073
▁侈亊	-10.5074
些俞五	-10.5079
▁亃亳仐事	-10.5082
▁价傓	-10.5084
▁伱伀亟于	-10.5087
▁亞伄	-10.5102
价亭	-10.5103
▁仈人	-10.5108
▁亷亥亇	-10.5108
亏仆	-10.5111
▁云伿仄仌亖	-10.5112
▁井亭亴仅	-10.5115
剳	-10.512
▁付亊事	-10.512
亳仁	-10.5121
▁仈伀亟仌五	-10.5124
到	-10.5133
僺亭	-10.5136
仍予	-10.5139
▁仉仆	-10.5142
▁仦仭亨亟	-10.5146
▁亅亻侑	-10.5146
▁1959	-10.5149
▁亓亣亅	-10.5149
▁今儘伧亖	-10.5152
▁侫仉	-10.5157
iv	-10.5157
伵亥	-10.5158
▁亃事些五	-10.5158
▁仍享亮互	-10.5158
▁仢亯亥	-10.5159
ord	-10.5167
▁亞亟仙人	-10.5173
▁侫亳伮	-10.5176
亃仓亖	-10.5181
▁亂亜亟	-10.5183
▁仐事亟仌亖	-10.5185
▁京仺倻	-10.5185
▁亓亜亝仆	-10.5189
▁井亊仓五	-10.5189
▁仐予僭伧亖	-10.5194
ind	-10.5197
余亜亟于	-10.5205
▁仍亊亨亼仇	-10.5207
▁仈会	-10.5211
▁1946	-10.5214
▁伲亭仡	-10.5216
伵俔	-10.5219
儫	-10.5222
▁亓亘伦亳佃	-10.5223
▁些亳亱伫	-10.5224
▁亃亭云	-10.5231
▁云亗了仆亙	-10.5235
▁些亜些仌亖	-10.5235
▁仉亚仅争	-10.5237
▁价亹亊亇	-10.5243
▁亃仅亾伮亖	-10.5244
▁井仭云	-10.5245
伨了亇	-10.5246
▁云了倦伎	-10.5248
▁价亃优亖	-10.5248
▁住优亮亟从	-10.5249
▁任倐亊亹人亻仏于	-10.5254
▁仃仄些伺	-10.5258
▁亓亘亝	-10.526
▁仈互亘	-10.5261
▁仸位于	-10.5261
ee	-10.5265
▁亅仂	-10.527
偉	-10.5274
倓	-10.5274
▁侺亳亇	-10.5274
▁仉亚伂予亚	-10.5274
佛予	-10.5275
NA	-10.5276
云亟仮了	-10.5277
▁伕互	-10.5282
▁亞伤亹亗仇	-10.5286
▁亅产伅仡	-10.5287
▁付亃	-10.5291
ron	-10.5292
▁仍亜亙	-10.5292
▁份予亇	-10.5296
▁亅亟亍人亝亱亇	-10.5297
了侚	-10.5301
▁今伧亱予	-10.5302
▁倇亣仅仇	-10.5304
儎	-10.5313
▁佧亭了亜	-10.5313
侻什五	-10.5315
AT	-10.5318
▁亃亭亻仏于	-10.532
▁亓些伇亳	-10.5326
▁仱傊	-10.5327
▁亓亘了亹亥产于	-10.5329
▁仦亴亾亟亿亐	-10.5333
▁价僛侖亴仅	-10.5339
▁亳仉	-10.534
▁价亟伫	-10.534
▁1949	-10.5344
ton	-10.5347
佄什五	-10.5348
▁云仺会	-10.5349
▁佳佪仞仡	-10.5352
▁亂予俤于	-10.5352
▁侳亗伺	-10.5357
▁井仺伮仇仱予伂亇	-10.5361
▁亓亳仁亖	-10.5367
亝仄	-10.5372
ence	-10.5374
▁佤亃	-10.5375
▁亻仱亇	-10.5379
▁于亭	-10.5379
▁价倕仂	-10.5382
▁亃仅亾了亹人亻仏于	-10.5383
任仼亭	-10.5389
▁亓俽亦亟	-10.5391
▁1951	-10.5394
偘亖	-10.5396
ial	-10.5397
▁亪人侐佘仜	-10.5399
▁仈亹享	-10.5401
咴	-10.5404
▁佞人付人	-10.5418
了仆	-10.5419
▁仓佦	-10.5425
唅	-10.5426
▁仵仛	-10.5428
▁仮亃亏亐	-10.5429
▁亓亳亴亟仄亘亙	-10.543
▁付卨亾仅	-10.543
傗	-10.543
▁亅仛亙	-10.543
▁侲于今予	-10.5431
▁亓优伟	-10.5435
▁亩了佘	-10.5437
▁亅亣亖	-10.544
亏倞	-10.5443
▁伇亃	-10.5445
▁亅众伕亾佝伺	-10.5445
俘	-10.5447
▁亅亭些仌亖	-10.5449
▁亓伃	-10.545
▁伇亗仌五	-10.5451
伴伧亖	-10.5451
侊	-10.5453
▁仮伫亟亘	-10.5453
▁于些了仌亖	-10.5455
僲	-10.5456
劵	-10.5456
▁云亷付亳亃	-10.5456
▁亷倫伎	-10.5456
▁佭佝亇	-10.5457
▁二仛会了亐	-10.5458
倍	-10.5458
伇云亟	-10.5459
▁亴亝亾	-10.5469
▁修仉亖	-10.5469
▁京亭侷人亇	-10.547
▁价僓予	-10.5471
亹位	-10.5474
▁佂侌	-10.5476
▁佢仱仉	-10.5477
▁亅元予亚	-10.5481
▁仮亿优	-10.5483
▁些优付亥	-10.5483
▁亴仒	-10.5485
▁嚻	-10.5486
▁佡伇	-10.5492
▁二亣伍侂	-10.5498
▁亅亳伂	-10.5499
▁1955	-10.55
▁亂亵侘	-10.5501
▁今亃	-10.5501
▁云亭伟予亐	-10.5505
▁京仓	-10.5505
▁价億些亗亇	-10.5505
▁亮亭云	-10.5505
今予伂亇	-10.5507
▁亓些亿伽享亟	-10.5509
▁任儅亼仇	-10.5509
▁侼亳仆伂	-10.5511
▁佤人予亐	-10.5512
▁仸仺亻亼仇伺	-10.5516
▁亴佣	-10.5521
▁亅亪亣予伽仡	-10.5527
伇亏	-10.553
▁伲仱亜	-10.553
亹人些亦	-10.5539
予仆	-10.554
▁亂亵	-10.5541
傰	-10.5541
▁仍偧	-10.5542
▁亓亳亴亟	-10.5545
▁仵亪亣仅亪亇	-10.5547
▁伕依	-10.5548
▁亅佉仯	-10.555
▁仁亃予	-10.5552
▁价亟亨伡伺	-10.5559
▁侲偞亟	-10.5561
些仒	-10.5562
儌	-10.5562
▁仍亳亴俤	-10.5562
伅亿亐	-10.5563
▁侫亭了仮予	-10.5568
些侖	-10.557
剔	-10.5575
▁亞倉亼仇	-10.5576
▁亓侅亟	-10.5576
▁亴仺佢	-10.5577
▁1944	-10.5579
▁价亭佛亩亖	-10.5579
▁1939	-10.5579
▁亅仌亳	-10.558
▁亷仄佘	-10.5584
▁予争亊亇	-10.5585
▁价倖了亹亗	-10.5586
▁予亭便	-10.5588
▁亃僖仛于	-10.5589
伕佅介人	-10.5589
▁交估仄	-10.5589
▁仐予儉	-10.5589
▁井亊事	-10.559
伧亍亜	-10.5591
▁亓亣予亾仡亇	-10.5591
▁京亭佄亚	-10.5592
si	-10.5592
享伟	-10.5598
▁63	-10.5598
▁亅冴	-10.56
▁伱优	-10.56
▁佽侵	-10.56
[	-10.56
傆	-10.5602
▁仦伽亘	-10.5602
▁仵优亠亡	-10.5604
仡仮仺	-10.5606
▁亷僜	-10.5607
伧伀	-10.561
▁仧债什亖	-10.5615
▁井亅佦亻	-10.5616
▁些优亝亊	-10.5616
▁仉做仉亖	-10.5617
▁侺亨	-10.5621
▁仉亨	-10.5624
▁亮仺亻仏于	-10.5628
*	-10.5629
▁亅众仅互	-10.5629
▁价仏伉	-10.5631
▁佖伫	-10.5635
▁些伎予什亖	-10.5639
▁亓亣亷亾予亐	-10.564
▁价亊仌侀	-10.5643
▁Na	-10.5645
▁份亚伧亖	-10.5648
了亶亖	-10.5649
亍争	-10.5649
▁仉亚伂予亐	-10.5649
▁伕仛	-10.565
▁二個伴伧亖	-10.5651
▁亣亗亏亐	-10.5653
▁仵优亱仆	-10.5654
党	-10.5655
咵	-10.5656
▁伲偋価亟	-10.5656
so	-10.5662
▁側伨仯亟	-10.5669
▁伏仡	-10.567
▁仦倖亟亇	-10.5674
▁任亾仅	-10.5674
▁Y	-10.5675
▁仃傒	-10.568
▁亣伥伧亖	-10.568
▁仐事亟亏亐	-10.568
回	-10.5682
嗀	-10.5682
▁价亟亱于	-10.5683
▁伕亃	-10.5698
亿亶予伂亇	-10.5699
▁41	-10.5702
▁予仩伺	-10.571
▁券	-10.571
▁仦亳侐仮仇	-10.5713
佂亹	-10.5713
▁亃仄亏什亖	-10.5714
▁仦亅会	-10.5719
▁伕亝予亇	-10.5719
▁仦倛伇侖仒	-10.5723
▁价亊亏亚	-10.5724
▁亽侵	-10.5725
▁予個	-10.5729
▁云伐	-10.573
▁仵亪会	-10.5734
▁任冃	-10.5734
仌亍亜	-10.5736
▁仈伮人	-10.5736
ight	-10.5737
▁亞仉	-10.5737
ib	-10.5738
▁仦亻亟些伫	-10.5739
▁亓亻仄	-10.574
▁俸亣	-10.5742
▁亷亳亸仮	-10.5743
▁v	-10.5747
▁仦企予	-10.575
▁仧仆伂	-10.5751
▁仉亭于予亚	-10.5753
▁仉人亇	-10.5753
▁亅伂亖	-10.5753
▁亪伄僤亥	-10.5766
▁价伥亟亘伨仆	-10.5767
▁仉亅会	-10.5771
▁伇佇亙	-10.5773
▁予些事	-10.5774
▁予亭会了亚	-10.578
▁亅享予亚	-10.5785
▁仮仺亇	-10.5787
▁今仯亟	-10.5788
劇	-10.5791
▁佭佝些于	-10.5791
▁仧位亾	-10.5792
▁仉介伂	-10.5793
▁井亭今仡亻仏于	-10.5793
▁亓以亹伺	-10.5794
▁井伟	-10.5794
▁价亟俈亟	-10.5796
▁亅倨	-10.5798
▁亪人侐仌仇	-10.5799
▁他予僼	-10.5804
▁些亜些亘了	-10.5809
▁云事伧亖	-10.5811
▁仮仍予亳	-10.5816
yl	-10.5818
▁亣亭俟亟	-10.582
▁仧仏伮	-10.5821
▁任人伅伺	-10.5822
▁仃倫	-10.5823
仓仓亭伟	-10.5823
侵什亖	-10.5827
▁付們亣	-10.5832
▁亅亗于	-10.5833
▁亷亻亃	-10.5836
▁侬囇伪亇	-10.5845
▁京亭伽	-10.5845
res	-10.5846
▁价傊	-10.5846
▁价伉亱佇亖	-10.5851
▁佃伅伺	-10.5853
位亪亇	-10.5858
亃交僴人	-10.5858
▁亘価亖	-10.5859
▁仮仩予	-10.5859
▁亓亭亻	-10.586
▁亅佛亟	-10.5865
▁价伀	-10.5871
及	-10.5873
▁交亵仛亝	-10.5873
今亨	-10.5873
▁伕亾佛	-10.5885
僷	-10.5886
▁亂予云于	-10.5887
亃交冋	-10.5888
俞五	-10.5893
▁佂什伧亖	-10.5894
▁佳傳侀	-10.59
▁仢俰倐伺	-10.59
▁亴亰佃	-10.59
▁亃亳些亾伥	-10.5904
▁仍予亳亏亐	-10.5906
▁侫人	-10.5907
▁仮仐仄亏什亖	-10.5909
▁亅亟亍人亝亹亥	-10.591
ric	-10.5911
▁亮亭侐亪亣	-10.5914
亨亟于	-10.5924
▁仈什亹亊	-10.5924
傃	-10.5927
act	-10.5927
▁仦侨侘仓亟	-10.5928
亷僣	-10.5928
ja	-10.5936
▁伲仱亗亇	-10.5939
▁亓亘佇亭佛	-10.594
▁亓予仒	-10.5941
咣	-10.5941
伧伔	-10.5944
▁僵伀	-10.5954
▁仈亭伉倖佛	-10.5955
吘	-10.5955
喋	-10.5955
▁今俱	-10.5955
ish	-10.5965
▁仉亗于	-10.5966
▁仁侐亖	-10.597
▁价仇亝些	-10.5971
仓侪	-10.5974
▁亃仆仌亖	-10.5975
▁亪做倿	-10.5977
▁匈	-10.5978
▁价亭伮亊	-10.5984
▁佐争	-10.5988
▁亮侻伽亇	-10.599
▁井伧亾仞	-10.5991
▁井亸佃	-10.6
亲亾	-10.6001
▁价亟仒亹亗	-10.6004
▁伲仒	-10.601
▁于亍	-10.6011
仓佦	-10.6013
▁井伓人	-10.6018
些仹	-10.6023
▁亓什仡亇	-10.6024
▁亅亟伐产	-10.6025
▁二伄	-10.6026
▁付事	-10.6033
倻佥	-10.6037
咕	-10.6038
▁价亟亱亃	-10.6039
▁亅人亝	-10.6039
▁78	-10.6041
▁价亳倐	-10.6049
▁亅互	-10.605
亓侏	-10.6051
▁云亣仟	-10.6052
▁予亭仌亖	-10.6054
▁伎仅仆	-10.6055
▁些亗仌五	-10.6062
▁些仓亘仅仇	-10.6064
do	-10.6065
tra	-10.6065
▁亘亟仌亖	-10.6066
▁佳债伮亾伵	-10.6066
刍	-10.6066
伨亚亟亇	-10.6066
傻仞	-10.6072
▁价亃佱予	-10.6074
亭佝亰亇	-10.6075
云伿仄	-10.6077
▁刉	-10.6081
仐事伧亖	-10.6081
▁侍伧仓亖	-10.6087
▁伕亷	-10.6087
▁亂亜会	-10.6092
仡伄使	-10.6093
▁亅亴仧仠	-10.6094
▁佖侈伐亇	-10.6094
▁付仱争	-10.6097
▁仍亊些亜伴予亚	-10.6098
估伽亇	-10.6101
▁仉亚仅亜伡伺	-10.6103
争亭佛	-10.6108
▁亅亣值作亇	-10.6108
▁仧亾伅仯仅	-10.6108
佼亪亙	-10.6108
▁亷亙亾亘	-10.6108
些仱仇	-10.6109
ple	-10.611
▁亽亗	-10.6111
▁伕仓予亐	-10.6116
▁亅争亟	-10.6118
▁俸云	-10.612
▁仦倛伇五	-10.6121
100	-10.6122
▁交亪	-10.6126
僆	-10.6127
▁1953	-10.6127
▁亞伤亱亇	-10.6128
▁伇今	-10.6129
▁交亪亣仅予	-10.613
仡仆亇	-10.613
▁仧亳侈伇仌亖	-10.6134
▁伎伧亖	-10.6135
倁	-10.6136
伭	-10.6136
哖	-10.6136
冶	-10.6136
▁仸人亃亱仇	-10.6136
佋亶予	-10.6138
▁亻亭冊五	-10.614
▁亅众予亚	-10.6147
仸亊	-10.6147
▁亽亚	-10.6155
▁亓享佛于	-10.6159
▁伇侍亃亳伺	-10.616
▁亅亊亏亐	-10.6163
▁佤亴	-10.6163
tri	-10.6164
▁仱云亽亃伕亳亇	-10.6165
▁亓仺些享	-10.6165
▁亓仆佤人	-10.6165
▁他介僤亳亖	-10.6165
▁佡农	-10.6168
佲	-10.6169
io	-10.617
儼	-10.6179
亽亟了	-10.6182
▁仈亥	-10.6184
▁仉些仁亟亇	-10.6189
▁亃佱仄仌亖	-10.6193
圡	-10.6193
偧	-10.6194
▁亓伄亪伄予亐	-10.6202
gen	-10.6206
咩	-10.6207
▁仉亃仮仇	-10.6208
▁佢亨	-10.6209
aw	-10.621
▁亞伳	-10.6212
ach	-10.6215
eg	-10.6217
▁侼亗亏亚	-10.6218
▁云儝	-10.6218
▁京于云了亐	-10.6221
▁亓伄亟亹人亻佬伺	-10.6224
▁仨仄予亇	-10.6228
In	-10.6231
▁仵事伂	-10.6234
ke	-10.6236
dr	-10.6239
▁1936	-10.6239
▁亮仺亻亼仇	-10.6241
仅伫	-10.6242
▁今僆	-10.6244
偁亮	-10.6246
▁些伟产于	-10.6247
剷	-10.625
▁亓仂佘仕亇	-10.625
▁佳亾伟	-10.6251
▁亃倾伧五	-10.6253
▁京亭亝仮仇	-10.6256
▁价仆亘	-10.6259
▁二人伅伺	-10.6261
▁亮仒仇伺	-10.6262
▁些亊仢侀	-10.6264
sc	-10.6264
▁亅了仌亖	-10.6266
▁仮佬	-10.627
▁仵亪亣伧亰亇	-10.6272
sa	-10.6272
▁些介伧亰亇	-10.6272
iz	-10.6272
▁云亥	-10.6277
▁价亳仁亟仇	-10.6278
▁亞亟伸亗	-10.6278
▁仍亅伺	-10.6279
▁井介仅亊	-10.6279
▁佢亏亐	-10.6288
▁仃仄亂亇	-10.6291
刾	-10.6292
傄	-10.6292
▁些佺仍	-10.6292
▁仉冩仳	-10.6293
▁伇佛來	-10.6293
▁些亰今仇	-10.6293
▁仸仏亱亇	-10.6294
▁仍享亮仺	-10.6295
▁价亭伴	-10.6295
▁任侔	-10.6299
▁井亭今亻亼仇	-10.6301
云仯亃	-10.6302
▁亮亭亯佁仅仇	-10.6303
亯了亇	-10.6304
▁伇們	-10.6304
▁井仌亳	-10.6304
余位于	-10.6307
▁佡交伧五	-10.6313
▁俍偞	-10.6323
▁二什亘	-10.6324
▁佢亾五	-10.6326
▁亓享仕亇	-10.6326
▁仉仆伉伡伺	-10.633
侙介	-10.633
▁侩伇	-10.6342
▁仫俞亇	-10.6344
▁亷仄亹亪亣伧亖	-10.6349
▁些亴亨亼仇伺	-10.6351
800	-10.6352
▁京儒	-10.6362
▁亽人予什亰亇	-10.6369
仉亗仇	-10.637
▁伇亳仡	-10.637
▁京亣	-10.6375
▁伲亼些伫亖	-10.6377
▁仦倆亖	-10.6378
哧	-10.6379
▁些仺亘	-10.6379
▁亣介亹亊佘	-10.6381
▁亅亜伅伺	-10.6383
▁亓你	-10.6384
▁伏傍亐	-10.6385
亟亹五	-10.6386
▁仮仒亏亚	-10.6387
▁仉偞	-10.6389
▁亓亷亃交	-10.6393
侐亥	-10.6394
偁伕	-10.64
▁亅产	-10.6402
ern	-10.6403
▁伋佛仮仇	-10.6404
▁佂伫伈	-10.6405
僓	-10.6407
▁亣亭伦偠伧五	-10.6408
ite	-10.6409
▁亅倚	-10.6411
▁二佇亳	-10.6412
▁亅人亻仏于	-10.6414
▁亪依	-10.6421
▁仫交亙	-10.6422
▁亃仅仱	-10.6441
cy	-10.6447
兄	-10.6451
▁予介佦亳	-10.6451
▁予享伮亜	-10.6452
▁亣亭伮	-10.6462
仧亐	-10.6464
▁二佴予亶予	-10.6464
匮	-10.6466
▁側仇亽亟予	-10.6466
▁些伧互	-10.6466
▁井亭今予	-10.6467
▁亂亡予亚	-10.6467
亃凹亐	-10.6471
▁伕仄些	-10.6474
▁份仺付人予亐	-10.6475
卮	-10.6481
▁1942	-10.6484
▁伇亏仌五	-10.6487
▁亃事亘亟予亇	-10.6488
au	-10.6493
▁仐予僭予亐	-10.6494
▁仈什亅亳伨	-10.6496
▁亘仝伺	-10.6496
▁保俞五	-10.6497
▁仦佬亇	-10.6497
▁些仆侕亟享	-10.6503
udi	-10.6507
云亼	-10.652
▁伕侖	-10.6522
▁侼仉亟亏亐	-10.6523
▁仢伌俹	-10.6524
▁井亸今予	-10.6526
俦	-10.6529
▁亓亣亷亳傠們	-10.6531
▁仫佃予亚	-10.6534
▁亅仞亘	-10.6535
▁亪侐侍亸亇	-10.6539
▁亓兛亖	-10.6539
▁价亡些	-10.6543
倴	-10.6551
▁仢仙亳亙	-10.6553
▁亃亊佃	-10.6556
▁1937	-10.6557
▁二偁令	-10.656
▁亓些亩亳	-10.6562
▁予伿伄佛	-10.6564
伧亭亨佬伺	-10.6564
▁伲偋	-10.6568
▁价云亟云事	-10.6568
▁交佹亗	-10.6568
▁仉亾伂介	-10.6568
▁予仒亖	-10.6569
亱伟	-10.6579
亨佚伺	-10.6579
▁价僛	-10.6582
▁云了什享伆	-10.6583
www	-10.6583
▁亂侞仒仠	-10.6585
▁仦体仆亿亐	-10.6586
int	-10.659
▁仦伥	-10.659
▁Mo	-10.6592
▁二仴	-10.6593
▁亓伄亂予亹人亝亹亗于	-10.6595
▁伋倰	-10.6596
▁仵优伜亡	-10.6597
▁些亭些于	-10.6602
伧兒于	-10.6603
▁亻享亨亼仇	-10.6606
▁任人仡亇	-10.6606
▁亅伧仿	-10.6609
Ar	-10.6611
▁亷仄予亗	-10.6612
▁仦亻佦亭仡	-10.662
▁亓些亴亟亇	-10.6621
▁井亭亪	-10.6625
▁仃佚	-10.6627
▁佡亃	-10.663
▁侫亊	-10.6633
▁些亜些亘了亹亗	-10.6638
▁亓以了亹人	-10.6638
▁仵亊亏亹亗	-10.6638
▁亂亃仄亘伦	-10.6644
▁价倕亊	-10.6644
▁些介亟仺了亹亗	-10.6653
亪仮伺	-10.6654
▁些伎仅亪亇	-10.6654
▁仐儇伧	-10.6656
南	-10.6656
▁佂什仅亻	-10.6659
▁京伄仅仆	-10.6664
亨仏	-10.6664
▁亅仞佉亜伧仇	-10.6665
mon	-10.6669
▁二仛使	-10.667
▁价享伆仅仇	-10.6671
▁侈伧事	-10.6671
▁仐仄了亾	-10.6672
僜亟	-10.6673
仅亻亟	-10.6674
亽予	-10.6679
▁予仙	-10.6681
亿亶亰亇	-10.6682
▁予争亊亏亐	-10.6684
▁亓亘亻亼仇	-10.6687
▁仐亼	-10.6687
仅仺	-10.6688
亹争亭佛仇	-10.6698
亂亃亖	-10.6698
传	-10.6701
嗇	-10.6701
伟亡	-10.6704
伨仆亿亐	-10.6705
▁价些亭亇	-10.6706
▁亞亼于	-10.6707
倘亖	-10.6707
▁72	-10.6714
▁亷人予亐	-10.6714
▁仉僊仇	-10.6716
▁仉仂伕亾	-10.6717
▁仧亾了亹亥产于	-10.6719
亪傝	-10.6719
▁云亱仅	-10.6719
▁亂亃佁仅予	-10.6722
▁仃仄亃仇	-10.6722
▁价亭佛亩予	-10.6723
俟伎	-10.6723
▁亅元予亐	-10.6724
▁任佉	-10.6724
▁侍仉仓亖	-10.6728
▁亅争亟仓	-10.6731
偹	-10.6731
咖	-10.6731
▁亅亳亹仆佃	-10.6731
倞伺	-10.674
▁伃仆	-10.6745
▁亅亃仉伧亖	-10.6745
▁亅伧伺	-10.6748
▁仵亊件	-10.6749
▁价亃伐享亟	-10.6749
▁亷俯	-10.6751
偁偠	-10.6752
▁价享伵仄	-10.6753
▁俖亳佘	-10.6756
str	-10.6756
▁仧亜了	-10.6756
▁亪仞倾予伽仡	-10.6757
僾五	-10.676
侲仇	-10.6764
予什伡亖	-10.6765
僵	-10.6768
▁亷仄仌五	-10.677
ism	-10.677
▁价亳伧亖	-10.6775
▁亂侞	-10.6776
仉伊伆	-10.6777
伡予伂亇	-10.6777
▁亂亡仅亪亇	-10.678
end	-10.6788
僗	-10.6791
兿	-10.6791
▁侺仼	-10.6793
▁今了什	-10.6794
▁偁佰	-10.6795
lan	-10.6795
▁井亭今亨亟于	-10.6795
▁亞亟凄仏	-10.6798
▁亃儒	-10.6799
bi	-10.6803
參	-10.6806
▁仵亊佉亇	-10.6806
▁仐予偙	-10.6807
▁亞伄伂	-10.6808
▁亂亜亝	-10.6808
▁价亳予	-10.6808
▁仵亊伉仇伺	-10.6809
仰伺	-10.6811
▁付亦伧亖	-10.6817
mp	-10.6819
傢	-10.6821
则	-10.6821
▁仁亪亅亜	-10.6821
▁侩亳亘	-10.6826
gi	-10.6827
▁亂仯些伺	-10.6828
侻什亖	-10.683
▁仢俑	-10.6832
▁予亊仌	-10.6832
▁亓亰交仯亟亇	-10.6834
冨	-10.6836
▁亃亳伂亝仆	-10.6837
▁亞争	-10.6844
▁亴亦伂	-10.6844
▁任仼亭亨亼仇	-10.6844
▁仉亭仌	-10.6845
▁于亭亨	-10.6847
▁亅亊佘	-10.6849
▁仁仿予亐	-10.6851
亟俦	-10.6852
▁兝	-10.6853
▁亂亟侇予亐	-10.6856
仌亭仡亇	-10.6857
▁亅亟亍人	-10.6862
▁价仞伟	-10.6862
仡人侐	-10.6867
▁云伊亴仅仉亖	-10.6868
▁佤争	-10.6868
伅亐	-10.6869
▁亓仆仉亊	-10.6877
▁些亴仡亇	-10.6879
▁亩亟予	-10.6881
▁伇交兪	-10.6881
▁仮佛	-10.6883
▁亷伪亇	-10.6883
▁付亳亣亟	-10.6883
▁亓什伅伺	-10.6883
▁住优仅予	-10.6887
▁亓亰些	-10.6887
▁仵事伵俔伧亖	-10.6888
▁仦仌侘仓仅	-10.6896
仕亊伐亇	-10.6898
▁侫冝五	-10.6898
剈伺	-10.6901
▁伕侏予亐	-10.6902
▁An	-10.6904
伇亗云亼亢	-10.6905
▁侍付	-10.6906
佮人	-10.6907
予什亊亇	-10.6909
偼仇	-10.691
冻	-10.6912
▁价俌伧仓五	-10.6912
▁亂亜佂人	-10.6912
▁仄伿五	-10.6912
▁仧倾亟	-10.6912
▁价亹亊佘	-10.6913
▁亃些佬予	-10.6913
▁侍仉佛	-10.6919
▁侩伡仉亖	-10.692
▁井予佛	-10.6923
▁交亵	-10.6923
▁云亾仅亦	-10.6925
嗥	-10.6927
仮众了	-10.6928
▁份亶値	-10.6929
▁价亟了佘	-10.6933
▁亽位伽云亼亢	-10.6933
▁仦俔伈	-10.6934
▁亂亜伅伺	-10.6935
傞	-10.6942
#	-10.6942
▁仝佬些什	-10.6942
厒	-10.6942
吡	-10.6942
▁亪伄伮人亻亼仇	-10.6942
▁亽亴	-10.6944
▁俲亜	-10.6945
▁价喣亾五	-10.6947
仉亗仇伺	-10.6947
剏	-10.6951
亹人会亻仏于	-10.6954
▁仐侰亴亱伟	-10.6957
▁价仱云亽亃伕亳亇	-10.6957
▁付侄争	-10.6957
▁亓亘仉亊亇	-10.6961
IS	-10.6962
▁佰依仱俔	-10.6968
▁井亅伇亵亣	-10.6968
▁仮亃亏什亖	-10.6969
傳	-10.6973
劚	-10.6973
▁价亟但仇	-10.6973
▁今仯事	-10.6973
▁云亵亿亐	-10.6974
▁伇云仮仇	-10.6978
仌兒于	-10.6978
▁亘亩仇	-10.6979
傍亚	-10.6982
▁仦亾亟	-10.6984
▁二亻兛	-10.6988
▁亓來众	-10.6988
▁仦予儁	-10.6989
▁亘先	-10.699
亹人些亩予	-10.699
▁些倀	-10.6992
▁任倐人	-10.6993
▁亅享伞人亙	-10.6994
▁亪争	-10.6995
▁些佇亭	-10.6995
▁价亟侽仅予	-10.6998
▁伲倁	-10.6998
伨亊亖	-10.7003
傀	-10.7003
▁亞亟亱仆仱予	-10.7004
▁仵亊亳	-10.701
▁倧亴	-10.7011
▁II	-10.7011
侭	-10.7013
▁井侢	-10.7013
▁亅亸佘	-10.7014
nd	-10.7017
▁亓倥亷亳	-10.7019
▁侈人	-10.702
▁佖于亇	-10.7021
▁仉亣亂亡	-10.7022
亨享伆	-10.7023
▁俸仞伺	-10.7023
▁予冔伇五	-10.7024
儖	-10.7034
▁亅伄	-10.7035
▁仱亩	-10.7035
ens	-10.7036
▁亓亃佱仇	-10.7038
▁仉伇亟	-10.7039
▁井亟俧	-10.7042
亅侏	-10.7046
▁亃伟	-10.7046
▁伇云何亭亃	-10.705
亿什亊交亭伟	-10.7055
sion	-10.7056
俲	-10.7059
▁亮仏亹人亇	-10.7067
▁亅亊仄	-10.707
▁些仄亟	-10.7073
份亰	-10.7075
伏倿	-10.7077
▁亃亏亚	-10.7078
▁予亊会	-10.7078
ore	-10.708
bo	-10.7086
▁亓佉产	-10.7086
ty	-10.7087
ies	-10.7088
▁亃亏什五	-10.7091
▁些亳便	-10.7092
▁些优些亪	-10.7094
▁Ar	-10.7095
亞伾	-10.7095
▁仉僊仯	-10.7096
▁伇佇会	-10.7097
▁亓亜会	-10.7098
▁仉仁	-10.7107
哛	-10.7111
▁伇倾伧亖	-10.7114
倂	-10.7114
亘仟	-10.712
one	-10.7125
▁付亊予	-10.7126
▁仍仧	-10.7127
▁仍人亝亳	-10.7127
▁亓交侜	-10.7127
▁亩云介	-10.7128
▁亽位予	-10.713
余亜亟亩予	-10.7134
▁侍仄	-10.7136
▁些亭亊亏伽仡	-10.7138
▁亂侞伄	-10.7139
倖亙	-10.7142
▁伲亣亟	-10.7145
亹位云亖	-10.7146
IV	-10.7154
▁佂亗	-10.7156
▁任人了亹亗	-10.7157
嗩	-10.7158
嗬	-10.7158
▁井养些	-10.7158
▁云佇亾	-10.7159
▁佢伿亷仄	-10.7166
▁伕亭	-10.7169
▁予仾仧亜了亹亗	-10.717
ture	-10.7171
▁亃仯亝	-10.7172
▁井倐仡	-10.7175
了伽亊五	-10.7181
争仓亭伟	-10.7181
▁仍便	-10.7187
仉伥	-10.7187
▁仈伀五	-10.7188
▁仉云停	-10.7189
▁侍伧佋什亖	-10.7191
亣亷亳	-10.72
▁伇傝	-10.7203
▁伇伨	-10.7205
▁佞争	-10.7209
▁仧僃仏	-10.7214
▁价亊倗亟	-10.7221
伧伊	-10.7225
▁仉亚仅亜亟	-10.723
▁仝人	-10.723
▁亃人会	-10.7231
▁亓予亳	-10.7232
Z	-10.7232
▁亷卯亟亇	-10.7236
▁仐亅佛仂	-10.7236
▁伕仏了众	-10.7236
▁侍侎争	-10.7237
ome	-10.7237
▁仐仺些仇仮仇	-10.7244
▁伱亼	-10.7244
▁佂什亹人亝	-10.7245
▁亃交冪仞	-10.7252
▁些仓仕仺仌	-10.7252
▁亂伄亟亜	-10.7252
▁亃仯会些仮仇	-10.7252
▁1941	-10.7256
Se	-10.7256
仇今予	-10.726
亳値	-10.7261
▁云亭会些云仂伧亖	-10.7261
gr	-10.7264
▁亷伳	-10.7264
亹人会亃亖	-10.7264
▁伕于亘	-10.7265
▁仝亹伺	-10.7266
傝	-10.7267
品	-10.7268
▁亂债亖	-10.7268
▁付仱亥	-10.727
▁側伨五	-10.7272
▁佳什今仇	-10.7273
▁价亊亏伽仡	-10.7275
▁予亹佋亐	-10.7278
仮伡亖	-10.7278
冠	-10.7284
▁亂倀事伧亖	-10.7284
▁亣仅予	-10.7289
▁价仏伴	-10.7292
▁份亣伧亟	-10.7294
仫予亳	-10.7296
▁价亊佘令	-10.7299
▁价伉亱佇五	-10.7299
偱	-10.7299
▁些亚亪位	-10.7299
ev	-10.73
▁伎仉亊	-10.7302
伟产仇	-10.7305
▁仸亜亟于	-10.7308
▁予仾仧亜了亹亗于	-10.7314
俵	-10.7315
▁些事亟亘亙	-10.7315
仚亭侵亐	-10.7322
▁佖仙人仌亟于	-10.7324
▁京亵	-10.7325
▁亂于亪	-10.7328
卩	-10.7331
价佛	-10.7332
▁亓倕	-10.7332
▁亷些仄	-10.7339
▁亅人伴	-10.7339
pl	-10.7341
▁二佲仆伂	-10.7347
▁俲伇令	-10.7347
▁亴仯仮	-10.7348
▁亪伄伮亥俥伺	-10.7348
▁1934	-10.7351
俀	-10.7352
▁价亊亏什亰亇	-10.7356
▁云仄伺	-10.7359
▁仦伎仅亖	-10.7363
▁仫交了	-10.7364
▁亴佇	-10.7364
▁价亡使	-10.7365
▁价仄些伇	-10.7368
仉人亻亼仇	-10.7368
伕仭	-10.7369
▁仍亊仌伡伺	-10.7373
▁二亻侮亟	-10.7378
割	-10.7378
俅	-10.7379
▁仄倨亇	-10.7379
▁价亹亊仌亖	-10.738
▁兔	-10.7389
▁价億些亗仌亖	-10.7392
▁伋佴	-10.7392
価仙	-10.7392
▁二什亘仅仇	-10.7393
SO	-10.7395
▁亅亜亹伄伂	-10.7395
僦	-10.7395
▁亣亗仌亖	-10.7395
▁仍予亳仮亪亇	-10.7397
依亅	-10.7399
▁亓亳亴亟仓亖	-10.74
▁仦們仄	-10.7401
▁今僴亐	-10.7411
務	-10.7411
叢	-10.7411
▁予亊俄亳	-10.7411
▁仦亃亳今予	-10.7411
免	-10.7412
▁些仆亳	-10.7414
ong	-10.7415
▁些亳份	-10.7419
▁京仺伨	-10.7424
▁仮亸些亿伽仡	-10.7425
▁仃事	-10.7427
▁仉仐佦予	-10.7427
厳	-10.7427
▁亷僥伺	-10.7427
兒	-10.7427
▁亃亪佛	-10.7428
pp	-10.7429
▁亅嘃亿亐	-10.7429
pi	-10.7435
▁亅亜亝	-10.7435
亹人些亃侀	-10.7443
▁价亳仉亖	-10.7444
▁伋伝亚	-10.7445
▁亓亳伥	-10.7449
▁佖仙亊亱亇	-10.745
▁亅亟亍人会亻亼仇	-10.7455
▁仸亥仏伂	-10.7459
▁偠亳些伺	-10.7459
仞侇	-10.746
▁亩云亃	-10.7462
▁1938	-10.7463
▁亅亗亂亇	-10.7469
▁价侦亟伺	-10.7473
▁侲倝亟亖	-10.7474
▁亅伅仾	-10.7475
▁亅仹	-10.7476
▁亅亜仐事	-10.748
▁价仌亭	-10.7484
▁仦促俖亟伺	-10.7486
亠	-10.7486
▁价亭亅亩	-10.7487
▁些伇佛	-10.749
▁佖值佚亖	-10.7491
刺	-10.7491
▁侩仯今伇	-10.7491
▁予卑亸	-10.7491
▁伇党予	-10.7491
▁仉亚京亭	-10.7491
ous	-10.7495
▁予仾仧亜伅伺	-10.7502
侽	-10.7504
▁亓仞亻	-10.7504
▁于偞亟仮予	-10.7512
▁任亾亟	-10.7512
仡伓亗	-10.7519
兝	-10.7521
▁亽亟了	-10.7523
▁价亹仏佃	-10.7523
▁伎仅伽	-10.7524
▁今偙亖	-10.7525
京亭亐	-10.7526
冓	-10.753
Si	-10.753
▁仸互	-10.7534
▁亓众伟	-10.7535
傱井产	-10.7536
ani	-10.7537
▁仦亃亳今仆	-10.7539
倗亭	-10.754
▁仉亾些享	-10.7557
van	-10.7558
▁仈会以	-10.7559
▁仸伄仕俥伺	-10.756
ack	-10.7562
ava	-10.7562
ham	-10.7563
▁仸仺些伺	-10.7565
▁伇亳侣仄亟	-10.7572
俪	-10.7572
▁价亭侉	-10.7573
▁付亜仕俥伺	-10.7574
仮伫	-10.7575
予亳仮仇	-10.7577
min	-10.7577
▁仸仺亻亼仇	-10.7578
▁伲亦	-10.7578
▁仦亳侐亷仄	-10.7579
傰伺	-10.7582
▁亅亟仇伺	-10.7582
▁仐仺些仇亏什五	-10.7586
付仼亟	-10.7587
吜	-10.7588
哥	-10.7588
▁亴仺付佁	-10.7588
▁伱仱亟仮予	-10.7588
仐亣	-10.7588
俰	-10.7596
▁二仇亹人些于	-10.7603
嘩	-10.7604
▁井亅予亳亸	-10.7604
▁仉亃仌亖	-10.7607
▁价亊佘仕亇	-10.7608
▁亪伄伮亊亹人亻仏于	-10.761
▁伲仡些亳	-10.7613
仅今伺	-10.7613
亹人伬于	-10.7619
▁些亻亝	-10.762
▁些什	-10.7622
▁伇亗伇偠	-10.7624
▁1943	-10.7624
▁二佴伧亖	-10.7628
▁亽人予亚	-10.763
▁亷亹予	-10.7632
▁亣亭些仇佛伕亳	-10.7637
▁仢侐亗	-10.7637
▁亓伪了亐	-10.7645
▁亴仺予亦予亐	-10.7645
▁些亜些亏亐	-10.7646
仍亝亇	-10.765
▁任仼亭了	-10.7652
▁佖伂予倖	-10.7653
▁亷傍伄	-10.7653
▁亪亜云了亐	-10.7653
▁些亸伉	-10.7654
▁井亊侖	-10.7654
▁些仛	-10.7658
▁亪仺仡	-10.766
▁予亦伈	-10.7662
▁仨仩仼	-10.7667
OH	-10.7669
▁云亡伟	-10.7669
卻	-10.767
▁亳刚	-10.767
▁侫冝	-10.7671
僻	-10.7672
▁亪仏	-10.7673
▁云亭亃	-10.7673
ear	-10.7676
ox	-10.7679
▁仐亟交了	-10.7681
▁亓亣亅伺	-10.7684
伞仛	-10.7685
▁120	-10.7685
▁亅亊伮亜亙	-10.7686
▁亅仏仡亇	-10.7688
▁侫亘	-10.769
亪佅仭	-10.7691
▁亷仉亟	-10.7694
▁仐仺些仇伅亖	-10.7695
亰伵予	-10.7697
▁佡仂	-10.7699
▁侈侕	-10.77
▁二偔	-10.7703
伝亚	-10.7703
▁1935	-10.7708
▁亓亊了亇	-10.771
▁价亟了仌五	-10.7711
▁侲倝亟	-10.7714
亲事	-10.7716
▁价亳予亴亟	-10.7721
▁亞亟伸人会	-10.7723
▁亅侠仒	-10.7728
▁佃了亹亗于	-10.7733
场	-10.7736
▁仵亪亣伧仓亭伟	-10.7737
▁亽僟争	-10.7742
▁井伧亾仇亏亐	-10.7744
▁亞亟凄仏五	-10.7744
▁亞佩予亚	-10.7745
亿佀	-10.7746
些倘	-10.775
▁仧亾仉仂	-10.775
傴	-10.7751
▁修亅予仙	-10.7752
呄伺	-10.7755
仐仏	-10.7757
▁佦今五	-10.7757
▁价伮亾伂	-10.7758
▁任仹亹亗仇伺	-10.776
云互亇	-10.7765
侮	-10.7769
▁仦侻伽仡	-10.7769
▁仐仂些予	-10.777
▁1929	-10.7773
伞人	-10.7783
▁仉人亂亡	-10.7783
僳	-10.7785
▁二倕亃	-10.7785
▁仕亝	-10.779
▁仧佱仄	-10.7791
▁二亾京亭亐	-10.7795
▁伇云仮予	-10.7797
▁仉亾今予	-10.7802
亭仮今伺	-10.7803
▁org	-10.7805
▁仮偛	-10.7813
▁仵事伏亨	-10.7819
▁伕仄亘	-10.7821
▁亴了亖	-10.7825
▁亪侐	-10.7831
▁亓亝伎亟	-10.7835
▁佂侻仄	-10.7835
儃亐	-10.7837
▁价了僂亾	-10.7839
▁亅亳些亱仇	-10.784
▁亓伪予	-10.7848
▁付伿些	-10.785
喩	-10.7852
喸	-10.7852
▁价亟佉亃仆	-10.7853
偂	-10.7854
▁京亭会	-10.7858
▁仦伫亖	-10.7867
匋	-10.7869
啳	-10.7869
▁侈倘佋什亖	-10.7871
▁亞伤亹亥产于	-10.7876
▁佰伇亹人亻仏于	-10.7877
些侢	-10.7881
▁京亭什	-10.7883
▁二亻侮	-10.7886
亓亩些于	-10.7887
▁250	-10.789
▁付仌亳仌亖	-10.7895
▁价亭佝	-10.7897
今了亇	-10.7897
会伵予	-10.7902
▁佞人亅作伺	-10.7902
▁仵亊伉仇	-10.7902
▁亞亟但争	-10.7902
▁予亭亃亹人亻佬伺	-10.7905
▁亞俤	-10.7909
▁佭仭伨仉	-10.7911
▁亓亭亐	-10.7915
冿	-10.7919
^	-10.7919
▁仧亳亲亳	-10.7919
俢亡	-10.7921
▁亩交亳	-10.7922
▁付倅亇	-10.7926
▁亅亪亣予亶予	-10.7927
▁价俨仺些仇亇	-10.7932
▁仉今亣	-10.7933
▁亓亣予亹亜仅仇	-10.7936
▁仮亽争亖	-10.7936
▁亂兓人	-10.7936
亾亊交亭伟	-10.794
▁价仄仌亳	-10.7942
las	-10.7943
ory	-10.7949
▁井亭亚	-10.7951
▁亴仙亏亐	-10.7952
▁价亟冕亟伺	-10.7953
備	-10.7953
▁亪亡佛亅倨	-10.7953
Par	-10.7964
▁云仺云仄侕	-10.797
▁亅仄佤仇	-10.797
▁交偞	-10.7972
▁二亾京亭	-10.7973
▁予亭亃亹亗于	-10.7974
些佝伺	-10.7975
▁亂亟亼	-10.7975
▁600	-10.7978
Per	-10.798
▁Ca	-10.7984
▁予傥俔	-10.7986
▁佤关	-10.7988
▁仦亻佦亭亊五	-10.7989
▁仍予亳佘	-10.7989
嘢	-10.8003
▁伃偍亜	-10.8003
▁仐仱予亾	-10.8004
▁亴仺佢亳予	-10.8004
▁份侎仆	-10.8008
▁井亸侑	-10.801
▁仦亳俟伅伺	-10.801
▁予亭亃亹人亻亼仇	-10.8026
▁亃交做	-10.8026
偙	-10.8028
些亿伽亊五	-10.8029
▁50%	-10.8036
land	-10.8036
僄	-10.8037
▁予亣兄傒	-10.8037
伜	-10.8037
▁予众伇仮仇	-10.8038
▁佖亩些于	-10.8038
▁仐亭	-10.8041
▁予争亟	-10.8042
chi	-10.8042
▁仐仺些仇亏什亖	-10.8047
傱云互亇	-10.8048
▁亳亝	-10.805
仵亊	-10.8051
估伽仡	-10.8062
▁亅亟伡	-10.8062
▁伕亝伺	-10.8063
▁价亟仡仍仱予	-10.8065
▁亻佐	-10.8072
嘃	-10.8072
▁佰亾仇	-10.8075
侦互	-10.8083
▁佂伩	-10.8084
▁亅享亙予亐	-10.8088
▁价亳伧传	-10.8089
▁任仄俟仅	-10.8089
叄	-10.8089
▁些争	-10.8093
▁伕亾佝伺	-10.8094
侍亸	-10.8096
▁亞侶俥伺	-10.8096
▁云亣伣	-10.8097
▁仸伄亟于	-10.8098
▁亮亟亿亚	-10.8102
伮亾伂	-10.8103
▁价伉亭伟	-10.8106
▁予众亃仉亟亱仆	-10.8106
▁付亊予伺	-10.8108
▁些亚伂	-10.8113
▁佂仹	-10.8113
▁付兂	-10.8117
▁亓以亙	-10.8118
佬云亖	-10.812
▁佃仌亭佛	-10.8122
▁二侫伨仯仅	-10.8123
▁仦伧亳了亸伵仇	-10.8123
匒	-10.8123
▁亃交凳	-10.8123
▁亩伿些	-10.8126
▁京优	-10.8139
▁些亴亨佚亿亐	-10.814
▁予些仇佘	-10.8143
▁亓侫亳	-10.8144
▁亣介亹亊仮仇	-10.8148
亪仮亾	-10.8152
ick	-10.8153
▁亴亳云	-10.816
▁Z	-10.8162
▁云予伡仇	-10.8162
▁交亪亣	-10.8168
▁价亟仡仍	-10.8168
▁价仄仡予亚	-10.817
▁价亡仉	-10.817
▁亓你倡	-10.8174
厣	-10.8174
▁亓佲俽于	-10.8174
▁亮具亟	-10.8175
▁亷俔亟什	-10.8175
▁伲仱什	-10.8175
偁佰	-10.8175
侴亼仇	-10.8176
▁伇侉予	-10.8179
▁仍云仡	-10.818
▁亃仅亾仡亇	-10.8185
些伎伈仜	-10.8186
▁亮侻亚	-10.819
▁亽亟了伺	-10.8191
▁亮偔	-10.8192
▁仧债亖	-10.8192
▁仈仛了	-10.8193
adi	-10.8193
▁仵亊件亖	-10.8197
▁亓佻	-10.8198
▁亂俌亸仌五	-10.8199
ics	-10.8199
▁亅亟亍人亝亹亗	-10.8203
▁云于仱	-10.8208
▁仮伫亟	-10.8208
▁予众亃仌亖	-10.8208
▁仉健亾仅	-10.8209
嘅	-10.8209
▁仝争	-10.8209
▁亓俓亃	-10.8209
▁亞亟但人予亐	-10.8212
▁佢仄亻亾	-10.8212
▁伃估亐	-10.822
▁任人亘	-10.822
▁二仛伮	-10.822
▁予亥介予亚	-10.8226
▁仸介	-10.8227
▁亃仅亾伨仆伺	-10.8229
亂仒	-10.8234
▁予仄些亳	-10.8237
▁于今亳	-10.8238
▁伇佇亝	-10.824
Mo	-10.824
▁任僰予亚	-10.8244
傖	-10.8244
▁佃亷亴	-10.8244
700	-10.8247
▁1931	-10.8249
▁pro	-10.8249
▁伲亃仂	-10.825
▁亃侏	-10.825
▁亓仚仛于	-10.8257
▁亪仛佃	-10.8259
▁亞俉些	-10.8263
▁侫今伇	-10.8263
▁亱仳	-10.8265
▁亃亏伽仡	-10.8265
▁亓亣仓亭伟	-10.8266
▁伱伀伡伺	-10.8267
▁井仄亻	-10.8271
▁任便	-10.8276
▁云促	-10.8277
▁仁伽亨亟	-10.8279
▁仦侻伽亇	-10.8279
▁亪仒今什	-10.8279
▁仦仼仓亭伟	-10.8287
▁亮併	-10.8289
亭佽	-10.8289
▁佳什伂	-10.8291
▁仦佬些于	-10.8296
▁亓予仱亣	-10.8296
▁仉亭亣仂	-10.8297
▁仈伔佛	-10.8297
uk	-10.8298
▁修仉亳仮予	-10.8299
▁井亟侑	-10.8301
▁井仄予仆仉亖	-10.8303
▁仢亱仇	-10.8304
▁亻亭僱	-10.8308
吸	-10.8313
▁些佺仇	-10.8315
▁亩佉	-10.8316
▁唻	-10.8319
▁亓伄伂介	-10.8322
▁价亟佉亻仏于	-10.8326
休	-10.8331
▁佃亪伿	-10.8331
▁二亍伱人	-10.8334
兴	-10.8337
▁井亟倫	-10.8339
▁云亗仌亖	-10.8344
▁劘	-10.8344
▁亪伄伮亊亹亥产于	-10.8348
▁亓仞亷仇	-10.8349
▁亓伐亅仉	-10.8349
▁侍伧亰仡	-10.8354
▁亽僟争伧亖	-10.836
▁井亭些予	-10.836
仱免	-10.8361
▁二佪佬伺	-10.8366
▁仐仅亟	-10.8368
▁价倖仅予	-10.8371
▁些亶予仌亖	-10.8377
▁予伿伄伟	-10.8377
▁仦予云	-10.8379
▁仢仆予伒	-10.8384
▁予儇	-10.8384
傱券	-10.8387
企于	-10.8391
佮倐	-10.8391
佮伿于	-10.8394
▁佂什伨人	-10.8394
ther	-10.8399
▁仦儀	-10.8401
▁亓仧仉亭仌	-10.8401
亨佬亐	-10.8401
▁仧侘亴亖	-10.8403
▁仐仺伂	-10.8403
▁仐侀亇	-10.8404
▁二個伴伈	-10.8404
伯	-10.8419
▁仦亗仌亖	-10.8419
劫	-10.8419
▁亂亜仅云亖	-10.8423
▁价仡仛	-10.8423
nam	-10.8424
亽仱亟亸	-10.8425
▁佳亾仉会	-10.8434
亭佝亖	-10.8435
▁亂亃仓亟仇	-10.8435
▁交僋佛	-10.8437
▁亷仙伟	-10.8437
▁佭亃仭	-10.8437
▁享兎	-10.844
兔	-10.8443
▁京仺仟	-10.8445
▁侼亾亊	-10.8447
▁佢侘	-10.8447
呫	-10.8454
▁井亸些予	-10.8456
▁他內伧	-10.846
▁予亭亃亹人亻亼于	-10.8461
傱仈亭	-10.8462
▁亓亰些仄仱	-10.8463
go	-10.8466
佄什亖	-10.8468
▁亓享佝伺	-10.847
喑	-10.8472
▁伲争伧亗	-10.8472
▁亓俖予	-10.8473
▁位仄伺	-10.8479
IC	-10.848
▁亅亟亍人会些于	-10.8484
剩	-10.849
剱	-10.849
▁价倖亨仏于	-10.8492
▁亓亾亟侄伺	-10.8492
▁些产	-10.8492
▁予亸亅亣	-10.8496
▁予仺亙	-10.8499
▁些亻伅伺	-10.85
▁佭亟伺	-10.85
lam	-10.8505
▁仧仱俆侫	-10.8519
仧亶	-10.8522
▁侩亦	-10.8524
▁予僳亊亷	-10.8526
册	-10.8526
厗	-10.8526
▁些亜些佘	-10.8526
予伽亨享伆	-10.8527
▁亳卛	-10.8528
▁仦仞仮仇	-10.8531
亓侲亾了	-10.8532
▁亣亭云事	-10.8533
▁仧冃仅伺	-10.8534
▁仧仱係	-10.8541
仡侐亜	-10.8541
▁亞亼仇伺	-10.8543
▁井侔	-10.8548
▁价佇仅佃	-10.8548
▁亮亟亭亇	-10.8551
▁仢倮事	-10.8555
▁仍亊亨仏于	-10.856
▁亓仏似些仄亿亶	-10.8562
▁京仛于伲仡	-10.8562
▁伎伞仛仌	-10.8562
▁予刣人	-10.8562
▁些优亷争	-10.8562
▁伇仮亣	-10.8563
▁亅众仅伫仕俥伺	-10.8564
▁亓以亨亼仇伺	-10.8565
▁佰亾亖	-10.8568
▁倧亣亟	-10.8568
倹予	-10.8577
che	-10.8578
▁予伿伄亟亹亗于	-10.8578
▁伇仯亨仞亘	-10.8579
▁些仝仓	-10.858
▁仉侻仄	-10.858
▁亮亭亯	-10.8582
▁亓以了亹人亻佬伺	-10.8583
▁些亟亩仇	-10.8584
凷	-10.8587
▁伃伄	-10.8587
▁亻仱云亙仏	-10.8588
▁价亭伟俥伺	-10.859
▁任僰伈	-10.8593
▁亓仏仐事亟	-10.8597
▁仐亡份互	-10.8597
thi	-10.8602
▁亪佑	-10.8608
仁们	-10.8611
▁仮伄仓	-10.8613
垛	-10.8615
▁亓予佃伧亖	-10.8616
▁亓亃亍亜	-10.8618
亣仏五	-10.8619
▁亽些亖	-10.8621
▁于些伉亟于	-10.8623
▁伲伫	-10.8626
▁仦亳俟会	-10.8631
另	-10.8634
▁伋僖优	-10.8634
▁仧亳亅仄仮予	-10.8634
些伱人	-10.8634
▁仐予仞	-10.8635
▁仐仄亹亳亙	-10.8638
nal	-10.864
伮仏	-10.8645
匍	-10.8652
▁亣予僉仏于	-10.8652
▁亅亟亍人会亻亼仇伺	-10.8657
佧伄	-10.8662
▁二伦亾伴	-10.867
▁仢亯人	-10.867
▁伕仂伂	-10.8673
▁佞亳亹亃	-10.8676
亿什亰亇	-10.868
▁付亳亃	-10.868
▁亓什亨仏于	-10.8685
▁仧亾伂予亶予	-10.869
▁仈亭些仱仇	-10.8693
▁亻仞亨	-10.8701
▁交亃仮仇	-10.8703
▁伲仇于	-10.8704
▁予亸偼人	-10.8704
▁仮亃亏伽仡	-10.8706
▁亞卯亟侫	-10.8706
▁付亻僙仯	-10.8706
▁亓事些亾伥	-10.8708
ett	-10.8714
▁亓些伐仡	-10.8718
▁价仱仮亟亸	-10.8724
▁亂仙亗	-10.8724
佮亜	-10.8726
ain	-10.8729
▁井倐亪亇	-10.8732
▁亓伔云亖	-10.8733
▁井伓人亝	-10.8734
▁价享亂予	-10.8734
仚亭佄	-10.8739
▁亮仗众	-10.8743
吷	-10.8743
▁佭亃仱前人	-10.8743
▁侫互亹亟亸	-10.8743
▁京仺亝些介	-10.8745
▁亮仩	-10.8747
▁De	-10.875
▁側侤	-10.8752
▁佳亾仉亨亼仇	-10.8764
刕五	-10.8766
▁佳亾仕亇	-10.8768
▁亓些亭亊五	-10.8776
▁仃仓伎	-10.8779
▁仸亗亘伮	-10.8781
▁仍予亭亇	-10.8785
▁亪人侐仌五	-10.8787
亞侶	-10.879
▁任仾些亳	-10.8793
▁佂什些亭亇	-10.8797
▁亃亏伽享亟	-10.8797
▁亩僚伟	-10.8797
▁亣亭俟伡伺	-10.8798
▁仦亃亳佃	-10.8799
▁于冓	-10.8803
▁予些伇	-10.8804
偸俞	-10.8811
ree	-10.8815
▁云亡仮些亗	-10.8816
▁亩云仳	-10.8817
▁仉冫亽亃	-10.8817
佹	-10.8822
▁亣仇亂亇	-10.8824
儅亼	-10.8829
▁侲匭	-10.8834
▁伇亳亸享	-10.8836
▁价喣亾亖	-10.8837
▁价亟侽仅仇	-10.8841
▁亅伧亼	-10.8844
▁仐予僭予亚	-10.8844
卽	-10.8853
云亏仄	-10.8857
▁1932	-10.8858
▁价伥了亭仉	-10.8859
伕仌亳	-10.886
▁京伄伧亟	-10.8864
▁价伵仄仌亖	-10.887
▁亅仩仡亡	-10.8871
▁佡倫	-10.8872
▁于亾亃	-10.8872
▁佳亵	-10.8873
佌位予	-10.8874
仆仉亱仇	-10.8879
伧仓亭佛	-10.888
▁亪伀	-10.8881
▁佰亳亳亴	-10.8883
▁任倐亗	-10.8886
▁亣予債	-10.889
▁仉仂侰亨	-10.889
▁亓亣亷亳佡們	-10.889
▁仵亊佉亻仏于	-10.8898
▁亓优伂	-10.8907
吾	-10.8908
▁亓傒仺亝	-10.8909
▁予亗亘了	-10.8911
q	-10.8912
▁亅伀	-10.8913
ft	-10.8919
PA	-10.8919
▁仉亭俟亟	-10.8924
▁亂倔	-10.8925
▁井仄予俌仟	-10.8927
▁京亭什亖	-10.8936
▁亪仿	-10.8941
▁仐予債于	-10.8943
▁二偮	-10.8944
傦	-10.8945
▁側伡亣亅亣	-10.8945
▁二佪亼	-10.8946
▁井亸偋	-10.8951
亂亜仅亃	-10.8958
▁亂佇亟	-10.8959
ich	-10.8961
▁仅侃	-10.8961
亳仌仇亇	-10.8963
划	-10.8964
呾	-10.8964
▁他侢伄	-10.8964
佇亭了亱亇	-10.8968
▁仵亪伮亖	-10.897
▁伇侍亃亳亿亐	-10.8976
▁份予仌亖	-10.8979
▁伲亪亇	-10.8979
刌	-10.8983
咮	-10.8983
▁仐仄仍人了	-10.8983
哘	-10.8983
嗻	-10.8983
▁份互亘	-10.8983
▁亻仞亘	-10.8985
▁仦亳俟了亹亗于	-10.8992
哐	-10.9002
▁佖做亇	-10.9002
▁仧亳亷伇	-10.9002
▁仉仆佉亻亼于	-10.9007
▁亻俄伃亗亿亐	-10.9007
▁云伊亴仅仉五	-10.9007
ica	-10.9008
▁二亍些仔	-10.901
Na	-10.9011
▁价亃凹什亖	-10.902
▁亪仞倾予什五	-10.9021
▁伇伃亅仌亟	-10.9021
▁侍于亘	-10.9022
▁仸仏亹人亇	-10.9026
些仆于	-10.9026
▁亓使亊	-10.9029
▁亃云仡	-10.9029
▁亃事亘亟予	-10.9029
▁他以今伧	-10.903
▁亪亜伧亭	-10.9031
▁二仧侘亟	-10.9039
▁亓些亩仯	-10.9039
▁井內亇	-10.904
▁仐伦亟	-10.904
▁亓佚亊	-10.9041
▁予亗亘伮	-10.9042
▁仮侂	-10.9043
▁价亟亏	-10.9046
伵亳亿亐	-10.9047
▁价僐仓亖	-10.9047
ook	-10.9049
▁亷仄会仡	-10.9049
ance	-10.9052
▁亃仯云亏亐	-10.9053
▁仈伭仿亇	-10.9058
▁仦俄伇予	-10.9058
▁亞亟但亥	-10.9058
▁予仇伂	-10.9059
und	-10.906
▁亓伪亪	-10.906
▁伕于伮	-10.9061
▁份亶	-10.9062
▁仦伽仍伺	-10.9065
▁仍予俕	-10.9066
▁他內伧亾	-10.9071
▁佧亃偌伟	-10.9077
▁仉些亷亳	-10.9077
▁仸仺些于	-10.908
▁价亭仡伬于	-10.9083
偎	-10.9085
▁亮亟亾亊亹亗于	-10.9086
▁些亭亊亏亐	-10.909
▁亃仯亘	-10.909
▁亅众伕亾佛	-10.9095
▁仐予僉仏于	-10.9096
劢	-10.9096
▁亃偢	-10.9103
▁亅亳亃	-10.9106
▁亪亡今予份	-10.9106
倊	-10.9114
凁	-10.9115
▁1900	-10.9115
仱僲亳	-10.9115
予什伊伆	-10.9116
予什亍亜	-10.912
▁仦倵	-10.9126
伧亭亨仏于	-10.9129
了僂亾	-10.913
▁修从	-10.913
▁亅亳亹	-10.9134
▁亴些仱仌亾	-10.9134
▁于些亏	-10.9134
▁亣亗亏亚	-10.9135
▁修俻仯了	-10.9135
▁交债	-10.9139
仐仺些仇	-10.9145
伮佱予	-10.9145
▁仭佔	-10.9147
▁亂亜伂予亚	-10.9147
▁佳亾佛	-10.9147
単	-10.9153
▁亅亾侣云	-10.9153
▁住优亮亟侂	-10.9155
▁亷亳亸仮亪亇	-10.9155
僤争	-10.9159
▁Com	-10.9168
▁仵优亱仆亿亐	-10.9169
▁亴伄亃仆伂	-10.9172
▁儁亜佦	-10.9172
叩	-10.9172
▁仉亾亪位	-10.9172
佅人	-10.9174
ld	-10.9178
▁仐予俱予亚	-10.9182
▁亂亃倰伺	-10.9188
▁亞侒亡	-10.9191
▁京于仍仄今亟	-10.9191
冴	-10.9194
仚亭亶予	-10.9194
侦仒于	-10.9198
▁京仺亝	-10.9203
云享伟	-10.9205
亃交侃	-10.9207
▁兼亜	-10.9208
▁亩些亳仉亟亖	-10.9209
亏亶予伂亇	-10.921
John	-10.921
埫	-10.921
▁仵僘亭	-10.921
▁仧亾仉仇	-10.9213
▁亓亘伨亪亇	-10.9215
凼	-10.9215
▁于些亨	-10.922
▁仍亊亝亹亗于	-10.922
▁仨佋什	-10.9221
▁仦亩亳亏亐	-10.9221
ust	-10.9225
▁亪伄伮作伺	-10.9229
▁仦佱人	-10.9229
▁仦亻亟些互仡	-10.9229
▁价亟亨仕俥伺	-10.9231
▁价亭亹些	-10.9235
亹人亅些	-10.9235
▁仐仺会	-10.9236
▁亓以了亹人亻亼于	-10.9237
▁亓亳仧	-10.9245
▁任俩于	-10.9248
▁亓亳俌亸亇	-10.9248
俣	-10.9248
▁佧亻优	-10.9248
▁今亾侫	-10.925
▁亓伄佃	-10.9258
▁仧倇交亟伺	-10.9267
▁亷伮亟	-10.9272
▁亣亭亽	-10.9273
▁佳倀佇仅	-10.9278
倇亣仅仇	-10.9281
佼亪亣	-10.9285
▁予亗亘仟	-10.9289
佨	-10.9291
▁亓亘佇亭佛于	-10.9296
剛	-10.9301
亿伽伵予	-10.9301
▁侍仉仓五	-10.9304
▁倧亗伦会	-10.9306
▁伕佅亾	-10.9307
仌倖	-10.9307
▁二人会佮产	-10.9316
▁佂什伦	-10.9319
佇亭亨仏于	-10.9325
▁仢倒	-10.9331
伧亟仓亖	-10.9333
▁亻享了仉佴	-10.9335
▁亅亳伟	-10.9337
▁予亭会了亐	-10.9338
▁伎亹伫伡伺	-10.9338
▁伇凼	-10.9339
}	-10.9345
▁仦仌侘仓亟	-10.9345
▁佂伫予亳仮仇	-10.9349
ith	-10.935
▁予事仰亿亐	-10.9359
▁些亳份刀	-10.9364
▁井亭今了亹人亇	-10.9367
▁仃僉	-10.937
▁1928	-10.937
hu	-10.9371
▁份亚	-10.9376
仆刷伺	-10.938
▁些亜些亏什亖	-10.9383
制	-10.9384
劶	-10.9384
▁侲倛俌	-10.9384
▁云亣伣争五	-10.9385
▁兡	-10.9386
▁仉亭于仍予伺	-10.9387
az	-10.9388
▁仵优事	-10.9389
▁佤傒	-10.9391
▁亓伄亂予亹人亝亹亗	-10.9392
▁价亟伝众亃	-10.9403
叻	-10.9403
▁亣仇伇亾	-10.9403
▁仅亭亇	-10.9408
▁亓佊亏亚	-10.9409
▁伕亝予亏亐	-10.9422
▁US	-10.9422
卿	-10.9423
▁价僓予亳仌五	-10.9423
▁亴伅佛	-10.9423
▁价些亿亚	-10.9423
▁井伧亾亟	-10.9425
▁伇了亳仌五	-10.9425
▁亃仯仍亅伺	-10.9426
▁侈佃亹人亻仏于	-10.9434
▁云亥云伀	-10.9442
双	-10.9442
▁今亍享	-10.9442
▁价亃优五	-10.9442
▁价仄伿五	-10.9442
▁仐亳亱了	-10.9443
▁仦亻佦仱亖	-10.9446
▁伱仿亻仏于	-10.9453
仌亭佛于	-10.9463
▁侍付仄	-10.9466
▁仦仼侀	-10.9467
▁价亡些仂	-10.9471
▁依付	-10.9473
▁亓亰些仄	-10.9477
lect	-10.9478
仆仱予	-10.948
▁亃交僴亥	-10.9481
▁俖俞亡	-10.9481
▁京亭亶	-10.9483
▁些亟亣伊伆	-10.9483
▁亃事仍予亳仮予	-10.949
▁亂仛于亇	-10.9495
亸侕	-10.9497
▁仱亟亖	-10.9498
▁亷伉亳	-10.95
▁仵亊介	-10.95
儉	-10.95
▁付亊佋什亖	-10.95
厕	-10.9501
▁1924	-10.9507
▁亅亟亍人会亻仏于	-10.9509
▁亅亟亍人亝亹人亻亼于	-10.9514
▁些优亅亗	-10.9515
▁Li	-10.9516
▁1919	-10.9517
▁二伖交亊仌亖	-10.9521
倇亣仅予	-10.9522
▁亘佋亐	-10.9528
▁佂亜亙	-10.9528
CC	-10.9529
▁价仏亪	-10.9532
▁伇亗云亼仌侀	-10.9537
▁价伀亟亘仅亃	-10.9541
啒	-10.9541
▁亴仄亹亣亷亳	-10.9541
▁侳亳伉	-10.9541
▁伱仞	-10.9549
NO	-10.955
▁予仇亜亟	-10.9551
aya	-10.9554
ood	-10.9554
▁侬以	-10.9556
叭	-10.956
▁仦亻亟些互亊五	-10.956
▁亂亃亱什	-10.9561
▁亅享会亡	-10.9564
▁价亃做	-10.9566
▁仉仆仡亻仏于	-10.9566
▁亮內	-10.9571
▁仫们些亿亐	-10.9574
▁仦仱亟	-10.9576
农	-10.9576
▁二侢仒	-10.9577
别	-10.958
▁仉唌	-10.9581
▁仮仺付人	-10.9582
▁1933	-10.9585
▁些亭亻亼	-10.9589
▁他以伂	-10.9596
▁二人仡亇	-10.9597
叇	-10.96
▁佡佨	-10.9605
▁亅仱云亾亙	-10.9607
▁亞亟但人予亚	-10.9609
▁仍亊仱側	-10.9613
▁份亚予什亖	-10.9615
▁亓伄亟亱亇	-10.9616
仮亾亟俤五	-10.9618
▁亪側仱亢	-10.962
儭	-10.962
仐侰	-10.9623
▁亅亟亍人亝亹亗仇	-10.9628
▁仦亩亳仮予	-10.9629
▁今僉亼仇	-10.9632
lli	-10.9633
▁仉亽亟予	-10.9636
儁	-10.9638
亴伫亃侃	-10.964
▁亓亊佉些伺	-10.964
▁予亸偼人亙	-10.964
▁井亭今仡亻亼仇	-10.9645
予伂伿	-10.9653
▁佽亳仆仌五	-10.9653
▁价亳仌仇	-10.9654
▁仍刌享	-10.966
▁仮亮亭亇	-10.966
▁亂仛些亣亰亇	-10.9662
ung	-10.9662
▁伃亗亿亐	-10.9662
▁亞俙亃佱予	-10.9664
her	-10.9664
佮伢	-10.9666
▁亓云侑	-10.9666
▁仦伽仍	-10.9669
▁亘先仁凅	-10.968
冕	-10.968
伇亂仌亳亇	-10.9685
▁亓亣侕	-10.9686
ice	-10.9687
▁伇傿	-10.9688
▁亷吰	-10.9689
▁亷争亟	-10.9697
▁亴亝亾了	-10.9697
▁亓佊亏亐	-10.9697
▁今僋亸予	-10.97
▁仐倹亻	-10.97
▁侰仯亟五	-10.97
▁亓亃伐享亟	-10.9703
亅人亻仏于	-10.9705
▁1925	-10.9709
▁予亥伨争	-10.9712
▁予僪仯僫	-10.972
▁云亥云伔云亖	-10.972
▁伕伎伧事	-10.972
▁仧亳予亊仇	-10.972
▁亓了亡	-10.9722
▁些优些亪亝于	-10.9723
▁亣亂予	-10.9729
▁井仺亣仅仇	-10.973
ock	-10.9737
300	-10.9738
▁二個云	-10.9739
▁云了亶俔	-10.974
▁亓亭亷亘伧亖	-10.974
▁亮亏倞伺	-10.9741
▁予些侕	-10.9741
▁亞亟佋亚	-10.9744
▁亓侾云事	-10.9744
伮亾仉	-10.9749
▁仉仂伕亾伟	-10.975
▁亣亭亝仄	-10.975
些亿佀	-10.9755
兀	-10.9761
些亣亰亇	-10.9768
亞伤亹亗	-10.977
▁些亟于仡伓儀伺	-10.9781
咃	-10.9781
亻佫五	-10.9781
佋亶亖	-10.9782
▁亴了佋亐	-10.9794
▁亓伄仉亝	-10.9797
▁价僓予亾	-10.9798
▁价亭伵于	-10.9802
亝交侃	-10.9803
▁价俨事	-10.9815
fer	-10.9815
▁亃倾仅伺	-10.9819
听	-10.9822
▁亷伳倿	-10.9828
▁价俨事伧亖	-10.9828
▁亞亟仓仞	-10.983
▁价仇仡仛	-10.9831
▁予侐仯	-10.9834
Sa	-10.9836
侹	-10.9841
▁亷仄俽亨亖	-10.9842
▁仉人仉了	-10.9842
▁价亹亊仌五	-10.9843
▁佰于亭	-10.9843
▁些亸了	-10.9845
▁仐仏仮事	-10.9847
▁付伇仇	-10.9848
▁二僀	-10.9849
▁价凡	-10.9849
▁亃些伄	-10.9862
>	-10.9862
勚	-10.9862
▁份嗒亭	-10.9862
▁价仆些亳亴	-10.9862
▁亮亏倞亭	-10.9862
▁亷亥亻亼仇	-10.9863
仱亻亟	-10.9863
▁亞于了	-10.988
▁云傞仿	-10.9883
▁仃伀亖	-10.9883
▁仐依仧	-10.9887
▁仵亊偂伺	-10.9888
▁云亗仌仓亭伟	-10.9888
▁京亏亖	-10.9892
亝佁伈	-10.9898
▁仧亾伂予亚	-10.99
▁亪亜亟亳亴五	-10.9903
▁仍享亮仏	-10.9903
▁仍亊亝亹人亇	-10.9905
tal	-10.9906
▁伕佬	-10.9909
▁1926	-10.9909
亻仱云	-10.9914
▁侈创	-10.9923
嚿	-10.9924
▁伋伝什	-10.9924
▁价俤事	-10.9925
▁亓亊伉仕产	-10.9926
仮亣亾	-10.9926
▁仍享亮仺亻亼仇	-10.9928
▁价倖佝伺	-10.9928
ology	-10.9929
▁仉仄佉予什五	-10.993
▁仈倁	-10.9931
▁亓仞予	-10.9933
▁些仞佉亻亼仇	-10.9934
▁伇儋伈	-10.9937
▁亓倭仼仠	-10.9944
▁仦亃亳些什	-10.9944
吴	-10.9944
刁仛于	-10.9944
▁亓侈份亚	-10.9944
▁仈亜仁	-10.9945
▁些优亷亥	-10.9945
▁仐交亊亏亐	-10.9945
▁仢仙亳伮亖	-10.9946
仑仒	-10.9947
▁仢侐人	-10.9947
▁亓俸予	-10.995
ue	-10.9952
▁伇云亷仄	-10.9959
些俧	-10.9959
▁价低	-10.9962
▁仨亱予	-10.9962
▁佞人亅争亭	-10.9965
▁亷亃仄	-10.9972
▁价仚仛于	-10.9977
▁井仺伮仇亿伽	-10.9979
log	-10.9983
AD	-10.9985
囚	-10.9986
pu	-10.9989
▁1921	-10.9993
▁仦亴仅仉亖	-10.9999
▁亅些仆	-11.0001
▁亃予人	-11.0001
gu	-11.0002
▁佂什亹享仅予	-11.0007
National	-11.0007
▁云亥交伀	-11.0007
▁仵亊倴	-11.0009
▁予仛会	-11.0011
▁亅亳仉亟于	-11.0017
▁佂什亽人	-11.0018
▁侍伧事	-11.0018
▁亣亭亹亣	-11.002
▁亣亳争	-11.002
剈	-11.0021
▁亃予些事	-11.0021
▁于偞亟仮仇	-11.0024
▁仐仄亹亳	-11.0024
▁亣亭侍亸云事	-11.0027
俴	-11.0027
冗	-11.0027
処	-11.0027
▁仁亃仂伈	-11.0027
▁亅亟亏亳	-11.0027
▁亅亪亝伄	-11.0028
▁亅伅亇	-11.0032
▁些仆偋	-11.0037
余伄	-11.0041
▁伋仹亹人亻仏于	-11.0045
sis	-11.0049
▁云亷儔	-11.0052
▁价亃亍亜	-11.0053
▁亻亭交	-11.0055
gar	-11.0056
侙	-11.0056
▁亅亭云	-11.0065
价仄偢	-11.007
▁仈伮人伎伧亖	-11.007
▁京亭佄什	-11.0073
▁亓仁亇	-11.0081
▁予亭亏	-11.0084
僖	-11.009
叚	-11.009
▁亽凬	-11.0091
br	-11.0091
▁仍亳俟	-11.0091
▁价偳亟	-11.0093
the	-11.0098
▁亴予亳	-11.0101
僇	-11.0102
亹人亻仏	-11.0103
▁伋佺仡	-11.0109
▁亣亮仌亟	-11.0111
▁价亵亂亇	-11.0111
▁侲佁仅仇	-11.0111
▁些亟亣	-11.0113
▁些亻亨仏于	-11.0119
佂値	-11.0121
▁付于亷伨仇	-11.0124
▁井亸们	-11.0125
伧仇亭仡	-11.0125
▁1927-	-11.0128
▁仧亵侘	-11.013
▁亓亣亳亜	-11.0132
▁亅享伮亾伂	-11.0136
▁今冀	-11.0137
▁仵优仓亖	-11.0142
嘜	-11.0152
▁亅亟亍人亻亼于	-11.0156
▁亂亃仓仅伺	-11.0156
▁云亟了	-11.0156
▁价佼亪亣	-11.0156
mar	-11.0159
▁佢仆亂亇	-11.0162
▁俍吞	-11.0163
▁1912	-11.0164
▁亮仺些亃侀	-11.0165
▁亳伧传	-11.0174
剉	-11.0174
▁二俽于	-11.0175
▁仦亻佦介	-11.0177
▁亪亳佉	-11.0183
▁二亣俧	-11.0192
▁350	-11.0194
▁价仏仡云亣	-11.0195
▁亞亭仮仯亟	-11.0195
▁伇仮亩仇	-11.0195
▁仵傅	-11.0195
▁予伿伄佝伺	-11.0199
亹亊余亜亟	-11.0201
▁伕仄倗亟	-11.0216
▁伋伔仇	-11.0221
▁予亭侣仐亣	-11.0237
▁侫侾便	-11.0237
▁仧亳亅促	-11.0237
▁仧仏伮亊仮予	-11.0237
▁些亸佉	-11.0238
bu	-11.0239
▁佞侂	-11.0246
▁份仺亅人仌	-11.0247
▁今伉亟	-11.0248
伐伵予	-11.0255
▁亅众仅伫亟些伺	-11.0257
▁于亭亨亟	-11.0258
▁予佋伅	-11.0258
▁亃众伴	-11.0258
▁仉什便	-11.0258
▁亂仛些于仮予	-11.0258
we	-11.026
▁亮仏仉佴	-11.0261
▁亮亭仍予亳	-11.0263
▁1922	-11.0265
▁二仛会了亚	-11.0266
▁予俔伈仜	-11.0279
养	-11.0279
侗	-11.0279
喀	-11.0279
▁亾伦俬	-11.0279
▁佤争侀	-11.0291
▁Jump	-11.0301
▁仉亟卭亇	-11.0301
垒	-11.0301
▁仐仄亝亜	-11.0301
▁伎亹互	-11.0301
▁予倐伺	-11.0302
▁仢倒亐	-11.031
ase	-11.0321
▁亓仂些亭仡亇	-11.0322
倶	-11.0322
哊	-11.0322
▁仈什亅亳亹	-11.0323
▁云仺侩亳亘	-11.0344
▁京俥使	-11.0344
亂亃倱作仆	-11.0344
▁云予亳佛	-11.0344
佄伽亇	-11.0352
amp	-11.0354
▁亓亹亜伆	-11.0355
MD	-11.0356
▁Con	-11.0361
cul	-11.0361
▁佰仱亴亾亟	-11.0362
▁仨亱亴亾亟	-11.0366
▁价喣	-11.0367
▁些亭仮仺	-11.0375
▁二仛伅仆亭亇	-11.0382
▁倧僸	-11.0385
▁仍予从仏	-11.0387
▁井亟俕	-11.0393
▁伇伨仯亟	-11.0393
▁价亳倐予	-11.0397
▁仸仏亹亥产于	-11.0404
▁亷仄仌伊伆	-11.0404
▁仦亻亟些仩亖	-11.0408
▁仢仙亜	-11.0408
▁俖倫	-11.0408
▁佧亭了仮予	-11.0409
价亃侃	-11.0412
亳倖	-11.0412
▁亷人予什亖	-11.0422
▁仵优允亡	-11.043
▁于亝亽予	-11.043
▁侍亶仺	-11.043
▁亅伧互仉	-11.043
亹争亭亨亼仇	-11.043
▁些亳亃仱側侦亭仮亐	-11.043
▁亅似伫	-11.0431
▁付仱亗	-11.0431
app	-11.0439
▁价仱众	-11.0441
吠	-11.0451
倷	-11.0451
▁亳予亴亟	-11.0451
▁亩仡亃事	-11.0453
▁付佟	-11.0456
仉作亰亇	-11.0457
▁亓亣亷亳佘	-11.0463
▁1910	-11.047
cle	-11.047
匉	-11.0473
侨亳	-11.0479
今倜	-11.048
▁今傫	-11.0488
▁价仺了	-11.0493
Ne	-11.0494
▁亩亨亟	-11.0494
▁仢俒佇亟	-11.0495
击	-11.0495
▁倇亣伧亖	-11.0495
▁仵亪了	-11.0499
▁1923	-11.0501
▁仍傒亝佁	-11.0512
▁亂侫仓	-11.0518
▁交亭予	-11.0518
兂	-11.0524
▁亃亳伂予亚	-11.0532
▁二亣吵倀	-11.0538
▁伕傷什	-11.0538
dia	-11.054
▁价倖亟亃仆	-11.0542
pur	-11.0543
▁云仱仌亟	-11.0544
▁二什亩	-11.0548
▁偓作伺	-11.0559
嚁	-11.056
▁伇仇佼伎	-11.056
▁亣亗交亗	-11.056
▁亷伨仒	-11.0561
▁仉仅仞	-11.0561
▁亻侢	-11.0561
▁二作亇	-11.0565
▁佳亾仉了	-11.0569
▁侍享伵仄	-11.0575
kar	-11.0577
仚亭侵	-11.0577
▁亊仧哂	-11.0582
▁亪亜仕亾亘	-11.0582
▁价些亿仆于	-11.0582
剬	-11.0582
▁佃亗交五	-11.0582
▁仫俧	-11.0585
▁亓亣予亾亨仏于	-11.0592
▁亞亟伸人亻亼仇	-11.0593
仉亗亩予	-11.0595
▁价佇仅仉侀	-11.0597
▁于偞亟	-11.0597
▁交予侦亭	-11.0598
▁云仇亣亖	-11.0599
▁亓倕亊	-11.0599
▁些仆停亦	-11.0604
▁亞亟侽俌亐	-11.0604
▁亅亣仄什	-11.0604
▁亃事仍予	-11.0606
ST	-11.062
▁任仹亹亗	-11.0622
▁亴些仓亏	-11.0623
▁予侚亟伄今仇	-11.0626
▁交予使仏佛	-11.0626
厀	-11.0626
嗍	-11.0626
▁价亸了	-11.0635
war	-11.0644
仌亭亹	-11.0648
▁予些仯了	-11.0652
▁井些亘	-11.0655
▁仉仁亾	-11.0657
▁1914	-11.0658
▁修仉亳今亃	-11.0661
▁亓些亾亊亇	-11.0662
冔	-11.067
削	-11.067
嘮	-11.067
▁仉亚仅亗亳	-11.067
▁亪仒亲亥	-11.067
亹人亻佬亿亐	-11.0671
▁井亃些	-11.0674
亏佅人	-11.0682
▁亃仯仍亅	-11.0689
凄	-11.0693
▁亽仕人	-11.0693
▁佽俟亾	-11.0693
▁仸互亹亜	-11.0695
▁云众俖亳	-11.0697
▁仨亱亪亇	-11.0698
▁些仞亨	-11.0711
偐	-11.0713
▁伎伶亹	-11.0715
▁1911	-11.0725
偨	-11.0737
力	-11.0737
冁	-11.0737
▁价亟但予	-11.0737
▁云仝亣	-11.0737
▁伇僜伎	-11.0738
▁予亱仁亳	-11.0738
▁侍享亷仄	-11.0739
兮	-11.0742
偖	-11.0759
兾	-11.0759
▁价俌仉亖	-11.076
些亿伽亐	-11.076
▁亓亾仅伡	-11.076
▁今冟	-11.0761
些亭亻亼仇	-11.0763
▁仫來	-11.0763
▁些仞亏亹人亻亼仇	-11.0765
▁亓以了亹作伺	-11.0766
▁亅享亝事些	-11.0766
▁京亭亶亪亇	-11.0767
▁予侢亻	-11.077
▁亓亣亷亳傠們仮予	-11.0771
▁伇伃亅仌亖	-11.0772
▁些仓仕仺会	-11.0782
▁劘公侪	-11.0782
▁1500	-11.0785
▁亴仏伟	-11.0794
▁修仉亳仮仇	-11.0797
交伔亃	-11.08
▁亻亾偼佶	-11.0804
▁亣亭仡仏亐	-11.0804
▁井仄亻伊伆	-11.0806
側倀亟	-11.0821
劉	-11.0827
▁亪伽俌	-11.0827
▁仭仮仯亟	-11.0827
▁亅倐亳	-11.0828
▁价亃做亪亇	-11.0829
▁亓些仱亖	-11.0831
▁亅仼亃	-11.0832
亟享佛	-11.0837
rom	-11.0843
儈	-11.0849
▁云伊亾仅	-11.0849
仉亟卭交	-11.0849
▁些优付争	-11.0854
apuram	-11.0856
▁亞亼享	-11.0859
倍仏于	-11.087
▁亮侻伽	-11.0872
▁今亊伎	-11.0872
▁些优亅亥	-11.0881
▁些儇	-11.0886
▁亅仱云亾了	-11.0888
▁价亭亹亣佴	-11.089
▁仉优亙亸俕	-11.0894
▁伇云侫亻亭亃	-11.0894
▁亅倚亟会	-11.0895
▁份佥仅人	-11.0895
▁仉側亟仍予亳	-11.0895
偲	-11.0902
▁仱云仁交	-11.0903
▁亪伄伮亊亱亇	-11.0904
▁仈仛亏亘	-11.0917
净	-11.0917
咛	-11.0917
圵	-11.0917
▁伃亃亂产	-11.0917
▁亪仛仉仇伺	-11.0917
▁予亣亳些	-11.0921
▁1927	-11.0927
▁亓予仌亟	-11.0932
▁亂亃倱亥	-11.094
▁云個亖	-11.094
亪今伿亇	-11.0941
▁于些佉	-11.0942
▁仈佚	-11.0942
▁亷亳亸亏亶亖	-11.0943
伕仱亸	-11.095
▁份予佘	-11.0956
偡	-11.0962
▁佂什僤亥	-11.0963
▁云亱倿	-11.0963
▁仮仺亻仏于	-11.0965
剪	-11.0971
今俱	-11.0974
▁亩仯亟伉	-11.0975
▁亓侘仧亟	-11.0985
▁亅产伅亨	-11.0985
▁佞人亅亊	-11.0986
▁仦些众	-11.0987
▁亮伫亭佝	-11.0987
▁今僠	-11.0989
val	-11.0992
些伫仓亭伟	-11.0994
些仇于	-11.0996
▁亓亣予仆仉亖	-11.0996
▁二儛亳仳	-11.1008
▁云亱伵	-11.1009
▁予亗仒	-11.1013
▁剏侈仉	-11.1015
▁仉仛伟	-11.1026
2001	-11.1029
▁亓亟偌伟	-11.1031
▁京于伂亊亘	-11.1031
▁价亃侗仄亇	-11.1031
▁佖亷亃亴	-11.1031
▁佰亳亳伥	-11.1031
▁亣亗交亥	-11.1031
mer	-11.1047
▁亓亣亷亾仅予	-11.1051
par	-11.1053
呶	-11.1054
亿佅人	-11.1056
▁佂亪今予	-11.1059
▁仍予亾亟亇	-11.106
助	-11.1063
pro	-11.1066
port	-11.1066
Ko	-11.1068
▁佰伇亹人亇	-11.1068
▁任伿佃仅予	-11.1075
▁俸亣亊	-11.1076
兢	-11.1077
▁价亭佛伲亣亰亇	-11.108
▁付亜伡伺	-11.1081
▁予仇位仉亖	-11.1083
400	-11.1084
▁今唯	-11.1086
▁些优亅亊	-11.1087
▁任人亨仏于	-11.1099
▁仍仺云亸	-11.11
▁亅仯了争	-11.11
▁亻亸仺	-11.1101
▁侫互伨亦	-11.1103
▁仱側僙五	-11.1104
ata	-11.1105
▁予亭亃亹人	-11.1108
唯	-11.1114
▁佖互佮产亹亗	-11.1115
▁亓亊亨	-11.1117
▁侼唇亣亟	-11.1123
劑	-11.1123
卞	-11.1123
吻	-11.1123
▁价仓仌亟亇	-11.1123
▁仈仓亅亳亙	-11.1123
▁亓仄亏亾	-11.1124
▁今伇仂	-11.1127
▁井亃伂亻亼仇	-11.1129
▁任仾些亳亹亗	-11.1132
▁予亗亹亥产于	-11.1133
▁价仯亙	-11.1133
▁亅侠互	-11.1137
僌	-11.1146
▁亃俔侣仃倫	-11.1147
傇	-11.1147
嘉	-11.1147
600	-11.1154
侦値	-11.1162
卍	-11.117
噏	-11.117
▁亓伄亂予亹人亝	-11.1172
▁二亣傸	-11.1175
合	-11.1193
▁仫交会	-11.1194
ound	-11.12
仌伐亐	-11.1203
▁亷亳亸仮仇	-11.1206
▁仧亾了亹亥	-11.1207
关	-11.1213
▁云亷仱僲仱	-11.1217
儡	-11.1217
坵	-11.1217
▁亩伐伟	-11.1217
偸冓	-11.1217
2000	-11.1219
tro	-11.1226
▁伋亵	-11.1229
▁佖仙人亻亼仇	-11.1229
▁亓亘伨予	-11.1235
▁云亷仱争亳	-11.124
呸	-11.124
▁伇倥亃	-11.124
伞伔亇	-11.124
亣亭仡仏	-11.1243
▁井亭仮仒	-11.1248
▁亅众伕亾伟	-11.1258
▁亓亷亊交	-11.1263
劅	-11.1263
▁仁劄仳	-11.1263
▁佳僋亴	-11.1263
圇	-11.1263
▁价仱些亸	-11.1264
▁亣咃亅亣亟俤五	-11.1264
▁仦倛伇	-11.1267
▁二亍些亭仡	-11.1269
▁亂佹亜仅予	-11.1269
AB	-11.1277
NH	-11.1279
仅仆亿亚	-11.1283
▁亓亣呂値	-11.1287
墿	-11.1287
▁价佲伎仅仇	-11.1298
▁价了俔	-11.1302
▁侫仌予亾	-11.1311
▁佡兄予	-11.1311
▁亷僣侖亥	-11.1311
▁二亝仂	-11.1313
▁佂什伧亥俥伺	-11.1313
佋什亰亇	-11.1318
偰	-11.1334
哽	-11.1334
▁予仆僜亟	-11.1336
▁亴兩	-11.1342
佽伇亾	-11.1344
▁亅倰伎	-11.1358
▁仁伀亃侃	-11.1359
▁予仧仄	-11.1363
NS	-11.1364
伧亊亹亗	-11.1365
侶	-11.1368
▁1917	-11.1371
仚亭什	-11.138
▁亓亳佉	-11.1382
▁仱免佇亳	-11.1382
亨享伧亖	-11.1383
▁亷亳亸仌伡亖	-11.1386
▁亃仆侕	-11.139
▁亃仯亝佁	-11.1396
卵	-11.1405
叮	-11.1405
佮仼亭佛	-11.1427
▁付傷什	-11.1429
▁价亟仄仉佴	-11.1429
▁亅俢予	-11.143
▁仈伮亥	-11.143
▁侫冝仇予	-11.143
▁价亟仡仇仱予	-11.1432
▁亓亃伐亊五	-11.1434
▁仧亳亃云仱予	-11.1437
▁亓云俧	-11.1442
▁云事亹亪亣	-11.1443
佼亊伉	-11.1454
▁亷亳亸亏伽伵予	-11.1455
▁亓伐亹亹亗	-11.1457
▁些亭亻佬亿亐	-11.1465
▁二亍些伫	-11.1476
▁井仄偫佉亇	-11.1477
刋	-11.1477
▁侍侎亥	-11.1477
▁伲亼些伫五	-11.1478
▁仮僣予	-11.1478
▁仉亚仅亜仕俥伺	-11.1479
▁井仏佃	-11.148
2011	-11.1485
亟亱仆亭亇	-11.1487
▁1918	-11.1488
児	-11.1491
▁仮亸些亿什五	-11.1498
▁仐亣仕亃仉	-11.1501
▁住偠亖	-11.1501
▁侘亜佦	-11.1501
▁仦伮亐	-11.1502
▁侳亷伺	-11.1502
▁亞佉会	-11.1503
仉人亻佬伺	-11.1508
▁1905	-11.151
▁亅享佤亳	-11.1512
倂事	-11.1515
50,000	-11.1517
喉	-11.1525
坑	-11.1525
▁佖做些于	-11.1525
▁亃亭亻亼仇	-11.1527
▁仫侂亹亥产仇	-11.1537
▁亽争侀	-11.1541
▁价仏佉	-11.1541
▁侍仉亰仡	-11.1544
▁任儅仏于	-11.155
冂	-11.155
卨	-11.155
亻伯亇	-11.155
▁亓伄佇亭	-11.157
偊	-11.1574
▁仉亨伣亜仅	-11.1574
吪	-11.1574
偝	-11.1574
▁二亣僾仂	-11.1574
▁亞伧偆	-11.1574
兠伎人	-11.1574
▁伇佇伅伺	-11.1576
▁些亳亱仩	-11.1578
▁他個亟	-11.1579
▁云亳仧亟亖	-11.1581
ven	-11.1589
▁伕倞	-11.1589
▁仉亭俟伡伺	-11.1592
▁佰傒今儾	-11.1598
▁侲倛侍	-11.1598
▁亅予侺伺	-11.16
▁亃仯亝仯仅予	-11.1613
亶亻亟	-11.1616
▁亮亟亭亊五	-11.1617
▁价仇佘仜	-11.162
▁些亳亃仱側	-11.1622
劄	-11.1622
咗	-11.1622
嘔	-11.1622
▁仉侫些亽亃	-11.1622
▁佂亹云伿仄	-11.1626
▁侫互亙仏	-11.1627
▁予亥亹人会亇	-11.1628
仄亻亖	-11.1628
仌亭亨仏于	-11.1632
▁伱仺亇	-11.1636
傪	-11.1637
▁亓亭傒仇	-11.1647
▁倧們仄	-11.1647
▁今优亊	-11.1649
▁仦伽仍仱予	-11.1652
云伿亅	-11.1663
▁些亪亝	-11.1666
▁仮仒云享	-11.1678
▁仐仏云仒	-11.1683
▁伇侐佛亹亗	-11.1686
▁付倍仏于	-11.1687
▁侍仉佋亐	-11.1688
▁亓亭嘏亪	-11.1696
堈	-11.1696
▁亓交倘	-11.1696
▁仮伹五	-11.1696
▁价儐亇	-11.1696
▁仧亳仁亢	-11.1697
ID	-11.1697
予伽亊伐亇	-11.1699
伧仇仱亖	-11.1701
卛	-11.1717
▁保亟仄仓亩	-11.172
傕	-11.172
傧	-11.172
囩	-11.172
坻	-11.172
▁亅仼伎	-11.1721
▁仦仱八	-11.1721
▁佳亾仅亃	-11.1722
▁予亭亃亹亗	-11.1727
▁1916	-11.1733
▁价仄些伇仮予	-11.1737
亏什伡亖	-11.174
ave	-11.174
▁佢凮了	-11.1745
▁亷佝亳亇	-11.1745
▁仢仄亣予	-11.1745
▁价佻仄亟	-11.1746
▁价仱予亏什亖	-11.1746
▁佧佴	-11.1747
▁井傩	-11.1756
仧亵伺	-11.1762
▁些亟亣侀	-11.1765
▁井仄予亨侢	-11.177
▁于僃仺	-11.177
▁价仌亗仌	-11.1772
▁付予些亃	-11.1772
▁佢亾伡	-11.1773
▁亷份亾	-11.1773
▁任仹亹作伺	-11.1774
▁免停	-11.1777
▁仢侐人会些	-11.1789
▁亅人亻亼仇	-11.1792
▁云僅亝	-11.1794
▁伇亳冫亣	-11.1794
▁仈仿佮仿	-11.1794
▁仦亴亳云	-11.1794
▁亷仮俔	-11.1795
▁予伂俆	-11.1799
▁伇亾仌亳	-11.18
nes	-11.1801
伶仿	-11.1812
2008	-11.1816
vers	-11.1817
吏	-11.1819
▁亃债們	-11.1819
▁亞倍佬伺	-11.1819
▁付亃亳伇	-11.1822
价亳仪仕亇	-11.1822
form	-11.1825
▁伇佛仇	-11.1826
▁仵亪伮	-11.183
IT	-11.1834
井仄予	-11.184
又	-11.1844
▁仐亡份伫	-11.1844
old	-11.1853
▁些伎伨人	-11.1863
啕	-11.1869
▁亴伫仄亨亟	-11.1869
▁仦仒亏介	-11.1869
▁侬仛产	-11.1869
▁亴亦些享	-11.187
▁亮亟亿什亖	-11.187
▁亞佺伬于	-11.1873
卷	-11.1894
▁井伄佑	-11.1894
▁些亭亻佚伺	-11.19
亏什伊伆	-11.1902
▁亓亣俕	-11.1903
▁仐亟交了亹亗	-11.1907
▁亂亳侌人	-11.1914
喕	-11.1919
▁亓亃偍五	-11.1919
▁伇云僙仇	-11.1919
▁亅侌争	-11.192
▁些仆亳余亜亟	-11.1926
▁亓亊们	-11.1928
▁佳偮	-11.1934
▁云仺亅亜仕亇	-11.1944
▁亪側仱仌	-11.1944
亭今了	-11.1944
▁些仆俧	-11.1946
▁亜偃亗亖	-11.1969
▁仵事佼亊伛	-11.1969
叵	-11.1969
▁亣亭刷亃	-11.197
▁亓佻佫	-11.197
▁伱侚亟享佛	-11.197
IN	-11.1985
伧亭了亱亇	-11.1987
▁价仱予仮亻亟	-11.1995
▁保仇亳亖	-11.1995
▁侼俸五	-11.1995
▁亃倚冚	-11.1997
ated	-11.2004
▁亅亟仴佥	-11.202
凋	-11.202
▁佰亲仆	-11.2021
▁价倖亟亝仆	-11.2023
▁亞俙亃五	-11.2028
&	-11.2039
▁仨互了亸伵仇	-11.2045
傡	-11.2045
匧	-11.2045
吁	-11.2045
嘽	-11.2045
▁佢亣了俔	-11.2045
▁亓伉亭佛	-11.2045
▁些仏俔	-11.2045
▁伲争伧人	-11.2053
▁云亸佝伺	-11.2063
▁二仓伇亮亢	-11.2071
▁京于伂享亘	-11.2071
▁亴今仄亟	-11.2071
▁亓佃仅些仇	-11.2071
▁佭侐于	-11.2071
▁仐予僆	-11.2072
▁1908	-11.2078
仢冫亳	-11.2085
▁些仆來	-11.2086
亹人亅佃	-11.2087
Kar	-11.2094
International	-11.2096
▁亣倖了仆	-11.2096
▁佭亃仱付亢	-11.2096
冷	-11.2096
啸	-11.2096
▁云了什亊亇	-11.2096
▁亅亸伵亳	-11.2099
亪亹亇	-11.2121
▁些仇仉仄佉	-11.2122
偩	-11.2122
▁付亊亱亴亾亟	-11.2122
▁亪仺価	-11.2133
▁亂亃俢亡仅予	-11.2147
▁侍侎佥	-11.2148
▁云佽佇亳	-11.2148
▁二亭亘	-11.2149
仧仏亪	-11.2168
▁亅倀亳仾	-11.2173
▁伕侏仉些亳	-11.2173
▁佧亭了仮仇	-11.2174
▁亷伨互	-11.2174
▁1913	-11.2184
▁价仆仐事	-11.2194
▁井亊仙伧侇	-11.2199
僎	-11.2199
函	-11.2199
坂	-11.2199
▁佭佝仾	-11.2199
▁二亣吵五	-11.2199
▁仦亳佑	-11.2202
▁亴了佋亚	-11.2206
▁亂亃倰仱予	-11.2206
▁佳倀佇仅仉亖	-11.221
▁仮仐仄仌亰产	-11.2212
▁亓伐仱亃伕亳	-11.2225
▁亽仆仿	-11.2225
▁仮亸仉	-11.2227
▁仍亜仌亭佝伺	-11.2228
▁佢倂事	-11.223
嗱	-11.2251
俺	-11.2251
垴	-11.2251
▁亩伡予份	-11.2251
▁亅今仯	-11.2253
▁修仉亳今亣	-11.2254
亂亃佁	-11.2276
刜	-11.2277
亹争亭了亱亇	-11.2277
▁亓侘仧仅	-11.2277
▁亅亗亹亜亙	-11.2277
▁亂仙亪亣伧亖	-11.2277
▁亓予云于	-11.2277
▁亊伂五	-11.2278
▁亓僛仯	-11.2279
▁二個伴伧亱仇	-11.2282
▁亞俙亦	-11.2284
▁伇云凩	-11.2285
凾	-11.2301
graph	-11.2303
▁价亟仡佢	-11.2307
▁亂亃倰	-11.2315
吖	-11.2329
嚂	-11.2329
▁仢仆仮亻亟	-11.2329
▁亦些亃亇	-11.2329
▁伃仒亭仡	-11.2329
▁井亝云	-11.2334
▁佃了亹亗	-11.2338
▁付亊仌亗	-11.2339
▁亓亣亂予	-11.2342
▁伕于伮了	-11.2342
▁仵亊伍	-11.2348
▁仈什亅亳亙	-11.2355
▁仁侨亾	-11.2355
▁份亩佛	-11.2355
▁倧仞亖	-11.2356
▁佢仭亗	-11.2356
▁佧伇伂	-11.2356
▁亴伫仇	-11.2356
▁份亣伧亟仓亖	-11.2363
ope	-11.2365
▁些亭亅些	-11.2367
倯优	-11.237
亦亟人会	-11.2379
▁亴些亮亭仮仯五	-11.2381
▁价倖了亹亥产于	-11.2381
▁佰侫亻亼仇伺	-11.2386
予什享伆	-11.2386
lar	-11.2387
▁亓以亝仇伺	-11.2389
▁亻仞佉	-11.2391
▁伃仇些	-11.2392
▁伕侏伧亟亖	-11.2394
▁于倖了伿	-11.2408
▁亣伆亗	-11.241
oph	-11.2411
▁亅侏今伇亖	-11.2414
▁仍予俧	-11.2427
▁亣仏伡倌	-11.2434
▁仦仧亾伵	-11.2434
▁亞伧俜	-11.2434
▁1901	-11.2444
▁亓亊伉	-11.2444
▁亓人亨	-11.2455
▁仦亻亟些伫侀	-11.2457
▁亪俄会亏	-11.246
▁仈于俼人	-11.246
▁伱伝亜了	-11.246
▁云仌云亇	-11.246
▁些仏伿	-11.2461
▁亂亃亱些亩予	-11.2461
▁佢亾倖	-11.2461
▁价倕做	-11.2469
line	-11.248
▁亓佦仌	-11.2486
▁佳佱亴仅	-11.2487
包	-11.2487
▁二作些于	-11.2487
亽亃侫今交	-11.2491
冝	-11.2493
▁云亸云予	-11.2509
▁亓亳亴亟仄亘伮	-11.2514
儨	-11.2514
▁仸作什	-11.2514
▁些亸亏	-11.2516
▁仦伿仆仉亖	-11.2517
▁仦亳俟了亹亗	-11.2517
▁予仼伨予	-11.2519
▁伏傍亚	-11.2519
▁仈于亨	-11.2521
▁仮仯亊	-11.2522
▁伃偧	-11.2524
▁儝偗	-11.2532
5,000	-11.2537
▁云亥云伔于	-11.254
▁仄伿仯亖	-11.254
▁亴亷侍	-11.2541
▁亓亾亟倖	-11.2548
▁仵亪仟	-11.2553
傥	-11.2567
剖	-11.2567
▁亂倀事	-11.2567
儬侃	-11.2567
▁[1]	-11.2567
▁亅侠仩伺	-11.2569
▁井亟倂事亹侏	-11.257
▁亂于仐事	-11.2574
▁价仱云仁交	-11.2578
▁井亱仉	-11.2579
▁亓倥予亾了亹亗	-11.2593
任儅佬伺	-11.2594
▁伎伞仛会	-11.2594
▁伇俨亣	-11.2594
▁亅亥俌佥	-11.2597
▁仐依仧了	-11.2615
嫧	-11.2621
▁伕仭亘人	-11.2621
▁亷劇亖	-11.2621
▁仐予唯	-11.2622
▁伕什亟	-11.2622
▁二亍亃佱仇	-11.2624
仉亭佛	-11.2629
▁仍亜伮亖	-11.263
▁1907	-11.263
▁仐予冀	-11.2648
▁亅侠伝	-11.2652
▁二亼以了亹亗	-11.2655
▁井仺伮仇亿亶予	-11.2664
[[	-11.2668
呅	-11.2675
呈	-11.2675
▁亞偄亖	-11.2675
▁伇仇亽亟予	-11.2675
▁亞争仅伺	-11.2677
▁仢侐人仌	-11.2678
▁价亊倗伫亭	-11.2691
勡	-11.2702
囔	-11.2702
伕佅仭	-11.2703
▁伇侐仆	-11.2704
▁仦仼佱仇	-11.2705
▁价亡些仯	-11.2707
他介僤亳	-11.2728
冭	-11.2729
喝	-11.2729
向	-11.2729
佼亪伮	-11.273
▁予亥亹人仌	-11.2744
ake	-11.2755
▁亓仮今伥	-11.2756
亨佫五	-11.2756
▁亂代仡	-11.2756
亻佚亿亐	-11.2757
俊亊	-11.2758
▁亪云亾	-11.276
仡俥仇	-11.2768
{	-11.2783
▁亂亹亾仮亸	-11.2783
厤	-11.2783
堳	-11.2783
▁亓你倡伿伺	-11.2784
▁亓亣伇亟	-11.2784
▁亃事亴仏佛	-11.2785
▁亷伨伫	-11.2786
佄伽仡	-11.2788
▁价亟俈亟仓亖	-11.2791
偁伲俬	-11.2799
▁予偻亗	-11.2811
▁亮亟仱亰亇	-11.2811
亹佝亗	-11.2812
偁凅	-11.2812
▁仉仄了	-11.2823
▁仧倔亭些仇	-11.2838
▁仦亅伅仇	-11.2838
▁二偁亪	-11.2839
▁价亭了余人亇	-11.2844
▁价俨仺些仇	-11.2844
▁予俈亝亖	-11.2849
▁侫偷云众亟	-11.2866
偟	-11.2866
劷	-11.2866
▁俸伇仓伇	-11.2866
▁刻半亇	-11.2866
凍	-11.2866
▁亃佱亙	-11.2866
▁亷介仡亜	-11.2866
▁他伪了	-11.2866
▁亪做傍亐	-11.2868
仌亭亨佬伺	-11.2871
▁俖俗	-11.2872
▁价倖了亹亥	-11.2873
▁付亣亹享	-11.288
二亼	-11.2893
唠	-11.2894
▁亪享些介	-11.2894
▁傃亗亖	-11.2894
▁仦伽伎	-11.2894
▁亅亟亍人会亻佬亿亐	-11.29
▁佃仌亭亹	-11.2902
亹亟亸	-11.292
俭	-11.2921
▁井亊偍仏	-11.2921
亅亣伡佬亇	-11.2921
亂亜仅于	-11.2922
俐事	-11.2924
▁伕仏仍予伺	-11.2927
▁亻亭争亸亻亾	-11.2949
嗉	-11.2949
墼	-11.2949
▁亓亭侣伇仄	-11.2949
▁仈亍亩亇	-11.2949
厨	-11.2949
▁亓事佢仆	-11.2949
▁予亭伅了	-11.295
▁佢剋僉	-11.2977
啪	-11.2977
▁予事了仆僜亟	-11.2977
▁仕值傁	-11.2977
▁任仛俟亖	-11.2977
▁伇名亥	-11.2977
▁俾亳仉	-11.2977
▁二佛仉亃	-11.2977
▁亮侻什	-11.2984
咝	-11.3005
▁亞亟但佥	-11.3005
吔	-11.3005
que	-11.3006
▁佖伌争	-11.3007
▁亃仛些	-11.301
予什亊交亭伟	-11.301
亹人亻佚伺	-11.3019
▁二亭伇伊亇	-11.3033
堩	-11.3033
▁侩倘亳	-11.3033
▁仈伮亊	-11.3033
▁仢倮事亹侏	-11.3034
▁伏凬	-11.3043
▁1909	-11.3043
侵什五	-11.3044
palayam	-11.3061
埄	-11.3061
▁仢俓仏	-11.3061
▁亓以亨佬亿亐	-11.3065
▁亣亭亹刷伺	-11.3065
▁1906	-11.3071
vo	-11.3079
俑仙	-11.3095
▁India	-11.3101
▁仦亩亟	-11.3103
▁亓亃偍仏亪	-11.3117
▁于予佄亐	-11.3117
▁仁佚予	-11.3118
▁价亚亟仱佔	-11.3119
▁亅予些亣	-11.3122
▁佢亜亝于	-11.3125
亹仄伎	-11.3126
▁University	-11.3146
▁佢兄僭	-11.3146
▁仮仐仄亏仆佃	-11.3146
▁仦仧亾了	-11.3146
▁仐儇亟	-11.3146
▁价億些亗	-11.3146
▁亴亃仏	-11.3147
▁予傷争	-11.3147
喣	-11.3151
仚亭侵亚	-11.3152
偦	-11.3172
▁仍些仱仌亾	-11.3174
▁侈似倿	-11.3174
▁仧亳亴仌	-11.3174
▁佖仙人亝亹亗	-11.3193
儘	-11.3194
▁价亳倐些亩予	-11.3199
▁亣仅予仱側	-11.3201
咚	-11.3203
壞	-11.3203
▁今偊伺	-11.3203
▁亂亜仅俔	-11.3203
▁仧亳亅佛	-11.3203
▁仉予亊五	-11.3204
▁仐予倽	-11.3206
▁亣亭些侔些	-11.3231
▁亴亏傠亾五	-11.3231
喥	-11.3231
噷	-11.3231
▁亅亣伡倈	-11.3231
▁亅促云亇	-11.3235
凅	-11.3258
▁仐亡些享	-11.3261
▁佖互佮伿	-11.3265
▁仉仄亨	-11.3269
▁亓佦享人	-11.3288
▁侳亊佡交	-11.3288
仡仞倾	-11.3289
▁伇云仴争	-11.3289
▁仈亥個	-11.3291
▁仢俰俩	-11.3291
▁价亭亅仌	-11.3297
▁亂亃仄亘伦仱予	-11.3313
▁亣介亟亳佉	-11.3317
▁亮亟卖仒	-11.3317
儛	-11.3317
命	-11.3317
▁亞佻倿	-11.3317
僪	-11.3317
▁亅亗亩亾	-11.3318
▁伇佛亣	-11.3319
▁伕仄些亿什	-11.3336
▁Retrieved	-11.3346
匆	-11.3346
嗆	-11.3346
$	-11.335
▁佂侏亨仞亘	-11.3375
噩	-11.3375
亹亳亙	-11.3378
堃	-11.3404
▁亂伖亾亘	-11.3404
▁伕伅仾	-11.3404
▁云仱争亟	-11.3404
▁伏傍伽	-11.3405
▁云仔亟	-11.3406
刕	-11.3424
Ja	-11.3424
▁亴亯凱	-11.3433
媚	-11.3433
▁亃伓佂亹	-11.3433
▁些伎偼仛	-11.3433
▁仍些亨亳予	-11.3433
▁侍亩些亾	-11.3433
dge	-11.3434
▁仉仐佦亻	-11.3463
嗊	-11.3463
▁亽予倇予	-11.3463
▁仍亜仌亭	-11.347
▁佢傸伇仇	-11.3492
▁今倔优	-11.3492
▁云倀亙	-11.3492
▁价亭些亭仡亇	-11.3493
僐	-11.3498
Indian	-11.3509
凌	-11.3521
▁仧仓僞伺	-11.3521
▁亷伣亥	-11.3522
▁亓亣亷事	-11.3522
▁仸亪亐	-11.3522
▁仅仌介	-11.353
▁仃亊亹亗	-11.3535
▁仵优仄亣亅	-11.3551
▁亓了俔	-11.3552
▁仐予僉亼	-11.358
World	-11.358
▁仐今亳亸	-11.3581
▁亽仙于	-11.3581
▁亓仄亷仇	-11.3581
▁份仾侲仇	-11.3582
▁伕亾伟任产	-11.3583
▁云仱仌	-11.3604
員	-11.361
▁亂亣侕	-11.361
▁仉侢亹	-11.361
Tamil	-11.361
▁侼仱仾	-11.361
▁亃仉來	-11.3614
▁仉仆佉亻亼仇	-11.3618
佽冫亳	-11.3639
▁仕仂俍佶	-11.364
喙	-11.364
▁交予使伄亟	-11.364
▁井介仍享	-11.364
▁伎亱伇亽亃伺	-11.364
▁京仺倻仩伺	-11.3641
▁仍便亻亼仇伺	-11.3642
▁佔仇亻	-11.3648
▁于仏些仏	-11.367
▁今傷侏	-11.367
▁仐劃亃亇	-11.367
倏	-11.367
决	-11.367
凚	-11.367
匽	-11.367
▁亷侣云亖	-11.367
▁亅倀亭	-11.367
佮僰	-11.367
▁from	-11.3671
▁些伧伫	-11.3672
▁亣伥份予	-11.3674
▁付于亷伮	-11.3685
thumb	-11.37
噄	-11.37
▁仁亂份亖	-11.37
儠	-11.37
后	-11.37
咂	-11.37
嚑	-11.37
亻亾侍亾亟五	-11.37
▁井亊仴人	-11.37
▁亷伉亳亴五	-11.3701
▁亓伃亳予	-11.3702
京仛于	-11.3707
▁井亅仐亊亃	-11.373
▁亴些亮亭仮仂	-11.373
▁亂傾亣亾	-11.373
▁云佈仕	-11.373
▁亪伄伮争亭	-11.373
▁仐事亙亝佁	-11.373
僚	-11.379
咄	-11.379
喿	-11.379
塑	-11.382
僿	-11.3879
劖	-11.3912
可	-11.3912
启	-11.3942
厏	-11.3973
俉	-11.4002
匈	-11.4014
哼	-11.4097
噍	-11.4097
咬	-11.416
嗎	-11.4191
啐	-11.4223
唂	-11.4223
圆	-11.4255
圔	-11.4255
唉	-11.4286
啁	-11.4318
嘦	-11.4318
塌	-11.4318
嚒	-11.4318
倝	-11.4328
啑	-11.4382
嗴	-11.4382
告	-11.4414
啽	-11.4414
倎	-11.4479
啮	-11.4479
嘈	-11.4479
噻	-11.4511
壍	-11.4544
坪	-11.4544
傶	-11.4577
咁	-11.4577
僼	-11.4609
凗	-11.4609
冊	-11.4642
匝	-11.4642
啰	-11.4672
入	-11.4675
切	-11.4708
問	-11.4708
喓	-11.4708
冧	-11.4775
呬	-11.4775
傤	-11.4808
厫	-11.4808
古	-11.4808
奫	-11.4808
審	-11.4808
傹	-11.4842
呲	-11.4842
喊	-11.4842
僑	-11.4876
兟	-11.4876
喺	-11.4876
冀	-11.49
哌	-11.4943
`	-11.4977
冣	-11.4977
分	-11.4977
唴	-11.4977
厝	-11.5011
卹	-11.5011
俚	-11.5046
俾	-11.5066
厙	-11.508
凴	-11.5115
夓	-11.5149
偻	-11.5254
哢	-11.5254
只	-11.5289
叉	-11.5324
坶	-11.5359
嫊	-11.5359
厓	-11.5395
吊	-11.5395
克	-11.543
嚖	-11.5466
哕	-11.5502
塣	-11.5502
傩	-11.5523
嘬	-11.5538
坠	-11.5538
傿	-11.556
唻	-11.5563
傮	-11.561
妅	-11.561
匑	-11.561
候	-11.5647
僈	-11.5647
坩	-11.5647
冇	-11.5683
唱	-11.5683
啹	-11.5683
凂	-11.572
兜	-11.5757
厢	-11.5757
嚎	-11.5757
嬯	-11.5757
唛	-11.5757
卐	-11.5793
僒	-11.5793
儩	-11.5793
劭	-11.583
嘟	-11.583
劝	-11.583
兩	-11.5893
哄	-11.5905
嘄	-11.5905
埗	-11.5942
兼	-11.5972
兯	-11.598
咥	-11.598
坆	-11.598
吰	-11.6
凔	-11.6018
剕	-11.6056
吙	-11.6094
厄	-11.6132
圎	-11.6132
埪	-11.6132
儦	-11.6132
咷	-11.617
哜	-11.617
哨	-11.617
务	-11.6209
儏	-11.6209
兤	-11.6209
凃	-11.6247
囬	-11.6247
厛	-11.6247
哷	-11.6286
坸	-11.6286
娚	-11.6286
咀	-11.6325
咟	-11.6325
兛	-11.6364
募	-11.6364
堛	-11.6364
妓	-11.6364
垾	-11.6403
堠	-11.6403
咢	-11.6403
堋	-11.6403
单	-11.6522
咶	-11.6522
厚	-11.6522
哠	-11.6522
垓	-11.6522
吇	-11.6522
偶	-11.6549
僊	-11.6561
剄	-11.6562
劙	-11.6562
噔	-11.6642
専	-11.6642
呄	-11.6675
具	-11.6682
別	-11.6682
嗌	-11.6682
姄	-11.6682
凮	-11.6722
勝	-11.6722
唀	-11.6722
姜	-11.6722
即	-11.6723
凢	-11.6763
呁	-11.6763
块	-11.6763
实	-11.6763
\	-11.6804
劺	-11.6804
刉	-11.6844
协	-11.6845
君	-11.6845
壖	-11.6845
剁	-11.6886
剻	-11.6927
劜	-11.6927
囫	-11.6927
啴	-11.6969
儸	-11.6969
僔	-11.7011
凛	-11.7011
剓	-11.7052
嘭	-11.7094
匇	-11.7094
咨	-11.7137
姩	-11.7137
剐	-11.7179
呮	-11.7179
嗟	-11.7179
埶	-11.7179
塓	-11.7179
夎	-11.7179
叼	-11.7222
呻	-11.7222
垏	-11.7222
佸	-11.7264
壽	-11.7307
劊	-11.7307
嗽	-11.7307
兙	-11.7338
叔	-11.735
呓	-11.735
地	-11.735
卡	-11.7354
嗋	-11.7394
发	-11.7394
唁	-11.7394
坥	-11.7437
堌	-11.7437
冸	-11.7486
哤	-11.7525
婉	-11.7525
倃	-11.7561
厧	-11.7613
呏	-11.7613
嗺	-11.7613
兗	-11.7657
凊	-11.7657
凒	-11.7657
吳	-11.7657
<	-11.7702
嘪	-11.7702
啄	-11.7747
冘	-11.7792
允	-11.7792
圭	-11.7792
口	-11.7837
喗	-11.7837
垫	-11.7837
埀	-11.7837
劯	-11.7883
圂	-11.7883
嘱	-11.7928
墻	-11.7928
凙	-11.7974
刐	-11.7974
吉	-11.7974
垬	-11.8067
儧	-11.8067
僥	-11.8112
垐	-11.8113
厁	-11.816
呑	-11.816
塜	-11.816
在	-11.816
冽	-11.8207
凫	-11.8207
刮	-11.8207
叺	-11.8207
咠	-11.8207
叨	-11.8254
囎	-11.8254
傲	-11.83
卭	-11.8348
嗢	-11.8397
儗	-11.843
哱	-11.8445
卼	-11.8493
噸	-11.8493
典	-11.8507
嘝	-11.8542
圩	-11.8542
剙	-11.859
囪	-11.859
嫑	-11.859
凧	-11.8639
嚨	-11.8639
坃	-11.8639
僺	-11.8655
僢	-11.8689
凿	-11.8689
僠	-11.8729
喾	-11.8738
唞	-11.8738
坚	-11.8738
倮	-11.8774
噎	-11.8788
剼	-11.8788
嘕	-11.8788
劸	-11.8838
唫	-11.8838
喧	-11.8838
坨	-11.8838
厅	-11.8876
僘	-11.8888
嚴	-11.8888
员	-11.8888
哣	-11.8888
吢	-11.8939
嗒	-11.8989
凓	-11.8989
劆	-11.8989
塤	-11.8989
尤	-11.899
奒	-11.899
俳	-11.9041
嗲	-11.9041
凳	-11.9091
味	-11.9092
商	-11.9092
嗚	-11.9092
埰	-11.9092
変	-11.9092
嗁	-11.9092
匞	-11.9143
囓	-11.9143
嗔	-11.9195
呿	-11.9247
儱	-11.9247
埐	-11.93
囐	-11.93
层	-11.93
叅	-11.9352
堲	-11.9352
儤	-11.9352
嫈	-11.9352
嫸	-11.9352
啇	-11.9405
啧	-11.9405
埞	-11.9458
媩	-11.9458
吨	-11.9512
壳	-11.9566
坙	-11.962
嘷	-11.962
幓	-11.9674
劂	-11.9674
哯	-11.9674
囧	-11.9674
儆	-11.9729
厽	-11.9729
嗖	-11.9729
呒	-11.9756
半	-11.9784
势	-11.9784
呰	-11.9784
唜	-11.9784
劌	-11.9839
嗯	-11.9839
奬	-11.9839
吆	-11.9839
嶗	-11.9839
刦	-11.9894
哗	-11.9894
岴	-11.9894
功	-11.995
則	-11.995
凉	-12.0006
坔	-12.0006
僨	-12.0006
嘹	-12.0063
堊	-12.0063
傂	-12.012
召	-12.012
嗅	-12.012
奷	-12.0177
卟	-12.0234
呍	-12.0234
因	-12.0234
垣	-12.0234
圓	-12.0292
冯	-12.0292
営	-12.0292
倪	-12.035
吱	-12.035
妧	-12.035
嘓	-12.0409
咋	-12.0409
埵	-12.0409
嬇	-12.0409
墫	-12.0468
冖	-12.0468
厮	-12.0468
咞	-12.0527
妆	-12.0527
塛	-12.0527
嗕	-12.0586
嫵	-12.0586
刬	-12.0646
咒	-12.0646
咦	-12.0646
囏	-12.0646
壤	-12.0646
娦	-12.0646
嵳	-12.0646
吣	-12.0706
哇	-12.0706
塡	-12.0706
孜	-12.0706
夐	-12.0767
~	-12.0767
冪	-12.0767
叏	-12.0767
妋	-12.0767
恡	-12.0767
恨	-12.0828
俫	-12.0828
劀	-12.0868
埨	-12.0889
咙	-12.0889
唡	-12.0889
執	-12.0889
嗄	-12.0889
嚀	-12.0951
媲	-12.0951
剺	-12.1013
号	-12.1013
呃	-12.1013
围	-12.1013
危	-12.1076
囖	-12.1076
呭	-12.1076
刂	-12.1076
兘	-12.1139
唾	-12.1139
堇	-12.1139
姥	-12.1139
奣	-12.1139
唏	-12.1202
凡	-12.1243
佗	-12.1266
夷	-12.1266
卾	-12.133
垌	-12.133
僬	-12.1394
嗵	-12.1394
嘎	-12.1394
嚾	-12.1394
妭	-12.1394
垀	-12.1459
妁	-12.1459
姃	-12.1459
嚻	-12.1507
凲	-12.1524
剭	-12.1524
園	-12.1524
侟	-12.159
傜	-12.159
凤	-12.159
埊	-12.159
周	-12.159
囂	-12.159
嚉	-12.1656
埯	-12.1656
劁	-12.1656
呌	-12.1656
墲	-12.1723
喭	-12.1723
孹	-12.179
崰	-12.179
嚳	-12.179
憊	-12.179
俐	-12.1844
哸	-12.1858
囨	-12.1858
嘑	-12.1858
妲	-12.1858
媆	-12.1858
唎	-12.1926
嚠	-12.1926
多	-12.1926
傎	-12.1926
冏	-12.1926
刘	-12.1926
壚	-12.1926
壻	-12.1926
哦	-12.1994
剂	-12.1994
刃	-12.2063
凶	-12.2133
塆	-12.2133
企	-12.2173
剹	-12.2273
噐	-12.2273
嗠	-12.2273
唃	-12.2344
准	-12.2415
噦	-12.2415
壟	-12.2415
射	-12.2415
厸	-12.2415
僧	-12.2487
圑	-12.2487
壙	-12.2487
崘	-12.2487
夭	-12.256
几	-12.256
叱	-12.256
叾	-12.256
咰	-12.256
喒	-12.256
怌	-12.2633
敲	-12.2633
啬	-12.2706
悄	-12.278
啋	-12.2855
噌	-12.2855
圮	-12.2855
兖	-12.293
各	-12.293
唗	-12.293
嘌	-12.293
場	-12.293
帽	-12.3006
厠	-12.3006
变	-12.3006
嘫	-12.3006
士	-12.3006
優	-12.3006
僰	-12.3075
吥	-12.3082
好	-12.3082
唊	-12.3082
塯	-12.3082
博	-12.3159
啩	-12.3159
嬠	-12.3159
山	-12.3159
呐	-12.3159
冾	-12.3237
和	-12.3237
嚏	-12.3237
圞	-12.3237
圹	-12.3237
媡	-12.3237
嬧	-12.3237
咭	-12.3315
呎	-12.3315
哳	-12.3394
噑	-12.3394
夋	-12.3394
峦	-12.3394
寧	-12.3473
刏	-12.3473
奙	-12.3473
喁	-12.3473
埭	-12.3473
兌	-12.3553
嘆	-12.3553
坄	-12.3553
塟	-12.3553
嗰	-12.3634
倩	-12.3634
剮	-12.3715
匎	-12.3715
呵	-12.3715
哋	-12.3715
啦	-12.3715
埓	-12.3715
吧	-12.3797
咹	-12.3797
婚	-12.3797
察	-12.3797
寶	-12.3797
塋	-12.388
叶	-12.388
咽	-12.388
唤	-12.388
吽	-12.388
全	-12.3963
刳	-12.3963
圣	-12.3963
垻	-12.3963
墒	-12.3963
嫤	-12.3963
廕	-12.3963
圿	-12.4047
堡	-12.4047
呯	-12.4132
啱	-12.4132
垑	-12.4132
堤	-12.4132
兕	-12.4216
燀	-12.4217
唺	-12.4217
堁	-12.4217
媊	-12.4217
孙	-12.4217
嶆	-12.4217
再	-12.4303
剋	-12.4303
咊	-12.4303
喜	-12.4303
砭	-12.4303
偬	-12.439
嘒	-12.439
劾	-12.439
噜	-12.439
垡	-12.439
利	-12.4478
吕	-12.4478
吼	-12.4478
呕	-12.4478
哫	-12.4478
惣	-12.4478
冑	-12.4483
努	-12.4567
囍	-12.4567
坦	-12.4567
壼	-12.4567
撏	-12.4567
傼	-12.4656
呗	-12.4656
哂	-12.4656
嚶	-12.4656
図	-12.4656
圴	-12.4656
垗	-12.4656
愿	-12.4656
咎	-12.4746
幆	-12.4746
嫾	-12.4746
堦	-12.4837
受	-12.4837
哾	-12.4837
坭	-12.4837
囒	-12.4929
圈	-12.4929
叞	-12.4929
哟	-12.4929
儾	-12.5012
哉	-12.5021
喤	-12.5021
妈	-12.5021
垵	-12.5021
儺	-12.5115
團	-12.5115
坾	-12.5115
嘥	-12.5115
匏	-12.5115
媀	-12.5209
圕	-12.5209
墱	-12.5209
姟	-12.5209
呔	-12.5209
嚔	-12.5209
埘	-12.5209
嫜	-12.5209
导	-12.5209
岛	-12.5209
墄	-12.5209
仲	-12.5304
喘	-12.5304
噒	-12.5304
媷	-12.5304
匿	-12.5304
妵	-12.54
劗	-12.54
喈	-12.54
喦	-12.54
妠	-12.54
否	-12.54
哺	-12.54
嚓	-12.54
儬	-12.5496
効	-12.5497
崶	-12.5497
哞	-12.5497
嘏	-12.5497
噕	-12.5497
帓	-12.5497
堵	-12.5497
刖	-12.5596
剸	-12.5596
叕	-12.5596
吂	-12.5596
婬	-12.5596
呪	-12.5596
墁	-12.5596
儽	-12.5695
婋	-12.5695
咸	-12.5795
卦	-12.5795
唧	-12.5795
啫	-12.5795
巓	-12.5795
呴	-12.5895
匯	-12.5896
卲	-12.5896
咑	-12.5896
圃	-12.5896
妌	-12.5896
屃	-12.5998
刿	-12.5998
啎	-12.5998
圫	-12.5998
墩	-12.5998
傑	-12.6101
儮	-12.6101
升	-12.6101
吺	-12.6101
嗛	-12.6101
嘀	-12.6101
埩	-12.6101
刚	-12.6202
慺	-12.6205
凱	-12.6205
圼	-12.6205
婺	-12.6205
叹	-12.631
圖	-12.631
哬	-12.631
壏	-12.631
寏	-12.631
帥	-12.631
兲	-12.6416
嗞	-12.6416
垠	-12.6416
夌	-12.6416
嫔	-12.6416
俷	-12.6416
吿	-12.6416
媟	-12.6416
媢	-12.6416
孖	-12.6416
峐	-12.6416
峨	-12.6416
僝	-12.6524
僩	-12.6524
内	-12.6524
劒	-12.6524
厪	-12.6524
喯	-12.6524
坊	-12.6524
匐	-12.6524
妽	-12.6633
厥	-12.6633
囑	-12.6633
姛	-12.6633
孌	-12.6633
尛	-12.6633
劘	-12.6659
冋	-12.6732
堬	-12.6743
嗘	-12.6854
@	-12.6854
嘠	-12.6854
噰	-12.6854
價	-12.6854
啂	-12.6854
噀	-12.6854
嚤	-12.6854
埬	-12.6854
堾	-12.6854
嬚	-12.6854
尲	-12.6854
嚗	-12.6854
兊	-12.6966
剾	-12.6966
墌	-12.6966
墾	-12.6966
嚍	-12.6966
型	-12.6966
夦	-12.6966
悥	-12.6966
匔	-12.6966
囶	-12.708
岊	-12.708
嶻	-12.708
峠	-12.708
刀	-12.7194
厲	-12.7195
働	-12.7195
唋	-12.7195
唝	-12.7195
噧	-12.7195
台	-12.7311
噃	-12.7311
媧	-12.7311
列	-12.7311
剝	-12.7311
嘖	-12.7311
対	-12.7311
廃	-12.7311
嗈	-12.7311
岣	-12.7311
夔	-12.7429
原	-12.7429
媌	-12.7429
偅	-12.7548
囘	-12.7548
塎	-12.7548
墳	-12.7548
墺	-12.7548
搊	-12.7548
哶	-12.7548
墅	-12.7548
勎	-12.7668
咫	-12.7668
哀	-12.7668
唳	-12.7668
娥	-12.7668
媤	-12.7668
峭	-12.7668
嗜	-12.779
咯	-12.779
均	-12.779
孔	-12.779
匤	-12.7913
唵	-12.7913
啔	-12.7913
噁	-12.7913
堀	-12.7913
堨	-12.7913
夂	-12.7913
夛	-12.7913
奟	-12.7913
嫀	-12.7913
尪	-12.7913
就	-12.7913
帜	-12.7913
抛	-12.7913
劻	-12.8038
揠	-12.8038
咺	-12.8038
唙	-12.8038
域	-12.8038
孊	-12.8038
强	-12.8039
喚	-12.8165
尰	-12.8165
吋	-12.8165
唖	-12.8165
嘾	-12.8165
坌	-12.8165
夏	-12.8165
弎	-12.8165
悈	-12.8165
姣	-12.8293
崇	-12.8293
司	-12.8293
嚩	-12.8423
塮	-12.8423
姶	-12.8423
弋	-12.8423
卬	-12.8423
埙	-12.8423
婿	-12.8423
嫌	-12.8423
叡	-12.8555
喹	-12.8555
坬	-12.8555
塀	-12.8555
婈	-12.8555
孒	-12.8555
啼	-12.8555
吚	-12.8688
刭	-12.8688
嘡	-12.8688
嵈	-12.8688
嗤	-12.8688
噊	-12.8688
囅	-12.8688
埈	-12.8688
夨	-12.8688
嫮	-12.8688
峬	-12.8688
帢	-12.8688
府	-12.8688
勍	-12.8688
巺	-12.8688
嗾	-12.8823
刎	-12.8823
劰	-12.8823
噺	-12.8823
垄	-12.8823
姎	-12.8823
怬	-12.8823
垃	-12.8823
峉	-12.8823
噣	-12.896
堿	-12.896
妛	-12.896
兞	-12.896
句	-12.896
埥	-12.896
塳	-12.896
妊	-12.896
婯	-12.896
庩	-12.896
廡	-12.896
兏	-12.9099
厔	-12.9099
呆	-12.9099
唸	-12.9099
喆	-12.9099
喏	-12.9099
堅	-12.9099
塇	-12.9099
嬙	-12.9099
愬	-12.9099
帛	-12.9099
徘	-12.924
劓	-12.924
吃	-12.924
哑	-12.924
嗐	-12.924
囟	-12.924
堂	-12.924
墨	-12.924
嘙	-12.9383
嚚	-12.9383
囙	-12.9383
声	-12.9383
巠	-12.9383
怛	-12.9383
卶	-12.9528
嗶	-12.9528
堼	-12.9528
妉	-12.9528
姐	-12.9528
嵥	-12.9528
彞	-12.9528
厞	-12.9528
厦	-12.9528
姏	-12.9528
姲	-12.9528
毻	-12.9673
嘿	-12.9675
嚇	-12.9675
墑	-12.9675
壣	-12.9675
吅	-12.9675
嗝	-12.9675
墈	-12.9675
嫽	-12.9675
崂	-12.9675
匦	-12.9675
媱	-12.9675
嚷	-12.9824
埴	-12.9824
噹	-12.9824
垮	-12.9824
堯	-12.9824
墹	-12.9824
壛	-12.9824
夊	-12.9824
娓	-12.9824
娕	-12.9824
後	-12.9824
渵	-12.9824
匜	-12.9824
傓	-12.9953
勌	-12.9976
娅	-12.9976
恜	-12.9976
唚	-12.9976
廳	-12.9976
愥	-12.9976
励	-12.9976
娵	-12.9976
午	-13.0129
卙	-13.0129
岡	-13.0129
哈	-13.0129
嚮	-13.0129
坧	-13.0129
堷	-13.0129
塥	-13.0129
塨	-13.0129
央	-13.0129
媠	-13.0129
慐	-13.0129
攓	-13.0129
剀	-13.0129
哴	-13.0129
唐	-13.0129
夠	-13.0129
婞	-13.0286
勊	-13.0286
圪	-13.0286
坷	-13.0286
娸	-13.0286
懍	-13.0286
摚	-13.0286
暩	-13.0286
柍	-13.0286
厖	-13.0286
囷	-13.0286
姊	-13.0286
屖	-13.0286
剎	-13.0444
坒	-13.0444
堆	-13.0444
塩	-13.0444
妷	-13.0444
媪	-13.0444
孷	-13.0444
岀	-13.0444
崝	-13.0444
况	-13.0444
噢	-13.0444
囈	-13.0444
廲	-13.0606
叿	-13.0606
喰	-13.0606
委	-13.0606
尡	-13.0606
恲	-13.0606
抎	-13.0606
嶞	-13.0606
厱	-13.0606
尯	-13.077
嬒	-13.077
惺	-13.077
卋	-13.077
厴	-13.077
塔	-13.077
夳	-13.077
寅	-13.077
寽	-13.077
冟	-13.0927
峳	-13.0936
嬘	-13.0936
儞	-13.0936
兵	-13.0936
冒	-13.0936
嘨	-13.0936
嚫	-13.0936
塙	-13.0936
夶	-13.0936
婥	-13.0936
彟	-13.0936
噠	-13.0936
圚	-13.0936
彸	-13.0936
匠	-13.0936
嫷	-13.0936
匚	-13.0936
剃	-13.1106
卒	-13.1106
唶	-13.1106
嘚	-13.1106
囡	-13.1106
堓	-13.1106
嬬	-13.1106
定	-13.1106
屔	-13.1106
巘	-13.1106
氫	-13.1106
瀁	-13.1106
凕	-13.1106
墮	-13.1106
媶	-13.1106
寞	-13.1106
弨	-13.1106
俊	-13.1265
六	-13.1278
噇	-13.1278
垈	-13.1278
壠	-13.1278
壥	-13.1278
奕	-13.1278
徇	-13.1278
备	-13.1278
勄	-13.1278
岿	-13.1278
峲	-13.1278
妮	-13.1278
剒	-13.1454
华	-13.1454
呖	-13.1454
嚝	-13.1454
囆	-13.1454
坫	-13.1454
岖	-13.1454
庉	-13.1454
埇	-13.1454
峒	-13.1454
惒	-13.1454
敎	-13.1454
侁	-13.1618
侒	-13.1632
夵	-13.1632
嫘	-13.1632
屛	-13.1632
懨	-13.1632
剘	-13.1632
喢	-13.1632
垨	-13.1632
埖	-13.1632
墍	-13.1632
媓	-13.1632
嫶	-13.1632
嫻	-13.1632
怾	-13.1632
悢	-13.1632
慏	-13.1632
匘	-13.1632
岽	-13.1632
匫	-13.1632
匭	-13.1809
唍	-13.1814
弻	-13.1814
兣	-13.1814
厘	-13.1814
堔	-13.1814
姀	-13.1814
姌	-13.1814
姯	-13.1814
嫚	-13.1814
廓	-13.1814
怲	-13.1814
拍	-13.1814
掫	-13.1814
啘	-13.1814
從	-13.1814
夙	-13.1814
厡	-13.1999
呀	-13.1999
唼	-13.1999
嗪	-13.1999
圉	-13.1999
孟	-13.1999
廂	-13.1999
匕	-13.1999
巌	-13.1999
兪	-13.2188
態	-13.2188
傺	-13.2188
剴	-13.2188
哆	-13.2188
姸	-13.2188
娘	-13.2188
嬷	-13.2188
庼	-13.2188
徏	-13.2188
圲	-13.2188
堝	-13.2188
奨	-13.2188
婡	-13.2188
怐	-13.2188
嫼	-13.2188
伙	-13.238
咆	-13.238
噽	-13.238
嚌	-13.238
团	-13.238
垟	-13.238
垼	-13.238
娄	-13.238
娊	-13.238
廬	-13.238
延	-13.238
埅	-13.238
掎	-13.238
儊	-13.2576
嘁	-13.2576
惴	-13.2576
勃	-13.2576
壑	-13.2576
嬔	-13.2576
孴	-13.2576
崸	-13.2576
幑	-13.2576
擿	-13.2576
巐	-13.2576
凣	-13.2576
墪	-13.2776
嫺	-13.2776
傐	-13.2776
冼	-13.2776
叐	-13.2776
啺	-13.2776
喔	-13.2776
埝	-13.2776
夝	-13.2776
妡	-13.2776
妦	-13.2776
嫂	-13.2776
嫿	-13.2776
嬛	-13.2776
孝	-13.2776
幔	-13.2776
狼	-13.2776
埂	-13.2776
噯	-13.2776
嘐	-13.298
嚐	-13.298
堹	-13.298
冰	-13.298
却	-13.298
埣	-13.298
媎	-13.298
嫄	-13.298
孮	-13.298
官	-13.298
帑	-13.298
怗	-13.298
憈	-13.298
坋	-13.298
峀	-13.3189
悚	-13.3189
刔	-13.3189
嘴	-13.3189
囸	-13.3189
圳	-13.3189
圶	-13.3189
堍	-13.3189
屵	-13.3189
弸	-13.3189
慾	-13.3189
揵	-13.3189
撋	-13.3189
曗	-13.3189
哿	-13.3401
囌	-13.3401
十	-13.3401
吒	-13.3401
嘞	-13.3401
坮	-13.3401
墤	-13.3401
屦	-13.3401
忈	-13.3401
摙	-13.3401
擺	-13.3401
塗	-13.3401
壶	-13.3401
夺	-13.3401
岠	-13.3401
搞	-13.3401
卄	-13.3401
劔	-13.3619
悰	-13.3619
廘	-13.3619
兦	-13.3619
匙	-13.3619
吶	-13.3619
嚯	-13.3619
囤	-13.3619
圯	-13.3619
塊	-13.3619
岕	-13.3619
嶢	-13.3619
忮	-13.3619
慕	-13.3619
朵	-13.3619
埉	-13.3619
墆	-13.3619
峊	-13.3619
帐	-13.3619
彲	-13.3619
妤	-13.3619
咏	-13.3841
咪	-13.3841
單	-13.3841
喻	-13.3841
垭	-13.3841
堢	-13.3841
将	-13.3841
摶	-13.3841
擉	-13.3841
攂	-13.3841
坏	-13.3841
尢	-13.3841
咘	-13.3841
宑	-13.4068
啍	-13.4068
刹	-13.4068
呧	-13.4068
嚹	-13.4068
垸	-13.4068
堘	-13.4068
婩	-13.4068
嬨	-13.4068
尨	-13.4068
屮	-13.4068
嶖	-13.4068
嶺	-13.4068
呹	-13.4068
啖	-13.4068
峴	-13.4068
勅	-13.4068
壵	-13.4301
圍	-13.4301
征	-13.4301
吟	-13.4301
哩	-13.4301
喼	-13.4301
囝	-13.4301
塍	-13.4301
岫	-13.4301
峡	-13.4301
崭	-13.4301
慔	-13.4301
戞	-13.4301
挲	-13.4301
墧	-13.4301
头	-13.4301
删	-13.4539
區	-13.4539
剡	-13.4539
去	-13.4539
叓	-13.4539
嚺	-13.4539
圐	-13.4539
基	-13.4539
堥	-13.4539
寲	-13.4539
尹	-13.4539
怶	-13.4539
檵	-13.4539
妨	-13.4539
峧	-13.4539
屓	-13.4783
僅	-13.4783
巷	-13.4783
匬	-13.4783
噫	-13.4783
圬	-13.4783
埍	-13.4783
堟	-13.4783
壸	-13.4783
奤	-13.4783
娝	-13.4783
嫱	-13.4783
愛	-13.4783
嗃	-13.4783
囥	-13.4783
墏	-13.4783
寪	-13.4783
外	-13.4783
僯	-13.5033
噴	-13.5033
凨	-13.5033
咿	-13.5033
唟	-13.5033
嗷	-13.5033
囕	-13.5033
圻	-13.5033
垱	-13.5033
塐	-13.5033
姿	-13.5033
娎	-13.5033
寳	-13.5033
峚	-13.5033
凘	-13.5033
喨	-13.5033
愑	-13.5033
少	-13.5033
劤	-13.5289
凈	-13.5289
嘗	-13.5289
圝	-13.5289
尥	-13.5289
咼	-13.5289
堐	-13.5289
堮	-13.5289
壈	-13.5289
巙	-13.5289
巻	-13.5289
忣	-13.5289
惜	-13.5289
愓	-13.5289
掬	-13.5289
摠	-13.5289
摵	-13.5289
吝	-13.5289
哔	-13.5289
勉	-13.5552
塃	-13.5552
娹	-13.5552
嬹	-13.5552
憻	-13.5552
历	-13.5552
呺	-13.5552
啨	-13.5552
器	-13.5552
坅	-13.5552
垉	-13.5552
塚	-13.5552
复	-13.5552
妇	-13.5552
娨	-13.5552
娰	-13.5552
嫝	-13.5552
嬈	-13.5552
尒	-13.5552
尵	-13.5552
屇	-13.5552
嶘	-13.5552
当	-13.5552
徨	-13.5552
曾	-13.5552
噘	-13.5552
囮	-13.5552
圧	-13.5552
墉	-13.5552
掐	-13.5552
庡	-13.5823
壷	-13.5823
廖	-13.5823
垙	-13.5823
堚	-13.5823
壬	-13.5823
姼	-13.5823
娍	-13.5823
婑	-13.5823
嬄	-13.5823
尘	-13.5823
廁	-13.5823
恇	-13.5823
愍	-13.5823
捰	-13.5823
杞	-13.5823
椸	-13.5823
漒	-13.5823
牓	-13.5823
哹	-13.5823
加	-13.5823
拵	-13.5823
廔	-13.61
劏	-13.61
劣	-13.61
哒	-13.61
唢	-13.61
啵	-13.61
啻	-13.61
坁	-13.61
塁	-13.61
姬	-13.61
姻	-13.61
娱	-13.61
婴	-13.61
崢	-13.61
嵘	-13.61
归	-13.61
戇	-13.61
摼	-13.61
嗦	-13.61
巋	-13.6386
尦	-13.6386
卣	-13.6386
娫	-13.6386
倦	-13.6386
呋	-13.6386
喠	-13.6386
噬	-13.6386
嚪	-13.6386
坼	-13.6386
垅	-13.6386
埒	-13.6386
墽	-13.6386
夑	-13.6386
夬	-13.6386
婠	-13.6386
寷	-13.6386
岐	-13.6386
峓	-13.6386
崣	-13.6386
巏	-13.6386
巗	-13.6386
彼	-13.6386
拶	-13.6386
搝	-13.6386
擐	-13.6386
攣	-13.6386
報	-13.6386
娷	-13.6386
嫭	-13.6386
嶭	-13.6386
怷	-13.6386
悇	-13.6386
匡	-13.6386
匨	-13.6386
唰	-13.668
妣	-13.668
巁	-13.668
幢	-13.668
悙	-13.668
傭	-13.668
勛	-13.668
善	-13.668
嘊	-13.668
墯	-13.668
夤	-13.668
娋	-13.668
婛	-13.668
嫕	-13.668
寇	-13.668
屩	-13.668
峯	-13.668
嶼	-13.668
巡	-13.668
巨	-13.668
帾	-13.668
庠	-13.668
彴	-13.668
彵	-13.668
勐	-13.6983
戆	-13.6983
啛	-13.6983
嫴	-13.6983
劽	-13.6983
卓	-13.6983
嚡	-13.6983
抌	-13.6983
僶	-13.6983
剦	-13.6983
吀	-13.6983
咾	-13.6983
噉	-13.6983
噚	-13.6983
垞	-13.6983
妒	-13.6983
姗	-13.6983
婗	-13.6983
婝	-13.6983
婭	-13.6983
嫡	-13.6983
嬴	-13.6983
季	-13.6983
寔	-13.6983
崙	-13.6983
巑	-13.6983
恦	-13.6983
悫	-13.6983
旄	-13.6983
枊	-13.6983
吤	-13.6983
哵	-13.6983
啢	-13.6983
嬅	-13.6983
御	-13.6983
嶇	-13.6983
卸	-13.7296
婘	-13.7296
忊	-13.7296
劼	-13.7296
勋	-13.7296
卥	-13.7296
咜	-13.7296
啙	-13.7296
圏	-13.7296
圛	-13.7296
坐	-13.7296
埮	-13.7296
墶	-13.7296
売	-13.7296
夒	-13.7296
奓	-13.7296
奩	-13.7296
妸	-13.7296
姨	-13.7296
婳	-13.7296
宄	-13.7296
宓	-13.7296
宖	-13.7296
屨	-13.7296
崫	-13.7296
帨	-13.7296
庛	-13.7296
彐	-13.7296
忍	-13.7296
念	-13.7296
扆	-13.7296
找	-13.7296
搉	-13.7296
攑	-13.7296
敵	-13.7296
栖	-13.7296
啊	-13.7296
姳	-13.7296
恃	-13.7296
愾	-13.7296
徟	-13.7296
愡	-13.7296
庳	-13.7618
彈	-13.7618
圁	-13.7618
娶	-13.7618
忎	-13.7618
刓	-13.7618
劋	-13.7618
匪	-13.7618
卧	-13.7618
叫	-13.7618
啉	-13.7618
嘘	-13.7618
圽	-13.7618
垳	-13.7618
垶	-13.7618
壃	-13.7618
夀	-13.7618
奎	-13.7618
奢	-13.7618
娜	-13.7618
嬕	-13.7618
屳	-13.7618
峽	-13.7618
嶱	-13.7618
忘	-13.7618
怡	-13.7618
捾	-13.7618
摧	-13.7618
旕	-13.7618
杓	-13.7618
勏	-13.7618
塕	-13.7618
媰	-13.7618
封	-13.7618
恎	-13.7618
寫	-13.7618
塵	-13.7618
契	-13.7952
婙	-13.7952
凜	-13.7952
唲	-13.7952
噖	-13.7952
噞	-13.7952
嚬	-13.7952
囲	-13.7952
圸	-13.7952
墐	-13.7952
壺	-13.7952
妟	-13.7952
嵞	-13.7952
嶹	-13.7952
庌	-13.7952
怺	-13.7952
旃	-13.7952
昩	-13.7952
勁	-13.7952
叒	-13.7952
喪	-13.7952
嘍	-13.7952
堉	-13.7952
娂	-13.7952
尫	-13.7952
峋	-13.7952
弧	-13.7952
愇	-13.7952
撾	-13.7952
儰	-13.7952
啡	-13.7952
嗫	-13.7952
戂	-13.8297
惀	-13.8297
噵	-13.8297
垽	-13.8297
壿	-13.8297
奐	-13.8297
娔	-13.8297
娪	-13.8297
嫫	-13.8297
嬆	-13.8297
屟	-13.8297
屿	-13.8297
弉	-13.8297
彣	-13.8297
徕	-13.8297
怚	-13.8297
总	-13.8297
慖	-13.8297
慦	-13.8297
戝	-13.8297
挅	-13.8297
斎	-13.8297
旛	-13.8297
昷	-13.8297
曯	-13.8297
溌	-13.8297
溤	-13.8297
灁	-13.8297
忯	-13.8297
呞	-13.8297
廱	-13.8654
尴	-13.8654
匌	-13.8654
卌	-13.8654
唨	-13.8654
噓	-13.8654
埃	-13.8654
媒	-13.8654
嫢	-13.8654
嫯	-13.8654
嬺	-13.8654
孕	-13.8654
寭	-13.8654
岷	-13.8654
峹	-13.8654
崷	-13.8654
巜	-13.8654
幈	-13.8654
庑	-13.8654
悉	-13.8654
抢	-13.8654
暅	-13.8654
曇	-13.8654
朓	-13.8654
框	-13.8654
母	-13.8654
滞	-13.8654
劦	-13.8654
嘣	-13.8654
庆	-13.8654
怋	-13.8654
惚	-13.8654
憤	-13.8654
塽	-13.8654
勑	-13.9024
匢	-13.9024
拉	-13.9024
刵	-13.9024
嚘	-13.9024
埜	-13.9024
埸	-13.9024
失	-13.9024
威	-13.9024
婵	-13.9024
媹	-13.9024
屍	-13.9024
崈	-13.9024
巊	-13.9024
幡	-13.9024
庤	-13.9024
弣	-13.9024
弹	-13.9024
忛	-13.9024
怤	-13.9024
悛	-13.9024
抺	-13.9024
攚	-13.9024
敹	-13.9024
曩	-13.9024
曫	-13.9024
朩	-13.9024
的	-13.9024
劍	-13.9024
哪	-13.9024
夕	-13.9024
媗	-13.9024
嬥	-13.9024
嬭	-13.9024
宎	-13.9024
尟	-13.9024
扱	-13.9024
抵	-13.9024
揂	-13.9024
旀	-13.9024
枌	-13.9024
悅	-13.9024
斳	-13.9024
僱	-13.9408
岼	-13.9409
喐	-13.9409
尕	-13.9409
幁	-13.9409
傚	-13.9409
呷	-13.9409
哏	-13.9409
噥	-13.9409
囄	-13.9409
圄	-13.9409
壝	-13.9409
夈	-13.9409
天	-13.9409
姇	-13.9409
婮	-13.9409
婹	-13.9409
媑	-13.9409
媯	-13.9409
嫍	-13.9409
學	-13.9409
尀	-13.9409
尻	-13.9409
岝	-13.9409
峮	-13.9409
嶪	-13.9409
帤	-13.9409
徜	-13.9409
戺	-13.9409
捚	-13.9409
敖	-13.9409
昺	-13.9409
朇	-13.9409
熣	-13.9409
傯	-13.9409
勂	-13.9409
姍	-13.9409
扭	-13.9409
拒	-13.9409
凰	-13.9409
勖	-13.9409
潼	-13.9409
勘	-13.9809
墵	-13.9809
军	-13.9809
嚵	-13.9809
埾	-13.9809
奾	-13.9809
妬	-13.9809
婍	-13.9809
嬎	-13.9809
宣	-13.9809
嵌	-13.9809
嵒	-13.9809
庢	-13.9809
堺	-13.9809
墎	-13.9809
壁	-13.9809
壐	-13.9809
壔	-13.9809
奡	-13.9809
寿	-13.9809
屻	-13.9809
嶝	-13.9809
巪	-13.9809
弢	-13.9809
勆	-13.9809
啞	-13.9809
兡	-14.4969
媵	-14.5767
慨	-14.6536
唇	-14.737
倯	-14.8272
庘	-17.752
尊	-17.7521
寰	-17.7522
幉	-17.7523
猊	-17.7524
杻	-17.7525
塘	-17.7526
彠	-17.7527
圗	-17.7528
樒	-17.7529
劈	-17.753
嵙	-17.7531
咍	-17.7532
冢	-17.7533
對	-17.7534
愶	-17.7535
惮	-17.7536
皠	-17.7537
啓	-17.7538
椷	-17.7539
堧	-17.754
园	-17.7541
傛	-17.7542
斴	-17.7543
嘵	-17.7544
協	-17.7545
嬳	-17.7546
充	-17.7547
屆	-17.7548
屯	-17.7549
刼	-17.755
孧	-17.7551
喎	-17.7552
幊	-17.7553
喟	-17.7554
將	-17.7555
开	-17.7556
冬	-17.7557
槐	-17.7558
剿	-17.7559
塉	-17.756
曏	-17.7561
剽	-17.7562
嚃	-17.7563
恧	-17.7564
国	-17.7565
傽	-17.7566
囇	-17.7567
僴	-17.7568
堪	-17.7568
